{
  "version": "1.0",
  "truncation": null,
  "padding": null,
  "added_tokens": [
    {
      "id": 0,
      "content": "<s>",
      "single_word": false,
      "lstrip": false,
      "rstrip": false,
      "normalized": false,
      "special": true
    },
    {
      "id": 1,
      "content": "<pad>",
      "single_word": false,
      "lstrip": false,
      "rstrip": false,
      "normalized": false,
      "special": true
    },
    {
      "id": 2,
      "content": "</s>",
      "single_word": false,
      "lstrip": false,
      "rstrip": false,
      "normalized": false,
      "special": true
    },
    {
      "id": 3,
      "content": "<mask>",
      "single_word": false,
      "lstrip": false,
      "rstrip": false,
      "normalized": false,
      "special": true
    },
    {
      "id": 4,
      "content": "<newline>",
      "single_word": false,
      "lstrip": false,
      "rstrip": false,
      "normalized": false,
      "special": true
    },
    {
      "id": 5,
      "content": "<unk>",
      "single_word": false,
      "lstrip": false,
      "rstrip": false,
      "normalized": false,
      "special": true
    }
  ],
  "normalizer": {
    "type": "Sequence",
    "normalizers": [
      {
        "type": "NFKD"
      },
      {
        "type": "Replace",
        "pattern": {
          "Regex": "\\\\{2,}"
        },
        "content": "\\"
      },
      {
        "type": "Replace",
        "pattern": {
          "String": "\n"
        },
        "content": "\\n"
      },
      {
        "type": "Replace",
        "pattern": {
          "String": "\\n"
        },
        "content": "<newline>"
      },
      {
        "type": "BertNormalizer",
        "clean_text": true,
        "handle_chinese_chars": false,
        "strip_accents": false,
        "lowercase": false
      },
      {
        "type": "Replace",
        "pattern": {
          "Regex": "\\s{2,}"
        },
        "content": " "
      },
      {
        "type": "Strip",
        "strip_left": true,
        "strip_right": true
      }
    ]
  },
  "pre_tokenizer": {
    "type": "ByteLevel",
    "add_prefix_space": true,
    "trim_offsets": true,
    "use_regex": true
  },
  "post_processor": {
    "type": "TemplateProcessing",
    "single": [
      {
        "SpecialToken": {
          "id": "<s>",
          "type_id": 0
        }
      },
      {
        "Sequence": {
          "id": "A",
          "type_id": 0
        }
      },
      {
        "SpecialToken": {
          "id": "</s>",
          "type_id": 0
        }
      }
    ],
    "pair": [
      {
        "SpecialToken": {
          "id": "<s>",
          "type_id": 0
        }
      },
      {
        "Sequence": {
          "id": "A",
          "type_id": 0
        }
      },
      {
        "SpecialToken": {
          "id": "</s>",
          "type_id": 0
        }
      },
      {
        "SpecialToken": {
          "id": "<s>",
          "type_id": 0
        }
      },
      {
        "Sequence": {
          "id": "B",
          "type_id": 0
        }
      },
      {
        "SpecialToken": {
          "id": "</s>",
          "type_id": 0
        }
      }
    ],
    "special_tokens": {
      "</s>": {
        "id": "</s>",
        "ids": [
          2
        ],
        "tokens": [
          "</s>"
        ]
      },
      "<s>": {
        "id": "<s>",
        "ids": [
          0
        ],
        "tokens": [
          "<s>"
        ]
      }
    }
  },
  "decoder": null,
  "model": {
    "type": "BPE",
    "dropout": null,
    "unk_token": "<unk>",
    "continuing_subword_prefix": null,
    "end_of_word_suffix": null,
    "fuse_unk": false,
    "byte_fallback": false,
    "ignore_merges": false,
    "vocab": {
      "<s>": 0,
      "<pad>": 1,
      "</s>": 2,
      "<mask>": 3,
      "<newline>": 4,
      "<unk>": 5,
      "!": 6,
      "\"": 7,
      "#": 8,
      "$": 9,
      "%": 10,
      "&": 11,
      "'": 12,
      "(": 13,
      ")": 14,
      "*": 15,
      "+": 16,
      ",": 17,
      "-": 18,
      ".": 19,
      "/": 20,
      "0": 21,
      "1": 22,
      "2": 23,
      "3": 24,
      "4": 25,
      "5": 26,
      "6": 27,
      "7": 28,
      "8": 29,
      "9": 30,
      ":": 31,
      ";": 32,
      "<": 33,
      "=": 34,
      ">": 35,
      "?": 36,
      "@": 37,
      "A": 38,
      "B": 39,
      "C": 40,
      "D": 41,
      "E": 42,
      "F": 43,
      "G": 44,
      "H": 45,
      "I": 46,
      "J": 47,
      "K": 48,
      "L": 49,
      "M": 50,
      "N": 51,
      "O": 52,
      "P": 53,
      "Q": 54,
      "R": 55,
      "S": 56,
      "T": 57,
      "U": 58,
      "V": 59,
      "W": 60,
      "X": 61,
      "Y": 62,
      "Z": 63,
      "[": 64,
      "\\": 65,
      "]": 66,
      "^": 67,
      "_": 68,
      "`": 69,
      "a": 70,
      "b": 71,
      "c": 72,
      "d": 73,
      "e": 74,
      "f": 75,
      "g": 76,
      "h": 77,
      "i": 78,
      "j": 79,
      "k": 80,
      "l": 81,
      "m": 82,
      "n": 83,
      "o": 84,
      "p": 85,
      "q": 86,
      "r": 87,
      "s": 88,
      "t": 89,
      "u": 90,
      "v": 91,
      "w": 92,
      "x": 93,
      "y": 94,
      "z": 95,
      "{": 96,
      "|": 97,
      "}": 98,
      "~": 99,
      "¡": 100,
      "¢": 101,
      "£": 102,
      "¤": 103,
      "¥": 104,
      "¦": 105,
      "§": 106,
      "¨": 107,
      "©": 108,
      "ª": 109,
      "«": 110,
      "¬": 111,
      "®": 112,
      "¯": 113,
      "°": 114,
      "±": 115,
      "²": 116,
      "³": 117,
      "´": 118,
      "µ": 119,
      "¶": 120,
      "·": 121,
      "¸": 122,
      "¹": 123,
      "º": 124,
      "»": 125,
      "¼": 126,
      "½": 127,
      "¾": 128,
      "¿": 129,
      "À": 130,
      "Á": 131,
      "Â": 132,
      "Ã": 133,
      "Ä": 134,
      "Å": 135,
      "Æ": 136,
      "Ç": 137,
      "È": 138,
      "É": 139,
      "Ê": 140,
      "Ë": 141,
      "Ì": 142,
      "Í": 143,
      "Î": 144,
      "Ï": 145,
      "Ð": 146,
      "Ñ": 147,
      "Ò": 148,
      "Ó": 149,
      "Ô": 150,
      "Õ": 151,
      "Ö": 152,
      "×": 153,
      "Ø": 154,
      "Ù": 155,
      "Ú": 156,
      "Û": 157,
      "Ü": 158,
      "Ý": 159,
      "Þ": 160,
      "ß": 161,
      "à": 162,
      "á": 163,
      "â": 164,
      "ã": 165,
      "ä": 166,
      "å": 167,
      "æ": 168,
      "ç": 169,
      "è": 170,
      "é": 171,
      "ê": 172,
      "ë": 173,
      "ì": 174,
      "í": 175,
      "î": 176,
      "ï": 177,
      "ð": 178,
      "ñ": 179,
      "ò": 180,
      "ó": 181,
      "ô": 182,
      "õ": 183,
      "ö": 184,
      "÷": 185,
      "ø": 186,
      "ù": 187,
      "ú": 188,
      "û": 189,
      "ü": 190,
      "ý": 191,
      "þ": 192,
      "ÿ": 193,
      "Ā": 194,
      "ā": 195,
      "Ă": 196,
      "ă": 197,
      "Ą": 198,
      "ą": 199,
      "Ć": 200,
      "ć": 201,
      "Ĉ": 202,
      "ĉ": 203,
      "Ċ": 204,
      "ċ": 205,
      "Č": 206,
      "č": 207,
      "Ď": 208,
      "ď": 209,
      "Đ": 210,
      "đ": 211,
      "Ē": 212,
      "ē": 213,
      "Ĕ": 214,
      "ĕ": 215,
      "Ė": 216,
      "ė": 217,
      "Ę": 218,
      "ę": 219,
      "Ě": 220,
      "ě": 221,
      "Ĝ": 222,
      "ĝ": 223,
      "Ğ": 224,
      "ğ": 225,
      "Ġ": 226,
      "ġ": 227,
      "Ģ": 228,
      "ģ": 229,
      "Ĥ": 230,
      "ĥ": 231,
      "Ħ": 232,
      "ħ": 233,
      "Ĩ": 234,
      "ĩ": 235,
      "Ī": 236,
      "ī": 237,
      "Ĭ": 238,
      "ĭ": 239,
      "Į": 240,
      "į": 241,
      "İ": 242,
      "ı": 243,
      "Ĳ": 244,
      "ĳ": 245,
      "Ĵ": 246,
      "ĵ": 247,
      "Ķ": 248,
      "ķ": 249,
      "ĸ": 250,
      "Ĺ": 251,
      "ĺ": 252,
      "Ļ": 253,
      "ļ": 254,
      "Ľ": 255,
      "ľ": 256,
      "Ŀ": 257,
      "ŀ": 258,
      "Ł": 259,
      "ł": 260,
      "Ń": 261,
      "en": 262,
      "Ġa": 263,
      "li": 264,
      "Ġt": 265,
      "es": 266,
      "on": 267,
      "Ġd": 268,
      "he": 269,
      "re": 270,
      "ew": 271,
      "lin": 272,
      "line": 273,
      "new": 274,
      "newline": 275,
      "Ġs": 276,
      "te": 277,
      "an": 278,
      "ti": 279,
      "Ġi": 280,
      "or": 281,
      "ch": 282,
      "le": 283,
      "Ġp": 284,
      "ou": 285,
      "ar": 286,
      "nd": 287,
      "Ġc": 288,
      "Ġw": 289,
      "Ġthe": 290,
      "Ġf": 291,
      "ng": 292,
      "is": 293,
      "Ġm": 294,
      "Ġb": 295,
      "al": 296,
      "Ġe": 297,
      "Ġde": 298,
      "Ìģ": 299,
      "it": 300,
      "Ġo": 301,
      "as": 302,
      "ve": 303,
      "ie": 304,
      "ĠS": 305,
      "Ġin": 306,
      "om": 307,
      "at": 308,
      "Ġl": 309,
      "ri": 310,
      "ra": 311,
      "tion": 312,
      "ent": 313,
      "us": 314,
      "Ġof": 315,
      "ÌĪ": 316,
      "Ġand": 317,
      "de": 318,
      "ro": 319,
      "Ġto": 320,
      "ĠA": 321,
      "ge": 322,
      "ing": 323,
      "Ġh": 324,
      "Ġn": 325,
      ".<": 326,
      "Ġu": 327,
      "rs": 328,
      "il": 329,
      "ĠC": 330,
      "ce": 331,
      "âĢ": 332,
      "ĠM": 333,
      "ĠT": 334,
      "ur": 335,
      "ĠB": 336,
      "ĠP": 337,
      "me": 338,
      "Ġ1": 339,
      "ter": 340,
      "ĠI": 341,
      "ĠD": 342,
      "Ġth": 343,
      "Ġg": 344,
      "qu": 345,
      "el": 346,
      "Ġre": 347,
      "ol": 348,
      "Ġv": 349,
      "st": 350,
      "Ġ2": 351,
      "Ġbe": 352,
      "ĠL": 353,
      "se": 354,
      "ĠF": 355,
      "ic": 356,
      "Ġ(": 357,
      "ai": 358,
      "pe": 359,
      "our": 360,
      "ot": 361,
      "ĠE": 362,
      "ĠR": 363,
      "ation": 364,
      "ĠH": 365,
      "be": 366,
      "ĠG": 367,
      "ÌĢ": 368,
      "am": 369,
      "ts": 370,
      "ĠW": 371,
      "ed": 372,
      "Ġy": 373,
      "Ġse": 374,
      "ir": 375,
      "ig": 376,
      "Ġfor": 377,
      "ut": 378,
      "ly": 379,
      "Ġis": 380,
      "âĢĻ": 381,
      "Ġon": 382,
      "ay": 383,
      "ow": 384,
      "ment": 385,
      "ke": 386,
      "est": 387,
      "Ġle": 388,
      "ver": 389,
      "ac": 390,
      "ĠN": 391,
      "Ġla": 392,
      "un": 393,
      "ad": 394,
      "and": 395,
      "et": 396,
      "si": 397,
      "res": 398,
      "ul": 399,
      "ĠK": 400,
      "Ġ20": 401,
      "ich": 402,
      "Ġun": 403,
      "Ġal": 404,
      "Ġund": 405,
      "Ġen": 406,
      "her": 407,
      "ung": 408,
      "Ġan": 409,
      "Ġdes": 410,
      "ab": 411,
      "><": 412,
      "ate": 413,
      "ith": 414,
      "au": 415,
      "Ġcon": 416,
      "Ġst": 417,
      "Ġpro": 418,
      "um": 419,
      "Ġder": 420,
      "ĠJ": 421,
      "fe": 422,
      "Ġet": 423,
      "ten": 424,
      "ĠV": 425,
      "Ġwith": 426,
      "os": 427,
      "Ġcom": 428,
      "Ġqu": 429,
      "ĠO": 430,
      "Ġau": 431,
      "Ġwe": 432,
      "ci": 433,
      "ant": 434,
      "..": 435,
      "Ġk": 436,
      "Ġthat": 437,
      "ber": 438,
      "Ġj": 439,
      "ag": 440,
      "Ġwh": 441,
      "ct": 442,
      "Ġas": 443,
      "Ġei": 444,
      "ren": 445,
      "Ġein": 446,
      "ort": 447,
      "Ġdie": 448,
      "Ġz": 449,
      "oo": 450,
      "Ġli": 451,
      "00": 452,
      "ru": 453,
      "Ġpe": 454,
      "out": 455,
      "der": 456,
      "op": 457,
      "ĠU": 458,
      "ain": 459,
      "vi": 460,
      "Ġyou": 461,
      "di": 462,
      "pp": 463,
      "ans": 464,
      "ach": 465,
      "Ġmo": 466,
      "age": 467,
      "che": 468,
      "ĠThe": 469,
      "Ġhe": 470,
      "Ġ-": 471,
      "Ġme": 472,
      "ess": 473,
      "im": 474,
      "ck": 475,
      "Ġpar": 476,
      "ĠâĢ": 477,
      "Ġ201": 478,
      "Ġfi": 479,
      "Ġwas": 480,
      "Ġch": 481,
      "rom": 482,
      "Ġ19": 483,
      "Ġpl": 484,
      "ted": 485,
      "ure": 486,
      "Ġat": 487,
      "Ġor": 488,
      "ous": 489,
      "ting": 490,
      "Ġex": 491,
      "th": 492,
      "og": 493,
      "ill": 494,
      "Ġare": 495,
      "Ġdi": 496,
      "Ġdu": 497,
      "ist": 498,
      "ld": 499,
      "den": 500,
      "ll": 501,
      "Ġsu": 502,
      "Ġim": 503,
      "em": 504,
      "Ġit": 505,
      "ĠSt": 506,
      "Ġge": 507,
      "ff": 508,
      "gh": 509,
      "nt": 510,
      "ali": 511,
      "Ġne": 512,
      "ue": 513,
      "Ġles": 514,
      "hr": 515,
      "Ġha": 516,
      "Ġby": 517,
      "ite": 518,
      "ier": 519,
      "que": 520,
      "all": 521,
      "ÌĤ": 522,
      "ĠIn": 523,
      "du": 524,
      "ni": 525,
      "oi": 526,
      "oc": 527,
      "Ġsh": 528,
      "ust": 529,
      "rou": 530,
      "gen": 531,
      "ard": 532,
      "Ġ3": 533,
      "ran": 534,
      "ind": 535,
      "we": 536,
      "chen": 537,
      "ome": 538,
      "Ġfrom": 539,
      "Ġma": 540,
      "ass": 541,
      "lo": 542,
      "ont": 543,
      "Ġthis": 544,
      "ap": 545,
      "use": 546,
      "ction": 547,
      "tic": 548,
      "ĠRe": 549,
      "ns": 550,
      "ion": 551,
      "Ġab": 552,
      "ers": 553,
      "Ġte": 554,
      "ze": 555,
      "Ġso": 556,
      "id": 557,
      "ann": 558,
      "ĠDe": 559,
      "rt": 560,
      ")<": 561,
      "for": 562,
      "ah": 563,
      "Ġyour": 564,
      "Ġ:": 565,
      "end": 566,
      "vers": 567,
      "Ġvon": 568,
      "la": 569,
      "hi": 570,
      "ance": 571,
      "ens": 572,
      "ub": 573,
      "ore": 574,
      "'s": 575,
      "ell": 576,
      "ry": 577,
      "Ġpour": 578,
      "Ġhave": 579,
      "Ġfu": 580,
      "Ġnot": 581,
      "20": 582,
      "Ġden": 583,
      "igh": 584,
      "Ġno": 585,
      "ft": 586,
      "ity": 587,
      "ame": 588,
      "ĠSe": 589,
      "ks": 590,
      "ale": 591,
      "Ġcomp": 592,
      "are": 593,
      "Ġ<": 594,
      "ty": 595,
      "Ġman": 596,
      "ise": 597,
      "Ġmit": 598,
      "Ġ\"": 599,
      "ĠBe": 600,
      "able": 601,
      "Ġals": 602,
      "Ġ|": 603,
      "ati": 604,
      "ĠZ": 605,
      "rie": 606,
      "Ġsur": 607,
      "ons": 608,
      "ring": 609,
      "ĠLe": 610,
      "Ġac": 611,
      "Ġpre": 612,
      "ak": 613,
      "Ġcan": 614,
      "tern": 615,
      "Ġzu": 616,
      "ces": 617,
      "ast": 618,
      "Ġest": 619,
      "Ġ4": 620,
      "ack": 621,
      "mer": 622,
      "Ġwor": 623,
      "ili": 624,
      "ud": 625,
      "ble": 626,
      "Ġall": 627,
      "ail": 628,
      "ven": 629,
      "ese": 630,
      "one": 631,
      "ally": 632,
      "ste": 633,
      "art": 634,
      "ÃŁ": 635,
      "ler": 636,
      "ong": 637,
      "ide": 638,
      "ĠSch": 639,
      "Ġwill": 640,
      "ĠHe": 641,
      "onn": 642,
      "Ġ5": 643,
      "les": 644,
      "Ġad": 645,
      "Ġver": 646,
      "mi": 647,
      "Ġer": 648,
      "The": 649,
      "ĠTh": 650,
      "Ġcou": 651,
      "ĠÂ": 652,
      "ĠâĢĵ": 653,
      "od": 654,
      "ost": 655,
      "Ġsp": 656,
      "Ġres": 657,
      "Ġr": 658,
      "Ġist": 659,
      "ĠCh": 660,
      "lich": 661,
      "Ġauf": 662,
      "Ġdo": 663,
      "per": 664,
      "nn": 665,
      "ations": 666,
      "ary": 667,
      "ĠY": 668,
      "red": 669,
      "men": 670,
      "ook": 671,
      "ors": 672,
      "ign": 673,
      "ric": 674,
      "ear": 675,
      "mp": 676,
      "oli": 677,
      "ace": 678,
      "Ġeine": 679,
      "Ġtra": 680,
      "Ġune": 681,
      "19": 682,
      "av": 683,
      "ĠWe": 684,
      "ang": 685,
      "Ġdans": 686,
      "und": 687,
      "Ġdas": 688,
      "ps": 689,
      "),": 690,
      "ene": 691,
      "ther": 692,
      "ose": 693,
      "ffe": 694,
      "Ġ200": 695,
      "oll": 696,
      "Ġhas": 697,
      "icht": 698,
      "ase": 699,
      "fi": 700,
      "Ġam": 701,
      "Ġaus": 702,
      "Ġus": 703,
      "ated": 704,
      "ari": 705,
      "ents": 706,
      "tt": 707,
      "com": 708,
      "form": 709,
      "Ġque": 710,
      "Ġar": 711,
      "ord": 712,
      "Ġce": 713,
      "ond": 714,
      "Ġsch": 715,
      "ood": 716,
      "ais": 717,
      "Ġra": 718,
      "lie": 719,
      "tions": 720,
      "Ġbut": 721,
      "Ġdem": 722,
      "ph": 723,
      "gi": 724,
      "ger": 725,
      "lle": 726,
      "urs": 727,
      "sion": 728,
      "sch": 729,
      "ree": 730,
      "to": 731,
      "...": 732,
      "Ġ0": 733,
      "ca": 734,
      "ĠPro": 735,
      "ob": 736,
      "Ġdis": 737,
      "Ġper": 738,
      "rst": 739,
      "tin": 740,
      "Ġcont": 741,
      "hn": 742,
      "Ġup": 743,
      "enn": 744,
      "ĠVe": 745,
      "ling": 746,
      "uch": 747,
      "Ġes": 748,
      "Ġfe": 749,
      "rn": 750,
      "Ġ6": 751,
      "Ġhis": 752,
      "lic": 753,
      "ss": 754,
      "cl": 755,
      "ux": 756,
      "ms": 757,
      "ĠSp": 758,
      "ght": 759,
      "ser": 760,
      "Ġapp": 761,
      "ild": 762,
      "ove": 763,
      "ls": 764,
      "Ġou": 765,
      "Ġtheir": 766,
      "ded": 767,
      "ille": 768,
      "Ġti": 769,
      "Ġpri": 770,
      "Ġpas": 771,
      "tive": 772,
      "ĠGe": 773,
      "ence": 774,
      "Ġout": 775,
      "ould": 776,
      "Ġalso": 777,
      "Ġone": 778,
      "Ġwhich": 779,
      "Ġmore": 780,
      "Ġro": 781,
      "Ġqui": 782,
      "Ġser": 783,
      "ves": 784,
      "its": 785,
      "amp": 786,
      "als": 787,
      "ben": 788,
      "Ġmy": 789,
      "ĠMar": 790,
      "own": 791,
      "Ġ18": 792,
      "ments": 793,
      "ĠTe": 794,
      "cri": 795,
      "ia": 796,
      "hen": 797,
      "ug": 798,
      "Ġthey": 799,
      "iel": 800,
      "ays": 801,
      "lis": 802,
      "Ġabout": 803,
      "je": 804,
      "Ġ7": 805,
      "Ġ&": 806,
      "ĠAr": 807,
      "aire": 808,
      "land": 809,
      "ait": 810,
      "Ġav": 811,
      "Ġave": 812,
      "kt": 813,
      "ien": 814,
      "ption": 815,
      "Ġsich": 816,
      "Ġour": 817,
      "ha": 818,
      "fic": 819,
      "man": 820,
      "ile": 821,
      "ult": 822,
      "!<": 823,
      "ĠIt": 824,
      "ters": 825,
      "ory": 826,
      "ungen": 827,
      "Ġ8": 828,
      "ĠAn": 829,
      "ies": 830,
      "ma": 831,
      "Ġri": 832,
      "une": 833,
      "Ġwho": 834,
      "cess": 835,
      "Ġwir": 836,
      "vel": 837,
      "olog": 838,
      "ĠMe": 839,
      "Ġrep": 840,
      "Ġplus": 841,
      "Ġcl": 842,
      "Ġimp": 843,
      "Ġnicht": 844,
      "Ġrec": 845,
      "10": 846,
      "ges": 847,
      "âĢĿ": 848,
      "oy": 849,
      "ĠCom": 850,
      "Ġwere": 851,
      "Ġ9": 852,
      "Ġgo": 853,
      "Ġmar": 854,
      "tie": 855,
      "Ġ10": 856,
      "ĠLa": 857,
      "ight": 858,
      "ins": 859,
      "urch": 860,
      "Ġtime": 861,
      "Ġyear": 862,
      "tre": 863,
      "Ġco": 864,
      "Ġnew": 865,
      "Ġauch": 866,
      "iss": 867,
      "ĠPar": 868,
      "elle": 869,
      "min": 870,
      "tel": 871,
      "king": 872,
      "owe": 873,
      "ib": 874,
      "Ġfile": 875,
      "Ġspe": 876,
      "Ġher": 877,
      "Ġmi": 878,
      "ques": 879,
      "ress": 880,
      "ĠSie": 881,
      "Ġavec": 882,
      "ris": 883,
      "Ġcomm": 884,
      "mber": 885,
      "gra": 886,
      "Ġent": 887,
      "Ġag": 888,
      "Ġwar": 889,
      "Ġind": 890,
      "ath": 891,
      "ving": 892,
      "ures": 893,
      "ning": 894,
      "act": 895,
      "pl": 896,
      "ates": 897,
      "mb": 898,
      "Re": 899,
      "ĠAl": 900,
      "usi": 901,
      "cause": 902,
      "Ġsi": 903,
      "ake": 904,
      "201": 905,
      "Ġsome": 906,
      "Ġany": 907,
      "ire": 908,
      "Ġhad": 909,
      "tis": 910,
      "ational": 911,
      "Ġprodu": 912,
      "ness": 913,
      "ties": 914,
      "ound": 915,
      "wo": 916,
      "cre": 917,
      "Ġje": 918,
      "?<": 919,
      "In": 920,
      "ĠDie": 921,
      "cou": 922,
      "ical": 923,
      "gan": 924,
      "pt": 925,
      "wn": 926,
      "Ġbeen": 927,
      "rit": 928,
      "ick": 929,
      "ved": 930,
      ").": 931,
      "Ġbei": 932,
      "Ġpers": 933,
      "Ġ/": 934,
      "ĠÂ»": 935,
      "ĠFe": 936,
      "ute": 937,
      "Ġother": 938,
      "old": 939,
      "Ġkn": 940,
      "nis": 941,
      "ration": 942,
      "Ġph": 943,
      "Ġsei": 944,
      "Ġbecause": 945,
      "ĠVer": 946,
      "ho": 947,
      "led": 948,
      "fter": 949,
      "...<": 950,
      "cher": 951,
      "ople": 952,
      "uf": 953,
      "rans": 954,
      "ui": 955,
      "olle": 956,
      "Ġits": 957,
      "Ġover": 958,
      "ĠâĢľ": 959,
      "tit": 960,
      "ungs": 961,
      "Ġaut": 962,
      "ool": 963,
      "fer": 964,
      "Ġmon": 965,
      "Ġke": 966,
      "ĠUn": 967,
      "Ġget": 968,
      "Ġcar": 969,
      "reat": 970,
      "iz": 971,
      "tig": 972,
      "ĠUni": 973,
      "ple": 974,
      "rin": 975,
      "co": 976,
      "cht": 977,
      "Ġwhen": 978,
      "ange": 979,
      "aus": 980,
      "dition": 981,
      "yste": 982,
      "Ġson": 983,
      "ĠQ": 984,
      "ual": 985,
      "rei": 986,
      "tra": 987,
      "âĢĵ": 988,
      "vice": 989,
      "mes": 990,
      "ful": 991,
      "Ġuse": 992,
      "Ġcre": 993,
      "ĠLi": 994,
      "onne": 995,
      "cial": 996,
      "Ġsa": 997,
      "Ġvous": 998,
      "oir": 999,
      "ron": 1000,
      "very": 1001,
      "Ġthere": 1002,
      "ep": 1003,
      "Ġfirst": 1004,
      "no": 1005,
      "fen": 1006,
      "Ġbl": 1007,
      "âĢľ": 1008,
      "50": 1009,
      "ants": 1010,
      "Ġsein": 1011,
      "tz": 1012,
      "Ġwould": 1013,
      "az": 1014,
      "cha": 1015,
      "here": 1016,
      "round": 1017,
      "uts": 1018,
      "Ġfil": 1019,
      "rent": 1020,
      "up": 1021,
      "vent": 1022,
      "ĠFor": 1023,
      "18": 1024,
      "Ġwie": 1025,
      "ade": 1026,
      "ker": 1027,
      "uro": 1028,
      "Ġlike": 1029,
      "Ġincl": 1030,
      "Ġif": 1031,
      "Ġwer": 1032,
      "ings": 1033,
      "Ġ199": 1034,
      "Ġ,": 1035,
      "Ġinto": 1036,
      "ages": 1037,
      "ĠPe": 1038,
      "Ġthan": 1039,
      "Ġsie": 1040,
      "Ġvers": 1041,
      "rai": 1042,
      "vis": 1043,
      "ries": 1044,
      "Ġwork": 1045,
      "Ġdescri": 1046,
      "ĠPl": 1047,
      "oin": 1048,
      "ĠOn": 1049,
      "sp": 1050,
      "Ġshort": 1051,
      "cy": 1052,
      "ral": 1053,
      "000": 1054,
      "rer": 1055,
      "Ġnach": 1056,
      "12": 1057,
      "ĠEn": 1058,
      "ĠNew": 1059,
      "Ġfin": 1060,
      "Ì§": 1061,
      "Ġwur": 1062,
      "Ġinter": 1063,
      "Ġwhat": 1064,
      "Ġum": 1065,
      "par": 1066,
      "att": 1067,
      "Ġ12": 1068,
      "Ġoder": 1069,
      "Ġplay": 1070,
      "Ġbu": 1071,
      "Ġthem": 1072,
      "ĠThis": 1073,
      "ys": 1074,
      "lu": 1075,
      "Ġhat": 1076,
      "rand": 1077,
      "ĠFran": 1078,
      "aux": 1079,
      "Ġpeople": 1080,
      "Ġbet": 1081,
      "ahr": 1082,
      "nde": 1083,
      "Ġil": 1084,
      "ip": 1085,
      "osi": 1086,
      "uss": 1087,
      "ats": 1088,
      "Ġste": 1089,
      "day": 1090,
      "orn": 1091,
      "Ġgu": 1092,
      "Ġreg": 1093,
      "ER": 1094,
      "illi": 1095,
      "Ġche": 1096,
      "oth": 1097,
      "hl": 1098,
      "ok": 1099,
      "ian": 1100,
      "Ġbes": 1101,
      "pre": 1102,
      "Ġsind": 1103,
      "ois": 1104,
      "xt": 1105,
      "hal": 1106,
      "De": 1107,
      "Ġwerden": 1108,
      "con": 1109,
      "ww": 1110,
      "aut": 1111,
      "Ġob": 1112,
      "Ġich": 1113,
      "30": 1114,
      "fu": 1115,
      "Ġvi": 1116,
      "rough": 1117,
      "Ġ*": 1118,
      "Ġloc": 1119,
      "ĠAb": 1120,
      "pen": 1121,
      "ĠEr": 1122,
      "hed": 1123,
      "Ġexpe": 1124,
      "Ġhel": 1125,
      "arge": 1126,
      "Ġass": 1127,
      "gn": 1128,
      "ĠSo": 1129,
      "cts": 1130,
      "nk": 1131,
      "ette": 1132,
      "Ġmay": 1133,
      "Ġ15": 1134,
      "ough": 1135,
      "Ġjust": 1136,
      "Ġve": 1137,
      "air": 1138,
      "mo": 1139,
      "Ġgro": 1140,
      "formation": 1141,
      "Ġsupp": 1142,
      "ĠNe": 1143,
      "ater": 1144,
      "Ġprovi": 1145,
      "Ġneed": 1146,
      "Ġpart": 1147,
      "ours": 1148,
      "Ġpub": 1149,
      "Ġvor": 1150,
      "Ġonly": 1151,
      "nce": 1152,
      "ĠMi": 1153,
      "ĠEi": 1154,
      "11": 1155,
      "Ġmost": 1156,
      "Ġcons": 1157,
      "Ġ17": 1158,
      "Ġtwo": 1159,
      "Le": 1160,
      "chn": 1161,
      "ues": 1162,
      "ish": 1163,
      "Ġshe": 1164,
      "ischen": 1165,
      "ogra": 1166,
      "ating": 1167,
      "Ġsont": 1168,
      "nge": 1169,
      "ily": 1170,
      "rat": 1171,
      "mit": 1172,
      "Ġmin": 1173,
      "ution": 1174,
      "ased": 1175,
      "ied": 1176,
      "Ġthrough": 1177,
      "tiv": 1178,
      "urn": 1179,
      "ĠHo": 1180,
      "Ġfind": 1181,
      "ĠSh": 1182,
      "Ġdire": 1183,
      "ton": 1184,
      ":<": 1185,
      "Ġgi": 1186,
      "Ġmake": 1187,
      "Ġâ": 1188,
      "Ġ2018": 1189,
      "Ġ16": 1190,
      "ppe": 1191,
      "ĠMo": 1192,
      "ĠRo": 1193,
      "vic": 1194,
      "ĠBl": 1195,
      "ork": 1196,
      "ward": 1197,
      "ĠMan": 1198,
      "bi": 1199,
      "ash": 1200,
      "Ġter": 1201,
      "mm": 1202,
      "ki": 1203,
      "nes": 1204,
      "cted": 1205,
      "Ġhow": 1206,
      "Ġzum": 1207,
      "meric": 1208,
      "Ġtrans": 1209,
      "ative": 1210,
      "We": 1211,
      "Ġwell": 1212,
      "Ġsc": 1213,
      "ourn": 1214,
      "ower": 1215,
      "uis": 1216,
      "Th": 1217,
      "Ġbest": 1218,
      "bre": 1219,
      "ĠEx": 1220,
      "ank": 1221,
      "tes": 1222,
      "nen": 1223,
      "aid": 1224,
      "Ġsec": 1225,
      "ket": 1226,
      "enti": 1227,
      "ular": 1228,
      "ouse": 1229,
      "alle": 1230,
      "ĠYou": 1231,
      "rate": 1232,
      "ĠCon": 1233,
      "Ġafter": 1234,
      "Ġho": 1235,
      "Ġexp": 1236,
      "Ġfam": 1237,
      "Ġback": 1238,
      "Ġpos": 1239,
      "ique": 1240,
      "ax": 1241,
      "Ġknow": 1242,
      "Ġ[": 1243,
      "etz": 1244,
      "ars": 1245,
      "15": 1246,
      "Ġpoli": 1247,
      "Ġins": 1248,
      "ount": 1249,
      "Ġ.": 1250,
      "Ġwird": 1251,
      "Ġ14": 1252,
      "ex": 1253,
      "rend": 1254,
      "ĠDi": 1255,
      "els": 1256,
      "iten": 1257,
      "Ġgra": 1258,
      "Ġsub": 1259,
      "Ġpres": 1260,
      "Ġwurde": 1261,
      "the": 1262,
      "Ġdiffe": 1263,
      "Ġ||": 1264,
      "usiness": 1265,
      "17": 1266,
      "ĠSu": 1267,
      "Ġhab": 1268,
      "Ġ$": 1269,
      "ta": 1270,
      "tif": 1271,
      "Ġdass": 1272,
      "Ġvis": 1273,
      "ĠAnd": 1274,
      "Ġyears": 1275,
      "ches": 1276,
      "agn": 1277,
      "asse": 1278,
      "iter": 1279,
      "ature": 1280,
      "Ġsee": 1281,
      "Ġevery": 1282,
      "16": 1283,
      "Ġeiner": 1284,
      "elf": 1285,
      "IN": 1286,
      "ĠAd": 1287,
      "ĠJe": 1288,
      "fore": 1289,
      ").<": 1290,
      "stru": 1291,
      "ES": 1292,
      "bo": 1293,
      "Ġzur": 1294,
      "ĠâĢŀ": 1295,
      "Ġeinen": 1296,
      "feren": 1297,
      "zen": 1298,
      "DF": 1299,
      "cu": 1300,
      "Ġthese": 1301,
      "ĠÂ«": 1302,
      "Ġdon": 1303,
      "ht": 1304,
      "Ġsim": 1305,
      "cip": 1306,
      "Ġmais": 1307,
      "Ġbis": 1308,
      "lect": 1309,
      "na": 1310,
      "Ġhigh": 1311,
      "Ġplace": 1312,
      "Ġ198": 1313,
      "14": 1314,
      "200": 1315,
      "ĠEin": 1316,
      "ÃŁe": 1317,
      "bur": 1318,
      "ctions": 1319,
      "Ġprof": 1320,
      "df": 1321,
      "ding": 1322,
      "ye": 1323,
      "hip": 1324,
      "Ġwhere": 1325,
      "rop": 1326,
      "rg": 1327,
      "velop": 1328,
      "Ĥ¬": 1329,
      "ave": 1330,
      "any": 1331,
      "Ġaux": 1332,
      "ON": 1333,
      "Ġ13": 1334,
      "otre": 1335,
      "'t": 1336,
      "udi": 1337,
      "Ġvery": 1338,
      "Ġsyste": 1339,
      "mis": 1340,
      "ande": 1341,
      "Ġmany": 1342,
      "lei": 1343,
      "Ġ#": 1344,
      "ĠSte": 1345,
      "ĠJu": 1346,
      "ows": 1347,
      "Ġstud": 1348,
      "ane": 1349,
      "eth": 1350,
      "ante": 1351,
      "Ġges": 1352,
      "view": 1353,
      "igen": 1354,
      "way": 1355,
      "Ġcommun": 1356,
      "Ġthen": 1357,
      "ouve": 1358,
      "vices": 1359,
      "ĠJo": 1360,
      "bers": 1361,
      "ude": 1362,
      "Ġdurch": 1363,
      "ahl": 1364,
      "//": 1365,
      "ffic": 1366,
      "Ġcomple": 1367,
      "Ġeinem": 1368,
      "AN": 1369,
      "ĠAus": 1370,
      "ata": 1371,
      "Ġlook": 1372,
      "Ġown": 1373,
      "pon": 1374,
      "Ġhelp": 1375,
      "Ġann": 1376,
      "ĠCo": 1377,
      "ales": 1378,
      "mar": 1379,
      "cc": 1380,
      "nnen": 1381,
      "13": 1382,
      "tique": 1383,
      "auf": 1384,
      "oss": 1385,
      "wer": 1386,
      "des": 1387,
      "hre": 1388,
      "orts": 1389,
      "Ġcli": 1390,
      "Ġ2017": 1391,
      "Ġda": 1392,
      "ions": 1393,
      "Se": 1394,
      "ĠCl": 1395,
      "ames": 1396,
      "ctive": 1397,
      "Ġdown": 1398,
      "ason": 1399,
      "ility": 1400,
      "Ġdep": 1401,
      "Ġform": 1402,
      "Ġtre": 1403,
      "Ġgood": 1404,
      "Ġwi": 1405,
      "oint": 1406,
      "Ġret": 1407,
      "sed": 1408,
      "ĠCar": 1409,
      "Ġsuch": 1410,
      "St": 1411,
      "rage": 1412,
      "alth": 1413,
      "ĠGes": 1414,
      "ek": 1415,
      "atur": 1416,
      "nter": 1417,
      "://": 1418,
      "Ġdesign": 1419,
      "ĠLes": 1420,
      "ĠMit": 1421,
      "ĠInd": 1422,
      "oot": 1423,
      "ĠPDF": 1424,
      "ĠFi": 1425,
      "Ġko": 1426,
      "--": 1427,
      "Ġtout": 1428,
      "med": 1429,
      "rag": 1430,
      "rib": 1431,
      "ull": 1432,
      "EN": 1433,
      "ov": 1434,
      ">|": 1435,
      "atch": 1436,
      "Ġmed": 1437,
      "reich": 1438,
      "Ġoff": 1439,
      "ĠZe": 1440,
      "ball": 1441,
      "ril": 1442,
      "Ġlong": 1443,
      "ori": 1444,
      "inde": 1445,
      "ken": 1446,
      "Ġkann": 1447,
      "Ġ11": 1448,
      "orth": 1449,
      "Ġnow": 1450,
      "arn": 1451,
      "Ġcould": 1452,
      "ewe": 1453,
      "aint": 1454,
      "ds": 1455,
      "Ġway": 1456,
      "Ġstar": 1457,
      "Ġservice": 1458,
      "ality": 1459,
      "alis": 1460,
      "elt": 1461,
      "ĠX": 1462,
      "Ġpdf": 1463,
      "Ġnoch": 1464,
      "outh": 1465,
      "Ġunde": 1466,
      "ey": 1467,
      "Ġ'": 1468,
      "lichen": 1469,
      "side": 1470,
      "Ġsol": 1471,
      "qui": 1472,
      "ĠPre": 1473,
      "ced": 1474,
      "Ġ30": 1475,
      "port": 1476,
      "Ġpra": 1477,
      "Ġfl": 1478,
      "Ġhome": 1479,
      "liche": 1480,
      "Ġmade": 1481,
      "22": 1482,
      "\",": 1483,
      "Ġsit": 1484,
      "ĠOr": 1485,
      "ĠAmeric": 1486,
      "atz": 1487,
      "fin": 1488,
      "Ġsti": 1489,
      "ink": 1490,
      "Ġ197": 1491,
      "gle": 1492,
      "ĠChr": 1493,
      "tell": 1494,
      "Ġmus": 1495,
      "Ġ2019": 1496,
      "rich": 1497,
      "vol": 1498,
      "Ġused": 1499,
      "Ġagain": 1500,
      "ctor": 1501,
      "oire": 1502,
      "cent": 1503,
      "pte": 1504,
      "dern": 1505,
      "Ġbi": 1506,
      "40": 1507,
      "Ġlin": 1508,
      "AR": 1509,
      "Ġren": 1510,
      "Ġeven": 1511,
      "uer": 1512,
      "mal": 1513,
      "tet": 1514,
      "Ġhim": 1515,
      "Ġlie": 1516,
      "ains": 1517,
      "vern": 1518,
      "Die": 1519,
      "Ġru": 1520,
      "Ġ2016": 1521,
      "ĠIl": 1522,
      "Ġcap": 1523,
      "aine": 1524,
      "ĠUS": 1525,
      "other": 1526,
      "ente": 1527,
      "ĠUnivers": 1528,
      "Ġbook": 1529,
      "ĠPh": 1530,
      "val": 1531,
      "Ġday": 1532,
      "iert": 1533,
      "Ġvotre": 1534,
      "Ġlife": 1535,
      "ograph": 1536,
      "aires": 1537,
      "ĠAs": 1538,
      "Ġdies": 1539,
      "ĠDer": 1540,
      "ĠEuro": 1541,
      "pro": 1542,
      "ĠIs": 1543,
      "bar": 1544,
      "....": 1545,
      "Ġnur": 1546,
      "ĠWh": 1547,
      "Ġgreat": 1548,
      "yp": 1549,
      "Ġdiese": 1550,
      "Ġcolle": 1551,
      "gin": 1552,
      "Ġsaid": 1553,
      "Ġcol": 1554,
      "ume": 1555,
      "Ġsou": 1556,
      "Ġemp": 1557,
      "Ġinclud": 1558,
      "row": 1559,
      "Ġweb": 1560,
      "Ġcal": 1561,
      "ollow": 1562,
      "anz": 1563,
      "ĠQu": 1564,
      "ock": 1565,
      "ology": 1566,
      "60": 1567,
      "ders": 1568,
      "Ġsite": 1569,
      "war": 1570,
      "Ġgrou": 1571,
      "Ġbeing": 1572,
      "ital": 1573,
      "ox": 1574,
      "Ġbusiness": 1575,
      "ĠMa": 1576,
      "ĠDes": 1577,
      "Ġtem": 1578,
      "gt": 1579,
      "25": 1580,
      "Ġprop": 1581,
      "omm": 1582,
      "asi": 1583,
      "Ġses": 1584,
      "Ġorgan": 1585,
      "Ġbefore": 1586,
      "Ġshould": 1587,
      "ice": 1588,
      "orte": 1589,
      "ik": 1590,
      "Ġmuch": 1591,
      "Ġintern": 1592,
      "Ġset": 1593,
      "ics": 1594,
      "duc": 1595,
      "Ġinte": 1596,
      "fa": 1597,
      "ĠSer": 1598,
      "Ġperson": 1599,
      "Ġread": 1600,
      "site": 1601,
      "tte": 1602,
      "Ġexperi": 1603,
      "ĠAll": 1604,
      "Ġaber": 1605,
      "Ġcor": 1606,
      "Ġgene": 1607,
      "app": 1608,
      "alt": 1609,
      "Ġprogra": 1610,
      "Ġide": 1611,
      "Ġgen": 1612,
      "ween": 1613,
      "Be": 1614,
      "yn": 1615,
      "Ġdid": 1616,
      "Ġworld": 1617,
      "Ġconn": 1618,
      "gel": 1619,
      "UR": 1620,
      "Ġcent": 1621,
      "sible": 1622,
      "Ġ2015": 1623,
      "Ġfac": 1624,
      "ict": 1625,
      "Ġhand": 1626,
      "\"<": 1627,
      "Ġnous": 1628,
      "Ġteam": 1629,
      "ject": 1630,
      "Ġonline": 1631,
      "ĠAp": 1632,
      "ĠDas": 1633,
      "Ġalle": 1634,
      "arm": 1635,
      "ĠBu": 1636,
      "AT": 1637,
      "ule": 1638,
      "Ġtou": 1639,
      "arch": 1640,
      "Ġentre": 1641,
      "Ġci": 1642,
      "lish": 1643,
      "Ġfound": 1644,
      "Ġunder": 1645,
      "ailable": 1646,
      "ote": 1647,
      "iste": 1648,
      "ĠFl": 1649,
      "Ġrece": 1650,
      "Ġhaben": 1651,
      "sten": 1652,
      "Ġend": 1653,
      "Ġlove": 1654,
      "Ġtake": 1655,
      "Ġhist": 1656,
      "ped": 1657,
      "Ġsom": 1658,
      "ĠEng": 1659,
      "dem": 1660,
      "Ġcomme": 1661,
      "ole": 1662,
      "ĠHer": 1663,
      "ĠIf": 1664,
      "Ġnom": 1665,
      "ka": 1666,
      "Ġans": 1667,
      "24": 1668,
      "!!": 1669,
      "ĠJan": 1670,
      "Ġbetween": 1671,
      "Ġhere": 1672,
      "ische": 1673,
      "ather": 1674,
      "sive": 1675,
      "Ġcare": 1676,
      "igi": 1677,
      "Ġparti": 1678,
      "agen": 1679,
      "ga": 1680,
      "Ġnum": 1681,
      "Ġpop": 1682,
      "Ġ25": 1683,
      "ĠTra": 1684,
      "ĠGu": 1685,
      "Ġphot": 1686,
      "osition": 1687,
      "Ġmode": 1688,
      "tical": 1689,
      "ots": 1690,
      "ĠPri": 1691,
      "nne": 1692,
      "cle": 1693,
      "tim": 1694,
      "unk": 1695,
      "ils": 1696,
      "ually": 1697,
      "rol": 1698,
      "ield": 1699,
      "Ġconce": 1700,
      "Ġop": 1701,
      "cis": 1702,
      "lease": 1703,
      "Ġmach": 1704,
      "chi": 1705,
      "He": 1706,
      "Ġcette": 1707,
      "Ġwhile": 1708,
      "come": 1709,
      "Ġwant": 1710,
      "Ġ2014": 1711,
      "by": 1712,
      "oci": 1713,
      "teur": 1714,
      "Ġ24": 1715,
      "Ġfree": 1716,
      "Ġspeci": 1717,
      "eh": 1718,
      "21": 1719,
      "Ġimport": 1720,
      "Ġrest": 1721,
      "ury": 1722,
      "Ġact": 1723,
      "Ġfait": 1724,
      "mie": 1725,
      "din": 1726,
      "ĠDu": 1727,
      "wa": 1728,
      "tik": 1729,
      "aten": 1730,
      "Ġers": 1731,
      "Ġsame": 1732,
      "vre": 1733,
      "Ġsm": 1734,
      "Ġdoc": 1735,
      "til": 1736,
      "ĠCan": 1737,
      "ache": 1738,
      "icher": 1739,
      "Ġthose": 1740,
      "ĠJah": 1741,
      "ross": 1742,
      "Ġunter": 1743,
      "ĠIntern": 1744,
      "Ġchar": 1745,
      "Ġdoes": 1746,
      "Ġright": 1747,
      "Ġsel": 1748,
      "range": 1749,
      "La": 1750,
      "ĠMon": 1751,
      "Ġeach": 1752,
      "rid": 1753,
      "Ġsecond": 1754,
      "Ġcle": 1755,
      "Ġchild": 1756,
      "Ġmet": 1757,
      "rain": 1758,
      "unde": 1759,
      "arbe": 1760,
      "ĠShe": 1761,
      "Ġbre": 1762,
      "ĠâĤ¬": 1763,
      "wei": 1764,
      "riend": 1765,
      "Ġname": 1766,
      "rau": 1767,
      "rial": 1768,
      "zi": 1769,
      "IS": 1770,
      "Ġcur": 1771,
      "Ġprofes": 1772,
      "23": 1773,
      "Ġmain": 1774,
      "ards": 1775,
      "Ġpublic": 1776,
      "Ġconf": 1777,
      "Ġ2013": 1778,
      "Ġgar": 1779,
      "och": 1780,
      "Ġrel": 1781,
      "bru": 1782,
      "Ġfollow": 1783,
      "Ġmehr": 1784,
      "Ġx": 1785,
      "Ġbien": 1786,
      "rise": 1787,
      "ĠWor": 1788,
      "Ġpost": 1789,
      "Ġduring": 1790,
      "Ìģ,": 1791,
      "Ġvie": 1792,
      "assen": 1793,
      "Ġtop": 1794,
      "agement": 1795,
      "ances": 1796,
      "igin": 1797,
      "Ġprom": 1798,
      "80": 1799,
      "ware": 1800,
      "arly": 1801,
      "Ġcours": 1802,
      "Ġ...": 1803,
      "ommen": 1804,
      "ĠMed": 1805,
      "Ġrem": 1806,
      "vision": 1807,
      "enter": 1808,
      "Ġcontin": 1809,
      "ĠAut": 1810,
      "ĠAuf": 1811,
      "Ġele": 1812,
      "99": 1813,
      "Ġfre": 1814,
      "Ġboth": 1815,
      "geb": 1816,
      "yle": 1817,
      "burg": 1818,
      "omen": 1819,
      "Ġaround": 1820,
      "OR": 1821,
      "Ex": 1822,
      "hren": 1823,
      "Ġ2012": 1824,
      "ense": 1825,
      "Ġ100": 1826,
      "Ġeffe": 1827,
      "Ġnon": 1828,
      "ĠDa": 1829,
      "keit": 1830,
      "Ġinf": 1831,
      "Ġthree": 1832,
      "Ġrun": 1833,
      "ÃŁen": 1834,
      "ĠCe": 1835,
      "Ġdist": 1836,
      "Ġques": 1837,
      "load": 1838,
      "Ġstand": 1839,
      "isch": 1840,
      "ĠFu": 1841,
      "Ġdar": 1842,
      "utz": 1843,
      "Ġ196": 1844,
      "ami": 1845,
      "tics": 1846,
      "Ġkei": 1847,
      "vir": 1848,
      "Ġprocess": 1849,
      "alite": 1850,
      "Ġfran": 1851,
      "vant": 1852,
      "Ġmal": 1853,
      "Ġ;": 1854,
      "hne": 1855,
      "Ġproble": 1856,
      "zer": 1857,
      "__": 1858,
      "lace": 1859,
      "Ġande": 1860,
      "Ġcount": 1861,
      "Ġshow": 1862,
      "Ġschool": 1863,
      "ode": 1864,
      "rite": 1865,
      "alk": 1866,
      "Ġmanual": 1867,
      "ivi": 1868,
      "Ġtak": 1869,
      "ĠReg": 1870,
      "ros": 1871,
      "ive": 1872,
      "45": 1873,
      "ĠAug": 1874,
      "ĠHa": 1875,
      "ĠGra": 1876,
      "Ġeas": 1877,
      "Ġmen": 1878,
      "ferences": 1879,
      "enne": 1880,
      "Ġbas": 1881,
      "aff": 1882,
      "Ġhi": 1883,
      "ĠChi": 1884,
      "ĠSi": 1885,
      "net": 1886,
      "uni": 1887,
      "Ġservices": 1888,
      "dent": 1889,
      "27": 1890,
      "ĠGru": 1891,
      "anc": 1892,
      "ĠAu": 1893,
      "Ġ21": 1894,
      "chaft": 1895,
      "cks": 1896,
      "cor": 1897,
      "\":": 1898,
      "Ġinst": 1899,
      "ooks": 1900,
      ".,": 1901,
      "AL": 1902,
      "Ġlo": 1903,
      "ĠBes": 1904,
      "Ġlast": 1905,
      "ĠBar": 1906,
      "Ġchange": 1907,
      "less": 1908,
      "Ġ+": 1909,
      "agne": 1910,
      "ype": 1911,
      "ĠLand": 1912,
      "ways": 1913,
      "ody": 1914,
      "cont": 1915,
      "orm": 1916,
      "IT": 1917,
      "Ġbro": 1918,
      "ĠNo": 1919,
      "Ġdeux": 1920,
      "Ġsing": 1921,
      "Ġfun": 1922,
      "conom": 1923,
      "ĠMay": 1924,
      "90": 1925,
      "An": 1926,
      "ried": 1927,
      "Ġpa": 1928,
      "Ġfamily": 1929,
      "ja": 1930,
      "Ġont": 1931,
      "ĠWi": 1932,
      "Ġbuild": 1933,
      "This": 1934,
      "Ġdevelop": 1935,
      "26": 1936,
      "Ġ23": 1937,
      "Ġai": 1938,
      "ige": 1939,
      "Ġkm": 1940,
      "Ġopen": 1941,
      "bes": 1942,
      "Ġstill": 1943,
      "Ġsystem": 1944,
      "ott": 1945,
      "Ġsuc": 1946,
      "ĠNach": 1947,
      "ĠâĢĶ": 1948,
      "ulation": 1949,
      "AS": 1950,
      "ĠFre": 1951,
      "Ġvide": 1952,
      "ator": 1953,
      "Ġ=": 1954,
      "Pro": 1955,
      "Ar": 1956,
      "Ch": 1957,
      "berg": 1958,
      "Ġcust": 1959,
      "ttp": 1960,
      "Ġusing": 1961,
      "28": 1962,
      "por": 1963,
      "ĠThey": 1964,
      "Ġaussi": 1965,
      "ttle": 1966,
      "chei": 1967,
      "ĠTo": 1968,
      "ĠFrance": 1969,
      "ĠJahr": 1970,
      "Ġnumber": 1971,
      "Ġpo": 1972,
      "ĠAmerican": 1973,
      "Ġmem": 1974,
      "ee": 1975,
      "ĠVi": 1976,
      "tice": 1977,
      "ĠIm": 1978,
      "Ġfaire": 1979,
      "ieren": 1980,
      "cture": 1981,
      "Ġwon": 1982,
      "On": 1983,
      "unden": 1984,
      "Ġseine": 1985,
      "ĠAt": 1986,
      "Ġ50": 1987,
      "rum": 1988,
      "Ġappe": 1989,
      "Ġreally": 1990,
      "adt": 1991,
      "ĠEs": 1992,
      "ibt": 1993,
      "ĠBer": 1994,
      "ister": 1995,
      "sions": 1996,
      "lex": 1997,
      "zu": 1998,
      "read": 1999,
      "Ġca": 2000,
      "owever": 2001,
      "chie": 2002,
      "Ġ2011": 2003,
      "Ġclass": 2004,
      "nf": 2005,
      "ocie": 2006,
      "ĠBut": 2007,
      "lier": 2008,
      "Ġvol": 2009,
      "Ġprote": 2010,
      ">\"": 2011,
      "lein": 2012,
      "Ġtechn": 2013,
      "ilt": 2014,
      "Ġfour": 2015,
      "ĠApp": 2016,
      "Ġweek": 2017,
      "Ġsoll": 2018,
      "Ġ22": 2019,
      "Ġuns": 2020,
      "iche": 2021,
      "ras": 2022,
      "Ġtri": 2023,
      "ĠWo": 2024,
      "af": 2025,
      "Ġstate": 2026,
      "Ġ2010": 2027,
      "ĠPa": 2028,
      "of": 2029,
      "Ġcompany": 2030,
      "ams": 2031,
      "RE": 2032,
      "Ġbo": 2033,
      "ita": 2034,
      "ende": 2035,
      "ana": 2036,
      "Ġsign": 2037,
      "www": 2038,
      "Ġvom": 2039,
      "anne": 2040,
      "Ġiss": 2041,
      "Ġtrou": 2042,
      "35": 2043,
      "aster": 2044,
      "Ġdam": 2045,
      "aye": 2046,
      "pport": 2047,
      "ony": 2048,
      "ĠChe": 2049,
      "alls": 2050,
      "Ġcert": 2051,
      "Ġ?": 2052,
      "ĠVor": 2053,
      "gu": 2054,
      "ustra": 2055,
      "bor": 2056,
      "atis": 2057,
      "ager": 2058,
      "OC": 2059,
      "Ġ!": 2060,
      "Ġfilm": 2061,
      "ĠBo": 2062,
      "ĠUnited": 2063,
      "Ġhum": 2064,
      "70": 2065,
      "pa": 2066,
      "Ġope": 2067,
      "ĠCol": 2068,
      "book": 2069,
      "Ġthink": 2070,
      "bert": 2071,
      "Ġnouve": 2072,
      "Ġdata": 2073,
      "Ġprogram": 2074,
      "ĠKo": 2075,
      "Ġmonth": 2076,
      "Ġbeau": 2077,
      "ĠSc": 2078,
      "Ġprin": 2079,
      "IC": 2080,
      "Ġkein": 2081,
      "Ge": 2082,
      "cken": 2083,
      "lig": 2084,
      "ront": 2085,
      "En": 2086,
      "Ġtrai": 2087,
      "tement": 2088,
      "rk": 2089,
      "erst": 2090,
      "lt": 2091,
      "It": 2092,
      "US": 2093,
      "29": 2094,
      "lished": 2095,
      "utes": 2096,
      "aly": 2097,
      "inge": 2098,
      "rb": 2099,
      "Ġincre": 2100,
      "Ġgame": 2101,
      "alement": 2102,
      "Ġwater": 2103,
      "erg": 2104,
      "vie": 2105,
      "bum": 2106,
      "eld": 2107,
      "Ġuti": 2108,
      "glich": 2109,
      "ĠAm": 2110,
      "ulti": 2111,
      "allen": 2112,
      "Ġadd": 2113,
      "Ġorigin": 2114,
      "mbre": 2115,
      "osten": 2116,
      "ories": 2117,
      "Les": 2118,
      "Ġhealth": 2119,
      "Ġarea": 2120,
      "Ġcas": 2121,
      "illion": 2122,
      "ĠComp": 2123,
      "jet": 2124,
      "part": 2125,
      "Ġval": 2126,
      "Ġdou": 2127,
      "Ġdri": 2128,
      "Ġplan": 2129,
      "33": 2130,
      "LE": 2131,
      "Ġatt": 2132,
      "Ġtoo": 2133,
      "bst": 2134,
      "Ġlarge": 2135,
      "get": 2136,
      "ĠJanu": 2137,
      "Ġunse": 2138,
      "ĠThere": 2139,
      "ites": 2140,
      "ĠDeuts": 2141,
      "pie": 2142,
      "ones": 2143,
      "ici": 2144,
      "ley": 2145,
      "sh": 2146,
      "ĠProdu": 2147,
      "ĠSepte": 2148,
      "ĠNove": 2149,
      "ĠZeit": 2150,
      "Ġacc": 2151,
      "Ġappro": 2152,
      "amb": 2153,
      "Ġgoing": 2154,
      "ĠWar": 2155,
      "reg": 2156,
      "ĠIns": 2157,
      "Ġ*<": 2158,
      "hor": 2159,
      "Ġpeut": 2160,
      "atter": 2161,
      "gru": 2162,
      "ĠVers": 2163,
      "Ġwieder": 2164,
      "Ġrequ": 2165,
      "heit": 2166,
      "Ġbel": 2167,
      "fl": 2168,
      "io": 2169,
      "etzt": 2170,
      "Ġhapp": 2171,
      "Ġfew": 2172,
      "ald": 2173,
      "zed": 2174,
      "Ġ195": 2175,
      "ently": 2176,
      "llen": 2177,
      "Ġhier": 2178,
      "Ġsince": 2179,
      "sen": 2180,
      "kes": 2181,
      "Me": 2182,
      "ividu": 2183,
      "Ġpeu": 2184,
      "rait": 2185,
      "jor": 2186,
      "Ġdann": 2187,
      "rus": 2188,
      "Ġsupport": 2189,
      "fol": 2190,
      "zeit": 2191,
      "Ġleur": 2192,
      "Ġwenn": 2193,
      "ĠApril": 2194,
      "ĠDis": 2195,
      "Ġdra": 2196,
      "Li": 2197,
      "Al": 2198,
      "Ġpersonn": 2199,
      "AC": 2200,
      "Ġsehr": 2201,
      "Ġfriend": 2202,
      "ticle": 2203,
      "ĠAugust": 2204,
      "ged": 2205,
      "Ġoffe": 2206,
      "off": 2207,
      "chni": 2208,
      "Te": 2209,
      "lau": 2210,
      "ands": 2211,
      "01": 2212,
      "ared": 2213,
      "mail": 2214,
      "ĠCount": 2215,
      "elles": 2216,
      "Un": 2217,
      "ĠPoli": 2218,
      "Ġlang": 2219,
      "iti": 2220,
      "ada": 2221,
      "Ġmis": 2222,
      "tail": 2223,
      "Ġgew": 2224,
      "oney": 2225,
      "Ġmei": 2226,
      "Ġair": 2227,
      "Ġwithout": 2228,
      "Ġgrand": 2229,
      "Ġperform": 2230,
      "imes": 2231,
      "Ġ>": 2232,
      "ĠBri": 2233,
      "Ġsmall": 2234,
      "ilm": 2235,
      "bs": 2236,
      "room": 2237,
      "ĠSpe": 2238,
      "Wh": 2239,
      "Ġpartic": 2240,
      "ĠLu": 2241,
      "gend": 2242,
      "ĠCou": 2243,
      ">-": 2244,
      "los": 2245,
      "ird": 2246,
      "ĠAng": 2247,
      "Ġang": 2248,
      "Ġsy": 2249,
      "temp": 2250,
      "ulture": 2251,
      "fts": 2252,
      "eln": 2253,
      "Ġfoot": 2254,
      "Ġwo": 2255,
      "Ġatten": 2256,
      "Ġpay": 2257,
      "thing": 2258,
      "bei": 2259,
      "itz": 2260,
      "Ġcome": 2261,
      "Ġpoint": 2262,
      "ial": 2263,
      "Ġfact": 2264,
      "Ġrou": 2265,
      "05": 2266,
      "Ei": 2267,
      ",\"": 2268,
      "44": 2269,
      "Ġjus": 2270,
      "Ġsay": 2271,
      "ables": 2272,
      "ĠII": 2273,
      "za": 2274,
      "Ġsk": 2275,
      "go": 2276,
      "ĠAss": 2277,
      "fort": 2278,
      "ĠFebru": 2279,
      "Ġfut": 2280,
      "weise": 2281,
      "mon": 2282,
      "36": 2283,
      "Ve": 2284,
      "78": 2285,
      "bu": 2286,
      "ĠNovember": 2287,
      "ĠPers": 2288,
      "Ġcri": 2289,
      "ĠChar": 2290,
      "ĠGo": 2291,
      "ĠNational": 2292,
      "let": 2293,
      "tier": 2294,
      "vor": 2295,
      "Ġpower": 2296,
      "Ġexce": 2297,
      "Ġvo": 2298,
      "Ġlittle": 2299,
      "Ġsow": 2300,
      "Ġ28": 2301,
      "oman": 2302,
      "time": 2303,
      "Ġvari": 2304,
      "Ġclo": 2305,
      "aces": 2306,
      ",<": 2307,
      "ĠGar": 2308,
      "Ġdisc": 2309,
      "Ġthings": 2310,
      "Ġpass": 2311,
      "Ġ2009": 2312,
      "Ġhom": 2313,
      "Ġagainst": 2314,
      "ĠBro": 2315,
      "Ġess": 2316,
      "iles": 2317,
      "Ġcompe": 2318,
      "Ġmust": 2319,
      "oph": 2320,
      "Ġwithi": 2321,
      "Ġwithin": 2322,
      "yl": 2323,
      "Ġfull": 2324,
      "ĠWorld": 2325,
      "Ġ26": 2326,
      "ĠKe": 2327,
      "pers": 2328,
      "entre": 2329,
      "las": 2330,
      "Ġrele": 2331,
      "Ġtit": 2332,
      "49": 2333,
      "ĠParis": 2334,
      "38": 2335,
      "Ġcost": 2336,
      "Com": 2337,
      "eni": 2338,
      "Ġsans": 2339,
      "fs": 2340,
      "Ġanother": 2341,
      "Ġalways": 2342,
      "ark": 2343,
      "ĠSchool": 2344,
      "Ġlist": 2345,
      "Ġtro": 2346,
      "vo": 2347,
      "Ġnext": 2348,
      "tivi": 2349,
      "Ġapplic": 2350,
      "06": 2351,
      "ĠTi": 2352,
      "Ġmate": 2353,
      "48": 2354,
      "aison": 2355,
      "Ġhouse": 2356,
      "eng": 2357,
      "ĠRes": 2358,
      "org": 2359,
      "Ġhead": 2360,
      "ĠOct": 2361,
      "atri": 2362,
      "Ġces": 2363,
      "Ġgre": 2364,
      "ram": 2365,
      "nc": 2366,
      "igne": 2367,
      "Ġref": 2368,
      "07": 2369,
      "gne": 2370,
      "vernment": 2371,
      "Ġindust": 2372,
      "Ġ27": 2373,
      "ource": 2374,
      "Ġlaw": 2375,
      "39": 2376,
      "ĠGer": 2377,
      "ĠMu": 2378,
      "ĠAc": 2379,
      "Ġgroup": 2380,
      "ely": 2381,
      "chl": 2382,
      "ĠNot": 2383,
      "ĠFin": 2384,
      "viron": 2385,
      "Ġ%": 2386,
      "ateur": 2387,
      "lass": 2388,
      "Ġmag": 2389,
      "bin": 2390,
      "Ġbelie": 2391,
      "Ġfem": 2392,
      "inder": 2393,
      "Ġlead": 2394,
      "Ġseason": 2395,
      "ĠYork": 2396,
      "ĠHar": 2397,
      "Ġcour": 2398,
      "Ġtrav": 2399,
      "Ġuntil": 2400,
      "Ġbetter": 2401,
      "Ġ2008": 2402,
      "Ġseries": 2403,
      "ĠDo": 2404,
      "Ġline": 2405,
      "Ġport": 2406,
      "EL": 2407,
      "ething": 2408,
      "do": 2409,
      "Ġdeli": 2410,
      "Ġze": 2411,
      "ĠWeb": 2412,
      "Ġindividu": 2413,
      "ences": 2414,
      "Ġdays": 2415,
      "Ġcurrent": 2416,
      "46": 2417,
      "ummer": 2418,
      "denti": 2419,
      "Ġcame": 2420,
      "omi": 2421,
      "02": 2422,
      "Ġprovide": 2423,
      "Ġbig": 2424,
      "Ġview": 2425,
      "ĠAir": 2426,
      "ela": 2427,
      "fice": 2428,
      "Ġocc": 2429,
      "ĠCity": 2430,
      "08": 2431,
      "ĠBet": 2432,
      "Ġlocal": 2433,
      "amen": 2434,
      "wi": 2435,
      "aur": 2436,
      "ĠBre": 2437,
      "ville": 2438,
      "iers": 2439,
      "ament": 2440,
      "Ġorder": 2441,
      "ĠRep": 2442,
      "Ġschon": 2443,
      "haus": 2444,
      "03": 2445,
      "Ġkeep": 2446,
      "Ġtot": 2447,
      "Ġsure": 2448,
      "ĠSaint": 2449,
      "Ġint": 2450,
      "nder": 2451,
      "Ġstru": 2452,
      "sib": 2453,
      "Ġpossible": 2454,
      "Ġroom": 2455,
      "Ġlet": 2456,
      "ducation": 2457,
      "ĠWith": 2458,
      "Ġprac": 2459,
      "utions": 2460,
      "Ġmusic": 2461,
      "yd": 2462,
      "cke": 2463,
      "tine": 2464,
      "ublic": 2465,
      "Ġtry": 2466,
      "dence": 2467,
      "09": 2468,
      "isten": 2469,
      "aille": 2470,
      "Ġsci": 2471,
      "wards": 2472,
      "75": 2473,
      "ditions": 2474,
      "richt": 2475,
      "uation": 2476,
      "ae": 2477,
      "alen": 2478,
      "Ġfiles": 2479,
      "ĠWir": 2480,
      "Ġdro": 2481,
      "04": 2482,
      "Ġimmer": 2483,
      "gs": 2484,
      "my": 2485,
      "pi": 2486,
      "ague": 2487,
      "tige": 2488,
      "ĠKar": 2489,
      "Ġevent": 2490,
      "count": 2491,
      "ĠMy": 2492,
      "rong": 2493,
      "Ġmom": 2494,
      "Ġpie": 2495,
      "ĠColle": 2496,
      "ilit": 2497,
      "ielen": 2498,
      "oue": 2499,
      "aue": 2500,
      "Ġtru": 2501,
      "Ġlot": 2502,
      "uit": 2503,
      "ĠJohn": 2504,
      "Ġable": 2505,
      "ĠâĢĺ": 2506,
      "hrer": 2507,
      "ĠStates": 2508,
      "ĠEl": 2509,
      "ED": 2510,
      "Der": 2511,
      "Ġelle": 2512,
      "lung": 2513,
      "ĠKu": 2514,
      "Ġaddition": 2515,
      "mble": 2516,
      "Ġpage": 2517,
      "Ġgegen": 2518,
      "Ġgibt": 2519,
      "lles": 2520,
      "rab": 2521,
      "ately": 2522,
      "pert": 2523,
      "]<": 2524,
      "fication": 2525,
      "Ein": 2526,
      "Ġbring": 2527,
      "Ġconstru": 2528,
      "mission": 2529,
      "Ġtous": 2530,
      "zie": 2531,
      "ags": 2532,
      "tist": 2533,
      "ked": 2534,
      "bal": 2535,
      "Ġwebsite": 2536,
      "tait": 2537,
      "Ġbased": 2538,
      "Ġnet": 2539,
      "Ġwri": 2540,
      "Ġnever": 2541,
      "Ġchildren": 2542,
      "veral": 2543,
      "ĠSa": 2544,
      "tain": 2545,
      "bra": 2546,
      "ĠZu": 2547,
      "ĠCor": 2548,
      "athe": 2549,
      "Ġguide": 2550,
      "ĠBi": 2551,
      "right": 2552,
      "ĠPer": 2553,
      "Ġwa": 2554,
      "ĠUm": 2555,
      "Ġresear": 2556,
      "Ġmir": 2557,
      "Ġuni": 2558,
      "Ġput": 2559,
      "rein": 2560,
      "ĠWest": 2561,
      "dic": 2562,
      "OS": 2563,
      "ĠEurope": 2564,
      "Ġwel": 2565,
      "ural": 2566,
      "core": 2567,
      "ument": 2568,
      "osp": 2569,
      "ĠGene": 2570,
      "Ġlater": 2571,
      "was": 2572,
      "halten": 2573,
      "Ġconne": 2574,
      "Ġhard": 2575,
      "Ġgive": 2576,
      "Sch": 2577,
      "Ġstart": 2578,
      "hol": 2579,
      "met": 2580,
      "Ġcamp": 2581,
      "Ġjourn": 2582,
      "Ġknown": 2583,
      "ĠMin": 2584,
      "ober": 2585,
      "lick": 2586,
      "ĠSouth": 2587,
      "lement": 2588,
      "nia": 2589,
      "ults": 2590,
      "95": 2591,
      "xim": 2592,
      "int": 2593,
      "gest": 2594,
      "AM": 2595,
      "Pe": 2596,
      "Ġeff": 2597,
      "amm": 2598,
      "ander": 2599,
      "immer": 2600,
      "Ġemplo": 2601,
      "37": 2602,
      "ills": 2603,
      "Ġgrow": 2604,
      "bl": 2605,
      "Ġconside": 2606,
      "rict": 2607,
      "Ġworks": 2608,
      "Ġless": 2609,
      "ĠAf": 2610,
      "wick": 2611,
      "ident": 2612,
      "mann": 2613,
      "=\"": 2614,
      ">Â": 2615,
      "ĠMus": 2616,
      "Ġalong": 2617,
      "alist": 2618,
      "rier": 2619,
      "vious": 2620,
      "onde": 2621,
      "Ġoffic": 2622,
      "rne": 2623,
      "nsi": 2624,
      "chs": 2625,
      "Ġaff": 2626,
      "joy": 2627,
      "kan": 2628,
      "ample": 2629,
      "acht": 2630,
      "itt": 2631,
      "otes": 2632,
      "irt": 2633,
      "Ġsl": 2634,
      "ĠRi": 2635,
      "ko": 2636,
      "rz": 2637,
      "ustrali": 2638,
      "Ġlinks": 2639,
      "Ġbar": 2640,
      "thers": 2641,
      "raft": 2642,
      "ĠCont": 2643,
      "Â°": 2644,
      "47": 2645,
      "Ġgot": 2646,
      "work": 2647,
      "Ġris": 2648,
      "Ġ29": 2649,
      "opp": 2650,
      "asino": 2651,
      "Ġsuccess": 2652,
      "Ġworking": 2653,
      "ording": 2654,
      "Ġfranc": 2655,
      "ĠGro": 2656,
      "irth": 2657,
      "wor": 2658,
      "As": 2659,
      "sional": 2660,
      "ĠMari": 2661,
      "ying": 2662,
      "Ġmein": 2663,
      "lique": 2664,
      "Ġsous": 2665,
      "tigen": 2666,
      "Ġaccess": 2667,
      "Ġ.<": 2668,
      "ĠGre": 2669,
      "rique": 2670,
      "ĠBra": 2671,
      "Ġold": 2672,
      "ism": 2673,
      "Ġequ": 2674,
      "oto": 2675,
      "If": 2676,
      "ources": 2677,
      "Ġinv": 2678,
      "teil": 2679,
      "Ġfra": 2680,
      "ought": 2681,
      "sta": 2682,
      "rence": 2683,
      "Ġmajor": 2684,
      "ĠCounty": 2685,
      "Ġhal": 2686,
      "ĠTer": 2687,
      "atu": 2688,
      "âĢĶ": 2689,
      "Ġgut": 2690,
      "Ġ2007": 2691,
      "bt": 2692,
      "gether": 2693,
      "Ġdieser": 2694,
      "Ġsocial": 2695,
      "bed": 2696,
      "wischen": 2697,
      "Ġface": 2698,
      "ateg": 2699,
      "ĠOff": 2700,
      "ĠEnt": 2701,
      "reis": 2702,
      "Ġcustome": 2703,
      "Ġperfe": 2704,
      "Ad": 2705,
      "Ġjob": 2706,
      "hin": 2707,
      "atures": 2708,
      "Ġmer": 2709,
      "Ġoffice": 2710,
      "minist": 2711,
      "Ġfood": 2712,
      "ternal": 2713,
      "aiss": 2714,
      "OM": 2715,
      "Ġdonne": 2716,
      "Ġbon": 2717,
      "comm": 2718,
      "Ġmaking": 2719,
      "isse": 2720,
      "Ġmight": 2721,
      "Ġtyp": 2722,
      "Ġcertain": 2723,
      "sin": 2724,
      "kers": 2725,
      "Ġunderst": 2726,
      "Ġcase": 2727,
      "Ġquel": 2728,
      "55": 2729,
      "Ġtable": 2730,
      "Ġsuper": 2731,
      "Ġcourse": 2732,
      "ules": 2733,
      "ĠMarch": 2734,
      "chte": 2735,
      "IL": 2736,
      "ream": 2737,
      "Ġplayers": 2738,
      "ĠPres": 2739,
      "Ġreview": 2740,
      "sy": 2741,
      "comp": 2742,
      "CH": 2743,
      "Ġlui": 2744,
      "ĠEt": 2745,
      "lock": 2746,
      "ĠSan": 2747,
      "Ne": 2748,
      "Das": 2749,
      "Ġweiter": 2750,
      "ttps": 2751,
      "Ġrespon": 2752,
      "ria": 2753,
      "ahn": 2754,
      "Ġihre": 2755,
      "ests": 2756,
      "ĠChrist": 2757,
      "ĠArbe": 2758,
      "ET": 2759,
      "Ġcity": 2760,
      "ierung": 2761,
      "oints": 2762,
      "Ġmulti": 2763,
      "nner": 2764,
      "wit": 2765,
      "Ġsimple": 2766,
      "Ġacce": 2767,
      "ĠChris": 2768,
      "ghts": 2769,
      "ĠHigh": 2770,
      "Ġstudents": 2771,
      "34": 2772,
      "ords": 2773,
      "tiques": 2774,
      "Ġseveral": 2775,
      "Ġfol": 2776,
      "gal": 2777,
      "ilie": 2778,
      "Ġbit": 2779,
      "Ġrecei": 2780,
      "Ġhabe": 2781,
      "Ġmu": 2782,
      "Ġ40": 2783,
      "You": 2784,
      "Ġpot": 2785,
      "va": 2786,
      "Ġ...<": 2787,
      "ammen": 2788,
      "Ġ:<": 2789,
      "Ġcomplete": 2790,
      "Ġelect": 2791,
      "hnen": 2792,
      "Ġmembers": 2793,
      "ĠRu": 2794,
      "ĠKom": 2795,
      "Ġvill": 2796,
      "ability": 2797,
      "Ġkeine": 2798,
      "ischer": 2799,
      "othe": 2800,
      "Ġten": 2801,
      "aute": 2802,
      "Ġstyle": 2803,
      "lied": 2804,
      "ama": 2805,
      "Ġquality": 2806,
      "dit": 2807,
      "fach": 2808,
      "Ġtoday": 2809,
      "rodu": 2810,
      "Ġtype": 2811,
      "Ġeng": 2812,
      "ĠNorth": 2813,
      "For": 2814,
      "Ġsowie": 2815,
      "ba": 2816,
      "ĠPra": 2817,
      "Ġexe": 2818,
      "ĠMont": 2819,
      ">âĢľ": 2820,
      "aring": 2821,
      "32": 2822,
      "**": 2823,
      "ocus": 2824,
      "ften": 2825,
      "Ġdirect": 2826,
      "Ġbase": 2827,
      "ids": 2828,
      "lage": 2829,
      "Ġcalled": 2830,
      "back": 2831,
      "ara": 2832,
      "mas": 2833,
      "ster": 2834,
      "vin": 2835,
      "Ġjed": 2836,
      "Ġev": 2837,
      "Ġleft": 2838,
      ".âĢĿ": 2839,
      "uin": 2840,
      "Ġallow": 2841,
      "ush": 2842,
      "Ġeines": 2843,
      "Ġrela": 2844,
      "31": 2845,
      "Ġfar": 2846,
      "mier": 2847,
      "ĠWas": 2848,
      "ftware": 2849,
      "aking": 2850,
      "ĠHome": 2851,
      "Ġtour": 2852,
      "Ġohne": 2853,
      "Ġimpro": 2854,
      "Ġinclude": 2855,
      "uter": 2856,
      "ĠJanuary": 2857,
      "light": 2858,
      "bel": 2859,
      "Ġblog": 2860,
      "Ġside": 2861,
      "ĠArt": 2862,
      "ĠHol": 2863,
      "amin": 2864,
      "ĠÐ": 2865,
      "cember": 2866,
      "chland": 2867,
      "tish": 2868,
      "ĠState": 2869,
      "Ġcomment": 2870,
      "Ġfav": 2871,
      "rations": 2872,
      "ĠJune": 2873,
      "ĠHand": 2874,
      "Ìĥ": 2875,
      "Ġlog": 2876,
      "ĠComm": 2877,
      "Ġoften": 2878,
      "rd": 2879,
      "ĠKon": 2880,
      "olf": 2881,
      "Ġsig": 2882,
      "oul": 2883,
      "rant": 2884,
      "ham": 2885,
      "Je": 2886,
      "uen": 2887,
      "Ġpremie": 2888,
      "Ġdeuts": 2889,
      "Ġdisp": 2890,
      "Ġpati": 2891,
      "entlich": 2892,
      "medi": 2893,
      "ression": 2894,
      "bau": 2895,
      "Ġlive": 2896,
      "tei": 2897,
      "ĠOne": 2898,
      "ĠMal": 2899,
      "ĠPort": 2900,
      "Ġproducts": 2901,
      "Ġwomen": 2902,
      "Ġreal": 2903,
      "Ġlooking": 2904,
      "Ġalbum": 2905,
      "Ġtemps": 2906,
      "ĠPark": 2907,
      "ĠUhr": 2908,
      "apan": 2909,
      "iet": 2910,
      "Ġaway": 2911,
      "OT": 2912,
      "Ġutili": 2913,
      "Ġmess": 2914,
      "Ġtimes": 2915,
      "Ġ!<": 2916,
      "uelle": 2917,
      "áĦ": 2918,
      "ĠLo": 2919,
      "Ġnotre": 2920,
      "áħ": 2921,
      "ĠOctober": 2922,
      "ologie": 2923,
      "rive": 2924,
      "oice": 2925,
      "Ġju": 2926,
      "ĠDOC": 2927,
      "ociation": 2928,
      "ĠVol": 2929,
      "ference": 2930,
      "Ġconse": 2931,
      "ĠWhen": 2932,
      "arie": 2933,
      "Ġabs": 2934,
      "ĠGod": 2935,
      "pond": 2936,
      "ĠSm": 2937,
      "ID": 2938,
      "zeich": 2939,
      "Ġhaving": 2940,
      "Ġtu": 2941,
      "ines": 2942,
      "Ġens": 2943,
      "ku": 2944,
      "ement": 2945,
      "ging": 2946,
      "ĠOnline": 2947,
      "ystem": 2948,
      "Ġmoney": 2949,
      "Ġsingle": 2950,
      "Ġpain": 2951,
      "Ġoffer": 2952,
      "ĠPour": 2953,
      "unity": 2954,
      "ĠMc": 2955,
      "ichte": 2956,
      "Ġestab": 2957,
      "Ġvos": 2958,
      "ĠFam": 2959,
      "Ġ2006": 2960,
      "urance": 2961,
      "ĠBas": 2962,
      "vation": 2963,
      "Ġcharac": 2964,
      "Ġresearch": 2965,
      "65": 2966,
      "ored": 2967,
      "Ġorganiz": 2968,
      "Ġthough": 2969,
      "Ġlight": 2970,
      "oogle": 2971,
      "Ġmarket": 2972,
      "Ġcontrol": 2973,
      "tels": 2974,
      "tian": 2975,
      "uel": 2976,
      "gre": 2977,
      "ops": 2978,
      "ĠLond": 2979,
      "lan": 2980,
      "ucht": 2981,
      "rap": 2982,
      "Ġali": 2983,
      "ĠStre": 2984,
      "nst": 2985,
      "ĠJuly": 2986,
      "Ìģ.": 2987,
      "Ġwurden": 2988,
      "tire": 2989,
      "endant": 2990,
      "Ġtogether": 2991,
      "Ġel": 2992,
      "scha": 2993,
      "Ġpriv": 2994,
      "Ġproject": 2995,
      "Ġcir": 2996,
      "Ġsav": 2997,
      "ĠAnt": 2998,
      "Ġearly": 2999,
      "Ġfeel": 3000,
      "play": 3001,
      "ror": 3002,
      "Ġenjoy": 3003,
      "Ġcm": 3004,
      "ential": 3005,
      "Ġenviron": 3006,
      "Ġmove": 3007,
      "prise": 3008,
      "Ġautom": 3009,
      "ĠInter": 3010,
      "Ġna": 3011,
      "ehmen": 3012,
      "ists": 3013,
      "cer": 3014,
      "usammen": 3015,
      "ini": 3016,
      "oud": 3017,
      "Su": 3018,
      "Ġmor": 3019,
      "kl": 3020,
      "ained": 3021,
      "Ġwhe": 3022,
      "now": 3023,
      "vid": 3024,
      "âĤ¬": 3025,
      "Ġfur": 3026,
      "ĠFebruary": 3027,
      "nie": 3028,
      "ader": 3029,
      "irm": 3030,
      "hm": 3031,
      ">âĢ": 3032,
      "ĠLie": 3033,
      "aden": 3034,
      "ĠIS": 3035,
      "Ġbeim": 3036,
      "Ġvisit": 3037,
      "Ġbere": 3038,
      "face": 3039,
      "\".": 3040,
      "redit": 3041,
      "ky": 3042,
      "Ġvideo": 3043,
      ">(": 3044,
      "Ġetc": 3045,
      "orf": 3046,
      "Ġminutes": 3047,
      "88": 3048,
      "kin": 3049,
      "leich": 3050,
      "Ġmes": 3051,
      "Ġja": 3052,
      "Ġzwei": 3053,
      "ĠGerman": 3054,
      "Ġnear": 3055,
      "heim": 3056,
      "ritten": 3057,
      "Ġstory": 3058,
      "ably": 3059,
      "anding": 3060,
      "ĠAustrali": 3061,
      "Ġdont": 3062,
      "run": 3063,
      "Ġange": 3064,
      "ffen": 3065,
      "sent": 3066,
      "urity": 3067,
      "die": 3068,
      "Ġsong": 3069,
      "Par": 3070,
      "Ġsor": 3071,
      "vention": 3072,
      "acks": 3073,
      "Ġbecome": 3074,
      "ĠMich": 3075,
      "ĠDecember": 3076,
      "Ġquestion": 3077,
      "aise": 3078,
      "col": 3079,
      "aders": 3080,
      "orge": 3081,
      "ION": 3082,
      "hand": 3083,
      "Ġcountry": 3084,
      "fahr": 3085,
      "ĠTrans": 3086,
      "ĠBy": 3087,
      "pis": 3088,
      "ape": 3089,
      "Ġeasy": 3090,
      "Ġbody": 3091,
      "Ġmind": 3092,
      "abi": 3093,
      "ĠHotel": 3094,
      "ĠThat": 3095,
      "Ġmob": 3096,
      "ani": 3097,
      "keting": 3098,
      "Ġlearn": 3099,
      "ĠPerson": 3100,
      "kets": 3101,
      ");": 3102,
      "cin": 3103,
      "Ġsex": 3104,
      "43": 3105,
      "ĠBlack": 3106,
      "ĠMor": 3107,
      "Ġlors": 3108,
      "So": 3109,
      "Ġbirth": 3110,
      ".\"<": 3111,
      "kte": 3112,
      "Ġhistory": 3113,
      "Ġclub": 3114,
      "Ġsug": 3115,
      "Sh": 3116,
      "Ġart": 3117,
      "nah": 3118,
      "hlen": 3119,
      "galement": 3120,
      "hile": 3121,
      "illes": 3122,
      "2018": 3123,
      "Ġanne": 3124,
      "Ġlevel": 3125,
      "ental": 3126,
      "Ġversion": 3127,
      "ĠWind": 3128,
      "came": 3129,
      "lection": 3130,
      "ĠSpiel": 3131,
      "Ġpou": 3132,
      "Ġparticip": 3133,
      "stra": 3134,
      "Ġneeds": 3135,
      "pect": 3136,
      "ethod": 3137,
      "fr": 3138,
      "Ġnombre": 3139,
      "AP": 3140,
      "aient": 3141,
      "if": 3142,
      "ĠBest": 3143,
      "ahren": 3144,
      "abor": 3145,
      "Ph": 3146,
      "yer": 3147,
      "verse": 3148,
      "ched": 3149,
      "Ġkind": 3150,
      "66": 3151,
      "ides": 3152,
      "Ġmich": 3153,
      "ĠHi": 3154,
      "ured": 3155,
      "tings": 3156,
      "Ġavant": 3157,
      "ĠWhat": 3158,
      "Ġhatte": 3159,
      "esse": 3160,
      "Ġcommer": 3161,
      "Ġcheck": 3162,
      "oring": 3163,
      "Ġbed": 3164,
      "42": 3165,
      "jour": 3166,
      "ĠRed": 3167,
      "ĠSal": 3168,
      "but": 3169,
      "riod": 3170,
      "Ġran": 3171,
      "Ġbene": 3172,
      "Ġextra": 3173,
      "chein": 3174,
      "anks": 3175,
      "ierte": 3176,
      "ix": 3177,
      "ĠAg": 3178,
      "ĠYour": 3179,
      "Ġgames": 3180,
      "Ġnational": 3181,
      "resse": 3182,
      "ĠStadt": 3183,
      "assi": 3184,
      "Ġpast": 3185,
      "Ġ31": 3186,
      "nte": 3187,
      "osed": 3188,
      "hic": 3189,
      "otor": 3190,
      "igital": 3191,
      "piel": 3192,
      "Ġihr": 3193,
      "Ġdeath": 3194,
      "Ġmodern": 3195,
      "termin": 3196,
      "Ġear": 3197,
      "ography": 3198,
      "Ġreturn": 3199,
      "OL": 3200,
      "Ġtreat": 3201,
      "urt": 3202,
      "Ġnature": 3203,
      "Ġsal": 3204,
      "ĠSta": 3205,
      "ĠBen": 3206,
      "rendre": 3207,
      "ergy": 3208,
      "199": 3209,
      "fied": 3210,
      "ĠBau": 3211,
      "Ġcontact": 3212,
      "del": 3213,
      "ĠMag": 3214,
      "Ġanti": 3215,
      "Ġfocus": 3216,
      "uck": 3217,
      "Ġrepres": 3218,
      "ĠDan": 3219,
      "rig": 3220,
      "Ġtook": 3221,
      "ĠAk": 3222,
      "anies": 3223,
      "omme": 3224,
      "Ġwhy": 3225,
      "ilite": 3226,
      "uten": 3227,
      "chite": 3228,
      "ically": 3229,
      "Ġdue": 3230,
      "alog": 3231,
      "key": 3232,
      "Ġfund": 3233,
      "Ġlow": 3234,
      "ray": 3235,
      "Ġturn": 3236,
      "ĠMens": 3237,
      "hern": 3238,
      "Ġbecame": 3239,
      "Ġgran": 3240,
      "po": 3241,
      "Ġainsi": 3242,
      "gy": 3243,
      "Ġbra": 3244,
      "ĠProf": 3245,
      "ĠThese": 3246,
      "OU": 3247,
      "ending": 3248,
      "41": 3249,
      "2017": 3250,
      "hrt": 3251,
      "Ġ2020": 3252,
      "ĠBel": 3253,
      "ĠMet": 3254,
      "rem": 3255,
      "Pos": 3256,
      "ĠAfter": 3257,
      "\",\"": 3258,
      "Ġothers": 3259,
      "alise": 3260,
      "unic": 3261,
      "Ġwind": 3262,
      "ĠInternet": 3263,
      "Ġhin": 3264,
      "uses": 3265,
      "Ġcreate": 3266,
      "jects": 3267,
      "Ġcontra": 3268,
      "ĠPol": 3269,
      "ĠMer": 3270,
      "Ġstudy": 3271,
      "oose": 3272,
      "Ġcro": 3273,
      "ford": 3274,
      "Ġmoment": 3275,
      "bens": 3276,
      "Ġfon": 3277,
      "Ġrange": 3278,
      "Ġbuilding": 3279,
      "peci": 3280,
      "Ġfois": 3281,
      "77": 3282,
      "Ġ2005": 3283,
      "ĠKing": 3284,
      "ĠQue": 3285,
      "tiful": 3286,
      "ison": 3287,
      "Ġwin": 3288,
      "rior": 3289,
      "Ġapre": 3290,
      "ĠTeil": 3291,
      "ĠHowever": 3292,
      "Ġkey": 3293,
      "ĠSur": 3294,
      "ĠAls": 3295,
      "useum": 3296,
      "voir": 3297,
      "vert": 3298,
      "Ġsix": 3299,
      "ases": 3300,
      "ners": 3301,
      "bot": 3302,
      ",âĢĿ": 3303,
      "ĠLondon": 3304,
      "ither": 3305,
      "2019": 3306,
      "Ġpoints": 3307,
      "Ġanim": 3308,
      "ĠDE": 3309,
      "fle": 3310,
      "Ġprix": 3311,
      "ney": 3312,
      "ĠIch": 3313,
      "ĠChamp": 3314,
      "Ġinvol": 3315,
      "Ġdiffic": 3316,
      "Ġpresent": 3317,
      "Ġever": 3318,
      "aufen": 3319,
      "Ġcharge": 3320,
      "Ġposi": 3321,
      "ient": 3322,
      "isation": 3323,
      "Ġcall": 3324,
      "ĠDr": 3325,
      ".\"": 3326,
      "Uni": 3327,
      "Ġfer": 3328,
      "AD": 3329,
      "uring": 3330,
      "ĠHist": 3331,
      "lor": 3332,
      "Ġredu": 3333,
      "nning": 3334,
      "Ġdom": 3335,
      "schaft": 3336,
      "TE": 3337,
      "ĠEd": 3338,
      "Ġprincip": 3339,
      "Ġ2000": 3340,
      "vier": 3341,
      "Ġdepuis": 3342,
      "Ġfield": 3343,
      "Ġstarted": 3344,
      "85": 3345,
      "ĠService": 3346,
      "ĠOur": 3347,
      "Ġproduct": 3348,
      "Ġdownload": 3349,
      "Ġ?<": 3350,
      "Ġaller": 3351,
      "Ġspace": 3352,
      "ready": 3353,
      "udio": 3354,
      "Ġcontre": 3355,
      "ĠDire": 3356,
      "Ġfore": 3357,
      "Ġtest": 3358,
      "ĠJahre": 3359,
      "ĠIhre": 3360,
      "iÃŁ": 3361,
      "most": 3362,
      "iture": 3363,
      "Ġnight": 3364,
      "Fi": 3365,
      "Ġacross": 3366,
      "Ġactivi": 3367,
      "Ġhttp": 3368,
      "opy": 3369,
      "Ġinten": 3370,
      "quired": 3371,
      "zon": 3372,
      "Ġposition": 3373,
      "Ġmean": 3374,
      "ump": 3375,
      "Ġadv": 3376,
      "Ġencore": 3377,
      "100": 3378,
      "Ġviel": 3379,
      "Ġunique": 3380,
      "Ġ60": 3381,
      "ĠHouse": 3382,
      "dio": 3383,
      "atural": 3384,
      "Ġmillion": 3385,
      "undes": 3386,
      "ĠBerlin": 3387,
      "ĠAnn": 3388,
      "volution": 3389,
      "ĠSy": 3390,
      "ights": 3391,
      "ssen": 3392,
      "Ġdone": 3393,
      "hing": 3394,
      "Ġstrate": 3395,
      "set": 3396,
      "Mar": 3397,
      "ĠTV": 3398,
      "Ġengin": 3399,
      "Ġmeans": 3400,
      "anti": 3401,
      "Ġmakes": 3402,
      "da": 3403,
      "band": 3404,
      "tition": 3405,
      "uded": 3406,
      "Pl": 3407,
      "ĠHam": 3408,
      "Ġents": 3409,
      "Ġeuro": 3410,
      "Ġsays": 3411,
      "Ġsigni": 3412,
      "perty": 3413,
      "ellen": 3414,
      "Con": 3415,
      "Ġrencont": 3416,
      "rench": 3417,
      "ĠDesign": 3418,
      "quipe": 3419,
      "'m": 3420,
      "ogen": 3421,
      "uge": 3422,
      "Ġthing": 3423,
      "Åĵ": 3424,
      "Ġiniti": 3425,
      "adi": 3426,
      "dle": 3427,
      "ĠLou": 3428,
      "ny": 3429,
      "Ġnu": 3430,
      "Ġopport": 3431,
      "Ġoriginal": 3432,
      "ÌĮ": 3433,
      "Ġexten": 3434,
      "Ġpu": 3435,
      "Ġtax": 3436,
      "):": 3437,
      "rences": 3438,
      "ridge": 3439,
      "Ġdate": 3440,
      "ĠOb": 3441,
      "Ġfru": 3442,
      "Ġmai": 3443,
      "ĠHow": 3444,
      "rest": 3445,
      "Fe": 3446,
      "Ġcode": 3447,
      "acte": 3448,
      "rien": 3449,
      "ĠPo": 3450,
      "ĠGi": 3451,
      "chten": 3452,
      "ĠMai": 3453,
      "ible": 3454,
      "Ġfinis": 3455,
      "Ġperfect": 3456,
      "estiv": 3457,
      "Ġsocie": 3458,
      "Ġprice": 3459,
      "ĠDon": 3460,
      "Ġcy": 3461,
      "Ġspecial": 3462,
      "Ġsimp": 3463,
      "ols": 3464,
      "mel": 3465,
      "ĠJahren": 3466,
      "zent": 3467,
      "umb": 3468,
      "ĠFrank": 3469,
      "roup": 3470,
      "ĠNor": 3471,
      "What": 3472,
      "sia": 3473,
      "ÃŁer": 3474,
      "ĠSim": 3475,
      "Ġage": 3476,
      "ett": 3477,
      "http": 3478,
      "Ġmonde": 3479,
      "tives": 3480,
      "ilder": 3481,
      "Ġpersonal": 3482,
      "Ġspecific": 3483,
      "velo": 3484,
      "Ġmid": 3485,
      "Ġexample": 3486,
      "ĠSci": 3487,
      "ĠSpie": 3488,
      "ĠHis": 3489,
      "anges": 3490,
      "Ġfa": 3491,
      "Ġexpl": 3492,
      "atte": 3493,
      "zahl": 3494,
      "ÌĦ": 3495,
      "aby": 3496,
      "External": 3497,
      "ĠRa": 3498,
      "----": 3499,
      "Ġblack": 3500,
      "Ġseit": 3501,
      "omb": 3502,
      "Ġhuman": 3503,
      "Ġzwischen": 3504,
      "acy": 3505,
      "Ġfuture": 3506,
      "ĠNews": 3507,
      "leine": 3508,
      "Ġselbst": 3509,
      "'re": 3510,
      "ĠGesch": 3511,
      "Ġdonc": 3512,
      "Ġeconom": 3513,
      "ĠDem": 3514,
      "Ġtele": 3515,
      "self": 3516,
      "pra": 3517,
      "ael": 3518,
      "Ġperiod": 3519,
      "chts": 3520,
      "ĠTri": 3521,
      "Ġnation": 3522,
      "Ġdiesem": 3523,
      "Ġpuis": 3524,
      "eser": 3525,
      "II": 3526,
      "tellt": 3527,
      "auer": 3528,
      "Ġenough": 3529,
      "Ġrequire": 3530,
      "Ġland": 3531,
      "ĠNi": 3532,
      "odes": 3533,
      "ĠCap": 3534,
      "cting": 3535,
      "Ġinstru": 3536,
      "Ġarticle": 3537,
      "tisch": 3538,
      "Ġbelow": 3539,
      "car": 3540,
      "Ġalready": 3541,
      "Ġame": 3542,
      "ounce": 3543,
      "licher": 3544,
      "ĠFrau": 3545,
      "Ġpurch": 3546,
      "lies": 3547,
      "orted": 3548,
      "cul": 3549,
      "Ġhistor": 3550,
      "Ġseem": 3551,
      "ĠVide": 3552,
      "76": 3553,
      "Ġgiven": 3554,
      "lymp": 3555,
      "ĠCre": 3556,
      "ĠPaul": 3557,
      "phone": 3558,
      "aching": 3559,
      "Ġtotal": 3560,
      "EC": 3561,
      "tische": 3562,
      "ayer": 3563,
      "Â»": 3564,
      "Ġnor": 3565,
      "Ġbeh": 3566,
      "ires": 3567,
      "bild": 3568,
      "isen": 3569,
      "Des": 3570,
      "Ġeinfach": 3571,
      "Ġtechni": 3572,
      "Ġdetail": 3573,
      "Ġfive": 3574,
      "Ġite": 3575,
      "56": 3576,
      "alys": 3577,
      "herche": 3578,
      "ĠWelt": 3579,
      "Ġprob": 3580,
      "Ġerst": 3581,
      "igt": 3582,
      "Ġquick": 3583,
      "ĠJoh": 3584,
      "lobal": 3585,
      "ĠStra": 3586,
      "aque": 3587,
      "ĠAns": 3588,
      "Ġvia": 3589,
      "Ġleast": 3590,
      "Ġnos": 3591,
      "itere": 3592,
      "Ġonce": 3593,
      "Ġgl": 3594,
      "nung": 3595,
      "Ġformer": 3596,
      "Ġmonths": 3597,
      "Ġ2004": 3598,
      "pping": 3599,
      "Il": 3600,
      "omin": 3601,
      "Ġpromo": 3602,
      "59": 3603,
      "Ġmethod": 3604,
      "ued": 3605,
      "ester": 3606,
      "ĠSam": 3607,
      "Ġcomes": 3608,
      "though": 3609,
      "gion": 3610,
      "Ġmatch": 3611,
      "Ġmember": 3612,
      "ĠJuli": 3613,
      "Ġlocated": 3614,
      "irl": 3615,
      "van": 3616,
      "ret": 3617,
      "Ð¾": 3618,
      "Ġanderen": 3619,
      "Ġhours": 3620,
      "ĠUnter": 3621,
      "orne": 3622,
      "lit": 3623,
      "cription": 3624,
      "Ġlar": 3625,
      "Ġcommon": 3626,
      "cision": 3627,
      "geben": 3628,
      "sych": 3629,
      "ledge": 3630,
      "Ġfast": 3631,
      "ei": 3632,
      "Ġdeci": 3633,
      "89": 3634,
      "azi": 3635,
      "Ġrich": 3636,
      "agi": 3637,
      "ĠCenter": 3638,
      "ĠTop": 3639,
      "Ġauthor": 3640,
      "usion": 3641,
      "Ġpays": 3642,
      "Ġpict": 3643,
      "ĠPart": 3644,
      "ĠJean": 3645,
      "Ġmoins": 3646,
      "uage": 3647,
      "Ġmuss": 3648,
      "Ġgetting": 3649,
      "Ġseiner": 3650,
      "ticles": 3651,
      "2016": 3652,
      "ĠJapan": 3653,
      "ĠUp": 3654,
      "Ġinform": 3655,
      "Ġproblem": 3656,
      "Ġfit": 3657,
      "ĠUnd": 3658,
      "Ġjour": 3659,
      "Ġwu": 3660,
      "itung": 3661,
      "Ġfinden": 3662,
      "ĠTre": 3663,
      "Ġwaren": 3664,
      "ĠTu": 3665,
      "ĠEnglish": 3666,
      "Ġquali": 3667,
      "Ġshare": 3668,
      "Ġliving": 3669,
      "Im": 3670,
      "ĠDist": 3671,
      "ĠWilli": 3672,
      "aps": 3673,
      "Ġcommunic": 3674,
      "action": 3675,
      "ĠTag": 3676,
      "ufact": 3677,
      "ĠAfric": 3678,
      "HE": 3679,
      "ĠProgra": 3680,
      "Ġpack": 3681,
      "cing": 3682,
      "ades": 3683,
      "Ġheld": 3684,
      "ĠDay": 3685,
      "antes": 3686,
      "airs": 3687,
      "esting": 3688,
      "Ġpur": 3689,
      "ragen": 3690,
      "ano": 3691,
      "ĠâĢ¢": 3692,
      "asion": 3693,
      "86": 3694,
      "Ġthird": 3695,
      "AG": 3696,
      "br": 3697,
      "Ġcoll": 3698,
      "zy": 3699,
      "Ġwent": 3700,
      "tee": 3701,
      "ĠBei": 3702,
      "Ġindustry": 3703,
      "ĠSon": 3704,
      "Ġfeatures": 3705,
      "ĠBur": 3706,
      "Ġhold": 3707,
      "Ġfavor": 3708,
      "ores": 3709,
      "Ġemail": 3710,
      "ruck": 3711,
      "Ġflo": 3712,
      "sionn": 3713,
      "Ġfriends": 3714,
      "ĠLin": 3715,
      "Ġmeille": 3716,
      "kommen": 3717,
      "Ġsound": 3718,
      "ographie": 3719,
      "ancial": 3720,
      "Ġamong": 3721,
      "creen": 3722,
      "Ġtraining": 3723,
      "Ġinves": 3724,
      "ilities": 3725,
      "ĠForm": 3726,
      "Ġalors": 3727,
      "alifor": 3728,
      "ĠSw": 3729,
      "Sp": 3730,
      "And": 3731,
      "aben": 3732,
      "Ðµ": 3733,
      "Ġganz": 3734,
      "andid": 3735,
      "ĠPi": 3736,
      "Ġvarious": 3737,
      "teurs": 3738,
      "ieurs": 3739,
      "Ġclean": 3740,
      "Ġgrat": 3741,
      "Ġbou": 3742,
      "chieden": 3743,
      "atic": 3744,
      "ĠNet": 3745,
      "aler": 3746,
      "cker": 3747,
      "Ġculture": 3748,
      "issen": 3749,
      "____": 3750,
      "Ġtr": 3751,
      "ST": 3752,
      "Ġresults": 3753,
      "aissance": 3754,
      "arin": 3755,
      "Ġsize": 3756,
      "Ð°": 3757,
      "Ġcontrib": 3758,
      "Ġligne": 3759,
      "unch": 3760,
      "Ġabove": 3761,
      "itchen": 3762,
      "ĠRich": 3763,
      "rez": 3764,
      "ĠPrin": 3765,
      "Ġnews": 3766,
      "hips": 3767,
      "oles": 3768,
      "ĠRoy": 3769,
      "79": 3770,
      "cret": 3771,
      "ieux": 3772,
      "Ġbegi": 3773,
      "ĠGrund": 3774,
      "arning": 3775,
      "oses": 3776,
      "ĠHaus": 3777,
      "Ġpi": 3778,
      "ĠOf": 3779,
      "Ġfront": 3780,
      "wood": 3781,
      "Ġcontent": 3782,
      "ums": 3783,
      "Ġcaree": 3784,
      "Ġcareer": 3785,
      "spi": 3786,
      "Ġtext": 3787,
      "ourt": 3788,
      "ington": 3789,
      "Ġvalue": 3790,
      "Ġdoing": 3791,
      "bit": 3792,
      "Ġmee": 3793,
      "Ġbie": 3794,
      "Ġpress": 3795,
      "ĠFilm": 3796,
      "omas": 3797,
      "Ġmont": 3798,
      "uite": 3799,
      "fit": 3800,
      "ĠBewe": 3801,
      "Ġtas": 3802,
      "Ġsche": 3803,
      "ĠCanada": 3804,
      "Ġpremier": 3805,
      "Ġsimil": 3806,
      "ĠDen": 3807,
      "Ġclai": 3808,
      "amt": 3809,
      "fte": 3810,
      "Ġthought": 3811,
      "cies": 3812,
      "ancer": 3813,
      "halb": 3814,
      "zo": 3815,
      "Ġill": 3816,
      "avy": 3817,
      "eded": 3818,
      "tzen": 3819,
      "stand": 3820,
      "aining": 3821,
      "Ġregion": 3822,
      "ĠPost": 3823,
      "Ġpan": 3824,
      "Ġbuy": 3825,
      "Ġreceived": 3826,
      "Ġcell": 3827,
      "times": 3828,
      "pru": 3829,
      "essen": 3830,
      "Ġmedia": 3831,
      "pris": 3832,
      "........": 3833,
      "Ġfinal": 3834,
      "ĠClub": 3835,
      "hili": 3836,
      "ĠCollege": 3837,
      "stell": 3838,
      "gung": 3839,
      "Pre": 3840,
      "Ġphys": 3841,
      "PS": 3842,
      "lieÃŁ": 3843,
      "Ġtravail": 3844,
      "Ġreleased": 3845,
      "Ġchallen": 3846,
      "New": 3847,
      "Ġwhite": 3848,
      "Ġleurs": 3849,
      "Ġsw": 3850,
      "ĠWal": 3851,
      "rale": 3852,
      "jours": 3853,
      "Ġmm": 3854,
      "timm": 3855,
      "Ġimage": 3856,
      "ener": 3857,
      "Web": 3858,
      "Ġbuilt": 3859,
      "ĠStand": 3860,
      "Ġyoung": 3861,
      "Ġsui": 3862,
      "dien": 3863,
      "fie": 3864,
      "IG": 3865,
      ">|-": 3866,
      "Ġstay": 3867,
      "Ġplayed": 3868,
      "Ġben": 3869,
      "ĠSol": 3870,
      "halt": 3871,
      "akt": 3872,
      "ĠFace": 3873,
      "Ġactually": 3874,
      "Ġenter": 3875,
      "aupt": 3876,
      "Ġrap": 3877,
      "estern": 3878,
      "Ġcra": 3879,
      "titution": 3880,
      "Ġimm": 3881,
      "'ve": 3882,
      "Ġchamp": 3883,
      "There": 3884,
      "Ġneue": 3885,
      "IM": 3886,
      "Ġbef": 3887,
      "emp": 3888,
      "ĠIN": 3889,
      "ĠBritish": 3890,
      "Ġartist": 3891,
      "ĠHu": 3892,
      "Ġreason": 3893,
      "keiten": 3894,
      "mett": 3895,
      "enden": 3896,
      "Ġoffers": 3897,
      "Di": 3898,
      "unst": 3899,
      "Ġareas": 3900,
      "ĠHel": 3901,
      "ING": 3902,
      "atre": 3903,
      "Ġenf": 3904,
      "Ġtrois": 3905,
      "Ð¸": 3906,
      "ĠStar": 3907,
      "uk": 3908,
      "lands": 3909,
      "ommt": 3910,
      "lag": 3911,
      "58": 3912,
      "ĠOut": 3913,
      "Ġavoir": 3914,
      "ĠMore": 3915,
      "Ġpol": 3916,
      "Ġphotos": 3917,
      "ĠSome": 3918,
      "Ġissues": 3919,
      "Ġni": 3920,
      "illed": 3921,
      "hle": 3922,
      "ĠTour": 3923,
      "ĠCent": 3924,
      "Ġtoute": 3925,
      "rank": 3926,
      "Ġclients": 3927,
      "Ġfamili": 3928,
      "asing": 3929,
      "Ġrecord": 3930,
      "Ġcu": 3931,
      "arten": 3932,
      "acher": 3933,
      "sian": 3934,
      "rated": 3935,
      "ĠEins": 3936,
      "Ġfig": 3937,
      "tivity": 3938,
      "itation": 3939,
      "Ġfootball": 3940,
      "Ġplease": 3941,
      "ENT": 3942,
      "estival": 3943,
      "tzt": 3944,
      "rir": 3945,
      "Ġstation": 3946,
      "Ġersten": 3947,
      "ago": 3948,
      "Ġpaper": 3949,
      "Ġtal": 3950,
      "Ġsearch": 3951,
      "ĠWer": 3952,
      "Ġbrand": 3953,
      "Ġwide": 3954,
      "ĠSing": 3955,
      "urz": 3956,
      "Ġ2003": 3957,
      "Ġdidn": 3958,
      "Ġcause": 3959,
      "ĠMenschen": 3960,
      "Ġevents": 3961,
      "ĠMil": 3962,
      "tischen": 3963,
      "anger": 3964,
      "ĠBild": 3965,
      "rige": 3966,
      "ĠImp": 3967,
      "How": 3968,
      "vil": 3969,
      "ĠTechn": 3970,
      "abe": 3971,
      "ĠMac": 3972,
      "Ġdamit": 3973,
      "\":\"": 3974,
      "Ġproperty": 3975,
      "Ġpopular": 3976,
      "ĠLeague": 3977,
      "Ġjoin": 3978,
      "ĠMem": 3979,
      ">#": 3980,
      "Ġhalf": 3981,
      "rable": 3982,
      "Ġfunction": 3983,
      "Ġsoit": 3984,
      "ators": 3985,
      "Ab": 3986,
      "ĠCi": 3987,
      "lam": 3988,
      "over": 3989,
      "Ġ35": 3990,
      "zimmer": 3991,
      "gleich": 3992,
      "gence": 3993,
      "attle": 3994,
      "Ġspa": 3995,
      "Ġetwas": 3996,
      "rious": 3997,
      "Ġfurther": 3998,
      "ĠAnge": 3999,
      "partment": 4000,
      "Ġupd": 4001,
      "rement": 4002,
      "Ġmilit": 4003,
      "aum": 4004,
      "Ġcontro": 4005,
      "Ġaccount": 4006,
      "ĠSuper": 4007,
      "Ġago": 4008,
      "Ġsent": 4009,
      "Ġautres": 4010,
      "resh": 4011,
      "ĠGrand": 4012,
      "rieb": 4013,
      "ĠNord": 4014,
      "pons": 4015,
      "Ġcook": 4016,
      "Ġtell": 4017,
      "hrend": 4018,
      "Ġled": 4019,
      "born": 4020,
      "ico": 4021,
      "ĠUntern": 4022,
      "Ġcreated": 4023,
      "ĠRad": 4024,
      "Ġresult": 4025,
      "ula": 4026,
      "ĠBru": 4027,
      "Ġtoutes": 4028,
      "ĠMen": 4029,
      "Ġlate": 4030,
      "aged": 4031,
      "ĠGoogle": 4032,
      "anning": 4033,
      "Ġasse": 4034,
      "Ġparty": 4035,
      "ogni": 4036,
      "ĠFree": 4037,
      "Ġhon": 4038,
      "Ġstop": 4039,
      "mittel": 4040,
      "Ġsignific": 4041,
      "son": 4042,
      "Ġaction": 4043,
      "sident": 4044,
      "ĠPal": 4045,
      "ktion": 4046,
      "ppen": 4047,
      "UN": 4048,
      "Ġroad": 4049,
      "ĠKir": 4050,
      "dia": 4051,
      "Ġwriting": 4052,
      "Ġbox": 4053,
      "olis": 4054,
      "ĠGew": 4055,
      "Ġbegan": 4056,
      "EM": 4057,
      "Ġseen": 4058,
      "Ġtrouve": 4059,
      "Ġyet": 4060,
      "ĠSil": 4061,
      "Ġjetzt": 4062,
      "gie": 4063,
      "Ġpetit": 4064,
      "Ġschn": 4065,
      "oe": 4066,
      "Ġprevious": 4067,
      "ĠSchu": 4068,
      "ĠSk": 4069,
      "ground": 4070,
      "57": 4071,
      "Ġfeature": 4072,
      "'ll": 4073,
      "tat": 4074,
      "RO": 4075,
      "Ġinvest": 4076,
      "pecially": 4077,
      "rself": 4078,
      "ĠFlor": 4079,
      "69": 4080,
      "zeug": 4081,
      "Ġville": 4082,
      "Ġta": 4083,
      "emple": 4084,
      "ĠTest": 4085,
      "gesch": 4086,
      "Ġbooks": 4087,
      "ĠStreet": 4088,
      "phi": 4089,
      "ĠKinder": 4090,
      "Ġred": 4091,
      "ĠIde": 4092,
      "board": 4093,
      "ourne": 4094,
      "All": 4095,
      "ĠJuni": 4096,
      "Ġlocation": 4097,
      "nger": 4098,
      "Ġaddress": 4099,
      "stu": 4100,
      "Ġincluded": 4101,
      "Ġcolor": 4102,
      "ĠSec": 4103,
      "antas": 4104,
      "ica": 4105,
      "Ġfilms": 4106,
      "mers": 4107,
      "ĠFem": 4108,
      "Ġ@": 4109,
      "orie": 4110,
      "Ġsil": 4111,
      "Ġadminist": 4112,
      "imm": 4113,
      "rance": 4114,
      "Ġjoue": 4115,
      "Ġintrodu": 4116,
      "rad": 4117,
      "Ġcut": 4118,
      "Ġvac": 4119,
      "ĠDavid": 4120,
      "pose": 4121,
      "lim": 4122,
      "rti": 4123,
      "dom": 4124,
      "rist": 4125,
      "Ġideas": 4126,
      "ĠÂ·": 4127,
      "Ġmas": 4128,
      "ĠUK": 4129,
      "Ġdefin": 4130,
      "Ġsuis": 4131,
      "Ġgeht": 4132,
      "ĠChina": 4133,
      "lines": 4134,
      "Ġdevelo": 4135,
      "Ġstrong": 4136,
      "Ġvillage": 4137,
      "ierre": 4138,
      "irit": 4139,
      "Ich": 4140,
      "Ġunivers": 4141,
      "ĠCons": 4142,
      "Ġcombin": 4143,
      "Ġpartie": 4144,
      "oute": 4145,
      "ĠTex": 4146,
      "Ġ(*": 4147,
      "ĠGeme": 4148,
      "Ġhor": 4149,
      "Ġvarie": 4150,
      "bie": 4151,
      "anced": 4152,
      "ĠEmp": 4153,
      "gency": 4154,
      "Ġkosten": 4155,
      "ĠElle": 4156,
      "Ġrequired": 4157,
      "ĠAmerica": 4158,
      "ĠTur": 4159,
      "istance": 4160,
      "BN": 4161,
      "Ġsus": 4162,
      "Ġtrain": 4163,
      "Ġouts": 4164,
      "Ġrole": 4165,
      "Ġmeas": 4166,
      "??": 4167,
      "stag": 4168,
      "fully": 4169,
      "Ġrom": 4170,
      "mental": 4171,
      "ĠRec": 4172,
      "Ġ2002": 4173,
      "oins": 4174,
      "Ġcove": 4175,
      "Ġven": 4176,
      "ĠSchw": 4177,
      "alifornia": 4178,
      "ĠVis": 4179,
      "xe": 4180,
      "Ġclose": 4181,
      "ĠHealth": 4182,
      "Ġbin": 4183,
      "bon": 4184,
      "aging": 4185,
      "Ġfonction": 4186,
      "Ġself": 4187,
      "Ġedition": 4188,
      "ĠCal": 4189,
      "tikel": 4190,
      "Ġsera": 4191,
      "Ġdec": 4192,
      "ĠMode": 4193,
      "Ġsystems": 4194,
      "Ġbad": 4195,
      "dy": 4196,
      "Ġkom": 4197,
      "Ġtur": 4198,
      "zz": 4199,
      "oix": 4200,
      "Ġtaking": 4201,
      "hu": 4202,
      "Ġfee": 4203,
      "Ġzuru": 4204,
      "ĠAlex": 4205,
      "IE": 4206,
      "Ġimprove": 4207,
      "hel": 4208,
      "Ġband": 4209,
      "una": 4210,
      "Ġdesigned": 4211,
      "tien": 4212,
      "ya": 4213,
      "ĠBusiness": 4214,
      "Ġopp": 4215,
      "ĠRen": 4216,
      "Ġleg": 4217,
      "Ġcentre": 4218,
      "Ġir": 4219,
      "IV": 4220,
      "Ġcaus": 4221,
      "roid": 4222,
      "To": 4223,
      "Ġtown": 4224,
      "ĠAct": 4225,
      "Ġeither": 4226,
      "Ġdoesn": 4227,
      "Ġpris": 4228,
      "Ġkonn": 4229,
      "ĠCle": 4230,
      "Ġwhole": 4231,
      "Ġprovides": 4232,
      "Aut": 4233,
      "venue": 4234,
      "Ġappar": 4235,
      "IR": 4236,
      "Ġ80": 4237,
      "Ġsites": 4238,
      "Ġproper": 4239,
      "Ġenergy": 4240,
      "Ġchez": 4241,
      "ĠSport": 4242,
      "Ġdrei": 4243,
      "Ġeffic": 4244,
      "icro": 4245,
      "unter": 4246,
      "ĠRus": 4247,
      "Ġincludes": 4248,
      "Ġreading": 4249,
      "Ġfire": 4250,
      "ised": 4251,
      "Ġfab": 4252,
      "len": 4253,
      "Ġinc": 4254,
      "vels": 4255,
      "Ġmodel": 4256,
      "chan": 4257,
      "Ġgeneral": 4258,
      "ief": 4259,
      "azu": 4260,
      "Ġwan": 4261,
      "Ġprovided": 4262,
      "fahren": 4263,
      "Ġshi": 4264,
      "aines": 4265,
      "Ġtoujours": 4266,
      "zug": 4267,
      "unktion": 4268,
      "ĠBed": 4269,
      "atique": 4270,
      "ĠJose": 4271,
      "aw": 4272,
      "wir": 4273,
      "Ġhowever": 4274,
      "ological": 4275,
      "Ġquelques": 4276,
      "Ġentire": 4277,
      "Ġlis": 4278,
      "ĠBundes": 4279,
      "Ġhappen": 4280,
      "Ġheart": 4281,
      "riff": 4282,
      "Ġbereits": 4283,
      "Ġfai": 4284,
      "merican": 4285,
      "Ġexplo": 4286,
      "oren": 4287,
      "ichts": 4288,
      "Ġmaison": 4289,
      "warz": 4290,
      "At": 4291,
      "alita": 4292,
      "inte": 4293,
      "ncil": 4294,
      "hrung": 4295,
      "zing": 4296,
      "lang": 4297,
      "gers": 4298,
      "Ġsource": 4299,
      "Ġmachen": 4300,
      "Ġsold": 4301,
      "Ġmeine": 4302,
      "change": 4303,
      "ym": 4304,
      "hei": 4305,
      "Ġpasse": 4306,
      "Ho": 4307,
      "Ġviele": 4308,
      "Ġiden": 4309,
      "ditional": 4310,
      "BC": 4311,
      "kla": 4312,
      "Ġgleich": 4313,
      "Ġbal": 4314,
      "ateurs": 4315,
      "head": 4316,
      "titute": 4317,
      "coup": 4318,
      "Ġcontinue": 4319,
      "ĠWie": 4320,
      "Ġpen": 4321,
      "Ġ2001": 4322,
      "udies": 4323,
      "Ġmois": 4324,
      "Ġ09": 4325,
      "Ġinstall": 4326,
      "Ġquar": 4327,
      "gang": 4328,
      "ffentlich": 4329,
      "ĠGeneral": 4330,
      "Ġregard": 4331,
      "iction": 4332,
      "inden": 4333,
      "87": 4334,
      "ĠUne": 4335,
      "ato": 4336,
      "Ġreport": 4337,
      "Ġphoto": 4338,
      "oni": 4339,
      "cours": 4340,
      "Ġsens": 4341,
      "atten": 4342,
      "ĠStud": 4343,
      "Ġmachi": 4344,
      "Ġsuite": 4345,
      "ĠHall": 4346,
      "Ġdoch": 4347,
      "ĠIndia": 4348,
      "ĠFrom": 4349,
      "ĠOffice": 4350,
      "Ġannounce": 4351,
      "Ġtrack": 4352,
      "Ġdev": 4353,
      "field": 4354,
      "Qu": 4355,
      "Ġidea": 4356,
      "54": 4357,
      "Ġbeste": 4358,
      "stead": 4359,
      "Ġcann": 4360,
      "akes": 4361,
      "uff": 4362,
      "ĠFar": 4363,
      "Bl": 4364,
      "bach": 4365,
      "Ġthi": 4366,
      "rice": 4367,
      "Ġtw": 4368,
      "Ġextre": 4369,
      "uisi": 4370,
      "Ġbreak": 4371,
      ">[": 4372,
      "Ġcorre": 4373,
      "Ġpat": 4374,
      "When": 4375,
      "uti": 4376,
      "ĠGroup": 4377,
      "Pour": 4378,
      "hop": 4379,
      "Ġeffect": 4380,
      "mary": 4381,
      "fre": 4382,
      "Ġjusqu": 4383,
      "nisse": 4384,
      "Ġcommit": 4385,
      "Ġ--": 4386,
      "uth": 4387,
      "ĠNa": 4388,
      "Ġchi": 4389,
      "ĠMad": 4390,
      "ðŁ": 4391,
      "leb": 4392,
      "ĠServices": 4393,
      "augh": 4394,
      "Ġprivate": 4395,
      "Ġsomeone": 4396,
      "Ġstaff": 4397,
      "crit": 4398,
      "llt": 4399,
      "Ġsolution": 4400,
      "rde": 4401,
      "coming": 4402,
      "ĠPlan": 4403,
      "Ce": 4404,
      "ola": 4405,
      "oid": 4406,
      "ested": 4407,
      "azin": 4408,
      "Mit": 4409,
      "ml": 4410,
      "Si": 4411,
      "Ġround": 4412,
      "serv": 4413,
      "Ġeing": 4414,
      "ĠTeam": 4415,
      "Ġporte": 4416,
      "Ġcommen": 4417,
      "Ġrepair": 4418,
      "tiert": 4419,
      "ube": 4420,
      "64": 4421,
      "Ġstock": 4422,
      "Ġemploye": 4423,
      "Ġwww": 4424,
      "ownload": 4425,
      "ĠSel": 4426,
      "Ġletz": 4427,
      "Ġmachin": 4428,
      "Ġhope": 4429,
      "werk": 4430,
      "ĠItali": 4431,
      "Ġencou": 4432,
      "ĠEast": 4433,
      "ĠTor": 4434,
      "wend": 4435,
      "aily": 4436,
      "zation": 4437,
      "Ġ90": 4438,
      "issens": 4439,
      "Ġinn": 4440,
      "IP": 4441,
      "once": 4442,
      "67": 4443,
      "Ġtaken": 4444,
      "See": 4445,
      "53": 4446,
      "Ġassoci": 4447,
      "Ġsoftware": 4448,
      "ĠLaw": 4449,
      "geme": 4450,
      "vous": 4451,
      "Hist": 4452,
      "ĠMichael": 4453,
      "Ġcard": 4454,
      "ĠAM": 4455,
      "ĠFrench": 4456,
      "Ġzwe": 4457,
      "aurant": 4458,
      "cident": 4459,
      "68": 4460,
      "elves": 4461,
      "mark": 4462,
      "rieur": 4463,
      "ented": 4464,
      "unkt": 4465,
      "ĠBook": 4466,
      "Ġandere": 4467,
      "aches": 4468,
      "Ġcv": 4469,
      "Ġcondu": 4470,
      "Ġwhether": 4471,
      "Ġequip": 4472,
      "TM": 4473,
      "raus": 4474,
      "usik": 4475,
      "Ġborn": 4476,
      "ĠDar": 4477,
      "ĠEle": 4478,
      "ĠUSA": 4479,
      "Ġpossib": 4480,
      "list": 4481,
      "atives": 4482,
      "iser": 4483,
      "alysis": 4484,
      "uisin": 4485,
      "ĠWhite": 4486,
      "Ġappear": 4487,
      "ĠAN": 4488,
      "Ġallem": 4489,
      "cal": 4490,
      "ĠCD": 4491,
      "este": 4492,
      "Ġachie": 4493,
      "ĠOk": 4494,
      "Ġadded": 4495,
      "Ġpropose": 4496,
      "2015": 4497,
      "Ġmainten": 4498,
      "unes": 4499,
      "Ġtrop": 4500,
      "Ġpor": 4501,
      "Ġva": 4502,
      "pisode": 4503,
      "Ġdim": 4504,
      "Ġmessage": 4505,
      "fini": 4506,
      "ĠAndre": 4507,
      "ĠRei": 4508,
      "ĠPlus": 4509,
      "ordin": 4510,
      ">âĢ¢": 4511,
      "atus": 4512,
      "Ġsoci": 4513,
      "lite": 4514,
      "Ġnun": 4515,
      "fo": 4516,
      "ota": 4517,
      "Ġscho": 4518,
      "kely": 4519,
      "52": 4520,
      "ĠPas": 4521,
      "hlt": 4522,
      "ĠGold": 4523,
      ".)": 4524,
      "Ġdouble": 4525,
      "Ġgeho": 4526,
      "ĠIndian": 4527,
      "ĠCamp": 4528,
      "ĠMas": 4529,
      "tieren": 4530,
      "fel": 4531,
      "ĠKa": 4532,
      "ĠBuch": 4533,
      "Ġmachine": 4534,
      "ilos": 4535,
      "AU": 4536,
      "Ġdocument": 4537,
      "ĠPen": 4538,
      "umi": 4539,
      "Ġjedoch": 4540,
      "ida": 4541,
      "ety": 4542,
      "Ġcat": 4543,
      "51": 4544,
      "igher": 4545,
      "Es": 4546,
      "oun": 4547,
      "Ġconcern": 4548,
      "Ġabsol": 4549,
      "Ġoptions": 4550,
      "Ġwritten": 4551,
      "Ġnatural": 4552,
      "usive": 4553,
      "veloppe": 4554,
      "Ġcasino": 4555,
      "Ġalmost": 4556,
      "Ġmanufact": 4557,
      "ctors": 4558,
      "Ġoption": 4559,
      "Ġaccomp": 4560,
      "pective": 4561,
      "Ġissue": 4562,
      "Ġavait": 4563,
      "ĠRest": 4564,
      "ritt": 4565,
      "rine": 4566,
      "Ġpractice": 4567,
      "Ġ)": 4568,
      "Ġdistrib": 4569,
      "aker": 4570,
      ">â": 4571,
      "AB": 4572,
      "osing": 4573,
      "ĠWohn": 4574,
      "Ġsau": 4575,
      "Ġemb": 4576,
      "Ġcin": 4577,
      "ĠSocie": 4578,
      "sente": 4579,
      "Ġalles": 4580,
      "ollen": 4581,
      "ĠJames": 4582,
      "uc": 4583,
      "gew": 4584,
      "tici": 4585,
      "aci": 4586,
      "Ġlon": 4587,
      "ewer": 4588,
      "Ġbelieve": 4589,
      "Ġindic": 4590,
      "Ġheute": 4591,
      "ĠBand": 4592,
      "fang": 4593,
      "ĠÂ»,": 4594,
      "Car": 4595,
      "urer": 4596,
      "ĠSti": 4597,
      "inf": 4598,
      "Ġzusammen": 4599,
      "ĠRoad": 4600,
      "ĠGen": 4601,
      "ĠPreis": 4602,
      "Ġagree": 4603,
      "cast": 4604,
      "ached": 4605,
      "rative": 4606,
      "Ġausge": 4607,
      "Ġjours": 4608,
      "ĠFacebook": 4609,
      "Ġimages": 4610,
      "tein": 4611,
      "Ġminim": 4612,
      "atory": 4613,
      "Ġmobile": 4614,
      "ĠPC": 4615,
      "uisine": 4616,
      "Ġproblems": 4617,
      "Ġvehic": 4618,
      "ĠAre": 4619,
      "leur": 4620,
      "Ġdabei": 4621,
      "ĠGreen": 4622,
      "Ġdieses": 4623,
      "ĠHen": 4624,
      "illet": 4625,
      "ĠPlay": 4626,
      "hab": 4627,
      "ĠAlle": 4628,
      "Ġwich": 4629,
      "OP": 4630,
      "wort": 4631,
      "ĠEm": 4632,
      "Ġverw": 4633,
      "llent": 4634,
      "formed": 4635,
      "Ġaffe": 4636,
      "Ġils": 4637,
      "terst": 4638,
      "Ġpeti": 4639,
      "udes": 4640,
      "ĠDel": 4641,
      "Ġneeded": 4642,
      "ĠWa": 4643,
      "raine": 4644,
      "zes": 4645,
      "Ġaltern": 4646,
      "Ġrecomm": 4647,
      "Ġdei": 4648,
      "rials": 4649,
      "Ġcouple": 4650,
      "dule": 4651,
      "Ġ08": 4652,
      "ĠChin": 4653,
      "Ġground": 4654,
      "uren": 4655,
      "eks": 4656,
      "Ġparts": 4657,
      "Ġuser": 4658,
      "ĠBank": 4659,
      "aving": 4660,
      "Ġsimilar": 4661,
      "Ġnecess": 4662,
      "Am": 4663,
      "Or": 4664,
      "Ġsection": 4665,
      "Ġworked": 4666,
      "ĠDaten": 4667,
      "Ġdetermin": 4668,
      "otos": 4669,
      "Ġpercent": 4670,
      "ĠTro": 4671,
      "ĠStu": 4672,
      "TS": 4673,
      "endre": 4674,
      "Ġnamed": 4675,
      "links": 4676,
      "Ġmilli": 4677,
      "Ġhttps": 4678,
      "Ġ70": 4679,
      "ĠCompany": 4680,
      "Ġsecurity": 4681,
      "Ġdel": 4682,
      "Â®": 4683,
      "ĠFirst": 4684,
      "Ġviol": 4685,
      "ĠLy": 4686,
      "ibli": 4687,
      "gar": 4688,
      "ĠMais": 4689,
      "ĠWindows": 4690,
      "Tra": 4691,
      "esch": 4692,
      "ĠOp": 4693,
      "Ġamaz": 4694,
      "itet": 4695,
      "ĠAma": 4696,
      "ĠRegion": 4697,
      "oms": 4698,
      "ĠVert": 4699,
      "mande": 4700,
      "Ġfaut": 4701,
      "Ġvoy": 4702,
      "nig": 4703,
      "zw": 4704,
      "auss": 4705,
      "ĠFahr": 4706,
      "Ġclear": 4707,
      "Ġforce": 4708,
      "Ġmaxim": 4709,
      "Ġstandard": 4710,
      "Ġcandid": 4711,
      "Ġwatch": 4712,
      "Ġplat": 4713,
      "Ġful": 4714,
      "agin": 4715,
      "abel": 4716,
      "under": 4717,
      "ln": 4718,
      "put": 4719,
      "ellow": 4720,
      "oires": 4721,
      "ueil": 4722,
      "Ġcentury": 4723,
      "Ver": 4724,
      "hire": 4725,
      "Ġthin": 4726,
      "dis": 4727,
      "ĠSee": 4728,
      "Ġshows": 4729,
      "Ġreli": 4730,
      "Ġparents": 4731,
      "atest": 4732,
      "Ġwall": 4733,
      "ynam": 4734,
      "Ġ500": 4735,
      "bles": 4736,
      "box": 4737,
      "Ġchau": 4738,
      "endent": 4739,
      "Ġerfol": 4740,
      "zeln": 4741,
      "illing": 4742,
      "ĠSchn": 4743,
      "altung": 4744,
      "Ġbud": 4745,
      "ĠParty": 4746,
      "eau": 4747,
      "mic": 4748,
      "Ġregular": 4749,
      "Ġattra": 4750,
      "ĠFa": 4751,
      "text": 4752,
      "Ġmoi": 4753,
      "ized": 4754,
      "Ġtypes": 4755,
      "antly": 4756,
      "Ġmodi": 4757,
      "Ġdit": 4758,
      "ĠThomas": 4759,
      "ets": 4760,
      "ĠMax": 4761,
      "Ġtravel": 4762,
      "Notes": 4763,
      "Ġwen": 4764,
      "tellen": 4765,
      "igkeit": 4766,
      "ĠIhnen": 4767,
      "osen": 4768,
      "Ġdetails": 4769,
      "plo": 4770,
      "Ġamount": 4771,
      "Ġchanges": 4772,
      "ĠPhili": 4773,
      "ĠRiver": 4774,
      "ĠWash": 4775,
      "Ġplaye": 4776,
      "Ġsale": 4777,
      "ensch": 4778,
      "Ġinterest": 4779,
      "alisation": 4780,
      "Ġplayer": 4781,
      "Ġquite": 4782,
      "ĠPM": 4783,
      "unt": 4784,
      "ĠEUR": 4785,
      "ĠWei": 4786,
      "Ġmix": 4787,
      "Ġoutside": 4788,
      "hood": 4789,
      "rc": 4790,
      "Ġphone": 4791,
      "feld": 4792,
      "Ġcela": 4793,
      "Ġsondern": 4794,
      "tified": 4795,
      "ĠInc": 4796,
      "obile": 4797,
      "ĠJac": 4798,
      "cteur": 4799,
      "ĠPan": 4800,
      "ĠChurch": 4801,
      "Ġmiss": 4802,
      "Ġrather": 4803,
      "place": 4804,
      "tab": 4805,
      "ĠSub": 4806,
      "year": 4807,
      "bat": 4808,
      "ĠGet": 4809,
      "pare": 4810,
      "Ġarri": 4811,
      "inger": 4812,
      "RA": 4813,
      "Ġobje": 4814,
      "Is": 4815,
      "My": 4816,
      "Ġsoon": 4817,
      "Ġanything": 4818,
      "Ġmeet": 4819,
      "ĠPeter": 4820,
      "ocation": 4821,
      "falls": 4822,
      "ĠMid": 4823,
      "enten": 4824,
      "Sie": 4825,
      "Ġtrue": 4826,
      "ĠSex": 4827,
      "Ġsimply": 4828,
      "ĠEine": 4829,
      "Ġsepar": 4830,
      "Fu": 4831,
      "Ġconst": 4832,
      "Ġadap": 4833,
      "CE": 4834,
      "vey": 4835,
      "kon": 4836,
      "eds": 4837,
      "Ġnouveau": 4838,
      "ji": 4839,
      "Ġeig": 4840,
      "Ġrate": 4841,
      "oft": 4842,
      "Ġstri": 4843,
      "ĠKont": 4844,
      "Ġmort": 4845,
      "Ġinflu": 4846,
      "Ġreste": 4847,
      "ĠGa": 4848,
      "Ġ1999": 4849,
      "iques": 4850,
      "lagen": 4851,
      "Ġanci": 4852,
      "SS": 4853,
      "Ġloss": 4854,
      "Ġdern": 4855,
      "orial": 4856,
      "ĠEngland": 4857,
      "fy": 4858,
      "can": 4859,
      "isting": 4860,
      "ĠNow": 4861,
      "Ġupon": 4862,
      "Ġeveryone": 4863,
      "Ġneuen": 4864,
      "autres": 4865,
      "Ġ45": 4866,
      "ĠCH": 4867,
      "Ġplaces": 4868,
      "2013": 4869,
      "inter": 4870,
      "Ġusually": 4871,
      "Ġtakes": 4872,
      "ctif": 4873,
      "Ġlearning": 4874,
      "vez": 4875,
      "2014": 4876,
      "ĠRoman": 4877,
      "Ìģ<": 4878,
      "Ġchurch": 4879,
      "Ġstra": 4880,
      "ĠBon": 4881,
      "74": 4882,
      "ttes": 4883,
      "grund": 4884,
      "By": 4885,
      "Ġsqu": 4886,
      "ĠMark": 4887,
      "oon": 4888,
      "aling": 4889,
      "ĠRobert": 4890,
      "cious": 4891,
      "ĠSand": 4892,
      "asons": 4893,
      "Ġserved": 4894,
      "rote": 4895,
      "Ġstore": 4896,
      "aries": 4897,
      "amment": 4898,
      "Ġmoy": 4899,
      "Ġsaf": 4900,
      "tschaft": 4901,
      "Ġleaders": 4902,
      "ĠRet": 4903,
      "ĠVous": 4904,
      "ffer": 4905,
      "Ġplans": 4906,
      "ĠDies": 4907,
      "lip": 4908,
      "Ġprog": 4909,
      "Ġways": 4910,
      "ilien": 4911,
      "Ġbeaucoup": 4912,
      "ĠSystem": 4913,
      "ĠClass": 4914,
      "Ġrights": 4915,
      "Ġ06": 4916,
      "cel": 4917,
      "84": 4918,
      "Ġgrande": 4919,
      "Ġple": 4920,
      "https": 4921,
      "Ġoil": 4922,
      "lation": 4923,
      "ĠOlymp": 4924,
      "Ġremp": 4925,
      "Ġunters": 4926,
      "ĠOri": 4927,
      "Ġsollte": 4928,
      "ĠSen": 4929,
      "Ġbehind": 4930,
      "fall": 4931,
      "Ġmention": 4932,
      "hist": 4933,
      "ĠBad": 4934,
      "ĠMusic": 4935,
      "ĠRob": 4936,
      "Ġwords": 4937,
      "coun": 4938,
      "ila": 4939,
      "App": 4940,
      "tres": 4941,
      "tant": 4942,
      "ashion": 4943,
      "han": 4944,
      "Ġ1990": 4945,
      "Ġpick": 4946,
      "det": 4947,
      "Ġrunning": 4948,
      "Ġpartir": 4949,
      "ĠDistrict": 4950,
      "ium": 4951,
      "imp": 4952,
      "lled": 4953,
      "ares": 4954,
      "Ġchoose": 4955,
      "mus": 4956,
      "ktu": 4957,
      "Ġactive": 4958,
      "win": 4959,
      "ĠLib": 4960,
      "ĠSchul": 4961,
      "tty": 4962,
      "Aus": 4963,
      "Ġscienti": 4964,
      "zel": 4965,
      "ails": 4966,
      "ĠLove": 4967,
      "Ġlost": 4968,
      "orage": 4969,
      "isme": 4970,
      "Ġlassen": 4971,
      "ĠProble": 4972,
      "Ġhar": 4973,
      "Ġwanted": 4974,
      "Ġul": 4975,
      "ities": 4976,
      "ĠTele": 4977,
      "ĠSeite": 4978,
      "fits": 4979,
      "Ġnie": 4980,
      "Ġbri": 4981,
      "Ġtitle": 4982,
      "Ġinternet": 4983,
      "Ġdigital": 4984,
      "cm": 4985,
      "eur": 4986,
      "kn": 4987,
      "Ġdog": 4988,
      "Ġreceive": 4989,
      "unicip": 4990,
      "rais": 4991,
      "Ġyourself": 4992,
      "bour": 4993,
      "Ġcover": 4994,
      "aign": 4995,
      "pped": 4996,
      "Ġtalk": 4997,
      "Ġpermett": 4998,
      "Ġcoming": 4999,
      "ĠFer": 5000,
      "ĠEnde": 5001,
      "ĠOrgan": 5002,
      "Ġ01": 5003,
      "illa": 5004,
      "Ġgou": 5005,
      "oma": 5006,
      "ĠMuseum": 5007,
      "kun": 5008,
      "American": 5009,
      "leg": 5010,
      "reichen": 5011,
      "ĠLouis": 5012,
      "ĠÂ»<": 5013,
      "ĠKi": 5014,
      "chst": 5015,
      "Ġnice": 5016,
      "Ġgroupe": 5017,
      "2012": 5018,
      "opping": 5019,
      "83": 5020,
      "Ġmat": 5021,
      "No": 5022,
      "Ġkommen": 5023,
      "cte": 5024,
      "Ġchance": 5025,
      "Ġsag": 5026,
      "venir": 5027,
      "ĠLife": 5028,
      "Ġseinen": 5029,
      "cipe": 5030,
      "ressed": 5031,
      "ĠPub": 5032,
      "Ġhigher": 5033,
      "ĠCa": 5034,
      "Ġlikely": 5035,
      "Ġcustomer": 5036,
      "Ġqualite": 5037,
      "Ġsales": 5038,
      "Ġhit": 5039,
      "Ġextern": 5040,
      "ĠNous": 5041,
      "ĠBa": 5042,
      "Ġlic": 5043,
      "ĠMain": 5044,
      "ĠCup": 5045,
      "bere": 5046,
      "Ġinside": 5047,
      "ĠFall": 5048,
      "72": 5049,
      "Ġnote": 5050,
      "ĠCas": 5051,
      "ambre": 5052,
      "Ġfond": 5053,
      "Ġscience": 5054,
      "buch": 5055,
      "vres": 5056,
      "eering": 5057,
      "SE": 5058,
      "ĠDiese": 5059,
      "Ġpolicy": 5060,
      "ennen": 5061,
      "Ġinj": 5062,
      "hof": 5063,
      "Ġcher": 5064,
      "Ġvoir": 5065,
      "ĠEuropean": 5066,
      "ĠEst": 5067,
      "ĠYear": 5068,
      "Ġautre": 5069,
      "ĠBlog": 5070,
      "Ġlanguage": 5071,
      "ado": 5072,
      "ala": 5073,
      "Ġble": 5074,
      "ĠHoch": 5075,
      "ĠBor": 5076,
      "ĠNie": 5077,
      "Ġliegt": 5078,
      "ends": 5079,
      "Ġdeal": 5080,
      "Ġihrer": 5081,
      "Ġnetwork": 5082,
      "ĠMount": 5083,
      "Ġ{": 5084,
      "Ġremo": 5085,
      "rung": 5086,
      "Ġforward": 5087,
      "ysi": 5088,
      "anta": 5089,
      "Ġcomputer": 5090,
      "Ġword": 5091,
      "pts": 5092,
      "ultural": 5093,
      "Ġincrease": 5094,
      "ĠJahrh": 5095,
      "ffee": 5096,
      "ĠSP": 5097,
      "ĠMartin": 5098,
      "Ġensure": 5099,
      "500": 5100,
      "Ġrelated": 5101,
      "Ġgest": 5102,
      "mited": 5103,
      "Ġcompte": 5104,
      "73": 5105,
      "gies": 5106,
      "ĠBay": 5107,
      "Ġmedical": 5108,
      "fern": 5109,
      "ĠFranc": 5110,
      "Ġsen": 5111,
      "Ġinno": 5112,
      "ĠWil": 5113,
      "Ġnut": 5114,
      "ĠGreat": 5115,
      "wes": 5116,
      "Ġdru": 5117,
      "mine": 5118,
      "Ġnouvelle": 5119,
      "ckt": 5120,
      "ĠNov": 5121,
      "Ġhabit": 5122,
      "uments": 5123,
      "Ġcet": 5124,
      "ĠKn": 5125,
      "Man": 5126,
      "rade": 5127,
      "MS": 5128,
      "Ġmaint": 5129,
      "Ġswe": 5130,
      "mu": 5131,
      "ĠIhr": 5132,
      "cript": 5133,
      "Ġprobably": 5134,
      "Ġkitchen": 5135,
      "Ġku": 5136,
      "âĢľ,": 5137,
      "Ġcoup": 5138,
      "ĠÎ": 5139,
      "IF": 5140,
      "rian": 5141,
      "ergie": 5142,
      "phe": 5143,
      "chaften": 5144,
      "Ġjud": 5145,
      "ĠPress": 5146,
      "Ġnive": 5147,
      "Ġrisk": 5148,
      "Ġ32": 5149,
      "olin": 5150,
      "Ġtold": 5151,
      "Ġbus": 5152,
      "Ġsitue": 5153,
      "hui": 5154,
      "dre": 5155,
      "stadt": 5156,
      "Ġcomfort": 5157,
      "rating": 5158,
      "Ġboard": 5159,
      "Weblinks": 5160,
      "Ġkids": 5161,
      "63": 5162,
      "Ġkommt": 5163,
      "CC": 5164,
      "cus": 5165,
      "wh": 5166,
      "Ġrefer": 5167,
      "ĠAuch": 5168,
      "Ġdort": 5169,
      "ĠJourn": 5170,
      "ĠST": 5171,
      "Ġmise": 5172,
      "ĠDou": 5173,
      "Ġsn": 5174,
      "Ġlonger": 5175,
      "house": 5176,
      "Ġscreen": 5177,
      "Ġweeks": 5178,
      "98": 5179,
      "Ġstep": 5180,
      "ĠTod": 5181,
      "Ġsteht": 5182,
      "ocra": 5183,
      "Ġchaque": 5184,
      "recht": 5185,
      "Ġquand": 5186,
      "elling": 5187,
      "Ġtrying": 5188,
      "\".<": 5189,
      "reng": 5190,
      "member": 5191,
      "Wir": 5192,
      "Ġwonder": 5193,
      "Ġgroups": 5194,
      "yes": 5195,
      "Ġpatients": 5196,
      "sterreich": 5197,
      "Ġ07": 5198,
      "Ġparf": 5199,
      "rief": 5200,
      "Ġseule": 5201,
      "ĠGeorge": 5202,
      "Ġgradu": 5203,
      "Ġrelease": 5204,
      "ĠVir": 5205,
      "ĠHil": 5206,
      "ĠHal": 5207,
      "rlich": 5208,
      "Ġbath": 5209,
      "Ġstudent": 5210,
      "gg": 5211,
      "Ġmatter": 5212,
      "Ġready": 5213,
      "legen": 5214,
      "nden": 5215,
      "Ġarchite": 5216,
      "Ġ1998": 5217,
      "azine": 5218,
      "ĠVo": 5219,
      "ĠISBN": 5220,
      "eller": 5221,
      "sider": 5222,
      "ĠKunst": 5223,
      "ario": 5224,
      "iele": 5225,
      "ength": 5226,
      "Ġsle": 5227,
      "Ġclick": 5228,
      "lla": 5229,
      "rass": 5230,
      "Ġfort": 5231,
      "Ġesp": 5232,
      "Ġparticu": 5233,
      "Ġmaterial": 5234,
      "ĠBal": 5235,
      "hem": 5236,
      "based": 5237,
      "Ġ;<": 5238,
      "Ġhappy": 5239,
      "Ġ[...": 5240,
      "Ġcredit": 5241,
      "tag": 5242,
      "oye": 5243,
      "Ġvrai": 5244,
      "olic": 5245,
      "dings": 5246,
      "Ġfall": 5247,
      "ices": 5248,
      "Ġeinge": 5249,
      "Ġball": 5250,
      "irls": 5251,
      "Posted": 5252,
      "owers": 5253,
      "Ġhot": 5254,
      "west": 5255,
      "utter": 5256,
      "Ìģ.<": 5257,
      "Ġaverage": 5258,
      "Ġcourt": 5259,
      "ban": 5260,
      "ĠFil": 5261,
      "tober": 5262,
      "Ġsugges": 5263,
      "roy": 5264,
      "rings": 5265,
      "ãĤ": 5266,
      "ĠIndust": 5267,
      "62": 5268,
      "sult": 5269,
      "Ġbott": 5270,
      "tten": 5271,
      "lying": 5272,
      "fense": 5273,
      "Ġfolgen": 5274,
      "alie": 5275,
      "71": 5276,
      "Ġpages": 5277,
      "NE": 5278,
      "Ġmarche": 5279,
      "Ġihn": 5280,
      "Ġinspi": 5281,
      "rigen": 5282,
      "cutive": 5283,
      "istant": 5284,
      "Ġexcl": 5285,
      "ĠOber": 5286,
      "Ġfix": 5287,
      "ierten": 5288,
      "tise": 5289,
      "Ġban": 5290,
      "Ġleading": 5291,
      "ĠOpen": 5292,
      "Ġvan": 5293,
      "edding": 5294,
      "áĨ": 5295,
      "ses": 5296,
      "seite": 5297,
      "Ġprojects": 5298,
      "ulte": 5299,
      "ĠInte": 5300,
      "Ġskills": 5301,
      "Ġwalk": 5302,
      "Ġaf": 5303,
      "ĠWilliam": 5304,
      "ĠGl": 5305,
      "ennes": 5306,
      "SP": 5307,
      "Ġsicher": 5308,
      "ossen": 5309,
      "82": 5310,
      "Ġdoit": 5311,
      "wing": 5312,
      "Ġterms": 5313,
      "esearch": 5314,
      "Ġattemp": 5315,
      "tigt": 5316,
      "Ġconc": 5317,
      "Ġstage": 5318,
      "wahl": 5319,
      "DE": 5320,
      "Ġitems": 5321,
      "ĠWasser": 5322,
      "pf": 5323,
      "zei": 5324,
      "ĠFri": 5325,
      "Ġusers": 5326,
      "Ġprior": 5327,
      "Ġrese": 5328,
      "jourd": 5329,
      "ĠOs": 5330,
      "Ġcannot": 5331,
      "ĠMary": 5332,
      "Ġplaying": 5333,
      "Ġadj": 5334,
      "Ġsymp": 5335,
      "ĠRead": 5336,
      "Ġjan": 5337,
      "aded": 5338,
      "Ġdemande": 5339,
      "essor": 5340,
      "Ġleave": 5341,
      "arte": 5342,
      "ĠMex": 5343,
      "IA": 5344,
      "lise": 5345,
      "aves": 5346,
      "ĠDans": 5347,
      ".âĢĿ<": 5348,
      "Ġdiesen": 5349,
      "Ġpolice": 5350,
      "Ġpsych": 5351,
      "Ġgoal": 5352,
      "hmen": 5353,
      "Ġrecogni": 5354,
      "ĠSun": 5355,
      "nister": 5356,
      "Ġbirths": 5357,
      "ĠCasino": 5358,
      "Ġcenter": 5359,
      "file": 5360,
      "ĠDurch": 5361,
      "mont": 5362,
      "ĠÂ£": 5363,
      "ĠCouncil": 5364,
      "Ġcross": 5365,
      ";<": 5366,
      "Pers": 5367,
      "61": 5368,
      "istry": 5369,
      "Ġsummer": 5370,
      "reib": 5371,
      "witter": 5372,
      "rift": 5373,
      "sa": 5374,
      "enced": 5375,
      "produ": 5376,
      "ĠAward": 5377,
      "tempor": 5378,
      "gue": 5379,
      "ocal": 5380,
      "Ġcomplex": 5381,
      "ĠAcc": 5382,
      "inn": 5383,
      "Ġexper": 5384,
      "nahme": 5385,
      "rime": 5386,
      "vient": 5387,
      "Ġunsere": 5388,
      "stei": 5389,
      "ĠCentre": 5390,
      "Dis": 5391,
      "lings": 5392,
      "rieben": 5393,
      "ielt": 5394,
      "mbH": 5395,
      "itte": 5396,
      "ÑĤ": 5397,
      "Ġdenn": 5398,
      "ĠSom": 5399,
      "zem": 5400,
      "Ġclient": 5401,
      "à¸": 5402,
      "itar": 5403,
      "nel": 5404,
      "Ġcollabor": 5405,
      "ĠArbeit": 5406,
      "||": 5407,
      "Ġoct": 5408,
      "ĠEnd": 5409,
      "lected": 5410,
      "enior": 5411,
      "Ġsoli": 5412,
      "organ": 5413,
      "Ġtarge": 5414,
      "quent": 5415,
      "Ġrecent": 5416,
      "ĠHum": 5417,
      "ĠRock": 5418,
      "Ġpropos": 5419,
      "Ġforme": 5420,
      "Ġcop": 5421,
      "Ġgrowth": 5422,
      "Ġtom": 5423,
      "dies": 5424,
      "deral": 5425,
      "char": 5426,
      "Ġed": 5427,
      "ĠLog": 5428,
      "lik": 5429,
      "Ġdiscus": 5430,
      "rome": 5431,
      "ura": 5432,
      "ĠFol": 5433,
      "ĠLet": 5434,
      "asin": 5435,
      "2010": 5436,
      "bern": 5437,
      "Ġutilise": 5438,
      "ws": 5439,
      "ĠVan": 5440,
      "ission": 5441,
      "ĠLebens": 5442,
      "Ġreser": 5443,
      ">>": 5444,
      "gl": 5445,
      "Cont": 5446,
      "Ġbor": 5447,
      "Ġnatu": 5448,
      "Ġplant": 5449,
      "Ġcommune": 5450,
      "Ġsave": 5451,
      "Ġinne": 5452,
      "Ġmine": 5453,
      "Our": 5454,
      "ĠMiss": 5455,
      "ĠPlatz": 5456,
      "Ġpermet": 5457,
      "Ġlieu": 5458,
      "Ð½": 5459,
      "After": 5460,
      "Ġterrit": 5461,
      "Ġgesch": 5462,
      "ancy": 5463,
      "Ġsun": 5464,
      "ÑĢ": 5465,
      "Ġdivers": 5466,
      "Ġeben": 5467,
      "Ġfemme": 5468,
      "alized": 5469,
      "jekt": 5470,
      "Ġproduits": 5471,
      "vec": 5472,
      "Ġcel": 5473,
      "ĠDet": 5474,
      "orting": 5475,
      "Ġapproach": 5476,
      "ception": 5477,
      "Ġdoor": 5478,
      "Ġnorth": 5479,
      "ĠIsland": 5480,
      "icros": 5481,
      "Ġpretty": 5482,
      "von": 5483,
      "door": 5484,
      "Ġem": 5485,
      "zt": 5486,
      "Ġanaly": 5487,
      "Ġinvolved": 5488,
      "hibi": 5489,
      "ĠArbeits": 5490,
      "Ġjam": 5491,
      "ĠUnion": 5492,
      "ĠBig": 5493,
      "rik": 5494,
      "Ġpeuvent": 5495,
      "ĠPriv": 5496,
      "Ġdisplay": 5497,
      "Ġlives": 5498,
      "wie": 5499,
      "reek": 5500,
      "Ġpositive": 5501,
      "Ġsouth": 5502,
      "ãģ": 5503,
      "Ġpendant": 5504,
      "inst": 5505,
      "Ġproce": 5506,
      "Ġpath": 5507,
      "tzung": 5508,
      "ĠRepublic": 5509,
      "lers": 5510,
      "platz": 5511,
      "ĠWhile": 5512,
      "Ġsaw": 5513,
      "ĠOktober": 5514,
      "Ġ39": 5515,
      "forder": 5516,
      "Ġwood": 5517,
      "ĠReview": 5518,
      "atin": 5519,
      "ĠAmazon": 5520,
      "anner": 5521,
      "Ġsurface": 5522,
      "ĠLong": 5523,
      "81": 5524,
      "Ġmass": 5525,
      "Ġdeep": 5526,
      "ĠCourt": 5527,
      "Ġmoved": 5528,
      "Ġvariety": 5529,
      "ads": 5530,
      "Mo": 5531,
      "lais": 5532,
      "Ġetwa": 5533,
      "Ġhear": 5534,
      "Ġneu": 5535,
      "Ġspecies": 5536,
      "Ġkon": 5537,
      "Ġcases": 5538,
      "Ġshop": 5539,
      "Ġlink": 5540,
      "Ġ00": 5541,
      "ĠMel": 5542,
      "angen": 5543,
      "Ġdir": 5544,
      "Ġelectric": 5545,
      "Ġsem": 5546,
      "Ġeigen": 5547,
      "bet": 5548,
      "Ġasked": 5549,
      "serve": 5550,
      "Ġdazu": 5551,
      "Ġmultiple": 5552,
      "ĠTa": 5553,
      "Ġihren": 5554,
      "aud": 5555,
      "gent": 5556,
      "Ġask": 5557,
      "oule": 5558,
      "Bu": 5559,
      "Ġkaufen": 5560,
      "ĠBeit": 5561,
      "Ġafin": 5562,
      "Er": 5563,
      "alien": 5564,
      "raining": 5565,
      "utt": 5566,
      "Ġshall": 5567,
      "ĠWenn": 5568,
      "Ġtrade": 5569,
      "ĠErs": 5570,
      "Ġcirc": 5571,
      "iller": 5572,
      "ĠMitg": 5573,
      "ĠVideo": 5574,
      "gree": 5575,
      "ronic": 5576,
      "Ġmars": 5577,
      "Ġhous": 5578,
      "Ġdied": 5579,
      "Ġenfants": 5580,
      "ĠCong": 5581,
      "Nach": 5582,
      "Ġdrive": 5583,
      "ĠCro": 5584,
      "Ġfather": 5585,
      "AF": 5586,
      "arian": 5587,
      "Ġclim": 5588,
      "Ġinstead": 5589,
      "ĠProgram": 5590,
      "ĠPlease": 5591,
      "ĠRoyal": 5592,
      "alley": 5593,
      "Ġgri": 5594,
      "see": 5595,
      "Ġowners": 5596,
      "ider": 5597,
      "Ġerste": 5598,
      "opf": 5599,
      "avig": 5600,
      "ressive": 5601,
      "ĠGmbH": 5602,
      "Ġmari": 5603,
      "Ġweil": 5604,
      "2011": 5605,
      "ĠAca": 5606,
      "Ġprograms": 5607,
      "ĠMr": 5608,
      "Ġengine": 5609,
      "Ġplatform": 5610,
      "dens": 5611,
      "ĠRem": 5612,
      "semble": 5613,
      "klich": 5614,
      "Ġelse": 5615,
      "ĠAngel": 5616,
      "Ġtun": 5617,
      "Ġwelche": 5618,
      "nchen": 5619,
      "ouvez": 5620,
      "Ġmeeting": 5621,
      "Ġhoch": 5622,
      "ictor": 5623,
      "TV": 5624,
      "GB": 5625,
      "Ġweitere": 5626,
      "Ġexact": 5627,
      "terstu": 5628,
      "quis": 5629,
      ">Â«": 5630,
      "anche": 5631,
      "ulations": 5632,
      "Ġrace": 5633,
      "Ġsports": 5634,
      "Ġavis": 5635,
      "ĠHere": 5636,
      "ohn": 5637,
      "Ġimpact": 5638,
      "Ind": 5639,
      "kannt": 5640,
      "Ġstre": 5641,
      "ĠKunden": 5642,
      "Ġterm": 5643,
      "ospital": 5644,
      "ĠPos": 5645,
      "isters": 5646,
      "Ġdise": 5647,
      "ĠCharles": 5648,
      "Ġremove": 5649,
      "Ġkleine": 5650,
      "bind": 5651,
      "Ġlatest": 5652,
      "Ġappre": 5653,
      "Ġgef": 5654,
      "ĠTom": 5655,
      "ĠSE": 5656,
      "obre": 5657,
      "Cl": 5658,
      "Ġidenti": 5659,
      "Ġvit": 5660,
      "Ġchoice": 5661,
      "Ġkonnte": 5662,
      "Ġ000": 5663,
      "Ġskin": 5664,
      "Ġalign": 5665,
      "hes": 5666,
      "ĠJes": 5667,
      "Ġamazing": 5668,
      "ĠKre": 5669,
      "schn": 5670,
      "',": 5671,
      "ĠLeben": 5672,
      "Ġbeg": 5673,
      "Ġitself": 5674,
      "Ġnove": 5675,
      "achen": 5676,
      "press": 5677,
      ">*": 5678,
      "ndig": 5679,
      "Ġseinem": 5680,
      "With": 5681,
      "ĠMass": 5682,
      "Ġnothing": 5683,
      "ĠJanuar": 5684,
      "Au": 5685,
      "Ġ36": 5686,
      "ĠPublic": 5687,
      "istre": 5688,
      "kle": 5689,
      "Ġihm": 5690,
      "Ġton": 5691,
      "cite": 5692,
      "Ġlower": 5693,
      "Ñģ": 5694,
      "sur": 5695,
      "rger": 5696,
      "oys": 5697,
      "iden": 5698,
      "But": 5699,
      "lot": 5700,
      "ĠHor": 5701,
      "Ġsubject": 5702,
      "ĠIsra": 5703,
      "Do": 5704,
      "Ġquickly": 5705,
      "Ġ300": 5706,
      "ocol": 5707,
      "ĠMate": 5708,
      "ĠFru": 5709,
      "Ġ1997": 5710,
      "allery": 5711,
      "ĠFrauen": 5712,
      "Ġprojet": 5713,
      "timate": 5714,
      "ĠLang": 5715,
      "tze": 5716,
      "pm": 5717,
      "Ġliter": 5718,
      "Ġisn": 5719,
      "Ġdest": 5720,
      "ĠLim": 5721,
      "Ġpouvez": 5722,
      "Ġpm": 5723,
      "Ġglobal": 5724,
      "chnik": 5725,
      "Ġdecided": 5726,
      "Ġjuin": 5727,
      "Ġgru": 5728,
      "rm": 5729,
      "Ġroute": 5730,
      "ĠScience": 5731,
      "ĠâĨ": 5732,
      "ĠPower": 5733,
      "ĠGood": 5734,
      "fest": 5735,
      "rasse": 5736,
      "century": 5737,
      "urniture": 5738,
      "Ġdecor": 5739,
      "ĠRE": 5740,
      "Ġcapac": 5741,
      "lose": 5742,
      "Ġ1996": 5743,
      "Ġbzw": 5744,
      "Ġwish": 5745,
      "cas": 5746,
      "igns": 5747,
      "Ġmother": 5748,
      "rust": 5749,
      "ĠFlu": 5750,
      "Ġgener": 5751,
      "ĠBlue": 5752,
      "Ġhair": 5753,
      "ĠAlso": 5754,
      "Ġdein": 5755,
      "ĠAli": 5756,
      "ologies": 5757,
      "gabe": 5758,
      "ĠBack": 5759,
      "anda": 5760,
      "vest": 5761,
      "ona": 5762,
      "96": 5763,
      "Ġdecision": 5764,
      "Bi": 5765,
      "Ġsuit": 5766,
      "ctures": 5767,
      "Vi": 5768,
      "vrier": 5769,
      "ĠVal": 5770,
      "rought": 5771,
      "ĠLau": 5772,
      "ston": 5773,
      "undert": 5774,
      "ĠFort": 5775,
      "ĠBlu": 5776,
      "Ġexpect": 5777,
      "Ġrepre": 5778,
      "ora": 5779,
      "ĠHier": 5780,
      "Ġsavoir": 5781,
      "Ġeasily": 5782,
      "uz": 5783,
      "Ġworth": 5784,
      "Ġlegal": 5785,
      "ĠDam": 5786,
      "piele": 5787,
      "vidence": 5788,
      "ĠAv": 5789,
      "OW": 5790,
      "UE": 5791,
      "à¤": 5792,
      "Ġgreen": 5793,
      "tional": 5794,
      "One": 5795,
      "BA": 5796,
      "ĠWebsite": 5797,
      "rength": 5798,
      "liance": 5799,
      "Ġpurchase": 5800,
      "Ġcru": 5801,
      "Ġfla": 5802,
      "Ġintera": 5803,
      "Ġbur": 5804,
      "Ġ1980": 5805,
      "Ġimmedi": 5806,
      "Ġreve": 5807,
      "Ġtouch": 5808,
      "icin": 5809,
      "Ġweight": 5810,
      "93": 5811,
      "Ġemer": 5812,
      "forme": 5813,
      "anzen": 5814,
      "ĠArtikel": 5815,
      "Ġrecently": 5816,
      "Ġanyone": 5817,
      "Ac": 5818,
      "Ġsatis": 5819,
      "Ġwrote": 5820,
      "ĠVon": 5821,
      "Ġallows": 5822,
      "Ġseems": 5823,
      "Ġfloor": 5824,
      "pub": 5825,
      "ĠSet": 5826,
      "ĠUN": 5827,
      "olden": 5828,
      "ĠEar": 5829,
      "Ġstatt": 5830,
      "like": 5831,
      "UT": 5832,
      "Ġfamille": 5833,
      "havi": 5834,
      "uerre": 5835,
      "ĠUs": 5836,
      "Ġwrite": 5837,
      "Ġexci": 5838,
      "plan": 5839,
      "ĠElect": 5840,
      "Ġdistrict": 5841,
      "heits": 5842,
      "Ġgold": 5843,
      "cape": 5844,
      "ĠAber": 5845,
      "cid": 5846,
      "Ġindep": 5847,
      "adian": 5848,
      "Ġexemple": 5849,
      "ĠMei": 5850,
      "Ġbegin": 5851,
      "pes": 5852,
      "wers": 5853,
      "Ġcustom": 5854,
      "Ġak": 5855,
      "97": 5856,
      "Ġmission": 5857,
      "ĠEv": 5858,
      "Ġ04": 5859,
      "Mi": 5860,
      "Ġerhalten": 5861,
      "sement": 5862,
      "lisation": 5863,
      "Ġrock": 5864,
      "Ġconfi": 5865,
      "Ġcoo": 5866,
      "achweise": 5867,
      "anze": 5868,
      "craft": 5869,
      "ĠAuto": 5870,
      "Ġability": 5871,
      "ĠResearch": 5872,
      "riel": 5873,
      "Ġmorning": 5874,
      "nement": 5875,
      "AA": 5876,
      "peri": 5877,
      "utschein": 5878,
      "Ġsmo": 5879,
      "Ġlooks": 5880,
      "bus": 5881,
      "Ġblock": 5882,
      "zember": 5883,
      "more": 5884,
      "Ġniveau": 5885,
      "ilosoph": 5886,
      "ationship": 5887,
      "Einzeln": 5888,
      "mselves": 5889,
      "ĠFuÃŁ": 5890,
      "orsch": 5891,
      "Ġcad": 5892,
      "Ġproduit": 5893,
      "zig": 5894,
      "ĠGermany": 5895,
      "ellschaft": 5896,
      "Ġlevels": 5897,
      "force": 5898,
      "Ġselon": 5899,
      "ardi": 5900,
      "Ġproduced": 5901,
      "wert": 5902,
      "Ġarticles": 5903,
      "ĠOver": 5904,
      "tem": 5905,
      "cs": 5906,
      "ĠJus": 5907,
      "Ġsafe": 5908,
      "enty": 5909,
      "hers": 5910,
      "ĠIT": 5911,
      "umen": 5912,
      "ĠGal": 5913,
      "Ġanalysis": 5914,
      "vite": 5915,
      "FF": 5916,
      "DR": 5917,
      "outhern": 5918,
      "identi": 5919,
      "Ġap": 5920,
      "prises": 5921,
      "ĠMost": 5922,
      "ĠTexas": 5923,
      "ultur": 5924,
      "cole": 5925,
      "wicklung": 5926,
      "Ġsense": 5927,
      "94": 5928,
      "92": 5929,
      "Ġschools": 5930,
      "Ġarbe": 5931,
      "pite": 5932,
      "Ġinstal": 5933,
      "lauf": 5934,
      "Ġsort": 5935,
      "anging": 5936,
      "ĠLake": 5937,
      "Ġgem": 5938,
      "ĠEngi": 5939,
      "cia": 5940,
      "Ġtran": 5941,
      "Ġgave": 5942,
      "Ġdrin": 5943,
      "ĠWomen": 5944,
      "ĠHaupt": 5945,
      "Ġspect": 5946,
      "orthern": 5947,
      "Ġdav": 5948,
      "bas": 5949,
      "ĠEngin": 5950,
      "Ġstudies": 5951,
      "LA": 5952,
      "Ste": 5953,
      "Ġjeu": 5954,
      "Ġcart": 5955,
      "sse": 5956,
      "neh": 5957,
      "pan": 5958,
      "ĠEU": 5959,
      "chafts": 5960,
      "Che": 5961,
      "ĠWill": 5962,
      "CT": 5963,
      "Ġ05": 5964,
      "ĠBoard": 5965,
      "Ġfresh": 5966,
      "cine": 5967,
      "cembre": 5968,
      "Ġinvestig": 5969,
      "bro": 5970,
      "Ġflu": 5971,
      "Ġnormal": 5972,
      "ĠTime": 5973,
      "user": 5974,
      "Ġaudi": 5975,
      "prechen": 5976,
      "Ġhighly": 5977,
      "ĠFestival": 5978,
      "kunft": 5979,
      "ĠSund": 5980,
      "ĠDownload": 5981,
      "ĠSei": 5982,
      "rel": 5983,
      "cho": 5984,
      "ĠðŁ": 5985,
      "OUR": 5986,
      "Ġspirit": 5987,
      "Ġbonne": 5988,
      "ises": 5989,
      "Ġteil": 5990,
      "ĠFound": 5991,
      "Als": 5992,
      "Ġteams": 5993,
      "Ġ02": 5994,
      "ardin": 5995,
      "DA": 5996,
      "Ġreported": 5997,
      "Ġunserer": 5998,
      "ĠWater": 5999,
      "Ġsac": 6000,
      "ĠComment": 6001,
      "Ġ1995": 6002,
      "Ġhost": 6003,
      "olid": 6004,
      "cover": 6005,
      "ĠSociety": 6006,
      "umin": 6007,
      "ĠCur": 6008,
      "bec": 6009,
      "Euro": 6010,
      "ĠCette": 6011,
      "oh": 6012,
      "Ġadop": 6013,
      "Ġnume": 6014,
      "aite": 6015,
      "Ġrei": 6016,
      "color": 6017,
      "ionship": 6018,
      "ĠCare": 6019,
      "Ġvier": 6020,
      "Ġsurvi": 6021,
      "ĠTHE": 6022,
      "Ġdernie": 6023,
      "titude": 6024,
      "stal": 6025,
      "ĠFrancis": 6026,
      "Ġoffen": 6027,
      "Ġtransfer": 6028,
      "Ġspielen": 6029,
      "Ġhol": 6030,
      "ĠDezember": 6031,
      "Ġwife": 6032,
      "Ġradio": 6033,
      "Ġsubs": 6034,
      "Ġpartners": 6035,
      "test": 6036,
      "ĠAcadem": 6037,
      "Ġmanage": 6038,
      "ĠTable": 6039,
      "achi": 6040,
      "Ġship": 6041,
      "ĠPatri": 6042,
      "ĠFC": 6043,
      "ĠKl": 6044,
      "Ġcollege": 6045,
      "Ġspeed": 6046,
      "rump": 6047,
      "Ġsport": 6048,
      "Ġbek": 6049,
      "ĠForum": 6050,
      "uted": 6051,
      "Ġgel": 6052,
      "VD": 6053,
      "Ġserve": 6054,
      "opyright": 6055,
      "ĠUl": 6056,
      "ĠGames": 6057,
      "ĠNeu": 6058,
      "ĠSite": 6059,
      "auty": 6060,
      "ĠOrt": 6061,
      "comes": 6062,
      "oration": 6063,
      "Ġattack": 6064,
      "ĠWin": 6065,
      "Ġmilitary": 6066,
      "onders": 6067,
      "Ġtools": 6068,
      "Ġsupe": 6069,
      "used": 6070,
      "raum": 6071,
      "Ġones": 6072,
      "Ġdispon": 6073,
      "Ġdaugh": 6074,
      "ĠGran": 6075,
      "punkt": 6076,
      "ĠCentral": 6077,
      "Ġdepart": 6078,
      "Ġcho": 6079,
      "ointed": 6080,
      "BS": 6081,
      "Ġgiving": 6082,
      "ited": 6083,
      "lacement": 6084,
      "Ġchap": 6085,
      "ĠStart": 6086,
      "paration": 6087,
      "Ġconvers": 6088,
      "Ġcosts": 6089,
      "Ġcuisine": 6090,
      "Ġdaily": 6091,
      "Ġwoman": 6092,
      "Ġdernier": 6093,
      "Med": 6094,
      "Ġfeed": 6095,
      "Ġsafety": 6096,
      "Ġjanvier": 6097,
      "ĠWell": 6098,
      "Ġfish": 6099,
      "andel": 6100,
      "ĠBeach": 6101,
      "Ġfabric": 6102,
      "Ġpiece": 6103,
      "ĠBern": 6104,
      "Ġ33": 6105,
      "Univers": 6106,
      "rast": 6107,
      "Ġbeiden": 6108,
      "Ġbesten": 6109,
      "istan": 6110,
      "ĠGemeinde": 6111,
      "jou": 6112,
      "ĠFebruar": 6113,
      "pg": 6114,
      "aser": 6115,
      "ĠGroÃŁ": 6116,
      "Ġconten": 6117,
      "tered": 6118,
      "Ġdirectly": 6119,
      "ureau": 6120,
      "Ġparties": 6121,
      "Ġeinmal": 6122,
      "Ġtowards": 6123,
      "Ġ150": 6124,
      "teller": 6125,
      "mium": 6126,
      "ĠAfrica": 6127,
      "UM": 6128,
      "aled": 6129,
      "Ins": 6130,
      "ĠChic": 6131,
      "Ġglass": 6132,
      "Ġeduc": 6133,
      "Ġdefe": 6134,
      "ategory": 6135,
      "ĠBewert": 6136,
      "stein": 6137,
      "ĠBrand": 6138,
      "ĠUr": 6139,
      "lication": 6140,
      "Ġfavorite": 6141,
      "ĠCy": 6142,
      "Ġmettre": 6143,
      "Ġgives": 6144,
      "ĠSpan": 6145,
      "Ġdevice": 6146,
      "Ġrund": 6147,
      "ĠInf": 6148,
      "ĠKind": 6149,
      "ĠDra": 6150,
      "tically": 6151,
      "Ġsud": 6152,
      "Ġcelui": 6153,
      "anni": 6154,
      "ĠBud": 6155,
      "enk": 6156,
      "jo": 6157,
      "Ġlimited": 6158,
      "usa": 6159,
      "ĠÂ©": 6160,
      "Ġstories": 6161,
      "Ġconstit": 6162,
      "velopment": 6163,
      "ĠAbs": 6164,
      "ĠTem": 6165,
      "auen": 6166,
      "Ġ1994": 6167,
      "Ġofficial": 6168,
      "idung": 6169,
      "yond": 6170,
      "Ġsepte": 6171,
      "oliday": 6172,
      "ĠWinter": 6173,
      "Ġbroad": 6174,
      "Ġneg": 6175,
      "Ġclin": 6176,
      "Ġjeder": 6177,
      "sst": 6178,
      "aming": 6179,
      "annel": 6180,
      "Ġ1970": 6181,
      "roll": 6182,
      "orter": 6183,
      "ĠGeor": 6184,
      "Produ": 6185,
      "Ġhands": 6186,
      "Ġplas": 6187,
      "Ġdroit": 6188,
      "Ġlivre": 6189,
      "Ġagre": 6190,
      "Ġrespons": 6191,
      "Ġfal": 6192,
      "Ġwest": 6193,
      "azz": 6194,
      "ĠShow": 6195,
      "Ġbul": 6196,
      "Ġeffet": 6197,
      "ĠNE": 6198,
      "Acc": 6199,
      "itel": 6200,
      "Ġgirl": 6201,
      "aussures": 6202,
      "ommun": 6203,
      "Ġrapide": 6204,
      "Ġ03": 6205,
      "ĠFern": 6206,
      "Ġneigh": 6207,
      "Ġeli": 6208,
      "aks": 6209,
      "stellung": 6210,
      "Ġgoes": 6211,
      "curite": 6212,
      "Ġtrip": 6213,
      "Ġrespect": 6214,
      "Ġmarque": 6215,
      "su": 6216,
      "Ġextreme": 6217,
      "Ġschnell": 6218,
      "ĠFoot": 6219,
      "ĠAP": 6220,
      "ĠLive": 6221,
      "!!!": 6222,
      "well": 6223,
      "kreis": 6224,
      "ĠJust": 6225,
      "liers": 6226,
      "ĠKat": 6227,
      "unge": 6228,
      "ĠCat": 6229,
      "ously": 6230,
      "tify": 6231,
      "telli": 6232,
      "ĠShop": 6233,
      "Ġsend": 6234,
      "Ġorganis": 6235,
      "Ġvolume": 6236,
      "ĠBeis": 6237,
      "tivite": 6238,
      "Ġplanning": 6239,
      "Ġanswer": 6240,
      "91": 6241,
      "ĠFemme": 6242,
      "Ġhotel": 6243,
      "ĠJew": 6244,
      "ĠMann": 6245,
      "Ġgas": 6246,
      "Ġfantas": 6247,
      "aurants": 6248,
      "Ġchose": 6249,
      "ropri": 6250,
      "Ġsehen": 6251,
      "Ġclasse": 6252,
      "teau": 6253,
      "ĠKap": 6254,
      "gas": 6255,
      "ĠLos": 6256,
      "chied": 6257,
      "oser": 6258,
      "ena": 6259,
      "ĠArchi": 6260,
      "Ġblood": 6261,
      "ĠAL": 6262,
      "ĠHom": 6263,
      "ĠMos": 6264,
      "pted": 6265,
      "Ġcentral": 6266,
      "ĠCode": 6267,
      "gene": 6268,
      "Ġfest": 6269,
      "mentation": 6270,
      "Ġmale": 6271,
      "ady": 6272,
      "ahmen": 6273,
      "icrosoft": 6274,
      "Ġbank": 6275,
      "Da": 6276,
      "Ġblue": 6277,
      "Ġunit": 6278,
      "top": 6279,
      "ativ": 6280,
      ".:": 6281,
      "bote": 6282,
      "ĠSchl": 6283,
      "IB": 6284,
      "gestellt": 6285,
      "achsen": 6286,
      "ATION": 6287,
      "Ġfine": 6288,
      "igu": 6289,
      "Ġcorres": 6290,
      "Ġ34": 6291,
      "acing": 6292,
      "2009": 6293,
      "occ": 6294,
      "Ġstates": 6295,
      "Ġ38": 6296,
      "ĠRos": 6297,
      "ĠSar": 6298,
      "Ġaufge": 6299,
      "Ġnorm": 6300,
      "Ġformat": 6301,
      "ĠHill": 6302,
      "Une": 6303,
      "Ġdoll": 6304,
      "ĠKosten": 6305,
      "Ġuses": 6306,
      "rary": 6307,
      "ĠEvery": 6308,
      "kten": 6309,
      "ĠPat": 6310,
      "Ġemploy": 6311,
      "ĠHy": 6312,
      "Ġstrength": 6313,
      "Ġconcl": 6314,
      "Ġhimself": 6315,
      "ĠStudi": 6316,
      "Ġavons": 6317,
      "ĠWood": 6318,
      "aters": 6319,
      "Ġproduce": 6320,
      "ielle": 6321,
      "Ġsmart": 6322,
      "Ro": 6323,
      "Ġ1992": 6324,
      "Ġmacht": 6325,
      "Ġeu": 6326,
      "Ġgeme": 6327,
      "DS": 6328,
      "rikan": 6329,
      "Ø§": 6330,
      "2020": 6331,
      "amples": 6332,
      "Ġpicture": 6333,
      "minal": 6334,
      "ĠEnts": 6335,
      "Ġletzten": 6336,
      "Ġmicro": 6337,
      "ĠAR": 6338,
      "Ġpros": 6339,
      "ĠGescha": 6340,
      "Ġtant": 6341,
      "Ġtraite": 6342,
      "ĠIII": 6343,
      "Ġdeb": 6344,
      "ringe": 6345,
      "mitted": 6346,
      "Ġfais": 6347,
      "ĠGeld": 6348,
      "tation": 6349,
      "Ġsty": 6350,
      "Chr": 6351,
      "Ġinde": 6352,
      ".-": 6353,
      "acc": 6354,
      "ĠMedia": 6355,
      "Pri": 6356,
      "meld": 6357,
      "Ġallen": 6358,
      "unities": 6359,
      "alid": 6360,
      "ingen": 6361,
      "tices": 6362,
      "ĠZwe": 6363,
      "Ġbenefits": 6364,
      "hy": 6365,
      "Ġmovie": 6366,
      "Phone": 6367,
      "Ġverb": 6368,
      "cie": 6369,
      "Ġsta": 6370,
      "Ġbietet": 6371,
      "Ġlimit": 6372,
      "Pub": 6373,
      "Ġserious": 6374,
      "pri": 6375,
      "Ġdirector": 6376,
      "ĠLA": 6377,
      "Ġfully": 6378,
      "ĠRou": 6379,
      "ĠPf": 6380,
      "ĠDivision": 6381,
      "enses": 6382,
      "ĠCO": 6383,
      "ĠCam": 6384,
      "fon": 6385,
      "Ġconsult": 6386,
      "uri": 6387,
      "Ġtex": 6388,
      "porate": 6389,
      "Ġfamilies": 6390,
      "Ġsouh": 6391,
      "ĠReal": 6392,
      "Ġcontinu": 6393,
      "ĠWall": 6394,
      "Ġsucce": 6395,
      "Ġobtain": 6396,
      "ĠGame": 6397,
      "dite": 6398,
      "Ġcool": 6399,
      ">|-<": 6400,
      "fique": 6401,
      "Ġhuge": 6402,
      "ĠMusik": 6403,
      "Ġici": 6404,
      "hler": 6405,
      "Can": 6406,
      "ĠMittel": 6407,
      "Ser": 6408,
      "Ġavez": 6409,
      "ktur": 6410,
      "Ġwarm": 6411,
      "bildung": 6412,
      "ĠSn": 6413,
      "Ġstarting": 6414,
      "Ġinner": 6415,
      "arbeit": 6416,
      "Ġwirklich": 6417,
      "ĠOld": 6418,
      "Ġchois": 6419,
      "ockey": 6420,
      "zus": 6421,
      "ĠRuss": 6422,
      "Ġstorage": 6423,
      "quet": 6424,
      "Ġoccur": 6425,
      "ĠBou": 6426,
      "ĠThema": 6427,
      "Ġvs": 6428,
      "gro": 6429,
      "ĠPage": 6430,
      "Ġrecom": 6431,
      "Ġconsider": 6432,
      "ĠMat": 6433,
      "ĠArts": 6434,
      "Ġstehen": 6435,
      "Ġgab": 6436,
      "ĠEss": 6437,
      "log": 6438,
      "Ġmount": 6439,
      "Ġ48": 6440,
      "ĠDep": 6441,
      "Ġresponse": 6442,
      "Ġsum": 6443,
      "ĠRichard": 6444,
      "pet": 6445,
      "Ġbudget": 6446,
      "fla": 6447,
      "Ġarrive": 6448,
      "Ġvic": 6449,
      "wan": 6450,
      "Ġkam": 6451,
      "Ġcapt": 6452,
      "ĠPass": 6453,
      "Ġlargest": 6454,
      "Ġeinige": 6455,
      "agra": 6456,
      "TC": 6457,
      "Ġexternes": 6458,
      "Ġphysical": 6459,
      "enz": 6460,
      "via": 6461,
      "ĠEuropa": 6462,
      "Ġgoals": 6463,
      "Ġeurope": 6464,
      "onds": 6465,
      "Ġvoll": 6466,
      "ĠDamen": 6467,
      "Ġmunicip": 6468,
      "Ġconcept": 6469,
      "ime": 6470,
      "Liens": 6471,
      "tellung": 6472,
      "Ġproje": 6473,
      "ĠPap": 6474,
      "ĠJack": 6475,
      "Ġgratuit": 6476,
      "TER": 6477,
      "Ġprendre": 6478,
      "ĠOpe": 6479,
      "Ġfle": 6480,
      "Ġ2021": 6481,
      "Ġgets": 6482,
      "Home": 6483,
      "Ġsli": 6484,
      "Ġsyn": 6485,
      "Ġachieve": 6486,
      "Ġrelative": 6487,
      "laub": 6488,
      "Ġsalle": 6489,
      "Ġposted": 6490,
      "ĠJob": 6491,
      "body": 6492,
      "Ġvirt": 6493,
      "hard": 6494,
      "cking": 6495,
      "Ġ1993": 6496,
      "Ġattend": 6497,
      "ĠWel": 6498,
      "Ġwal": 6499,
      "ĠBul": 6500,
      "wide": 6501,
      "Ġdegree": 6502,
      "onnement": 6503,
      "Ġinfe": 6504,
      "Ġreach": 6505,
      "Ġbran": 6506,
      "Ġfirm": 6507,
      "ĠVictor": 6508,
      "Ġnar": 6509,
      "ãĥ": 6510,
      "vit": 6511,
      "Ġdre": 6512,
      "aturday": 6513,
      "istes": 6514,
      "Ġgouvern": 6515,
      "ein": 6516,
      "Ġdur": 6517,
      "partement": 6518,
      "ĠGri": 6519,
      "Ġmyself": 6520,
      "ĠSmith": 6521,
      "icken": 6522,
      "Ġsce": 6523,
      "Ġmetal": 6524,
      "Ġhy": 6525,
      "chat": 6526,
      "Ġcompar": 6527,
      "ĠCra": 6528,
      "Ġretrou": 6529,
      "\\/": 6530,
      "tiz": 6531,
      "Ġaccept": 6532,
      "SA": 6533,
      "unction": 6534,
      "Ġmod": 6535,
      "ĠApple": 6536,
      "quently": 6537,
      "haps": 6538,
      "ĠMond": 6539,
      "Ġpul": 6540,
      "ĠSyste": 6541,
      "ĠLE": 6542,
      "abin": 6543,
      "dam": 6544,
      "ĠAutom": 6545,
      "Ġjuillet": 6546,
      "Ġmechan": 6547,
      "ĠHD": 6548,
      "ĠSeries": 6549,
      "Ġbrought": 6550,
      "Ġrien": 6551,
      "Ġoctobre": 6552,
      "ĠâĨĴ": 6553,
      "Ġly": 6554,
      "aught": 6555,
      "Ġedit": 6556,
      "SC": 6557,
      "ĠMehr": 6558,
      "name": 6559,
      "Ġpense": 6560,
      "asst": 6561,
      "ĠLandes": 6562,
      "kom": 6563,
      "ez": 6564,
      "Ġactivity": 6565,
      "Ġhos": 6566,
      "Ġdenen": 6567,
      "rder": 6568,
      "html": 6569,
      "PR": 6570,
      "richten": 6571,
      "Ġdark": 6572,
      "Auf": 6573,
      "quip": 6574,
      "chers": 6575,
      "Ġalthough": 6576,
      "Vous": 6577,
      "ĠSicher": 6578,
      "Ġlay": 6579,
      "ĠJesus": 6580,
      "Ġnovembre": 6581,
      "ĠSocial": 6582,
      "INE": 6583,
      "cles": 6584,
      "2008": 6585,
      "NA": 6586,
      "pects": 6587,
      "Ġcarry": 6588,
      "wu": 6589,
      "ĠDat": 6590,
      "ĠVerein": 6591,
      "Ġpersonne": 6592,
      "ĠMotor": 6593,
      "Ġauc": 6594,
      "ĠPop": 6595,
      "Ġdan": 6596,
      "emi": 6597,
      "aste": 6598,
      "ĠMiche": 6599,
      "Ġslow": 6600,
      "mati": 6601,
      "ĠFriday": 6602,
      "Eng": 6603,
      "LC": 6604,
      "umes": 6605,
      "ĠScot": 6606,
      "ulaire": 6607,
      "ailed": 6608,
      "ĠAG": 6609,
      "Ġsubst": 6610,
      "Ġsan": 6611,
      "Ass": 6612,
      "ĠChild": 6613,
      "ĠDre": 6614,
      "ularly": 6615,
      "ĠJohann": 6616,
      "Ġba": 6617,
      "bare": 6618,
      "Ġavril": 6619,
      "MA": 6620,
      "Ġbaby": 6621,
      "Ġbehavi": 6622,
      "ĠFach": 6623,
      "kauf": 6624,
      "Ġ75": 6625,
      "loy": 6626,
      "ĠFlorida": 6627,
      "Ġdirekt": 6628,
      "mals": 6629,
      "Ġcapital": 6630,
      "Ġawar": 6631,
      "ennis": 6632,
      "âĢĿ<": 6633,
      "tzlich": 6634,
      "ava": 6635,
      "ĠFried": 6636,
      "ĠZahl": 6637,
      "ĠWestern": 6638,
      "Ġopened": 6639,
      "Ġsaison": 6640,
      "apon": 6641,
      "Ġspent": 6642,
      "rban": 6643,
      "itely": 6644,
      "Ġseven": 6645,
      "Ġfinished": 6646,
      "rents": 6647,
      "Ġtool": 6648,
      "Ġcreating": 6649,
      "Ġ1991": 6650,
      "Ġpil": 6651,
      "Ġdig": 6652,
      "Ġbeach": 6653,
      "td": 6654,
      "rick": 6655,
      "arine": 6656,
      "Ġdead": 6657,
      "Ġtend": 6658,
      "ĠOther": 6659,
      "Ġceux": 6660,
      "Ġtourn": 6661,
      "Don": 6662,
      "lia": 6663,
      "ising": 6664,
      "ptions": 6665,
      "ĠVen": 6666,
      "lder": 6667,
      "Ġ}": 6668,
      "icine": 6669,
      "das": 6670,
      "rte": 6671,
      "Ġprices": 6672,
      "ĠWu": 6673,
      "ĠgroÃŁe": 6674,
      "alists": 6675,
      "ĠOrigin": 6676,
      "Ġsouvent": 6677,
      "Ġjamais": 6678,
      "Ġnichts": 6679,
      "Ġclassi": 6680,
      "Ġlim": 6681,
      "Ġsurround": 6682,
      "uvre": 6683,
      "Ġsongs": 6684,
      "sert": 6685,
      "nam": 6686,
      "Ġmotor": 6687,
      "bewe": 6688,
      "mor": 6689,
      "ĠChinese": 6690,
      "date": 6691,
      "rapy": 6692,
      "Mon": 6693,
      "ller": 6694,
      "boren": 6695,
      "itzen": 6696,
      "lar": 6697,
      "ĠArmy": 6698,
      "Ġbois": 6699,
      "Ġhelps": 6700,
      "ĠBill": 6701,
      "servation": 6702,
      "ĠSpa": 6703,
      "mente": 6704,
      "Ġtitre": 6705,
      "esp": 6706,
      "legt": 6707,
      "Ġrapport": 6708,
      "Ġdemon": 6709,
      "Ġdry": 6710,
      "Ġopti": 6711,
      "Ġeye": 6712,
      "tifs": 6713,
      "Ġeconomic": 6714,
      "ĠPrix": 6715,
      "vrir": 6716,
      "Ġemo": 6717,
      "Ġvent": 6718,
      "roit": 6719,
      "Ġjoined": 6720,
      "page": 6721,
      "Ġthinking": 6722,
      "Ġlength": 6723,
      "Ġpassen": 6724,
      "Ġoccasion": 6725,
      "olo": 6726,
      "Ġrequest": 6727,
      "ĠPR": 6728,
      "ĠZusammen": 6729,
      "ĠThen": 6730,
      "Alle": 6731,
      "Ġvehicle": 6732,
      "ĠGegen": 6733,
      "Ġmehre": 6734,
      "Ġforces": 6735,
      "ĠHei": 6736,
      "mens": 6737,
      "Â«": 6738,
      "Ġgarden": 6739,
      "Ġ1960": 6740,
      "Ġcontract": 6741,
      "ĠDien": 6742,
      "Ġvoyage": 6743,
      "Ġvote": 6744,
      "Ġintegra": 6745,
      "ĠAtt": 6746,
      "Ġtic": 6747,
      "Ġmoving": 6748,
      "Ġgraph": 6749,
      "ĠBilder": 6750,
      "Ġacade": 6751,
      "Ġrepe": 6752,
      "life": 6753,
      "Ġ400": 6754,
      "where": 6755,
      "Ġfelt": 6756,
      "Ġache": 6757,
      "ĠAnti": 6758,
      "ationale": 6759,
      "ĠGuide": 6760,
      "People": 6761,
      "Ġcancer": 6762,
      "umps": 6763,
      "Ġverfu": 6764,
      "rper": 6765,
      "ĠTraining": 6766,
      "Ġplate": 6767,
      "Ġapply": 6768,
      "tiven": 6769,
      "Ġleader": 6770,
      "Ġstress": 6771,
      "km": 6772,
      "ĠPay": 6773,
      "Ġmieux": 6774,
      "ĠNic": 6775,
      "usique": 6776,
      "ĠPla": 6777,
      "fier": 6778,
      "uto": 6779,
      "Ġcelle": 6780,
      "Ġentry": 6781,
      "dered": 6782,
      "chlossen": 6783,
      "Ġcorrect": 6784,
      "ĠMaster": 6785,
      "Ġhour": 6786,
      "orien": 6787,
      "cade": 6788,
      "Ġ42": 6789,
      "Ġoft": 6790,
      "Ġwrong": 6791,
      "Ġchanged": 6792,
      "Ġpictures": 6793,
      "origin": 6794,
      "olution": 6795,
      "Ġeffects": 6796,
      "fiz": 6797,
      "ĠHistory": 6798,
      "Ġeffort": 6799,
      "Ġlux": 6800,
      "ĠSoftware": 6801,
      "Gu": 6802,
      "Ġdemand": 6803,
      "ĠAcademy": 6804,
      "Ġreviews": 6805,
      "ĠPu": 6806,
      "Ġmillions": 6807,
      "Ġmarried": 6808,
      "edy": 6809,
      "Ġzahl": 6810,
      "vies": 6811,
      "ĠHotels": 6812,
      "EUR": 6813,
      "Ġlack": 6814,
      "sc": 6815,
      "zeichnet": 6816,
      "Ġglo": 6817,
      "igung": 6818,
      "Ġpartn": 6819,
      "fers": 6820,
      "zieh": 6821,
      "Ġscore": 6822,
      "Ġpartne": 6823,
      "onnen": 6824,
      "Ġcampaign": 6825,
      "ancing": 6826,
      "ketball": 6827,
      "ĠSunday": 6828,
      "chsel": 6829,
      "ĠVill": 6830,
      "Ġfail": 6831,
      "uhe": 6832,
      "Ġfollowed": 6833,
      "yant": 6834,
      "Ġ37": 6835,
      "Ġfemmes": 6836,
      "Ġspot": 6837,
      "uble": 6838,
      "Ġclaim": 6839,
      "ĠTal": 6840,
      "jpg": 6841,
      "Ġtrouver": 6842,
      "ulty": 6843,
      "Ġpurpose": 6844,
      "Ġcast": 6845,
      "fes": 6846,
      "Ġdat": 6847,
      "Ġremember": 6848,
      ">Â©": 6849,
      "ounds": 6850,
      "igan": 6851,
      "CD": 6852,
      "Ġbesch": 6853,
      "endet": 6854,
      "pin": 6855,
      "oral": 6856,
      "ĠPierre": 6857,
      "ĠFrei": 6858,
      "Ġdestin": 6859,
      "Poste": 6860,
      "ĠChicago": 6861,
      "Ġdating": 6862,
      "ionn": 6863,
      "Voir": 6864,
      "Ġgrowing": 6865,
      "Ġchoix": 6866,
      "ĠFire": 6867,
      "Ġberu": 6868,
      "Ġproprie": 6869,
      "ĠRechts": 6870,
      "ĠWochen": 6871,
      "ĠKra": 6872,
      "hold": 6873,
      "ĠPet": 6874,
      "Ġhyd": 6875,
      "Ġexpected": 6876,
      "Ġpouvoir": 6877,
      "Ġimagin": 6878,
      "Ġshown": 6879,
      "Ġreturned": 6880,
      "bahn": 6881,
      "lieder": 6882,
      "ĠPhil": 6883,
      "Ġdet": 6884,
      "Ð¾Ð": 6885,
      "Ġacces": 6886,
      "chester": 6887,
      "..<": 6888,
      "appe": 6889,
      "ringen": 6890,
      "Ġrelig": 6891,
      "Ġdistance": 6892,
      "Ġdaughter": 6893,
      "Ġdarauf": 6894,
      "wand": 6895,
      "Ġwohl": 6896,
      "vra": 6897,
      "Ġmeaning": 6898,
      "Ġdafu": 6899,
      "sche": 6900,
      "lieÃŁlich": 6901,
      "Ġflex": 6902,
      "ĠCook": 6903,
      "ĠWeg": 6904,
      "Ġsitu": 6905,
      "ĠEli": 6906,
      "overed": 6907,
      "ĠEN": 6908,
      "Ġnomi": 6909,
      "ĠShi": 6910,
      "âĢľ<": 6911,
      "Du": 6912,
      "TA": 6913,
      "Ġmur": 6914,
      "Ġmel": 6915,
      "TR": 6916,
      "Ġadver": 6917,
      "Fin": 6918,
      "Ġarrange": 6919,
      "tsch": 6920,
      "bank": 6921,
      "PC": 6922,
      "ĠPersonen": 6923,
      "gemei": 6924,
      "don": 6925,
      "Ġpetite": 6926,
      "Ġnomin": 6927,
      "Ġklei": 6928,
      "Ġdef": 6929,
      "Ġ44": 6930,
      "dire": 6931,
      "ĠBox": 6932,
      "tout": 6933,
      "Ju": 6934,
      "ĠSl": 6935,
      "ĠPeople": 6936,
      "charge": 6937,
      "ju": 6938,
      "'d": 6939,
      "Ġtemper": 6940,
      "PA": 6941,
      "witch": 6942,
      "Ġlines": 6943,
      "Ġsell": 6944,
      "undi": 6945,
      "ĠSqu": 6946,
      "Ġhus": 6947,
      "ĠRom": 6948,
      "ĠTim": 6949,
      "ĠColor": 6950,
      "UL": 6951,
      "ĠDuring": 6952,
      "ĠInn": 6953,
      "Ġfinally": 6954,
      "Ġelection": 6955,
      "FC": 6956,
      "Ġmaster": 6957,
      "urse": 6958,
      "Ġoffered": 6959,
      "Ġ1989": 6960,
      "weg": 6961,
      "tter": 6962,
      "Ġing": 6963,
      "Ġdedic": 6964,
      "ĠCE": 6965,
      "Ġsymb": 6966,
      "uche": 6967,
      "ĠLight": 6968,
      "Ġlange": 6969,
      "Ġseul": 6970,
      "Ġfont": 6971,
      "mond": 6972,
      "ĠSein": 6973,
      "ĠEnter": 6974,
      "Film": 6975,
      "ĠHistor": 6976,
      "sie": 6977,
      "Ġlisten": 6978,
      "ĠJoseph": 6979,
      "Dans": 6980,
      "ĠRose": 6981,
      "ondere": 6982,
      "vere": 6983,
      "ĠName": 6984,
      "itor": 6985,
      "Ġaktu": 6986,
      "ĠFle": 6987,
      "aland": 6988,
      "umber": 6989,
      "ĠBeru": 6990,
      "idential": 6991,
      "istered": 6992,
      "ĠJugend": 6993,
      "Ġhomme": 6994,
      "reiben": 6995,
      "fications": 6996,
      "ĠSports": 6997,
      "ĠListe": 6998,
      "Ġpressure": 6999,
      "hrs": 7000,
      "Ġdamage": 7001,
      "Ġhighest": 7002,
      "ĠUse": 7003,
      "ĠSau": 7004,
      "furt": 7005,
      "Ġcry": 7006,
      "ĠEas": 7007,
      "ĠRadio": 7008,
      "ĠImm": 7009,
      "2007": 7010,
      "Ġadvant": 7011,
      "ĠHans": 7012,
      "dienst": 7013,
      "ĠgroÃŁ": 7014,
      "liste": 7015,
      "Ġbasis": 7016,
      "Ġgute": 7017,
      "ĠLeist": 7018,
      "alten": 7019,
      "ĠList": 7020,
      "tainment": 7021,
      "quel": 7022,
      "aper": 7023,
      "Ġfigure": 7024,
      "Ġ65": 7025,
      "Ġmodels": 7026,
      "gangen": 7027,
      "ĠBerg": 7028,
      "seau": 7029,
      "Ġinnov": 7030,
      "Ġsecret": 7031,
      "struction": 7032,
      "Ġsog": 7033,
      "sehen": 7034,
      "Ent": 7035,
      "Ġbasic": 7036,
      "Ġroman": 7037,
      "Ġvict": 7038,
      "ĠgroÃŁen": 7039,
      "Ġinfo": 7040,
      "ĠAfrican": 7041,
      "ĠMur": 7042,
      "cla": 7043,
      "care": 7044,
      "Ġ55": 7045,
      "Ġmemb": 7046,
      "ersey": 7047,
      "tent": 7048,
      "ĠKore": 7049,
      "Ġallowed": 7050,
      "chluss": 7051,
      "Et": 7052,
      "Ġstuff": 7053,
      "FA": 7054,
      "Ġpal": 7055,
      "Ġactivite": 7056,
      "Ġsolid": 7057,
      "Living": 7058,
      "ĠKen": 7059,
      "Ma": 7060,
      "poli": 7061,
      "ĠProdukt": 7062,
      "ĠAff": 7063,
      "Ġgerade": 7064,
      "Ġpool": 7065,
      "/<": 7066,
      "ĠMinister": 7067,
      "ĠThanks": 7068,
      "ĠBall": 7069,
      "Ġbew": 7070,
      "Ġconcent": 7071,
      "sicht": 7072,
      "ĠCommit": 7073,
      "zeigen": 7074,
      "ĠCath": 7075,
      "ĠLord": 7076,
      "Ġrail": 7077,
      "ĠâĤ¬<": 7078,
      "chin": 7079,
      "ĠErn": 7080,
      "amps": 7081,
      "ĠLux": 7082,
      "Ġvielen": 7083,
      "Ġpaid": 7084,
      "ĠOli": 7085,
      "Ġviews": 7086,
      "acts": 7087,
      "Ġsole": 7088,
      "Ġearn": 7089,
      "Ġlibr": 7090,
      "flege": 7091,
      "ĠDirector": 7092,
      "onto": 7093,
      "FL": 7094,
      "Ġoverall": 7095,
      "arante": 7096,
      "Ġrein": 7097,
      "kre": 7098,
      "oop": 7099,
      "rons": 7100,
      "alism": 7101,
      "Ġlisted": 7102,
      "Ġfair": 7103,
      "auft": 7104,
      "Ġcloth": 7105,
      "wise": 7106,
      "licht": 7107,
      "Ġbeyond": 7108,
      "Ġwenig": 7109,
      "''": 7110,
      "Ġsources": 7111,
      "tina": 7112,
      "ĠPS": 7113,
      "Ġdomin": 7114,
      "Ġdisease": 7115,
      "Ġsaying": 7116,
      "Ġcompon": 7117,
      "Co": 7118,
      "gia": 7119,
      "Ġradi": 7120,
      "Ġnord": 7121,
      "Ġbee": 7122,
      "Ġjeden": 7123,
      "ĠTas": 7124,
      "ulated": 7125,
      "wagen": 7126,
      "Ġprint": 7127,
      "ĠWerk": 7128,
      "âĢ²": 7129,
      "har": 7130,
      "ĠFore": 7131,
      "She": 7132,
      "Ġgeben": 7133,
      "ĠSummer": 7134,
      "Ġeyes": 7135,
      "Ġstatis": 7136,
      "Ġbekannt": 7137,
      "Ġevidence": 7138,
      "ilome": 7139,
      "Ġdress": 7140,
      "Ġoffici": 7141,
      "ÌĨ": 7142,
      "OD": 7143,
      "leist": 7144,
      "ĠAngeles": 7145,
      "Ġlands": 7146,
      "tend": 7147,
      "arf": 7148,
      "rane": 7149,
      "Ġfeet": 7150,
      "Ġsais": 7151,
      "ĠTit": 7152,
      "Ġjewe": 7153,
      "Wor": 7154,
      "ilding": 7155,
      "ĠValley": 7156,
      "abs": 7157,
      "ĠweiÃŁ": 7158,
      "Ġmeilleur": 7159,
      "undred": 7160,
      "isted": 7161,
      "Ġdich": 7162,
      "Ġdynam": 7163,
      "Ġactions": 7164,
      "nz": 7165,
      "Ġcer": 7166,
      "Ġnumbers": 7167,
      "Ġannual": 7168,
      "align": 7169,
      "Ġmiles": 7170,
      "Ġcash": 7171,
      "ĠBrown": 7172,
      "ĠProzent": 7173,
      "ĠMarie": 7174,
      "down": 7175,
      "Ġprimary": 7176,
      "Ġtried": 7177,
      "abinet": 7178,
      "oten": 7179,
      "ĠGren": 7180,
      "Ġmovement": 7181,
      "aren": 7182,
      "Ġturned": 7183,
      "Ġ1988": 7184,
      "Ġauth": 7185,
      "quoi": 7186,
      "stoff": 7187,
      "ĠMP": 7188,
      "Ġperman": 7189,
      "ĠTrump": 7190,
      "ĠMake": 7191,
      "ĠGarten": 7192,
      "Deuts": 7193,
      "welt": 7194,
      "Ġbedroom": 7195,
      "Ġbrow": 7196,
      "AND": 7197,
      "Ġargu": 7198,
      "ationen": 7199,
      "Ġhealthy": 7200,
      "ĠSign": 7201,
      "rach": 7202,
      "ulting": 7203,
      "ĠReser": 7204,
      "ĠMany": 7205,
      "works": 7206,
      "Liter": 7207,
      "lights": 7208,
      "Ġmiddle": 7209,
      "uma": 7210,
      "Ġwhose": 7211,
      "Ġrules": 7212,
      "Ġabge": 7213,
      "Ġaujourd": 7214,
      "weis": 7215,
      "ĠSud": 7216,
      "Ġheat": 7217,
      "pend": 7218,
      "andelt": 7219,
      "ĠRel": 7220,
      "ĠWild": 7221,
      "osure": 7222,
      "fik": 7223,
      "tenir": 7224,
      "ĠMee": 7225,
      "ĠBus": 7226,
      "ellement": 7227,
      "ĠMes": 7228,
      "laf": 7229,
      "Ġbil": 7230,
      "Naissance": 7231,
      "ndet": 7232,
      "Ġcerti": 7233,
      "Ġpoly": 7234,
      "ittle": 7235,
      "ĠNu": 7236,
      "ĠTru": 7237,
      "Ġzone": 7238,
      "lon": 7239,
      "cean": 7240,
      "ĠTage": 7241,
      "Ġcompris": 7242,
      "tigkeit": 7243,
      "Ġamp": 7244,
      "Ġvraiment": 7245,
      "--------": 7246,
      "Ġauto": 7247,
      "temporary": 7248,
      "Ġrapp": 7249,
      "ĠEven": 7250,
      "ĠTwitter": 7251,
      "ĠWahl": 7252,
      "âĢĿ,": 7253,
      "tats": 7254,
      "Ġdiscuss": 7255,
      "ĠJapanese": 7256,
      "Ġincome": 7257,
      "ctic": 7258,
      "Ġpark": 7259,
      "Ġwichtig": 7260,
      "ĠSmart": 7261,
      "itness": 7262,
      "ĠHard": 7263,
      "Ġspend": 7264,
      "ĠKauf": 7265,
      "aki": 7266,
      "ĠArchite": 7267,
      "Ġharm": 7268,
      "aliste": 7269,
      "gious": 7270,
      "ĠHerren": 7271,
      "Ġchem": 7272,
      "ĠBereich": 7273,
      "ĠTwo": 7274,
      "Ġheard": 7275,
      "Ġsleep": 7276,
      "ĠView": 7277,
      "ĠWed": 7278,
      "iger": 7279,
      "ĠFood": 7280,
      "Ġappropri": 7281,
      "Mer": 7282,
      "onom": 7283,
      "gis": 7284,
      "uns": 7285,
      "Ġcertains": 7286,
      "xx": 7287,
      "rator": 7288,
      "pren": 7289,
      "Ġ120": 7290,
      "ĠInst": 7291,
      "with": 7292,
      "Ġefforts": 7293,
      "CO": 7294,
      "Ġinterpre": 7295,
      "ĠSaturday": 7296,
      "300": 7297,
      "Ġpatient": 7298,
      "obilie": 7299,
      "annt": 7300,
      "Ġwedding": 7301,
      "ĠMA": 7302,
      "Ġcarte": 7303,
      "oga": 7304,
      "bereich": 7305,
      "Ġmethods": 7306,
      "ĠCli": 7307,
      "Ġmini": 7308,
      "Ġerfolg": 7309,
      "Ġshot": 7310,
      "Was": 7311,
      "Ġcomments": 7312,
      "utlich": 7313,
      "Ġwollen": 7314,
      "Ġae": 7315,
      "Ġnovel": 7316,
      "tro": 7317,
      "Ġproced": 7318,
      "Ġ[...]<": 7319,
      "Ġwai": 7320,
      "indet": 7321,
      "Ġchair": 7322,
      "Ġstudio": 7323,
      "bb": 7324,
      "Ġconven": 7325,
      "Ġsupply": 7326,
      "aria": 7327,
      "ĠSche": 7328,
      "autre": 7329,
      "Ġmaximum": 7330,
      "Ġderen": 7331,
      "quer": 7332,
      "Ġaou": 7333,
      "Ġdelivery": 7334,
      "fil": 7335,
      "ĠSor": 7336,
      "ĠData": 7337,
      "idents": 7338,
      "tery": 7339,
      "ĠKle": 7340,
      "Ġenh": 7341,
      "Ġadvice": 7342,
      "Ġunbe": 7343,
      "Ġ978": 7344,
      "Ġthreat": 7345,
      "itch": 7346,
      "anned": 7347,
      "ĠChap": 7348,
      "Ġcadre": 7349,
      "Ġrue": 7350,
      "ĠSong": 7351,
      "Ġrecor": 7352,
      "gera": 7353,
      "raient": 7354,
      "ĠZimmer": 7355,
      "ĠWhe": 7356,
      "ĠCanadian": 7357,
      "ĠIP": 7358,
      "ĠJournal": 7359,
      "Ġartists": 7360,
      "ĠCross": 7361,
      "Ġmeasure": 7362,
      "so": 7363,
      "arre": 7364,
      "ĠMillion": 7365,
      "ĠSaison": 7366,
      "ĠLee": 7367,
      "Ġdete": 7368,
      "ĠWord": 7369,
      "Ġapproxim": 7370,
      "ĠStock": 7371,
      "ĠLiter": 7372,
      "Ġnombreux": 7373,
      "ĠWeek": 7374,
      "Ġgeb": 7375,
      "istent": 7376,
      "ĠSac": 7377,
      "Ġentwick": 7378,
      "ĠSeiten": 7379,
      "ĠNatur": 7380,
      "ĠDate": 7381,
      "ĠSchwarz": 7382,
      "Ġblo": 7383,
      "Ġbestimm": 7384,
      "lisch": 7385,
      "ĠKomment": 7386,
      "ĠMau": 7387,
      "tal": 7388,
      "Ġgemeins": 7389,
      "ĠInt": 7390,
      "ĠAth": 7391,
      "ĠFrage": 7392,
      "ĠFamily": 7393,
      "Ġplaced": 7394,
      "Ġworden": 7395,
      "ĠHead": 7396,
      "Ġpeace": 7397,
      "Ġestate": 7398,
      "Ġartis": 7399,
      "esis": 7400,
      "Ġaccoun": 7401,
      "Ġthous": 7402,
      "Ġexactly": 7403,
      "Sujet": 7404,
      "ĠLED": 7405,
      "ĠKingdom": 7406,
      "ĠZug": 7407,
      "Ġnames": 7408,
      "Wie": 7409,
      "Ġnin": 7410,
      "Bei": 7411,
      "schl": 7412,
      "Ġsigned": 7413,
      "ĠBan": 7414,
      "Ġcorps": 7415,
      "dorf": 7416,
      "hein": 7417,
      "ĠAvec": 7418,
      "Ġvoice": 7419,
      "chnis": 7420,
      "Ġopening": 7421,
      "Ġopini": 7422,
      "illy": 7423,
      "Ġearlier": 7424,
      "ichten": 7425,
      "Ġincor": 7426,
      "nent": 7427,
      "wal": 7428,
      "Ġgerne": 7429,
      "ĠFra": 7430,
      "heiten": 7431,
      "Ġdevices": 7432,
      "aisse": 7433,
      "EST": 7434,
      "Ġbag": 7435,
      "Ġhaut": 7436,
      "Ġwild": 7437,
      "ouch": 7438,
      "rey": 7439,
      "Ġweekend": 7440,
      "ĠRecords": 7441,
      "Ġselected": 7442,
      "wig": 7443,
      "Ġcommand": 7444,
      "atif": 7445,
      "oner": 7446,
      "Ġeigenen": 7447,
      "ĠCust": 7448,
      "gor": 7449,
      "ĠET": 7450,
      "Ġhelped": 7451,
      "Ġrates": 7452,
      "Ġbenefit": 7453,
      "aleur": 7454,
      "Ġkurz": 7455,
      "anden": 7456,
      "reland": 7457,
      "Ġbathroom": 7458,
      "Ġcoach": 7459,
      "Ġbesoin": 7460,
      "owns": 7461,
      "2006": 7462,
      "ĠBeispiel": 7463,
      "Ġgehen": 7464,
      "Ġdiagn": 7465,
      "ua": 7466,
      "Ġavoid": 7467,
      "iting": 7468,
      "eer": 7469,
      "ĠRegel": 7470,
      "nnte": 7471,
      "Ġtrib": 7472,
      "ĠiPhone": 7473,
      "Ġpublie": 7474,
      "Ġaim": 7475,
      "Ġsetting": 7476,
      "arne": 7477,
      "Ġfinish": 7478,
      "Ġassess": 7479,
      "ĠReise": 7480,
      "meister": 7481,
      "ĠHolz": 7482,
      "Ġwindow": 7483,
      "chsten": 7484,
      "igned": 7485,
      "Ġcontains": 7486,
      "tigung": 7487,
      "Poli": 7488,
      "Ġstream": 7489,
      "Ġoccup": 7490,
      "ĠAndroid": 7491,
      "ĠAny": 7492,
      "Ġideal": 7493,
      "Ġfacile": 7494,
      "ĠTH": 7495,
      "rends": 7496,
      "ĠSC": 7497,
      "ĠNouve": 7498,
      "Ġstat": 7499,
      "Ġrare": 7500,
      "outes": 7501,
      "ginia": 7502,
      "ĠSpiele": 7503,
      "Ġsociety": 7504,
      "ndern": 7505,
      "ĠDom": 7506,
      "Ġabsolute": 7507,
      "Ġalum": 7508,
      "Ġwasn": 7509,
      "Ġwait": 7510,
      "uve": 7511,
      "annten": 7512,
      "Ġvue": 7513,
      "ilita": 7514,
      "ĠMatt": 7515,
      "Ġnearly": 7516,
      "ĠProm": 7517,
      "ĠSince": 7518,
      "oke": 7519,
      "Top": 7520,
      "ĠFir": 7521,
      "iano": 7522,
      "ĠUnters": 7523,
      "oine": 7524,
      "ĠIls": 7525,
      "ktor": 7526,
      "Ġletter": 7527,
      "ieur": 7528,
      "taient": 7529,
      "Col": 7530,
      "Ġvision": 7531,
      "Ġsand": 7532,
      "Ġdavon": 7533,
      "Ġforum": 7534,
      "Mail": 7535,
      "Ġvente": 7536,
      "ĠReich": 7537,
      "Ġcaracte": 7538,
      "cap": 7539,
      "Ġsante": 7540,
      "ĠEinsatz": 7541,
      "ĠNoir": 7542,
      "ope": 7543,
      "ĠBob": 7544,
      "Ġgift": 7545,
      "________": 7546,
      "ĠHerz": 7547,
      "Spe": 7548,
      "Ġvendre": 7549,
      "Unis": 7550,
      "hrte": 7551,
      "Ġsoft": 7552,
      "fast": 7553,
      "nehmer": 7554,
      "ii": 7555,
      "cons": 7556,
      "ĠJud": 7557,
      "lishing": 7558,
      "ĠWork": 7559,
      "nem": 7560,
      "Ġunits": 7561,
      "Ob": 7562,
      "aka": 7563,
      "ĠConne": 7564,
      "From": 7565,
      "amme": 7566,
      "ĠHers": 7567,
      "ousse": 7568,
      "olie": 7569,
      "Ġnavig": 7570,
      "unning": 7571,
      "****": 7572,
      "Ġfeeling": 7573,
      "ustain": 7574,
      "aner": 7575,
      "ĠDub": 7576,
      "ĠProject": 7577,
      "Ġutilis": 7578,
      "AV": 7579,
      "Ġnotes": 7580,
      "Ġfan": 7581,
      "Ġlots": 7582,
      "ooking": 7583,
      "....<": 7584,
      "ĠHon": 7585,
      "icians": 7586,
      "ĠKrie": 7587,
      "achers": 7588,
      "sultats": 7589,
      "sei": 7590,
      "straÃŁe": 7591,
      "ĠBelgi": 7592,
      "liches": 7593,
      "aya": 7594,
      "Ġmotiv": 7595,
      "Ġagric": 7596,
      "ĠTO": 7597,
      "ĠVin": 7598,
      "Ġdeaths": 7599,
      "Ġtraffic": 7600,
      "credi": 7601,
      "ĠFund": 7602,
      "zial": 7603,
      "Ġprep": 7604,
      "orner": 7605,
      "Ġdelive": 7606,
      "Ġhusband": 7607,
      "alize": 7608,
      "Ġsurtout": 7609,
      "Ġchat": 7610,
      "Ġessenti": 7611,
      "xis": 7612,
      "Ġlarger": 7613,
      "tient": 7614,
      "Ġcreative": 7615,
      "Ġowne": 7616,
      "ĠMarkt": 7617,
      "nson": 7618,
      "riage": 7619,
      "Ġgovern": 7620,
      "ERS": 7621,
      "Ġexisting": 7622,
      "ĠHamburg": 7623,
      "Ġowner": 7624,
      "ĠErfahr": 7625,
      "Ġoffering": 7626,
      "Ġgemacht": 7627,
      "Ġblanc": 7628,
      "richte": 7629,
      "couver": 7630,
      "link": 7631,
      "ģĦ": 7632,
      "GE": 7633,
      "ĠCV": 7634,
      "verture": 7635,
      "gement": 7636,
      "lant": 7637,
      "histoire": 7638,
      "ctives": 7639,
      "Ġpartner": 7640,
      "cos": 7641,
      "ĠFamilie": 7642,
      "word": 7643,
      "Ġloved": 7644,
      "Ġ1987": 7645,
      "ĠSchwe": 7646,
      "Ġappreci": 7647,
      "That": 7648,
      "Ġmanager": 7649,
      "spie": 7650,
      "aume": 7651,
      "Res": 7652,
      "Ġgenau": 7653,
      "achin": 7654,
      "Ġ()": 7655,
      "ĠOF": 7656,
      "Ġalone": 7657,
      "ĠAme": 7658,
      "finition": 7659,
      "Ġheraus": 7660,
      "ructure": 7661,
      "Ġstatus": 7662,
      "frei": 7663,
      "pedia": 7664,
      "tir": 7665,
      "umer": 7666,
      "Ġpassion": 7667,
      "alerie": 7668,
      "ĠNY": 7669,
      "ĠProvi": 7670,
      "ĠExe": 7671,
      "exe": 7672,
      "tiger": 7673,
      "Ġ64": 7674,
      "zogen": 7675,
      "âģĦ": 7676,
      "Ġclasses": 7677,
      "ĠSupp": 7678,
      "Ġ43": 7679,
      "Ġpoor": 7680,
      "ĠCast": 7681,
      "Ġhop": 7682,
      "arbeiter": 7683,
      "irs": 7684,
      "Ġmil": 7685,
      "ĠGast": 7686,
      "ĠFab": 7687,
      "apos": 7688,
      "Nous": 7689,
      "ĠAust": 7690,
      "ĠLink": 7691,
      "Ġexpan": 7692,
      "Ġchambre": 7693,
      "atel": 7694,
      "Ġtravaux": 7695,
      "Ġlock": 7696,
      "Ġcards": 7697,
      "Go": 7698,
      "Ġjourne": 7699,
      "Vers": 7700,
      "issance": 7701,
      "Ġreduce": 7702,
      "iere": 7703,
      "ĠUnder": 7704,
      "zept": 7705,
      "pack": 7706,
      "Ġreports": 7707,
      "how": 7708,
      "Ġsogar": 7709,
      "matic": 7710,
      "Ġthanks": 7711,
      "ĠBrit": 7712,
      "ĠDigital": 7713,
      "ampf": 7714,
      "Ġeight": 7715,
      "ĠEdition": 7716,
      "edi": 7717,
      "annte": 7718,
      "Ġfashion": 7719,
      "Ġ1986": 7720,
      "Ġconfir": 7721,
      "fass": 7722,
      "free": 7723,
      "Comp": 7724,
      "Ġtips": 7725,
      "empl": 7726,
      "omet": 7727,
      "Ġsuff": 7728,
      "Ġheavy": 7729,
      "tile": 7730,
      "Ġbede": 7731,
      "ÃŁerdem": 7732,
      "ĠHenry": 7733,
      "ĠStei": 7734,
      "onal": 7735,
      "ĠBot": 7736,
      "Ġnotice": 7737,
      "bourg": 7738,
      "Ġsea": 7739,
      "Ġbatter": 7740,
      "osis": 7741,
      "ĠSale": 7742,
      "ĠKla": 7743,
      "ĠIts": 7744,
      "Ġjobs": 7745,
      "Ġstars": 7746,
      "teilung": 7747,
      "rieure": 7748,
      "amed": 7749,
      "Ġrecorded": 7750,
      "road": 7751,
      "ĠNon": 7752,
      "ĠRussian": 7753,
      "Ġaccu": 7754,
      "pha": 7755,
      "ponse": 7756,
      "ĠPack": 7757,
      "Ġreasons": 7758,
      "voll": 7759,
      "yan": 7760,
      "Ġpowerful": 7761,
      "Ġice": 7762,
      "Ġspi": 7763,
      "Ġfemale": 7764,
      "olas": 7765,
      "ĠRahmen": 7766,
      "Ġhatten": 7767,
      "ĠFootball": 7768,
      "alogue": 7769,
      "Ġpolitici": 7770,
      "Ġmondi": 7771,
      "Ġ49": 7772,
      "glichkeit": 7773,
      "Ġ250": 7774,
      "ĠSha": 7775,
      "Ġspread": 7776,
      "mbly": 7777,
      "Ġguitar": 7778,
      ".)<": 7779,
      "Ġfans": 7780,
      "Ġconcer": 7781,
      "Ġprevent": 7782,
      "ĠJim": 7783,
      "Ġrecru": 7784,
      "Ġelements": 7785,
      "utch": 7786,
      "ĠQualita": 7787,
      ">âĢĵ": 7788,
      "nahmen": 7789,
      "ĠFR": 7790,
      "ĠSteph": 7791,
      "Ġfo": 7792,
      "Ġweather": 7793,
      "rika": 7794,
      "has": 7795,
      "ĠAccess": 7796,
      "Ġhomes": 7797,
      "clai": 7798,
      "Ġolder": 7799,
      "Ġappeared": 7800,
      "Ġlit": 7801,
      "Ġ1984": 7802,
      "wri": 7803,
      "Ġ1950": 7804,
      "Ġforms": 7805,
      "Ġuseful": 7806,
      "Ġcovered": 7807,
      "urg": 7808,
      "Ġinstit": 7809,
      "ĠNut": 7810,
      "rone": 7811,
      "Ġcalcul": 7812,
      "Ġ1000": 7813,
      "ĠZus": 7814,
      "Ġprotect": 7815,
      "Ġfat": 7816,
      "dess": 7817,
      "cide": 7818,
      "Ġoper": 7819,
      "Ġtrave": 7820,
      "ĠJahres": 7821,
      "Ġgirls": 7822,
      "Ġstrategy": 7823,
      "Ġbat": 7824,
      "ĠArm": 7825,
      "abilite": 7826,
      "Ġlabor": 7827,
      "ĠMarket": 7828,
      "Ġvideos": 7829,
      "Ġflow": 7830,
      "telle": 7831,
      "ricain": 7832,
      "Ġdistin": 7833,
      "Ġstraight": 7834,
      "ĠHot": 7835,
      "Ġihrem": 7836,
      "Ġcommence": 7837,
      "Ġpap": 7838,
      "Ġeval": 7839,
      "ĠErgeb": 7840,
      "Ġmot": 7841,
      "Cre": 7842,
      "oti": 7843,
      "akers": 7844,
      "Ġsession": 7845,
      "ĠáĦ": 7846,
      "sec": 7847,
      "Ġgilt": 7848,
      "ĠScho": 7849,
      "ender": 7850,
      "ĠMini": 7851,
      "ĠDVD": 7852,
      "aide": 7853,
      "ainer": 7854,
      "ĠAbout": 7855,
      "History": 7856,
      "Ġknew": 7857,
      "ĠCame": 7858,
      "ĠItalian": 7859,
      "ĠVersand": 7860,
      "ĠGas": 7861,
      "Ġerh": 7862,
      "Ġcompose": 7863,
      "Ġpieces": 7864,
      "code": 7865,
      "pher": 7866,
      "TH": 7867,
      "adel": 7868,
      "ĠEconom": 7869,
      "Ġhundred": 7870,
      "ĠSecond": 7871,
      "amine": 7872,
      "Ġoblig": 7873,
      "Ġfindet": 7874,
      "Ġconver": 7875,
      "Ġpic": 7876,
      "temps": 7877,
      "Ġaward": 7878,
      "Ġvoc": 7879,
      "itter": 7880,
      "Ġroy": 7881,
      "ographi": 7882,
      "wind": 7883,
      "aha": 7884,
      "Ġcapit": 7885,
      "Ġwinter": 7886,
      "walt": 7887,
      "chiedene": 7888,
      "sere": 7889,
      "charger": 7890,
      "Ġbow": 7891,
      "ĠLab": 7892,
      "Ġhinter": 7893,
      "ĠFo": 7894,
      "esehen": 7895,
      "Literatur": 7896,
      "sex": 7897,
      "sibility": 7898,
      "Ġcritical": 7899,
      "mitt": 7900,
      "missions": 7901,
      "ME": 7902,
      "Ġgreater": 7903,
      "Ġcrus": 7904,
      "Ġ1985": 7905,
      "Ġpratique": 7906,
      "Ġbieten": 7907,
      "leben": 7908,
      "duction": 7909,
      "],": 7910,
      "ĠTimes": 7911,
      "reiche": 7912,
      "2000": 7913,
      "irk": 7914,
      "umn": 7915,
      "known": 7916,
      "pps": 7917,
      "ĠMulti": 7918,
      "uchen": 7919,
      "Ġsteel": 7920,
      "ĠBeau": 7921,
      "Ġteaching": 7922,
      "ĠWay": 7923,
      "ĠModern": 7924,
      "cisions": 7925,
      "ĠPartn": 7926,
      "Up": 7927,
      "Ġwegen": 7928,
      "ĠAwards": 7929,
      "ĠKey": 7930,
      "ĠSecurity": 7931,
      "Ġern": 7932,
      "olina": 7933,
      "cuit": 7934,
      "Ġneben": 7935,
      "ĠLig": 7936,
      "Ġbottom": 7937,
      "ading": 7938,
      "ĠOR": 7939,
      "Ġnumer": 7940,
      "statt": 7941,
      "Ġcold": 7942,
      "Hi": 7943,
      "eniger": 7944,
      "ĠOtt": 7945,
      "gaben": 7946,
      "Per": 7947,
      "riger": 7948,
      "ĠVerfu": 7949,
      "ĠBeitrag": 7950,
      "visions": 7951,
      "richtet": 7952,
      "Ġquatre": 7953,
      "Ġstreet": 7954,
      "Ġheures": 7955,
      "Sc": 7956,
      "ĠCost": 7957,
      "ĠMonday": 7958,
      "Ġpeint": 7959,
      "letter": 7960,
      "ighting": 7961,
      "Ġperso": 7962,
      "Ġlaun": 7963,
      "Ġrelax": 7964,
      "eden": 7965,
      "Ġtruly": 7966,
      "ĠRot": 7967,
      "Ġjourney": 7968,
      "quence": 7969,
      "Ġwine": 7970,
      "Pa": 7971,
      "not": 7972,
      "cur": 7973,
      "uty": 7974,
      "aval": 7975,
      "Ġcoffee": 7976,
      "ĠForce": 7977,
      "Ġdraw": 7978,
      "Ġboy": 7979,
      "ibliothe": 7980,
      "auteur": 7981,
      "stan": 7982,
      "Ġfro": 7983,
      "ĠAD": 7984,
      "avis": 7985,
      "Ġselect": 7986,
      "unkte": 7987,
      "ĠJa": 7988,
      "Ġcompared": 7989,
      "ĠSit": 7990,
      "ĠPartne": 7991,
      "ĠRab": 7992,
      "ĠHaw": 7993,
      "Ġcars": 7994,
      "ntage": 7995,
      "Ġdiff": 7996,
      "ĠOx": 7997,
      "Ġrecht": 7998,
      "Ġrent": 7999,
      "Ġsurge": 8000,
      "Ġsteps": 8001,
      "ĠNr": 8002,
      "Char": 8003,
      "Ġbesser": 8004,
      "ĠProfes": 8005,
      "Ġnoir": 8006,
      "Intern": 8007,
      "Ġmagazine": 8008,
      "Ġgrade": 8009,
      "Ġinteress": 8010,
      "ĠRay": 8011,
      "poration": 8012,
      "taire": 8013,
      "ĠÂ».": 8014,
      "Ġminimum": 8015,
      "Ġguarante": 8016,
      "MP": 8017,
      "Ġexperts": 8018,
      "Ġeasier": 8019,
      "ĠEsp": 8020,
      "Ġfas": 8021,
      "ĠRail": 8022,
      "Ġcamera": 8023,
      "ĠManager": 8024,
      "Ġestim": 8025,
      "CA": 8026,
      "hnt": 8027,
      "ĠIsrael": 8028,
      "aliser": 8029,
      "Ġaren": 8030,
      "oure": 8031,
      "Ġquarter": 8032,
      "Ġpayment": 8033,
      "ĠConse": 8034,
      "ĠVersion": 8035,
      "alyse": 8036,
      "Wenn": 8037,
      "Ġtree": 8038,
      "ĠCes": 8039,
      "Vor": 8040,
      "Ġking": 8041,
      "Ġessay": 8042,
      "wesome": 8043,
      "igner": 8044,
      "ĠWeiter": 8045,
      "ĠCir": 8046,
      "Ġclosed": 8047,
      "visor": 8048,
      "Ġshopping": 8049,
      "ĠSecret": 8050,
      "commod": 8051,
      "isches": 8052,
      "rim": 8053,
      "tising": 8054,
      "lesen": 8055,
      "ĠNight": 8056,
      "ĠCher": 8057,
      "ĠCA": 8058,
      "ĠPot": 8059,
      "ĠZiel": 8060,
      "ĠMexico": 8061,
      "Ġcit": 8062,
      "anie": 8063,
      "eu": 8064,
      "center": 8065,
      "dra": 8066,
      "glise": 8067,
      "anna": 8068,
      "Ġ46": 8069,
      "Ġzie": 8070,
      "Ġadvanced": 8071,
      "Ġliste": 8072,
      "Ġmesure": 8073,
      "Ġdoctor": 8074,
      "Ġruns": 8075,
      "phy": 8076,
      "Ġbrother": 8077,
      "Ġepisode": 8078,
      "ĠSus": 8079,
      "Ġscene": 8080,
      "Some": 8081,
      "Ġmanie": 8082,
      "ĠCour": 8083,
      "oston": 8084,
      "Ġfarm": 8085,
      "LO": 8086,
      "ĠLtd": 8087,
      "ĠLine": 8088,
      "ĠCha": 8089,
      "Tags": 8090,
      "Ġcopy": 8091,
      "Ġmeisten": 8092,
      "ĠDaniel": 8093,
      "atoire": 8094,
      "Ġphysi": 8095,
      "renti": 8096,
      "Ġsatisf": 8097,
      "Ġpied": 8098,
      "ĠVirginia": 8099,
      "ĠSelbst": 8100,
      "schule": 8101,
      "ĠKan": 8102,
      "Star": 8103,
      "Ġ41": 8104,
      "edom": 8105,
      "Ġtag": 8106,
      "Ġmusical": 8107,
      "onna": 8108,
      "tiers": 8109,
      "eux": 8110,
      "ĠTurn": 8111,
      "ĠSommer": 8112,
      "Ġregist": 8113,
      "liament": 8114,
      "ichen": 8115,
      "amsung": 8116,
      "hausen": 8117,
      "Ġvir": 8118,
      "titut": 8119,
      "Ġrelie": 8120,
      "Ġmissing": 8121,
      "Ġress": 8122,
      "ĠProte": 8123,
      "riode": 8124,
      "article": 8125,
      "ĠHaut": 8126,
      "urb": 8127,
      "lingen": 8128,
      "Ġrecords": 8129,
      "Ġseparate": 8130,
      "ESS": 8131,
      "tini": 8132,
      "Ġeat": 8133,
      "Ġwants": 8134,
      "ĠFragen": 8135,
      "ĠCheck": 8136,
      "schaf": 8137,
      "Ġsemaine": 8138,
      "ĠAND": 8139,
      "ĠTown": 8140,
      "Ġweit": 8141,
      "allation": 8142,
      "Ġpassed": 8143,
      "illon": 8144,
      "Ġposts": 8145,
      "Ġsuffe": 8146,
      "Ġshared": 8147,
      "Ġsollten": 8148,
      "uchte": 8149,
      "imal": 8150,
      "ĠÅĵ": 8151,
      "Ġ1945": 8152,
      "Ġformed": 8153,
      "Ġjeune": 8154,
      "ĠWhy": 8155,
      "etter": 8156,
      "cope": 8157,
      "friend": 8158,
      "Ġitem": 8159,
      "Ġsin": 8160,
      "ĠWho": 8161,
      "geber": 8162,
      "onnes": 8163,
      "avoir": 8164,
      "Ġbecoming": 8165,
      "Ġisland": 8166,
      "Ġminute": 8167,
      "ĠIhren": 8168,
      "ĠClin": 8169,
      "Ġguerre": 8170,
      "Ġlance": 8171,
      "odi": 8172,
      "Ġplants": 8173,
      "Ġchef": 8174,
      "Ġmemory": 8175,
      "Ġtrust": 8176,
      "venture": 8177,
      "ĠAuft": 8178,
      "ĠRome": 8179,
      "Ġretur": 8180,
      "Ġexpen": 8181,
      "Ġbetra": 8182,
      "Ġhelping": 8183,
      "quen": 8184,
      "ĠRam": 8185,
      "Ġfamous": 8186,
      "Ġearth": 8187,
      "Ġgestion": 8188,
      "Ġspring": 8189,
      "Ġrai": 8190,
      "ĠProblem": 8191,
      "ĠArab": 8192,
      "niste": 8193,
      "laced": 8194,
      "helm": 8195,
      "ĠCu": 8196,
      "ĠStandard": 8197,
      "Get": 8198,
      "Ġreconn": 8199,
      "star": 8200,
      "Ġcompre": 8201,
      "vy": 8202,
      "ĠFlo": 8203,
      "Ġine": 8204,
      "ĠZealand": 8205,
      "Ġsweet": 8206,
      "Ġtheory": 8207,
      "alter": 8208,
      "nten": 8209,
      ">âĨ": 8210,
      "ĠLast": 8211,
      "ĠID": 8212,
      "ĠPhot": 8213,
      "Ġcore": 8214,
      "asure": 8215,
      "ngen": 8216,
      "Ġzwar": 8217,
      "schnitt": 8218,
      "iges": 8219,
      "Ġwriter": 8220,
      "onic": 8221,
      "Ġafford": 8222,
      "Åĵur": 8223,
      "chest": 8224,
      "ĠMaria": 8225,
      "Ġexerc": 8226,
      "ĠWolf": 8227,
      "Ġlaws": 8228,
      "cheiden": 8229,
      "anton": 8230,
      "oids": 8231,
      "ourse": 8232,
      "onie": 8233,
      "nners": 8234,
      "ĠEach": 8235,
      "balle": 8236,
      "ĠKong": 8237,
      "ĠDim": 8238,
      "mended": 8239,
      "bres": 8240,
      "Ġeast": 8241,
      "ĠHeim": 8242,
      "cept": 8243,
      "Ġfear": 8244,
      "ensus": 8245,
      "ĠFour": 8246,
      "Europe": 8247,
      "yo": 8248,
      "ĠText": 8249,
      "ĠBow": 8250,
      "vile": 8251,
      "gefu": 8252,
      "ĠWorks": 8253,
      "ĠNetz": 8254,
      "tex": 8255,
      "uine": 8256,
      "achine": 8257,
      "ĠPor": 8258,
      "Ġparce": 8259,
      "Ġeinges": 8260,
      "oile": 8261,
      "chiedenen": 8262,
      "Ġaudio": 8263,
      "ĠControl": 8264,
      "Ġexpert": 8265,
      "Ġcha": 8266,
      "FR": 8267,
      "rats": 8268,
      "ĠStein": 8269,
      "Ġayant": 8270,
      "igration": 8271,
      "Ġmap": 8272,
      "Ġahead": 8273,
      "Ġthus": 8274,
      "ref": 8275,
      "ĠAnne": 8276,
      "ĠPati": 8277,
      "pass": 8278,
      "Ġsenior": 8279,
      "teili": 8280,
      "Ġsommes": 8281,
      ">...": 8282,
      "merce": 8283,
      "gesamt": 8284,
      "Sa": 8285,
      "aked": 8286,
      "osite": 8287,
      "olet": 8288,
      "Ġdivision": 8289,
      "ĠMitglied": 8290,
      "tering": 8291,
      "Ġclassic": 8292,
      "vement": 8293,
      "ositions": 8294,
      "atever": 8295,
      "Ġtow": 8296,
      "Ġrecip": 8297,
      "esen": 8298,
      "rge": 8299,
      "fung": 8300,
      "Ġbillion": 8301,
      "==": 8302,
      "ĠIreland": 8303,
      "ĠBase": 8304,
      "ĠKirche": 8305,
      "thi": 8306,
      "Ġbelle": 8307,
      "Ġposte": 8308,
      "zin": 8309,
      "ĠZum": 8310,
      "nivers": 8311,
      "ĠMedical": 8312,
      "Ġarm": 8313,
      "Ġsets": 8314,
      "Ġloi": 8315,
      "Ġnumerous": 8316,
      "ĠNamen": 8317,
      "Ġcells": 8318,
      "Ġmaybe": 8319,
      "rden": 8320,
      "Ġdessen": 8321,
      "Ġlett": 8322,
      "Ann": 8323,
      "liegen": 8324,
      "Ġtarget": 8325,
      "Ġfounded": 8326,
      "aken": 8327,
      "Fran": 8328,
      "EE": 8329,
      "Ġmul": 8330,
      "ĠStation": 8331,
      "kehr": 8332,
      "ĠAC": 8333,
      "ĠBrun": 8334,
      "ĠGlu": 8335,
      "stre": 8336,
      "tiker": 8337,
      "kir": 8338,
      "wendung": 8339,
      "2005": 8340,
      "Ġkomple": 8341,
      "Ġfight": 8342,
      "sionals": 8343,
      "kosten": 8344,
      "endar": 8345,
      "oirs": 8346,
      "ĠYoung": 8347,
      "Ġslight": 8348,
      "ologique": 8349,
      "Ġcaused": 8350,
      "exp": 8351,
      "Please": 8352,
      "Gra": 8353,
      "gcolor": 8354,
      "rish": 8355,
      "ĠKinde": 8356,
      "Ġbrain": 8357,
      "ronze": 8358,
      "Ġassist": 8359,
      "term": 8360,
      "Ges": 8361,
      "ĠLibrary": 8362,
      "Ġespe": 8363,
      "ilen": 8364,
      "Ġligh": 8365,
      "ĠCall": 8366,
      "pondre": 8367,
      "Ġseat": 8368,
      "Ġversch": 8369,
      "Ġaug": 8370,
      "Ġprofit": 8371,
      "gic": 8372,
      "ĠMess": 8373,
      "Ġkilled": 8374,
      "Ġtes": 8375,
      "Ġgenre": 8376,
      "Ġprive": 8377,
      "vide": 8378,
      "Ġfederal": 8379,
      "Ġliber": 8380,
      "ĠAlthough": 8381,
      "rience": 8382,
      "ĠBaby": 8383,
      "Ġvar": 8384,
      "Ġeuch": 8385,
      "DI": 8386,
      "Ġprou": 8387,
      "acific": 8388,
      "400": 8389,
      "hio": 8390,
      "ĠAS": 8391,
      "Ġfaith": 8392,
      "Ġscen": 8393,
      "Ġforeign": 8394,
      "ichtung": 8395,
      "actions": 8396,
      "Ġadult": 8397,
      "image": 8398,
      "Ġcheap": 8399,
      "ĠIhrer": 8400,
      "ualite": 8401,
      "ĠOu": 8402,
      "Ġceleb": 8403,
      "Ġreached": 8404,
      "cell": 8405,
      "uellement": 8406,
      "Ġpet": 8407,
      "ospit": 8408,
      "Ġfille": 8409,
      "Ġ1983": 8410,
      "Ġmembres": 8411,
      "Ġhommes": 8412,
      "ocket": 8413,
      "Ġunseren": 8414,
      "icherung": 8415,
      "Trans": 8416,
      "sung": 8417,
      "Ġcele": 8418,
      "Ġsharing": 8419,
      "ĠBle": 8420,
      "ĠBang": 8421,
      "ĠEarth": 8422,
      "ĠSS": 8423,
      "Ġupdate": 8424,
      "ÃĹ": 8425,
      "ework": 8426,
      "Ġwoll": 8427,
      "agner": 8428,
      "ĠAdd": 8429,
      "Ġraison": 8430,
      "lungs": 8431,
      "ĠGera": 8432,
      "Ġkg": 8433,
      "Ġprefer": 8434,
      "Ze": 8435,
      "tablis": 8436,
      "Ġloan": 8437,
      "ĠSpecial": 8438,
      "glichen": 8439,
      "Ġdevant": 8440,
      "ĠMah": 8441,
      "Ġfr": 8442,
      "issement": 8443,
      "ĠGlobal": 8444,
      "cert": 8445,
      "ĠSpring": 8446,
      "ugen": 8447,
      "Ġride": 8448,
      "ĠÂ§": 8449,
      "racy": 8450,
      "ĠDann": 8451,
      "Ġsouhaite": 8452,
      "fam": 8453,
      "hil": 8454,
      "Ġcul": 8455,
      "ursday": 8456,
      "ĠKreis": 8457,
      "ĠErfol": 8458,
      "Ġdesigns": 8459,
      "Ġthank": 8460,
      "Ġerkla": 8461,
      "!!!!": 8462,
      "Ġmusique": 8463,
      "ignet": 8464,
      "Ġdriving": 8465,
      "mming": 8466,
      "ĠPersonal": 8467,
      "ambres": 8468,
      "ĠAdminist": 8469,
      "ategories": 8470,
      "Ġhil": 8471,
      "grade": 8472,
      "ete": 8473,
      "Ġwear": 8474,
      "ĠVolks": 8475,
      "Ġordin": 8476,
      "Ġonto": 8477,
      "Ġremain": 8478,
      "kra": 8479,
      "tru": 8480,
      "Ġengage": 8481,
      "Ġ1982": 8482,
      "Ðº": 8483,
      "lications": 8484,
      "ĠThank": 8485,
      "resent": 8486,
      "Best": 8487,
      "Ġwinning": 8488,
      "Ġfinance": 8489,
      "lins": 8490,
      "Ġging": 8491,
      "Ġmut": 8492,
      "ĠStern": 8493,
      "Ġcounter": 8494,
      "Ġvero": 8495,
      "rison": 8496,
      "oster": 8497,
      "Ġkannst": 8498,
      "best": 8499,
      "Ġero": 8500,
      "ĠJon": 8501,
      "Ġsecure": 8502,
      "Ġ//": 8503,
      "ĠSpanish": 8504,
      "flu": 8505,
      "ĠWien": 8506,
      "Ġdanger": 8507,
      "agit": 8508,
      "Ġdirected": 8509,
      "portation": 8510,
      "Ġvin": 8511,
      "Ġended": 8512,
      "Eine": 8513,
      "Ġbalance": 8514,
      "ĠAngebot": 8515,
      "liga": 8516,
      "Ġvalues": 8517,
      "Ġcourses": 8518,
      "reibung": 8519,
      "dez": 8520,
      "andy": 8521,
      "markt": 8522,
      "abase": 8523,
      "ogn": 8524,
      "Ġcate": 8525,
      "zip": 8526,
      "ĠÌģ": 8527,
      "Ġlooked": 8528,
      "Ġgain": 8529,
      "Ġ~": 8530,
      "lieb": 8531,
      "fal": 8532,
      "sts": 8533,
      "chter": 8534,
      "Ġ=>": 8535,
      "Ġannonce": 8536,
      "ĠBis": 8537,
      "Ġlogic": 8538,
      "ization": 8539,
      "Ġfriendly": 8540,
      "Ġmenu": 8541,
      "Ġkleinen": 8542,
      "Ġtravers": 8543,
      "Ġcapacity": 8544,
      "ĠRis": 8545,
      "idth": 8546,
      "sentation": 8547,
      "reifen": 8548,
      "aro": 8549,
      "Ġstations": 8550,
      "ennent": 8551,
      "ĠGed": 8552,
      "ador": 8553,
      "Art": 8554,
      "roi": 8555,
      "Ġtut": 8556,
      "lix": 8557,
      "Ġcompeti": 8558,
      "Not": 8559,
      "blick": 8560,
      "ĠBaye": 8561,
      "utzt": 8562,
      "ĠMarin": 8563,
      "Ġserver": 8564,
      "Ġlas": 8565,
      "Ġdebut": 8566,
      "olar": 8567,
      "Ġinteg": 8568,
      "Ġremains": 8569,
      "ĠSpieler": 8570,
      "owered": 8571,
      "ĠCON": 8572,
      "quelle": 8573,
      "ĠColumb": 8574,
      "ĠMinuten": 8575,
      "uft": 8576,
      "foli": 8577,
      "mile": 8578,
      "ĠAlt": 8579,
      "hang": 8580,
      "IER": 8581,
      "leurs": 8582,
      "ĠJersey": 8583,
      "bury": 8584,
      "ĠCatholic": 8585,
      "ĠMein": 8586,
      "003": 8587,
      "hum": 8588,
      "ragon": 8589,
      "olars": 8590,
      "ĠCarolina": 8591,
      "ĠIV": 8592,
      "Ġfeatured": 8593,
      "Ġ1981": 8594,
      "ĠItaly": 8595,
      "ĠPhilipp": 8596,
      "Ġteacher": 8597,
      "ucky": 8598,
      "Ġedi": 8599,
      "ĠFig": 8600,
      "Ġworkers": 8601,
      "uesday": 8602,
      "Ġassez": 8603,
      "Ġjardin": 8604,
      "maller": 8605,
      "ĠOrder": 8606,
      "rner": 8607,
      "ibles": 8608,
      "osit": 8609,
      "Ġautour": 8610,
      "Ġbecomes": 8611,
      "ART": 8612,
      "Ġmajority": 8613,
      "Ġfeu": 8614,
      "lad": 8615,
      "ĠWilliams": 8616,
      "ĠAdv": 8617,
      "Ġprogress": 8618,
      "ĠBahn": 8619,
      "Ġjuste": 8620,
      "Ġalbums": 8621,
      "Ġcris": 8622,
      "Ġleague": 8623,
      "ĠLittle": 8624,
      "ĠLuft": 8625,
      "osse": 8626,
      "Ġunterstu": 8627,
      "Ġoffre": 8628,
      "Ġep": 8629,
      "ĠRaum": 8630,
      "Ġaudience": 8631,
      "Ġreven": 8632,
      "Ġdance": 8633,
      "Ġ47": 8634,
      "Ġkept": 8635,
      "union": 8636,
      "ĠGel": 8637,
      "Ġvisite": 8638,
      "Ð»": 8639,
      "antwort": 8640,
      "urther": 8641,
      "ĠDienst": 8642,
      "bri": 8643,
      "Ġdeine": 8644,
      "ĠHin": 8645,
      "ĠAsia": 8646,
      "obi": 8647,
      "ĠTy": 8648,
      "âĢĿ.": 8649,
      "Ġweniger": 8650,
      "Ġinitial": 8651,
      "iesen": 8652,
      ">âĢŀ": 8653,
      "ĠFind": 8654,
      "Ġmac": 8655,
      "OV": 8656,
      "OK": 8657,
      "Inter": 8658,
      "ĠFuÃŁball": 8659,
      "aime": 8660,
      "rsch": 8661,
      "Ġsettle": 8662,
      "Ġpropre": 8663,
      "ĠJones": 8664,
      "Ġtheme": 8665,
      "Ġdriver": 8666,
      "Ke": 8667,
      "lets": 8668,
      "Ġliqu": 8669,
      "ize": 8670,
      "rentes": 8671,
      "orin": 8672,
      "Ġvu": 8673,
      "preis": 8674,
      "oppel": 8675,
      "gemein": 8676,
      "Geboren": 8677,
      "ĠBla": 8678,
      "Ġbgcolor": 8679,
      "Ġcoun": 8680,
      "ĠâĢł": 8681,
      "Ġautor": 8682,
      "ĠWol": 8683,
      "Ġensuite": 8684,
      "ault": 8685,
      "ĠPie": 8686,
      "Ġrelevant": 8687,
      "kus": 8688,
      "These": 8689,
      "ĠFest": 8690,
      "ĠToday": 8691,
      "achten": 8692,
      "dd": 8693,
      "Ġdrug": 8694,
      "Ġ1979": 8695,
      "ĠCongress": 8696,
      "Ġrichtig": 8697,
      "ĠKultur": 8698,
      "ech": 8699,
      "Ġseront": 8700,
      "ĠThr": 8701,
      "sm": 8702,
      "Now": 8703,
      "Ġsoi": 8704,
      "hemali": 8705,
      "meldung": 8706,
      "aturing": 8707,
      "elly": 8708,
      "Ġtaille": 8709,
      "ĠMontre": 8710,
      "Ang": 8711,
      "gehen": 8712,
      "Ġrequires": 8713,
      "ensemble": 8714,
      "nesday": 8715,
      "Ġattrib": 8716,
      "ĠKenn": 8717,
      "ĠNote": 8718,
      "rman": 8719,
      "ĠPsych": 8720,
      "plate": 8721,
      "ĠKarl": 8722,
      "Ġ52": 8723,
      "spieler": 8724,
      "ackson": 8725,
      "rics": 8726,
      "ĠSanta": 8727,
      "tements": 8728,
      "ĠUk": 8729,
      "Ġgau": 8730,
      "Ġbutton": 8731,
      "ĠElekt": 8732,
      "rapie": 8733,
      "Ġminor": 8734,
      "redi": 8735,
      "Ġeconomy": 8736,
      "Ġfinding": 8737,
      "Ġung": 8738,
      "lind": 8739,
      "Ġathle": 8740,
      "anci": 8741,
      "ĠNetwork": 8742,
      "sto": 8743,
      "tschafts": 8744,
      "ĠOnce": 8745,
      "UB": 8746,
      "Ġmoder": 8747,
      "mode": 8748,
      "Ġrose": 8749,
      "Ġbesteht": 8750,
      "krie": 8751,
      "film": 8752,
      "Ġneighbor": 8753,
      "omo": 8754,
      "rve": 8755,
      "Ġvou": 8756,
      "Ġpurs": 8757,
      "Ġdrop": 8758,
      "Ġrot": 8759,
      "Ġrooms": 8760,
      "Ori": 8761,
      "Ġproch": 8762,
      "Ġholiday": 8763,
      "Nr": 8764,
      "osa": 8765,
      "Ġ1978": 8766,
      "voye": 8767,
      "kins": 8768,
      "liss": 8769,
      "Ġserving": 8770,
      "Ġoutdoor": 8771,
      "ĠFlug": 8772,
      "ĠVeran": 8773,
      "irds": 8774,
      "istic": 8775,
      "Ġzeigt": 8776,
      "Ġment": 8777,
      "Ġjeunes": 8778,
      "Ġbattle": 8779,
      "Ġ1972": 8780,
      "ylvan": 8781,
      "Ġbout": 8782,
      "worten": 8783,
      "achs": 8784,
      "leve": 8785,
      "ĠTheir": 8786,
      "Ġshape": 8787,
      "UP": 8788,
      "ĠRussia": 8789,
      "ĠPortug": 8790,
      "ĠGR": 8791,
      "crete": 8792,
      "utet": 8793,
      "Ġsuivant": 8794,
      "stellen": 8795,
      "Ġtiss": 8796,
      "Ġdimen": 8797,
      "ĠFOR": 8798,
      "ĠStrate": 8799,
      "Ġmathe": 8800,
      "tage": 8801,
      "ĠIran": 8802,
      "ĠSupport": 8803,
      "AY": 8804,
      "innen": 8805,
      "ĠPlace": 8806,
      "Fl": 8807,
      "Ġleicht": 8808,
      "Ġgratuite": 8809,
      "ansas": 8810,
      "ĠAirport": 8811,
      "agog": 8812,
      "ĠLam": 8813,
      "ĠUSB": 8814,
      "fred": 8815,
      "Ġnutri": 8816,
      "Ġsubse": 8817,
      "Mode": 8818,
      "Ġexchange": 8819,
      "Ġstated": 8820,
      "Ġmaintain": 8821,
      "Ġcade": 8822,
      "onder": 8823,
      "hibition": 8824,
      "Ġwindows": 8825,
      "ĠLas": 8826,
      "ĠHuman": 8827,
      "arbeiten": 8828,
      "Your": 8829,
      "Ġ600": 8830,
      "Ġpose": 8831,
      "Ġtransi": 8832,
      "issant": 8833,
      "Ġleaving": 8834,
      "enni": 8835,
      "ctively": 8836,
      "ĠDei": 8837,
      "Ġsquare": 8838,
      "Ġtruth": 8839,
      "ooting": 8840,
      "Ġphase": 8841,
      "orb": 8842,
      "xi": 8843,
      "Ġcoast": 8844,
      "handlung": 8845,
      "otal": 8846,
      "Ġenable": 8847,
      "beho": 8848,
      "ranken": 8849,
      "Ġtalking": 8850,
      "ĠLage": 8851,
      "Ġtoile": 8852,
      "Ġcities": 8853,
      "ĠFeb": 8854,
      "Ġappears": 8855,
      "Ġworkshop": 8856,
      "Ġactual": 8857,
      "Ġfourth": 8858,
      "gant": 8859,
      "ools": 8860,
      "Ap": 8861,
      "ÃŁig": 8862,
      "php": 8863,
      "ĠTitel": 8864,
      "Ġmanif": 8865,
      "tudes": 8866,
      "tia": 8867,
      "server": 8868,
      "ĠIslam": 8869,
      "Ġparten": 8870,
      "schutz": 8871,
      "point": 8872,
      "Ġserait": 8873,
      "ĠProdukte": 8874,
      "Ġerre": 8875,
      "Ġstone": 8876,
      "Ġsnow": 8877,
      "genommen": 8878,
      "Ġlibrary": 8879,
      "Ġreality": 8880,
      "Ġretour": 8881,
      "Ġcolors": 8882,
      "otte": 8883,
      "('": 8884,
      "ĠKur": 8885,
      "ĠBesch": 8886,
      "Ġbefindet": 8887,
      "Ġquoi": 8888,
      "ĠKontakt": 8889,
      "cupe": 8890,
      "Ġprend": 8891,
      "ĠGem": 8892,
      "unsch": 8893,
      "Ġtesting": 8894,
      "Ġ1975": 8895,
      "Ġlaunch": 8896,
      "bul": 8897,
      "Ġagent": 8898,
      "Gene": 8899,
      "rug": 8900,
      "Ġcommande": 8901,
      "Ġpasser": 8902,
      "ĠHan": 8903,
      "Ġaccident": 8904,
      "Ġpaar": 8905,
      "onda": 8906,
      "Ġsmaller": 8907,
      "Ġunserem": 8908,
      "richtung": 8909,
      "ĠTR": 8910,
      "Ġplane": 8911,
      "Ġgewa": 8912,
      "ports": 8913,
      "ĠFull": 8914,
      "clear": 8915,
      "tude": 8916,
      "gage": 8917,
      "nschaft": 8918,
      "hner": 8919,
      "formance": 8920,
      "plom": 8921,
      "Ġkeinen": 8922,
      "ĠMobile": 8923,
      "Ġexte": 8924,
      "wen": 8925,
      "While": 8926,
      "ohl": 8927,
      "Ġcontain": 8928,
      "Ġplays": 8929,
      "Here": 8930,
      "lichkeit": 8931,
      "uting": 8932,
      "iency": 8933,
      "Ġ800": 8934,
      "Bar": 8935,
      "ANT": 8936,
      "arbeitung": 8937,
      "Ġ1976": 8938,
      "Ġvoiture": 8939,
      "Ġzusa": 8940,
      "They": 8941,
      "estic": 8942,
      "ĠZent": 8943,
      "vard": 8944,
      "ĠProjekt": 8945,
      "Ġprofile": 8946,
      "nin": 8947,
      "Ġreques": 8948,
      "Ġrand": 8949,
      "Ġvalid": 8950,
      "ĠOst": 8951,
      "Ġmostly": 8952,
      "ĠBran": 8953,
      "Ġpharm": 8954,
      "Ġroof": 8955,
      "Ġperhaps": 8956,
      "Ġschwarz": 8957,
      "Ġrelation": 8958,
      "ĠON": 8959,
      "Ġapplied": 8960,
      "Ġpush": 8961,
      "enting": 8962,
      "Ġparking": 8963,
      "ĠAT": 8964,
      "Mem": 8965,
      "Ġcivil": 8966,
      "ĠDor": 8967,
      "cise": 8968,
      "ĠStaff": 8969,
      "lemen": 8970,
      "ĠDenn": 8971,
      "Ġcultural": 8972,
      "chlag": 8973,
      "Bas": 8974,
      "Ġlearned": 8975,
      "pla": 8976,
      "Gru": 8977,
      "Ġmark": 8978,
      "Ġincredi": 8979,
      "Ġraised": 8980,
      "Ġprison": 8981,
      "Ġ1968": 8982,
      "Ġbru": 8983,
      "Ġsecre": 8984,
      "books": 8985,
      "BI": 8986,
      "Mus": 8987,
      "ĠDoc": 8988,
      "-,": 8989,
      "Ġdream": 8990,
      "lections": 8991,
      "ĠSum": 8992,
      "istence": 8993,
      "HS": 8994,
      "Ġast": 8995,
      "ĠGlas": 8996,
      "Ġarts": 8997,
      "tember": 8998,
      "ĠÂ°": 8999,
      "sine": 9000,
      "Ġdeuxie": 9001,
      "May": 9002,
      "vue": 9003,
      "Ġriver": 9004,
      "pieler": 9005,
      "Ġfactors": 9006,
      "sites": 9007,
      "Ġspeak": 9008,
      "Why": 9009,
      "rac": 9010,
      "weet": 9011,
      "Hotel": 9012,
      "Ġjustice": 9013,
      "burger": 9014,
      "yers": 9015,
      "Comm": 9016,
      "ĠSchwei": 9017,
      "Ġbeauty": 9018,
      "Ġnuit": 9019,
      "Ġfrag": 9020,
      "âĢľ.": 9021,
      "ĠDec": 9022,
      "0000": 9023,
      "ĠMom": 9024,
      "Ġmanaged": 9025,
      "IX": 9026,
      "Ġscre": 9027,
      "ĠHim": 9028,
      "Bon": 9029,
      "ĠPartner": 9030,
      "ĠIr": 9031,
      "mme": 9032,
      "standing": 9033,
      "Ġwhom": 9034,
      "vraison": 9035,
      "Mann": 9036,
      "rates": 9037,
      "Ġadvance": 9038,
      "tili": 9039,
      "tails": 9040,
      "ĠPoly": 9041,
      "Ġcup": 9042,
      "rash": 9043,
      "Ġenc": 9044,
      "Ġ)<": 9045,
      "eding": 9046,
      "ĠFunktion": 9047,
      "2004": 9048,
      "ĠJoe": 9049,
      "QU": 9050,
      "ĠBoston": 9051,
      "gime": 9052,
      "Ġschedule": 9053,
      "gart": 9054,
      "Ġlab": 9055,
      "nehmen": 9056,
      "Ġtests": 9057,
      "jahr": 9058,
      "!!!<": 9059,
      "Ġchocol": 9060,
      "Ġga": 9061,
      "ĠRat": 9062,
      "Ġshel": 9063,
      "Ġmand": 9064,
      "Cette": 9065,
      "Ġelles": 9066,
      "mlich": 9067,
      "ĠDort": 9068,
      "ĠCru": 9069,
      "Ġnegative": 9070,
      "Ġdaher": 9071,
      "Ġanzeigen": 9072,
      "lungen": 9073,
      "Ġeux": 9074,
      "\")": 9075,
      "usement": 9076,
      "beth": 9077,
      "ĠSingle": 9078,
      "xy": 9079,
      "unn": 9080,
      "Und": 9081,
      "alo": 9082,
      "ĠSeit": 9083,
      "blog": 9084,
      "ĠFoto": 9085,
      "Von": 9086,
      "Plus": 9087,
      "Ġbrief": 9088,
      "Ġgone": 9089,
      "chinen": 9090,
      "Ġpouv": 9091,
      "ĠNavy": 9092,
      "axy": 9093,
      "Ġaccommod": 9094,
      "alization": 9095,
      "Sur": 9096,
      "Ġmist": 9097,
      "ĠDC": 9098,
      "Ġski": 9099,
      "ulpt": 9100,
      "ĠRoom": 9101,
      "Ġplein": 9102,
      "covery": 9103,
      "Ġtor": 9104,
      "Ġmoderne": 9105,
      "tu": 9106,
      "agt": 9107,
      "Ġdeutsche": 9108,
      "Ġhors": 9109,
      "orities": 9110,
      "enf": 9111,
      "ocratic": 9112,
      "origine": 9113,
      "mate": 9114,
      "enen": 9115,
      "ĠMaison": 9116,
      "ĠMS": 9117,
      "lieÃŁen": 9118,
      "Ġ95": 9119,
      "wissens": 9120,
      "ĠSchm": 9121,
      "ĠLike": 9122,
      "ufig": 9123,
      "ĠPrince": 9124,
      "rut": 9125,
      "Ġmail": 9126,
      "cular": 9127,
      "Ġ1974": 9128,
      "wald": 9129,
      "Ġelected": 9130,
      "onte": 9131,
      "ĠRights": 9132,
      "uil": 9133,
      "spe": 9134,
      "Ġyouth": 9135,
      "Ġlongue": 9136,
      "Ġseeing": 9137,
      "ĠGarden": 9138,
      "ismus": 9139,
      "quie": 9140,
      "Ġfrei": 9141,
      "Ġanimal": 9142,
      "Ġcalls": 9143,
      "ĠAnton": 9144,
      "ĠHong": 9145,
      "Ġclos": 9146,
      "Ġbekommen": 9147,
      "ĠAnfang": 9148,
      "ĠBM": 9149,
      "ymn": 9150,
      "ĠEnergie": 9151,
      "Ġlegis": 9152,
      "Ġhandle": 9153,
      "ĠCR": 9154,
      "Ġproxim": 9155,
      "ova": 9156,
      "fficial": 9157,
      "Ġanswers": 9158,
      "riere": 9159,
      "Saint": 9160,
      "Her": 9161,
      "ĠSea": 9162,
      "lassen": 9163,
      "Ġbound": 9164,
      "Ġowned": 9165,
      "Ġanimals": 9166,
      "weiter": 9167,
      "enster": 9168,
      "ĠSho": 9169,
      "Wi": 9170,
      "Ġimpos": 9171,
      "Ġwelcome": 9172,
      "Ġspiel": 9173,
      "Ġign": 9174,
      "lls": 9175,
      "uries": 9176,
      "haft": 9177,
      "Ġelement": 9178,
      "ffent": 9179,
      "bindung": 9180,
      "ĠScott": 9181,
      "ĠContin": 9182,
      "ĠPrime": 9183,
      "Ġsector": 9184,
      "ĠStudio": 9185,
      "ĠAi": 9186,
      "rf": 9187,
      "cop": 9188,
      "ĠCoo": 9189,
      "Ġevening": 9190,
      "ĠFla": 9191,
      "ierungs": 9192,
      "Ġnehmen": 9193,
      "ĠMiddle": 9194,
      "vise": 9195,
      "Ġtopic": 9196,
      "hnung": 9197,
      "Ġaspects": 9198,
      "Ġlecture": 9199,
      "ĠVerlag": 9200,
      "Ġmeiner": 9201,
      "Ġfis": 9202,
      "\\\"": 9203,
      "pann": 9204,
      "ĠSystems": 9205,
      "couvrir": 9206,
      "Ġtempor": 9207,
      "athan": 9208,
      "Ġbonus": 9209,
      "ĠStunden": 9210,
      "kee": 9211,
      "tudi": 9212,
      "ĠCoast": 9213,
      "ĠQueen": 9214,
      "ĠPhoto": 9215,
      "ĠSaf": 9216,
      "ĠPremier": 9217,
      "rische": 9218,
      "ĠTab": 9219,
      "iko": 9220,
      "ĠGot": 9221,
      "Ġersch": 9222,
      "Ġframe": 9223,
      "ĠGh": 9224,
      "osh": 9225,
      "Ġleaves": 9226,
      "Ġq": 9227,
      "Ġcam": 9228,
      "Ġnoti": 9229,
      "Ġattempt": 9230,
      "ĠPy": 9231,
      "ĠPolicy": 9232,
      "idden": 9233,
      "Ġmatie": 9234,
      "Ġjeux": 9235,
      "pected": 9236,
      "Vide": 9237,
      "rke": 9238,
      "ufen": 9239,
      "ĠQui": 9240,
      "LS": 9241,
      "ĠBlick": 9242,
      "Ġdollars": 9243,
      "Ġ|--": 9244,
      "Ġclaims": 9245,
      "Ġveget": 9246,
      "Ġ1977": 9247,
      "nach": 9248,
      "ĠDabei": 9249,
      "icks": 9250,
      "lywood": 9251,
      "Ġmessages": 9252,
      "ĠMot": 9253,
      "%<": 9254,
      "Ġpackage": 9255,
      "oly": 9256,
      "ĠGeba": 9257,
      "Ġpassage": 9258,
      "Ġkit": 9259,
      "omer": 9260,
      "Ġflat": 9261,
      "Ġdeliver": 9262,
      "ĠKit": 9263,
      "Ġfrais": 9264,
      "ĠLis": 9265,
      "Ġsagt": 9266,
      "Ġexplore": 9267,
      "Ġarti": 9268,
      "Ġmedium": 9269,
      "izi": 9270,
      "ĠFord": 9271,
      "Ġ1971": 9272,
      "span": 9273,
      "rinnen": 9274,
      "Ġsagen": 9275,
      "Ġaj": 9276,
      "Ġlaunched": 9277,
      "ĠHilfe": 9278,
      "ahrs": 9279,
      "150": 9280,
      "Ġlose": 9281,
      "Ġbought": 9282,
      "Ġ54": 9283,
      "Ġhappened": 9284,
      "Hel": 9285,
      "Ġgros": 9286,
      "Ġtard": 9287,
      "Ġambi": 9288,
      "Ġdevient": 9289,
      "ĠSitz": 9290,
      "urent": 9291,
      "West": 9292,
      "Ġeher": 9293,
      "ĠSchutz": 9294,
      "Ġcombat": 9295,
      "ĠPoint": 9296,
      "Ġweiteren": 9297,
      "exes": 9298,
      "Ġlived": 9299,
      "Ġihnen": 9300,
      "adium": 9301,
      "Ġpresence": 9302,
      "park": 9303,
      "vised": 9304,
      "gbar": 9305,
      "Ġ1973": 9306,
      "Ġtermin": 9307,
      "dchen": 9308,
      "Ġsujet": 9309,
      "Ġdad": 9310,
      "ĠPak": 9311,
      "Ġprepared": 9312,
      "Comment": 9313,
      "Ġ85": 9314,
      "Ġtrading": 9315,
      "ĠComputer": 9316,
      "ĠJohnson": 9317,
      "rot": 9318,
      "Ġcrow": 9319,
      "druck": 9320,
      "Ġexer": 9321,
      "Ġwire": 9322,
      "Ġsurpris": 9323,
      "Ġgaran": 9324,
      "ĠNutz": 9325,
      "Ġerk": 9326,
      "Ġbiggest": 9327,
      "{\"": 9328,
      "fert": 9329,
      "ncl": 9330,
      "ĠEntre": 9331,
      "Ġcance": 9332,
      "Ġinsp": 9333,
      "rechn": 9334,
      "ĠKh": 9335,
      "Ġfunds": 9336,
      "univers": 9337,
      "kehrs": 9338,
      "rants": 9339,
      "ĠWald": 9340,
      "iana": 9341,
      "rischen": 9342,
      "ĠTel": 9343,
      "Ġkid": 9344,
      "gment": 9345,
      "ĠStan": 9346,
      "Ġcharges": 9347,
      "acle": 9348,
      "Ġrus": 9349,
      "Ġillust": 9350,
      "Ġpetits": 9351,
      "ĠNat": 9352,
      "alities": 9353,
      "Ġvacances": 9354,
      "oline": 9355,
      "hine": 9356,
      "haupt": 9357,
      "Ġexpress": 9358,
      "Ġprovince": 9359,
      "Ġwriters": 9360,
      "zeitig": 9361,
      "Ġdiet": 9362,
      "Ġ56": 9363,
      "ĠGesund": 9364,
      "water": 9365,
      "DP": 9366,
      "gri": 9367,
      "ĠSou": 9368,
      "ĠStory": 9369,
      "ĠWissens": 9370,
      "Ġgrands": 9371,
      "ammer": 9372,
      "ĠAri": 9373,
      "ÙĦ": 9374,
      "Ġdoi": 9375,
      "nstler": 9376,
      "dn": 9377,
      "Lie": 9378,
      "Ġcherche": 9379,
      "obby": 9380,
      "rink": 9381,
      "former": 9382,
      "ĠContact": 9383,
      "ĠBecause": 9384,
      "Ġhospital": 9385,
      "ĠMike": 9386,
      "Ġdure": 9387,
      "roupe": 9388,
      "ĠHomme": 9389,
      "orney": 9390,
      "zeuge": 9391,
      "outs": 9392,
      "ĠAst": 9393,
      "Ġdese": 9394,
      "Ġstellen": 9395,
      "800": 9396,
      "order": 9397,
      "Ġrule": 9398,
      "ĠVors": 9399,
      "Ġmehrere": 9400,
      "tischer": 9401,
      "Ġprot": 9402,
      "riebs": 9403,
      "ulf": 9404,
      "Ġrend": 9405,
      "Ġrespond": 9406,
      "ĠNike": 9407,
      "Ġpotenti": 9408,
      "Ġcouldn": 9409,
      "Af": 9410,
      "Ġcompl": 9411,
      "Dep": 9412,
      "ĠNation": 9413,
      "Ġhast": 9414,
      "itaire": 9415,
      "Ġcouleur": 9416,
      "mander": 9417,
      "sionnel": 9418,
      "ĠKommun": 9419,
      "Ġcookies": 9420,
      "Ġreti": 9421,
      "ailleurs": 9422,
      "ĠKim": 9423,
      "ulate": 9424,
      "Ġexercise": 9425,
      "Ġcos": 9426,
      "ĠMul": 9427,
      "jan": 9428,
      "Ġspons": 9429,
      "ĠUnterneh": 9430,
      "Ġdiscip": 9431,
      "ĠKlein": 9432,
      "Ġtask": 9433,
      "esten": 9434,
      "Ġthoughts": 9435,
      "ĠPrice": 9436,
      "âĢĺ": 9437,
      "ĠInde": 9438,
      "More": 9439,
      "Fil": 9440,
      "Ġdonner": 9441,
      "ĠLow": 9442,
      "Ġpure": 9443,
      "Ġpurp": 9444,
      "Ġchanging": 9445,
      "Ġsieht": 9446,
      "rature": 9447,
      "Ġcoope": 9448,
      "Ġteachers": 9449,
      "Ġcleaning": 9450,
      "ĠRol": 9451,
      "Ġmachines": 9452,
      "ĠTax": 9453,
      "hend": 9454,
      "schul": 9455,
      "Ġrecon": 9456,
      "Ġplais": 9457,
      "ĠMichigan": 9458,
      "ylvania": 9459,
      "Ġfruit": 9460,
      "Imp": 9461,
      "mosp": 9462,
      "Ġ1969": 9463,
      "ĠType": 9464,
      "coin": 9465,
      "ITE": 9466,
      "Que": 9467,
      "schluss": 9468,
      "Ġansch": 9469,
      "aman": 9470,
      "quences": 9471,
      "Ġunser": 9472,
      "Ġfils": 9473,
      "Ġacademic": 9474,
      "Ġanderem": 9475,
      "ican": 9476,
      "quisi": 9477,
      "ĠRap": 9478,
      "till": 9479,
      "KE": 9480,
      "chlich": 9481,
      "iding": 9482,
      "worth": 9483,
      "Ġgee": 9484,
      "rache": 9485,
      "stalt": 9486,
      "tiges": 9487,
      "Ġmg": 9488,
      "ficial": 9489,
      "ĠOnly": 9490,
      "leitung": 9491,
      "OG": 9492,
      "ĠCamb": 9493,
      "vine": 9494,
      "aktion": 9495,
      "Ġpin": 9496,
      "].": 9497,
      "Ġconcert": 9498,
      "low": 9499,
      "burgh": 9500,
      "Ġ99": 9501,
      "Ġlibe": 9502,
      "wich": 9503,
      "kar": 9504,
      "obilier": 9505,
      "Ġmental": 9506,
      "night": 9507,
      "hou": 9508,
      "ĠPil": 9509,
      "ĠTw": 9510,
      "Ġfiction": 9511,
      "ĠLoc": 9512,
      "Book": 9513,
      "ĠCri": 9514,
      "Ġawarded": 9515,
      "Ġjoint": 9516,
      "ĠBit": 9517,
      "Tube": 9518,
      "ĠThursday": 9519,
      "Ġliegen": 9520,
      "ĠLud": 9521,
      "ĠNieder": 9522,
      "vors": 9523,
      "ĠNeben": 9524,
      "ĠGolden": 9525,
      "ĠRod": 9526,
      "lker": 9527,
      "lande": 9528,
      "besondere": 9529,
      "berry": 9530,
      "Ġkeeping": 9531,
      "Ġdivi": 9532,
      "immt": 9533,
      "ina": 9534,
      "ĠAnth": 9535,
      "ĠBoden": 9536,
      "CS": 9537,
      "Ġgesam": 9538,
      "Ġcycle": 9539,
      "Ġzuna": 9540,
      "Ġdining": 9541,
      "Ġaide": 9542,
      "Ġsenti": 9543,
      "ĠComple": 9544,
      "arif": 9545,
      "ubs": 9546,
      "Ġappoint": 9547,
      "ĠWoche": 9548,
      "apes": 9549,
      "ĠStad": 9550,
      "deck": 9551,
      "Ġlabel": 9552,
      "ĠKopf": 9553,
[...]
