#version: 0.2
n e
Ġ d
e s
Ì ģ
r e
o n
Ġ l
e n
Ġ p
Ġ a
l i
Ġd e
o u
t e
Ġ c
Ġ s
a n
t i
li ne
e r
ne w
new line
l e
i s
Ġ e
q u
Ì Ģ
a r
i n
Ġ m
en t
u r
a i
o r
ti on
Ġl a
Ġ v
â Ģ
Ġ f
Ġe t
Ġ t
ou r
o m
Ġl e
âĢ Ļ
qu e
r i
r a
Ġ u
i l
c e
Ġ C
s e
r o
Ġ en
m e
Ġ re
m ent
i e
v e
a u
c h
Ġ b
a s
Ġ n
Ġd es
Ġ L
a l
Ġl es
g e
d e
Ġ P
Ġ S
Ġ 1
u s
. <
i t
Ì Ĥ
an t
Ġ 2
es t
Ġ M
a tion
Ġ A
ou s
t re
r es
Ġ qu
s i
Ġd u
Ġa u
o i
Ġp our
Ġ j
an s
Ġp ar
Ġ D
Ġ (
Ġu n
a t
Ġc on
. .
p e
c i
Ġ B
a is
Ġ :
Ġ g
o s
te r
e u
d i
l le
Ġ E
Ġc h
on t
e t
Ġ que
Ġc om
Ġ T
Ġs ur
Ġp l
0 1
Ġ -
o l
Ġ R
Ġs e
m p
Ġ in
Ġ F
0 0
Ġp ro
a c
Ġu ne
Ġ est
u e
a b
Ġd ans
l es
a ge
ai t
f f
a g
i te
Ġ h
a m
u n
Ġp as
r an
ch e
er s
Ġqu i
u re
o t
Ġ G
Ġ I
Ġp re
Ġ V
Ġm e
Ġ N
Ġ ou
on s
ai re
Ġc e
i c
Ġ Â
ve c
on ne
i r
o c
t es
i g
a li
u l
ur s
Ġ J
h e
Ġpl us
a le
Ġa n
p p
Ġa vec
Ġ ne
Ġ2 01
i ne
a in
Ġ H
or t
Ġv ous
Ġs u
il le
i m
o is
i v
Ġ 3
c es
re n
Ġ o
oi r
qu es
u x
c tion
i en
Ġ te
l a
Ġt ou
d u
i er
r ou
c t
Ġv o
Ġ il
o g
Ġa v
a te
b re
Ġe x
r is
b le
a p
i que
Ġm o
a d
t s
e l
Ġ O
v er
ĠL e
an d
au x
an ce
a ti
t en
a v
o p
u m
ne s
Ġ 0
s s
Ġcom p
Ì §
ĠC h
t u
Ġd i
ri e
Ġs ont
ĠD e
.. .
Ġ |
or m
ent re
u i
Ġ 4
u is
u ne
ab le
Ġ ra
> <
Ġ i
u t
Ġp eu
s t
ĠÂ »
u b
Ġs on
Ġ 5
s er
Ġp e
d re
Ġm ais
Ġs er
et te
ar d
a y
Ġ1 9
Ġj e
ĠL a
i li
ĠR e
ation s
in g
m es
Ġ U
i on
ou ve
) <
our s
c on
l s
o re
is t
Ġ !
Ġvo tre
Ġau x
Ġm ar
Ġ W
o in
Ġa c
l o
Ġm on
Ġt ra
Ġc o
Ġa r
ĠÂ «
p re
or s
ant s
Ġb e
e m
Ġn o
Ġcom m
r u
Ġn ous
te ur
c om
en ce
ti que
ai res
l l
v i
Ġp er
a ce
en d
si on
Ġpar ti
ment s
Ġ 6
Ġs a
t t
r ai
o se
ti f
Ġ ,
Ġs i
Ġ "
ĠE n
Ġ âĢ
is e
b e
or d
Ġre n
Ġ K
p h
au t
ĠL es
en s
Ġ y
ur es
Ġd is
tion s
en te
in s
Ġs t
Ġ ?
p ar
Ġb ien
oi re
Ġ 7
Ġc ou
L e
Ġtou t
an te
c ou
o li
2 01
d es
Ġ w
Ġc ette
c ri
Ġf ait
Ġc ar
Ġ r
er t
2 0
Ġ entre
Ġs ou
l les
Ġcom me
Ġa pp
i de
an g
f e
j et
Ġau t
Ġ on
ĠM ar
ĠP ar
ch er
ti n
us si
e x
Ġp ers
Ġ /
Ġ 8
ne r
v en
.. .<
il l
c u
Ġt re
Ġ res
or te
i d
ĠI n
o b
Ġ <
ĠI l
ub li
t ure
Ġ 9
ai ne
Ġf aire
Ġ k
on d
ĠF ran
) ,
Ġs es
ali te
Ìģ ,
Ġs o
s se
al l
Ġ2 00
ag es
Ġg ra
Ġ â
ti c
n i
ou t
E S
o y
Ġ ont
Ġp ri
te ment
i re
a re
Ġf il
Ġt he
n t
ti li
Ġp r
ff e
Ġ1 0
1 0
it s
eu x
Ġn ouve
Ġ ge
Ġm a
Ĥ ¬
Ġa ussi
ai l
f orm
ri c
Ġg ran
Ġpro p
v ent
as s
Ġa l
O N
an de
Ġtra v
E R
Ì Ī
Ġn om
es s
o le
ĠC om
t at
Ġpeu t
ig ne
ĠJ e
Ġde ux
Ġf or
Ġp os
L a
Ġ2 0
mp s
h o
Ġcon t
Ġf in
Ġ Q
s te
1 9
ti v
is te
on g
Ġp h
Ġ ter
p er
i b
Ġa d
Ġle ur
Ġin ter
ale ment
on c
m bre
Ġpro du
u se
t te
Ġi mp
Ġcon c
Ġch e
l an
Ġpre m
Ġs ans
ti e
Ġ or
Ġc re
Ġ1 8
m b
5 0
ĠA n
al es
as se
L es
Ġt rou
Ġpers onne
Ġc es
Ġpro f
o o
ĠâĢ ĵ
Ġm in
1 2
ris e
p tion
o si
Ġj our
f in
p on
A N
ol og
ti t
Ġt ous
Ġc a
Ġcon s
.. ..
) .
Ġc l
le ment
o ne
om me
s ent
te l
en se
3 0
E n
Ġv e
en ne
ai lle
Ġ ;
r ans
Ġ1 2
ĠS e
Ġan s
r on
m er
R e
i le
Ġj u
Ġm an
Ġd onne
E N
ain t
ch es
ve z
ig n
ĠFran ce
Ġque l
Ġo b
1 1
k e
Ġt ro
U R
t h
m is
o de
ar i
Ġf ran
w w
e mp
Ġj us
- -
t ait
al le
Ġdi re
Ġv os
Ġno tre
Ġ1 5
c l
Ġ [
Ġs y
Ġp ubli
om e
Ġ im
ra tion
ci p
_ _
Ġf e
qu i
g er
Ġ ti
Ġde r
ĠC e
i es
I N
v is
en ti
Ġj eu
a me
Ġ ro
ag ne
D e
li n
Ġ ri
Ġo ff
ol u
Ġe lle
A R
Ġcon f
on n
c ore
ĠP our
s ation
p uis
" :
p s
m a
Ġa ss
ĠU n
m in
i ques
d er
p ort
Ġ es
ri que
ĠM e
li e
00 0
ĠS t
Ġch a
Ġs ite
o w
Ġte mps
Ġre t
Ġv ie
v es
Ġv is
j our
ent s
ar ge
ate ur
ĠA r
ain s
Ġu tili
a pp
Ġ1 4
Ġ1 7
Ġâ Ĥ¬
1 8
Ġper me
ai ent
n ie
" ,
j e
v re
Ġs ous
Ġl ui
d s
is s
Ġ1 6
a ci
Ġp uis
m i
au te
Ġc li
Ìģ .
p pe
o pe
il s
a de
Ġv er
ri t
ti ques
in si
m ar
o it
Ġ .
em me
ti ve
1 5
iv re
l er
1 4
c re
Ġf on
Ġc as
Ġ *
U n
Ġ1 3
ĠP ro
u er
Ġs it
Ġpri x
ay s
an ces
g re
Ġ! <
/ /
er ci
u es
is se
e lle
te urs
t o
Ġin te
ie ux
Ġf orm
m ble
Ġs pe
r ait
Ġde v
Ġd ou
Ġb on
ou v
C h
Ġa t
u me
g ra
1 6
Ġc or
i a
Ġ rou
I S
c o
Ġt h
1 7
Ġ Y
i ve
1 3
Ġt rans
ren t
Ġav ant
L E
ili te
Ġm es
: //
Ġo f
Ġex p
d ent
l us
! !
le ct
il li
Ġe ff
2 2
Ġs eu
Ġc our
Ġen core
Ġfran c
Ġnom bre
Ġpar t
Ġde m
ĠE t
Ġf ois
Ġk m
T I
li c
g alement
ĠS aint
con tre
i ci
an ge
v ri
g an
R E
Ġm et
res se
c ue
Ġd onc
t ra
Ġn os
Ġan ne
Ġl ors
ais on
Ġn on
Ġ &
Ġd ro
a z
at ure
Â °
Ġc an
f r
Ġ: <
T E
Ġv en
Ġ is
Ġa insi
ĠA l
Ġmo de
Ġm al
a k
Ġa b
Ġde puis
I n
ĠPar is
ra is
ve l
a ne
Ġ #
Ġ1 1
Ġh e
o v
ant es
ces s
4 0
eu re
ac k
oc ie
Ġan d
in te
Ġen v
Ġgra tu
a se
Ġcon tre
di tion
Ġt u
Ġa pre
Ġph ot
ĠA u
ie u
r y
Ġd ont
g es
ction s
Ġmo ins
n on
Ġcon n
Ġp ie
ou l
qui pe
c teur
ab les
Ġbe au
Ġ X
ĠB e
ue lle
Ġpl ace
Ġm ai
li er
Ġch au
ar t
ue l
end ant
ren ce
am b
Ġ oc
di c
Ġre p
av oir
Ġpre n
f ic
Ġmon de
Ġp oin
ĠC on
a ch
ai nes
Ġ201 8
li g
i x
te z
Ġme ille
ne ment
ais e
Ġdi ffe
2 5
j ours
ali se
Ġen f
Ġ201 7
s p
Ġl oc
Ġ? <
es tion
an ne
Ġt o
os te
ti tu
ĠS u
) .<
ri b
Ġc ert
Ġc v
ti s
i ch
Ġcon se
Ġt our
Ġre c
Ġl igne
om mes
ci en
Ġprof es
Ġ Z
si onne
Ġcom ment
2 4
at s
Ġsu is
Ġl ong
Ġ ...
tiv ite
Ġre cher
J e
2 00
re r
Ġc ap
a ur
Ġtou te
Ġle urs
ĠD E
cri ption
6 0
og ra
a mp
Ġtou tes
osi tion
Ġc ol
oo k
Ġcomm un
p te
Ġch er
c ur
j a
ĠP e
> -
c le
ne t
vi ce
9 9
Ġb ou
Ġpe ti
Ġp oli
at h
Ġ3 0
Ġav oir
tic le
Ġm ain
Å ĵ
ĠD es
iv er
b er
Ġso it
le t
Ġv i
l y
Ġg ar
pp ort
Ġj ou
Ġ >
ĠT he
e ur
re z
2 3
ĠT e
l u
Ġp ays
A r
t a
8 0
s u
ie urs
Ġfon ction
ie l
rie ur
Ġte ch
Ġ +
ĠC ar
i mp
Ġtou jours
Ġren contre
Ġal ors
o d
il les
Ġcon st
Ġf er
Ġmais on
Ġpr in
an n
2 7
p es
j ou
qu er
Ġaut res
Ġser a
f or
Ġc ro
c er
p rise
Ġ %
le ur
cou p
l on
ais s
t ant
Ġm ois
si ble
ur ope
Ġche z
9 0
P our
it es
ĠC o
ĠG e
Ġquel ques
Ġso ci
Ġp ouv
Ġdis p
tat s
oi x
ro s
v ier
res s
Ġd om
r om
Ġa g
Ġf ac
g ie
Ġfil es
ĠN e
Ġv a
Ġ201 6
ĠM on
I l
ra l
au se
O U
Ġprem ie
o te
Ġv ers
i ons
Ġpro jet
Ġsi mp
Ġ =
z e
ĠP re
us t
Ġtrav ail
o ci
2 6
Ġtrou ve
Ġ2 4
3 3
ti er
ati que
iv ers
Ġco lle
Ġgran d
y pe
li que
Ġ201 9
Ġf am
e b
Ġsu iv
rou pe
Ġperme t
ate urs
Ġf aut
ĠO n
Ġv rai
ĠV ous
Ġpersonne s
ien s
* *
ĠU ne
b les
si te
A L
2 8
ogra ph
i f
c is
S u
ĠCh au
Ġce la
Ġpas se
Ġa me
h t
t tes
Ġj ours
con om
Â »
la ce
Ġ2 1
vel op
l og
â Ĥ¬
Ġ2 5
Ġm oi
a h
i me
p t
Ġtro is
Ġp orte
Ġ x
4 5
lan c
d ie
ĠE x
ĠN ous
O R
ic es
ali s
Ġa m
t ro
Ġm is
e au
ist oire
D F
Ġs al
a x
ti ne
Ġprem ier
h ui
Ġl i
uis ine
c k
f s
v ie
Ġpr om
Ġplus ieurs
emp le
Ġv ille
Ġs p
2 9
Ġin st
7 0
C om
Ġbeau coup
Ġil s
i che
Ġb onne
Ġrecher che
", "
ĠM ais
c ul
Ġn ot
Ġqu alite
Ġav ait
A n
ll er
velop pe
oc k
Ġm us
Ġ2 3
o e
g ion
ĠP h
o x
g ne
v ous
Ġ2 2
re ment
our n
ag er
Ġb i
Ġparti e
Ġ z
v al
P ar
c tif
em mes
ab it
Ġprofes sionne
Ġres te
s ul
ri ve
Ġau tre
Ġpe tit
Ġjus qu
Ġpubli c
Ġv oir
Ġvo y
c or
le x
cue il
tt p
oi res
ĠC l
olu tion
t res
Ġ201 5
ou ver
us es
am bre
Ġpar f
c as
si ons
ran d
Ġmo y
ĠT h
res sion
g n
s ente
ĠQ u
Ġa ff
Ġc ours
Ġd it
ss ures
m an
es oin
ai r
gra m
c ont
A S
Ġin di
m on
3 5
! <
il es
n ier
Ġc et
Ġqu and
Ġe mp
ang er
c te
Ġser v
Ġ ent
Ġsy ste
ille t
aut res
is tre
ĠS i
I L
Ġm om
Ġav is
t ab
com p
Ġser vice
Ġs h
Ġm ag
Ġnouve au
ouve z
7 5
ĠÂ» ,
u te
Ġmar che
Ġ $
C H
u it
c ol
gan is
Ġsu ite
Ġin form
or i
n ation
Ġcha que
7 8
Ġdi ff
Ġ201 4
0 5
i ble
Ġparti cu
p ons
Ġt en
Ġb esoin
Ġp ouvez
Ġn ive
y e
Ġr est
Ġparti r
ren ts
el les
Ġgran de
ĠJ u
Ġv ol
ti en
Ġp ort
ĠE lle
Ġeff et
Ġs or
Ġcomp te
ri x
ĠC an
d f
Ġn ature
Ġdem ande
0 6
Ġpro ble
Ġn ation
Ġm er
tin g
in d
Ġd oit
Ġ201 3
Ġtro p
ris es
ine s
ac t
Ġprop ose
Ġs ol
ww w
Ġprodu its
ot s
Ġre g
ul ture
2 1
par t
4 6
Ġra p
Ġi de
0 3
i ers
as si
Ġnouve lle
Ġt rai
A u
olog ie
in t
am ment
du ction
jour d
u le
Ġprin cip
o k
Ġs avoir
Ġp ra
ct ure
Ġ201 2
l oi
t on
Â «
4 8
i k
ali sation
u tili
Ġimp ort
Ġse m
f ie
__ __
Ġm illi
i ce
ĠJe an
ac te
ri l
Ġpeu vent
E L
Ġa s
ier re
Ġ ess
Ġa ur
Ġ1 00
9 5
m ine
d it
0 4
ĠA c
Ġf re
.... ....
er n
U S
O M
Ġenf ants
s h
Ġvo it
Ġv ide
0 7
ri ce
C e
an c
Ġpro te
Ġa fin
Ġfil m
Ġin s
Ġf aci
": "
3 6
3 8
Ġm ise
o tre
Ġf emme
s es
ĠP DF
A C
ven ir
Ġs ocie
Ìģ .<
Ġex emple
0 2
0 8
P oste
ĠD ans
an vier
g l
Ġmom ent
a di
Ġre mp
Ġp a
Ġf ond
g or
Ġc al
Ġprop os
Ġa ppe
ci te
Ġth is
in ter
l ui
A T
cri t
ce ption
Ġcou p
Ġp le
di tions
ĠF emme
au l
Ġdis pon
A l
it h
y le
ra ge
Ġmet tre
Ġav ons
ard in
Ġ '
Ġju in
is me
ĠC ou
A c
g u
v ille
Ġg roupe
d en
Ġmar s
Ġl ieu
ex p
ĠS er
0 9
Ġtech n
Ġprodu it
tu di
Ġm ati
c ar
Ġa tt
4 4
ĠH o
Ġat ten
Ġa vez
Ġapp ar
om m
ien ne
al y
Ġnive au
Ġb ase
Ìģ <
i ti
5 5
pte mbre
an ti
M ar
Ġsou h
vi ent
cur ite
com m
ĠD u
Ġsu pp
Ġh o
u ation
ra le
Ġutili se
Ġ2 8
3 9
non ce
ĠM an
Ġm ont
u d
I C
A U
ĠFran c
v o
, "
aiss ance
Ġfor me
ten ir
> âĢ
op ul
m o
Ġ2 6
Ġpro gram
Ġb as
oc u
Ġ0 6
7 6
Ġgratu it
ag n
ra t
Ġf ut
] <
Ġra is
ri el
Ġder nie
âĢ Ŀ
a ff
Ġl ivre
3 4
tab li
vri er
ten ant
ra in
Ġcomp le
ce mbre
Ġrap ide
Ġra pport
om b
p o
ve mbre
im ite
ĠP as
A M
Ġse lon
Ġb ois
Ġes p
Ġi ci
) ;
P ro
Ġpoin t
Ġac ce
ar s
le ction
Ġp endant
Ġserv ices
Ġpl an
u g
ĠC he
I T
Ġtrou ver
ch ar
Ġt able
ĠS h
Ġ5 0
V ous
or is
I E
Ġri en
O S
v oir
Ġc uisine
ĠF e
Ġpren dre
ĠB l
sse ment
Ġch arge
ati ve
ph one
Ġc ad
ĠIn ter
Ġs alle
che ter
Ġn ume
Ġp ense
Ġ201 1
Ġd im
Ġch ois
b ut
onne ment
Ġl og
Ġj anvier
Ġs ie
Ġj am
et s
ri m
U E
Ġ2 7
di d
Ġqu estion
en ces
Ġl it
en ter
ais se
Ġdro it
Ġ 01
D E
4 9
Ġ ...<
Ġd ur
Ġder nier
w e
g ent
Ġperme tt
TI ON
ff re
Ġc ent
te ls
Ġf ile
Ġo p
3 7
Ġa ct
Ġs our
a ve
Ġf ais
Ġre pre
Ġsit ue
tt ps
Ġcomp ren
Ġm ieux
ĠQ ue
in st
Ġc entre
le urs
Ġpouv oir
ĠC ette
Ġenv ir
t out
ĠG ra
s on
b at
Ġpos sible
> Â«
ob ili
U ne
to bre
Ġdes cription
Su jet
, <
ge ment
y n
Ġs au
l as
ri te
Ġce lui
a pe
r ont
si dent
Ġp df
Ġm ili
Ġpers onn
Ġ19 9
Ġre ce
r ant
er m
Ġch oix
ou se
an che
Ġc m
ci ne
N E
d ro
Ġm ess
Ġconst ru
ĠM ont
Ġ .<
at ch
Ġau c
Ġl iv
b ilite
a f
Ġjam ais
ĠM o
ĠS ur
ai te
Ġh um
ri g
Ġ201 0
Ġfam ille
veloppe ment
Ġse ptembre
ul te
5 6
t aire
ĠA d
Ġm en
Ġc eux
Ġe u
lle ment
i di
ĠV e
p he
4 7
p ro
ĠChau ssures
Ġch ar
ser v
Ġsu b
Ġin f
Ì ĥ
a e
si de
Ġh abit
-- --
Ġ2 9
H o
Ġse con
Ġ 000
Ġnot amment
l and
pe ct
Ġret rou
Ġprom o
Ġvrai ment
au d
Ġav ril
Ġju illet
ra s
Ġch ange
p are
Ġim m
os t
S e
Ġp opul
ĠP lus
Ġoc tobre
c ent
Ġb ar
Ġp age
Ġsu per
Ġt ot
Ġno vembre
Ġen se
for me
du c
Ġt ype
or ter
Ġcom pe
s ur
ren ces
le u
m m
ou le
rib u
Ġm ate
r in
ĠB ar
Ġre f
EN T
ut o
Ġsou vent
ac es
ograph ie
age ment
c ole
p ond
i o
vri r
ai e
Ġ ris
di a
ot es
ĠÂ» <
ac tion
s ie
con n
Ġvoy age
ot o
R O
Ġmar que
3 2
Ġf emmes
Ġf ace
Ġpoli tique
p rises
qu oi
ĠCom ment
s y
ser ve
ri me
3 1
ĠO r
Ġbe c
Ġt oi
d is
cas ion
c ord
Ġsh ort
m pe
es p
Ġven dre
ven tion
5 8
Ġd ist
Ġt ant
ch at
tif s
Ġs oi
i ter
Ġv it
ĠR en
g li
201 7
Ġs ais
min ist
ul ti
? <
u tes
Ġa ll
our g
t al
Ġpeti te
I I
ic ation
Ġ0 9
tic les
C E
ill age
ad a
Ġac tivite
oin s
ĠN oir
ous se
ĠM er
Ġte x
Ġ* <
op h
c ie
te ments
ĠC ol
Ġco de
5 9
Åĵ u
o f
Ġs ens
as t
Ġcon tin
Ġv ente
ĠL E
Ġinter nation
or ite
o ot
Ġex pe
c tive
Ġform ation
Ġf ourn
a che
Ġphot os
O L
c s
7 7
ĠâĢ ľ
Ġa sse
Ġa lle
Ġbec ause
ĠA pp
D es
l ab
Ġv eu
Ġcl asse
N ous
A G
ci er
Ġ0 8
char ger
Ġcar te
ĠA vec
ĠG u
l ant
i ra
Ġg ouver
Ġsimp le
Ġv ac
ale ur
Ġor ig
Ġau jourd
ne z
ran ce
tiv es
Ġt on
Ġret our
Ġpas s
g ue
or k
Ġce lle
ĠH e
Ġjeu nes
Ġre l
Ġd os
Ġch ambre
Ġe ffe
Ġou ver
Ġp ris
ĠR o
i p
c an
Ġb at
la y
Ġcon ne
Ġv ue
Ġmeille ur
S i
Ġs ante
Ġ19 8
Ġh omme
Ġsu jet
Ġcert ains
Ġcad re
lic ation
D ans
ati s
ĠO u
c ro
ĠC re
ĠC or
Ġn i
es te
Ġres pons
Ġan n
au tre
Ġc er
Ġ200 9
er ie
v ite
aci te
Ġser r
a que
Ġb y
in i
ist or
4 3
Ġmo b
Ġsur tout
ard s
in form
de z
b ook
Ġf ab
ne l
> #
Ġm ort
it y
ab ilite
6 6
o h
ĠF or
s us
Ġseu lement
Ġmo di
ici le
p le
Ġcont ro
Ġmes ure
su ite
Ġa ou
Ġphot o
i z
je ctif
re t
S E
ar ie
ati f
li s
sul tats
I R
si d
= "
ar ch
fic ation
pon dre
ter n
E x
k i
y ant
Ġs ommes
Ġn oir
is tes
on de
ol es
Ġt a
Ġp res
Ġs ce
ill er
Ġe urope
ĠCh ar
amb res
Ġtrav aux
ol y
Ġti tre
ali ser
ĠL A
Ġhe ures
Ġc ir
Ġet c
iver site
Ġca mp
ĠB as
Ġ4 0
u ir
a tre
t y
: <
Ġjou e
ĠNe w
Ġch ose
re g
Ġf l
ĠS p
oin t
T e
Ġsem aine
Ġp u
c our
it ation
f ier
Ġc ulture
Ġjour ne
Ġd ocu
A P
mis sion
5 7
Ġl o
ap pe
Ġb lanc
Ġ20 20
ĠB ou
Ġun ique
ĠC H
Ġnombre ux
Ġmin utes
en v
ul t
M e
in f
ay e
te au
ĠN ouve
ĠT ra
ri r
un i
Ġsu c
Ġ0 7
Ġmon tre
p end
er re
m ie
c ours
t tre
4 2
ment ation
all er
al on
ten u
Ġaut om
E t
c la
ti r
ĠR ou
se au
ord in
Ġg estion
uer re
oci ation
ĠP l
Ġf ont
Ġ; <
ul l
M E
du it
ri ence
O UR
Ġcli ents
h ttp
Ġh aut
6 8
m and
Ġ200 8
ĠâĢ ¢
Ġman ie
or g
uelle ment
Ġre la
Ġbe lle
p endant
Ġgratu ite
ĠI ls
A d
g le
par ation
Ġl ang
ali ste
Ġseu l
o ti
t aient
i ge
ran ge
ic iel
Ġoff re
5 4
ai ll
ur g
Ġs aison
Ġpro ch
ois e
ĠD i
Ġprop rie
Ġp at
p l
ure au
Ġjus te
P re
rais on
vi d
ĠC V
Ġpas ser
Ġar ticle
si bilite
Ġres s
ce ll
Ġinform ations
os er
ne lle
Ġr ue
Ġan im
Ġe ur
Ġr om
Ġprogram me
ĠS y
ra te
v ant
Ġh y
ent es
ri eure
Ġre v
Ġpar ce
Ġan ti
Ġnouve lles
Ġa i
y on
Ġser ont
Ġm eu
Ġcar acte
Ġcor ps
Ġcomm une
Ġj ardin
Ġass ure
ic t
id er
Ġf rais
Ġasse z
Ġh ttp
ne nt
cou ver
Ġcha mp
ĠP rix
ubli e
O n
4 1
Ġor ganis
au teur
ĠB el
ment aire
Ġc i
Ġl um
ge t
ren tes
ot he
Ġpoin ts
pon se
Ġl iste
m ment
Ġqu oi
oc ation
ar de
Ġvis ite
Ġn u
Ġp oi
O T
" <
201 8
v olution
Ġ3 1
le ve
i tion
ti m
e e
c y
Ġutili s
ar ticle
Ġvoit ure
m ati
ĠH omme
201 9
tu de
r aire
Ġpra tique
c a
Ġdem and
R I
lect rique
Ġme mb
ib les
at a
ic ie
9 8
Ġv u
S t
Ġf ra
201 6
c teurs
li te
ow n
Ġcon side
en de
Ġo pe
ĠC as
D I
Ġl arge
Ġrest aur
ĠF re
oi ci
Ġt aille
ĠV er
Ġpro ce
n ov
d ust
Ġpri ve
E T
Ġl oi
ĠG o
av ant
ni ques
Ġpar ten
it al
h istoire
Ġl ib
u il
Ġcomm erci
ol l
ĠP er
ri er
cou vrir
V oir
Ġa li
ou d
f ace
Ġvac ances
u ve
Ġ| |
Ġar tis
5 3
Ġf eu
Ġp o
i ance
Ġin de
v in
par tement
Ġ {
Ġca de
ri ge
Ġd oi
r un
ou n
Ġen g
Ġre comm
ĠA ut
Ġpro pre
Ġdev ant
at es
Ġjeu ne
en dre
di te
Ġtrav ers
Ġar rive
or ation
p ubli
Ġser ait
ore r
Ġsu ff
' s
ard er
Ġrais on
Ġaut our
Ġmain tenant
ic k
ti me
ri es
il a
Ġh ommes
al og
ĠT ou
Ġm m
Ġs ac
Ġmar i
os es
ag it
f ique
Ġb log
Ġpubli e
ĠC our
Ġm ot
entre prise
R A
Ġl ie
Ġorig in
Ġan nonce
te x
an a
ĠÂ» .
Ġ Ð
all ation
Ġb ro
ĠCh ris
ĠC ons
o nes
Ġw ith
oy er
Ġpos te
Ġconc er
> (
obili er
ĠA b
Ġentre prises
8 8
Ġst yle
Ġad ap
y si
Ġmoy en
6 9
Q u
ui de
Ġac comp
Ġn uit
6 7
oo d
d a
Ġp or
k a
s ence
Ġg en
Ġre conn
Ġmilli ons
Ġb ut
or ig
d o
Ġc ri
Ġp ap
ĠU S
au v
b all
u p
Ġw eb
ner gie
c ra
h ic
Ġp ou
Ġn orm
cont res
ou re
ur b
Ġmati e
Ġd ate
Ġfer me
cl us
Ġch em
Ġgouver nement
Ġfor ce
Ġcom b
ĠS am
ĠS te
ti le
ci de
ti ent
Ġpl u
or de
5 1
Ġb out
ĠCom p
en f
ren dre
Ġdonne r
Ġmemb res
Ġmess age
Ġsit uation
Ġpl ais
' ,
ĠM ode
5 2
en g
ul aire
Ġb a
Ġc le
ac ce
Ġcon ditions
u f
ro p
Ġs ig
un di
Ġentre prise
ai ls
ense mble
Ġmon di
ĠL ou
olog ique
in ture
ct u
Ġs us
Ġe ux
Ġm ulti
Ġv oul
ci pe
li ers
Åĵ ur
Ġter rit
Ġpuis s
Ġe lles
b ou
ali e
c al
7 9
at oire
ĠS on
Ġl ance
Ġver sion
c in
Ġc ause
e d
Ġb l
Ġsit es
a w
ĠC es
port s
Ġma x
Ġ )
ay er
ĠD is
Ġpeti ts
aille urs
C l
og le
> "
ĠJ eu
as h
O r
Ġ200 7
Ġc y
Ġj eux
Ġcou leur
C on
ĠS ac
be c
ti ers
que l
au che
ĠM ai
v ers
b um
Ġg ros
lace ment
jou ter
ten tion
isse ment
Ġ6 0
Un is
di o
Ġf ort
ĠM aison
ĠÂ ·
cou vre
Ġch ambres
ĠV al
ch arge
Ġh eure
ar re
reg istre
Ġb an
ur ance
ves ti
Ġa yant
Ġma ch
\ /
Ġparti cip
en sion
i ke
ig ht
t ho
ĠCon se
lect ri
1 00
ĠE T
Ġtrai tement
ĠG re
enti el
Ġcomm ande
gl ais
Ġ 00
cu pe
ver se
6 5
Ġb al
Ġqu atre
Ġcher che
oi ne
Ġdu re
Ġ }
Ġa tte
Ġeff ic
ra m
x e
it aire
C I
oi le
am a
ĠP ierre
Ġpour rait
ri ode
Ġmus ique
ĠG rand
Ġp rise
Ġmo der
di en
Ġcomm ence
Ġc in
Ġf ille
u les
C ette
c tement
du ire
ĠI s
tu des
Ġ0 4
ar m
un g
ai de
h eure
Ġquel que
Ġ it
ĠâĢ Ķ
f i
ĠV oir
Ġs cien
. ,
utili sation
ĠE UR
ri mer
Ġnouve aux
Ġprodu ction
Ġlong ue
g ique
ĠP ort
ĠC ont
p is
m l
am me
Ġg ens
os se
ĠCh er
Ġa ller
er te
m s
at t
Ġqu es
Ġa gre
Ġqu ar
Ġ ru
re f
Ġimport ant
Ġu s
Ġb ain
ĠA ss
Ġou ti
Ġm or
Ġt om
Ġlors que
oc casion
Ġques tions
Ġpl uto
Ġconf ort
Ġpren d
Ġdou ble
> â
g m
ĠCom m
Ġc it
ar a
si er
n o
ist ance
b es
au me
Ġf ai
Ġf ix
Ġparticu lie
ĠHo tel
Ġp ose
or me
n a
ri d
qu ent
an o
Ġra ppe
Ġcl ub
ĠN o
qu is
ĠL u
sent ation
B on
e ff
Ġjour n
t ail
ue ls
ĠA ir
ib li
Ġ0 5
Ġch oses
aly se
ern ant
Ġple in
Ġtechn ique
Ġ Åĵu
lo ad
vie w
r ons
Ġcan did
ment aires
om bre
y s
Ġeur os
7 4
Ġgran ds
Ġy ou
m ont
Ġn av
Ġauc un
z z
T he
C ar
im um
ĠP oste
Ġl ire
ra ture
A TION
c ran
6 4
Ġp ati
oy e
Ġcomm er
O u
Ġor gan
Ġg re
Ġdes ign
Ġdispon ible
ĠM a
Ġes pe
cri re
Ġloc ation
lin g
ĠS a
Ġdro its
** **
> |
ĠE urope
Ġen suite
Ġnombre uses
l age
ro ss
j eu
Ġse mble
ĠR ob
res pond
cis ion
n age
Ac cueil
ĠB er
l ent
is cine
Ġre ven
Ġrapide ment
Ġpour quoi
Ġplais ir
m ise
Ġb u
Ġ[ ...
ou e
Ġveu t
? ?
l am
A B
y p
o ff
sy ch
ve ux
s ous
____ ____
Ġs im
Ġprote ction
me di
ĠC ap
ot te
olu tions
Ġd iv
Ġse in
Ġla isse
Ġh aute
Ġg az
Ġex ter
ĠM al
Ġutili ser
Ġsy mp
in a
Ġf our
P E
Ġeffe ct
z on
Ġs oir
Ġsu pe
ĠR E
ra tions
p a
able ment
Ġch ac
Ġ! !!
C ont
av ais
ĠE N
Ġper form
Ġf rom
qu ie
ai me
A D
Ġqu oti
Ġ Î
ĠG ar
ne ments
ap on
ĠS ch
[ ]
l d
Ġt end
osi tions
> [
Ġf ich
in o
Ġseu le
f ort
cre di
ir t
Ġg uerre
Ġ0 3
Ġm atch
Ġs oli
pp er
Ġa ider
Ġv aleur
Ġprofessionne l
vis ion
ĠT re
Ġcons omm
ac er
Ġc ate
Ġdeux ie
se ur
conom ie
Ġdom aine
Ġch i
Ġinter net
t ru
Ġfaci le
Ġh istor
ĠEn tre
c ons
8 9
ra sse
n is
Ġvi ent
Ġpro x
conom ique
Â ©
Ġt es
cess aire
ĠM ag
ĠA g
Ġris que
use ment
Q UE
ag ner
ow s
Ġla que
ĠB on
ul ation
Ġf av
Ġd ivers
ho ne
ni ers
Ġcon v
V E
Ġ0 2
aul t
Ġl oin
im age
Ġse cteur
I G
Ġconn ai
Ġnation ale
Ġparticu lier
h ttps
m oi
ĠB lanc
ð Ł
Ġst ru
it re
P S
orig ine
Ġter re
ic ro
t ent
Ġh ttps
Ġparf ois
t age
h er
Ġv al
7 3
ĠâĤ¬ <
b y
" .
Ġa cheter
Ġrou ge
Ġrou te
Ġf i
Ġpl ate
Ġma j
f ois
ci ence
Ġv iv
Ġenvir on
ille urs
Ġcor respond
Ġm y
Ġconc ours
ĠG ran
Ġmin istre
Ġdoi vent
Ġprofessionne ls
ĠV ille
P e
Ġfor um
Ġs ign
Ġ3 5
ĠCan ada
eu se
Ġin dust
en nes
k ing
ro che
qu ant
Ġm erci
Ġprojet s
ven ue
b ourg
Ġren dre
n g
Ġcont ra
f ait
ric ain
our ce
Ġenf ant
Ġm ouve
t ails
Ġb ord
ÌĢ ,
Ġs enti
gli se
b l
P lus
Ġconcer ne
ĠR es
Ġcl assi
ĠL au
ais es
or ganis
jet s
our ces
ĠT er
Ġl ien
Ġpersonne l
ar y
Ġs olution
Ġph ysi
7 2
Ġprox imite
Ġt aux
sul tat
R AN
Ġter me
I M
v a
Ġconstru ction
ĠB re
in dre
ĠA pre
tit ue
ĠF emmes
ĠD U
ti ce
201 5
ron ique
cu le
o ie
l or
Ġpos sibilite
Ġau pre
Ġim age
ĠT our
I ER
Ġv illage
Ġpar le
Ġex te
Ġchau ff
Ġdim anche
g a
Ġm as
P ublie
ap re
Ġt ari
Ġli bre
m at
Ġche f
ig ue
t he
Ġ| --
Ġar ticles
h omme
Ġense mble
ce p
env ir
u y
v res
Ġt ard
p i
ĠT out
il la
el l
n aire
ir me
ĠM in
Ġt ran
Ġcont ac
oy age
m age
Ġsecon d
jou te
M ais
M erci
d ra
Ġsor tie
A pp
Ġ3 9
Ġb ureau
Ġv ite
Ġac cue
ass es
ue lles
N e
Ġp an
ac tivite
g o
Ġcert aines
Ġc op
duc ation
Ġlaque lle
ĠP age
Ġchois ir
ĠI N
ĠD im
am es
Ġob jectif
ĠN ord
6 3
8 5
Ġcli ent
Ġs en
ĠCh a
Ġconc ernant
Ġcomp ose
Ġdire ct
iche l
Ġgran des
Ġl imite
Ġad minist
P h
b on
gor ie
Ġnation al
ol d
f ici
k et
Ġp ot
Ġvi ol
cess oires
m oire
ĠF in
c us
S aint
ĠD ou
ab ord
Ġpos se
Ġv ais
Ġ8 0
Ġmeille urs
Ġtra dition
Ġcou leurs
titu tion
c m
ti enne
Ġren contres
ĠL i
ĠMar ie
is ser
ĠConse il
Ġt ri
Ġa ide
Ġst rate
Ġqu ali
tabli ssement
Ġse cre
Ġf orte
Ġar re
Ġconse ils
ĠC entre
Ġsuc ce
ser ver
ĠSu d
ig h
p g
à ¸
r s
t op
te mps
Ġcomment aire
lo b
Ġsu d
Ġfab ric
lo w
Ġpos t
L A
us ion
Ġcomp ris
Ìģ -
Ġc iv
ai ller
Ġpeu x
it ter
t ation
h um
Ġpie d
Ġan glais
k s
Ġsa medi
' '
Ġdire ction
ad es
Ġliv res
I D
ous s
ribu tion
g les
ne ur
f rique
Ġcade au
6 2
ĠB r
Ġsal on
Ġst ock
iss ant
k y
n at
ĠP at
I B
Ġgen re
Ġh istoire
Ġso le
g al
Ġex iste
Ġdispon ibles
Ġ tit
C o
inform ation
U N
ĠCo lle
p lo
Ġpar mi
O P
Ġsour ce
emp loi
Ġc at
S T
Ġcou ver
ĠS al
Ġ4 5
p our
Ġsimp lement
ĠR oy
Ø §
ine r
Ġspe ct
ain te
ci ens
Ġv ois
Ġbesoin s
ci dent
Ġb ru
Ġter rain
Ġcomm en
ĠM erci
Ġp osition
m ail
Ġ200 6
Ġc ine
ĠE sp
Ġpro che
mp or
tif ie
Ġb oi
vi ter
iv es
il m
Ġmati n
Ġvendre di
ci enne
Ġcap acite
onne r
Ġaur a
are il
si ne
Ġpar ler
ĠInter net
Ġim ages
Ġtech niques
ĠE s
Ġ7 5
Ġf ig
ui re
ap os
Ġcomp ag
7 1
Ġaur ait
t r
> >
Ġpro cess
est re
Ġc Åĵur
Ġsupp le
M ENT
Ġb el
ĠI mp
Ġaut ant
201 4
tiv al
si ve
Ġs av
201 3
O C
Ch au
po que
Ġcol lab
cor ation
Ġretrou ve
Ġadap te
and es
Ð ¾
ĠD ieu
ex pe
A ut
Ġsole il
Ġa ime
u nes
publi que
201 2
oh n
Ġfil s
8 6
Ġa che
IN E
ch ange
Ġauc une
Ġm i
Ġorgan ise
Ġdire ctement
rai ent
ĠA m
c ter
Ġv ia
ĠW eb
ĠI t
Ġsoci al
ren te
Com ment
t or
Ġoff res
Ġt est
ar tement
m atique
ĠG al
Ġmari age
Ġpart age
ienne nt
M A
ind ows
ĠBl ack
ĠS E
Ð ¸
Ġ9 0
ir s
non ces
ĠJ ac
Ġren d
ure r
Ġv ont
Ġl undi
f t
Ġz one
ten d
c ise
ĠF er
on y
Ġj ur
Ġmag as
ĠA v
( '
Ġ5 00
ĠN otre
Ġs omme
ĠB ra
ĠÂ» .<
b ar
Ġsig ni
ĠC a
Ġconse il
Ġj oli
Ġmoy enne
ee k
es tival
S ur
Ġpe au
ÌĢ -
Ġpoi ds
Ġt op
Ġs igne
an ie
Ġdur ant
Ġman que
Ġtex te
ĠB en
titu de
Ġm ots
Ġde vient
Ġdiff ic
um es
que t
ti ss
or ise
p ens
Ġp resse
an cer
Ġserr ure
z a
Ġsuiv ant
n d
Ġim me
Ð °
es se
Ġcommun ication
ve lo
j pg
ĠCe la
ĠD ES
couvre z
Ġte mpe
ĠB ro
I TE
ar ite
it te
Ġl u
Ġliv raison
t ran
ĠV ente
ur ier
Ġpr est
G e
ci al
Ġcap it
Ġm ur
ach at
Ġs port
ag ue
Ġob tenir
>âĢ ¢
Ġapp re
nov ation
Ġy eux
Ġcon fe
Ġpar is
au ne
ĠV en
Ġjou er
uni cip
on te
Ġsoci ale
Ġindi vid
Ġb re
g lement
Ġmili eu
Ġou i
Ġpopul ation
Ġp ages
p ann
9 6
Ġcont rat
ag s
asse ur
{ "
9 3
d y
Ġmeille ure
ĠT ous
Ġa mis
Ġe mb
h y
ĠC al
Ġg auche
Ġ3 8
Ġdisp osition
el on
ĠB ois
k ets
Ġc ra
au de
in de
Ġeffic ace
lic ations
Ġp sych
Ġg ou
Ġl ou
ĠL ong
Ġe au
Ġcomment aires
Ġsouh aite
Ġl im
h en
ter s
Ġ7 0
Ġdou te
of t
N otes
ten ces
Ġindi que
ĠC ro
un is
Ġcommun aute
F rance
9 4
Ġp en
ar me
Ġv oix
I RE
es pe
E urope
ti tion
ĠT V
Ġm ine
Ġar ri
Ð µ
Ġper mis
p en
ou x
g h
ĠT ri
Ġlum ie
Ġprem iers
ĠB leu
Ġdi rige
b ert
ar gent
Ġv ivre
Ġcont act
Ġdev rait
T S
ho w
ĠL o
ill on
Ġl ut
ti ste
Ġg amme
Ġmo teur
ĠL iv
li ss
our se
A pre
Ġse x
b res
Ġchac un
ĠC ode
Ġh au
Ġa mb
Ġob lig
orm ais
os s
Ġm at
Ġter mine
n ous
ci alise
ati ves
tre am
Ġen fin
ĠMon tre
Ġcin q
Ġres pe
F F
ĠM us
Ġmeu ble
u de
li t
Ġsem aines
y pes
Ġp iscine
h abit
Ġch anger
ĠS and
pare r
ĠB ien
Ġno te
Ġplu part
ĠC am
ot tes
Ġdisp ose
s ormais
vi de
ĠCh amp
ĠCh ambre
as te
c les
S S
mar t
ĠCom me
ai lles
Ġa illeurs
ri ques
Ġp il
li quer
ĠT rans
9 2
ĠCh ine
ĠPro f
Ġemp lo
Ġpubli que
Ġdiff icile
ĠE l
ĠS A
8 4
Ġprocess us
Ġle ttre
Ġg rou
ali en
ur a
Ġre j
i i
Ġn ord
ĠPh ili
si bles
ob ile
pann age
Ġm auv
Ġsp or
ĠF orm
Ġpa rents
Ġf ro
Ġs oire
er a
t aires
ĠT aille
te rie
ĠBe au
ra p
ĠD om
ĠD ire
R ES
ĠV ie
ĠM ad
Ġsouh ai
ux e
ĠI I
yn am
8 3
u al
ig nes
9 7
Ġcolle ction
á Ħ
ĠM ac
ĠP ie
serv ation
on ge
h i
Ġf ru
ĠF ace
m y
Ġrel ation
Ġcons ul
Ġa e
v it
Ġ3 2
Ġcon te
Ġte l
ti es
Ġman if
Ġexter nes
b o
6 1
ĠA U
Ġappe le
Ġpour su
ra y
Ġs atis
Ġs col
Ġ ordin
ub e
Ġcar re
se ille
ĠR et
Ġs c
Ġp oe
Ġgar de
G E
Ġex cell
á ħ
Ġsu ivre
Ġpeti tes
Ġappar tement
ĠL yon
ĠA nt
Ġcon tenu
ĠO ct
di re
Ġla isser
Ġpro g
ĠB al
ĠE st
Ġdro ite
Ġscien tif
Ġre mar
ra teur
Ġpermet tre
Ġcompren dre
8 7
p ose
f ense
Ġp i
Ġconf iance
M on
Ġen registre
Ġab s
k o
rit able
Ġs ort
Ġar ch
ĠC uisine
Ġaccomp agne
Ġ200 0
ĠA t
Ġs an
ti ment
ĠM or
ĠB i
Ġle cture
m agne
Ġh ors
ĠT able
ĠB u
un ion
n y
Ġappe l
alog ue
Ġ ran
Ġcor re
ĠR om
Ġfe ne
Ġcomp let
alis tes
ĠP al
b i
igne ment
n ing
Ġ200 5
n om
g is
se aux
Ġtra in
li en
Ġche veux
to iles
Ġre lig
ou te
ss ure
Ġ3 6
Ġrom an
ven u
Ġâ ĺ
Ġent rai
ib ilite
est aur
Ġou v
Ġw ww
Q U
ĠH ar
la te
---- ----
ic al
Ġjeu di
Ġce lles
ic ol
ĠS ite
Ġle quel
Ġtrav aille
Ġven ir
\ "
ri ne
Ġv ari
k m
h a
Ġan cien
ĠC onc
Ġcomp ar
Ġen tie
Ĩ Ĵ
Ġass ocie
Ġsoci aux
Ġs in
p as
L iens
Ġmag ni
r ome
a ment
us ine
l ais
li m
Ġexp lique
Ġmach ine
Ġin iti
h or
own load
Ġconne x
n ant
ne y
Ġres pect
Ġlang ue
Ġli be
Ġcou pe
Ġsou ff
Ġimm obilier
Ġmer credi
Ġne uf
cu p
Ġou b
v age
Ġfaci lement
Ġsu pport
Ġautom atique
ali er
ouver ture
die re
ON T
Ġ ir
am our
pis ode
ĠO b
9 1
Ġcon du
fin i
A vec
Ġcro is
20 20
Ġreg ard
sse ments
Ġpres que
Ġc ab
ric aine
cla re
ht ml
v ol
ĠA ff
Ġc uir
as tique
Ġpoli tiques
or dre
r us
cher che
Ġmar di
Ġb leu
or y
ik i
and is
A ss
Ġsuiv i
Ġf oot
ĠP C
Ġb ud
m en
iss ance
ra lement
00 00
( "
al s
Ġchange ment
Ġin vite
al er
201 1
k er
ĠS alle
Ġco eur
ĠO ff
Ġder niers
rai te
ac cord
ar es
ou b
ten ce
Ġv arie
Ġb lan
gu lie
T ER
F R
ie ur
ĠP o
Ġad resse
ĠT ro
ur ation
ĠS ocie
Ġme mbre
Ġv in
ĠN ation
Ġmoy ens
rou vez
ie z
r ing
L ES
S I
Ġ @
g i
Ġen dro
Ġpuiss ance
Ġlong temps
g y
Ġhabit ants
ĠN ike
ĠM ax
Ġcom bat
ch et
ad er
Ġmouve ment
Ġfam ili
Ġmob ile
p it
ĠV ol
ĠGra tu
sid ence
ĠJ an
ar rive
il os
m oc
Ġgra ph
Ġ ðŁ
am i
ĠL ire
Ġne tt
Ġple ine
Ġcamp agne
Ġform at
Ġterrit oire
or ie
A g
Ġs olutions
Ġpermett ant
i cher
C ou
ĠTe ch
ĠP AR
ati fs
Ġ new
m ier
g ime
I V
y eur
ad ie
D u
ĠM as
ĠD av
Ġex per
Ġst and
ĠD er
an tie
+ []
Ġcert aine
Ġin vesti
s in
ites se
Ġstru cture
or ld
le y
tex te
Ġtot al
Ġdis par
Ġw as
Ġc ur
C O
Ġl y
Ġi den
Ġfait es
ĠA lle
Ġ3 3
did as
ĠW e
Ġrespons able
Ġm unicip
ĠV is
esp ace
Ġg uide
ĠJ ohn
Ġretrou ver
Ġs ang
Ġu l
y th
p ute
ot os
Ġcomp orte
ch i
Ġp aie
Ġf u
Ġatten d
ĠSu per
] ,
il an
Ġch oc
ĠM eu
Ġau gm
Ġa joute
Ġtrav ailler
f er
A F
ct ures
ĠIn st
b it
Ġnav ig
Ġcons titue
ta pe
Ġst at
E tat
Ġmoder ne
ĠH er
Ġsoi ent
P rix
Ġm icro
ĠP orte
d am
ĠT u
Ġch ance
H e
a ter
Ġquar tier
8 2
ĠM A
ĠS T
Ġinternation al
Ġp oly
p les
orde aux
onne s
ĠS cra
C re
Ġadminist ra
om ie
>âĢ ĵ
ass age
201 0
Ġmis sion
Bon jour
ten te
ĠÅĵu vre
Ġav aient
ul er
ist ant
ĠLou is
Ġpap ier
Ġl ieux
Ġquoti dien
Ġs ait
Ġrecomm ande
Ġspect ac
uis se
ĠN oe
Ġre le
Ġcommer ce
ĠP ays
Ġsi x
Ġa re
Ġt ypes
Ġtrans port
ni es
ĠA N
Ġdom icile
ac cueil
ĠP aul
ma zon
Ġfin ance
ĠGe ne
!! !!
Ġque lle
Ġpass age
Ġeffect ue
ĠAn ne
ur ant
ĠB o
Ġlog iciel
ai x
ris tiques
Ġp ierre
ot on
Ġconn u
Ġren for
Ġw eek
Ġg ri
me ttre
b a
Ġv ert
Ġ ord
s enter
ren d
Ġchem in
a vec
Ġlors qu
couver te
Ġv ar
Ġesp ace
ĠL un
ĠL ib
ĠS an
U L
Ġtou che
jeu ner
Ġh or
g ers
ĠAl ors
c it
Ġcert ain
Ġpra tiques
Ġren dez
Ġ q
Ġp ol
ĠÎ Ķ
Ġv ic
b u
Ġsouh ait
U M
Ġdes tin
E UR
mati ques
ĠN on
Ġlo gement
al se
Ġ4 8
rib ue
Ġren tre
ine t
Ġde vez
ra g
ĠF ab
m or
Ġgar anti
ibli othe
Ġde venir
Ġa ir
Ġv illes
Ġcontin ue
is c
o di
Ġcal me
ĠGo ogle
ĠM ichel
Ġa p
ĠM et
Ġm anger
Ġde vis
Ġress ources
f lex
Ġla b
Ġl ois
ĠA me
s titu
Ġag ric
Ġjoue urs
Ġa chat
v ue
us te
ĠÎĶ E
Ġparf ait
Ġenvir onnement
Ġpour rez
Ġsou tien
hic ule
tive ment
anc ie
cl ar
ĠD an
ac ie
olog iques
Ġouver t
le ctions
Ġcour se
Ġlit te
Ġtrois ie
Ġl ist
ari at
ĠM es
ĠL ors
00 3
Ġal bum
ĠL ond
Ġ3 4
Ġouti ls
Ġ ine
ĠS port
| |
ĠP ers
Ġac cord
Ġaut o
b ble
vo que
E sp
Ġdire cteur
Ġsy n
en tie
it aires
is ter
ch ant
ĠB an
Ġc am
Ġca fe
Ġdos sier
IL LE
Ġprof iter
ve ur
ve ille
p in
un ite
ex e
ter mine
ĠDes ign
Ġb ra
Ġ3 00
ĠW indows
Ġact uellement
Ġv eux
Ġmes ures
ent o
S er
Ġf ore
Ġenv ie
ch au
Ġsouhai tez
une ttes
n agement
T C
Ġin fe
ĠS ans
ra les
tream ing
ag ra
Ġoff icie
" -
Ġpro b
us tra
AN T
j u
tudi o
Ġ200 4
Ġs oins
c ap
p x
Ġra pp
Ġfran ce
ĠH aute
ĠV in
Ġfix e
ĠD el
pe l
B e
ĠS ol
Ġt oit
ter re
li orer
Ġcar rie
Ġse mb
ot h
tif ication
ĠAn d
; <
ĠR ue
ole t
... )
Ġb ook
Ġphysi que
Ġren se
ĠScra bble
ot t
Ġm ou
ĠR us
Ġc u
t rait
ĠC uir
ab e
z y
Ġmondi ale
ic o
ti se
osi tif
ti te
an im
ac re
ĠP lan
T M
Ġdiffic ulte
Ġrestaur ant
at rice
and er
sse mble
form ation
Ġeng age
Ar ticle
Ġa mi
Ġfourn isse
Ġlib erte
Ġchauff age
gor ies
ivers aire
Ġs orte
Â» ,
Ġver re
d ing
Ġgratuite ment
Ġp om
Ġte ls
Ġv ict
v aux
Ġg o
Ġcon ce
ci ers
Ġfilm s
ĠAc cueil
ĠC li
N aissance
ĠS pe
Ġrep as
ĠW h
ĠL ES
ri ch
l ation
Ġcomp lex
ĠCl ub
Ġchamp ion
Ġemp loi
ĠA insi
Ho tel
Ġmal gre
Ìĥ Â©
nation al
ke ting
Ġti ss
ĠGran de
IN G
AG E
F ran
ce l
Ġpermett ent
ĠA R
qui pes
Ġ iss
Ġb ons
ĠP RO
Ġper ma
ol f
Ġunique ment
ĠT oul
minist ration
olog ies
Ġconn aiss
qu ili
qu ence
T re
E U
Ġpe inture
Ġch ans
oule z
v u
d on
ĠS ou
l ande
ĠV i
ĠR ose
Ġdemand er
Ġmeille ures
Ġcomm unes
avant age
Ġdes tine
Ġâ ĨĴ
V e
velo pper
Ġ4 4
alis me
ol a
Ġtour ne
ĠT op
cou nt
Ġrespons abilite
val uation
ctu alite
du its
icol as
Ġrec ru
E lle
Ġal tern
Ġch at
ĠNouve lle
ate au
ĠJu in
Ġgrou pes
O G
tiv ation
Ġn our
ve ill
ic tion
Ġsur face
Ġch ai
8 1
ai tement
200 9
Ġpar c
Ġpour ra
ne n
M ess
inst allation
lan ge
Ġa mp
Ġnom me
Ġparti es
g ies
Ġm ent
ĠMar tin
in ge
ort s
Ġw e
tudi ants
m oins
Ġin cl
app lication
ĠM AR
Ġst ation
Ġa ctions
du ct
ĠAr ch
Ġdou ce
Ġmob ili
moc ra
Ġres ter
di as
Ġdocu ment
C he
ĠP ubli
eu ille
Ñ Ĥ
ol s
ĠM ou
Ġa ction
ari o
au re
Ġcoup le
Ġpor tes
In ter
Ġcro issance
D er
ĠP oli
E st
is er
Ġtrai te
rim oine
Ġg agner
un ction
g en
Ġt ax
Ġsal arie
Ġil lus
Ġpar cours
Ġter rasse
Ġac ces
ĠP eu
Ġcour t
Ġv itesse
Ġcompren d
Ġsecon de
Ġt al
Ġ4 2
me t
a j
Ġhistor ique
T h
ĠN ov
Ġc rise
Ġ3 7
Ġinternation ale
Ġpe ine
Ġfais ant
Ġcar tes
Ġmon te
Ġpl age
Ġ1 50
ti les
at ta
ĠFace book
ati ques
olu me
in ation
Ġf aud
Ġcompag nie
O B
ĠK e
t ais
ĠRou ge
C T
Ġdi x
d ure
ĠC OM
ĠA ll
U B
Ġnature l
ci per
Ġpour tant
Ġbonne s
Ġdist ance
y a
Ġpro ches
ĠQ uel
Ġp al
tif ic
o ffre
s ons
Ġt r
Ġa f
ĠÂ °
pons es
ro port
Ġex emp
En tre
Ġclassi que
Ù Ħ
Ġv ali
Ġmar ques
Ġpart ager
Ġh auteur
ĠG i
Ġcir cul
Ġ4 3
in ois
ur n
ĠP la
ĠE m
Ġcontac ter
oci ations
Ġro b
is sent
ĠM use
Ġconsomm ation
p lace
tho de
ĠComment aires
av ait
Ġcont raire
S A
ra ble
Ġanim aux
Ġfon de
urg ence
ĠA M
ote ls
Ġm use
Â ®
Ġh as
Ġles que
Ġinst alle
Ġg lob
Ġchau ssures
an i
ure nt
lect ronique
ĠC et
ang es
mar che
ĠY ork
en ir
ing s
Ġin sp
ab ili
au s
Ġconc ur
AR D
ra pe
ctive ment
E M
Ġpuis que
ĠA lex
Ġmagas in
cri p
am s
Ġsim il
ĠV otre
b as
Ġimport ante
c at
Ġvo ie
f le
ĠS ar
Ġproch aine
Ġex ception
Je an
ĠC amp
Ġav ance
Ġprincip al
Ġpublic s
ĠG ris
Ġproch ain
ob jet
Ġfonction nement
c tivite
Ġob jets
= =
d ou
ĠM y
oris ation
Ġde mi
olog ue
Ġfai ble
lectri cite
v ices
Ġi P
ch age
ons ieur
Ġd an
Ġ urb
Ġfin an
in k
des sus
envir onnement
Ġr us
is h
Ġmal adie
Ġtom be
Ġw h
ĠQ ui
tel lig
ĠN os
IN T
ath er
he ur
Ġris ques
Ġcit oy
Ġad op
Ġex tre
Ġm ains
Ġe aux
Ġ- -
ĠGe or
Ġcommen cer
ph p
Ġd ynam
Ġdocu ments
ir us
Ġp anne
ĠI de
en du
ĠComm un
ro it
ĠBas kets
les s
ĠE tats
Ġtoi le
Ġse pt
Ġemplo ye
Ġp ression
Ġfin ancie
ic a
Ġv oulez
g ues
Ġ5 5
i ent
ĠC D
ĠC y
Ġpromo tion
ĠM i
Ġutilis ateurs
ac tez
Ġi d
ale urs
el s
I s
v ise
aff aires
imp ort
Ġrou lant
ĠC er
Ġmen tion
Ġch an
Ġjur idi
des sous
ĠBel gique
Ġapp lication
Ġcl air
f aire
T out
m n
Ġun ivers
Ġ/ /
ĠT w
Ġce ll
Ġrece voir
Ġfond s
og ne
on ce
Ġparten aires
ĠA s
Ġro se
Ġfonction ne
Ġconn aissance
m ain
is ation
Ì Į
Ġre mb
Ġar me
de cin
p tique
Ġpropos er
Ġpie ds
Ġfich ier
Ġcon ception
d ay
I P
Ġpoli ce
ĠIn te
Ġth erm
ĠCou pe
ĠL igne
ra e
te lier
Ġce pendant
Ġro y
Ġju ge
quipe ments
Ġmagni fique
Ġd oc
ex te
Q ue
I A
oph ie
Ġb ande
im m
Ð ½
Ġs il
Ġinst ru
anti te
ass ociation
inte mps
Ñ Ģ
organis ation
ow er
ĠJ ardin
ĠA li
Ġmont ant
Ġsuff it
m ande
ri ll
col es
Ġparti cipe
ĠH ommes
quipe ment
Ġrel ations
ĠPhili ppe
ĠPe tit
ro ir
che ment
Ġpe ur
Ġv oi
s ume
ĠN eu
ĠJ eux
h am
Ġ er
ĠP r
N ouve
^ ^
... .<
ĠY ou
Ġserr urier
ĠM en
us er
Ġapp orte
Ġth at
200 8
um er
Ġan nonces
C A
ĠV ide
Ġex clus
esp rit
de ur
li r
Ġ[... ]<
Ġfil les
Ġre d
F A
ĠJac ques
us s
d ans
Ġtend ance
d om
Ġtable au
ĠJ ose
cou te
in di
Ġf ou
Ġc ite
ad ap
ĠDav id
Ġprof onde
Ġo eu
ĠEn f
H E
on ction
ĠSer vice
Ġcomm is
ĠAn dre
Ġloc aux
ĠM ain
ĠÂ ©
Ġdes sus
rai ne
Ġg ris
ĠB y
Ġb ran
ĠT o
Ġp ois
Ġsuff is
Ġ200 3
Ġg al
est ation
enf ant
exp lo
Ìģ :
Ġconte mpor
" .<
all on
Ġl ic
ĠP S
ti an
Ġv ent
Ġmin iste
Ġmax imum
ten us
P as
ri en
ĠS im
ĠEx p
T A
ad resse
Ñ ģ
Ġoc casion
Ġcon dition
c end
ĠE mp
m as
ĠB ern
ĠChar les
f iques
ĠS alon
b an
ĠD en
Ġc lo
B ien
Ġs te
ra ges
Ġper te
ĠH en
Ġex tra
am en
ĠMar seille
che lle
Ġb anc
cor de
f re
le ts
Ġorigin al
ĠAr t
ti re
quili bre
ĠT ur
Ġ )<
Ġpro vin
Ġb elles
Ġeffet s
ren ch
p age
ĠQu and
Ġsor tir
p lay
ĠH D
C omme
ci d
ograph ique
line s
Ġg agne
ac tu
Ġg ross
m ation
enti te
ill y
or a
Ġne t
Ġh ab
Ġvo te
ĠA L
Ġparf aitement
P ierre
Ġb r
ig ner
res ser
Ġbe aute
ĠC le
ĠN et
ĠS ainte
N o
ĠA ou
ĠC O
Ġd oll
Ġfin ale
g in
% <
Ġmar ch
Ġprincip ale
or es
di ate
l ai
D is
a a
Ġcal cul
hic ules
ces site
Ġa im
ĠS uisse
c ure
Ġf ant
Ġ[... ]
ff res
Ġte mp
am an
I X
au tes
Ġte lle
ar k
Un ion
Ġcour ant
C C
ic s
v ence
Ġcon ver
A b
Ġimp os
t ap
Ġren ouve
li cite
o om
V D
ĠMe ille
A t
Ġder rie
ĠF ond
Ġprop res
Ġatten tion
Ġre mise
lig ne
Ġpro s
ne lles
ĠB ordeaux
Ġn aissance
usine ss
Ġo pp
il d
ĠAn n
utili s
ĠMon de
Ġch ien
Ġvoyage urs
onne ur
Ġa ffe
Ġt ente
Ġmo d
ĠA cheter
Ġmin i
omm age
Ġc oin
Ġro i
ra ux
ĠL ivre
O b
ress ant
Ġch aleur
g ner
our ne
Ġg ro
erci ce
ret agne
y re
Ġk il
ul tes
Ġvo ila
Ġvo let
Ġsu cre
ĠJ us
Ġper dre
oin dre
Ġpeu ple
isse z
Ġou tre
imp orte
Ġloc al
} ,
t aille
at he
c ad
ĠFor um
eur os
Ġi f
AN D
ĠP L
tif ier
Ġh ar
Ġp ens
Ġimm obili
ĠC ON
Ġmode le
cess aires
ĠH y
im ages
cre t
ĠL et
Ġcons titu
Ġin dis
agn os
Ġcomp os
ic ros
S h
ber g
Ġz ones
ĠI m
Ġac teurs
ric k
Ġfam illes
g ar
ri aux
IL L
CH E
Ġmais ons
Ġapp ro
Ġapp are
S P
Ġjou eur
ci a
fic ations
ol o
b ox
ass in
N otre
Ġquel qu
Ġtrouve rez
om as
re ur
Ġpro t
ĠA vis
Ġbud get
A Y
en sions
Ġ ~
si f
Ġf all
ass urance
Ġ200 2
ne ls
nes s
âĢĿ <
> *
ĠJ apon
Ġpart out
j i
appe l
Ġtechn ologie
Ġde me
ĠE d
ge ments
I d
ĠO f
c un
t range
Ġv entes
ĠP ra
T ra
ĠE ur
Ġbi ento
Ġpl aces
ĠRob ert
ai gn
du le
Ġprin cipe
n aires
Ġsur p
si gne
Ġ4 9
O ui
Ġf aite
L ors
Ġ4 6
ag og
w s
ĠNouve au
je ct
Ġ erre
Ġgar antie
ĠDe puis
ĠS ante
Ġpl at
Ġcommerci al
z er
ĠSu jet
ili e
si tez
Ġfin alement
Ġv aleurs
Ġpos er
se mble
Ġr ub
Ġpaie ment
form ations
oli que
ĠD eux
ox y
Ġf aute
ĠG R
Ġbou tique
Ġpl ane
Ġjus tice
ĠPh oto
Ġret raite
ĠRen contre
Ġconse ille
P L
rie lle
Ġb ains
jou x
o pp
Ġ Ìģ
ye z
D ate
Ġalle mand
ri eux
Ġper du
ap is
ĠMeu ble
Ġrais ons
Ġ1 20
ind ust
ra li
Ġp orter
rou ver
Ġb is
Ġcontin u
Ġendro it
Ġmess ages
inform ations
ti mes
a el
au g
ing t
sent ant
T T
Mess age
Ġt ru
h iver
Ġter mes
y l
3 00
as i
ate d
Ġconc asseur
Ġmaj orite
ux elles
O D
Ġac cessoires
av is
Ġchau ffe
ĠV an
fin ition
ite cture
ti l
li a
hui le
Ġca che
Ġd ig
u ations
Ġchois i
is tique
Ġsor ti
Ġ4 1
ĠP ap
A lle
Ġrecher ches
A V
Ġ6 5
Ġparti ciper
Ġt rib
ĠC E
Ġnouve l
C es
Ġm g
at te
H istoire
Ġin ten
c tives
Ġmilli ards
ĠL it
Ġfru its
ent rai
Ġlut te
Ġconf irme
Ġp ayer
Ġar rie
ĠIn f
Ġl our
Ġtot alement
Ġvis age
ra ss
Ġ4 00
our t
Ġaff aires
ĠCe pendant
ĠPar ti
nt he
tis me
ro i
onn ant
ti ble
Ġen d
o des
Ġcri tique
C ol
ol at
Ġes time
Un iversite
al a
Ġd o
Ġv oici
Ġc os
Ġu tile
ĠRe d
Ġt ent
Ġpen ser
utili ser
Ġle tt
ĠP rin
Ġmin imum
Ġdou che
Ġcl aire
fic ie
Ġfer a
ĠN icolas
Ġy our
ph on
Ġpersonn ages
Ġmis es
ort h
n ull
Ġenv oye
Ġrece tte
Ġc uis
Ġsy mb
Ġl iens
M er
on al
ign on
dic al
ĠE ss
Ġf osse
ol ation
. )
Ì Ħ
ĠM E
Ġl ait
Ġl ignes
m ais
k in
Ġordin ateur
cri ts
ĠM c
Ġrep ro
at ur
Ġs aint
200 7
De puis
Ġm u
Ġm and
Ġport able
Ġsou venir
v ir
ĠCl assi
lu ence
Ġpersonn alise
ĠSt ar
ric ains
b ack
Ġform es
Ġm ul
ve ment
c en
Ġg arder
Ġconst r
Ġ! !
g ation
imp ression
er me
a vez
Ġar t
P R
li ge
t able
Ġbou che
pp ing
l ois
T ous
mb er
Ġtari fs
ĠF l
Ġb ac
tru ction
ite z
ur l
OU S
h ors
ĠAn ti
ĠP uis
Ġim ag
Ġreg arder
Ġv end
di teur
ri fier
Ġse ction
az ine
Ġfav oris
B i
arm acie
Ġfre e
Ġâ ľ
ĠE lles
te ction
Ġ20 01
Ġv an
et h
vi le
] .
Ġalle z
Ġcontin uer
ais sent
ti ens
ĠC L
Ġs oin
r or
Ġ6 4
Ġcomp ter
Ġprof il
Ġf leurs
ĠR estaur
Ġmeu bles
i onne
Al ors
Ġscientif ique
Ġex e
Ġexp lo
ĠE dition
la teur
cu it
Ġqu antite
int age
Ġvol onte
ĠRo be
Ġren du
rie urs
ĠToul ouse
ĠLond res
g ions
ac tions
cour t
>â Ĩ
Ġobjectif s
A ff
ĠC ent
osi te
and re
igne ments
Ġte llement
Ġinform ation
p os
n ique
) :
ĠW al
L ire
ĠP ant
Ġvis ion
st ru
qu ences
ĠS au
mon ie
Ġb aisse
ui le
am ine
s istance
Ġcons acre
ĠL ab
E mp
icie ls
ch a
an dic
ã Ĥ
inf o
Q uel
Ġmili taire
Ġparticip ation
Ġt andis
Ġconc ert
ĠV oici
Ġdim in
Ġprogram mes
Ġpublic ation
di v
A me
rou ve
Ġfon ctions
b r
ad ministration
n alite
an cien
Ġsuiv ante
Ġcomp are
Ġb us
/ <
Ù Ĭ
Ġoff iciel
Ġb asse
Ġqu ant
illi r
u aire
M S
cl ai
w ay
Ġdoll ars
Ġen tier
stitu t
Ġaut orite
ĠM aur
ĠTou te
oir s
w n
un d
ch o
Ġper d
Ġd en
Ġj apon
ĠM ur
. -
ten sion
Ġre mer
ĠA ctualite
ĠMar oc
iv i
Ġpersonn age
Ġ ^^
ĠL ang
ĠL og
( );
ĠO li
ren tiss
Ġ4 7
tro p
ĠM ay
ĠS c
inde x
Ġlett res
at aire
B as
re ux
Ġperform ance
Ġcons ult
Ġbon heur
Ġouver te
oure ux
Ġdur able
Ar ticles
Ġm ac
ent ure
ole il
di enne
at or
couver t
se t
Ġan aly
lo que
i des
Ġprincip aux
T ype
ĠAn ge
Ġ5 9
w are
Ġfich iers
ĠMar i
an alyse
" ).
Ġv ise
Ġpas sion
Ġla c
ĠU N
ĠA didas
Ġpouv ons
f u
ag ram
ĠS or
P A
Ġvict oire
Ġph ilos
ci aliste
Ġinst allation
Ġindust riel
Ġcon j
M ode
entre tien
Ġe l
ĠSy ste
em pe
' ).
ĠL oire
ĠL ocation
Ġinform atique
di que
UR E
R et
ch ent
ĠTou tes
Ġly ce
d agog
rig ht
ĠL iste
ini um
si den
Ġmodi fier
Ġpl ans
An ne
Ġtari f
ER S
C ons
u ble
Ġfor ces
Ġc rite
D i
Ġr yth
ĠB log
Ġmus ic
Ġcon texte
ĠB onne
T ou
Ġpat rimoine
ten ance
ĠA chat
Ġfabric ation
ĠS elon
ĠO ui
las h
Ġvoit ures
Ġk g
Ġsu g
Ġfut ur
Ġdivers es
F i
de la
Ġassure r
Ġb le
es ti
ve t
clar ation
ro om
Ġparticu liers
w ork
Ġme ne
ĠL in
ĠE r
ce au
onc er
ke y
Ġco ok
Ġs treaming
Ġban que
all y
charge ment
Ġst age
ri ces
Ġc ul
vis or
Ġouti l
at rie
Ġpermett ra
d in
Ġch o
Ġfourn ir
Ġ2 50
Ġutili sation
5 00
omb ier
Ġpr on
it ch
Ġprincip alement
ven tions
di r
p ert
ĠF il
Ġ- <
ĠF R
Ġa it
ti ll
Ġf ide
Ġra y
I F
ci ale
ĠV ict
Ġu se
Ġchau d
conom iques
L ocation
av ance
Ġte lles
di um
and onne
Ġb rit
T u
Ġfoot ball
P ers
ĠK ar
Ġdi plo
ra ne
Ġm ix
C an
Ġa j
let tes
Ġte le
cri ture
ĠM ich
ĠC ab
ner ge
Ġconce pt
Ġg are
Ġs ent
Ġcent rale
Ġacce pte
v ain
Ġsoli d
i be
an moins
ĠL ac
ĠS w
d its
r ond
p ers
OR T
ĠT erre
Ġp aix
] +
ĠCou leur
ĠT or
Ġde l
om ber
iv al
Ġra dio
v olu
ille ts
ch ets
um inium
Ġcher cher
ĠInter national
ĠT rai
Ġsau ve
M ont
ĠJ ack
ĠM is
ã ģ
ĠH ome
ĠMar s
A frique
Ġen que
at ten
Ġt ab
rop rie
cus sion
âĢ ĵ
Ġkil ome
ogra phe
ag nes
Ġscol aire
c c
ĠH aut
v ail
Ġre duction
Ġbat terie
ab y
Ġch ale
Ġmar ie
ĠX X
Ġbl oc
Ġappar ai
Ġan alyse
Ġcandid at
Cont actez
ob jectif
Ġmo tivation
p ital
Fran c
ĠP a
f aut
Ġv oire
Ġb ras
Ġfait s
Ġfro id
Ġ rand
ĠB ain
it a
c li
Ġ ..
ch on
âĤ¬ <
>âĢ ľ
I t
Ġpati ents
ĠA mazon
ĠC os
ac comp
Ġfin al
Ġconsul ter
ĠC ert
t ou
IS E
Ġindis pens
Ġcan adi
ti rer
mer ce
ĠB at
Ġrencontre r
ĠS il
Ġra con
Ġch im
Ġd avantage
C L
Ġpuis se
Ġsyn dic
ill ers
ar o
Ġapp lications
Ġcouver ture
Ġau g
... )<
oi ff
ann ique
ĠB ri
Ġtex tes
icros oft
Ġaugm ente
ense ignement
ĠX V
ĠM ate
o ila
ar g
ĠA f
Ġti re
ĠSe p
Ġm ens
p r
oli e
p ie
rom o
Ġs mart
V oici
indust rie
l ot
E s
Ġchau diere
- <
Ġas pect
Ġvis iter
Ġquali fie
Ġv aut
ĠG roupe
Ġse ptique
Ġg a
Ġpar king
Ġl uxe
F orm
g ant
is ion
Ġmodi fie
ag ers
Ġimp ression
ĠP an
Ġbi o
veill ance
200 6
ĠA frique
Ġgar c
Ġsujet s
Ġbien s
Par is
Ġra di
Ġd on
Ġconse iller
Ġspectac le
de cine
Des cription
ĠC ity
ĠS U
ou est
Ġph ase
Ġex ist
á Ĩ
Ġ7 7
t ur
Ġpri vile
ĠL um
Ġc la
Ġf isc
Ġ5 4
Ġon line
si ers
ĠR ome
L ou
Ġ9 5
que z
Ġf ron
Ġprest ations
n ome
oy en
Ġpopul aire
explo itation
Ġconne cte
ES T
ti nes
Ġpl antes
ĠL oc
Ġh er
B N
G ra
Ġfin i
ĠSe ine
Ġca me
Ġblan che
ĠS es
Ġsoci ales
on i
Ġchau de
Ġcolle ctif
Ġinter pre
Ġ5 6
Ġop tions
Ġass urance
vide mment
ĠProf es
Ġp ont
c d
ĠB ottes
Ġde venu
t an
Ġv olume
v an
Ġtit res
di ter
an nonce
Ġgratu its
Ġp osi
iel d
ĠBr uxelles
Ġf iche
ĠI S
Ġdan se
L oc
Ġclasse ment
oc cup
~ ~
Ġaff iche
qu in
ĠMar c
Ġc iel
adi o
ord onne
rentiss age
Ġprof it
tudi ant
Ġoff rir
un al
m os
Ġpre uve
Ġ19 99
Ġent endu
Ġten u
Ġv as
Ġsigni fie
Ġan cienne
Ġin dic
u c
tran ger
val ue
Ġri g
Ġm assi
ex t
Ġvie ux
Ġsau f
rie z
ci fique
Ġf leur
Ġbe aux
t ons
R en
ĠV ers
ap itre
ĠAu jourd
ces sion
u alite
E C
ĠRoy aume
b ien
M aison
Ġb ibliothe
B l
Ġscien ces
Ġpouv ait
Ġremp l
tie lle
ĠG ir
ĠS UR
ĠP ou
Ġt ue
Ġexcell ent
ĠSand ales
fici er
& #
ĠC at
tabli ssements
": {"
he im
au ts
Ġconstr uire
Ġmondi al
tre et
ber gement
Ġsatis f
Ð¾ Ð
ĠB ur
Ġro be
ess es
un iversite
Ġmoi tie
Ġann iversaire
Ġe mpe
Ġri che
Ġch inois
Ġabs olu
c op
I QUE
f alse
ĠL av
Ġdes sin
in vesti
Ġnive aux
Ġavant ages
F or
a o
Ġt ar
Ġ5 7
Ġmodi fication
Ġserv ir
ad ore
tho des
ĠRe g
Ġj aune
ĠO rig
Com p
pro duct
n orme
ĠPre mier
Ġl ancer
cri te
il y
Ġun ite
ĠS ign
Ġes c
Ġf estival
Ġin v
s ou
Ġess entie
form es
Ġa ra
clai rage
A vis
Ġco te
Ġarri ver
Ġco ope
ĠI II
ati e
ch ette
s or
oli s
ati ng
igne ur
Ġh om
ĠP OUR
Ġcon tient
n ame
4 00
Ġ6 00
ĠG uide
V otre
sent ent
ĠP lay
ĠNation al
Ġma je
ĠGratu it
ĠCom mission
ĠL y
Ġrece ttes
d ation
Mar ie
Ġv ingt
Ġrestaur ants
Ġp he
Ġ1 000
ĠTri p
Ġ5 2
ĠM me
Ġconf ig
Ġcar b
Ġsuiv antes
Ġten ue
ĠP or
Ġdist ribution
ĠR os
m ique
Ġb o
Ġex er
Ġcon dam
Ġtoute fois
Ġache te
ĠN ice
est es
Ġdiff use
Ġpl astique
oin ts
Ġconfort able
se l
Ġ8 5
cien ces
ĠRus sie
c tes
gn y
Ġutilis ant
Ġan ciens
min ation
Ġtot ale
Ġremp orte
envir on
lection ne
ser t
ch ir
end rier
Ġâ ĸ
m me
um a
D A
M P
ĠM ess
in al
tex t
Ġa jouter
Ġapp areil
Ad visor
ĠV este
Ġ6 9
in tes
Ġmar keting
Ġsour ces
ĠR ich
Ġp ur
Ġim pe
cri pt
> +
ate l
y er
< /
ffe ct
Ġsuiv ants
ag o
Ġv iens
Ġm ail
Ġ: :
z o
Ġjourn al
u k
s ole
Ġparten aire
Ġsimil aires
ĠD r
en tin
aut om
Ġcommun ique
agnos tic
in aire
Ġra c
ĠF C
moi gn
ĠN orm
lectri ques
Ġti ent
Ġloc ale
Ġcons cience
od y
Ġnu its
Åĵu vre
Ġp au
n it
ĠiP hone
h an
o be
Ġex ig
ĠRe cherche
ce mment
Ġbou le
ven ant
ric ulture
d action
Ġo ption
Ġch asse
Ġprofes seur
ĠB ook
ro w
ĠâĢ ĺ
ĠB elle
lique z
Ġchi ffre
Ġlongue ur
op tion
Ġpan ier
Ġimp rime
Ġrecomm and
D S
b ie
heure usement
Ġg ue
Ġh andic
II I
oc at
Ġtrav aill
Ġcollab or
im g
Ġ7 8
ĠB lan
( )
dro id
Ġapp rendre
ĠF estival
C ode
Ġgra ve
ĠC N
c ente
cis ions
ĠO ne
Ġentre tien
ĠChau ssure
rie ures
A A
li eu
rou nd
Ġconnaiss ances
Ġp ous
l en
Ġaut orise
Ġartis tes
Ġcollab oration
ĠB our
ress es
> ...
e p
ĠPour quoi
Ġjeunes se
Ġesp agn
ut ri
Ġp ousse
tine nt
av enir
Ġcomp ati
Ġappare ils
J eu
ĠT ype
Ġdisp ositif
Ġcap able
Ġtra duction
it ations
ĠS ous
Ġpar ame
Ġcomp tes
Ġd ois
Ġten ir
ron iques
c ieux
Ġp rises
v ac
Ġin clus
AN S
ĠS av
Ġc au
ĠSer vices
Ġd iver
A m
cro y
ĠEn fin
as y
ĠH istoire
Ġperform ances
Ġfinance ment
Ġm ut
fe ction
1 01
Ġchans on
t oile
Ġstand ard
ã ĥ
Aut res
ĠAv r
s is
gram me
Ġcapit ale
P P
Ġesp aces
Ġin t
Ġsal les
ay ant
ro ge
g alite
ti mis
Ġge ne
onn ance
ain issement
is tence
ĠLau rent
cu se
Ġinsp ire
em b
Ġu p
. .<
ĠF ilm
rou le
Ġg ui
Ġre venir
Ġan ime
Ġdis que
elle ment
Ġorganis ation
Ġfaud ra
m ente
Ġne u
Ġmin im
U ni
sent s
s ol
Ġl is
C et
Ġti ers
ĠT E
Ġfais ait
ĠC ong
Ġgar age
ri ent
Ġlou er
l ou
Ġf ar
f ert
Ġpl ai
Ġinter ne
n b
ĠS ource
es ter
m ann
Ġop tim
x x
ĠS m
am er
Ġser t
Ġmont agne
ĠLE D
Ġpass ant
ur y
p rix
ĠBl ue
Ġdem ain
ĠF oot
ri ences
Ġri ches
ive ment
m ond
Ġpl aque
ri fie
ĠE X
Ġau rez
Ġc ant
B A
J ou
Ġc ru
ĠPh otos
cont ent
H ome
Ġtiss u
T ags
ĠS P
Ġremp lace
ĠR ay
Ġ5 8
an y
Ġaut on
al ons
ĠL igue
top he
lo ne
Ġh ier
e z
g ale
N os
Ġcap ital
Ġ5 3
Ġplate forme
ĠâĢ º
Ġar gent
Ġconf ir
D C
ĠG uerre
Ġchoc olat
ĠH u
ins cription
Ġremb ourse
Ġatte int
b us
ai mer
ap er
Ġact uelle
Ġoblig atoire
ĠP ont
qu it
Ġcir cons
Ġmontre r
Ġcon vient
t rise
me ment
iki pe
ĠB ureau
ĠG ab
Ġfourn it
ame di
ĠP i
ct or
Ġb er
rou p
Ġs ki
Qu and
ĠBern ard
b onne
publi c
Ġag ence
Ġad he
f a
ĠA V
Ġpris on
Ġtechn ologies
Ġstat ut
ĠP ic
Ġpot entiel
ĠIn de
Ġcont ribu
ON S
en a
h onneur
Ġcom e
O IR
Ġlarge ment
Ġob jet
Ġ5 1
IS T
ĠO p
ĠP u
Ġst ars
ĠAlle magne
de l
ĠF am
Ġs ing
ĠS eu
Ġp ne
ag ent
ĠA p
ĠM at
Ġtrans p
ĠJ ourn
Ġdom aines
Ġno ter
Ġri de
tre r
Ġoc cupe
Ġf it
f il
Ġnature lle
s a
d oc
Ġcade aux
ĠIt alie
Ġcook ies
ER T
ĠTh omas
d d
, ,
Ġre pe
Ġfig ure
li bat
Ġfron tie
Ġqu itte
Ġveu lent
Ġpri m
Ġqu asi
Ġh os
sp an
Ġmom ents
g umes
ĠP ublie
t ype
pel lier
s olution
di er
at oires
Ġre vient
ĠJu il
b log
e k
diate ment
Ġt rait
ĠAn im
Ġfab rique
p ut
O W
Ġapp roche
O Y
on ie
Ġcent ral
th is
Der nie
Ġch re
gion al
Ġco ffre
Ġsp i
ke a
ĠA vant
ĠF RAN
Ġrenfor ce
M al
Ġtour n
y me
Ġpersonn alite
Ġus age
ĠB ay
ce aux
tap es
Ġd ra
ĠF ont
Ġs able
rap ie
Ġp in
ĠUS B
Ġc oton
ĠP oi
Ġac c
>< /
Ġins titu
Ġc asse
Ġve ille
t ar
ĠS ho
can ique
AU X
t ures
me lle
Ġtour isme
Ġperma nen
Ġg u
ĠFre e
S elon
' t
Ġad ultes
if i
de c
Ġconnex ion
ĠP ol
Ġf r
Ġnett oyage
Ġmauv ais
g ard
di ci
Ġdi z
ĠL am
Ġinst all
te liers
U C
M an
que tte
a ments
ĠP en
p au
ĠChris t
ĠB run
ĠS oleil
ĠQ U
Ġb oul
w id
Ġprob ablement
Ġinter vention
ĠC el
ang le
Ġconv ain
Ġconst ate
Â ·
ien d
ĠLiv raison
Ġn oire
Ġpouv ant
Ġdynam ique
on or
ĠW orld
ĠT ar
Ġnorm es
Ġbar re
cu ter
ĠT ru
Ġab ord
C D
Ġau dio
omber ie
alis ations
Ġmilli ers
or ama
Ġ19 90
Ġexp ose
ĠM ot
p an
Ġense ign
Ġpr intemps
ĠD ate
Ġpour ront
un ivers
> .
ĠW ar
Ġess ayer
ĠV ert
I DE
Ġsur prise
Ġcandid ats
az z
Ġdis cours
ĠOn line
gle terre
ĠN i
id en
Ġall ons
Ġ199 8
pend ance
ĠApp artement
Ġfournisse urs
di ge
Ġh iver
ill ages
Ġa cier
ne urs
Ġin tro
actu alite
Ġen vis
ti ments
ĠM ini
ĠM ore
Ġfaci li
Ġchange ments
V er
l os
ĠUn ivers
ĠD VD
Ġv oud
Ġchi ffres
ur t
ais ser
Ġac cueil
ĠC ulture
Ġpra ti
ag u
ĠB ourg
Ġdis cip
Ġen j
ĠC A
M I
atis tiques
it ue
ot a
Ġg enti
Ġpour raient
Ġli qu
ĠP om
ĠU l
ĠF our
Ġul tra
aisse z
Ġconf orme
Ġatten dre
Ġform ule
ĠN ature
Ìģ )
AS S
idi te
Ġmach ines
ĠT im
Ġess aye
U T
h ar
Ġapp lique
ĠPar k
ag ence
O K
Ġcons iste
Ġprincip ales
Ġv iennent
Ġsimp les
J u
Ġde hors
Ġheure ux
a ques
du ite
ĠAut om
Ġlog iciels
Ġm aire
g ration
ĠCl aude
n s
Ġsymp a
Ġpubli ques
Ġess entiel
Ġeffect uer
ĠU tili
ĠM ul
gli sh
Ġor ient
Ġbout on
Ġlum ine
Ġsy nthe
p asse
Ġprovin ce
Ġcha pe
Ġtrans pa
ie use
ĠA C
du ctions
ĠV it
F e
re d
V A
est ations
ac o
Ġlang ues
Ġapp orter
E D
Ar t
ĠS ant
ĠH or
Ġde gre
Ġm ig
ÌĢ .
Ġ9 78
ĠC ore
d ate
Ġt rom
Ġdemand es
Ġu tiles
r ue
Ġnot es
Ġf au
Ġf ront
Ġhum aine
Ġin nov
Ġdestin ation
Ġryth me
Ġcom ite
ĠJ o
D im
EL LE
Ġun d
ĠD ie
Ġ Ø§
ĠW illi
di ne
Ġp aye
Ġcertaine ment
Ġri vie
p ture
ĠS k
Ļ ¥
Ġg l
Ġprofes sion
ante au
f ond
ĠCar te
ĠMar ine
Ġmon u
ĠS oci
ĠM ach
ul aires
Ġorigin ale
Ġpro je
ait es
ten ue
B C
Ġ1 01
ĠL ux
tabli r
ĠCh aque
Ġdispon ibilite
V ente
Ġsuper be
ch anges
mon te
la h
o eu
Ġs ho
le ver
Ġ6 8
Ġpuis qu
ĠH am
Ġatte indre
ĠI mm
) )
ĠA jouter
a cheter
Ġartis an
Ġd ote
Ġimpos sible
ĠN av
Ġhau sse
ch ou
Ġse l
B O
S C
ĠF lo
Ch ris
Ġoub lie
Ġgo ogle
app ort
Ġacces sible
P age
ĠB L
l at
m une
L iv
flex ion
Ġpe in
ne ak
Ġam our
th er
Ġ6 6
Ġparten ariat
Ġcent res
S y
all en
Ġs tudio
Ġg lace
u che
n ow
er v
Ġou t
ĠL unettes
ĠB retagne
ĠN antes
Ġreven us
Ġsu it
" ]
P er
adi es
Ġb ox
Ġâĺ İ
Ġass ociations
C onc
ĠP au
olog ne
Ġt res
Ġmen ace
ĠD oc
ĠMan ches
AR T
Ġm oto
C al
Ġmulti ples
Ġdev ait
Ġrou le
tienne nt
Ġac quis
ĠB a
Ġparti s
Ġb ilan
Ġnorm al
Ġmulti p
Ġport ant
} }
and a
Ġme me
Ġrej oindre
Ġin tellig
P H
Ġsou mis
ri enne
Ġ Ø
t le
Ù ħ
Ġcon vention
Ġ6 2
b ili
Ġpl af
Ġconnex es
Ġfonction nalite
Ġvisite urs
Ġparticip ants
G ar
ĠH um
Ġcomplex e
ad is
Ġfond ament
Ġmen u
G o
Ġsin on
ĠO c
ĠP lace
f ice
che z
iv ant
Ġreconn ai
ra ction
P C
is es
Ġmus ul
li oration
vis ions
ue ur
S ite
Ġpubli cite
g on
ĠD onc
out h
t our
cu tion
1 12
Ġmax im
Ġtech ni
Ġbrit annique
Ġpom pe
ĠCar re
O ff
In f
ĠIn s
lin s
Ġacce p
Ġadop te
Ġo ne
Ġvic times
Ġm ille
Ġdis ting
Ġchampion nat
dic aments
ĠColle ction
Ġrand onne
Ġsymp ath
ĠA D
ig er
ĠL im
ro id
ri ct
Ġrus se
Ġtran qu
Ġcommis sion
j o
Ġre de
Ġbro yeur
us age
ra c
utilis ateur
ra bles
Su per
Ġjoli e
Ġciv ile
us h
v ait
S al
M a
I mp
s w
Ġf rai
Ġmer veille
oc o
mo tion
di ction
ĠTro is
v as
F ilm
Ġm asse
land ais
P art
Ġ8 00
om be
Ġgraph ique
in iti
â ĸ
Ġali mentaire
ig u
Ġpar ai
Ġlo gements
Ġse xe
ĠMar che
am in
ĠO ut
ĠAn droid
Ġcro ire
Ġimmobili e
les se
Ġlong ues
Ġac tive
form er
Ġl ook
ou i
ĠS ex
ce let
ĠC R
O I
Ġst ar
ĠG ren
Ġau teurs
Ġpers pe
Ġoub lier
te aux
p lus
> âĤ¬
Ġaff irme
ad o
Ad resse
ras bourg
Ġrec ours
Ġprog res
Ġne ige
Ġ!!! <
ĠWh ite
C ate
Ġp ure
ave ur
Ġ7 2
Ġmort s
Ġcli mat
ĠM ath
Ġcomporte ment
**** ****
ĠMeille ur
Ġhum ain
ĠIn n
Ġimport ants
ĠLiv res
Ġen cour
ign y
Ġsou ligne
man uel
g t
U X
ĠVict or
ĠM onsieur
Ġces se
r ure
Ġvoy ages
Ġjuridi que
M o
mi di
Ġremp lacement
bou chage
ĠB ot
ĠS un
Ġob tenu
Ġform ations
1 50
ussi te
r c
Ġd ange
T R
ĠTh is
" >
Ġre lie
ag a
Ġchar me
Ġit ali
mer ic
ro l
Ġl ot
ĠD os
Ġsecon des
import ance
ĠGeor ges
Ġrev anche
ĠD ownload
te ch
ĠR un
al bum
Ġb our
b el
Ġdeme ure
Ġpoin te
In te
Ġass ociation
Ġcon serve
o ble
ri a
Ġrep os
Ġcour age
Â» <
ĠT unis
ĠGu y
ard ins
ĠJ ou
Ġreven u
Ġob lige
Ġcan alisation
N on
tu be
g s
V al
Ġs cience
g ales
ĠL ille
Ì Ĩ
Ġph ra
exp osition
vre z
c ade
C or
Ġpl onge
pon ible
Ġc ath
ĠHen ri
ĠC ate
Ġce ci
ri ture
ac ances
l ait
) [
Ġfu ite
Ġ= >
I ON
i res
ĠAl ain
lect or
Ġ6 7
B E
av ons
qu ival
ĠChamp ion
Ġnom s
Ġp el
Ġfra g
Ġchar ges
ari f
Ġau teur
ĠP erm
Ġin c
Ġinst ant
pport unite
l ong
ac ute
ir st
x es
Ġd ata
Ġ ....
Ġex ac
and ie
aut ant
siden tielle
Ġv ues
ĠM u
ĠB os
Ġse rez
ien dra
g us
Ġra re
Ð »
Ġch ante
ati n
Ġh ave
Ġdisp os
Ġmon n
i um
f ont
r ants
Ġrespons ables
ĠD ro
aff aire
Ġlesque ls
Ġac cro
Ġcomb ien
Ġst y
oly mp
ĠB ru
ass urer
Ġfeu illes
ĠF OR
Ġcy cle
m ons
c ents
Ġdou x
Ġlog ique
pre uve
ĠW i
ĠB E
ĠP E
Ġ9 9
Ġcondu ite
Ġpersonne lles
ĠP H
Ġf ine
Ġabsolu ment
ier res
Ġloc ales
ĠTw itter
as tro
h r
ff age
cu te
Ġh uit
Ġ7 6
in c
p ouse
Ġvis ites
Ġexemp les
Ġd ie
im ag
Ġexper ts
er oy
Ġrapport s
Ġmis sions
Ġparf aite
che ur
tine n
Alle magne
Ġm urs
c lo
Ġ6 3
Ġprodu ire
Ġh ome
ĠJose ph
f l
olog y
f ran
Ġ! !<
tu me
Ġt or
Ġno v
Ġrappe lle
Ġv ain
s il
ot al
Ġdisp ositions
mi um
ci fiques
ph ones
Ġforte ment
ci ter
Ġlab or
ĠP ri
Ġrev ue
Ġmo des
ĠN or
ĠA uto
B ou
Ġ Ã
Ġcircul ation
j us
ĠF aire
Ġprof ite
f ord
H omme
Ġle cteur
b ri
ĠC ur
Ġb ateau
cur ise
li mine
ĠG en
Ġu sine
u ves
tis an
ĠP M
Ġpe int
titu le
rib uer
ĠV os
ri p
ur al
1 20
ĠDom in
Ġ1 10
Ġir re
D R
anc y
ure aux
per c
t ration
Ġcamp ing
li p
a nes
ch ats
ces se
Ch ar
Ġâ ĩ
Ġver se
ĠM os
dic ale
ai es
Ġcro ise
t n
! +[]
at aires
Ġe lectrique
ak i
tic al
Ġmont age
ctif s
Chau ssures
n ite
lic k
ist oires
âĢ ²
Ġsol aire
pi ration
ĠJourn al
ill aume
ĠF i
Ġtoit ure
Ġ199 7
ĠChris tian
ur re
C ap
ĠB ac
Ġre ve
Ġmo re
!! !
ap h
IS S
Ch ambre
li ance
Ġf aveur
Ġsu isse
Ġnavig ation
j on
A LE
Ġter min
Ġrestaur ation
w ood
ather ine
ai der
ĠM oi
A h
Ù Ī
Ìģ (
ĠS he
um b
inter vention
Ġlois irs
I EN
Ġdis c
ĠC ra
is ant
Ġch ir
Ġcli quez
Ġdiff usion
mis sions
Ex p
Ġconc entre
Ġre que
ĠN E
cou ter
Ġc ible
Ġg our
tic s
ab sence
Ġin forme
Ġdev oir
Ù Ĩ
Ġf ri
li x
ru p
Ġin cont
C S
Ġcon ge
ĠT om
ĠR ock
Ġch ute
ĠPre mie
Ġ olymp
comm un
Ġconstru it
li ques
Ġb aign
Ġp ain
ĠNew s
In stitut
Ġser vi
P rice
Ð º
Ou est
Ġ _
Ġconf id
ĠA ub
Ġco ordonne
Ġterrit ori
Ġmauv aise
Ġracon te
Ġser veur
ĠR ho
Ġre gre
ĠDan iel
Ġcitoy ens
ĠE U
Ġl ar
ĠAr ticle
ti ls
Ġf unction
Ġsenti ment
ĠH ol
Ġcons ulte
16 0
Ġf an
igue ur
i an
Ġcou che
Ġf oi
or able
or ge
h ier
ĠPar c
di es
Ġpar ole
Ġre b
Ġartis tique
crip tions
oye z
ti ssement
in on
Ġaltern ative
> Â»
Ġsecre t
Ġb rill
Ġo ver
ĠC op
ĠS we
âĢ ¢
h ab
ĠS ue
I ls
ist an
T rans
Ġscientif iques
Ġrec ord
m ant
ch en
Ġref use
Ġb ack
Ġk it
Ġ14 0
Ġcou ps
Ġrense ignements
ob tenir
pens es
Ġindispens able
ĠPro vence
serv ations
200 5
erci ces
Ġpos sibles
Ġinst aller
Ġre ad
Ġrempl acer
Ġavant age
ĠSA INT
TE UR
ĠTech n
Ġreg arde
Ġv irt
tra ge
v oit
Ġcolle ctivite
ri euse
Ġhy p
Ġimp lique
c os
ĠM icrosoft
Ġf aux
Ġcl ass
ren ti
ĠRet our
Ġf us
Ġquoti dienne
Ġ ze
Ġfin ir
ex per
ĠTrip Advisor
ti ge
AN CE
ali ers
Ġchale ure
IG N
uis e
an k
ali mentation
ĠLors que
A s
ing ton
ver t
f es
Ġpil ote
oiff ure
Ġact uel
ĠSy l
ĠEsp agne
ĠM el
Ġcom te
ĠU r
ĠApp le
Ġcir cuit
Ġplu ie
v r
il er
Ġaff aire
Ġimp ose
at ures
rond issement
ay a
Ġmal adies
IC E
Ġsub st
Ġd ownload
op le
Ġinter n
inst ant
pon du
g end
Ġbou te
Ġpropos ons
ĠBe ach
Ġbat aille
AL L
enti elles
si m
2 50
Ġpl ante
Ġarch ite
Ġs ale
p df
Ġph armacie
y m
diter rane
Ġcli mati
In s
Ġnu cle
ume ur
Ġh a
ĠL ot
o ce
ĠP oly
ĠL is
Ġw ord
Ġconc re
Ġchau die
C F
Ġm l
Ġmin ute
ĠP le
C a
Ġt este
Ġw c
Ġtrou vent
. "
ĠSam s
F in
te d
n ac
c une
ĠA ux
Ġrep rise
A nt
ais ons
Ġv igueur
v ar
ĠV endre
rag on
ĠMon te
ĠSt rasbourg
Ġferme ture
ich age
Ġmy ste
d aille
ĠP os
Ġmar oc
Ġinstall ations
Ġs cul
ax y
Ġpopul aires
or ies
ro is
ĠC onne
ĠÅĵu vres
ĠW ord
di ents
cont ra
z i
ĠB lu
es e
lle ct
Ġpat ron
li se
ĠPerm alien
ai gne
om en
ra stru
Ġre me
}, {"
Ġatt aque
W h
Ass ociation
ĠJ ames
Ġg uit
gis la
eff et
T able
Ġin quie
Ġserrure rie
ĠS ports
Ġ199 6
ussi ons
14 0
OU T
v c
ori ent
Ġtrai ter
ĠL oi
li ore
ĠP R
ĠL ie
Ġbl ack
Ġg ard
Ġor dre
th ique
Ġvoul u
Ġv otes
Ġoeu vre
p aisse
Ġrespe cter
p or
Ġcab inet
Ġ our
vi du
in ten
Ġst ade
er o
Ġvol ont
Ġju dici
ĠA S
Ġcli ente
] [
h u
Ġfac ture
Tou tes
Ġ rai
Ġmon ter
ĠN ombre
Ġouv rage
ĠðŁ ĺ
ĠSt yle
Ġreg roupe
Ġappe lle
B ar
Ġin se
Ġ \
Ġvit re
Ġtrans fert
Ġpas sionne
Ġ19 95
Ġremar que
ĠMont pellier
A ssemble
6 00
ĠH el
V is
Ġb lesse
app re
L o
ĠG estion
ĠTe le
Ġt ome
Ġex ige
co ol
Au teur
Ġf ame
ve au
Ġvrai e
w a
Ġerre ur
IN S
Î ±
and s
Ġhum ains
ĠRich ard
ĠB R
Ġesp rit
ĠP ost
] .<
oun d
p lacement
Ġac corde
19 0
n ario
Ġrest ent
En fin
Ġag ents
ouv oir
ĠPro duits
en ue
en que
ĠZ e
Ġnew s
utili se
Ġviv ant
ash ion
ag as
ad d
Ġautom obile
Ġfaci lite
P ort
Ġou vre
ĠG er
m it
tu die
ner s
U r
ĠSams ung
Ġtest s
ĠArch ives
Ġcons titution
ĠS N
Ġg out
Ġtrans forme
ES S
Ġatt ra
Ġc ris
Ġtra verse
ĠG au
u des
ĠPat rick
res sions
ra teurs
sh irt
Ġche val
Ġviol ence
Ġmo indre
Ġman ge
h ou
Pour quoi
Ġa de
ende main
an cienne
app ro
Ġou vrir
vri l
Ġvol s
ĠDou ble
Ġav ions
Ġcan cer
ten dre
j s
o bre
Ġconcur rence
Ġcour te
B ook
dec ins
Ġin croy
Ġ7 4
Ġst ress
P I
Ġt yp
iti me
Ġform ulaire
Ġent end
Ġclaire ment
Ġas tu
. "<
P ER
Ġcon duit
i ant
Ġtom ber
c art
b is
Ġcomm andes
ise z
si r
ustra lie
ali n
v ard
ct s
OS T
Ġ[ #
Ġsol d
ĠK it
Ġconn ais
Ġn ul
Ġp iste
p oser
f ig
Ġmention ne
ĠMo der
Ġper c
Ġparf um
ĠO pen
ĠO s
Ġsit uations
1 10
Ġenv oyer
Ð ĵ
u tion
Ġcan ape
Ġret rait
at tention
Ġdev ra
T op
Ġtrans ports
t aux
Ġ( +
Ġt rim
b in
Ġ18 0
âĢĿ ,
Ġ9 2
ĠF A
} ,"
ĠS ie
Al pes
ĠGre en
Ġc ry
li vre
ĠMich ael
nie ur
Ġpri orite
ag ir
Ġd ates
Ġven deur
termine r
Ġeffe ctivement
ex ercice
Ġm aman
ĠT est
bou cher
ĠR adio
Ġun iver
Ġdis tin
ĠK o
Ġfinan cier
Bi ographie
Ġ8 8
u ge
Ġran gement
ĠForm ation
ag iste
anti ll
T V
en registre
ĠM em
at o
Ġouver ture
Ġch ant
G ER
I O
Â ¬
iss es
Ġm it
di ens
l ants
Ġse c
Ġg ood
Ġten ter
Ġ ur
ra ins
ĠC ine
x t
P aul
b ute
ĠPar t
Ġsus p
f unction
Ġd anger
istor ique
EN D
Ġdi agnostic
ĠM oyen
Ġplaf ond
Ġseu ls
au f
ĠP res
Ġin ge
Ġpa rent
ĠCom ite
Ġ1 30
ĠC it
si tion
Ġrec ons
Ġc r
Ġqu in
Ġcat alogue
ĠP in
Ġmain tenir
g uer
ĠO range
Ġj ob
ke d
Ġb ag
ti bles
Ch a
Ġv alle
Ġexter ne
Ġrep rendre
ac teur
M O
ĠK ing
Ġman ip
Ġre cue
Ġatt entes
u ant
fin ir
ĠMan ual
y o
col or
Ġs how
ag re
g arde
Ġlic ence
It alie
ve urs
Ġs ure
fait s
tu i
Ġv aste
ci nes
an ite
N om
Ġâĩ Į
Ġ os
Ġpl omberie
M B
Ġstock age
ĠS C
Ġcomp re
Ġlesque lles
aut o
Ġp ack
G B
ĠE p
Ġpl ats
T rouvez
Ġhum aines
n ager
ĠRoy al
S on
Ġcro y
ĠFran cis
Ġpl ac
ĠVin cent
j an
Ġt ac
Ġra ssemble
QU ES
ter nelle
Ġl endemain
inst aller
Ġexp l
Ġt ur
Ġcommerci ale
app ar
Ġre mettre
Ġhistor iques
Ġprop osition
c ologique
Ġvis ible
inter est
Ġphot ograph
Ġsa vez
ĠL as
ti ver
Ġt apis
Ġit alien
Ġa telier
b or
d ata
Ġsur veillance
di aire
TE L
ĠH al
Ġconc lus
ven us
Ġw ill
Ġen ce
Ġch aise
v oile
euille z
Ġc lin
ĠH igh
ĠT ome
Ġimport antes
ĠS ciences
ĠPe tite
Â» .
Ìģ ...
Ġpri v
Ġh uile
ai d
ill ons
ic acite
tran gers
Ġs k
ĠBer lin
Ġcomp lique
gre r
Ġa st
Ġrub rique
ad y
Ġexac tement
V ER
Ġmouve ments
vol ue
Ġp ic
Ġle ader
ĠBar ce
Ġla ve
Ġplate au
N A
Lou is
id entite
Ġb illets
C OM
R S
ire r
Ġfinan ciers
Ġrenfor cer
ĠCh aise
Esp agne
o ol
ĠB ig
D eux
c ope
cri vez
Ø ±
ĠC ir
m ode
Ġbi joux
ĠN ume
M es
Ġfournisse ur
Ġgra isse
k en
ĠUn iversite
ri ger
App artement
ric ol
Ġb illet
ale tte
Ġse cteurs
l ante
Ġf ati
Ġex trait
ĠW est
Ġ8 9
ĠO U
ĠM O
ĠBan que
Ġf ins
ĠRe ce
m ois
ibli ographie
ussi r
ang a
Ġ8 3
Ġet re
>âĨ ĳ
li st
Ġtes ter
Ġf urent
ĠQu alite
cl er
ro g
ĠB ert
ĠH otels
ĠM P
Ġcolle cte
Ġla v
ot her
Ġeff orts
ch ons
Ġprest ation
Ġaugm enter
Ġ6 1
Ġfabric ant
ier ry
Ġp ierres
8 00
Ġman ches
tit le
Ġpau vre
ĠCh ois
Ġad ulte
Ġdes sine
he d
exp ression
Ġdom in
Ġgro sse
Ġdev raient
Ġr onde
or ce
d age
de f
Ġsou tenir
quis ition
og a
Ġmagas ins
ĠS o
Ġperma nent
Ġ7 9
ph ane
ran te
Ġm idi
Ġ9 3
Ġpou dre
Ġ$ ('
Ġdou leur
app rentissage
mon tre
Ġbru it
cl en
ĠR og
Ġhor aires
F OR
ĠD on
ser vez
Ġemp run
ĠB est
P ubli
Ġfacili ter
on des
ĠAu teur
s en
asse ment
ĠS neak
Ġfai bles
ĠOli vier
H A
one l
investi ssement
Ġins crit
Ġremp lir
m ans
], [
ĠD ur
F P
ĠAff icher
Ġ199 4
Ġac tes
ver y
Ġret ard
Ġexp rime
Ġb est
end a
ĠPort ug
ĠF it
Ġfeu ille
ĠPoli tique
Ġv illa
cu per
si bili
Ġk e
ĠF rench
Ġ9 4
Ġven du
Ġpri me
enf ants
Q ui
Ġsus cep
pe ur
A vant
aur ais
app artement
Ġsoli de
Au jourd
Ġconf ie
ĠC AR
alis ateur
as p
ĠV illa
Ġjapon ais
AN C
Ġy a
w ards
ĠCon fe
Ġmain tenance
ĠA G
Ġb ron
Ġcri tiques
ĠM ulti
ĠA B
ĠL an
Ġp rie
se ud
av a
Ġmag azine
Ġl ine
ĠSign aler
ĠF lor
i ro
Ġmai rie
Ġdes sous
Ġcommun i
tin s
Ġra tt
ĠI P
Ġoff ert
Ġdim ension
Ġ8 4
ĠCert ains
S ource
Ġvoul oir
en n
ex istence
Ġest he
Ġg agn
Ġ19 80
Ġs ports
app areil
Ġcomp osition
Ġdirige ants
f euille
Ph oto
r aires
ta che
ĠCons ul
Ġpays age
+ +
ĠV alle
E E
at tend
Ġâĺ ı
ĠV oyage
M C
and ou
b ro
Ġj ui
Ġcomb in
ĠV I
Ġle cteurs
mos phe
Ġj oie
E AN
Ġp m
m ite
Ġcol or
t d
Ġr ond
ĠMar que
mar k
ien nes
Ġorganis ations
vo quer
ic ations
Ġcondam ne
ou f
Ġre mis
ĠR i
Ġ16 0
Ġal uminium
Ġport rait
tr ue
Ġin conn
ĠD I
t ain
utri tion
Ġf as
s olu
Ġ> >
F emme
ĠCh at
o ge
mocra tie
ma x
V ille
p ins
M ari
>â ĸ
ĠPh ot
ĠD ra
ag i
Ġlance ment
Car te
ĠD iv
g ence
ĠUS A
Ġref us
Ġ| <
Ġsmart phone
Ġe mail
conom ies
ĠMas ter
sive ment
Ġfac teurs
ari tion
Ġnature ls
Ġmili taires
Ar ch
Ġcontra ts
ĠK h
ĠAl pes
ast ron
ĠV ir
Ġser aient
Ġnouve aute
t ants
lon ge
Ġins cription
Ġprincip es
ĠBas ket
ch an
ĠC ours
ĠEx te
lect ro
e me
ci ales
ĠM ex
Ġver te
F C
Ġapp a
ĠC ali
Ġagric ole
ĠSac s
Ġp ire
com me
* <
L T
i as
B y
an tit
Ġbr ut
Ġac te
w p
Ġch ers
oit ure
s ac
ang lais
ex cell
Ġenvir ons
Ġob serve
ĠPre mium
ĠAc cessoires
ĠRen nes
th le
Ġcuis son
ĠG ard
Ġa teliers
Ġtrav ailleurs
Ġoc cident
riel s
it o
Ġar mes
Ġtoile tte
Ġchem ine
Ġconc ent
w eb
r ard
pis odes
Ġrapp orte
âĢ Ķ
ĠN u
em bourg
Ġt ort
p ot
lection ner
Ġdonne nt
Ġsoi gne
ĠCh ape
Ġ7 3
Ġmo bilite
Ġtrans formation
ĠRe p
% ,
M odi
ri ment
D en
ĠA h
ĠMaur ice
ĠB out
Ġ8 6
ĠMus ique
Ġpense z
ff et
Ġad j
A v
Ġofficie lle
h ension
ĠI V
ĠF ort
cl aire
fi ant
cri vain
Ġgri lle
Ġcherche urs
un k
Ġpos tes
Ġgross esse
Ġsug ge
Ñ ĥ
Ġ8 7
Ġar ts
ĠN om
Ġven u
oure use
Ġlog o
e ffect
cul aire
Ġb en
c f
Ġsomme t
ĠC G
le z
ĠPeu t
ĠF ig
Ġdis cussion
Ġpo che
Åĵ il
ab elle
Ġ199 2
Ġeng agement
ist res
is ent
Ġstru ctures
g round
g ler
G u
2 000
ĠF ore
Ġb allon
Ġcorrespond ant
Ġrela tive
Ġtra fic
ĠT H
ens es
Ġcommer ces
tes se
Ġoc t
Ġhy per
Ġin titule
qu are
cher cher
Ġmas que
Ġd ore
Ġs tu
ĠA ra
Ġchan tier
w ard
Ġfl ux
ĠD o
Ġenv ers
Ġv irus
Ġb ri
>| -<
ar tiste
ti g
cl air
Ġjourn aliste
ĠM ise
P l
Ġter r
Ġf ume
d ente
h ib
Ġpou ces
Ġexig ences
Ġch ou
Ġt w
accomp agne
Ġlim ites
e acute
Ġpren nent
u u
Ġmatch s
a ou
Ġpar lement
de d
Ġchac une
ĠM ali
c am
Ġv oc
Ġd onnant
Ġconsomm ateurs
ĠB oi
Ġv aisse
Ġinte llect
Ġâľ Ĩ
Ġdiv ision
Ġdos siers
ĠS em
x y
Ġpati ent
Ġt ris
Te ch
Ġp are
Ġfamili ale
Ġvi ce
Ġdes s
Ġc av
ves tir
Ġj an
g ust
Ġprofonde ur
ĠU p
ĠT TC
ĠC C
Ġpar alle
Ġfran ch
Ġfall ait
Ġbran che
g ul
Ġ( ...)<
Ġinf os
ris er
ĠS ab
Jou eur
Ġreconn aissance
Ġcon server
Ġrecru tement
S ac
aller y
cte d
rid ge
Ġtra duit
Ġexp osition
chau ffe
Ġra me
aw a
Ġcl asses
Ġspor tif
ori z
Ġau di
oin te
op hone
li sse
ĠChris tophe
appe lle
Ġculture l
U IT
o line
In de
Ġnour riture
200 4
Ġvic time
ron te
T H
Ġsenti r
0 01
ci des
Ġcent aines
C as
Ġsac re
Ġb et
Ġrej oint
E P
Ġsur f
Ġch iens
Ġb lin
Ġord onnance
Ġdom mage
se mb
ĠTra vail
ĠS oli
Ġro ck
Ġremar qu
Ġenvis age
rai rie
Ġo re
M ichel
Ġsou ci
f ul
Ġ} );
U tili
si gn
Ġenj eux
b urg
Ġf alse
Ġreconn u
c ale
lan tique
er ies
r r
Ġall ant
Ġterrit oires
Ġmonn aie
in age
ĠC i
r um
in ion
Ġbel ge
Ġam oureux
Ġatt ribue
ĠAr ts
Ġbanc aire
Ġpersonne ls
Ġcer tific
> @
Ġcompren ant
Ġmi roir
ON NE
Ġintern autes
Ġl ing
Ġcon serv
ĠP romo
v iennent
Ġis lam
Ġver y
B L
Ġa sp
Ġsupp rimer
Ð ²
Ġ9 8
qu ier
ci alistes
ĠS treet
B ay
ĠB usiness
ĠN ap
ĠE le
Ġs et
Ġcell ules
Ġpersonne lle
Ġ12 5
oy ant
om ique
vid ence
K E
li re
Ġd at
ti sse
Ġsour ire
Ġcal endrier
ĠMar ron
ĠSt ock
ĠPubli c
sent es
ĠEnf ant
Ġtra ce
ĠH ong
ĠF ra
s how
ĠQ ues
Ġmus ici
ĠAut res
Ġconn ue
jou tez
dis count
ru ption
b al
ur gie
ĠM il
ĠL ar
onn ier
ĠDire cteur
L iste
ĠH ouse
Ġdi alogue
Ġban ques
ĠL os
ĠGratu ite
Ġac tif
Ġprim aire
min in
ĠIn dust
à ¹
Ġten sion
ager ie
Ġs core
Ġclassi ques
sou dre
gion ale
Ġtrib unal
cou pe
is tiques
' );
Ġcol ore
anim ation
Ġliqu ide
ĠC ad
Ġbas es
Ġs tim
Ġco des
Ġentre r
as on
ĠM ade
v ente
ĠToute fois
Ġen ne
id a
Ġapp ort
ocu ment
Ġtu y
Ġv ins
12 3
ĠT ex
enti ne
Cl ass
AC E
Ġ199 3
t rie
k g
ci ation
ĠS O
N ombre
Ġimp orte
Ġf lu
m ages
end er
h in
Ġab us
Ġillus tre
Ġte mpor
oris er
M W
Ġfra ppe
S te
Ġcandid ature
g as
ili c
Ġtal ent
Ġco he
z en
Ġp ant
au jourd
ente lle
EN CE
Ġaur ont
Ġho tel
Ġad ore
T O
M M
h al
ĠF ant
imp o
lis me
sent ants
ĠG ro
ĠP ower
Ġ urgence
er ts
ur o
ĠD ig
pre neur
ĠMari age
ĠR ab
Ġcon d
Ġlang age
cu its
ĠFran k
ou ille
Ġqu atrie
V ide
Ġapp lic
c ode
sh op
Ġdi pl
he l
ĠMag as
ĠCh ic
âĢ º
ĠF u
Ġche fs
E m
Com m
Ġdi ame
te nez
ac le
Ġt ours
ro log
Ġf ans
Ġ19 70
ov ation
Ġcherche z
ass ade
Ġf lex
n al
Ġsou cis
Ġj et
Ġs che
che c
Ġiden tifie
Ġtherm ique
b s
n ale
T er
ag on
m ai
Ag ence
ĠN ote
onn ie
ĠE ric
ĠG h
Ġf le
B eau
Ġcont ribue
T P
d ant
ĠD ar
ĠA vril
ĠG ouver
ĠEx emple
h ouse
Ġcon tenus
Ġp on
mer ci
oot h
w an
ĠF ar
Ġru es
!! <
ĠB O
Ġch apitre
ĠO N
ar te
Ġexcell ente
Ġremer cie
ou ge
Ġvi ande
se y
Ġvis ant
Ġgaranti r
Ġ199 1
O rient
ĠAl bert
a ke
ĠLet tre
i al
ver sion
Ġaccue illir
M et
Ġform er
ĠJ anvier
it ant
p c
ĠB et
di al
Ġd ir
Ġfil tre
ri ble
rai nes
v ues
ust om
ist ante
Ġp ole
Ġ< /
ĠBon jour
f ile
ĠRen contres
Chau diere
Ġmob iles
V oila
" );
Ġl its
ci ent
Ġport ail
ri ers
Ġchans ons
v oi
ĠPAR IS
Ġ9 7
u ent
ati ne
Ġboi te
ĠF leur
ĠSe con
ĠD am
ĠCan ape
ĠGeor ge
Ġaug mentation
ĠP oint
ĠG ros
Ġsor ties
Ġaux que
oli tique
ĠS ER
Ce la
Ġque ls
Ġsimp li
Ġr ares
tern ite
ti sation
Ġre port
Ġmand at
Ġali ments
Ġdim ensions
Ġvi agra
enti alite
Ġbu ts
ĠPar lement
ĠD roit
Ġp ay
Ġinstitu tions
Ġapp roprie
= \"
ite d
illi ers
n ot
Ġal ent
Ġf ol
t w
Ġl in
Ġattend ant
" )
ĠGu illaume
Ġp ul
tis tes
Ġti rer
Ġtour ner
ĠM ON
V ie
t v
Ġqu itter
Ġcou vre
Ġd orm
Ġ7 1
ony me
TI C
Ġcour rier
ra k
Ġ9 1
Ġcon cep
Ġatt ache
ĠM icro
+ !+[]
ĠS tu
Ġpl ombier
ar rie
ar is
ass ins
Ġcant on
ĠB asse
ĠAnt oine
Ġsol s
Ġ8 2
Ġpro voque
.. ...
EL L
ĠR iv
ibe x
comm ande
ill ard
J ac
tes te
N ume
ĠR ol
ens ation
and o
Ġb loque
ĠDis ney
Ġcha mps
H otels
V ol
ĠM iche
Ġter res
Ġmas cu
Ġaim er
ĠB oul
oub lie
erm ain
Ġinte ra
ri au
ult ures
co lle
Ġrela tives
Ġp istes
we en
ch t
qu illage
?? ??
Ġrela tivement
ti ts
tudi er
', '
Ġpropos ent
Ġmat he
Ġl ive
Ġmar ine
Ġj amb
Ġoff rant
par tition
andou lie
Î ¹
i ration
Poste d
Ġscol aires
Ġa ls
E l
ĠH ug
om es
qu ot
ac ter
Ġm agne
ĠG az
Ġrou ges
Ġb ref
Ġphot ographie
ar ts
p rice
Ġpopul ations
lig ht
li ts
V C
iction naire
Ġgre c
l oc
ve il
Ġass oci
ĠTV A
Ġretour ne
R es
Ġaccue ille
Ġce inture
Ġses sion
ĠO R
P G
ur ances
Ġtrans mission
Ġpein tre
Pers onn
ĠØ§ ÙĦ
S ou
mon ter
E X
Ġconf lit
Ġn ar
": [
Ġ7 00
arge ur
Ġclub s
b ra
Ġâ Ķ
ĠL uxe
Ġcours es
li ant
ĠDire ction
Ġrelig ion
Ġpoi gne
ĠP RE
que ur
Ġoc cas
inf os
ĠCh i
Ġprop ositions
7 00
las tique
ĠT en
Ġpuiss ant
ĠR am
Ġcop ie
Ġsouvenir s
ex emple
Ġinf luence
Ġvoul ais
ag en
ĠP ack
ne uve
Ġm our
ller ie
p ression
ĠDomin ique
arch itecture
gra ph
Ġcon duire
Ġv on
g age
P DF
Ġb ureaux
Ġp op
r ong
ĠJu lien
dic ament
si fs
s age
ange ment
B en
ax e
ĠCro ix
de urs
Ġcon tenant
pons able
Ġhy dro
ĠAr gent
Ġag ent
D ES
tro duction
Ġphilos ophie
ĠSt and
ĠQ uelle
T RE
ĠRestaur ant
Ġdess ins
ch estre
Ġar tif
vi es
al th
Ġl unettes
Ġali mentaires
Ġmassi f
Ġb ie
habit ude
Ġrespe cte
ĠR ap
d ents
Ġlab el
ur i
ĠT i
Ġsigni fic
Ġh el
Ġaccue ill
Ġsign ature
S D
ĠMac ron
om an
Ġmai ll
ĠJu illet
Ġti me
emp lo
Se ine
ces seur
T aille
ĠA e
Ġb ap
Ġal lie
imp act
Ġa chats
tr uire
eff icacite
A jouter
ĠDer nie
Ġsan itaire
en u
ĠS ky
end s
ĠG T
ĠChe z
Ġindust rielle
Ġpar ois
Ġar bres
ĠPers onne
or itaire
Ġtele charger
g g
Ġin su
Ġmoder nes
se z
Ġhos pit
ex ception
av re
Ġbe urre
ag riculture
ĠPro tection
ci alite
pl acer
Ġendro its
ĠBou tique
al lateur
ĠB ob
ir ant
ame l
F re
Ġcolle ctive
ĠL ois
ro ne
p ic
Ġa id
Ġexp liquer
IS BN
av ion
ĠM iss
ĠH auts
ĠRe ne
P uis
Ġoff ici
Ne w
ai m
Ġexp ert
ĠF ille
meric an
val uer
in novation
Ġst atistiques
Ġmodi fications
Ġpol lu
ad ers
ĠPe ter
M AN
1 30
Ġ( ...)
Ġaccomp agner
Ġexemp l
Ġcou cher
Ġsen sible
Ġsolid arite
n av
end ar
ine l
Ġco ach
Ġvali de
ĠMus ic
ok er
ĠS aison
' :
Ġau quel
S itue
Ġ3 60
on ique
G R
f is
Ġac tifs
Ġv ul
ĠV intage
Ġapp ris
be lle
Ġmo tif
p ore
M oi
Ġ$ (
ci alement
Ġre con
ch ers
Ġins titution
ĠProfes sionne
opp osition
Ġhas ard
gy pte
Ġra l
Ġw ork
ĠGal axy
ĠFer me
Ġdis cre
Ġvide o
Ġconsult ation
Ì Ĭ
gor y
ori age
ĠA z
Ġrec y
Ġamb iance
) {
In st
Ġann uel
Ġis ole
Ġsuffis amment
ĠMad rid
Ġtrou bles
l ons
m us
inst ru
iss ait
ĠP endant
f rance
ã Ģ
ĠSe ptembre
ĠWilli am
Ġ^^ <
Ġno w
A ll
ĠW ikipe
oul d
Ġver sions
on a
Ġall ait
ĠV acances
tal lique
Ġblanc s
Ġtran sition
Ġjus tement
ĠOct obre
Ġeur o
P lan
Ġfour ni
Ġsymp to
L au
f um
Ġrep rises
Ġspi rit
g rid
entre prises
h yp
ĠChe v
ille z
A lex
Ġcorre ctement
Ñ ı
ĠW C
ĠC amb
D em
Ġm ousse
Ġcont ent
ĠS et
cu les
Ġc ord
ĠEnf ants
se urs
S U
Co lle
ĠIs rae
ĠP ot
Ġcommun aut
ĠMo di
Ġ ]
par gne
F L
Ġin verse
Ġque lles
Liv raison
ber ge
Ġmain tien
ĠRo che
Ġno tion
ri ver
ĠEntre prise
t anche
bas tien
ĠAc ce
ĠR el
T o
am ant
ĠT R
ĠD ub
ĠA si
ganis ation
B ra
ab o
ais ie
R estaur
Ġor ange
vir onnement
G A
Ġcommuni quer
Ġrembourse ment
Ġ9 6
12 5
s ans
Ġme ner
ĠB us
Ġglob ale
oise aux
Ġde venue
ĠNo vembre
im es
ĠC AN
Ġad oles
Ġab andonne
ĠS en
Ġd iversite
ĠS imp
ĠAu cun
ĠAu tre
ly mp
Ġse mi
ĠLo ve
ĠJeu nes
Ġpl as
i ze
av enture
ch appe
Ġab onne
ner gies
ab eth
d ures
ĠA tt
Ġinf o
F er
ordin aire
Ġso yez
Åĵ urs
b en
y ne
Ġvoi es
Ġb assin
Ġcer tifie
Ġsig nes
E B
ou che
Ġimp act
Ġmaje ur
Ġab out
Ġper tinen
ĠAl ge
ĠNation ale
ĠL or
Ġphra se
Ġv enti
ĠC M
cend ie
Ġ om
ĠS us
Ġfaud rait
P al
Ġaspect s
Ġcy lin
L u
Ġsal aire
X X
Ġser re
Ġsc and
Ġcon tinent
bo ard
Ġpoursu ivre
atta que
Ġ[# ]<
Ġtradition nelle
ĠS mart
ri v
Ġgra s
et tes
t onne
Ġtou cher
um ule
m are
Ġfati gue
ĠC ade
p al
Mar ne
ĠB ir
Ġpouvoir s
17 0
Ġsa ur
ind le
un ique
Ġalent ours
c ru
ĠDen is
Ġcas ino
Ġmo teurs
ien te
ĠH T
Ġ198 9
im s
mar ches
fic es
Ġpar cour
Ġl ai
Con se
ĠS cience
Ġac teur
Ġp c
ro se
Ġ9 00
is mes
ĠM id
Ġvit rage
ĠD ist
ĠD re
Ġoff rent
vi a
Ġvo lets
Ġpoursu it
Ġjudici aire
ĠLe ur
ĠEs c
ĠG old
ar ma
Ġaff ir
OU L
Ġrappe ler
ric aines
u ts
ins crire
ĠS tudio
Ġ: )<
Ġappar tient
p ng
Ġimp rimer
Ġcontempor ain
Ġincont ourn
D ire
ĠPar mi
ĠH P
ĠB ut
i fication
Ġan gl
G rand
]+ (
mo tions
Ġcou liss
occup ation
lect roniques
ĠCa fe
ord an
Ġche v
Ġartis ans
oeu vre
ĠðŁ Ļ
ouss in
um ber
allen ge
onal d
ĠCel ui
Ġm orte
Ġh istoires
ĠH il
Ġsour is
I mage
p ide
ĠN ations
S a
Ġtru c
ĠAn glais
ff er
EN S
Ġf ili
> Â©
ĠC enter
oxy d
A ir
ar c
S pe
tn am
le tte
f ield
ĠBarce lone
cess oire
v oire
Ġnature lles
ĠG ol
ci o
end roit
aimer ais
or ne
Ġn ai
Ġenseign ants
Ġt v
. )<
Ġqu art
Ġa ve
ĠEmp loi
Ġv el
âĢ ĺ
ĠB la
oll ande
Ġd ents
Ġru pture
Ġla st
ĠL ive
ale t
Ġcompati ble
me dia
par avant
Ġme urt
er tes
S M
er oun
ĠS H
g ou
Ġ19 60
ĠCol omb
TI F
Ġconv ivi
Ġprop or
ĠS ing
Ġtrans fe
Pe tit
Ġanim al
Ġmor ceaux
ĠBlan che
ĠCe ci
c ence
ch antill
al ph
A chat
A z
TI QUE
Ġm ass
Ġ ign
o ver
ĠEn suite
d or
Ġconc l
Ġb less
ric o
Ġad min
G O
ĠImm obilier
ĠF L
ĠE P
Ġ* *
glement ation
m g
Ġf ur
ĠTunis ie
Ġh ref
h ol
et ooth
Ġre monte
t rique
Ġmet tant
ĠOff ice
Ġne r
Ġ8 1
ash ington
Ġam ateurs
ĠT ab
ĠJ our
L oire
av ier
Ġcomb ine
Ġun s
ĠG ue
ĠI mage
Ġf ie
Ġfabric ants
ĠN ath
rat ures
h h
Ġespagn ol
Ġj au
Ġtable tte
y right
An dre
ĠPant alon
H z
Ġa qu
Ġl inge
Ġd ent
j ac
Ġp oit
ni al
Ġpois son
ĠB is
ĠEx pe
ĠT rib
ĠB ox
Ġam ie
ĠUl tra
as ser
U P
Ac tivite
ĠC atherine
Ġrep rend
ch al
Ġemp lois
Ġmet tent
B el
ĠC u
eng age
Ġloc ations
oub li
ati c
ĠPlus ieurs
ĠSe cre
ĠC P
!! !<
Ġf lui
man ie
Ġoc cup
B onne
oi gne
C ON
tab ilite
cid ents
2 20
tic ol
ign an
Ġnavig ateur
Ġ range
m al
C R
Ġren de
ti a
ĠMach ine
ordin ateur
ente ment
f aite
Ġg uer
Ch amp
en cie
Ġcompare r
T itre
rain tes
ĠM ix
sid ente
Ġv illages
at ri
ex iste
ro t
Ġindivid uel
ĠH i
Ġm assage
Ġlabor atoire
ri che
ouv rir
ĠQuel ques
ot age
mar rage
h and
Ġcon ten
Ġsur v
B ibliographie
In formations
ah a
ĠD ure
Ġes tim
Ġ* **
om o
b aye
Ġdom es
Ġsatisf action
Ġbaign oire
Ġadministra tif
Ġlib res
ĠF aites
du cteur
S H
ive au
Ġpro gre
ĠD un
ĠL ight
ĠS yn
Ġv s
Ġciv il
Ġch ronique
ģ Ħ
Ġh ommage
z ie
oi gn
Ġtend ances
Ġg lu
Ġcolle ctions
Su pp
G re
Ġin gre
ĠLux embourg
Ġp ub
ord er
An n
SI ON
ĠMad ame
Ġsomme il
Ġbud ge
Ġt ub
Ġvoul ait
Ġ% <
Ġcircons t
ograph iques
av i
Ġav enture
Ġorganis mes
Ġbu lle
Ġp ositif
Ġdire cte
ĠEn semble
Ġsympath ique
ĠB ag
ver gne
Ġfab ri
b iz
ĠA mb
h op
ĠR oi
i at
or ges
Ġconne cter
En f
Ġf ier
ĠSp a
p res
Ġco que
ĠFRAN CE
ĠPas cal
Ġdis ent
ĠG U
ĠSe igneur
ck er
Ġaffe cte
Ġan te
Ġca se
ĠG are
ate lier
ai ner
Ġd onn
Ġsac s
Ġpleine ment
Ġhandic ape
ph oto
E r
h ome
Ġfon ce
hen tique
Ġinternation aux
d b
Mar tin
Ġrap ides
ss ons
si ze
Ġrelig ieux
Ġco le
mi ers
Ġcarre lage
Ġv ou
ss es
p ad
s ar
c ate
ĠG ri
up load
ON E
P AR
â ģĦ
onne z
Ġali mentation
ite ur
Ġac cuse
Ġbi ais
og o
Ġre voir
Ġsecond aire
Ġ3 50
M AR
Ġman agement
Ġhum an
ĠJ on
paisse ur
Ġphysi ques
P eu
iss ue
200 3
c ologie
Ġbal con
h as
ro ck
ĠJ ourne
Ġtrim estre
B R
Ġg ren
al able
Ġmunicip alite
sid ents
Ġd a
Ġinf ir
ren ant
ul ations
Ġent oure
ist a
O c
ge ot
Ġconfig uration
min aire
ĠFoot ball
Ġc ous
Ġtax e
Nouve lle
Ġent endre
ĠEm manuel
ĠFab ric
ĠMo h
ĠA ct
Ġv oile
Ġmo tifs
D om
ĠMar k
ch y
li ce
M ER
Ġran g
m ag
Ġagric oles
g ende
Ġrep ose
k u
ĠM ass
ĠNeu f
s ant
ls ace
Ġbon us
ex tre
Ġalle mande
Ġsil ence
Ġtranqu ille
or n
Ġpl ages
Ġaur aient
ĠFond ation
ĠMan agement
Ġdis cuter
S L
Ġun iversite
f rige
Ìģ /
autom ne
ĠIm ages
Ġtrou vez
Ġob tient
ĠPro gramme
Ġquar tiers
Ġdist ribu
ĠB le
al d
ĠB A
Ġculture lle
AR L
ĠW in
Ġg i
Inter net
A tt
pau le
Ġacces sibles
Ġh u
iss ante
Ġm am
Ġsupp rime
Ġpi ano
b ats
ĠAss ociation
Ġsemb lent
N ote
ge l
ĠMais ons
Re cherche
Ġpanne aux
at ou
Ġne z
ĠB ud
o z
om a
dic aux
ĠB ase
E ss
tro le
ĠR ac
in quie
ar que
Ġ( )
Ġan g
Ġnature llement
Ġpar oles
ve iller
o tique
Ġb usiness
Ġpren ant
Ġche vaux
Ġa xe
ien ce
ĠBot tines
Ġl une
G U
Ġancien nes
Ġdouce ur
ĠK en
Ġjan v
Ġastu ces
ĠAff aires
view s
Ġ198 8
ho tel
ĠSu ite
Ġex ercices
Lors que
f endre
Ġass iste
Ġse cours
ĠAr n
ĠS exe
Ġn orme
ĠD j
ov a
ĠP iscine
N ES
ĠðŁĻ Ĥ
Ġretour ner
Ġa ise
ĠC OL
Ġex ce
nb sp
Ġgal erie
ĠC ler
Ġla te
Ġg on
i P
Ġdiffic iles
uni or
Ġress enti
p u
Ġbar be
Ġtrom pe
Ġp s
ĠG ame
L C
Ġj ardins
C entre
Ġl ol
Ġcer veau
x ion
ate aux
ĠB D
ĠCh ambres
Ġlut ter
(" #
Ġfavoris er
Ġcommen c
mp er
Ġdi abe
ĠB io
f ore
p rie
ĠS el
ĠPour tant
ri al
ri ennes
g ts
ĠIn formations
Ġfru it
Ġs atel
o che
Ġco lis
Ġmag ique
ĠD C
Ġaccue illi
Ġrec ense
Ġp seud
ĠGren oble
l li
Ġv entre
ĠPal ais
Nouve au
lab oration
Ġsin ce
Ġsais ons
ĠA st
ĠA P
Ġ1 15
Ġchar bon
Ġcomm ander
Ġappar tements
ĠI ci
Ġdes cend
S p
ori al
tique ttes
si li
Ġtit ulaire
Ġra f
ĠTh ierry
Ġerre urs
Ġbou cle
Ġiss us
Ġv rais
1 000
Ġutilis ateur
ĠM obile
D onc
ĠFor ce
ine ment
ĠF ront
pend ante
Ġtrans former
mocra tique
-- -
Ġva peur
ĠTe mps
Ġri re
Ġtrai tements
Ġsau ver
fe ct
ak a
Ġspor tifs
Ġrou tes
ov ie
Ġo pportunite
Ġpl acer
du es
M ain
ĠR a
Ġch ances
ĠV ar
os a
id s
Ġar che
Ġpro ven
ĠN O
Den is
ĠL and
Ġman uel
Ġmod alite
Ġmus ical
Ġf oule
lim ite
ĠRes ort
Ġtour istique
S alle
ul a
ĠB ad
he re
h s
Ġmilli on
ĠM r
ri ens
ĠT al
H er
ce des
nt ry
Ac ade
Ġmunicip al
Ġat tire
ĠCom mand
ĠC ast
Ġtourn oi
Loc alisation
me uble
ĠM anteau
Ġrais onn
ĠAlex andre
ĠBrun o
ĠSt ore
l t
Ġad vers
h ip
Ġdocu mentaire
Ġorig ine
Ġdange reux
Ġres semb
vi dent
ond a
ĠI r
Ġv id
ĠBe ige
Cl aude
d an
Ġopp ose
Ġar tiste
Ġpro cure
form atique
oli n
Ġtoi lettes
com ment
as es
ĠChe f
Ã ·
Ġin con
ĠR u
im a
let ter
re te
v oy
ak er
ĠJe ans
ĠPortug al
ĠT it
Ġdipl om
Jac ques
Ġautre ment
Ġn at
u ie
ĠC ris
ann a
eng agement
ĠTru mp
no ve
n ats
put ation
Ġs w
y ou
ĠG ui
ouv rage
Ġmet al
t z
Ġcath olique
ĠV oy
ĠTur quie
ran de
ru d
ĠV ende
new s
ar th
2 30
Ġcommerci aux
ĠF ac
Ġindivid uelle
Ġten nis
Ġcompag nies
g r
quival ent
Ġcollabor ateurs
Ġlim iter
ĠE au
op ath
L ong
R ob
Ġrecherche z
ER E
Ġen ch
ĠA venue
moign age
Ġincroy able
P T
ĠX IX
Ġs ch
ier ge
ĠL une
Ġ: )
ci der
Ġcas que
Ġemp lacement
Ġfor fait
Ġsouhait ent
Ġmo dule
inter pre
ob s
qui p
Ġsouff le
01 0
ricol age
ori zon
ĠLond on
Ġmobili er
Ġtra jet
Ġsol des
Ġeffic aces
ĠM ah
it ent
Ġmusic ale
si re
c aire
w in
Ġsold ats
onne rie
Ġconst at
tellig ence
di ct
LE T
k h
quit aine
ĠJ oe
osi tifs
Ġconstru cteur
Ġh al
volu er
i j
Ġg liss
s ance
ĠA ussi
Ġfi able
ĠW il
Ġinter dit
ĠS M
ĠSneak ers
ĠM az
Ġexp loi
' <
F I
gra de
S ous
du les
Ġres semble
ili ppe
Ġcarb one
Ġara be
Ġcer tes
ĠRe mp
velo pp
Ġlumine ux
Ġadministra tive
D V
ou vre
ri or
M us
Ġencour age
libat aires
Ġ( Â«
ĠNorm andie
Ġgour mand
Ġrep ris
ĠT a
ĠDire ct
M in
Ġto x
ĠD ay
A IRE
2 40
Ġc ig
Ser vice
pas ser
Ġin vit
AC K
Ġin car
ĠA che
ati vite
idi er
Ġbis ous
ĠC la
Ġmaxim ale
Ġch ron
ĠW ork
ĠB ibliothe
ol er
u eux
ĠInst allation
b out
lo ge
cell ent
Ġouv rages
Ġcont ribution
Ġfor tes
od ge
Ch er
sent ations
Y S
Ġdev ons
cis er
Ġy e
A K
Ġperspe ctive
27 0
trop ole
Ġfl or
Ġmate las
ac quisition
c ois
Ġitali enne
n ar
Ġju il
Ġ2 33
dagog ique
Ġmanif estations
l la
ĠRen ault
Ġjourn alistes
Ġpays ages
Î ¿
ci le
Ġle c
ter dam
Ġpois sons
l ang
en ay
ĠG as
Ġsho pping
Ġclin ique
tic k
ĠLum ie
y es
vo ie
>âĢ Ķ
ĠH ollande
ĠSu pp
p us
lob al
Ġcou per
Ġsupp orter
Ġav er
P ub
Ġress ort
Ġin u
Ġconstitu ent
Ġav ent
qu ite
Ġconc assage
Ġpoit rine
gion ales
ĠMar cel
ro b
c onne
Ġcli quant
ĠJ am
ĠV euillez
Ġpron once
Ġl ux
ĠW ashington
ĠCom merce
pa rent
Ġfort s
ch anger
ĠSim on
ri phe
o ch
rim ente
c ense
ĠM ER
ĠRe ad
Ġaj out
on omie
AB LE
oy ers
ĠV el
ĠâĶ Ĥ
qu ise
om s
Ġnorm ale
q w
Ġre leve
ĠDis ponible
Ġop en
ĠCas ual
Ġla mpe
ĠP yre
oc key
ĠMar ia
ko zy
Ġ198 6
Ġl aine
ĠF rais
ĠâĨĴ <
ve y
Ġhau ts
ĠLang ue
ac cro
ĠN orth
amb iance
Ġp li
ĠOu est
Ġtradition nel
Ġprogram mation
Ġar g
Ġgratu ites
ig ration
r d
Ch aque
v y
ac ts
ĠH a
Ġd ose
fu gie
Ġinvesti ssement
Ġcommerci ales
Ġmag ie
ap s
ar n
. ),
Ġp ommes
Ġar gu
Ġre tirer
Ġne ur
Ġsupp ose
ĠN ic
Ġrela x
M ag
ĠF ord
N oir
comp ense
K e
ic ale
Ġsav ent
ĠP AS
TION S
ĠTour isme
Ġun i
T oute
imm obilier
Ġguit are
Ġp p
Ġblin de
Ġle ve
ĠMal gre
ĠAg ence
p ass
M ai
2 10
A cheter
P orte
Ġconsul tez
ur ie
ĠS ub
Ġorganis er
ĠCol or
ĠC oton
Ġcan al
Ġsen sibili
ma ne
ad or
Ġsp ati
Ġre tire
oy s
Ġglob al
Ġt uer
= >
f et
n u
ĠV a
Ġc ultures
P O
ĠPar ce
ir ts
ĠY e
A insi
b lanc
ĠP ologne
Ġe Bay
Ġtour istiques
ĠGouver nement
D ame
ĠR ub
ĠL ien
C onne
ar ticles
Ġprot oc
Ġcontempor aine
Ġmonu ments
Ġact ualite
RAN D
ir l
Ġ2 20
ĠJ er
Ġmanif estation
ĠJ une
ci es
c lin
te m
ti lle
Ġdom mages
Ġpal ais
Ġag ences
ses sion
P a
ĠM un
Ġinter ventions
ĠT ok
Ġmet s
Ġvie ille
ĠCali for
Ġimp o
ĠLe d
ĠH an
st yle
Ġ ÌĪ
cent es
Ġi kea
C ES
Ġv ib
Ġs m
Ġm ons
Ġutilise z
ĠCon fort
Ġid entite
Ġroy aume
Ġride au
b n
d rale
ĠMar ne
g nes
Al ge
C ert
ĠP A
ĠSt ation
Ġac cident
I de
Ġnation ales
organis me
ĠJus qu
Ret our
Ġcomm and
le d
l able
Ġa perc
r est
Ġâ Ļ¥
Aff icher
rig ue
mp h
" ;
Ġdoi gts
L ien
Ġen cad
R em
c line
Ġsecond aires
45 6
âĢ ľ
pe ction
C our
Ġis olation
ĠCan nes
Ġcro ix
h aus
ou er
ĠUn ique
l otte
ĠV oila
Ġje an
Ġann uelle
Ġre ct
Ġoff ice
ĠU s
IN I
Ġ áĦ
Ġra ff
at tente
ad s
Ġt ables
P N
Ġi phone
ĠF ou
ari a
Ġre par
ĠA ide
ĠU R
Ġs ombre
ĠP il
ĠE L
rou ille
Ġter rains
t ale
ĠP opul
od a
Ġvois ins
ile t
ĠC ri
ĠF ire
gisla tives
ress ante
ĠLu c
OU V
Ġe mme
Ġcon vers
le m
ĠH iver
ĠB ang
ĠIn di
Ġc oiffure
it ale
ĠK er
Ġp is
Ġ7 50
M ots
aute uil
Ġcat astro
N et
m oires
Ġf ilie
ĠQu ant
Ġfaute uil
ĠMar y
Ġ198 7
Ġindustriel s
Ġli ke
ric ul
Ġ- >
ĠC AP
gl ome
es tern
S K
ĠBar b
ci r
ĠS treaming
ĠAr g
Ġven ue
Ġf oyer
ĠR ide
car pins
Ġfut ure
ĠM ilan
Ġe m
ĠT el
Ġrou lants
Ġju gement
ĠPl age
p anne
ĠGal erie
ĠMin iste
Entre prise
ff is
ĠSy rie
z u
Ġdisting ue
adap ter
ĠCan adi
um ul
env oi
p ine
ĠP et
Ġviv ent
ĠG el
at ar
si a
Ġ198 4
vis ible
Ġtrou pes
Ġ: -
eu f
Ġrou es
$ [
ti tes
o ke
Ġcompos ants
ĠDes cription
moign ages
ĠForm at
ĠCommun aute
ess entiel
aut orite
Ġrentre r
p oint
Ġper ce
ge ois
Ġprof ond
F ace
val uations
Ġb alle
ĠT F
be au
h ous
ilic one
ĠConc ours
ĠAr ticles
M ise
h ai
Ġcau ses
v oyer
Ġt onnes
t rans
Ġprin ce
ch app
Ġclimati sation
ĠUnivers ity
d ont
ĠD ess
I e
ĠG PS
Ġess ais
Ġ198 5
Ġtra ces
w q
fe cture
Ġop timis
Ġcontac ts
ĠEsp ace
Ġt omb
ie uses
ĠF ourn
Ġ0 75
p osition
m aison
ĠG illes
]+ $[
con que
u di
ĠN ot
Ġauton ome
ĠP O
ĠGR AT
ign ons
Ġp aire
Ġp vc
Ġav enue
ari um
ĠEn glish
Ġinter me
ĠCont act
hum anite
Ġ ),
ite cte
Ġt ube
Ġf es
Ġcad res
ric ot
Ġexception nel
y ste
Ġb run
ĠRe al
app roche
Ġsign al
Ġpre nez
Ġpl ay
effect uer
Ġfrom age
R C
Ġab ou
Ġ19 78
Ġi tine
g oci
cou v
ĠF al
lectri cien
ĠLam pe
tif ul
Ġcap ture
Ġsau ce
Ġrec ul
in oise
ĠT an
Ġal ge
Ġinvesti sse
T F
Ġbas ket
Ġsign ale
ur iers
ĠY ves
b ul
Q uelle
ĠI le
Ġav ion
H D
b d
v ons
an isme
Ġra chat
qu ait
Æ Ĵ
Ġwh ich
Ġspor tive
Ġsens ation
oe il
Ġ20 21
m ate
ĠPr intemps
Ġconn us
ĠM au
Ġge l
ĠAnge les
Ġunivers itaire
Ġindivid us
ĠV au
Ġc aisse
Ġfin ances
Ġre quis
di ger
ĠCl asse
p orte
ĠMar ch
loi gne
Ġl un
ĠV oiture
ĠW ith
Ġutili sent
couver tes
ĠT ours
c ss
Ġchaleure ux
le vage
Ġpar quet
Ġprodu cteurs
Ġense igne
ĠAnt h
AN G
Ġcol onne
Ġboute ille
[ /
Ġp y
charge z
Ġdiz aine
ĠFond s
Ġm ette
Ġdiz aines
Ġtiss us
onn ais
Ġav ocat
mis s
Ġsou lig
ĠPl at
que ttes
ĠF iche
ĠT alon
cla me
ĠT r
Ġ, <
Ġdispar ai
ĠT ags
ĠT oile
ĠX L
ve d
uy er
enregistre ment
vi ers
ro e
O O
Ġf ib
ĠR EN
Ġman quer
ĠP ay
ĠR ien
Ġcit ron
ĠV ill
out chou
Ġrapp roche
Ñ Į
Ġcli matique
ĠB es
Ġv intage
l ac
ĠV olet
place ments
ĠVer sion
om mer
ĠClassi c
op te
ĠCas ino
A I
ĠBourg ogne
Ġbout ons
Au tre
asse mble
Ġoblig ations
t rai
rastru ctures
Ġfro ide
om p
Ġprom en
ĠRe f
Ġp ath
Ġdiv ise
Ġurb aine
Ġde tte
pert oire
A Z
it z
ab ri
M eu
ĠRe vue
Ġter ror
ĠCe lle
g ht
Ġexception nelle
tin a
Ìģ ...<
ri ts
Ġfin ition
ordin ation
ĠH ard
ia ne
Ġco ol
ser tion
l ar
Ġ( -
ĠCh am
ĠCor se
N ame
v ages
op er
Ġlaisse z
olog ues
Ġmar ron
Ġrela tif
ĠM ans
2 12
th ur
ĠMa j
Ġdes ser
Ġav enir
20 01
for um
Ġatt a
ĠC ase
ou ne
ĠM ONT
Ġra b
Ġrest ant
ĠB asses
Ġsou ver
Ġra yon
li sation
Ġofficie llement
Ġh igh
Ġkm Ho
J us
c ut
ose arch
part ment
OR D
ĠMan uel
Ġsuper ficie
Ġenf ance
AM P
Ġfi bre
Ġri z
ĠH ousse
ane l
moi gne
ĠS ophie
ĠLi fe
Ġmou lin
D T
ci aux
ĠIs land
ÌĤ âĤ¬
Ġlarge ur
Ġexer ce
ĠRog er
n omme
ĠV ienne
Ġch ic
li o
Ġchau sse
initi ative
Ġpne us
d al
andis es
Ġpat ri
Ġhyp othe
ĠMain tenant
C ours
Ġ198 1
N O
Ġriches se
s ist
Ġsug ges
ĠCour se
Ġcon tente
Ġr ur
ĠP sych
art he
ĠSu pport
Ġveu illez
>âĨ Ĳ
it or
M ate
H y
ris on
ĠBeau coup
duc teurs
Ġtable aux
Ġprom ouvoir
rence ment
ig osearch
ref our
R ho
ĠTe am
al cool
C P
ph ine
Ġb ad
Ġcondu cteur
f on
ĠT rain
Ġsupport s
, ...
Ġrappe l
Ġs and
Ġnorm alement
Ġv esti
Ġg olf
qu a
T our
Mar c
Ġpubli er
ĠN at
ĠMet al
Ġaut hor
Ġcont ribuer
ĠIn sp
pend ants
vent uellement
ĠM aill
10 5
Ġurb ain
rali se
S ans
Ġpl omb
ĠT am
pare z
Ġrecher cher
Ġproch aines
ĠE lect
Ġfonction ner
ph es
ter nel
om i
ĠD ark
Ġp es
ĠExp ress
lin aire
Ġau paravant
ĠP ER
Ġcons ole
D G
Ġcanadi en
ĠR od
ĠAn gleterre
Ġser vie
S au
we ar
Ġass ainissement
Ġess ai
Ġex ercice
ĠE v
Ġan gle
F E
f eu
Ġence inte
bu ts
ĠAr rive
ab a
An gleterre
Ġpanne au
outchou c
li ssement
ĠM B
p lan
J eux
Å Ĵ
ĠP uma
Ġm ira
ĠRun ning
Ġame ne
se e
contra cte
if ie
Ġinf lu
u tique
lab ore
pre uves
Ġbron ze
Ġa si
Ġd ite
Ġf is
IS ON
ĠK i
ĠP U
B ois
ĠT alons
Ġconse illers
form ite
Ac ce
Ġhy dra
Ġnett oyer
Ġvoud rais
Ġm os
Ġh oriz
ex amen
ul g
Ġma ternelle
Ð ¼
ti tions
F aire
Ġprodu cteur
Ren contre
Quel ques
di at
Ġla ver
Ñ ĭ
Ġdisp ositifs
An ti
Ġsus pen
I CH
Ġcompren ds
Ġsol de
ĠR y
ĠPe inture
Ġtran che
n il
oxyd able
Ġsen i
ĠLi bre
Ġfame ux
Ġver tu
g iques
ĠPar fum
Ġexp li
ĠFont aine
Ġmix te
ce tte
P RO
ĠGre y
ale m
9 78
Ġcompar aison
ĠV iv
ĠMagas in
ĠS tat
titu des
g rand
Ġeffic acite
Ġsais ir
cri tes
Ġci alis
Ġno el
ĠDom aine
rim ante
Ġprog ression
Ġg ain
Ġret urn
in aires
ĠCH F
ac les
Ġop tique
on dre
Ġapp rend
Ġolymp iques
Ġexclus ivement
oc cupe
Ġc ost
qu ente
Ġn a
ĠM oto
Can ada
P ie
end ra
ĠN ancy
Ġven us
ĠSm ith
ĠCamp ing
ĠSon y
Ġsecre ts
ales tin
Ġ4 50
L L
3 50
t ter
Ġc ali
f it
Ġnation aux
Ġlour d
ess ayer
l ers
a jouter
W e
M T
ali ty
tra ction
Ph otos
Ġfar ine
[] +[]
Ġcou pon
Ġconcer ts
ĠT RA
OUR S
ĠB MW
Ġsimil aire
Ġis rae
Ġg er
ĠM and
ame d
aff iche
icie lle
clo pe
ĠA k
Ġmont agnes
F iche
Ġst ric
Ġ oiseaux
re view
onor aires
Ġab orde
Car acte
ĠE S
ad aire
Ġad mis
ĠCon ditions
Ġcon servation
an aly
as pect
Ġv ig
inf luence
plo ie
id th
ass istance
Ġcal cule
L uc
ĠG olf
Ġf lash
ĠA ix
Ġt unis
Ġinter vient
Ġc oc
ĠM ons
ĠSu pe
ĠL O
Ġm ous
un ir
asse urs
Ġtempor aire
% )
ĠXIX e
ĠDe co
Ġpropor tion
dis play
Ġcomm iss
Ġpl ant
: \
ĠI ll
Ġd ites
Ġfin it
Ġindi vidu
P at
Ġcomplex es
book s
oc ats
B re
je ction
Ġ ).<
Ġpa pe
ul sion
Ġ" <
Ġt rente
Ġinter ven
Ġt ailles
app a
ĠModer ne
ho nes
n ouve
ab el
Ġarch ives
Ġre ine
par is
ĠH ot
Ġpro longe
Ġcour onne
O p
Ø ª
li ste
Ġchir urg
mp es
accompagne ment
Ġg ame
ser voir
emp lacement
Ġ198 2
if t
t ai
ĠTer rasse
C y
> /
18 0
ap tiste
ce pt
ram ique
Ġh ouse
Ġpas sent
Ġphot ographe
Ġst ations
ĠPh il
si ves
Ġmaj eure
Ġ ille
!!!! !!!!
ĠJ aune
Ġess entielles
limine r
ard o
ar di
n orm
f am
Ġaccep ter
Ġpro venant
ĠC lo
ad he
oublie z
Ġparti cul
23 3
: :
ic on
ĠCommun ication
Ġmur ale
Modi fie
Ġimag ine
ĠD a
ĠP op
Ġposi tive
Ġar bre
d one
ĠL ap
Ġpropos ant
E lement
Ġrece vez
Ġsou pe
ce ts
ĠLong ue
Ã Ĺ
iss u
Ġren ovation
Ġp ause
tend ue
ĠH ow
Ġsou ple
Ġconst ater
ob lig
Ġpl ain
ĠMex ique
en cer
Ġtax es
ĠL ag
ĠSar kozy
can isme
ĠG l
non yme
h ommes
upload s
Ġag ir
ĠN ik
ĠD ata
Ġper fection
Ġjamb es
Ġla issant
aur ait
wid th
Ġcompren nent
M as
áħ ®
Ġcar ton
ni a
ĠS outh
v us
Ġv ag
re au
Ġcour tes
M em
ĠC av
par tements
Ġins crits
in n
ĠBro wn
ou til
Ġma de
Ġle ver
Ġhandic ap
C M
Ġfranc ais
F O
ress ing
qu ante
Ġdev iennent
Ġti ens
li be
ric a
ris t
fini tivement
pre neurs
ĠC liquez
c ors
ĠD or
s istant
Ġf asse
Ġmor ceau
ĠCo ffre
l ables
auv res
Ġac ade
Ġre m
ĠG roup
Ġinter nes
Ġn utrition
ĠG E
ne au
ĠE li
Ù ĩ
ess ai
Ġdisp oser
Ġcont raintes
d r
Ġessentie lle
L i
Me ille
Ġex am
z ac
Ġcu ivre
ATION S
n ay
Ġcon gre
Ġcer cle
Ġconcent ration
Ġpuis sent
tique tte
ri odes
rass er
Ġsusp ension
form ance
ĠA y
sse mb
we d
":" ","
w er
Ġ19 50
Ġcontac tez
ho d
Re f
Ġpil otes
ĠIn c
Ġbi z
Ġv ague
ĠA VE
ĠRom an
Ġla ser
Ġâĸ ·
Ġconf ronte
Ġsor tes
par ateur
lection nez
ĠVe nez
Ġra rement
ĠU K
T L
Ġtechni cien
C op
par ations
s m
Ġdu n
vi ous
v ale
w ar
ĠT arif
oi ds
200 2
Ġ19 75
H or
Ġrel ais
w ord
cord s
Ġcapit aine
Ġex amen
Ġapp ren
ĠAnt on
Ġref le
ne llement
v ure
% .
, ...<
ĠV ale
Ġboul ot
Ġb oire
p ais
Ġn oc
ri fication
Ġf un
osi teur
ĠV ue
ĠC B
ĠXX e
ou ts
Ġex ten
min ine
Ġfond ateur
ĠEntre tien
ĠA fin
U p
Ġlong s
av irus
ĠC art
ĠAu di
Ġcommer c
en ser
Ġchois issez
ond er
ĠS um
Ġnoir s
Ġf oc
V ILLE
ĠAc tivite
Ġ* ****
ÌĢ <
Ġvolont aire
Ġpren ds
j amin
c r
ici en
Ġentre p
Ġj oint
Ġgraph iques
Ġl istes
3 20
ĠP ass
ĠT HE
Ġ198 3
un ions
Ġappe ls
ĠB ref
W E
9 00
Ġve nez
ĠOrig in
ĠNet t
Ġciv ili
X L
I voire
Ġle aders
li es
ĠD ol
Ġcertific at
Ġg r
Ġimport ance
Ġsex y
Ġm are
Ġinter venir
Ġfav orable
Ġav r
ĠUS D
ll ation
Ġsatis faire
ch amp
Publi c
ĠH os
B er
F il
ĠS amedi
Ġm p
Ġasse mble
tra tions
Ġ75 01
lin k
M ax
ĠAn nonce
ail able
ĠU NE
p la
ag nie
A f
dou ard
Ġt ut
Ġvie illi
ĠC ONT
Ġp omme
A TE
Ġdu o
Ġpro vis
Ġmin ce
Ġcas ser
ĠJ oh
r urier
Ġp ique
Off ice
H el
ub a
Ġface book
Ġta ches
Ġmagni fiques
app ui
ĠR ES
Ġ Ï
ron ter
tru it
ĠS D
ĠSant a
Ġb ot
in se
I LE
Ġdev ront
off rir
ĠCl aire
Ġsenti ments
Ġvoy ager
m ou
Ġs ue
ali a
O li
ĠT rouver
ĠD R
ĠP ME
com merce
qu age
ang o
libat aire
Ġtot alite
Ġexper tise
v d
$ $
en c
Ġtravaill ent
Ġg raines
C N
ĠEur o
Ġmonu ment
Ġbois sons
ĠCam eroun
B u
Ġsupp ression
Ġv ivement
Ġd ram
cler c
Ġcombin aison
Ġinten se
ĠJe anne
ĠA ction
um ine
Ġdes c
ĠI kea
isse ments
ĠComm ande
Ġre z
ĠC ant
ĠV illage
Ġdist rict
ĠH istor
Ġconc lu
ĠJ ul
Ġcirconst ances
Ġinstru ment
ĠA ctu
ĠW omen
Ġb it
Ġne uve
Ġprom et
Ġacce pt
ĠC ite
ĠP VC
Ġsymb ole
Ġ10 5
P oint
Ġdisc ussions
Ġneu fs
Ġn or
Ġar rondissement
ĠC AS
Ġcouver t
Ġdorm ir
ĠP RI
ĠMon aco
Ġm iel
Ġpro c
ĠE tat
M is
ĠCour t
ĠP late
Ġmar ge
ĠR A
y d
ĠLois irs
ĠCong re
â ĺ
ĠCont ro
Ġdom ine
Ìģ "
ĠChape lle
c au
ĠðŁĺ ī
mar re
com e
Ġa didas
ĠW ater
Ġs ab
Lau rent
S ign
Ġac que
Ġmusul mans
ĠV F
ĠCom mer
Ġ? ?
ren contre
An im
Ġcoup les
Ġfac teur
me tt
A fin
ĠFlo rence
ĠPers onn
Ġmal ade
Ġpar u
e urs
g ociations
cy clope
ĠSt an
Ġfamili al
p ol
Ġ2 40
ĠC ah
ati se
Ġpar venir
Ġimp re
Ġter rible
Ġfut urs
Ġchan teur
Ġtent ative
ĠP rom
N ike
ĠU k
Ġcab ine
Ġs Åĵur
Ġpoly val
un a
app lique
p ense
cl at
phon ique
B ro
az e
b alle
g res
u ter
Ġb lo
Ġtermine r
ĠR O
AR E
ĠNouve lles
V AL
us sie
as is
Ġcontraire ment
Ġch ap
end en
Ġla tin
ĠC v
Ġcri mine
au di
Ġver ts
p il
ĠE ST
rat oire
Ġchau ssure
Ġsp a
ĠE mb
Ġlit res
CH AR
ĠC in
ticol ore
A ctualite
ĠS K
Ġe ut
Ġfranch ise
s iste
Ġu k
at rices
ĠVide o
ĠV u
esp oir
os ter
ĠD J
Ġdispar u
Personn alite
cl am
P la
ĠSor tie
IS SE
Ġabs or
ĠA merican
D D
Ġden site
ma z
ov o
Ġculture lles
ver ture
Ġin aug
di ent
OM E
M ES
y age
c rans
p to
ĠF ly
ĠâĤ¬ /
ĠG il
ĠCong o
Ġchem ins
car te
Ġdiscip line
Ġf a
I Z
ĠM oc
i tions
g arder
oli ques
Ġar b
Ġcomp rom
Ġdu e
ĠB ill
ĠL eroy
T ube
ĠM idi
ä ¸
AU D
st rong
EN E
Ġcomp ort
s hed
Ġad o
Ġsoci aliste
ĠO ce
Ġpoursu iv
Ġaff icher
ĠP ress
Sy ste
Ġefficace ment
F l
Ġsol o
ysi que
Ġb acte
4 50
ĠC RE
Ġquasi ment
ĠS how
Â» .<
iz za
Ġconnai tre
Ġt ole
Ġt urb
ar che
Ġcomm ente
C amp
Ġsau vage
ĠJus tice
ĠVers ailles
Ġcomp rime
on avirus
Ġsatis fait
Ġul te
app y
Ġcos me
Cou leur
F T
ime tie
V O
Ret rouvez
ĠD idier
Ġb aie
Ġangl aise
oc cuper
ĠCon f
un s
ĠP resse
A ub
Ġen rich
3 60
Ġ ×
p ent
\/ \/
ĠS oft
Ġuniver se
Ġh onne
ĠM AN
Ġrende ment
ac tive
ne d
Ġcon que
B B
Ġtrans mis
> Â·
Ġc iter
ĠF au
Ġet h
Ġbi ologique
am or
ĠT itre
b b
Ġmontre nt
ĠRestaur ants
habit ation
Ġvari able
Ġf usion
de ux
Ġappe ler
ĠCler mont
ĠF eu
c oin
ĠMos cou
Ġs ain
Ġgaranti es
Ġbel gique
# #
S or
Â ¢
Ġp ira
Ġcu ille
vis i
Ġling uis
ĠDe vis
Ġ19 68
ĠPro te
g by
c tez
Ġsub li
ĠJu li
t ages
Ġdis ant
Ġb omb
B lanc
or ique
Ġgouver n
Ġa le
Ġp auvres
ĠIs abelle
inst alle
ĠV ER
Ġk i
ĠH eure
ĠK im
ĠO ffre
ĠN ar
O ise
Ġinstant ane
orient ation
col te
one y
Ġb asses
Ġreg istre
Ġble ue
ni k
ĠP ois
ĠRou en
Ġju me
op a
2 60
le ine
ĠPro jet
Ġg este
V I
Ġapp liquer
lo e
Ġc ock
Ġcli c
Ġad resses
Ġpromo tions
ĠF onction
ĠB ack
ĠR ess
ĠF lash
Ġatt aques
Ġsan itaires
Ġtrans mettre
ar ti
b ois
Ġcig are
z an
Ġor iente
ĠT oy
ON G
Ġmo tive
we et
ĠJ en
ĠFam ille
Ġorganis me
tho d
Ch ois
ass o
ra tif
OS S
ĠG ou
Ġsty les
gis lation
ly se
Ð ´
p ous
ac tif
ĠStand ard
es c
b ach
Ġv ir
ĠDim anche
Ġmo le
Ġimm ense
Ġconstitu er
aug mentation
Ġposte d
aur a
G al
c p
Ġ its
Emp ire
Ġm n
Ġbien venue
adap tation
Ġdimin ue
Ġiden tifier
Ġcomp table
ĠRou te
ĠB aby
g ine
un t
cu tif
Ġph arm
ĠF ashion
Ġai des
Ġb andes
Ġcli p
Ġcol on
ĠF ull
mar rer
Ġmar cher
Bl ack
Plus ieurs
w orld
ĠC S
Ġpous sie
Ġs oc
Ġch ats
Pro vence
ĠSer ge
agn ol
ĠL amb
Ser vices
AF P
ĠAt tention
Ġgra ves
Ġconn aissent
ter mination
ub les
Ø ©
Ġ19 79
ĠSho es
erre ur
ĠC iv
Ġsh irt
ob iles
o ter
Ġpeu ples
ĠUn ion
Ġvis u
Ġsou l
Ġd ic
O rig
ab i
Ġd ame
Ġmin istres
is olation
f ra
Ġsuiv ent
Ġro om
ch im
Ġconf lits
ĠAd ulte
ĠJu les
ĠUn ited
ĠSex y
ĠSu ites
Ġmor ale
Ġma quillage
ĠConse ils
Ġ[ "
Ġport ent
ĠÂ ¤
ira teur
n ote
âĢ ļ
ĠCon tin
Ġob st
Ġvo le
in verse
ĠMar keting
Ġp ositions
Ġspectac les
A E
Ġl isse
Ġpro vient
ĠA ustralie
Ġn atur
ĠB lo
g out
ĠB or
Ġpar as
Ġdis ait
Ġdist ribue
g ate
Ġdou leurs
Ġrela tifs
ĠAn g
ĠClassi que
ĠInst agram
st ar
f onction
ĠL ic
Ġti r
Ġ$(' #
ro irs
ĠH and
B o
ri elles
ĠB all
ting s
O RE
Ġde co
t ateur
gm enter
Ġb rise
ĠG a
Ġbou tiques
Î µ
C liquez
Ġfl am
ite m
Ġray ons
Ġcat he
Ġex tension
Ġsuc ces
ro y
Ġconclus ion
ĠK y
Ġvol umes
Ġride aux
env oyer
ĠChamp agne
ig re
ms terdam
ert y
Ġres p
Ġson ore
Ġref aire
ar bre
or am
For um
le cteurs
Ġjus tifie
Ġatten du
vent aire
Ch ambres
Ġcou ches
Ġpl aques
Ġman che
app rendre
Cons ul
Ġc oi
lo ve
Ġval able
Ġprof itez
imp os
ĠC ross
it ure
le ft
ĠC DI
Ġst able
k t
Ġconn aissez
m ore
Ġg astron
ĠG L
lo be
de mment
Ġcomp teur
s tes
Ġca ve
ĠS ce
TM L
ĠJ ordan
t est
ra d
ĠSecon de
Ġst abilite
Ġch aises
Ġcan ada
Ġtr ue
ĠÐ ²
M en
Ġinstru ments
Ġorig ines
Ġouver tes
Ġ19 45
F ab
Ġv este
ON U
Ġp ension
Ġm ay
f end
Emp loi
w h
ĠR H
ĠEx pl
Ġcol oris
inten do
ĠP ose
ĠT ime
Ġmanif este
S amedi
Ġrob ot
Ġge t
P endant
al ors
ĠP olo
ĠSer ies
ON D
ph a
ĠT apis
Ġjus que
que ment
Ġa igu
10 4
Ġcar dia
ĠN am
ar l
Ġper tes
ĠO x
te lle
ĠRe ims
ĠCo que
ĠP ul
Ġ1 12
ang ers
ck ing
Ġ19 76
Ġporte feuille
10 6
E d
arge t
Ġcou l
ĠSh er
ĠMin istre
Ġdispar ition
Ġrepro duction
ĠT emp
Ġ1 11
Ġgar dien
Ġmusici ens
n iste
anc ourt
Ġinform atiques
ht m
h os
ver site
Ġcour riel
ĠCOM P
ro vi
Ġjau nes
... ),
s ub
Å Ĥ
le e
... ).
ĠP oe
D M
ĠLe e
Ġj oindre
ĠVendre di
un it
ĠO lymp
ĠAVE C
ch ard
ĠBlu etooth
zz i
Ġex cl
Ġfabri quer
l anger
fin d
f el
ĠCli ent
but ant
Ġsurp ris
ont o
Ġse igneur
oli t
ti p
igh ts
oc ol
ĠRet rouvez
Ġimme uble
lis tes
Ġextra ordinaire
Ø ¯
Ġcour ts
Ġbat tre
mo ve
ĠImp rimer
ĠHen ry
III e
nis ation
H en
ra tive
ĠT ER
ul ar
Ġcla vier
ĠA ppe
Ph ilippe
Ġsauve garde
Ġcro it
op timis
ĠA mp
== ==
AM E
Ġmer lin
14 8
m ad
ĠIN TER
ĠPrin ce
ĠVille neuve
ter min
Î ½
Ġc oco
Ġconn ait
Ġsurf aces
00 7
ov ic
Ġin cor
Ġcap ables
v iens
f ast
Ġl eroy
av id
S es
ite rie
Ġbal ade
ĠKe y
Ġpoli ciers
B retagne
Ġh i
tt o
ĠL itte
ĠM od
ers on
H ar
Ġfer ont
ĠJ im
V endre
serv atoire
ĠL en
Ġblan ches
Ġre je
Ġg la
qu ants
b io
G roupe
ĠCon te
Ġiss u
ust ration
Ġfisc ale
y mn
Ġprof ils
Ġsuscep tibles
tudi os
ĠEn core
. :
ĠMan ager
ĠTrai tement
ĠGra ph
re use
A li
ĠB ah
b dom
E cole
ĠF rom
Ġmode l
Ġchape lle
O X
x im
Ġconst ante
ĠB ourse
Ġcou ture
Par ti
ĠM ili
vin ce
qu ine
flex ions
m ante
Ġla me
ĠAutom ne
C ro
n ages
vac uation
V in
Ġri t
Ġd rape
AS SE
Ġm ad
v olutions
Ġtour istes
h es
ob i
Ġcam ion
k es
ĠC ry
ĠJ ui
ĠChau ffage
Ġpros pe
T U
aut onomie
Ġcan alisations
Ġals o
ĠLi be
oy enne
agn y
w i
ĠB oule
ĠRo ad
Ġtex t
omb res
Ġb ol
ins piration
ance ment
ĠJ ane
in tention
f ilm
10 8
ĠE u
ĠLe ague
ĠCon vention
ve lines
Ġcris tal
ra ult
Ġten ant
A IR
U G
ra ke
Ġb ourse
Ġse p
Ġat mosphe
m ire
S UR
ox e
ex tension
ĠChampion nat
D ist
C TION
oun g
Ġfav orise
ĠS oire
Ġremarqu able
Ġproch ains
op hones
Ġven ant
ĠM are
ĠVir gin
Ġ' '
Ġn oix
Ġj oy
ten s
L ang
ĠV ent
o vi
aff ichage
Ġra ce
os h
Ġv ocation
ĠD ame
Ġ0 46
Ġhor aire
Ġaug ment
ĠR io
Ġd in
Ø ¨
Ġra ss
ĠMag azine
Ġrecru te
Ġle d
u a
E glise
fran c
s pe
Ġc ass
Ġo ce
Ġfais ons
ĠAc ade
Go ogle
Ġloc alite
ĠF I
lic ieux
w ell
B I
Ġfant astique
Ġdis ques
ĠK m
me l
ĠDoc teur
Ġti enne
Ġ19 77
Ġiss ue
Ġinvestisse urs
Ġli aison
De vis
Ġdes igner
leu ve
Ġconfir mer
99 99
Ġcomb ats
Ġmarch andises
ĠTra vaux
op s
cis me
C uisine
Ġchim iques
N I
Form ation
H T
Ġapp rouve
la de
U NE
Ġou vri
ĠMuse um
Ã Ł
Ġtechni ciens
ĠW ars
H P
aci fique
s ki
ĠMet z
ĠOrig inal
Ġch inoise
V os
ĠC ame
ĠSol des
ois es
r t
Ġpa quet
dit ation
Ġpublic ations
Ġthe ir
ĠK a
ĠCan al
ĠB au
ati ble
ĠK n
el ly
w atch
Ġ1 14
Ġprofes seurs
Ġfer mer
Ġs rc
g iti
ĠT ag
e arch
di ff
res h
Ġconfir mation
ond s
Ġpermanen te
qu est
ĠIn formatique
p se
D ou
c enter
ĠR OU
ĠSimp le
b ay
enf ance
Ġindi quer
G P
Ġ19 73
Ġ19 71
ĠR is
Esp ace
22 3
off ice
Ġtyp ique
ĠN uit
cul ation
Ġphilos oph
ĠDi jon
c ris
Ġpour rais
ing ue
Ġress or
or teur
cip ation
Ġt ap
Ġmaill ot
g uise
p ra
Ġalbum s
Ġdispos ent
Ġsen sibles
Ġren dent
ger ie
ĠT ran
gu lier
u ck
ĠP ull
Ġ1 16
Ġf ail
ĠD eu
Ġjou ets
Ġf iction
ll ent
Ġm ang
ĠVen ise
ĠM S
Ġav ais
ĠCar oline
Ġdisp ute
ĠC F
h au
ĠU ni
Ġpous ser
ĠBi joux
ĠAn nonces
Ġgross es
ois eau
Ġincontourn able
ĠD ANS
Ġhau tes
Ġeff ort
partement al
ure t
Ġ ).
Ġmerveille ux
or oute
Ġa lig
Ġpon ct
ler a
Der nier
Ġ19 72
áħ ¡
ocu ments
Ġad dition
al k
L M
Ġdiver si
ĠAn sw
Ġcon formite
Ġfig ur
ĠMou lin
, .
Ġspor tives
Ġlic encie
Ġhab ite
iss an
Ġg am
ar tier
ter ne
tin ation
Ġcin quie
Ġcorre ct
Ġdoc teur
ĠM am
ĠMer lin
Ġpar adis
ĠB OU
S port
ol les
ĠN a
ne tte
ĠD onne
Ġmili eux
A IS
ĠC eux
Ġil limite
ĠLav al
Ġcontra ct
od ie
ĠV id
Ġai ment
Ġtal ents
arch ie
ĠTrans port
k ins
M y
ĠO K
vas ion
ouve ment
Ġaut hentique
gl able
ii ii
ĠC ook
Ġdes truction
Ġcons omme
Ġmarch and
Ġvis ibilite
do or
J ose
au tique
con c
Ġmine rai
Z e
Ġfranc s
ten ues
ĠT ai
Sal ut
Ġm s
Ġpar agra
O h
Ġrom ans
Ġfond ation
ĠI d
Ġsupp orte
l arg
T rois
Ġral enti
Ġviol ences
Ġpollu tion
nie urs
Ġroy al
ĠH ai
ĠC OR
ĠSoci al
Ġpro long
fic iez
ĠL ine
ĠN EU
Ġdoc tor
Ġde dans
on ais
ĠBal ance
ĠJ un
ĠA le
Ġapp u
ann iversaire
ĠA sie
Ġreste ra
gra le
ĠPoi ds
Az ur
ĠP uy
Ġst ore
P rin
Ġgre at
am pe
ĠCons titution
Ġ1 18
oc ke
ĠM anger
Ġr un
f en
Ġsc ru
Ġcon ven
11 5
A sie
Ġvo ter
ĠN oire
me d
ĠSch ool
ge d
ĠG ood
> ,
ĠCon ver
ĠG our
Ġcamp agnes
Ġti rage
Ġanaly ses
Ĺ ı
ĠO P
ne uf
ze d
Ġam oureuse
Ġvol ant
anti ers
st an
Ġfourn is
ĠMer cedes
ĠPrin cip
la v
hum idite
Ġsu ici
emp les
ill ac
Ġfene tre
Ġmanif est
ĠÂ £
Ġh ad
t oi
3 13
Ġact u
ou gh
ĠSt ade
ss ant
Ġs n
x ie
C li
av ril
enti er
ĠC ru
l ocation
G L
di m
mn ite
Supp rimer
M L
Ġfac iles
} <
ous on
), <
li v
ĠW el
renti el
ie tte
Ġar te
exp l
ĠTok yo
An nonce
hum our
h ad
Ġvi ole
ĠDig ital
mar s
Ġla ure
Ġver tic
A ux
Ġsex uelle
Ġfi ches
Ġarri vent
H O
amb ou
Ġmo ne
Ġwe re
Ġaime z
Ġexist ent
áħ® áĨ
11 6
ren du
Ġremb our
Ġra te
Ġqu ad
Ġpermanen ce
Ġtemp late
all age
oli te
Ġ19 74
ĠFil ms
Ġm onsieur
Ġcanadi enne
Ġa ustra
ci li
gl age
Ġd ay
AU T
Ġinter roge
re ction
Ġsatel lite
Ġp rouve
ĠV olume
Ġan th
Ġmour ir
Ġfix er
ĠFe ne
Ġsimp licite
âĢĿ .
Ġpass agers
is lam
app arition
ing le
Ġ15 00
P olitique
ĠDe mande
ra ts
Ġ1 13
Ġ3 000
Ġcou v
Ġso eur
â Ļ¥
Ġheure use
p m
Che z
ali gn
ĠI T
tic a
Ġc ore
R oom
Ġjourn aux
Ġoff erts
Ġc og
Ġh all
":[ "
ser ves
ad ou
gli ses
Ġl ots
ak ar
st ock
Ġsav ons
eng th
áĦ Ĥ
ĠO S
mer ie
ĠCont actez
Ġfin ancer
ĠTh ai
ĠS omme
Ġb ur
ĠF ri
ĠHar ry
b our
aut orisation
ĠÂ» )
ail y
Ġlog istique
Ġp areil
ĠCons truction
Ġj ac
raire ment
and ra
Ġsou tient
t ri
clus ion
ui vez
d ac
op inion
3 01
Ġgenti l
ENT RE
s al
Ġrou e
Ġmas ter
ab s
ĠB rig
W eb
Ġtransp orte
i tie
ĠF as
ib er
Ġmesure r
Ġcon cession
Ġcommunaut aire
Su ite
ind ow
Ġnav ire
ad os
sid entiel
ricul um
Ġgar antit
ĠP el
z aine
Ġen vies
Ġcitoy en
Ġ19 40
Ġp aille
Com mentaires
ons oir
an niques
Ġbra celet
rake ch
Ġjur y
V EN
Ġsa chant
rou gh
ĠF ut
oo ter
rie d
Ġ17 0
ĠW eek
ĠSil ver
v ance
Ġoblig ation
AU LT
Ġpseud o
Ġhabit uellement
h is
AM B
Ġavent ures
ĠT ourn
ĠAr c
ĠE ast
nt ario
Ġcom bles
Cl assement
R oy
Ġmauv aises
Ġdimin uer
Ġfl ot
Ġconj ug
C er
Ġp av
Ġ2 30
Y L
ĠMe dia
b f
av aient
vide o
Ġdig ital
Ġsp acie
ĠLau ren
Ġpou let
ĠVie tnam
Ġm out
enti ste
L og
Ġhabit ation
ent end
Ġsang u
Ġouver ts
ĠExte rieur
ĠHug o
ct rice
rable ment
L ot
Ġf irst
ĠS ix
Ġru gby
g ociation
n ig
dic ation
11 4
d os
Ġsal ut
Ġinter view
ĠE ff
Ġdou ze
ĠâĢ Ŀ
Ġtra ins
off res
ĠV ieux
ĠT ay
ĠT y
Ġvie ws
Bien venue
u age
Ġdonne ra
Ġmar itime
Ġdirect rice
~~ ~~
Ġcli quer
d ocument
Ġg ale
Or ganisation
Ġtab ac
ĠAn aly
Ġtrou v
r ari
FOR M
ar mes
ĠH ub
Pro f
Q L
ĠMou nt
ĠN an
m mes
ĠG uer
W S
Ġimmobili ers
ĠEs carpins
ĠH all
G uide
ĠLong ueur
Ġperspe ctives
Ġpap a
g ol
ĠSte ph
puis e
ĠN y
aiss es
ams ung
S inon
g yp
Ġ1 19
Ġcond ensation
ar ise
ĠC ass
ĠTable au
Ġfai m
g are
Ġsing le
Ġserr ures
tif iant
ĠZ one
enti ques
te in
Ġpar ts
O k
ĠSoli d
li b
Ġmobili sation
Ġfer rovi
Ġins crire
Ġh is
isse ur
Ġst ages
Ġcommen cent
Ġpro voquer
iss ons
Ġn oires
Ġdis cri
aye z
em ball
me urs
Ġroy ale
y t
Ġp un
Ġb ourg
Ġass urances
Ġenv ah
lant ation
Ġle ctures
ĠS n
Ġfis cal
Ġin oxydable
Ġmilli ard
Ġet udi
Ġfix ation
ĠD ivers
ac c
m w
ĠK ong
Ġpar cs
Ġan y
ber ry
if ier
re urs
Ġc ulte
Ġlo ve
Ġvend us
ar b
Ġ} ,
ĠA re
ĠGu ine
Ġvois in
00 2
.... ..
s ource
Ġt ag
Ġcop roprie
rud ence
ĠO h
ant h
Ġtranspa rence
Ġs ons
ĠB rit
le in
ari fs
ob er
Ġtris te
ins crit
Ìģ )<
ti cien
10 9
30 6
p ress
p ices
Ġprovis oire
Ġprati quer
ĠBr est
Ġauxque ls
ative ment
Ġd ating
10 3
Ġconstru ite
Ġbro yage
te ries
Ġrac corde
clar ations
Ġfor es
ri lle
ĠNath alie
onn a
Ġâ Ī
Ġexp ositions
Ġrespe ctivement
que ts
ĠSp or
ĠÃ Ĺ
ĠR UE
Ġw ifi
ĠJ O
ĠCalifor nie
Ġcor rige
cense ur
V i
ins p
par ole
p ente
ĠL ut
ĠCor ps
Ġfant as
am is
ĠJ ava
lo ween
Ġcommun s
Ġag o
Ġh ousse
Ġ? ??
agas car
dent es
al titude
s che
Ġren omme
Ġjuridi ques
Ġam ende
IER S
ĠL imite
Ġci ment
A che
ĠðŁĻĤ <
gra l
Ġcomb us
les te
Ġraf rai
G V
Ġst art
te le
ho o
Ġfran co
Ġmus cles
L ivre
Ġprofession n
St ock
adap te
lou pe
ĠIn stitut
Ġtr ous
Ġarch itecture
Ġform id
Ġdi es
ĠD onald
ass ure
ul teurs
ja x
Ġbre ak
ĠF ern
ĠF ait
Ġl anc
w iki
Ġ19 20
s it
Ġcomp t
Ġpour cent
ĠCom ple
ig a
Ñģ ÑĤ
Ġann ule
Ġc ure
Ġcompe tences
ult ane
ĠR andonne
A mazon
Ġper pe
ĠImp rime
Ġass istant
Ġanim ations
Ġpl ur
Q ues
h om
Ġ12 8
Â §
ĠR ot
ĠM ort
ri o
ĠSt y
ĠE ditions
ĠCh anger
Ġh ie
ĠF r
Ġf eux
ĠBat terie
ER N
Ġser ais
ĠC onn
ĠC m
Ġam us
\ '
Ġsal aires
Ġraisonn able
Ġcorrespond ent
Ġhabit udes
ĠL ow
Ġpers o
b et
Ġme ur
Ġ19 67
li tes
I ES
omm aire
Ġne ut
and on
Ġcor pore
Ġd ys
ĠPS G
Ġprop ag
OU VE
fe rence
ĠS lim
d as
Ġin vestir
n in
ĠS olutions
Ġpublic itaire
ĠQues tions
ĠM it
ĠP interest
Ġb all
ĠCh amb
Ġdis count
cas t
Ġexp ress
nier ie
Ġhu iles
Ġro che
ĠSwe at
id o
tic o
ĠB ran
ĠCert aines
ĠPom pe
organis er
ine tte
Ġa thle
Ur l
Ġseu les
oli day
ĠC ul
ĠQ UE
Ġadminist ration
14 9
l ag
Ġg rise
2 90
Ġ1 17
Ġg endar
Ġn uis
in telligence
ĠCon ception
ul f
ĠU V
* ,
Ġper les
Ġver ra
bri de
av ie
ĠChe mise
P U
ok o
Ġch ris
crip tif
and y
g ulation
Ġtemp le
ĠIn formation
v oles
chau sse
ĠR C
ĠSav oie
Ġregre tte
Dim ensions
Ġprotoc ole
Par mi
ĠJ E
Ġse g
Ġnour ris
Ġaccord s
ro be
t resse
ĠAN D
ĠAu dio
im mer
Is rae
Ġass or
Ġmur al
Ġamp li
Ac cessoires
tt a
Ġp ote
Ġra tion
Ġj azz
ath an
av oue
ĠT end
ĠF un
Ġiniti ative
Ġn ull
Ġin ox
13 5
ĠChois ir
Ġdu ne
Ġh orm
Ġbar rie
Ġc imetie
che urs
ĠD H
Ġst abili
Ġab onnement
ĠC au
par ti
Ġpsych ologique
cont ainer
m oin
1 19
ĠD S
ĠBo ots
it ude
ĠTer rain
F M
on ore
n os
ĠBe aute
ĠT rouvez
ĠLong ues
lic ate
w agen
Al bum
ĠLor raine
Ġrelig ieuse
Ġdu c
ĠCar acte
Ġmut uelle
ĠJ ones
m enter
T it
ran ger
Vendre di
Ġcharge ment
Ġconcur rents
ĠPL US
Ġadj oint
Pro ble
ĠB and
Ġvingt aine
ĠV erre
Ġ19 69
de tte
Ġvoi ent
ĠB ol
T w
Ġou est
Com te
op ro
ĠM oins
Ġconvain cre
Ġmal ades
li or
10 7
s oci
Ġdiv orce
si nes
B at
12 8
der ie
ĠS of
Ġcontribu tions
Ġact uelles
m iques
ĠS L
Ġinform er
ĠB AR
10 2
O pe
ĠO rient
en vie
Ġman ager
se c
om on
Ġn y
Ġra ll
ĠSp ring
Ġcre dit
Ġform ats
ĠFrancis co
B elle
ĠC up
Ġvoy ant
v itation
ard ie
ĠSN CF
Ġp ig
m u
tro ite
ĠCa en
ge ts
Ġre charge
G N
os ses
Ġexper ience
Ġab sence
Ġven ait
Ġin cap
Ġbook s
Ġ0 48
AN E
ãĤ Ļ
imp ose
ĠTen nis
Ġn age
fre d
ann uaire
Ne ws
Ġb ail
Ġac cus
Ġin com
ĠN iveau
ĠCh arge
Ġplan ification
Ġlour de
Ġsou tenu
Ġp ist
ĠDi ff
Ġ tic
Ġpl ainte
Ġen lever
ri ons
Ġine x
ade loupe
Ġmen uis
Ġ iv
Ġso vie
ĠQue ls
ber gements
Ġfac ulte
Ġvul ne
ĠFor me
IN ES
ĠChic ago
Ġfav or
cou le
ĠM ak
Ġcomporte ments
Ġbrill ant
ĠA SS
ĠP y
Ce pendant
ĠB it
atis tique
Ġinstru ctions
Ġpre uves
Ġcy c
Ġ other
A X
D U
us ter
r int
an ique
12 4
exper tise
Ġintellect uelle
Ġhe ct
Ġcl os
I K
oblig ation
Ġc uire
I r
ĠD in
ĠA FP
ild ren
op ie
ric ole
UL T
OT RE
onn aie
ĠPeu geot
ĠE R
Ġtechn ologique
Ġchamp ions
00 6
Ġm ait
Ġordin aire
ĠCh rome
ign ant
ĠBen jamin
Part ager
Ġremp li
Ġg ay
B S
ĠL undi
Ġpos ter
St ation
ĠG arde
ĠF N
aci le
Ġsyndic ats
Ġchir urgie
ĠV o
ĠP ur
3 40
ĠSt rate
Ġhoriz ont
Ġra ssemb
ti o
Ġje ter
Ġd s
p ost
Ġb ateaux
fic ateur
Ġte inte
ĠGar age
A telier
ĠE DF
Ġappar aissent
Ġpauvre te
ikipe dia
bre r
Ġcons oli
ĠAu g
ĠPro duction
ĠEn vironnement
Ġa mazon
Ġcar t
Ġp ix
cl age
Ġai ent
Ġc itation
vent ure
g rir
Ġexte rieur
g ance
p ice
Ù İ
Ġmy th
ĠMar tine
Ġparticul arite
onn age
di ce
ĠB ande
que mment
ir d
ĠPro ble
ti gny
C le
h l
ĠJu lie
ĠRom ain
Ġb ottes
ĠRe chercher
Ġent our
ĠE c
Ġw orld
si gner
Ġtru cs
m ing
cre en
Ġser veurs
D H
ĠW all
Ġsen sibilite
s ch
ou tils
oc tobre
one n
Ġin tra
Ġexploi te
Ġser ai
C at
Ġs ome
Ġ$ ("#
Meu ble
13 6
Ġcarb urant
Ġap res
Ġv ive
ĠY our
ĠI M
Ġgagn ant
Ġrele ver
Ġob serv
ĠT otal
ch ine
g non
Ġpe ople
bar rasser
Ġjou ent
F aites
rit age
ĠD ragon
cl ub
inform atique
op sis
Ġdes sert
orig in
Ġn ice
ris tique
ĠN ie
Ġmor al
Ġcons ac
Ġsan ction
ĠJeu di
ĠN iger
ĠBert rand
Ġ ........
ĠR iver
00 8
i osite
ĠGab riel
ĠC ot
ose lle
7 50
ĠInter nation
; &
ĠR apport
d ar
ĠL aisser
11 8
ĠI ss
Ġtrou ble
ac cent
Ġ; -
ĠX avier
Ġl yon
ĠFre d
cul aires
Y N
Ġprin cesse
gra lite
Ge ne
acce pt
Ġexclus if
t ariat
Ġvoy ez
Ġexp ression
ĠSt ra
Ġ19 0
fin ie
m ac
ÌĢ .<
ĠCom e
ĠRay mond
lis abeth
Ġport ug
ĠB oy
S av
Ø ³
UB L
mo di
Ġt un
Ġenregistre r
Ġpermett ront
Ġofficie ls
ĠMai rie
gli ge
3 30
At tention
Ġc amb
ĭ áħ
ĠBien venue
ĠW ik
Ġpant alon
" },"
Ġpros titue
Ġconsomm ateur
Ġs ages
ĠA ge
l v
op tions
P ress
Ġver nis
2 80
Ġchim ique
n ais
og es
alog ues
ĠR S
Inf o
or ange
ron ic
R ue
N orm
ĠLy ce
Ġcommun ications
Ġcli che
ĠP oser
ann y
Ġg estes
au rer
o que
S yn
Ġpap iers
L O
ĠS inon
ĠA ur
X T
ĠRes ponsable
ĠRob es
aci er
I mm
Ġbal ance
Ġvoyage ur
Ġfau sse
ĠEx per
oris tes
atten dre
or gan
he m
Ġtradition nels
Ġco ordination
li enne
Ġratt ache
ĠAd ap
siden ces
ais ant
Ġroman tique
qu at
Ġesc alier
Ù ģ
li fe
ĠO pe
Ġde vrez
Ġfre in
Ġrecue illi
gh an
Ġd igne
ĠR ic
Ġre cueil
hous ias
ĠL ui
ĠCade au
Ġcir cuits
Ġal u
ĠAlle mand
Ġindi re
rou lement
ĠGir l
AG ES
ĠC r
rieure ment
ĠAu cune
ĠS af
Ġhe re
ĠF eb
Ġre tenir
Ġexp lications
ph y
AN TE
Ġconver sion
Ġiss ues
jour ne
Ġtex ture
R Y
sul te
ĠB ie
oli ve
Ġv ies
Ġre mor
Ġl oue
Ġpens ent
ĠV AL
B al
âĢ ł
se arch
ris ation
ress ants
ï ¸
as tre
Ġparis ienne
ĠDe pannage
Ġme e
Ġca outchouc
f ault
ĠI D
gra ve
d l
ĠChris tine
A mb
att le
AG NE
ĠMo teur
ĠE ve
cri v
ĠS in
Ġremar quer
ĠPar king
ĠIS O
Ìģ !
( {
ks wagen
g ing
Ġre monter
af il
Ġquel conque
ĠJ et
ss ent
RE T
Ġloc ataire
Ġposi tifs
chapp er
H istorique
us tre
aill on
Ġp ayant
Cont act
n ab
Ant oine
can iques
** *
ĠG od
Ġex port
ĠLe on
Ġloc alisation
re e
en cre
ĠC OU
fre e
us se
Ġindispens ables
ik a
R om
ĠComp agnie
la x
ĠMath ieu
Ġiniti al
Ġorigin aux
ploie ment
Ġe Pub
ĠH abit
Ġmar quer
cen nies
ĠAu vergne
Ġo k
Ġpar lent
we i
ģ İ
ĠiP ad
ĠMan che
Ġpratique ment
Te mps
Ġauton omie
ĠDe coration
cep tions
ĠÐ ¿
te ux
Ġproven ance
ĠL ieu
Dim anche
Ġri ve
Ġbran ches
Ġcell ule
US T
ĠChe min
inter me
Ġch air
er landais
ĠDe v
S ocie
I nt
ad option
ĠS at
Ġnet tement
ĠP asse
oo oo
ĠE C
Ġrappe le
ĠF auteuil
Ġstation nement
Ġsi ze
A ide
I tem
te mp
Ġatten te
ĠYou Tube
Ġphotograph ies
ĠPer formance
ont ane
Ġore illes
ĠBu lle
oi vent
Ġjapon aise
Ġoptim ale
Ġdiff user
ck s
Ġen c
ĠS OL
Ġcan on
mer ica
ac un
ĠMess ages
Ġass istance
app liquer
def ault
Ġ( )<
App le
emball age
uil ding
n ature
m od
ĠVictor ia
ĠH ill
Au cun
u ment
anger ie
Ġag it
al t
Ġsuiv ie
ĠMar di
av as
ict ures
v oye
MENT S
R apport
ten du
Ġc rime
re lle
ĠAsi cs
Ġvain queur
P M
h re
ĠAr tisan
can ismes
ĠTrib unal
ĠY ann
ĠE cole
ami tie
ĠV rai
onne ments
Ġm iss
Ġb rou
. Â»<
ĠProf itez
P ays
Ġph arma
Ġass ister
wid get
Ġ19 30
ÑĢ Ð°
le c
Ġkm s
mon de
gn ant
par tie
Ġaccompagne ment
Ġvac cin
ĠY a
Ġar moire
ĠPort able
st a
Ġsim ultane
Ġal li
Ġengage ments
ĠTor onto
Ar c
k ina
Ġculture ls
Ġ13 5
ĠT on
anne au
Ġf lo
Ġappar tenant
Ġtour nage
aisse lle
"] ,"
Ġ19 14
f ox
cru tement
Ġchante use
Ġil l
Ġhy d
cu tive
M ac
Ġexempl aires
mas ter
Ġiniti ale
Ġadop ter
ĠIn troduction
Ġquali fication
ĠH autes
ren ds
Ġaf ricaine
ĠPar tie
ĠOu tre
ĠPro duit
p at
Ġbra vo
rou ge
ĠNor ve
Jeu di
Cl ub
ĠInf o
Ġh ui
12 6
Ġhe bdom
M ad
Ġâ ģİ
ĠPat ri
y ons
Ġrecomm ander
tudi ante
Ġ% ),
ĠCl oud
R obe
IN D
ap in
ĠM ots
ra ce
Ġcoffre t
Ġbro sse
res sent
Y ou
> \
... ]
19 99
hy dro
ĠB ible
ĠVie w
00 5
ĠG AR
cher ches
Ġan ge
11 1
Ġf leuve
ong er
Ġe mble
Ġun iques
Ġpeint ures
ĠCh inois
se a
M use
Ġs he
Ġprom is
el low
OS E
Ġst ring
Ġf oie
ĠH onda
ath on
ĠMo z
Ġbanc aires
Ġrenforce ment
Ġsig ner
Ġd entelle
Ġcorre ction
Ġa ne
ar tisan
Ġ( @
ĠBen oi
Ġs om
Ġuniver sel
Ġsa ura
CH ER
Ġb ig
Ġcou le
Ġdev riez
ĠH ab
ĠConc asseur
gor ith
Ġiniti atives
Ġfranc ophone
ĠTrai l
Ġcour ir
an sion
Ar g
ĠCent ral
Ġessentiel s
Ġcos tume
Ġmascu lin
LE CT
Ġgar s
âĢĻ âĢĻ
Ġrapp ro
ĠF osse
av en
Ġra cines
4 20
12 7
ĠAnim aux
ĠCas tel
R ON
ad ow
ren a
ĠD au
qu ation
ĠH auteur
Ġact uels
ĠY am
Ġ! )
ĠD um
p ou
ĠL ady
ri ller
Ġh ockey
eb ok
Ġen tite
che l
Ġconvers ation
app li
Ġch antiers
ĠBre ak
si ter
fin it
Ġpou pe
Ġback ground
Ġpour riez
Ġex t
N S
A H
av ocat
ĠB rand
Ġus ages
ĠX box
d onne
Ġpri ce
late d
Ġtac tile
ĠA cier
g ro
s k
ĠCos ta
ni fique
lle y
ĠR alph
al o
Ġsou pc
ĠRac ing
Ġcou vrir
Ġdram atique
Ġaider a
re l
Ġnu age
ar in
" ><
s anne
Ġ= =
Ġment ale
P oser
ĠM ira
Ġ19 62
tis h
Ġp alette
chet tes
Ġvali dation
ĠSh ort
Ġsub i
Ġc ub
Ġle x
exp rimer
Ġv ire
Ġfib res
dagog iques
g atif
Ġdocu mentation
bl ure
t onnant
ĠT issu
pon ibilite
Main tenant
Ġm ines
ĠN ight
Ġh and
C V
OB IL
Ġmag ist
ĠM aire
Ġorigin aire
Ġla vage
At lantique
G en
C B
panne ur
N T
ĠR DV
Ġso ie
UR S
c b
tu it
dic ales
ĠSer rure
ĠD et
ile ts
alle t
ĠG et
Ġcar tou
Ġcrois ie
Ġunivers itaires
est res
ĠA ure
Ġpom p
b ite
ing er
Ġpl ume
Ġdoi gt
P yre
Ġcour ants
ĠB ow
Ġvoul ons
Ġvar ier
ĠS ig
t us
p ap
Ġ19 44
ille tte
c ot
visi onnement
k el
Ġnation alite
ĠBra celet
ous tique
II e
Ġw ell
Ġsemb lait
Su ivant
aut y
ĠP RES
Esp rit
aj out
Ġex amine
Ġcylin dre
Ġthe re
ang ulaire
ĠH ors
ĠV O
Ġmunicip ales
ĠC discount
Ġsou ples
Ġst ay
Ø ¹
>âĸ ·
Ġro bes
ĠChau d
gi ment
ĠMar io
ĠK u
Ġque ue
D L
habit ants
Ġcer tification
Ġ0 49
Ġquin ze
Ġabs ol
gion aux
Ġsur vie
Ġann onc
Ġte am
Ġvari ables
Ġincl uant
ĠJeunes se
Ġsign aler
in vite
ĠW estern
Ġp air
ĠImp ression
ĠQue lles
Ġcuis in
Ġav ancer
re inte
c q
Ġolymp ique
Z E
Ġpour suite
Ġn ations
ĠVis ite
du isant
UR L
Ġd ieu
Ġy oga
ĠA PP
ow e
L et
in ite
B log
ĠTou jours
Ġsur prises
po ol
de t
lic itations
cri vant
h ide
ĠRece ttes
ot ype
G C
d res
Ġplan che
Ex pe
& &
ĠP ier
Ġb ob
ĠF ai
p ter
ĠK at
Ġseu il
Ġ19 65
Mer credi
)[ +!+[]
4 01
ĠAut hor
ĠMeille ures
n w
Chau ffage
ĠIt ali
Ġs am
Ġvaisse lle
ĠMoh amed
se ment
Ġrense igner
A ppe
Ġtrou pe
ĠCh ant
ĠM ET
Ġenne mis
ĠS ale
T rouver
ĠFran ck
ĠC are
11 7
ĠLet tres
Ġca cher
inter national
D an
11 3
ĠA msterdam
m ol
ï¸ ı
Ġcol oni
Mon tre
ĠDim ensions
Ġdemand ent
Ġfran chement
Ġmar bre
Ġab rite
Ġc enti
ĠConsul tez
Ġdimin ution
ac ces
ĠAr thur
cul ture
ĠR adi
Ġbon jour
ce mber
M ou
k an
, '
ag issait
Ġqu it
ante aux
ĠA telier
Ġfore x
Ġal erte
ĠPle in
f y
s ante
tili te
ouss illon
g ante
ĠTh erm
di teurs
H um
ĠR ousse
f b
land s
Ġnoc tur
ĠA T
ar tements
Ġetudi ant
S eu
' )
li mination
Ġrense igne
o ve
land aise
ge ne
anim al
ĠCan on
Ġser vent
ĠRiv ie
Ġsimpli fie
Ġa ge
ĠPl ombier
ad j
Ġno y
ĠLit tle
Ġanim ation
au gmenter
Ġh ol
Ġo e
Ġvict oires
ar ning
an as
Ġg orge
Ġgui der
4 80
ĠToul on
Ar me
ĠCad re
4 60
Ġsuc cession
Ġvirt uelle
in ts
Ġfall u
Ġlibre ment
Ġnav ires
Ġpos session
Ġ12 3
Ġremer cier
Ġtr onc
ĠF ich
ti de
ĠCon tre
n n
A ustralie
ĠCom pt
ac que
Ġpsych ologie
ĠH un
Ġm oule
Ġtri ple
Ġjoli es
s o
ĠLa w
Ġon gles
Ġra ssure
L undi
Ġpouv aient
ĠIS BN
En core
ĠChe veux
Ġprob able
vent s
F oot
Ġab ond
lu ie
ĠRe wards
ĠR ond
Ġremp liss
Ġb ug
ĠW ood
ĠSh op
S ch
I ran
ĠP OL
Ġth an
22 5
ĠT v
Ġ19 64
Ġboule vard
oti ce
d ers
ab lanc
Ġimp lante
eng ager
Ġense ignement
En suite
ĠG B
L ist
ĠV as
ob jets
Ġatt ent
ĠMer credi
ch ron
Ġaut orisation
di ation
Ġsolid aire
Ġ19 66
face book
Ġro ses
Ġno tice
Ġcont acte
Ġmont res
ĠV S
Ġtar di
ine z
ĠProfessionne l
Ġs aut
Ġpar vient
Ġlav abo
Ġlumine use
ati sation
ste in
3 80
Ġcent aine
d c
des ign
Ġin cendie
balle ur
Ġprop he
g imes
N icolas
rali ste
Ġcardia que
Ġcur ieux
he ight
Mar di
NE T
Ġiden tique
Ġf une
A ra
Ġconcep ts
ĠT rop
ĠO ver
ĠA lsace
ĠMis sion
Ġord res
Ġdou l
m ur
Com mentaire
m ens
F S
3 10
ĠM att
Ġac cessoire
ul se
Ġbarbe cue
Ġon ly
Ġpo ches
ma j
Ġaff ich
Ġfor ment
Ġrou tie
25 5
ĠAche tez
z el
ĠK indle
ĠM ine
Ġar c
14 5
Re chercher
Ġcitoy enne
ĠS ki
Ġ12 00
Ġc ut
Ġam ateur
G S
Ġsu pre
Ġfort une
fini tive
a ver
ĠT O
ott om
Ġplac ard
ĠB andoulie
Ġver rou
Ġraff ine
Ġracon ter
Th is
OC K
ors che
ĠT es
ĠM atch
qu ins
Ġs onne
Ġmess agerie
rastru cture
Ġhydra u
al la
Ġper se
Ġe le
Ġopp os
Ġreconn ue
Ġpoly ester
c v
f ac
R ouge
Ġmili tants
bl ock
Ġref roid
Ġmus iques
. ).
Ġcam ar
Ġara bes
Mal gre
vise ur
Ġman us
ĠD urant
ĠMoc assins
iden tification
Ġjus tifier
ĠCam ille
D ata
B ox
Cert ains
Ġs ainte
ĠO ise
Ġpromen ade
ĠVal entin
Ġpass ages
Ġf ull
T rai
M aur
pit aux
Ġtour nant
ĠPat rimoine
se ignement
li ens
Ġob server
Ġspect ateurs
Ġex ces
Ġpens ais
ĠCl air
ong s
Ġboute illes
ĠColomb ie
Ġcy ber
ĠL ud
Ġl ow
Ġinter face
Ġpoi vre
ve nez
ĠMar rakech
ĠTer rit
am ines
to x
Ġconce voir
ĠLau sanne
au cun
ul ts
Ġscru tin
Ġatte inte
Ġeffe ctu
Ġ% ,
ins titu
ĠRol and
Re ce
) -
Ġca hier
com TM
R IC
B ER
Ġsus cite
tor al
Ġfer ait
alis es
Ġob s
c lick
conom iser
Mar que
ĠGran ds
atis me
Ġj al
Ġ urg
ĠCl ar
Ġforum s
L ieu
ill ant
am as
m atch
or al
Ġâ Ĩ
ĠB TS
Ġcontinu ent
u ite
Ġd resse
ob a
ĠJeu ne
Ġin time
g ier
app orter
p and
13 8
Ġc ense
Ġt as
Ġdra me
C AR
ĠQu atre
Ġplate formes
hy per
te ra
Ġb aby
ĠAU X
Ġma ke
fr ont
core r
H aute
tab lie
ĠIn ge
Ġw ay
inter face
exp lique
Ġfil tres
Ġcontra ste
Ġlivre r
ts ch
Ñ ĩ
ĠV ic
Ġavis Voir
S am
Ġbat teries
12 9
w ays
ograph y
Ġmaj oritaire
Ġvis uel
tal liques
ie t
in ave
Ġgouvern ance
ĠCOM M
Ġcur iosite
Ġjus t
Ġsp ontane
Ġapplic able
Ġmig rants
t onn
v p
Ġsu i
Ġinter pe
Ġcon tes
Ġrece v
Ġcomm o
ĠAn na
ĠF ils
rape ute
00 4
or o
Ġh aine
Ġcap teur
Ġin tention
ĠPap ier
Ġg ig
ĠSh irt
Des ign
Ġver res
cat o
p id
Q uels
Ġpou ce
Ġtom ates
Ġl enti
ĠCarre lage
ane mark
nage ments
ĠC oc
ĠOff res
ĠJu an
Ġf al
Ġflui de
00 9
Ġh ard
ĠNav y
Ġenv oie
ĠAss urance
C ur
Ġpourcent age
fici ent
ri an
ci fici
Ġpri mor
Ġs oph
M i
ĠN intendo
ĠDer nier
Ġordin ateurs
Ġac cent
est yle
ner gy
B ref
V oyage
Ġrus ses
N ext
Ġplace ment
Ġchi ff
Ġinconn u
St ar
U D
ĠP oin
Ġess ence
Ġadap ter
Char les
ob servation
ĠComp let
16 8
Ġpar lant
ĠRide au
phon ie
Ġmar in
Ġport s
Ġcalcul er
ĠSyste m
Ġel se
ĠE pisode
Ġp ower
ĠN atur
Ġb ars
Ġtrou vait
si rez
Ġac cou
Ġpublic itaires
T ext
Ġt che
V ers
di fice
Ġtit le
cessaire ment
Ġvit amine
je an
ablanc a
Ġsuscep tible
Ġcol lier
Y ves
cifici te
Ġrep oser
trop olit
Ġchauff agiste
Ġmunicip ale
Ġuniverse lle
EL LES
abili ty
Gar onne
ĠSt age
t ales
Ġd ons
se o
oc age
ĠSi ze
N ord
Ġcit ations
Ġcou t
ac tifs
ĠM assi
ess ence
Ġserr uriers
ĠO l
ser vice
Ġpuiss ante
15 6
Z Z
p lex
ĠSar ah
Ġn az
t ang
Ġoeu vres
la d
lector ale
t riser
aa aa
ĠLe x
Ġh onte
ĠO FF
Ġretrou vent
Ġ10 6
oc us
ĠCom pte
Ġ; )<
Ġsou d
ĠSER V
ĠEn ter
di ale
ĠC ord
Ġar tic
si ner
TI L
op he
U K
rig o
Ðµ Ð½
ĠSte ve
Ġtax i
15 8
ĠIn stitu
Ġess ay
ĠSyl vie
Ġc uve
ss erie
ois se
ĠD ames
Ġrob inet
Ġre jet
Ġin n
t ante
l ocu
ert o
ĠDe c
Ġfl otte
ĠAr re
n ois
eff ort
Ġpost ale
Ġwh ite
Ġparticip ant
Ġs avais
Ġ10 8
Ġfonction naires
Ġmo dules
w en
ĠA ri
Ġsuspen du
ĠS S
Ġcons ommer
ren ne
Ġ... .<
Ġrev iend
ĠCom pe
Ġindivid uelles
Ġso ft
gue ur
ĠO k
ins on
V OIR
Ġac tiv
C Y
Ġchois is
ĠD ictionnaire
= '
Ġprochaine ment
F am
ĠSp i
cis es
A e
al te
c amp
an nes
rus alem
Ġf olie
Ġ10 4
mes ure
ĠS AL
Ġvig il
Ġsav ait
Ġcombat tre
u an
Ġb ricolage
fes sionne
Ġmobili se
ame au
amp le
tw itter
v ic
cos yste
f av
ĠP av
âĢ² âĢ²
omm ation
Ġdirige ant
ĠS pect
ra me
sie z
ĠPh armacie
Ġgen res
f an
Ġp ale
Ġw idth
Ġbi odi
s ister
01 5
Ġb orde
G i
Ġr ural
ran dir
ĠC ath
Pre mie
s ateur
Ġexer cer
iden tifier
G ermain
emp lois
agn ons
aur ai
Ġp ts
IG NE
ct ur
ĠAn s
Ġa xes
Ġchar ger
ĠM ens
ĠG lobal
Form at
Ġmar gin
no ver
Ġab ri
sole ille
An ge
g io
ra ctions
Ġcher chent
ĠCap it
ĠSpe ed
v oc
Ġ ort
ies el
ĠSc ott
Ġn ave
Ġfi abilite
ĠG ames
ĠChar lotte
minist rateur
om et
Ġcompar atif
Ġautom ne
pe tit
ĠB il
Ġcomp ositeur
ĠLors qu
Or dre
T ag
16 5
rali sation
ĠMix te
Ġrenouve llement
20 8
ĠSt ory
Ġten dre
ĠPro gram
ĠH ay
fic it
Ġbe ige
Peu t
Ġcor ruption
ĠCH AR
Ġhum ide
ĠA F
Ġg ly
Ġsyndic at
Ġdu quel
ĠMeu bles
Ġmine urs
m ap
be d
Ġconst amment
Ġk Wh
ant aine
Ġhabit ue
v ation
" },{"
ĠD IS
ĠLin ux
alis ant
Ġb aisser
Ġph are
ain ville
Ġsuffis ant
Ġ19 61
im i
ce lle
Ġ0 47
li on
Ġdro gue
Ġo li
at us
Ġper ception
ĠDE L
A ction
Ġal ertes
ĠX P
Ġaccep tez
ou ret
Ġpl ug
Ġcri mes
Ġt y
ore ille
Ġb ul
d t
n um
cra ft
Ġde la
ai gre
q x
b ran
ĠVoy ages
ĠB ord
ans on
tra vel
Ġsouhai ter
ri tu
Ġcou teau
ath lon
Ġislam ique
Ġs ilicone
Ġsouff rance
ĠG EN
ĠM ouvement
mons tration
d j
Ġbord s
ak u
Ġmaje urs
K it
Ġplan cher
Ġreje te
Ġc ot
ĠG ross
emplo yeur
erv ation
Ġvid ange
enden tif
c entre
Ġt asse
Ġpri ori
ga nes
Ġvie w
ĠB ach
or ia
ĠLou ise
Ã ¸
aie ment
d ale
ong let
ĠCh ap
Ġch aine
T ime
ore illes
ĠAr m
ĠS AS
78 8
il ation
p op
f auts
B U
Ġapp arition
Al ain
au pe
l ations
Ġten sions
Ġsim ulation
Ġdes cente
S and
ous ses
Ġtop ic
Ġni ke
ĠV TT
Ġaccro che
iP hone
Ġs oix
h abili
Ġus agers
ĠS itue
vol te
Ġoccas ions
Ġ10 2
Ġparagra phe
Ġp ut
Ġeng endre
d ois
Ġprend ra
Ġ19 58
B aptiste
Ġgestion naire
ĠG rou
OR S
OL OG
ĠPar tage
c ard
vir on
Ġbe en
C ine
atten ds
er ge
Ġcli matiques
ĠF illes
Ġmas ques
Ġf at
Ġgouver nements
ph anie
Ver sion
assade ur
ĠToy ota
Ġpos tal
ch os
Ġsoi gner
Ġoccas ionne
ĠD oud
b ot
P r
n ic
Ex cellent
ĠPre nez
Ġrest ri
Ġcomp tabilite
qu o
Ġcry pto
ĠOb jectif
ÅĴ u
Cal ais
Ġorigin ales
Ġsoli des
Ġnour rir
in sertion
Ġabsol ue
Ġref user
ar r
01 8
qu ille
Ġexpl orer
ĠV estes
20 5
Ġord onne
17 5
rolog ie
u ary
Ġun der
Ġentre preneurs
ur ch
4 40
Ġam or
Ġb rig
lect rome
Ġindust rie
M or
ĠLab or
ĠGau lle
B M
ĠG r
arch itecte
dic ations
G M
A ge
Ġbless ures
Ġvit rine
est a
ak istan
ĠB I
Ġquali t
Ġc ac
. Â»
ĠB ab
ĠP ense
Ġde bout
Ġfi oul
IT ES
Ġvie illes
Ġatten dent
ĠAd am
volution naire
12 1
st ra
ut h
Ġw indows
T i
Ġcar net
o pportunite
Ġd il
Ġinu tile
est he
Ġcorrespond ance
fer ts
ac cident
ante rie
ĠPe tites
ĠL td
ĠCap uche
f ab
6 50
os cope
ent a
h orizon
lo ok
u ils
Ġl onge
Ġami tie
TI E
Au di
ĠS MS
Ġretrou vez
ĠGar c
AT S
b lo
ĠE ducation
Ù Ķ
Ġespagn ole
ĠP ink
13 9
Ä ±
> $
ĠRess ources
Ġmulti me
mati sation
R o
n ante
Ġ$ <
ĠA us
Ġsp he
atte indre
Ġtechn ologiques
Ġmet tons
ĠC U
O s
Ġpl ait
Ġop inion
f our
l ock
B r
ye urs
lo die
aiss ant
áĦĤ áħ®áĨ
Ġst agi
li de
Ġmul titude
di g
Ġcli cs
Ġc oins
cie use
ci fications
/ ?
u euse
p oux
ĠH avre
ist ent
Ġparticu les
si me
Ġfig ures
ap an
ĠCH E
Ġcon tenir
tie z
ĠF ol
ise xe
âĢ Ĳ
Ġadoles cents
ĠPort o
Ġvit esses
Ġcompag non
Sign aler
Ġcontinu ite
Arch ives
Ġchois it
ĠT in
Ġopp osition
Ġc ire
ph otos
ĠMaill ot
Ġrec our
O ffre
Ġpl a
ĠAr me
Cou pe
ar on
Ġdispose z
m ot
Ġapp rentissage
Ġb andoulie
Ge orges
Ġk o
ĠIn tel
Ġb lu
F rom
Ġchape au
Ã ¦
top tv
Ġb or
ock et
Ġblog s
Ġph ases
un der
Ġprog resser
ak h
ro ger
Ġcommo dite
Ġra vis
ch ai
f ix
g itime
Ġproc urer
ĠZ en
ĠH aw
you tube
ĠPhili pp
Ġtrans action
' m
Ġres pi
pie d
Ġmen aces
ss on
guer ite
ore l
Ġcharge ur
ende ur
ĠCou leurs
IE U
Ġimp ati
S im
d onc
ĠNap ole
p ris
15 5
ĠMad agascar
Ob jet
ĠK am
Ġsau vages
Ġcomprom is
ti tre
oi ce
ĠPhot ographie
Ġtra ditions
Ġoff erte
Ġdestin ations
H S
h ard
ress antes
ĠM ois
Ġexplo itation
clen che
Ġsymb olique
ume urs
iv ite
ĠA i
Ġthe y
V EL
ĠF E
ĠM AT
it uation
Ġfili ale
man i
12 2
ex er
] ;
rieuse ment
ĠAU T
itch en
ĠOrigin als
A p
Ġs aine
aill ant
Ġhect ares
Ġrecommand ons
Ġin oubli
Ġterritori ale
Ġcommand ant
ĠEn d
Ġe p
ti ser
ri de
Ġferrovi aire
Ġbloc s
Ġb ati
au rez
mar que
ĠCom te
C ulture
aci o
indi vidu
ole ts
pect s
Ġartis tiques
ĠCom ments
Ġparti elle
g aux
Ġsing u
15 7
Ġju ger
ĠCH A
ĠD al
M onsieur
P lace
Ke y
ĠAn alyse
ci um
St yle
log ie
Ð ·
Ġterror isme
ĠR AM
Ġla s
15 16
ĠM ut
ĠChamp ions
f iles
Ġconc asseurs
ul ateur
Ġab at
19 98
con se
Ġin itie
Pro duits
+ <
Ġp rouver
ĠJ es
Ġh ow
Ġp oule
Ġ ]<
Ġact rice
Ġmoyen nes
Ġesp oir
he ad
Ġâ Ļ
ĠS ens
Ġ19 63
Ġne tte
Ġch allenge
ĠC oin
Ġcircul aire
p ignan
b ag
bon jour
Ġ10 9
Ġchauffe ur
av es
au dio
Ġn ame
com pte
il de
B an
Ġsubst ances
ĠAd resse
Ġcor riger
M ONT
pond ent
ĠAli ce
iss age
L I
Ð ¿
ograph ies
26 4
"] =>
Mem bre
Ġsol licite
ose x
p ension
Ġst op
AG N
ĠDou che
c its
n ombre
Ġo be
Ìģ ),
in troduction
op ter
ĠCh ai
Pe tite
Ġno bles
Ġ10 3
Ġpan oram
M me
rifie z
ĠS IM
Ġfin d
Ġ2 24
b ons
ex port
ense igne
ĠCha rente
Ġbiodi versite
V F
Ġcent rales
14 4
Ġtrans actions
ĠF ru
hand lers
quier t
ri k
ĠM unicip
Ġinsu ffis
Ġdouce ment
P an
Ġprot est
ĠM M
pte mber
ĠT urb
Ġgran di
ĠI CI
ve tte
ĠR oc
Ġsa veurs
s oit
ĠDiv ision
ĠA de
rit ables
O f
ori an
ry s
ĠW atch
E ur
Exp ress
Ġtal ons
F rench
Ġrempl ac
E au
Ġpot entie
si ca
01 6
di ques
Ġtou l
Ġ19 39
ĠS ang
ĠB B
ly wood
Ġcommun iste
F emmes
Ġrend ant
Ġtranspa rent
Ġsub ir
ach ette
in ale
A uto
graph ie
Ġentre preneur
Ġ5 000
or age
rai lle
Ġpati ence
Ï ħ
ĠE book
Ġw ho
L ibe
ĠC ole
for ce
oc y
ĠI den
ĠPe tits
Ġmai grir
ĠT emple
P ont
Ġar range
ĠPort rait
ĠG ay
Ġdi riger
ve mber
s agre
cal ade
); <
ul ant
hy gie
Ġsort ant
id on
th umb
Ġbu ffet
b rite
Ġpo dium
Ġcor de
opath ie
Ġdat ant
d n
Ġst ocke
ĠW ay
Ġ6 50
ĠM ob
ab ulaire
k k
Ġdies el
Ġs aute
OUR G
Ġformid able
Cop yright
Ġfonction nel
atta che
ĠV E
Ġagric ulteurs
ĠTay lor
Pers onne
ru cture
i ches
Ġatt ribu
vo quant
Ġinv ente
Ġce l
id ation
f ou
ĠA sp
ĠCo ver
P ost
Ġcon tiennent
Ġconj oint
il o
matique ment
7 20
ĠF leurs
rass es
Ġk ilos
Ġcan aux
ĠMe e
ne ts
cur ity
Ġparlement aire
ĠA wards
17 6
ann ing
ĠJ azz
Ġass is
t ations
ĠH E
Ġvis ibles
ff es
ĠJ unior
Ġprodu ct
Ġfondament aux
ĠPart ager
fense ur
p ont
Ġimag iner
Ġchar mant
Ġin comp
US E
orig inal
Ġparis ien
ĠP ure
ĠZ oom
Ġh umeur
w ich
Ġappa rence
J our
Ġm anga
Ġimpe cc
B ot
er on
ĠColle ctif
Ġadap tation
Ġsemb ler
3 90
iti es
ch ait
ĠLa ke
Ġi OS
Ġson dage
Cl asse
Ġwh at
ĠA qu
tra vaux
Ġsmart phones
Ġob tenus
ĠPap er
Ġsuper bes
c osse
Ġpersonn aliser
ĠS ites
Ġt alon
Ġtable ttes
P o
re move
ar river
ari ats
Ġsac ri
Ġhel p
CHAR GER
Ġat tirer
Ġb il
Ġ2 10
ĠCom bien
G I
Champ ion
Ġp ile
iti ge
pau les
w is
ĠP ages
Ġsal ade
Ġsais ie
ĠB ains
ĠF IN
ĠG O
la des
13 14
Ġf umer
re uses
... ).<
Ġinaug ure
Ġrelig ieuses
Ġ( ),
ardin al
Ġl ight
Ġchar te
tific ations
entre r
Ġtrait s
o a
St ore
tt awa
99 9
ĠB roche
og ue
Ġnom ination
Inf os
Ġdomes tiques
olog iste
ĠQ C
Ġat titude
Hen ri
ĠðŁĺī <
Ġauxque lles
Ġreport age
Ġimp erme
u tiques
Ġple ins
AN TS
Ġpo il
de x
umer o
il lo
cor p
ĠS our
ĠRe cords
cd n
instru ction
Ġcan nab
ĠMem bre
ĠJac ob
ali tion
4 30
qu ire
Ġintellig ent
ri odi
ĠEx tra
( ".
ti eux
Ġ3 20
ac y
M IN
Ġguer res
15 9
il ton
EN NE
Ġbat tu
ce lles
ĠL CD
ĠR ug
Ġbou ge
ĠJ oy
ĠC uis
ĠInf os
aff ir
ĠMode le
Ġen cas
lin a
gust ation
ĠMul ticolore
ĠSa o
Ġtex tile
ĠAnn uaire
ĠI R
Ġte int
hyp othe
Ġri gueur
ĠA merica
ss is
R ay
Ġress ource
O ct
Ġmati ne
ĠOc casion
ak es
ĠL arge
l ue
Ġiniti alement
ins u
ĠOr le
Ġtravaill ant
Ġappro xim
ĠPro prie
ĠS om
mer ge
ĠLoc al
Ġm anteau
Ġvari ations
Ġt chat
Ġsan ctions
ĠEsp rit
cip itations
ĠM b
ac on
Ġmens uel
Ġimm un
EN TE
ĠPubli cite
Ġav ocats
Ġen che
chantill on
Restaur ant
D P
ĠL ook
te cteur
ĠD ip
Ġfile t
ĠBra vo
Ġesp rits
S ainte
Enf ant
ĠH ou
I le
Ġcomp act
Ï Ħ
ĠG on
w el
ĠFit ness
Ġtienne nt
ĠArn aud
Pre vious
anim aux
g ane
Ġchamp ignons
ra cite
Ġse cs
Ġde venus
Ġ12 7
V M
Ġaltern ance
Ġban lieu
las t
ni cien
Pro gramme
ĠMen tions
velop ment
aci de
Ġstat ue
Ġon des
t ch
ĠDan se
v ari
ffe ctivement
: \/\/
E uro
ph in
ĠSe cret
Ġcul tive
Ġchem ise
tabli t
13 7
áĦ ĭáħ
ĠHer ve
ĠIns cription
ĠLa f
AN N
olis me
v ate
ĠJ EAN
pan ou
ĠB rie
Ġhabit ant
exp liquer
Ġlib rairie
Ġgui des
Ġbap tise
Ġhar monie
ĠPar ten
Ġconclus ions
Ġch rome
S ol
Ġ10 7
ĠD oll
ĠTele charger
O ut
ĠCha mps
Colle ction
ĠC ond
Ġrense ignement
ration nel
B a
ĠF lam
Ġten ues
f oli
ĠWilli ams
Ġt ape
Ġpne um
ĠT rou
ĠL ist
er y
Ġconfe ction
ĠF lex
Ġcomplex ite
Ġparti el
Ġprodu ite
at mosphe
ĠJack son
Ġs ar
Ġexam ens
ĠG ermain
Oli vier
Î ·
habit at
av ent
ĠL ite
Ġpar ad
Ġpar ait
ĠD OM
Ġra m
IS TE
Ġsal ons
Ġvi f
Qu ant
pond ant
Un ivers
ĠGre at
i ff
ou les
Ġment al
ran ces
ĠP N
âĺ ħ
Ġoptimis er
Ġ Ñģ
ĠRo chelle
ĠPor tes
ĠP rice
en ger
ĠB az
ĠBook s
de use
ĠCh ili
OT O
Ġp alestin
Ġartif icielle
Ġlou p
Ġfut ures
f o
ĠTech nique
C art
ĠMe d
Ġm ali
od o
Ġrel ance
ĠA sh
ĠPar ty
g if
Ġc est
x i
Ġ19 00
ĠLib erte
ĠBan k
v ali
Ġvirt uel
Ġphra ses
Ġarchite cte
nes t
Ġconn ues
Ġtw o
Ġex istence
oigne z
Ġproje ction
Ġsigni fication
ĠJ ur
ĠCom par
Ġsou ffre
T B
rit z
ĠDe boucher
Ġhar mon
Ġrecense ment
14 6
ĠMi ami
li citer
s ky
Ġfac t
Ġouvri ers
ĠJui fs
imm igration
Ġpres ent
Ù Ĥ
uss it
âĤ¬ /
ĠRen dez
Ġillus trations
Ġde boucher
Ġret ours
er ing
Ġat outs
v ois
ĠM ill
3 70
Ġm ath
ĠL at
ĠK ir
Ġl oyer
qu oise
S alon
n oir
ĠP it
Ġme x
ap our
ro d
ĠA ller
ĠE co
Ġexclus ive
Ġprodu ctions
f emme
Ġbou ger
Ġpaie ments
Ġc ustom
RI P
s cript
e c
Ġanaly ser
ĠW at
gor gement
ĠRe mise
Ġm oul
ĠManches ter
TI ER
ĠâĤ¬ .
ĠM ig
ĠOu tils
di alement
Ġscand ale
T est
Ġpar a
Ġcivili sation
an z
ĠT A
tisse ur
ĠB ron
th i
ĠH ans
O pen
Ġexempl aire
Ġfit ness
Mess ages
ĠRus se
ĠL G
ne ra
Ġconcl ure
Ġtransp orter
H eure
Ġcro ss
ob tention
Ġli qui
Ġvan ille
ĠOr din
Ġabord able
gus ter
ĠSe ction
Ġpr ome
g ations
Ġw hen
ĠRe ine
l ore
e re
Ġsure ment
ĠV ia
Ġparticip ent
Ġclo se
Ġconcer nent
IC ES
D avid
ĠDe ad
Ġdent aire
Ġinterven ants
Ġ6 01
J E
Chris tophe
resse ur
Ġoblig atoires
ER IE
ĠT ony
Ġcol onnes
Ġlib er
IN A
Ġre view
an ches
Ġp ais
ret urn
ath le
w ikipedia
bu ter
en fin
ro ph
6 40
Ġpotentiel s
ĠS olution
ĠOr gan
tropolit aine
x q
23 5
IC S
Ġre tenu
ĠFin ance
Ġre couvre
Ġ!!! !
Ġseni ors
ĠSt ate
Q uelles
Ġache ve
Ġen soleille
ren cy
Ġse e
Ġdemande z
entre preneur
ash i
uss ito
k it
ĠGard en
à ¤
Ġen n
F RAN
con f
Ġins criptions
Ġport ables
ĠComp any
Ġf onc
Ġp interest
ĠSh ang
c ape
ĠConte mpor
456 78
h et
ĠF av
19 5
Ġ% )
V ES
dagog ie
assi ne
Ġag res
ĠLe ather
su per
it ro
Ġ19 59
Ġcont our
ĠAnton io
um in
veloppe urs
Ġconsul tant
Ġa line
rape utique
ĠVi olet
ĠF ix
ch ante
S F
rin aire
ĠUR L
AL ES
ĠMe illeurs
n ose
b ase
fic tion
Ġpin ce
B ern
ĠS ARL
tro it
B ains
Ġtuy au
Ġcour ante
Ġsou ter
ĠF M
Ġref uge
v ing
Ð¾Ð ²
ra lite
emp run
Ġbre vet
m ographie
ĠQu oi
Ġencad re
L ab
Ġ17 5
indi ce
Ġs can
partement ale
ĠS V
ĠM agn
ĠMar ti
li min
v ang
Ġaut oc
ili aire
Ġpil otage
In formation
Ġra jouter
O IRE
che ck
Ġpouv ais
C i
Ġlar ges
Ġlour ds
p ays
ĠR iche
Ġp ente
Ġt atou
ĠÃ ĺ
Ġcommiss aire
Ġcom ble
Ġcli niques
ag isse
ĠCap ital
cor ations
Ġcord es
Ġemb arque
in tre
ĠAp ril
am o
is p
18 5
ĠEur os
Ġt rent
AC T
Ġpharm ace
Ġpu ce
E nt
14 7
Ġent ame
ĠVal ence
Ġc are
Ġins iste
Ġp iv
ĠPro ject
ĠGu adeloupe
pt ures
vel y
IER E
Ġfe melle
P OS
Ġdrape au
ĠLib an
L y
I EL
D UC
": []
20 4
Ġval orisation
Ġg uil
Ġoeu fs
Ġimp ro
ve u
Ġpoli cier
lin ge
UR ES
Ġfamili ales
ch ain
Ġindivid uels
Ġb ibli
Ġcon teste
25 6
Ġbiz arre
orte z
Ġsy nd
alise z
Ad ministration
Ġtub es
ĠLangue doc
ĠColle ge
si gnes
ab out
Ġappare mment
Ġsu ites
22 9
ross erie
ue la
Ġchale t
tick ers
ad al
lle t
ĠF an
Ġweek end
p ack
Ġindic ateurs
Ġplas tiques
IS ATION
till on
Ġconfort ables
Ġve iller
Ġalig n
Ġ19 56
Ġcatastro phe
D ure
Ġg lisse
au cune
Ġ$(' .
ĠAss ainissement
ĠS W
id ae
ĠM ol
Ġbien faits
ĠRen aissance
ĠV ierge
Ġdev aient
mon trer
ĠS ain
Ġas sim
Ġmeur tre
inter net
ĠSer ver
Ġver be
Ġstric tement
Ġul time
d ric
ĠE SP
com bre
ĠP LA
% .<
ĠM ic
ĠGol den
ĠLe v
Ġp ili
17 8
Ġparti ellement
ĠT own
Ġconf inement
h on
co ver
Ġpuis siez
Ġan tique
p ages
ra che
30 5
K S
ĠPo che
ĠV OUS
ĠS oul
Ġin d
Ġcour be
AS T
ĠTE CH
plo ye
ĠM ous
ĠG am
Ġgra de
ĠAl bum
Ġb ombe
ĠP on
op athe
ag ing
Ġsav on
Ġparcour ir
ĠEntre prises
n ume
l c
re paration
Ġsubli me
ÌĪ ,
Ġob je
L ac
cid ence
dre z
os ph
ĠT ax
01 4
ĠGRAT UIT
Ġfall oir
Ġsui vez
onne tte
housias me
Ġapplic ables
19 95
g os
Ġdis cute
ĠEn gine
n an
Ġrend us
ade l
Ġstand ards
nom ination
if y
Ġextrait s
D VD
B est
s ations
Ġcomp tait
Ġflex ible
Ġc ib
M ot
.< /
Ġfac tures
Ġdisting uer
Ġob servations
Ġcor onavirus
ĠPra gue
P lay
C ir
th an
cul er
Ġe d
Ġmanip ulation
Ġjui fs
ĠMon dial
Ġm me
Ġperform ant
13 3
ak o
cep teur
En registre
at u
Ġsur veiller
Ġcompati bles
Ġchois ie
Meille ur
ass ainissement
ĠF ER
Ġprom esse
lab el
22 8
fort able
B oi
ent endre
Ġa iles
s me
ach a
ma de
ĠE asy
mi x
ĠD entelle
Ġgl oire
13 4
Ġe c
Ġide e
Ġimp li
Q uer
ĠM ir
20 6
ali t
zz le
Ġtrent aine
Am our
ĠS oc
Ou tre
Ġst atistique
ĠFin ances
Ġend ommage
ĠE dit
N H
duc atif
ĠT rin
j eux
cl use
Ġdomes tique
Ġla issent
rand a
ter y
Ġp ru
G ES
ĠDess in
Ġc rai
Ġh op
3 75
ĠS quare
ĠDi am
di de
ĠK ra
pend ent
par k
R ou
Ġac cidents
ry lique
Dist ribution
v illiers
Ġintro duit
Ġvers er
ĠJ U
le cted
Ġro tation
P oids
ĠR angement
Ġdi am
V IS
Ġbou cles
ien ter
pose z
ob by
ĠOu vert
mis es
Jus qu
ĠCe inture
Ù ĥ
Ġsol aires
ĠFig aro
v able
ad oles
ĠMun ich
Ġform ules
Ġrecher chons
Ġpri t
Ġaltern atives
Ġspacie use
>| <
Ġache teurs
ĠS tre
sy ste
ffe ur
ĠE h
Ï ģ
19 8
B leu
V ID
Ġl igue
ĠF le
Ġam ovi
ĠF RE
Ġsp ons
ĠCo eur
Ġaf ricain
ON N
p ierre
ĠNouve l
Ġinst ance
Ġvolont aires
comm od
Ìģ ?
ĠP AC
19 97
cien nes
ĠÅĵu fs
h istor
B run
Ġbeau tiful
2 16
Ġcollectif s
Ġoccident ale
chauffe ment
27 5
Ġf ines
Ġan ten
p lique
Ġincar ne
gm ail
T rip
ff f
/ -
Ġ19 48
che lles
ĠS ai
L ib
ĠO ld
Ġno tions
M ini
Ġnews letter
Ġf ris
b ur
aller ines
ĠInst ru
O F
ĠNEU F
Ġc ity
L Y
ĠM ik
ĠPromo tion
b order
ord ogne
ick el
Ġnu lle
Ġvol er
ĠGene ral
Ġar bit
Ġ10 80
Ġoff rons
ĠTim es
Ġgouver neur
ĠP ho
ĠAu gust
Ġmus cle
Ġor ganes
Par ce
Ġconcentre r
ĠBoul ogne
Ġ14 5
Ġbag ages
ĠD anemark
ver sible
Ġdi oce
ĠD A
ĠS I
eur o
ĠA ni
am ar
re cherche
Liv res
p ure
Mus ique
ĠI f
Ġali mente
in os
Pal mare
W indows
Conse il
qui page
ĠGar antie
ĠAir port
Ġd ames
Ġlar mes
qu entes
urb anisme
Ġast ron
ĠSer rurier
ac a
ĠSeu l
Ġdi amant
t rine
Ġ url
Ġju ges
Ġc d
ĠCh an
Ġre mont
ĠBer ger
Col or
ĠUn der
36 5
Ġdi agnos
ac ieux
or iel
tis ations
ĠBar re
Ġciv ils
L it
D ownload
Ġhar ce
t ue
m ic
Ġbl ue
act rice
Ġcompar ateur
ĠP ape
i ment
: "
ĠC out
Ġtra ding
Ġis ol
fu ge
01 1
P ap
Ġo xy
ĠRemp lacement
op en
áĨ «
Ġbois son
Ġme c
Ð ³
ĠB AS
ĠR ad
Ġdys fonction
Ġc umul
01 7
ĠHe alth
ĠS che
ĠFerme ture
H ER
22 4
Ġ Ùħ
K O
em ail
Anne xes
Ġemplo yeur
m oli
ill ent
ĠM ike
Ġp ull
L S
UN ES
Ġaccueill ant
Ġf oyers
ĠP un
ce t
Ġdi rais
ĠBe aux
Ġtra um
ĠCh ateau
t urb
se pt
N eu
di ctions
Ġterritori ales
Ġper tur
33 5
IC A
Ġexp rimer
a joute
imag ine
ĠC ouverture
sh irts
Ġmar ins
d un
Ġconvain cu
Ġd ictionnaire
ĠHong rie
Ġrou tier
ĠN issan
A didas
Ġcommerci alise
24 5
Ġan onyme
O IS
P romo
G estion
ĠF IL
x l
Ġ19 57
ch ure
Ġhe in
01 9
cer ne
R U
Ġneu tre
Ġje te
ĠTh er
ĠDe cember
pp es
Ġsou viens
indi que
ĠE tienne
AT A
En semble
ĠSam uel
Ġen terre
ĠProfes seur
Em manuel
Ġyou tube
Ġde bouchage
c n
pe z
umule z
Ġver tical
Ġb ordeaux
ci ons
Ġmus culaire
Ġver rez
Ġbe d
ĠM ent
Ġchim ie
ic ales
ĠM athe
D B
dre y
Ġoc cuper
Ġno e
AP P
Su d
Ġ& #
Ġ( "
ÌĢ ...
ĠA CC
pen ser
Ġdistin ction
ne m
Ġt amp
an ciers
Pre mier
J ET
Ġad d
ri nes
Ġallemand s
Ġa z
d ites
Ġmul tif
Ġre met
Ġdev iendra
l ain
Ġr h
ass ent
Ġheure usement
N P
me tte
ĠCh apitre
ĠPro vince
Ġ* ********
P os
Ġvali der
ĠK an
ĠComm une
Ġaf ricains
sign ation
Ġrece vrez
ĠMont agne
Ġsal ue
ĠH O
ce lets
Ġmin ie
lon de
2 15
Ġp ion
Ġex istant
ĠBos ton
Par king
.. ...<
ff le
Ġsuici de
Ġsens ations
v est
S ante
Ġp it
oli se
! )
c ension
hou ette
oure uses
Ġrob ots
Ġri ch
Åĵu f
ĠChois issez
are t
ai b
l ength
Ġv f
Car rie
BO OK
Ġb la
H aut
Ġajout ant
en cieux
ign ac
h im
an ime
av y
ch oires
Ġw ould
Ġl oint
Ġconstru ctions
Ġbord ure
ĠD onner
50 5
b orde
ĠCommand er
ĠP rise
Ġv igne
ĠP rime
vers er
ĠCh ab
ĠBur kina
Ġloc alise
Aut riche
g ot
ĠC og
ĠF irst
b oy
Ġadvers aire
inst all
u z
ĠSe pt
R iv
appe ler
imp oser
AIR ES
bou che
19 9
R hin
Ġimpression nant
Ġhum our
Ġtrans form
ju in
Ġindust rielles
ĠP ad
em bl
ente z
mb les
ĠS ON
ig es
ĠB P
Ġsoulig ner
ag an
mer gence
ĠGir onde
Ġvis uelle
dit ori
23 8
Ġg ab
' ;
D o
Ġt resse
A DE
par ts
ar isation
veloppe ur
Ġam ont
Ġ ico
Ar ts
ver n
ac ture
gn ac
V u
fer me
Ġ19 55
Ġcry pt
ĠG P
Ġ2 70
20 7
ti mer
Ġgene rique
Ġw el
ac cue
ĠD anie
LE C
22 6
exper ts
c ry
Ġence intes
ĠA x
ĠA quitaine
Ġincon ve
cla rer
oue ment
Ġo deur
cli ste
Jose ph
Ġz oom
Face book
Ġe te
Ġ2 25
nar iste
e f
l au
t otal
En vironnement
s pect
ss er
ĠVe gas
Ġman uf
Ġsub s
Ġbap te
cro che
ĠL ing
ĠQu in
ĠP ix
Bas kets
Ġvie wed
Ġreg roup
are ils
ĠR eu
Ar rive
Ġor ne
A i
Ġe asy
aph ae
Ġcontra inte
O ffres
I ci
g ris
... ,
ĠF ox
Ġrelie f
ĠR DC
Ġparois se
ĠLim oges
Ġchampion nats
Ġsaur ait
tel la
Ġli fe
ab et
Ġfour nies
m am
ĠExp ert
V ict
ĠMot or
P ack
ĠLa cets
ch ie
R ose
ru ary
ĠB ody
ĠCan alisation
2 18
lu g
ong es
ĠY velines
goci er
mon i
Ġb ic
Ġtravers er
Ġ% .
ĠE uge
Ġ. .<
Ġ2 80
Ġanne xe
Ìģ ]
Ġstock s
ĠO per
Ġvag ues
cri vent
te il
Ġdig itale
2 11
Ġ" ,
ĠOb ama
20 9
Ġn utri
Ġ2 60
ik o
S tra
av ane
V acances
â Ķ
Ġsou le
ĠExpl orer
ĠN ou
__ _
Ġs aga
ĠXV IIIe
Ġen leve
ĠR SS
ĠJohn son
Ġvin aigre
Ġoff en
24 6
Ġp rou
Ġincl ut
Ġces ser
Ġchar pente
Ġal t
Ġde ven
r ui
50 6
ĠM ieux
ite urs
b ration
v aisselle
Ġbi jou
occup ations
tif i
al tern
ĠT OUR
Or le
ang ent
Ġdir ait
ol did
{ }
ĠE conomie
Ġcar di
i us
miss aire
Ġrap idite
H I
Ġus b
Ġent ra
Ġl os
Ġcap su
a jax
om iques
p oli
Ġroule au
Ġapp li
ĠCo vid
Ġrecy clage
Ġsoci o
Ġlum in
ĠAnsw ers
ĠC ER
ĠRap ide
Ġbrit anniques
Ġat ti
qu itation
ĠB ond
23 6
Ġsubst ance
Ġ19 54
U ITE
D istance
s auf
ve illes
ri on
t riques
h n
me lles
Ġinde mnite
Ġcal caire
Ġh am
at tra
Ġs age
ĠLa ura
Ġu sines
ĠUr ban
Ġexp os
Ġn an
TI T
ĠR onde
ĠBl ouson
Ġm aux
ĠRou manie
Ġb ours
ĠO ur
Ġgra vite
ĠPra tique
Ġ{ "
ĠSp ace
Ġave ug
ĠC IT
Ġraccorde ment
Ġc ess
4 10
Ġsp ace
Ġconstru cteurs
Ġd ign
en contre
Ġmette z
ĠF is
ĠW ish
Ġpe aux
ĠK on
audi ence
P ant
Ġp od
Mari time
ĠDre am
ag glome
01 3
Ġen de
Ġfonction nent
ĠT RAN
Ġvis a
X z
enti al
Aut om
ar dez
ĠA mi
ĠS auv
AT T
inst ar
tab ili
rit ablement
Ġrest re
gle ments
16 6
M ach
Ġindust ries
id ence
C am
ĠWord Press
Ġf aune
Ġmat ches
ĠCas ablanca
Ġindi quant
ĠLis bonne
ĠM I
Ġgra isses
ĠPoi tiers
mb lage
te cte
ps on
Ġargu ments
J ohn
ab baye
Ġsenti ers
Ġav ailable
Pro duit
ar ine
M D
Ġtra m
ĠI MM
Ġenv oi
Ġl entement
Ġthe m
Ġg ymn
F ig
ĠLog iciel
v ens
Ġw ater
ĠUn is
st on
Ġ5 50
Ġf o
illi te
19 96
ĠW ild
Ġrom aine
ce voir
Ġsub vention
o on
te cter
Ġcog ni
Ġrab ais
Ġp oker
Ġsix ie
p rouve
mar y
Ġnu ages
Â ¿
Ġf rench
Ġar om
Ġsem estre
Ï ĥ
Ġam en
Î ¼
c il
im b
p ist
excell ence
ili ation
ĠPh ilos
ĠS oit
26 5
20 3
Ġmarch ands
an nonces
Ġa ro
ĠA joutez
conn u
Ġ& &
W D
as a
li ces
ĠJ uste
Ġentre tenir
Mar che
Ġse ctions
Ġviol on
2 14
b igosearch
Ġvis itor
ĠD akar
an cier
ĠT os
du ites
29 8
ĠB ul
Ġra s
ĠPers onnes
Ġrembour ser
ĠO F
m ulti
Ġth rough
Ġpne u
Ġran ger
ule ux
ĠCor p
ĠApp artements
ĠMax ime
Ġ$ .
ĠSe arch
ĠS CI
an ni
Ġad m
Ġspe ed
Ġrig ide
ĠCab inet
d oise
Ġch ine
ĠT OUT
em bar
Ġp ress
Ġar ti
Ġbless ure
ĠM C
ĠM IN
Ġsynd rome
Ġtou ches
Ġsenti er
U I
comp enses
Ġk now
ĠMe di
Ġfas cin
Ġinvit ons
P oints
Ġsuper marche
Ġtra duire
Ġca mps
16 9
Ġinter dite
ĠHu a
Ġcompe tence
Tou jours
j k
ĠS PE
ing o
ouss ins
se m
ĠG S
Ġn um
Pro fil
ĠIn iti
war z
lic a
ĠCar tes
Ġmax i
ĠV ern
Ġterr oristes
c ing
Ġpro viennent
ĠU nies
c ass
as k
Ġdistribu teur
Ġ19 46
ĠSur tout
l sea
Ġj ack
Ġ19 47
Ġamb iti
ĠA ustra
ĠCh oc
Ġcompos ant
th es
Ġse re
Ġcherche ur
Ġprodu ctivite
Ġpers u
ĠR av
g atifs
Ġ ><
Ġt uto
ĠCer tes
V ols
ĠOx ford
× Ļ
Ġcap uche
30 8
15 4
Ġminim aliste
Con ditions
ĠHistor y
Ġfix es
Ġoptim ise
b ody
ĠCo ol
ĠW olf
ĠD rive
Ġcol l
g ov
ly n
Ġpasse z
iz z
ĠBe y
Ġfor ge
ĠInst allateur
th ieu
Ġv iend
ĠLe clerc
ĠCent rale
Ġassure nt
cur rence
ĠChar lie
ĠAm our
Ġprog resse
i onner
Ġattra ctions
Ġac cess
ĠFas o
Ġbou lets
Ġimp rimante
oit ou
cho ol
ĠAn gers
ĠTh om
re mp
ĠBl oc
Ġt rs
Ġpermett rait
si lien
par tis
ĠB aie
min i
Ġper le
modi fier
":[] ,"
ous in
ira tions
Ġ/ >
ĠN ob
Ġv iendra
Ġrend ue
ĠParis ien
Ġman ne
ĠMate las
Ġc oussin
n ait
ges tion
ĠG uit
u zzi
Ġexist ants
ĠK ur
ph ot
Ġdu rer
Ġsignific ative
Ġcommande ment
Ġpart ant
ĠD ress
omm y
aut oroute
ant a
ĠKe vin
Ġsou mettre
Ġs at
Ġsais onnie
By Id
an iste
Ġpl ates
ver g
ĠNav ig
Ġto iles
Ġvoy ance
bl ack
and onner
ct uration
Ġs un
Ġenseign ant
ils on
Ġpuiss ants
Ġrom ain
ĠNet work
Ġd au
get Element
her be
Ġpu its
Ġen le
... ]<
Ġg ains
AL ITE
Ġ ________
H L
ar tistes
lo y
ĠSur face
ex trait
ov ol
heure ux
ĠApp lication
ak s
oy ens
ĠR oss
Ġm ost
se x
Ġavis No
Ġc ic
c ose
en cad
Ġin to
en ix
Ġconse illons
A lsace
Ġglu ten
ĠCal ais
ne u
?? ?
Ġde ja
ĠY oung
ĠBar be
P OST
Ġc rises
che veux
ĠSky rock
Ġprison niers
Ġx D
tru cteur
Ġ0 60
di athe
ĠL ion
ET TE
Ġ- --
ĠEx e
at on
Ġcock tail
Ġadvers aires
] ]
rup teur
Ġlinguis tique
Ġcannab is
Ġver tes
23 2
att an
Ġ$( ".
ĠUtili sez
Ġra vi
Ġven deurs
ĠSem aine
d le
i tine
Ġpat tes
EU X
b ation
ĠFer rari
Ġign ore
ĠE M
ro ports
ĠDi ffe
Ġmet tra
fin is
im meuble
28 9
che cs
ĠF ro
getElement ById
ĠL Y
ĠN ext
ĠGen re
Ġfais aient
Ì ĩ
end es
la ve
Ġad mi
Ġb os
Ġcro chet
Ġrob uste
Ass urance
Ġradi ateur
Ġpro cesseur
Ġm ignon
G EN
Ġchou ette
ĠF RA
Ġcons entement
ĠM atie
ĠR P
Ġdis cret
Ġcouver ts
Quer y
Ġrev ues
Ġur gent
ĠAv ignon
ĠD ynam
Ġes cla
Ġm ys
ali sent
Ġat out
ĠSal v
eff ici
Ġco tisations
() {
ĠC all
ĠPro ce
Ġaff ronter
>> >
ti k
ĠD iesel
ĠMode l
aper c
z abeth
Ġar m
f aill
17 9
Ġra bat
Ġ; )
âĢĿ .<
app uie
Ġsouhait ons
Ġinfir mie
Ġplan ches
Ġl iterie
S O
Ġm ust
29 7
it res
Ġv us
Ġpl ut
Ġrenouve lables
clam ation
14 3
gu liers
st al
Ġa h
G rande
Ġweb site
ill as
z one
tim ation
ĠK ab
AM A
Ġqu ai
ĠSE C
Ġc rus
ote ch
ĠNic ole
Ġcigare tte
Ġye ars
ĠAl ger
ĠC aisse
E lles
ĠCons tan
22 7
Ġlu dique
ĠMartin ique
sh ip
Ġventi lation
f ri
ĠR af
ĠOff iciel
adi ne
k n
Ġd ays
Ġ9 11
A ct
ĠP li
ĠS R
Ġass istante
Ġn ie
b ru
16 7
en rich
Ġal co
Dem ande
Ġb v
. (
Ġperd ue
ac teurs
ĠV la
Ġinv itation
ĠSe e
p y
f lix
ĠPe ople
ĠL ind
lab orer
g b
st one
Cou cou
Ġproble me
in ions
ĠS now
Ġre tenue
Ġer gon
. âĢĿ<
TI VE
Ġin novation
at ti
avas cript
Ġmon op
Ġfig urent
am ende
Ġman uelle
D et
Ġinter locu
Ġman u
ĠNo el
ĠDro its
B LE
pl ac
ĠLau rence
bon ate
Ġbe be
lic at
but ants
und ai
si le
r ary
Ġ12 9
ĠH au
ĠK az
ĠE V
Ġgenti lles
Ġch roniques
li ent
pers onne
Ġab st
ori asis
An cien
Ġmusul man
ĠCh al
Ġon ze
alis able
s ocie
ĠÐ ĵ
auv ais
Ġanti cipe
ĠG RAND
Ġquar ante
rat oires
Ġcouver te
Ġse melle
ĠGil bert
ti quer
Re view
Ġrub an
ĠRes earch
Ġpropre te
f lo
ĠEx cel
Ġgra mm
Ġp atch
S ub
ĠVi agra
cou vri
ĠP inel
Ġm uni
Y R
us ions
ĠBoule vard
Ġdesc endre
Ġappro fond
Ġpo ils
ĠZ i
Ġb and
Ġaut oris
ĠBou cle
Ġmultip lie
Ġc oiff
Ġ19 53
Ġgra in
b nb
Ġindi ce
P iscine
Ġdire ctive
ati o
Ġb ague
ĠVirgin ie
U k
s ab
ĠB un
Ġremp orter
Ġrest aure
aiss ances
Ġsa chez
ĠLo gement
24 8
ĠCol oriage
ĠT empe
Ġ19 42
empe reur
B onsoir
ĠC iel
est o
le ase
ĠT ch
ĠYou tube
Com mune
ĠTex as
ĠCoffre t
Ġgliss er
ig i
ĠNett oyage
ĠL ast
ie re
b ies
ĠRob in
Ġaf ter
ille ment
omm ier
aine ment
Ġfame use
B D
âĢĶ âĢĶ
Ġen veloppe
ĠDos sier
> :
18 6
ĠMess age
criv ains
Ġcre use
ret our
Ġfav ori
vo quent
Ġpe indre
O ne
Ġscul pture
ĠQues tion
utili te
g ative
ar rondissement
ĠAnth ony
Ġrou ler
Ġg ol
ĠC lin
Ġ19 49
lic opte
Ġs ois
Ġsex uel
C onn
ache z
E ducation
Ġc enter
13 2
Ġench ai
ĠT aux
m ence
ĠV ILLE
Ġd j
om y
ĠOu verture
s aison
ĠE conom
ĠH it
Ġp hone
Ġ ÙĪ
rai ries
Ġbou ill
Ġass urant
Ġviv ants
ĠPie d
Ġv ot
ĠW ed
ĠCh allenge
Ġtermin al
Ġache tez
Ġd ressing
Ġjou ant
Ġco e
c are
Ġb oy
ĠM AG
Ġ16 5
iz er
Ġa pe
gor ge
ĠF ay
ĠR ain
Ġpres cription
ob ie
Ġcomple ts
ĠPoli ce
ĠPort ail
ĠV ues
Ġentour age
An nonces
Ġprem ium
ĠOr ganisation
J ardin
p oste
Ġpan ique
ĠY oga
Ġg ants
Met a
or f
ĠJer sey
m ies
Ġ19 36
U V
Ġencour ager
ran o
Ġsi de
a ffe
habili tation
Ġadministra tifs
ĠK ris
Ġcra inte
ĠD ore
ĠK al
inter diction
N D
h ot
Ġsal ari
to nes
Ġrep ren
Ġdev rais
ĠV il
ou dite
Ġa ussito
L yon
Ġa ire
om ac
Ġprodu isent
ĠMen u
n oncer
Ġb ili
Â° Â°
25 8
Ġprob abilite
Ġcol ler
ĠQU I
Ġsugges tions
Ġamb ition
Ì £
Com ple
Ġti endra
Ġinse ctes
ĠMag ic
Ġcas tor
ll y
ĠCat alogue
ĠA gent
az ines
Ġcar refour
Ġob tenez
Ġjou et
st atic
D os
Ġcin quante
' .
w ing
z anne
Ġsh op
Ġw all
Ġbas kets
ÌĢ ...<
D r
ĠMar ket
os tat
ins titution
ĠJan uary
an ine
ĠNouve aute
Ġsus pend
ĠHeure usement
d acteur
Table au
gl ages
28 8
Ġhabit at
UM P
Ġexpl ore
Ġtrop he
; "
Ġserv ant
30 4
ĠB ON
Ġa ste
re y
ais er
ari os
Ġsau ter
ĠJ ob
Ġfant aisie
Ġe very
ĠH U
ĠÐ ½
19 4
Ġmon aste
A quitaine
Ġhebdom adaire
Ð ±
Ġrenouve le
he ures
ĠJohn ny
Ġgendar merie
C ent
p ri
Ġla tine
Ġdou bles
Ġh otels
ĠCar refour
Ġtri om
ĠTra vel
Ġcou ette
ĠValle y
ĠJ OUR
ĠN I
19 6
ration nelle
Ġne ed
Ins cription
Ġsyste m
Ġher bes
Ġpar i
Ġconsac rer
ĠIn vite
c ologiques
Ġpix els
Pro gram
Ġemploye urs
Ġm aille
Conc ernant
Ġhy gie
12 00
Ġlivre t
Ġcomp tent
ĠSyl vain
Ġbre ve
( $
Ġposition nement
Ġ15 5
Ġrappro cher
in cl
s am
ĠLa ve
go ogle
in ner
n gue
Ġprim aires
v ocation
17 7
ĠInternation ale
S ie
Ġti ge
Ġmaj or
ib ou
ĠC uba
ĠU E
Ìģ ).
ĠCh oix
Ġc ens
Ġv ierge
pro duction
Ġpar ap
product s
ĠComment aire
Ġsh amp
ĠA thle
vent uels
g ien
OUVE AU
Ġconf ier
oli d
Ġble us
ĠMount ain
ĠX IV
Net t
Ġmulti ple
ĠM aine
ur ich
T Y
n ologie
Ġcal ories
Ġs ali
Ġpor teur
sh er
Ġb rie
ĠP rive
ue uses
ch oue
Ġinsp iration
ĠFin lande
ane t
v oyez
P opul
ache teur
Ġfra ude
Ġsages se
Ġal te
ĠW ol
Ġcell ulaire
ong o
Ġval oir
la ne
aign oire
ses pe
Inte rior
Ġrespect ant
ĠAut riche
Ġprovin ces
ĠH uile
Ġa cide
ĠCou p
Ġfournit ures
Ġmine ur
L INE
v ange
ĠMar co
Ġh onor
Ġ19 43
k ok
H abit
Ġsuffis ante
fin ies
Ġnom bres
ĠLu cas
Ġg ang
Ġrepas ser
Ġaut or
Ġall ume
Î »
Ġterr estre
Ġfournit ure
Ġh its
18 4
cap it
Ġdou tes
Ġemp orte
mar ie
Ġcons ci
zu ki
Ġro is
76 7
ĠT ah
Ġvert us
commun ications
23 9
ĠChe m
ot ti
Ġpres tige
Ġtar te
ĠCor re
g nement
ĠEN TRE
d v
te lles
Ġaff ilie
CH A
al uminium
ĠD og
S ources
Ġpis cines
st ore
Ġt onne
ab ou
Ġcenti me
ĠCh acun
æ ľ
D urant
rendu m
26 8
Ġgout tes
Ġreg ards
yth ing
Ġac tiver
r onne
ĠB ik
ĠL argeur
dro it
ro gation
Al bert
Ġregard ant
ĠM OD
ĠBes anc
ra di
lin aires
ĠJul y
si der
ĠLau re
ĠP oints
ĠSal omon
i ante
inform er
, -
K K
C ab
Ġtri o
ĠCap acite
tiss erie
pic erie
Ġb ody
ĠCon cept
ĠF aut
Ì ¨
g ame
ĠY u
ats u
Ġcol loque
P ou
oy a
Ġcl oud
Restaur ants
ĠS oins
au ville
in ne
cl os
ĠPer pignan
ĠJon athan
lior ations
re ad
Ġag ain
Ġ19 52
s an
ĠD ut
ro tique
ĠParti cu
Ġi ran
Ñ ħ
Ġasi atique
ĠJ ura
alle mand
Ġfant o
ĠS car
An g
ann ulation
ovol tai
Ñģ Ðº
ĠT che
23 7
ĠVol kswagen
ĠBel l
tis ans
ĠMar ion
ĠCar los
18 9
Ġpo chette
24 9
Ġhe ur
d ll
Ġrassemble ment
T otal
t rant
ĠK el
b ol
ĠPRI X
ul u
Ġgrec que
Ġdes siner
Ġsymb oles
pe cteur
Ġchau des
Ġra cine
n isme
aill y
me ur
ĠC ape
ri ter
ĠSE O
Ġju pe
ĠMi roir
Ġsa veur
E le
Ġdev oirs
ĠT ac
Ġper turb
ni ents
cate gory
tech nique
un aux
Ġla pin
0000 00
ĠD y
us ta
fici aires
IER RE
Ġmo elle
40 4
Ġran gs
Ġdemand ant
S an
Ġb aies
Ġes tiv
Ġnoctur ne
Ġper fect
Ï Ĥ
ĠP orsche
ĠE D
en cour
mb res
ĠJ ar
ĠR T
Ġmont rant
ĠM AL
Ques tion
ĠHum an
Ġcomp rise
US S
ĠCon verse
ir on
Ġtranqu illite
Ġinte rieur
ĠQu ad
Ġenvis ager
Ġpais ible
T exte
P RES
Ġsouver aine
Ġapp ui
amb a
Ir lande
Ġrac cour
Vin cent
ĠPo ke
ĠC AL
OUR T
Ġ( âĢł
23 4
m id
Ġconsult ations
ĠAu gus
Ġfranc ophones
Ġindic ations
cifique ment
Ġdis sim
76 8
Ġ13 6
Ġre change
ou p
Ġo per
Ġbanlieu e
di atique
V euillez
exp ert
Ġcle an
Ġfrag ile
ic aine
Ġorgan ique
cal aure
dic at
ar u
Ġpol onais
D el
ĠF la
Ġbar res
ĠÐ ¸
Ġfon te
ĠLe g
stan bul
ĠAss istant
ĠOct ober
19 7
ĠJ ust
46 7
Ø§ ÙĦ
Ġcouliss ante
Ġdiscip lines
Ġpor no
15 3
ĠCG T
inten site
H ors
log o
IL LES
ĠI ran
ĠF F
Ġtrom per
Ġtrans ferts
17 4
ol ais
ĠT oi
Ġhydrau lique
in cendie
ĠB esoin
25 9
Ġchauff er
l ux
k ers
Ġfisc alite
Y E
di le
ĠCol lier
ĠUn iver
Ġm il
ĠMo tif
Ġcau ser
Ġc age
Ġdev int
Ġune s
Ġtent atives
ĠPal ace
Ġchan ter
ric ulation
c ti
ci on
ĠAt lan
int ures
ĠSocie ty
b ai
e ffe
DI A
chantill ons
R P
â Ī
Ġessaye z
Ġvieilli ssement
qu ide
ĠSe ptember
E tienne
ven dre
Ġmira cle
Ann uaire
ĠCommer cial
oi es
Ġord er
ĠC ard
Ġb ret
fi ent
ig le
Ġpar rain
ĠF acile
cher ie
18 8
27 6
Ġdou b
ĠAn gle
Ġvit amines
thod ologie
T arif
ĠSeu lement
2 13
ĠMet tre
ĠProfes sion
ond on
O range
Ġnot aire
cur sions
ĠC ache
w x
Ġex haus
Ġimpecc able
Ġquin zaine
Ġpot able
Ġtrans it
ois y
Ġfol low
ĠV IE
ach ant
V IE
En glish
ĠP EU
27 8
ir ait
oit ures
Ġadmin istre
ĠG ib
ĠT ak
ĠS F
Ġa us
Ġun is
d og
Ġe en
iss on
[ '
ĠPopul aire
Ġ19 41
Ġeffe ctifs
Ġj unior
it age
IT RE
Ġre paration
C el
ĠR on
30 7
cit anie
ĠT od
ort ant
Ġfi ables
16 4
Ġinst ants
v ole
Ġstat uts
cro ll
Ġmusici en
ĠK os
ge ance
till age
char pe
travel q
ĠG un
f leur
lan cer
Ġal liance
M ON
Public ation
Ġprocure ur
Ġ12 6
ĠSt one
Ġhy bride
ĠS ul
IN TER
p ing
ĠRe ebok
ghan istan
Ġcamb ri
or chestre
ĠIr lande
ĠCos tume
Ġfol k
oc ra
ar ly
ĠPar fois
Ġst aff
h istorique
ĠR CS
Ġgout te
CI AL
Ġminim ale
Ġw ar
public ains
ou k
eur ope
ĠBro ok
ĠTou ch
ĠF O
lace ments
re m
Ġautre fois
ĠPl aces
ĠNo vember
ĠJu pe
nav al
[]+[] )[
Ġop us
Ġh ot
ch u
Ġfour nie
Ġmin orite
ac ade
ro sion
Ġ7 20
B ureau
Ġpar ution
ĠAc cess
Ġd ot
v odie
Re p
Ex trait
) (
in vestir
ĠCh ina
n uit
5 50
Ġval oriser
agram me
ĠR id
Ġrur ale
m ologie
Ġz en
Ġf use
Ġemprun te
ĠBr une
Ġcan ne
ch af
ĠV ari
tific at
Ġra v
Ġ!!! !<
ĠDub ai
Ġh ong
ĠTar n
ĠJapon ais
ĠH ier
Ġpa ve
du isent
rie uses
Ġpont s
ĠPor no
um i
Ġvit res
gra d
Ġapport ent
ĠLe urs
A vez
ĠW ifi
EL S
gra dation
Ġgrande ur
act ory
Es pe
ĠHe ad
Ġd angers
co ce
Ġm ale
ĠLac oste
bi han
Com bien
inter n
ĠPot ter
di aires
ĠL ens
Ġvoc abulaire
24 7
Ar re
k w
Ġre ti
Ġpron os
Ġun ies
Ġma ternite
orte ment
S tat
ali mentaire
Ġb its
Ġl an
ĠKar l
ti ciens
ĠL aissez
ĠTh ib
ĠC oiffure
â ĨĴ
Libe lle
Ġlabor atoires
Ġeng ager
ĠQu artier
Ġportrait s
Ġpopul arite
Ġ4 000
car tes
sp ot
d ney
P i
P ra
z iers
ĠS oud
oph er
Ġc discount
Ġche ck
lo va
Ġg irl
Ġench ante
ap o
Ġpoursu ivi
Ġexp lication
Ġp end
ĠAl b
Ġbour geois
t c
Ġv amp
ĠV OL
ĠCh ange
16 3
Chris t
amp leur
ĠM ille
jour ner
Ġclassi fication
C K
Ġp oll
em ble
nes se
O FF
Ġarg ente
ch is
z es
Ġsp acieux
dd h
Ġgen ou
Ġquar antaine
gend es
28 6
Ġsu isses
Ġsouhait ant
Ġemp orter
hol m
ĠM ail
ĠLib rairie
ad re
b ant
ĠMo on
sse t
26 6
LE X
tin o
Ġw here
Ġcoup able
r q
s ites
ĠS oyez
qu estre
Ġsouhait s
ur ite
ou nt
C umulez
ĠA mis
as er
Ġra che
V illa
Ġexplo it
Ġ3 65
Ġinoubli able
ĠH TML
app lications
ĠSc and
ur age
Ġcy cliste
Ġanim ale
Ġaid ent
en cy
ĠP rim
IT S
ag one
ĠC ay
) |
Ġcons ens
Bra vo
ac cessoires
Ġgra mmes
18 7
tu ces
ati can
adi a
Ġouv rant
V en
Ġcon ventions
ĠR esp
Ġporte urs
ĠN AT
ĠNouve aux
Ġprom ette
Ġps oriasis
utilis ateurs
ĠR oule
al erte
Ġspectac ulaire
Ġ ours
Ġcomp oser
pe t
di an
Ġla mes
ex ce
comp agne
Ġsp ot
de puis
sent ait
AN A
Ġbou les
ĠF lu
99 0
11 00
serv ices
Ġgentilles se
croy able
Ġnavig uer
ĠSal ut
Ġa yez
Ġj un
ĠShang hai
ĠS ah
Ġreb ond
20 2
v alle
Ġorganis ateurs
ue z
AU L
public ain
ĠChe lsea
f c
ĠGRAT UITE
ass oci
Ġor chestre
id get
ci fie
Ġb oit
DI O
ĠL iens
ch oc
Ġh onoraires
Ġpart agent
Ġindi en
Ġac oustique
ĠTech niques
ĠC ost
Ġter rasses
Ġcol oriage
ĠT ant
Ġoffici er
L in
om pe
f ils
Ġoe il
Ġd am
Ġbal les
vit ra
Ġare a
Ġ9 25
ĠSing apour
institu t
19 90
ĠÐ º
tit y
Ġmanifest ants
Ġ18 00
Ġblo quer
Alex andre
ĠFire fox
Ġlois ir
Ġatte ints
si mo
ĠL OU
um age
30 3
ĠGran des
ĠP ain
s ors
Ġparfum s
Ġvi olet
iss a
Ġdom ination
Ġsurv iv
Ġlumin osite
Ġsou mise
ĠRE G
Ġtran ches
Ġs tudios
Ġsyn chron
lim ard
19 94
ok ia
Ġmon des
Ġinter rom
ĠM AC
ĠP IB
Ġsoix ante
ĠAl tern
opp ose
ĠC AD
un tu
Ġpap illon
ĠCas a
ĠM agne
ĠCl assement
vent ail
Ġr hum
ĠE ste
Ġc lan
Ġdynam iques
ĠL yn
ie ttes
J ourn
d x
29 5
C ade
n or
ĠMar guerite
am y
ĠO re
Ġbati ment
Ġse ine
an ia
ĠL aine
Ġri des
m ile
ĠMeille ure
Ġemb ar
ĠW inter
Ġdispos ant
13 1
em in
ĠQue en
ĠMade leine
ex tra
E conomie
A CH
ĠN in
Ġlo ge
ĠPat rice
ĠFene tre
Ġchaleure use
Ġboule verse
off ici
Loc ations
ĠEmp ire
Ġgre ffe
du is
Ġinnov ations
cesse urs
Ġcam ions
Ġc ale
Ġpartis ans
amp li
20 21
as ie
Ġcre ux
av ions
li ve
Ġde tails
us ure
Ġbulle tin
ĠK enne
Ġhe ight
Ġutilis ons
Ġval ue
Ġpure ment
ĠTra duction
Ġf ic
ĠFran che
ĠP DG
Ġb rique
C x
Ġrev ers
ren s
ĠEx cellent
ĠG allery
Ġ12 4
Ġs amsung
Ġglob alement
ĠRel ations
ĠC oul
Ã Ĳ
Ġcamp us
Ġcouver cle
gl as
min a
Ġgra ins
Ġ19 51
Ġti roirs
Ġ19 38
Ġfourn issent
ĠAb ri
Ġe book
Ġp izza
Ġprom esses
ĠS oph
Ġconf usion
ffe e
ĠR ois
Ġcorre cte
oo pe
Ġt ache
T TE
Ġser ons
Ġpom pes
V ue
au dit
ĠCi alis
T el
Ġsurp ren
ĠN otes
vi ation
Ġph ares
R ien
Ġreconn us
ĠV II
aque t
Ġ14 9
Comm un
ĠSau f
Ġst ra
n ateur
ĠM anteaux
Ġimp oser
li an
C arre
ĠHy per
3 45
Ġofficie lles
Ġin cons
Ġd urs
Ġhuman itaire
Ġfisc aux
Ġve dette
Ġrame ner
ĠOs car
Ġs Åĵurs
ri eu
Ġac tivement
accomp agner
S cript
iti mes
oo ds
f ly
ĠSteph en
all ois
Ġressenti r
ĠInte rieur
Ġcontempor ains
Ġpanoram ique
de pannage
Ġbet ween
ari es
Ġcle f
Ġmen us
K indle
ĠA j
ven ter
Ġd ragon
Ġbv seo
rib ute
te c
Ġorient ation
Inst allation
tra cking
cur sion
si rables
Ġren tabilite
Ġvis uels
Ìĥ Â¢
29 6
E mb
ous es
Ġaccomp agn
D W
Ġfonc ie
Ġfonction nelle
ff ic
Ġservie ttes
ĠBe d
ĠOr d
D O
Ġnoy au
Ġ19 18
ĠEn registre
ĠRewards Cumulez
c tre
60 8
p ay
ĠLou vre
ĠH oliday
Ġrep roche
Ġe lect
ĠTend ance
ĠChau sse
ĠB ull
Message par
ĠI MP
Ġen glish
28 5
Ġautom obiles
Ġchev alier
U l
Ġsex uelles
Ġp cs
Ġjuridi ction
Ġm ic
Ġarb ore
vent uelle
Ġcath oliques
Ġp ande
ĠG amb
Ġhau tement
AN NE
ĠAB S
we e
ĠL uis
ĠCor ne
Ġhom oge
B ase
Mar seille
ç ļ
Ġcommun al
tig ieux
Ġentre tiens
>[ ...]
c ache
Ġdirect s
Ġconver tible
Ġv ign
Ġlenti lles
ĠS G
s aint
ĠRe y
Ġvel ours
Ġuse d
ĠJou ets
ap est
ĠP acifique
ab lo
Ġsugges tion
ĠAc tive
al arme
ĠI L
tra vail
ich y
Ġg rim
ĠL T
se ill
ĠRed oute
is hi
Ġsort ent
Ġo v
Ġf aille
ĠBrig itte
sul tant
24 4
Ġconf ront
l ots
áħ µ
Ġ Åĵil
Ġg au
30 9
Ġ13 9
Ġ orth
Ġann uaire
ch est
Ġor ale
Ġw a
Ġmos que
Ġ ic
Ġrecons truction
Ġj oints
d h
01 2
Ġfl ore
ales tine
% ),
res sionne
Ġmoder nite
ĠB EL
ber land
Ġcarre aux
Ġd og
ĠCro is
ĠR oul
it ures
Ġ... )
Ġbi ologiques
ĠK lein
adi er
ĠAf rica
b ord
ou m
k un
b ury
Ġex act
ĠR ent
Ġconcert ation
Ġspirit uelle
M at
M ath
Ġpor c
t ents
vis uel
n us
K A
Ġver b
ra ting
Ġf ly
ĠNE W
Ġintro duction
ĠA ssemble
ach ing
ĠF EM
Ex emple
ubli n
id jan
Ġann oncer
Ġ20 5
lin qu
ĠMar ina
ĠF res
back ground
ĠLog o
Ġri v
Ġparten ariats
ĠV IS
ĠP ointe
Conc ours
D ess
Ġdis per
en di
ul ent
Ġcra que
Ġins crite
Ġas censeur
à¸ ²
ĠFour rure
Ġid entiques
De fault
arch ives
ĠJ os
ĠCro atie
pro ch
ti tivite
ĠCont acter
A ix
ĠV illers
Ġuni forme
w es
Ġchamp agne
IN TE
4 70
charge ments
b one
ig an
v oyage
av al
aimer ai
Ġ12 2
ĠâĪ Ĵ
Ġqu an
st ation
Lang ue
Ġan ce
O ce
Ġrelig ions
R AP
ĠP lastique
ĠW E
ay ak
vent uelles
Re mp
sche ma
Ġrenouve ler
Ġfaibles se
Ġgrande ment
Ġfisc ales
cla te
ble u
Ġconf re
Ġge le
ĠT OP
Ìģ ;
Ġnu ances
z in
ette z
Ġdisp ense
alog ique
Ġp inel
ĠForm ule
15 2
Ġmaroc ain
ĠPro che
Ġz u
moc rate
Ġs cript
Beau coup
Ġvas que
U LE
ĠChar le
ĠCop yright
ĠIMM OBIL
D oc
ĠB ulg
ĠBulle tin
ris te
ĠF ood
27 9
Ġri di
oph y
ĠRet ro
ĠCin q
Ġprest ataires
........ ....
ĠA IR
ĠHua wei
lector al
mp le
ĠOr ganis
Ve nez
Ġsub it
t ous
ĠC FA
cal age
ĠWi Fi
Pro duct
ĠPuis sance
ĠAr moire
Ġman quent
t om
ĠF ur
A INE
Ġspirit uel
Ġfoot balleur
ĠM our
ĠVal en
Ph ot
Ġense ignements
Ġmo tiv
art z
Ġsil houette
ĠTer min
s rc
Ġren voie
pon sive
ĠCh angement
26 9
Ġd ieux
Ġco alition
Ġbou chon
ĠÐ ¾
autom obile
i or
cili ation
ĠD ix
Ġess aie
; &#
Ġparlement aires
vang ile
ĠSu ivant
ck y
Ġcl aires
Ġimme ubles
ac cou
Ġf irme
Ġdonne z
ER A
Ġcandidat ures
Ġcoul oir
ĠPro duct
Ġrepro duire
Ġf rigo
P RE
ä º
Ġrele vant
Ġsupporter s
ĠI ce
di oc
Su pport
Prof itez
ĠVos ges
um ulation
en aire
+[] +[]
ik h
Ġjui ve
di co
ĠCom b
is m
Ġconver tir
ĠB U
Ġsold at
ĠAlle z
H R
Ġe vier
h enti
Ġso bre
Ġd as
Ġp ots
Ġsau mon
Ġti rs
a qu
ĠTechn ology
AC C
y mes
ĠDI Y
Ġhab ille
Ġcost umes
iv a
Ġdes que
Ġame ner
Ġh d
able d
ĠReg arder
ĠC AM
em on
Ġintellig ence
Ġrest aurer
Ġsub ventions
norm es
ĠM aman
aler ies
ĠSecon d
Ġcour ge
50 8
ĠProf il
ĠDoud oune
ho pping
ĠPla teau
ĠT P
oxy de
Ġcastor ama
cra p
bar que
gar dez
ĠL ili
ĠNap les
ĠM assage
Ġrep ousse
Ġconcl ut
D J
ar iste
Ø Ń
ĠCh aises
Ġte neur
Ġ{ {
Ġemb allage
ĠJe ff
Ġ3 30
Ġa cides
ra bilite
ĠBri tish
14 1
CH ES
Ġcher chant
T ro
az i
Ġti roir
Ġu ser
enf er
isser ie
Ġin ves
ar gu
ĠR h
Ġke y
ĠEp ub
Ġsoul ager
Ġg n
ĠCh o
) ...
Ġorient ale
count ry
Ġphilos ophe
cel aine
ĠB oe
Ġassure z
Ġcour tier
ĠFeb ruary
aff icher
O PE
Ġpomp iers
Ġno ble
ll en
Ġno tification
19 2
Ġchoc ol
Ġfil me
ĠSum mer
pport un
Ġd ress
ĠAlex ander
OL L
Ġco ord
ĠFac ulte
Ġmar ches
Ġcli m
Ġses sions
Ġde coration
end ly
ĠFran ces
Ġsoigne usement
Ġa joutez
tim ite
ĠNature l
b ad
es cla
c uisine
col aire
26 7
X Z
Ġdur ables
22 2
nom s
ĠEsc ort
RI G
çļ Ħ
H Y
Ġfont aine
Ju lien
Ġra joute
se ction
ĠSe a
________ _
t x
24 3
Ġ tie
vite z
AY S
Ġper m
ĠE ver
Ġdist ances
ĠS AM
oign ons
ĠL ati
Exp osition
world cat
cons ulte
In dust
min iste
one t
phon iques
H i
Ġtrib unaux
Ġmodes te
Ġb ah
yn as
Åĵu vres
ĠWh at
OU X
Ce ci
s port
li ser
Ġeffe ctif
ouf les
Ġn ight
ĠDes igner
anne l
Ġter roir
U s
Re lated
Ġl ith
ĠArch itecture
d ad
ĠS avoir
Ġt ribu
ĠV OTRE
Ġ13 8
Ġray onnement
ĠUtili sation
Ġcombat tants
Ġ19 37
TE MENT
ab onnement
W A
Ġn b
guise ment
ĠB allon
Ġau f
m ari
40 5
Ġdiversi fie
ĠC ustom
H C
Ġinconn ue
M ore
ar ri
Ġpl aire
ni fer
ĠCN RS
Ŀ ¤
oli a
A nonyme
Trip Advisor
} .
Ġaction naires
ĠCar l
Ġche vel
J ourne
ĠPla za
linqu ance
Ġ `
ĠLe m
ch issant
Ġlieu tenant
glement aires
ĠT arget
Ġbloc age
ĠW o
IC ATION
uis seau
is ne
Ġin je
ĠPlate forme
ĠK ate
Ġpie ce
ĠDe bouchage
Ġand roid
har mon
Chois ir
60 6
Ġspati ale
Ġposition ne
ĠLi onel
Ġvali dite
Ġad os
Ġperd us
tra ble
te t
M icrosoft
ĠL andes
are r
ĠM ousse
L unettes
ouv ant
Ġconv oi
Ġd ors
ony mes
Ġ ist
ri f
Ġjui f
ĠRug by
ĠCl au
â Ļ
Ġch ore
ch in
et c
pon ge
J S
' ]
Bern ard
Ġp iles
oun ge
Ġrest ait
ĠSe cteur
17 3
id ent
C ONT
Ġle vier
40 6
Ġindic atif
in cer
l ates
umb ia
Ġsp len
F lo
low er
. âĢĿ
ve ments
Ġcap teurs
Ġd rag
d own
Ġquotidien nes
Ġson de
Ġvisite ur
ĠCou ntry
Ġparf ume
ĠDen im
Ġcalcul s
J O
Ġq q
ĠCar ai
ĠM illi
Ġsou mission
S ports
Ġinde x
es time
Ġviol ation
oph onie
pondre Supprimer
t ot
ĠB art
!+[] +!+[]
mois elle
Ġfig urant
de v
man che
Ġchris tian
Ġgon fl
| <
C ra
19 93
ĠC I
ri ale
25 7
Cap acite
Ġcou pes
Ġde ttes
ĠPas sion
ĠLib ye
4 90
Ġquali fier
ori o
v ry
ĠAR T
vis ionne
hor reur
Ġra dic
i pping
Ġattent ats
40 8
Ġjam be
ach i
Ġrele vage
cont ro
Ġpertinen ce
14 2
Ġrecy cle
ch tones
ĠFlor ide
Ġdemande urs
solu ment
Ġpoli cie
av ille
Book ing
ĠVis ion
pre mie
cess itent
Ġs ulf
Ġal gorith
Ġcor res
ĠBud get
ĠTechn ologies
Ġcla que
ĠTra v
Ġ18 5
zz anine
ĠFOR M
Ġt ricot
ĠH Y
ĠJus tin
rat rice
Lo gement
an tis
ĠJ i
ĠF land
Ġcomport ant
O LE
V illage
S ER
ore rie
Ġf uir
en h
il ls
Ġdign ite
di men
S w
Ġth er
Enf ants
Ġobst acles
ĠR as
ĠDist rict
verg ure
ung en
ĠV ista
ĠP UBL
ĠV ans
Ġh ache
pe g
Ġchap itres
Ġh et
quit able
ĠCont rat
Syn opsis
ph ant
ĠRe m
Ġrep orte
ĠDu c
Ġf ood
Ġh onneur
alog ie
Ġb rus
tu al
ĠM ust
D ro
N B
Alle z
Ġn ue
19 19
Ġali ment
ah n
bou cheur
n aud
agn ac
te use
ĠV ik
lo v
ĠM ap
Ġhospit alier
Ġmut ation
b c
33 6
we at
Ġphot ovoltai
Ġautom atiques
Ġh t
Ġmoder n
ĠV R
f un
ĠA gne
Ġbar rage
Ġfavor ables
Ġtrouver a
Ġs treet
ĠS TE
ĠG RE
om ens
Ġsin istre
Ġop inions
ĠCh art
Ġe ine
Ġense mbles
ĠS FR
Ġbudge ts
ode ur
Ġban nie
IDE O
P ES
Ġin tui
ĠB uy
et a
b rou
Ġces sion
ĠL I
Ġtrou vant
Ġpav illon
Ġag ro
glement aire
j oint
ĠD ordogne
Ġjoli s
ĠâĤ¬ ,
ĠS OU
ĠAl uminium
ari ot
Ġass assine
Ġprest ataire
od or
Ġnave tte
Ġsa me
Ġtun nel
g ouv
Ġdiver tissement
Ġro t
Ġ12 1
enne mi
Ġbar b
ĠAb del
ĠModi fie
ĠT s
ur ine
Ġcro issant
ĠExp osition
Ġnos tal
25 3
Ġimp acts
ron autique
ĠJ ours
G ros
Ġvisu aliser
Ġun ion
Ġsil encieux
ĠB ug
Ġbe fore
ĠV ice
ĠRen aud
Ġde uil
Entre tien
ĠFOR UM
F ont
P ol
Ġcoin ce
Ġe ver
ĠCou liss
Oc cident
Ġte te
Ġi ra
Ġoptim al
g rite
Ìĥ âĢļ
g agement
ĠN AS
ĠMo tivation
US D
ĠB ai
Ġcre er
ĠMont age
op ard
acce pter
Ġru meurs
Ġsou de
Ġcontro verse
ĠV ivre
ĠB ry
pend antes
v ados
ici lement
: #
Ġbl ock
Ġmy the
g roupe
28 4
Ġtuy aux
Ġin visible
Ġo h
Ġla mpes
Ġcut ane
ĠM oselle
Pro jet
jus qu
48 5
ĠAl fred
Ġat yp
ĠRe port
Ġdig it
Ġz o
rou ler
onne t
Ġcau tion
cro cher
V R
ĠConfort able
z ar
ĠP ERS
âĤ¬ ,
Ġsous crire
Ġcou ntry
ĠFam ily
h ac
p aper
f oot
ÑĢ Ðµ
ce ur
Ġph il
ĠTe e
ard es
ĠL our
ĠH op
Ġfau sses
rin a
cie uses
Ġin j
ĠH om
Ġpropre ment
S et
Ġass ist
27 7
S c
ray age
Ġcop ier
Ġcy cles
Ġref ait
ĠEurope an
Ġintellig ente
Ġcan ard
p ati
Ġrep orter
Ġo pte
con d
form at
Ġn iche
cont act
ĠMor gan
ĠD G
ĠPr int
Ġal arme
t ore
ĠL IV
Ġ ite
Ġbou quet
Ġparti tion
Ġn id
ĠD own
Ġmusic ales
Ġsu ch
ĠP OR
Ġgastron omie
Ġl ink
Ġestim ation
Ġc ance
Ġstock er
19 92
ENT S
F ond
ĠCou ture
ĠL P
Ġrig ht
cl ass
ĠAnn iversaire
ren nes
Ġcir que
Ġ19 35
Ġsign aux
NE W
oy eur
Ġrun ning
en core
ĠE lite
maz ing
vi ons
ili on
ĠIm ag
ĠI er
E ric
pl ore
Cl asses
ĠCh ou
nt on
Ġsemb lable
ĠGu ess
aus si
Ġm aires
y gues
ĠFam ili
ense ignements
ich ier
ĠD ocu
a q
ess on
Ġlour des
ĠLib er
P ose
ĠConver tible
Ġl ig
Ġmar seille
Ġm ap
con dition
ĠChau diere
Ġn au
ĠAni me
Ġloc ataires
temp late
ĠLe cture
Ġpl anning
Ġin tes
ĠT ube
Ġindi ces
38 6
ĠConne xion
s ter
Ġsou tenue
ĠA the
22 1
b rand
Ġcy cl
Ġtort ure
ctu eux
ĠIde e
Imm obilier
ĠAl li
Al liance
zz zz
Ag riculture
mes sage
A ller
ĠMes ure
Ġray ures
Ġcomp agnons
ĠUn isexe
Ġaffe ct
ĠS ont
M and
80 8
Ġvisible ment
O re
ĠR ig
En seignement
li ch
Ġch utes
Ad ap
ĠS kin
en le
Ġcolle ctives
ps y
AA AA
Ġbou c
ok a
ĠP od
gra dient
ĠPartage z
ĠFab rique
Ġ14 4
ĠF air
Ġcl ois
Ġfier te
ĠF aux
pa rents
ĠC ie
con fort
c ase
Ġa partment
ĠX ia
Vie w
Ġson ores
ĠW ill
ĠG auche
ll age
Ġet ait
OU PE
Norm andie
2 99
Ġmin uit
th ane
Ġremarqu ables
Ġvi tic
46 8
Ġth ese
\" \
Ġvois ine
Ġrou tine
z ig
optimis ation
Ġportug ais
import ant
met teur
p rin
90 6
as ter
ĠL eu
Re d
50 4
Ġla cs
Ġcomb ler
Ġfer ai
ĠH istorique
Ġ19 33
Ġreg ardez
Ġex ister
Ġcamar ades
Ġv ents
henti cite
Ġexist antes
os sible
Ġd vd
ĠT ogo
Ġdou ces
ĠP IE
appa rence
Ġconnaiss ais
25 4
AR S
ĠGer man
ĠD at
Ġtre mpe
ine d
ju dice
vis er
Ġsurv ivre
19 3
h otes
ĠN ow
33 3
ĠF once
ĠK id
Ġse arch
M R
Ġappro fon
g ir
ĠRece tte
C AN
Ġc bd
END RE
Ġchinois es
j onc
Ġbro de
Ġoffici ers
ĠB omb
r estaur
Ġ0 78
Ġbi ologie
am user
fig uration
Ġappro ches
ness a
Ġad resser
ĠSal les
Ġmince ur
ĠJ oli
ĠChau ssons
ĠN ON
H ommes
Ġretrait es
tim ate
18 3
ur u
Ġinf lam
Ġj ai
46 5
c oise
OM ME
N iveau
ĠM AS
Ġpos ts
Ġd own
ĠL ance
Ġvoud rait
ex traction
men u
Ġg uise
Ġass ise
ab andon
Ġju dic
pe ut
Ġdiff icilement
Ġrect angulaire
Ġvit ae
C os
ain queur
ĠBou ches
oc aly
Ġz i
ro idi
ĠS OC
ĠTrans ports
cur iser
Ġren once
I ll
dom in
Ġdoctor at
ĠConc ernant
Ġmascu line
che f
Ġac cid
Ġamovi ble
19 91
Ġmin u
ĠV atican
Ġpasser a
Ġspi ritu
qu ents
ĠFont enay
tru ite
Ġviv ante
iss ants
Ġsoli tude
ĠC RO
gu in
RI QUE
Ġeffe ctive
al ablement
âĶ Ģ
Ġfondament ale
Ġcuisine r
im pe
lin dre
rid ay
fini tif
l ature
dou ble
t ourne
ĠD aily
onn aise
70 8
Ġincl uent
D ieu
ĠH as
Ġla cets
Ġ19 5
ĠW allon
. /
Ġpel ouse
Ġdig es
Ġin ond
dis cip
Ġgaranti ssons
ing en
Ġlu cra
ĠG ali
50 7
ĠRe lig
in tro
ĠL ouv
15 1
d ur
ĠCan did
effect ue
Ġfini tions
ĠSho pping
Ġinfe ctions
vo ila
2 17
ĠB ER
M ulti
qu ons
ĠFranc ais
ĠK in
cra se
ver ne
ĠBE AU
Ġcont r
For ce
rain dre
Ġconvivi al
: -
cau tions
ĠAllemand s
ĠDeux ie
ĠArg entine
ĠB ras
ĠFin alement
ab re
Ġcoach ing
Ġaj us
Ġcontra int
ju ge
chappe ment
Ġsais i
ĠTechn ologie
ri mentation
Ġrest es
Ġinterpe lle
J A
li ons
voy ance
Ġenregistre ment
qu and
ĠH ER
Ġe ven
AR I
Cl assi
ĠO w
Ġred out
on ctions
maj or
ĠAt lantique
Ġz inc
ier ra
ĠInstitu te
assin at
Ġcord on
oth ique
33 8
ĠEn viron
Ġ13 7
ĠN OIR
ĠV W
app rop
ĠIn done
ĠIn t
hum ain
se d
Ġprof ondes
ĠSneak er
ĠP AT
h uit
ad min
ĠSou tien
T RA
Riv ie
ĠCar di
ĠS ound
ĠO L
Ġres er
ÆĴ A
ĠZ urich
Ġtic ket
35 5
Ġhom osex
Ġ.. ...
J PG
rie re
ĠPRO F
ĠModi fier
vo iler
ac tes
ĠPla que
ĠGab on
B ut
ĠK ids
t as
Ġsy nonyme
Ġrassemb ler
A j
ĠAnn uler
Ġvaisse au
18 15
atten dez
Hel lo
tra ct
par ties
Ġremer cions
Ġviol ent
y cle
Ġlit tle
ĠAr te
ĠPar fait
Ġs apin
Ġconst ant
ĠRom ance
Ġcher ch
Ġc aus
S il
ĠCons erv
ĠP es
H ol
ĠCh asse
Ġprogres sive
28 7
mis match
mar gin
Ġagric ulture
ĠL ord
Ġsurp renant
Ġex c
x w
Ġasp irateur
Ġrelax ation
Ġav oue
Port ail
Ġsouples se
z et
k ar
Ex cell
C RE
s c
ais ir
be ille
Ġfil ter
Ġf ous
P rom
Ġexp lor
ax ie
ee p
ĠRestaur ation
Ġnot orie
Ġsouff rir
Ġb d
Ġseni or
ĠN ick
te llerie
Ġtom ate
C ri
Pro fes
n ard
Ġprof ile
ĠM ules
Ġm itige
Ġpers on
Ġten us
Ġmot orise
ĠR an
O l
ĠChe ville
Ġpl aine
amme d
B us
ĠR ET
ier a
ĠR ai
gle mente
emp ire
N oe
conom isez
Ġmen ac
Ġrub riques
g rou
ows ki
c iel
Ġmer veilles
ĠAm iens
ĠTurb o
OST FR
Ġrencontre nt
33 7
Ġinter rog
ĠW ilson
ĠA vez
Ġsuc cess
Ġmad ame
Ġdisc ut
Ġcin quant
id den
Ġall onge
S yl
Ġconserv ateur
Ġprom os
ĠRe crutement
z ia
Ġtent ent
Ġtuy aute
ĠM ale
Ġdiscri mination
G ab
Ġf autes
g ren
Ġdi ra
ade d
acce pte
gu ay
Ġjudici aires
ĠLic ence
Ġprolong er
S ao
o tiques
Ġappar u
ĠCh ron
ĠS li
ĠLe gend
Ġ ombre
Ġd alle
inf lam
ĠRy an
ĠV end
os que
b ac
ĠA part
ĠAl pha
ĠPol ar
Ġ19 29
Ġf la
ĠAlex is
Ġg ir
Ġsur veille
Ġbou e
ad t
ĠL IB
-------- ----
Ġpasse port
Ġab sent
27 4
ĠP ris
S aison
Ġtri p
60 5
oxy ge
Ġc ibles
Ġabord er
amb our
inf anterie
im ie
>âĸ º
Ġenne mi
Ġcur riculum
Ġr ousse
b arde
Ġcas ting
Ġmy thique
Ġmondi aux
cen nie
ĠL ub
id is
Ġinst ances
ĠFran co
Ġimp ressions
ĠAut ant
ĠG or
ĠÂ» ),
L aure
40 9
R IE
Ġcontribu ent
Gal erie
ĠCont rairement
ĠChev alier
Ġf ir
Ġmal veill
10 01
Ġincl ure
Fer rand
l aient
Ġprofes sions
cha mps
Ġmaje ures
ĠLou p
Ġd ense
Ġmat urite
ĠT RI
Ġfestival s
Ġcra yon
Conse ils
ye ar
ff ff
Ġim mer
? )
ĠM ond
ĠPant alons
ok u
Ġchoc s
Â ¤
Ġeff ace
M ade
R ub
Ġf ashion
c ost
L OG
ĠOrdin ateur
} ]
enti r
Ġ2 15
ar tic
Ġsh are
D ivers
ĠSh in
ĠO ntario
ĠM OR
n ue
Ġmain tient
Ġhabit ude
Ġres sent
Ġde al
ĠP AL
34 9
ĠR est
Ġrev iens
Ġb es
Ġo se
in fection
Ġsau na
Ġab i
ĠAd ministration
L P
Ġch angent
35 8
Chois issez
V S
A ussi
Ġcommis sions
ker que
ĠI X
ier es
au be
Ġh ai
ti ssements
Ġpolyval ent
ĠWal ter
Ġroule aux
ĠBou te
17 18
ĠDist ribution
Z one
Ġde pannage
Ġger man
Ġcompos ent
orie ls
Ġ âĢĻ
T IN
C lick
Ġc ents
Ġconvivi alite
at z
am az
if estyle
not amment
ĠPrin cesse
Ìģ !<
ĠT ut
+ {}
Ġintera ctions
ĠS uivez
serv ant
ĠF o
Ġsm all
ĠC ock
dim ir
Ġpro ject
c ant
fini tions
r ut
Ġdi able
tain ment
ui es
Ġan ges
Ġv ignes
Ġse ins
D IC
x it
cour ir
Ġv alise
ĠBro yeur
att ribution
ĠCer cle
OU SE
O lymp
Ġrich esses
IS ME
Ġinnov antes
ĠMassi f
st ate
ĠS lip
Ġl and
j er
ĠConc ert
{ {
ogra mme
h igh
AP E
tu ce
+ "
ĠEn voyer
ten ait
ony mie
Ġh ost
US A
Ġvrais embl
Ġaut rich
u ch
atri cule
ĠS ide
ĠAb out
H ier
× ķ
urs us
ĠR ive
Ġam ies
gne nt
F K
ous ie
Ġmass acre
c oss
Ġal titude
ĠN el
partement ales
ĠPh ysi
is si
ribu teur
ĠF ax
ĠAli mentation
38 5
ĠS ali
Ġs cie
Ġgran dir
n arios
cop ie
Ġcollab ore
L oi
ber ger
Ġ3 80
Ġremar ques
Ġst ory
v ins
M G
ĠHal loween
Ġimp rim
\" ;
Ġc ard
ĠT raite
% )<
ĠM obilier
d ailles
ĠP ati
46 6
70 5
Ġcol line
ĠCh ien
Ġj ette
Ġposi tives
g ocie
fel d
ĠB allerines
ess aie
Ġurb ains
Ġpos ent
m ide
z ou
al an
ĠPar adis
Ġt ric
on line
tique ment
ĠBarb ara
Comp osition
m c
et ta
Ġpl onger
r te
UL L
ĠH S
Ġc aisses
]+( !!
Ġann uels
35 9
ache l
ĠCal endrier
Con fe
ĠG RAN
Ġ19 34
Ġsoc le
ĠE nergie
Ġspect ateur
Ġcou pons
U ser
Ġs ili
ĠIs lam
TEUR S
Ġb ib
Ġ6 03
Ġd ol
(' .
ĠEx emples
36 4
cl amer
E u
tex tes
P ri
Ġtit ulaires
Ġsim ili
Ġl ent
Ġde venant
Ġin cident
Ġpart ent
ĠS ke
> '
Di ff
Ġdistribu teurs
Ġcons cient
ĠS oi
Ġ0 01
Ġhabit able
E p
Ġreb elles
and ro
f aces
Long ueur
si rs
Ġw ant
W in
H al
ĠPos sibilite
Ġbou ddh
mine n
ĠMA X
ĠC OUR
Ġra ge
40 7
Ġqu il
A le
Ġca f
hab ite
ĠHy dro
ĠAcade my
ad ing
ĠTra dition
li ger
Ġcas h
Ġcuisine s
ĠToile tte
ĠM ICH
Ġlit toral
P V
IL S
ĠNet flix
sol us
pers tar
ĠT S
Ġaj uste
Ġ15 9
Ch arge
ĠLoc ations
à¸ Ļ
p teur
Ġle ct
ĠS CH
ĠPic ardie
Ġvis ages
Ġje ans
ĠN az
29 4
ĠD aim
Ð½ Ð¸
Ġtrans vers
ĠF illon
21 00
ĠPubli shed
p rendre
col o
p cs
ĠS ir
N C
t ables
ĠV entes
Ġ25 6
Ġincap able
Ġre lancer
Ġcou reurs
ĠAnim al
I ni
Ġquoti diens
Ġexp ressions
Ġer ror
tis es
e tre
Ġscand inave
ĠF ron
Ġpas sions
ĠVi ol
M ich
a line
0000 0000
Ġdire ctions
ĠAL L
agram mes
Ġ- ,
Ġfran chir
ence inte
ĠPersonne l
F ore
Ġ old
Is lam
ph tal
Ġamus ant
ĠAg ricole
ĠSy dney
ĠContin uer
Ġman y
Ġfondament al
Ġfour rure
ĠMe ur
ĠGal limard
mo dule
U tile
Ġp ouss
Ġm icros
ĠFil tre
ĠEx cell
pert orie
TI QUES
ĠJ ardins
Ġen jeu
Ġo deurs
Ġprimor dial
Sh irt
LE MENT
Ġcartou che
ĠB anc
ĠLas er
80 5
Ġtou ch
Ġ8 50
ĠH amb
lab or
n onc
Ġinten tions
19 89
ĠP hone
AS H
y an
M agas
Ġnom in
Rob ert
Ġ13 2
ĠMA ISON
Ġ16 00
ĠM ack
tr uis
Ġs tre
Ġchasse urs
Ġmassi ve
EN CH
Z A
Ġdiv is
ĠP akistan
Ġ01 8
ĠC ob
eu il
ĠRab at
d ages
on o
ĠCanadi ens
Par c
don ie
ocol lant
Ġverse ment
ĠP are
S ar
c oc
et t
Ġvit rier
Ġ15 6
ĠT ib
dier es
Vis ite
al liance
re c
mar in
Ġp oire
Ġres piration
ex clusion
Ġcou ld
ĠRo om
Ġpre t
op ort
17 1
ĠI rak
ĠP aix
ĠM T
W W
imag ination
Ġreme tt
Ġexp resse
ĠInde x
Ġmari ages
ĠModer n
ĠNeu illy
ĠV illiers
35 4
c ers
tro is
Ch i
qui per
St atistiques
ĠB ass
G IE
Ġcon ducteurs
accue illir
oc ations
ĠMul house
art y
Ġst rict
tiv irus
Super be
Ġimp er
b ow
Ġvertic ale
ĠChar te
77 7
Ġjume aux
Ġcomp ression
y u
80 6
Ġfond ateurs
aug uration
Ġaccomp li
oc al
tend ant
Ġb orne
Ġ19 01
ord anie
ĠUn ite
Ġvoy ons
ĠON G
ĠPar cours
im o
ĠEd ward
en vis
ĠPe y
ĠJac que
ĠD OU
= &
Ġsoi gn
F ER
Ġbomb arde
Ġpres tigieux
ici te
Ġref roidi
Uk raine
Ġdire cteurs
cad re
Ġ19 32
c aires
ĠCast orama
astron omie
b g
33 9
Ġvol on
S k
G ui
ĠGuy ane
j ardin
Ġgen oux
heim er
Ġindi ffe
isse urs
S em
ĠDis c
Ġmobili ser
ĠR ie
ĠL orient
O ntario
ĠC oussin
Ġmes se
35 6
OM S
resse ment
Ġm ien
ud a
D ER
Ñ Ĩ
Ġan c
m nisation
olog ical
ĠS ilicone
ĠB ak
r archie
Ġcomp ositions
ĠL AN
38 8
R R
re mment
Ġi le
Ġ19 10
M ay
v on
ĠCamp agne
Ġ> ><
Ð¾Ð ¼
Ġp sy
ĠFabric ation
ĠFab rice
ĠDie go
Ġcl andes
ĠBu ff
Ġdoll ar
vendre di
ĠLimite d
ĠYam aha
g ager
Ġ19 17
RE G
Ġconf ond
pro p
Ġsur nomme
ĠH oo
Ġ oste
ĠCommande z
ab ond
ĠA voir
Ġsous cription
oi gnon
un ies
ĠMar vel
ĠC asse
Åĵ ux
Ġdynam isme
Ġterror iste
oi d
as ile
Ġgre en
ĠS anti
g at
cou per
3 15
ĠE tre
mar ine
TI V
ĠWikipe dia
ĠR N
ĠSer bie
Ġra vie
H TML
ĠO ak
ĠHy undai
ĠP oitou
Ġmons tre
An d
Ġdro ne
Ġatte intes
Ġrecommand ation
Ġbal ades
Ġex acte
Ġfra mb
Ġmor ph
Ġman uels
> ðŁ
c tique
Inde x
en i
min aires
Ġtoul ouse
RI ER
ab onner
fr ar
ĠR aphae
ver be
ad mission
rou lant
ĠE ure
Ġpass ait
ĠFin iste
48 8
Ġb illes
ĠAct uellement
Ġpor tion
V este
m obile
aille ur
ĠG all
Ġoc cul
q z
Ġhui tie
pist age
H U
tudi es
ĠMontre uil
p ur
eff ondre
AN O
ab us
Ġbi ographie
ĠC OP
ook ie
P u
l lo
ĠAnim ation
Ġrev iennent
ĠChampion nats
Ġ13 3
ni che
Ġterritori al
ĠEn trai
n ins
ĠB EN
ric s
app u
ĠB ons
Ġexcell ence
cat alog
Ġambiti eux
Ġret rans
Ġadm irer
Ġt ons
" ),
ĠP resses
esc alier
Ġmont ants
uble ment
ĠHam ilton
c oli
... âĢĿ<
tin i
t ag
ĠW H
Ġren table
ĠM its
ĠV ac
Ġso ja
75 8
Ġpuiss ances
Toute fois
Ġcons oles
l asse
ĠF iction
B esoin
Ache tez
Ġtele phone
Ġ< <
Ġ14 7
ĠG ES
Ġvrai es
In ge
Ġcop ine
Dis ponible
50 3
enregistre r
sili ation
Ġass ume
Ġcylin dres
Ġtranquille ment
ĠJ r
Ġarchite ctes
ĠAd minist
O CI
ĠUk raine
atta quer
Aff iche
Ġw al
ai gu
F ile
S oyez
Ġc ardinal
Ġchar mante
V oy
Ġpoursu ivant
Ġvin yle
Ġre ally
Ġhom ologue
tt y
Ġreconn aiss
Ġvari ation
Ġfam ily
ĠSy nthe
ĠH yp
ag istes
Ġan cre
Ġmusul mane
Ġsh ould
Ġ0 23
Ġreven dique
tic ker
ce d
ĠB attle
>< <
Ġ19 19
Ġre vis
ac tiv
j ug
ĠR w
. |
T ur
Ġplu vi
Ġamb itions
ĠG ae
Ġmait rise
Ġaccomp lir
ĠCont rol
onne nt
Utili sateur
16 2
our i
S tudio
ĠG la
ĠCh ir
ĠSue de
Ġpres sions
ĠCON SE
Ġ*** *
Ġfor cer
Ġsc ooter
ici ens
ĠHe art
Ġch rom
ĠHer o
Ġcou te
tabli s
ĠOc cident
fe ctions
ĠElect ric
Ġs vp
ch ages
ĠB iz
n istes
Ġinn oc
ĠCorp oration
76 5
expl oration
tiss ant
Ġcro issante
ĠDe panneur
s orerie
p tes
ĠOce an
Ġleaders hip
ĠB BC
Re vue
ĠCar rie
man uelle
Ġmig ration
Ġsuff rages
Ġservie tte
F onction
c ante
ĠS SD
ord on
ĠRe view
Ġtra ject
ĠAm en
Ġabsor be
Ġacc rue
Ġmu ch
T ES
Ġsy nt
in ventaire
Ġimp ressionne
qu ate
ĠPl ac
ĠLabor atoire
Ġsavoir s
Ġd or
insp ire
Ġd ise
50 9
Ġb cp
Ġb ous
ĠFi at
Cont ent
36 8
Ġb agu
w y
F erme
ĠR OM
p ath
Consul ter
ad resser
ĠCris tal
h aut
C U
Ġ0 22
Ġvari ent
Ġd al
E dition
ĠCo oper
remove Class
G T
ynam ique
ĠC T
Ġ16 9
Ġadminist rateur
ĠB rill
E ff
Let tre
G ris
H ot
nt y
V ert
46 9
Ou verture
or gue
Ġremp lie
ili pp
ri ra
Ġdiv in
Ġra cisme
Ġren fort
ĠE ye
YS TE
Ġop ter
Ġcommun ale
Ġhum ides
Ġtrait ant
mis sionne
Ġc able
ai le
Ġgard es
Ġboul angerie
B illets
ĠHe ures
à¹ Ģ
dire ct
B ru
gra is
n one
or gie
ĠG ru
ĠMee tic
Ġh ack
ĠP rendre
Ġl ente
claire r
cou n
Ġconte mp
T om
Ġsuiv is
ĠFant asy
ib ili
Un ite
ĠE AN
Ġc ue
fici ant
ĠEm ma
Ġpas ses
Ġn ois
Ġavantage ux
ĠG ilet
dire ction
Ġbel ges
B ur
Ġ0 24
rs quo
oti dien
ĠFant astique
Ġcondition ne
ĠStat es
AR A
m t
p rime
Ġbook ing
ĠD RO
ĠMaj or
ris me
Ġaccueilli s
T im
Cont ro
ĠNe ige
pon de
Ġ6 04
33 4
rou lera
ant enne
Bel gique
ob us
Ġla mb
Ġlicencie ment
act uel
tif y
Ġcop ies
Ġcomp ense
60 9
Ġau dit
Ġl oyers
D ie
ĠCh en
Ġseg ment
ÑĤ Ðµ
ĠLamb ert
sen al
D ates
Ġa irs
accept ation
ĠC ES
ĠG MT
r h
omb ie
Ġpar lait
Ġtri angle
Ġ4 80
Ã Ĩ
ĠChau ffe
Ġremor que
Â £
Ġdoc trine
Dom in
ad dition
ĠQue bec
w ire
ĠChau ff
Ġgri ppe
Ġpiv ot
Ġten ait
Ġimm atricule
Ġsatisf ais
âĤ¬ .
o ing
Ġfl amme
ĠL ink
Ġner veux
c ci
R T
dic ateur
imp lantation
Ġmenuis erie
l f
Ġm ol
ĠPla ne
Ġdi ap
Ġpil ule
Ġw indow
w o
Ġdans er
Ġarri vant
amor ph
!!!! <
ic ole
Ġtur c
as ure
ĠI se
ĠJack et
ĠT exte
re tte
Ġnom mer
ob o
ĠXX Ie
Ġav al
Ġdiv ine
it t
ĠXV IIe
n ales
Ġv ap
Ġp ai
Ġcens ure
cor es
ter ling
ig o
ĠLa mp
Ġos c
g rant
ĠBl ouse
Ġcombus tion
Ġdis ais
76 4
26 3
g net
Ġf t
Ġri ver
rou te
ĠE k
ĠC AT
Ġinfe cte
t ti
Ġargu ment
hy d
Ø ¬
Ġmag azines
Ġsouveraine te
ĠSU PER
38 7
ĠP alestine
ĠM X
Ġmar teau
Ġautom atise
Maur ice
Ġtou chant
ĠCour tes
":[ {"
G ran
Hor aires
F ourn
Ġcommunaut aires
si um
ĠComm enter
Ġmu tu
[] ]
SE E
l ance
40 3
cor atif
chim ie
Ġvend ue
eu d
Ġme dia
ro let
ra tives
je cteur
99 8
U F
M iche
Ġappu ye
Ġfon dre
cip ro
ĠCour te
ĠGu est
ĠCh loe
Ġn umber
Wh ite
ar bres
Utili sation
M X
ĠMat thieu
70 6
ĠSoci ale
larg ir
Ġres ul
en os
e ling
F our
achat EUR
ĠVende ur
Ġ2 75
or iques
Ġregroupe ment
ĠQu entin
Ġk ar
P lage
ĠSh are
ĠP EN
ĠV oix
ĠCre dit
Ġport ait
ĠFabric ant
Ġrestri ctions
ĠApp lique
is a
N Y
org ane
Ġ13 4
Ġconv iction
av enue
l undi
ĠHol lywood
ĠP las
ale ine
Ġsex ualite
Ġvoul ant
ĠTh or
sit he
ĠG ig
ĠD ell
Ġrass urer
ĠRe ve
Ġinfe ction
ĠSt ri
ĠCo te
ĠN okia
36 6
Ġ0 95
ĠSm all
aci fic
N i
ĠB ali
Ġcroy ances
Ġse cou
Ġincl use
Ġartisan ale
I den
Ġ" /
ĠSau ve
v ais
ĠVI H
Ġdou dou
ĠChe val
Ġv aud
ch ire
Ġb ath
\" ><
ĠEli zabeth
age re
Ġad orable
Ġaff ichage
Ġenj oy
Ġye ar
f as
Ġtravaill ons
c ane
vent uel
ĠP ira
Pe inture
Ġ[ [
à¹Ģ à¸
ol k
t riment
ĠAug uste
rais ons
H auteur
rat ation
Ġsep tie
Ġs aid
ul s
ou in
me ta
ĠD ick
P LE
Ġ14 8
ĠSh ar
Ġcac ao
ĠN og
ar ritz
Ġappar tiennent
Pour tant
38 9
ĠCamb ridge
Ġp aires
Ġviv es
P ages
Ġcar rosserie
ira c
V P
fam ily
Ġmunicip aux
ĠÐ ´
Ġvo or
ĠRoy ale
ĠAnne cy
an imite
ch ambre
ĠT GV
ab be
28 3
ĠÎ ¼
ous ser
jeu di
ĠAl lah
ling ton
Ġdisp o
g ri
IV ERS
C OR
te o
cat alogue
Lors qu
Ġprot agon
ĠV PN
Ġal ph
Ġl isez
oc currence
har monie
Ġtra ductions
Ġapprofond ie
ĠO m
le ep
at traction
Fam ille
N U
W H
âĢĻ Â«
Ġche ville
or re
ĠH appy
Qu oi
Ġliqui des
tap h
B RE
sse z
Ġsoli taire
Ġsex uels
n ien
tien nes
ĠLe wis
45 8
ti gie
S ce
dis ant
ĠBer g
123 45678
ar ra
am us
Ġrecue illir
ĠK as
Ġa bre
b rale
Ġguil de
ĠS uis
che min
19 88
Ġ14 6
cou teurs
Ġpor n
IT H
ĠM iller
in car
ĠO ption
Ġbou gies
35 7
38 4
Ġpron oncer
M OB
Ġvolon tiers
ĠA ward
ĠA ler
D iv
ats h
gul ateur
ĠD ocument
ĠS OS
C OU
Ġar r
su d
lova quie
45 5
n l
D on
ĠMiche lin
velopp ent
J o
Ġle ft
ord onnance
[ ...]<
R oussillon
Ġren oncer
Ġpen che
Ġcapit alisme
ĠM L
ĠCl os
la ye
Ġcomp tant
Ġdou e
ho f
ape lle
EN TI
ĠPoly ester
um ie
Ġ0 55
Ġnat ation
ĠGe org
Ġf oire
ĠEn que
cher esse
ĠBer ne
Ġfin alite
Ġre duc
ĠL odge
Ġfail lite
Ġ20 8
An alyse
b and
AS E
B Y
Ġch ants
rit ent
rib ut
Ġcas es
16 1
Ġ+ <
Ġdu es
Ġcli que
pert y
Ġcon voque
ĠS ANS
contra cts
S how
Ġ ÌĦ
ĠE y
Inter national
nouve lle
am ination
alin k
Ġd re
Ġcop ain
ros pe
ow iat
ĠIt alien
tinent al
h ender
N av
ĠBook ing
ĠPense z
å ı
P res
Ġmos ai
Ġanim ateur
F ront
ouv ille
37 3
70 7
fait es
entrai de
Ġstim uler
isp rudence
36 9
Ġesp oirs
Ġanth rop
Ġcol onel
I f
be illes
ĠA er
ĠB in
Ġren verse
Th omas
ĠHub ert
alle z
con ise
ĠT OU
se lon
Conne ctez
il aine
Ġm iles
y en
D roit
Ġ[ +
lon a
Ġfine sse
Ġaudi ence
Sav oie
ĠBis ous
ers t
b lan
60 7
Ġcer titude
Ġf ound
90 8
ĠL il
Ġlim itation
ĠSu c
Ġplate aux
ĠPau line
Ġcul p
ĠGra y
ĠFA Q
font aine
s olutions
ĠM p
Ġrit uel
Ġphysique ment
Ġâ Ĺı
25 1
in vention
Ġ19 28
Ġsensibili ser
T ON
Ġdev ais
et u
cass onne
H u
Ġpens ait
qu ali
Ġcom ments
Ġprop erty
ĠB urg
on ard
Ġbu y
b au
ro te
30 2
Consul tez
E ve
Ġc aiss
ad ulte
AN GE
Au cune
Co ffre
ĠM ae
ĠAn nie
Ġpar oi
Ġco effici
Ġfu ites
ti ces
g ui
Ġpro vide
Ġsi rop
Ġsouver ain
bro oke
Ġcapit aux
k ov
ĠCy ril
ra f
Ġjus tific
Ġre cule
IN O
lay er
ĠDel uxe
SA INT
Ġrenouve lable
Ġpira te
T a
iss antes
Ġv om
ĠN Y
Mad ame
Ġtra jets
MB RE
aute urs
all as
Ġsor cie
ĠEx tre
Ġ Åĵ
Ġl oy
B ottes
Ġoff ertes
Ġj o
D onne
Ġpropos era
ĠDav is
ĠBri an
Ġinst allateur
ĠFor est
FRAN CE
W C
áħ ©
Ġrecord s
ĠL omb
ĠB lin
Ġb riques
ĠBou cles
ĠMur ale
Ġbal ne
ĠC ENTRE
ĠCommun ique
ser ts
auv aise
em a
78 9
ĠE nergy
ĠCO VID
ro ll
Ġfonction naire
le tt
Ġquestion naire
Ġcon formes
Ġti sse
Ġreven dications
Ġbaign ade
Te le
Ġg allery
ĠN BA
Ġph osph
quent ation
V it
Ġsit u
Ġin fini
Ð Ĵ
Ġmar ty
ĠF ried
Ġh ist
Ġdire ctives
g ents
' ))
Ġrepar tir
oun dation
Ġpays ans
Ġc auche
Ġb ambou
Fab ric
r ub
Ġurb aines
p ain
att ent
Modi fier
l acer
ĠBe ne
ĠPres tige
on ciation
Ġscol arite
ver te
ĠBang kok
te ctive
aci a
Ġtourn ois
ctu aire
ĠGEN ER
Ġconsens us
cli pse
ĠSecre ts
ou illes
ked In
ali enne
Ġk ine
Ġch en
cons truction
Ġcop ains
Ġcon gol
45 9
Ġflex ibilite
G are
Ġlum inaire
W O
ĠF ini
ĠSu zuki
ĠCir cuit
Ġg asp
ĠF el
ĠAn at
Ġtant o
48 6
ĠSw itch
ĠW he
t all
at titude
Ġpri mi
70 9
ĠR ail
å ®
J an
Ġd ort
ĠS ak
Ġfra ction
wes ome
48 9
36 7
r g
ich t
Ġe in
Ġsol liciter
ĠS z
ĠB ague
Sac s
ĠR and
Ġtravaille ur
Ġcol onie
ĠEx ten
arch i
Ġs log
al ando
Ġse lle
27 28
Ġindi quent
Ġ16 8
ĠA ve
Ġde x
mand er
ĠMor bihan
ren cier
az ar
Ġne ar
2 19
Ġregroup ant
Ġcinquant aine
Ġpour voir
Tra vaux
emb auche
ung al
Ġincor pore
ĠGi ov
S ituation
f ax
Ġf iss
Ġnor ve
ra tisation
ĠAutre ment
ĠH ell
Ġva che
f d
re place
Ġquali fications
Ġsoumis es
ĠPro cess
Dire cteur
à¹ ī
Ġbet on
Ġmens onge
Ġp ige
Fre e
ĠLu cien
Ġ4 20
ĠT OUS
Ar gent
18 1
organ ise
j ack
ĠNan terre
ÅĴu vres
ĠBl ues
ynas tie
ĠA ul
Ġort hod
.. ....<
Ġam use
ĠImp erme
Ġconstru its
ĠM EN
23 1
Ġcal cium
Ġvo eux
pp y
Ġdic tat
Ġfer mes
div Classes
ĠXV I
ĠCons ult
Ġl ion
æ ĸ
V illes
Ġliqu idation
Ġ17 8
Ġf res
vey ron
lo o
Ġcomp tabili
Ġchois issant
il aire
ĠAn cien
mer credi
Ġs ombres
ĠBud apest
25 26
Ġfre el
ass a
Ġ18 70
for ama
Ġfl ag
ĠGir ls
Ġt s
Ġpl uies
Ġremis es
Ġmaroc aine
Ġscul ptures
Ġboi tier
ĠMes nil
ĠJuli ette
h d
ĠConstan tin
ĠIn vesti
Ġcle fs
is ole
Ġ17 6
Ob jectif
76 9
ĠCas que
tu p
Ġpropag ande
ĠA CT
ĠG es
yth on
ĠMon diale
A joutez
y y
ay ette
ass aut
å ħ
ĠMar sh
ĠTh riller
vent ures
Ġan gles
Ġ( Â°
Ġparce lle
uil d
Ch apitre
Ġin tr
Dom aine
ĠW iki
ĠF ile
Ġquar ts
t rice
ĠO ttawa
r arch
Ġmen tions
ĠMy ste
Ġmus culation
ĠRel ais
Ġsur ve
Arg entine
cis ant
end or
Ġs tip
Ġ15 8
ser tation
ĠG A
ĠEd ge
Ġd its
×Ļ ×
adel ph
Ġ? )
blo quer
Ġment he
ppe d
ĠHD MI
Ð¾ ÑĢ
Ġlait on
Room s
Mach ine
appar ai
ĠF all
b ell
17 2
or itaires
ann oncer
Ġcour antes
Prin cip
en jeu
ĠK il
w ick
Ġe dition
Bl ue
adi das
Ġuk rain
Ġindi enne
iff el
Ġb oss
Ġconf orama
S ave
ĠTECH N
ro ise
V a
ag non
origin alite
c ab
ĠN C
Ġj ure
Ġd rive
Ġbro derie
Ġlit re
Sand ales
Ġ3 75
Ġris quent
39 8
à¸ ĩ
cur rent
ĠVer ts
Ġcasser ole
F estival
Ġg aleries
gend aire
un ning
ard on
Ġbat tant
Ġaff iches
ĠU TC
bl ocage
Ġfac ult
Ġar rond
Ġinc ert
Ġexten sions
ord s
ĠCD D
Ġpri mes
ĠM US
Ġ25 00
Ġiv oi
P resse
ĠA gre
g oire
ĠY ellow
ĠB ilan
Ġ19 25
Ġclimati se
ab sor
d ul
H a
ĠDi agnostic
L aisser
ĠSu ivi
ĠE lisabeth
Dis play
Ġadap tateur
ĠAN G
Ġmetal lique
Ġurb an
ĠArch ive
ĠD IRE
ĠPlay Station
Ġpos ture
um ente
L aissez
ls a
ĠCON S
27 3
ĠPhili ps
IG HT
Ġpass ager
ser vent
ph ique
ĠRo que
ili que
oub lier
ra ham
Ġtw itter
ĠIMMOBIL IER
99 5
ĠGaz a
att r
P au
Ġpassion nant
app uyer
Ġche vet
vit ant
Ġtranspa rente
l ol
Ġbul les
Ġinten site
Ġred onner
Com merce
Ġemb el
u jet
Ġrai l
te int
Ġpar don
Ġpi pe
ĠTop s
tin ction
Ġ7 75
áħ ³
ĠT I
Pro prie
ĠK B
T ex
ĠOb jets
ĠM om
ut ation
18 2
di fie
Ġcass ation
Ġex ample
po ques
g it
ason ic
ĠSoft ware
ĠP elle
Ġnour rit
ĠS AU
Ġj er
Ġaveug le
ĠC is
ĠQ atar
Ġpira tes
Ġ19 31
fr om
ĠW ii
Ġpren ons
Ġp esti
fi ants
ĠEss ai
iv en
ach t
Ġmanif ester
Ġbro yeurs
Ġvis it
Ġplaisir s
ĠC AF
oul ouse
k ir
In stru
ĠD est
39 6
ĠV ILL
Ð¸ Ð¸
Ġre views
Ġin jus
leve urs
clen cher
ĠR ace
Ġcro i
Ġenf erme
Ġtre mble
g uide
n ight
ire z
Ġvigil ance
cou tez
ĠF ine
ĠT RO
T Z
Ins crit
ĠZ ip
Ġ|| -
ĠK aw
az a
Ġjoy eux
mar di
ĠCor an
dimen sionne
Ġsou vient
mar tin
allen ges
Ġgaz on
ĠS id
Ġmoder nisation
Ġche ap
ĠMer cure
Ġes timent
39 7
Ġbor nes
V B
Ġg age
Ġurg ences
C ore
Ġcol omb
ĠE douard
Ġrappe ls
sel f
vance d
ĠR im
Ġ3 01
Ġdev ise
ĠPi ano
IT Y
avi ation
ris s
L D
ĠStock holm
X P
37 9
pro f
Ġcompati bilite
âĸ Ī
A st
sente ra
ĠCah iers
ĠE lectrique
lu le
Ġprop rit
D UIT
Ġcro ient
Ġmot os
e aux
Ġacquis ition
Ġconf es
ĠP ORT
cin q
Ġcha os
19 87
I m
Sur face
f al
37 7
Ġdomin ante
i ac
C OL
b os
qu ateur
he ll
pad ding
ĠCom bin
ĠD ow
âĢĻ ,
4 000
ĠE mail
Ġcomp licite
Ġsor tis
Ġnul s
ĠP P
Ġp ue
ĠSt ars
S ophie
S un
lan ie
dit h
ĠSA V
ins pection
ri cite
lo ver
appel ons
Ġg ot
Ġpo ol
ĠCH R
og ging
Ġru ines
ĠM D
Ġ- ---
imp rimer
Ġ3 40
99 6
co very
atel lite
coup age
ĠB ateau
Ġre quise
Ġplomb iers
ge ant
z ine
oph ile
ai a
... "
lu les
ĠTe d
Ġmondi ales
Ġsoph istique
ĠR hin
ĠM INI
Ġch Åĵur
Ġpropag ation
Ġouv rie
al lo
Ch aise
Ġac tives
Ġventi lateur
ĠSim one
. ]
ĠMan u
Ġsub je
Ġcon signes
Mas ter
Ġbru its
ĠSupp rimer
ad ri
pons abilite
E diteur
T on
Ġesc ale
titu er
Ġ19 12
ct ural
ĠInter view
ĠØ ¨
D EN
ANC ES
ter nelles
ĠB ridge
ĠGene vie
ĠB rou
ĠDoll ar
ĠSn ap
b ourne
Ġpl atine
cur itaire
Part age
ĠEx clus
en z
ĠA lan
and erie
Mar s
ĠFre der
Ġillus tration
g let
ĠC ave
ĠOb tenez
Ġappa rente
ĠâĤ¬ .<
exp ansion
Ġpertur be
ĠV A
ĠSyn dicat
all ais
Ġsorti ra
E h
lis ter
Ġ20 22
di manche
ĠEx trait
Ġastu ce
ĠBas ic
ĠL LC
e ti
ĠPlay er
Ġt am
ro en
ĠJ ay
z ation
usta ve
Ġpren ne
Ġt an
ĠCit roe
Ġmath s
R el
fici aire
Ġb av
ĠT ap
lam our
ĠPhilipp ines
M atch
Ġanti de
A ctu
ĠD OC
ĠSpe cial
Ġdange reuse
Ġdocu mentaires
ĠSw iss
ĠL ike
ĠL U
ĠZ u
Ġt ags
Ġoccident al
Ġque bec
w al
19 45
ĠMont res
7 75
Bat terie
ch oir
Ġrequis es
Ġmilli me
19 80
Ġ! )<
Ġprop ice
ĠG rim
E lyse
ĠF ast
ĠH ur
Ġpri oritaire
j oignez
Ġ13 1
Ġexploi ter
uu uu
ĠA th
. ).<
mat ographique
Ġparas ites
Ġv Åĵux
Ġen ter
Ġk its
export ation
p romo
Ġesc ort
ĠPH P
Ġ14 3
our is
ĠCom bat
amp ton
Ġinnov ant
ar it
ss age
Ġsimpli fier
Ġ19 24
Ġb in
h ing
pe tits
Ġcondam nation
ac corde
exer cer
N ot
oul ou
Ġattend ue
ĠM ang
Ġcl ause
Ġcandid ate
Res ponsable
25 2
ĠV ars
ĠConse iller
Ġmention ner
hos pit
AD N
Ìģ ).<
Ġus ing
ĠRes ume
Ġw in
at ter
ĠPatri cia
ric an
Che f
Ġson dages
Ġsoci ologie
Ġ19 15
Bou tique
Ġbac calaure
Ġco tisation
ĠDam ien
Ġass iette
ĠChar me
Ġdevis es
Ġcab ane
ee ee
D ocuments
Ġoc tro
Ġfra pp
Ġconstr uis
J ack
Ġcolon ies
Ġpein tres
s alle
ĠC elles
Ġple ure
ĠAg enda
ĠV IP
Au vergne
Ġcap ill
ĠL OC
ĠSh ak
int rigue
ĠL R
Ġ2 90
ĠNath an
ĠCade aux
Ġutili taire
Ġan om
Ġd us
Ġaqu atique
ĠIN D
ub ishi
ĠC oco
ĠSe curity
Ara bie
proch able
Ġle vure
ri tes
Ġform ant
ãĢ Ĥ
ĠCour onne
Ġsuc cesseur
b ris
ĠAndre w
ĠV ichy
ach ats
Ġn ickel
Ġde c
tra ges
Si ze
ĠT ot
v rage
Ġtransp orteur
de au
Ġmons tres
Ġneu ves
re lles
ri am
Ġaccord er
Ġh ameau
Ġbl ues
conne xion
O x
it as
ĠG reg
44 9
60 4
ĠApp lications
ĠJou et
L ois
ĠR este
Ġaugment ent
ĠF at
ĠC AC
ters bourg
ĠArg ente
v ures
Ġ17 9
Z Y
ĠVis a
Ġpat rons
t oc
m ature
ĠUr b
Ġ20 6
ĠCle ar
Ġexten sible
78 5
ĠMar ques
Ġt aper
ur ned
Ġsouff rent
Ġlis ant
inf ir
chau ffer
Ġchau ds
us a
Ġ oiseau
ĠOc citanie
ĠW a
Ġk W
SK U
hau sse
ĠB RE
++ ++
sur tout
ol oc
L AN
Ġpersu ade
ĠCol umbia
ĠT ub
N ation
Ġ" .
ĠM OT
Ġpermett ait
ĠIn novation
Ġdonn ait
ĠB ours
Ġli tige
Ġcomp rises
Ġr ondes
D isc
Ġore ille
Ġvolontaire ment
Sor tie
bou tique
hre b
qu iv
Ġre lier
od ore
liv rance
pro fessionne
ĠG and
pass ant
Ġcor se
Ġcompt oir
ĠAl liance
si vite
Ġsauve tage
ĠAN NE
Ġmar ier
ĠT RE
ĠB oli
Al lah
ĠP atch
Ġtra ge
Ġcar ottes
or ologiques
ĠK ou
Ġsoci alistes
Ġentre tenu
Ġbr une
ĠHel lo
lic ates
Ġ19 26
B P
Ġturb o
A vail
Ġvi des
appe ls
C atherine
ĠC ow
Ġcomp ensation
ver a
ĠI stanbul
f isc
Ġb londe
ĠCh urch
y ss
inge mbre
ĠC ors
Ġ19 05
Ġtra c
og re
P in
Ġorient ations
Ġc ulti
ĠR ib
Ġtris tesse
ge le
F ort
ram ide
me ts
ĠFin al
s astre
Ġsouff rant
v il
ĠF ocus
ĠBit coin
Ġcompos antes
Ġren voi
Ġform alite
S N
Ġa ig
rus se
ĠV oitures
T en
Ġgro tte
ĠMoh ammed
ine ux
ĠEs pe
ch ose
ac tivation
ĠMontre al
76 6
d at
âĺħ âĺħ
Ġj Query
Ġ19 27
Ġcanadi ens
veloppe ments
Ġl ub
Ġaur ons
ĠPoste d
T apis
ĠZ o
Ar tisan
ag issant
ĠAss ocie
Ġgig antes
03 4
Ġac quise
encad rement
Ġressor tir
ri alisation
K m
ĠL IM
add Class
Ġins ou
Ġch lor
Ġparent ale
Ġco qu
ĠNiger ia
Ġcompare z
ĠAppe l
ap t
Ob servatoire
p resse
Ġ17 89
n agers
ĠBe at
T ri
Appe l
Ð½ Ð°
F ait
Ġsent ent
ĠE th
Ġpl umes
Ġvari antes
Ġlic ences
Ġhabit uel
ĠS QL
iver pool
Ġhabit uelle
st atus
pend amment
ĠJ a
ĠSand rine
Ġm id
zz a
R oman
g ia
ment o
ile y
T arifs
expl orer
ic ain
is on
ĠF ON
l op
Ġplut ot
ĠR ud
B lan
pe urs
ĠC itation
Ġsomme ts
ĠB ib
Ġb b
Ġrespe ctifs
inst allateur
ĠPar ole
ĠNeu ville
q q
M AT
ĠM ES
80 7
ĠGas ton
Ġd A
ass ocie
Ġc ise
end res
ĠX S
ĠAr ti
Ġcu linaire
asse z
Ġtherm iques
T or
ĠS all
Ġo pportun
I tine
ĠV olets
Ġanne xes
ad en
ĠB oot
áĦĤáħ®áĨ ª
acces sibilite
Ġatten tif
ur ations
ĠM ace
45 7
i u
ĠBen oit
3 11
ĠC athe
ĠC rus
90 5
Ġcous in
r ar
Ð½ Ð¾
Ġemp lacements
Ġc up
Cont enu
L ieux
ĠChant al
atta quant
ĠVol vo
G a
Ġchausse ttes
fran che
EP UB
opp os
fin ale
moigne nt
GE OT
m ir
ĠLu cie
ĠB onn
A ur
y pre
Ġtatou age
Ġdou blure
ĠB AC
Ġgout tie
ĠD rag
Ġauto chtones
Ġgard ant
Ġall ure
ĠAir lines
ra el
Ġrepos ant
Ġ7 74
ĠVan couver
ĠH eb
78 6
ouf lage
34 7
wid gets
anne xe
m ort
n au
b ig
19 1
appar tements
O V
Ġsatisf aisant
d enne
) "
Ġou vrier
ti tifs
onc ourt
ĠTrois ie
Ġitali ens
ĠIndust rie
Ġmin us
v otre
ĠK ap
Av ignon
R J
Ġchirurg ien
ĠP ictures
Cert aines
n ou
Ġb rand
ub ert
Ġann uelles
ĠX III
w ater
Ġass ur
b ah
Ġ( ~
Ġpens ons
UN G
Ġprote cteur
ĠP aille
G uy
Ġpie ces
su pp
on ing
Ġa out
aw n
ĠM ire
19 85
ĠM ati
ĠCOMM UN
01 11
au mes
Ġmerveille use
Ġmar ti
ĠSU D
áĦ Ģ
Com pe
N ER
gul arite
Ġc ursus
Ġcomport ent
R OU
ĠE va
Ġcommun ic
ĠJ apan
Ġfrais es
ĠB AL
Ġmanip uler
ĠK ie
qu en
Co que
Ġm au
ĠT ommy
Ñ Ī
ĠXX L
Re cherches
b its
Ġ ot
ĠT ris
E I
ĠN umber
n oci
au ban
less is
ĠBulg arie
ĠPie ds
Ġdiagnos tique
q c
tens iles
cl asse
ĠSte el
Ġh uis
ro lles
CH F
Ġgra ce
) /
Ġs is
ĠCou n
Ġinter viennent
Ġrou lettes
. ;
Orig ine
ĠB og
ĠTre k
Ġign or
ren cie
ĠAh med
Y e
Pro te
P ORT
Ġp anel
g uste
ĠY an
ĠVenez uela
ĠFab ien
Ġacc umule
> {"
E A
Ġfra pper
Ġ ^
Ġassim ile
Ur ban
Ġrapproche ment
70 4
Ġstagi aires
Ġs ommaire
Ġcircul er
Dan iel
ol este
ĠWallon ie
ANT ES
livre r
exp rime
Ġappele z
ĠRe lax
ĠPe au
ĠTro yes
Me illeurs
Ġpor celaine
ĠFranc fort
Anti quite
Ġ18 9
Car tes
ag ues
Ġmusic aux
appli quent
Ġta ke
==== ====
ES SION
Ġaff aib
Ġvis ent
19 86
75 6
ĠCy cle
15 00
à¸ Ń
Ġobst acle
ĠCam era
ĠMar in
Ìģ ",
k ine
Ġbas que
Ġmod ul
ĠKen ya
Ġmon iteur
Sh op
Ġapp uyer
ĠMal aisie
E ure
ĠIn dien
ĠBeau mont
g ule
ĠB IO
Ġcouv rant
Ġfaute uils
nins ule
T r
cop ique
Ġgagn ants
80 9
T aux
Ent rai
Ġfrom ages
Ġrecour ir
J P
G allery
Ġarchite ctur
nis er
ĠI DE
T X
plo yer
Ġspe ctre
ĠBe auty
Ġco ver
Ġdis ons
ĠJ au
ĠL C
ĠC ai
29 30
ĠHor aires
UNES CO
ak ing
Ġweb cam
Ġinu tiles
ĠPe arl
ĠSmart phone
ri alise
Ġ% .<
s alon
Ġ19 2
Ġe Book
Ġdeme urent
Ġ? ?<
T EN
uni ors
ĠMan if
Ġbar oque
ĠAc tes
Ġling erie
Ġs ature
48 7
å ¤
ĠRe cherches
- ),
ĠVer ne
Ġâĸ º
Ġ?? ?<
Ġ icon
Ð¾Ð »
me ubles
B OURG
P il
Ġar n
g uerre
Ġconten ter
Ġimag inaire
ĠB ush
Ġen te
ĠBreak fast
f iance
ment al
ĠV illes
q l
Ġrecru ter
Ġdiffe rent
At lan
Ġve au
I TI
Ġma ur
Ġmondi alisation
Ġattend us
Ġbrig ade
ĠRe ich
ĠT EM
ĠDe mi
uis son
blog spot
46 4
Ġper tinent
V endeur
Ġqu antit
rr rr
L igne
Ġbase ball
e ds
Ġg ite
J uste
k nit
à¸ Ĺ
OM O
Ġom ni
giti mite
ro ix
ĠProfessionne ls
Com pte
IT A
3 12
ĠDou x
ĠW er
ĠC ut
Ġai res
Ġdur abilite
has a
ĠQui mper
Ġbis cuits
f ille
Ġaccid ente
Ġjardin age
mb ler
99 7
Ġth ai
P or
Ġcl arte
ĠCy ber
ĠSy mp
95 8
Ġmili tant
Ġne xt
ĠS ong
E gypte
artisan at
E mail
ĠChrist opher
Ġnobles se
Ġpsych ologue
ĠB oris
ou rer
Ġaigu illes
Ġ3 10
Ġinc lin
p lu
I se
ti ges
St age
Cl aire
Ġ oignons
ĠE tudes
ĠE LECT
m ob
cl assi
ine use
Ġob tenue
ĠE ffect
Ġgon f
d z
Ġde pot
Ġcontin uation
Ġcomm enter
Ġspe ci
3 14
P ic
Ġl us
6 01
sh ire
ĠR D
Ġâ ī
Roy al
frar ouge
Ġpe ines
Gen re
Ġproje te
ge oise
Ġsou p
lo pe
ĠA ires
ĠC ale
en sionne
attend ais
Ġtomb ent
w P
Ġmort alite
ous t
ĠÎ ±
Ġb ir
Ġdiplom atique
ĠFlor al
Ġmai ls
Ġvoy ait
ĠDeu tsch
ve ttes
cop es
ro site
Ġre quiert
Ġ25 5
Ġphilosoph ique
78 7
Ġ osse
Ġbours es
Ġatta quer
Ð ł
Ġt l
Ġparad ox
( ).
Ġcar ic
Ġc umule
ĠVan nes
Ġvois ines
ĠX D
lu tion
Ġinv as
Ġinfir mier
ĠP V
m und
ĠÂ ®
Ġsi re
Ġsemb lables
ĠChoc olat
ĠV ali
Ini ti
Ġcar amel
à¸ ±
ri tier
t arif
ne us
Ġmanne quin
ĠCat alog
Ġcompt ables
Ġdes criptif
Ġac rylique
an ais
Ġf ast
Ġsembler ait
ress o
24 1
ĠP df
oli tes
ĠPau lo
ac cus
ĠD ru
d p
ĠPla net
77 9
lig h
ĠB aignoire
Ġpic ture
ĠEnter tainment
???? ????
ĠD ia
sid entielles
An glais
ĠApp rendre
Ġdiv ul
ĠH A
Ġ;- )<
st art
f ai
cau tion
gal ais
ĠB OR
ol phe
w ik
ĠFig ure
ĠAt las
Ġc all
ĠAd obe
un animite
24 2
ĠTh i
ĠLY ON
Ġgra sse
ĠCal cul
ĠP s
an ciens
ote rie
off en
Î º
ĠAnge l
s ens
Ġcl ari
> _
j am
ĠSch warz
Ġ19 13
tit res
Ġpro the
Ġmonn aies
den nes
Ġimag ination
Ġense ignes
l ages
O TE
Ġ15 2
v s
Ġpan orama
) :<
Ġcro yez
Ġp et
ĠFor ces
ĠPro p
Ġv rac
u tile
95 5
rou x
onde ur
ĠH ass
Ġpot ager
ĠCon de
ot hy
Ġent rent
Ġcl au
ĠT uy
ro ie
vis ibles
ĠC ub
Ġconj oin
Ġ[# ]
ĠTim berland
u li
ver bes
af i
A k
Ġ06 5
ĠL S
Ġcar tons
mi rats
wh ite
Cont acter
ri um
Ġno ci
ĠAr mand
cien tif
Ġphotograph es
Ġme zzanine
ĠO ther
aff irme
ĠNam ur
vise urs
Ġnuis ibles
ĠPh ysique
ĠJu lia
Ġg lor
v m
nem entiel
asse mblage
ĠH ous
G Y
l ass
Au teurs
S imp
ĠVal ls
Ġgra vure
Ġmultip lication
Ġali as
29 3
ĠCh argeur
Ġspati al
app oint
ĠW ind
lie z
Ġmar ket
Ġp rudence
r n
inter view
Ġ2 12
Cl oud
ul ly
ĠM ande
f emmes
ĠP he
Ter rain
Ġestiv ale
Ġg as
Ġhi pp
jac cio
Tw itter
couv rent
ni ke
ĠPo chette
ĠS tudios
es a
Ġa y
Ġsymp as
Ġfonde ment
ĠT oe
ju illet
Ġbou gie
Ġaux iliaire
ĠS ave
Ġpul ve
Ġang lo
Ġdra ps
ol as
Chris tian
Ġp ag
Comp atible
ie usement
Ġfig urer
ĠTh an
Ġ24 5
Ġsurp rendre
ĠOb jet
igne nt
IT AL
ĠCh ante
ĠCal vin
ĠD ance
ra cle
ant o
Ġd y
37 4
v os
Ġper cussion
ĠM K
Ġsty lo
IN C
ti ane
Ġr onge
Ġcour amment
Ġcou dre
as ka
ĠDip lo
Ġprin t
imp osition
illi s
Ġcombin aisons
ul teur
P oe
ĠQu ick
v iv
Ġgar es
Ġfou et
Ġhaute urs
Ġfl ou
Ġform ateur
44 4
ĠAss istance
es h
gra lement
ĠJ as
op tique
Ġ19 23
Ġpa quets
ĠIs olation
ran gement
Ġmag iques
ĠB TP
ĠE arth
Ġin cite
Ġbord er
ĠH C
urb an
r k
ĠG Hz
Ġestim ations
Ġve cteur
EN A
Ġag glome
ĠF a
Ġbo oster
ab onne
di ateur
ĠR OB
Ġser pent
ĠPan ier
L im
ĠE tude
Ġloc atif
ĠSeu le
ĠGratuite ment
Ġemb alle
b ottom
Ġdos es
ĠBO IS
cess itant
Ġ15 7
emplo ye
Ġf ire
ĠCli ents
W i
Ġface ttes
Ġa chet
ĠÐ ¼
S uisse
Ġtunis ie
Ġrecru teur
AD A
ĠCou ple
t ris
ĠSp ot
ĠPe dro
L ink
Ġpol aire
ĠW EB
E DF
ĠB od
ĠVla dimir
ĠSt ructure
Ġbi ent
d ons
ĠA J
ĠCl ass
A mp
ĠS AR
air s
se ptembre
sac tiver
IC K
Ġsand ales
ĠSpi rit
Ġcomp enser
Ġa per
Ġjamb on
c lic
ri ting
in vitation
à¸ £
aci ne
G H
sh are
Ġdiscri min
oph on
we ight
Ġlucra tif
amb ition
Ġ0 56
ĠAd rien
49 8
av ing
Ġ06 8
Ġcur rent
Ġtra gique
pre vent
// //
Ġscul pte
Ġappar ait
inf lation
Ġfin is
19 18
Ġc aill
A y
c z
ĠP ow
m aille
44 7
Ġconvivi ale
ot to
ĠVrai ment
w art
Ġcas cade
on aise
>â Ļ
iz ation
b rid
lex e
Ġvaisse aux
R adio
Ġtra me
Ġrecru teurs
ĠN au
Ġ6 05
ĠBat man
Ġaccro i
ĠLa ce
LE D
pus cule
Ġal cool
Ġdes criptions
Ġin sul
ar ing
car ts
rou lent
Ġ19 21
g am
ho tels
ĠMex ico
ĠJ P
Ġgrou p
Ġdo es
ĠH art
Ġgroupe ment
Ġfavoris ant
m ins
Ġbe ach
Ġin vention
Ġfores tie
Ġra d
Ġ19 22
Ġauton omes
cur ie
ĠLis a
Ġintes tin
si en
" }}
S o
ĠMar ais
Ġexp lic
áĨ ¼
Ġbrill ante
ĠDe velopment
cis if
ĠDi amant
- >
a cher
ĠGra ce
Con tin
ĠT ang
s um
Ġro tin
ĠSERV ICES
Ġra ter
ĠSp ider
ĠChe mine
P oly
ĠI van
Ġciv iles
tor es
Ġcali bre
line r
ĠGar cia
Ġvesti ges
ĠJava Script
Ġt t
duc ateur
bi an
Ġbre fs
ĠVer te
ĠSyste ms
Ren dez
ĠB ret
ĠBoi te
Ġinnov ants
Ġconc ret
M icro
t tement
ĠSe melle
Indust rie
Ġressemb lent
Ġpu ces
ĠK ay
g roup
ĠI ron
Ġâĺ ħ
ĠSty les
ĠB Y
ĠBe auvais
Ġpro di
T ax
Ġra dical
B is
Ġgu est
ĠBos nie
ĠAir bnb
co op
80 4
Ġcli ps
75 5
par able
75 9
12 13
M V
Ġtox iques
Ġl or
Ġpour rons
k ie
Ġh ur
Ġfra me
ĠBle us
Ġfondament ales
antill y
Ġ14 1
Â ¡
cou lement
ILL Y
e vent
Ġrempliss age
j ama
Re cette
um n
W F
Dou ble
ĠApp re
Ġcorres pondre
ĠN OUVEAU
Ġa ile
Ġnar ration
Ġscan ner
Ġple urer
din and
Ġgren ier
Ġdiam ants
n ith
explo sion
ĠE volution
Ġemplo ie
âĻ¥ âĻ¥
Ġru ine
Ġconnaiss ait
at ra
ĠPopul ation
P op
Ġpremie re
95 9
ĠA in
ĠRe v
ra lisme
A O
Ġ17 7
Ġmee ting
hs x
n antes
Ġpin ceau
t xt
Trai tement
ab at
s amedi
fin ite
g ins
a ac
ĠFe der
ĠP is
lisse z
ĠK oh
Ġse curite
ĠPorte feuille
E F
ĠComp osition
19 84
Can ape
ĠClassi ques
ĠApp ly
ĠP ub
ĠFab ri
ĠD ocuments
26 2
appu yant
Ġmam ans
ĠHabit at
ani um
v ienne
ĠX i
Ġcam eroun
Ġh ex
ĠP anneau
bou tin
ST R
ti d
T ab
ag enda
m ili
A ri
Ġ23 5
ĠMur al
ĠH ad
li k
on ale
ĠC ell
ĠBat aille
CH ET
ĠAss ure
Ġpou belle
Ġapport ant
Ġimpati ence
ĠP OS
rai l
car b
Ġf oss
ĠRousse au
y les
Ġimpli quant
pe tite
ĠCL UB
DI TION
land o
Tra vel
Ġregre tter
adi r
s d
Y ork
ten dez
LE UR
z heimer
ĠSur f
couver ts
Ġth en
M ap
Ġ6 000
p ak
ĠTele com
Ġo w
Ġb ai
ĠEss onne
3 16
Ġatyp ique
Sau ve
Ï ī
b untu
Ġvide os
Ġa frique
Ġbas cule
ĠA ven
Ġser ies
ĠK or
ĠJ ason
ĠPro phe
ĠRe pre
Ġâĸ ª
B ah
c ke
excell ent
ÌĤ âĢļ
ĠJim my
bre u
Ġra ces
Ġv ider
J OUR
Ġsplen dide
quare lle
ille ur
gu et
IF I
Ġ/ <
s yn
ĠCon forama
Ġjur isprudence
con seille
ĠV all
te ll
ATION AL
ĠBonne t
ĠV ap
ch s
ick er
Ġbad ge
Ġ tin
ug o
Ġcoup ure
ra h
Ġrespect ueux
OR I
ĠEP UB
word s
IE UX
Ġ19 16
ĠNik on
AU TE
St ring
Ġa round
g ran
L R
Ġr uisseau
19 50
non ymes
ĠN ab
ĠPom pes
Dire ction
g ni
ĠLu ci
ĠC Åĵur
Ġcou de
Ġ20 7
ĠC AB
39 4
A ure
Ġclair s
Ġindic ation
Ġsub stitu
ĠV III
ĠE SS
ĠP ent
F rais
Ġcan ons
J C
ĠM ys
lic ieuse
os phe
æ Ī
Ġre gion
Ġfamili aux
Ġred oute
ĠG ER
oul t
ĠFranc s
w d
Ġrac cord
un ie
ill ustration
dro om
ĠEur opa
Ġamb ul
ler oi
ĠR F
ĠBL ANC
Comm unique
ĠCh alet
uis sance
s umer
12 22
d ait
Ġtac tique
e v
49 6
d ames
spect ateurs
App lication
Ġdoul oureux
ĠAd ultes
B ilan
t amorph
ĠJen nifer
Popul ation
Ġjac uzzi
ĠMax im
Ġcour bes
rolog ue
ĠC rime
o il
Ġcrois er
Ġbois e
d ry
ins hasa
ĠL ait
Ġinnov ante
ĠAu drey
v illers
ĠS oie
ĠM ong
Ġbonne t
Ġmand ats
Ġrest ru
QU I
Ġcambri ol
d ai
ĠMess enger
Ġcitoyenne te
M Y
c ennes
Ġemp ris
Ġtend resse
Ġins pe
Ġv ase
Ġjun gle
ĠE mer
ĠDer niers
Ġvisite z
appe llation
B ERT
sw ick
Ġmand ataire
Ġenvir onnements
ĠVid ange
ĠLib rary
couvri rez
Ġren voye
Ob tenez
Ġaid ons
Ġservi ra
ĠD istance
Cal endrier
ĠRos a
al li
ĠW omens
AR G
C itation
ĠCamp us
ĠZ h
sp ace
ĠP ale
ĠXV Ie
ss ss
be y
Ġdur ing
ĠInf ir
ĠM ug
Ġpig ment
ise ur
Ġpriv ative
Ġinv ali
X V
Pat rick
Ġple ase
ĠMas que
ces sions
Ġne st
90 7
Ġg lobe
Ġparis iens
Ġpost uler
Ġmoyen nant
ĠB IEN
Ġgard en
ĠSol aire
h ref
Ġcouliss es
Ġsauve garder
si es
lange z
Ġmar itimes
Ġro s
Ġro ad
agra ve
S el
ĠAu de
rib ourg
ãģ ®
ĠBe ck
Ġ16 6
Ġsel f
I Y
ĠSac re
ĠTw o
res ponsive
o ner
ĠD ublin
d ated
Ġk itchen
ĠTre mb
p ul
ĠL ai
. *
Ġte intes
ĠB AN
Ġt arder
Ġaut h
v or
ĠConsul ter
ĠE cran
Ġmar ne
mo der
14 15
Ġv illas
Ġ/ ><
ĠS age
Ġcouvre ur
Ġ7 77
Ġconnaiss ons
Mon ument
Met tre
pp ers
Ġgam mes
Ġaffe cter
ĠS ole
ock s
he ader
Ġgol fe
B ES
ĠThe re
>â ľ
c tiv
w ig
19 81
pe d
ess or
p entier
ĠPou tine
ĠDi ame
F r
Ġloc alement
ĠP lessis
Ren contres
40 2
Ġg yne
j anvier
ĠN ai
ĠRe pe
dy sse
ou tre
ĠSte ven
Ġanne aux
Ġgrou pon
in put
re my
Ġcol oration
ĠMal te
ĠT ongs
Ġexclus ivite
Ġjob s
ĠDe vant
ais ance
Ġ19 11
Ġcomp atri
ĠE glise
60 3
p ublie
Ġplan ter
ĠO M
Ġesc aliers
Ġvie tnam
ĠV ainqueur
U U
Ġpou les
ant on
er es
ĠM gr
ro v
Ġbre ton
ĠW onder
ĠMax i
ĠNob el
ap i
Qu alite
ĠF B
ĠCh roniques
ji had
ve use
cur isation
45 4
ra tivement
ĠNavig ation
Ð» ÑĮ
ĠS AP
Ġher b
Ġparfait s
ĠComp atible
ĠBel fort
Pro tection
ĠPersonn alise
Ġrou lement
b run
Ġcomp agne
C ote
E quipe
ĠB ache
ĠCh re
ĠTur in
ch ants
ne aux
mb ourg
ke din
ci ations
ti tif
Deux ie
Ġqu ator
Mag nifique
ÆĴ ÃĨ
Ġtra ction
ĠC CI
ĠP oker
ĠVict oire
ĠB oc
70 3
ĠB C
Ġpesti cides
Ġent housiasme
Ġti mbre
v b
st op
p ace
5 01
Ġliv raisons
ann uler
c ui
ĠE clairage
ĠR oth
Ġe cole
app areils
ĠV ig
ĠQu ar
Ġaccue iller
cou leur
g az
Ġfor faits
er ror
Ġgran it
Ġcol lines
Ġcont estation
16 17
Ġpe lle
Ġfais ais
Par ten
Ġ6 06
r antes
Ġoccident aux
Ġappe llent
ĠBo he
B ac
ĠQu ali
ca fe
Ġgra d
ĠâĻ¥ <
ĠN ex
Ġtu iles
ra per
ĠL al
ĠA ris
Ġinter dits
cap acite
Ġquart z
Ġconfig urer
lus ion
Ġat ter
ĠCom parez
ĠM aille
ĠMach ines
ĠK elly
$ <
Ġsa chet
m ographique
Ġ15 4
ĠM ovie
Ġman i
ĠC ENT
ĠMor in
ole tte
ĠRe mb
ĠMe dium
let on
Ġren voyer
lu ent
Mari times
ĠComp ense
sac tive
ĠÂ §
Ġl en
ĠOff ici
Ġva ches
ĠSwe et
ĠW ine
re ts
ĠSus pension
v ants
p orter
ĠOn ly
Ġd ark
Trans port
ĠFore x
ĠSou vent
Ġ7 73
ĠE tui
En voyer
Ġdange reuses
Ġro ches
ctu euse
Ġre al
Ġc Åĵurs
Ġblan chi
v g
Ġmar ais
old ing
ĠR all
Ġ0 38
Ġgl ac
ĠN OUS
Nett oyage
rape utiques
Au de
ĠCop enh
ĠC aire
ĠAll en
ĠB aptiste
Ġgly ce
Ġinflu ences
oc ons
l aire
Ġson ge
ĠDe ath
ĠAf ter
ĠGol fe
b t
Ġar gen
ĠP alestin
Ġfra c
ĠJam ais
Ġret ombe
Ġmain tenu
onn aies
Ġvir tu
ot ypes
Ġan orm
cor atifs
m ers
W orld
II II
18 00
Ġny lon
ĠSe y
Ġ16 3
Ġc uit
instru ment
ĠSolid arite
ĠY o
Ġaustra lien
Ġfer ais
ĠBos ch
U EL
ali es
ĠA yant
Ġsub ject
h ume
ðŁ ĺ
Ġ );
ĠCom ics
amp les
h z
,, ,
ĠApp areil
47 9
Ġpsych iat
ĠFI FA
work s
mont age
D N
glige able
f action
ĠW ho
Ġfl at
ĠC SS
OLOG IE
Ġ( *
Ġtom es
amb assade
st r
gi um
ĠTh at
pr int
ti um
Ġfrag iles
s ale
ĠT arifs
c tible
n as
Ġfact uration
Ġso dium
S uivez
Ġviv ons
ri des
IS ES
dit orial
Ġloc aliser
Ġg ilet
D onald
An droid
Ġfigur ines
or ale
Ġfond ations
Ġris quer
ĠL inge
Ġpres tigie
Gu illaume
ĠD ays
Ġmens uelle
Ġgraph isme
Com mande
90 9
aiss ait
Ġdemande ur
> &
ĠCos me
am iner
car a
al erie
g ola
cro ss
Ġmen ant
ĠPar ad
ĠM out
ĠLux ury
CE P
ĠAff ichage
Ġ% ).
Ġillus tra
Ġindic ateur
Ġmine ures
Ġmat ri
ĠEn se
ĠF ir
Ġordin aires
Ġsatis faits
Ġgri lles
ailler ie
Ġch asseur
27 2
B ig
f iche
h it
ten dent
ĠO z
Ġpharmace utique
gra tuit
Ġcont rai
ĠChau de
ĠI re
ĠInsp iration
Ġtrib une
Ġde f
ĠDoc tor
Ġ11 00
ĠW u
C lo
Ġfre ins
Ġ2 22
ĠB elles
Ġser ie
Ġv ienne
ĠPhil adelph
ĠJ oue
Ġ15 3
crit ures
; ">
ĠA teliers
Com parer
ĠCh rys
Ġse ct
24 24
Is abelle
ĠDe f
ĠCre ative
Ġhe alth
ĠA sus
MAN DE
B AN
hen sible
con fig
ĠD ommage
m d
ĠV itre
optimis er
T yp
ĠConserv atoire
T l
19 70
ĠPho enix
Ġ6 02
L ine
Ġes timer
le b
RO OM
motion nel
ĠB ati
L ampe
des cription
ĠREN AULT
Ġsa x
Ġfin issent
feu illes
ĠPoly ne
Ins crivez
Ġw at
os o
Ġimmun itaire
ĠAr de
Ġ2 13
Ġ19 07
app orte
> --
" |
Ġaff ronte
ĠF ide
ĠCol mar
P rendre
Ġf lanc
Ġapp orts
Ġ16 7
rim ant
phon se
ĠEm ile
Ġpau pie
f ull
ĠTh ie
Ġdiff us
ĠPaper back
Ġte e
48 4
g atives
ĠS qu
Ġdiv id
Ġ2 11
ne ider
Ġfus ionne
Ġm ienne
Ġc raindre
Or ganis
Ġbro che
Ġcontre partie
ĠCON C
A ube
Ġabord s
Ġanti bio
66 6
qu atre
H uile
Ġban ane
oth ing
Ġpublique ment
z h
Ġdem ois
ĠProfession al
IER ES
Ġob se
R F
ĠH erm
Ġpart y
que urs
ĠHil ton
ĠR ange
91 01
ok emon
ĠPl ou
ĠPan ama
R i
B ibliothe
Ġmodi fiant
Ġdu el
ĠTech nicien
A gent
c tice
ĠK M
In vite
Chau ssure
ĠForum s
ĠT un
tu is
ĠH z
DUC TION
ĠCli matisation
accro che
im mat
Ġcent ralise
Ġ14 2
Arch itecture
anth rop
][ /
G illes
Ġ5 12
Ġintera ctive
n oy
Ġsain ts
ches ter
ĠDel phine
Ġrest o
C OP
Ġper dent
ĠV aud
ILLE T
_ -
onne ttes
Ġfab uleux
Ġrappe lant
ĠLa z
ĠMa ke
ent ation
neak ers
hib ition
Ġwith out
Ġaffir mer
est Meta
dro oms
estMeta Price
Ġrecher chent
Ġgar antis
19 83
ĠMICH EL
ex ig
p ix
ĠCH U
ĠC olin
ĠUn ter
Ġn umero
T HE
Ġposition ner
ro duction
OM A
ĠCou vre
Ġsur monter
MA X
ĠâĢĺ âĢĻ
ill ot
Ġadoles cent
V ir
lant a
ri ka
m ne
Ġuse es
n ateurs
Ġsu p
d rome
Ġin cit
Ġg old
Ġcan cers
ent ends
ĠRe paration
Ġin cidents
Ġcontro l
Ġw il
Ð¾Ð ´
charge able
ĠN as
Ġpili ers
ĠTex tile
ll on
ĠVau cluse
sist ants
Ġph p
Ġa ci
ah l
Ġst ores
ach on
H ousse
ĠHos pit
Ġf um
Ġcomp li
Ġcompar able
Ġpos ses
Ġs lim
ri vers
conc asseur
ĠI bra
IE TE
ĠNov a
B AR
Â° ,
ĠLe fe
19 75
k as
intern aute
ĠV OSTFR
C ale
ĠSP ORT
Ġra vit
ĠTer ra
Ġperform ants
room s
mo z
esp aces
Ġconnex ions
M iss
ĠSuper be
ĠLin kedIn
Ġasi atiques
ĠMari anne
N L
ĠPer les
POS I
ĠN ag
Ġwith in
qu ote
mar keting
ad aires
ĠC oope
Ġvol ati
S ites
ĠM ick
ĠB aud
]+( []+[]
env ers
Ġmou les
Ġpar s
nit ure
ĠCOM MER
ĠK ick
the me
ĠM euse
ĠAut our
ĠP IERRE
ĠT DI
ĠCy lindre
Ġblog ue
ĠS able
ff in
Ġav ouer
Ġsensible ment
ĠCB D
ĠR EL
l aine
ĠCan cer
velopp ant
Ġcomp lications
leve ur
I rak
por ate
ci lier
imag iner
ĠMON DE
Ġh ip
Ġti mide
G AN
Ġre li
Ġcouver tures
ĠCont enu
om or
s istante
Ġanten ne
Ġgonfl able
ĠSt op
ĠK ai
Ġfer ons
ä ½
Ġbe ne
Ġallemand es
ĠTro phe
ĠN ich
Ġ01 0
Ch ine
Ġconf on
ĠDou glas
ĠP aiement
34 3
Ġor al
68 5
T rop
act us
ĠBi arritz
Ġrob us
W ork
tiss ants
Ġviol ente
Ġstand ing
ath ie
loi gner
Ġf osses
ĠBou ygues
Ġp lie
ĠMag nifique
est omac
ĠCur riculum
Al ger
fense urs
Ġh abilite
ĠT ob
Ġaff ron
l est
ĠG os
im er
O ur
O Z
Ġti er
Ġmar athon
L ux
ĠCar cassonne
26 1
Ġfinance ments
ar tif
Ġmot orisation
Ġstu pe
ĠDur able
k or
shop ify
Ġman Åĵuvre
ĠG ustave
it anie
Cro ix
Ġon cle
Ġtram way
" ...
ĠC LA
Ġdes tru
barde ur
ri le
cap ade
ĠAl t
S G
ali tes
ĠK un
ĠB oss
inter roge
N F
Cade au
hh hh
ĠJes sica
ĠN our
Ġi di
Ġexp ansion
ĠDiam ond
Ġw omen
M od
ĠCom parer
oul ard
Ġarch ive
tin ations
ĠM ines
Ġt own
ĠVol taire
Ġd c
Domin ique
ĠCar lo
ĠRo ver
ĠM Hz
Ġmini ature
78 4
tab olisme
CI A
Ġa igue
Ġdro gues
ist ait
n op
ĠSh i
ind res
Ġconne xe
g ouver
Ġcu ite
len chon
ĠB ris
ĠAutom atique
L IN
ĠH on
ĠT U
DE C
j oy
55 5
Ġra tio
ĠCom missaire
omb rables
Ġzi ppe
ke e
nov ations
ĠP izza
face t
ist ry
Ġp uni
ouss a
Ġsoir s
R ich
' Â«
c lisme
ri tif
Ġdos age
Ġbu zz
Ġpertinen tes
Ġret ra
Ġnot ation
ĠV enti
ĠRw anda
Ġexam iner
q a
e le
p ush
A de
Ca fe
03 9
H F
Ġexport ations
d est
D ip
ĠGT X
ĠPla fond
M enu
A x
S R
I QUES
d oir
def ined
ri di
con ciliation
Ġsoi f
aill ot
Ġn oun
Ġincont est
ĠLe go
int he
pr widgets
ĠMo dule
Ġbas ique
g ences
45 3
all ages
ĠSi di
ĠN F
v w
k ai
M el
26 27
ĠCor de
Ġplafond s
moli tion
Ð½ Ñĭ
Ġcho que
ĠE ffet
Ġpous sent
Ġre part
oo ing
Che v
k ra
Ġmanque z
Ġmai tre
Ġ3 16
Ġveu ve
ĠRoul ant
Ð° ÑĢ
>â Ĺı
Ġmo indres
ĠD iane
ĠV es
Ġp ad
ĠVit ae
Ġra ye
Ġre liant
der a
ĠSer ie
ĠSke chers
ĠB am
s ay
ĠZ el
Ġc c
ĠR ick
ĠPap a
ĠF oundation
ĠJ olie
fam ille
S m
ch euse
la f
Ġatt ach
ĠS cul
conom iste
analy ser
Ġcli gn
Ġmar re
Ġs now
Ġvitre rie
aill ard
Ġanne au
ĠUtili ser
oc on
xx xx
+ ,
g lobal
ÌĪ Â¿
ĠS oin
Ġgon fle
de coration
entrai nement
Dos sier
pend ances
ĠCons tructeur
ĠH onor
Ġtr ousse
ĠB LE
Q C
IR G
dioc re
ĠBron ze
Ġbru te
Ġdomin ant
inst ance
Dis ponibilite
Ì ¦
Ġbon bons
ĠØ ¹
Ù Ĳ
Mal heureusement
ĠCher che
Ġre quire
B F
Ġrus tique
ĠPl ans
Ġcontra dict
B ordeaux
Ġball ons
Ġ19 08
te ts
ĠTri ple
ler inage
Ġd ynastie
Ġ15 1
ov as
ĠIll ustra
I mages
Ġla ug
D IT
35 3
capit ul
Aut orite
Ġaccept able
Ġergon omique
g ats
ĠL ock
88 8
ĠD L
ĠCar ole
s ame
Ġsatel lites
lie d
ĠE iffel
Ġpren ait
Ġsu pers
re ct
Ġor bite
Ġmal heur
ĠLab el
ĠV ins
Ġhistor iens
al u
Ġre des
Camp ing
A mi
ĠT aupe
ĠCH AU
Ġ3 33
) )<
ĠCamb odge
Ġprog ress
ce la
ii i
ros age
m ut
Ġ20 4
ĠF actory
ĠO il
Ġag enda
vac ue
ĠDe pot
R AS
Ġlut tes
) ...<
A cteur
e a
Ġgour mande
ĠS ri
Ñ İ
Ġpar se
ĠS ara
Ġk n
net tes
s n
45 56
ali st
ĠMo ore
ĠCry stal
ĠB ricolage
Ġam ical
ĠPar ker
Ġvers ant
Ìģ, <
A merican
ĠEsp agnol
pan ner
Ġver dure
ĠPen n
led ge
Ð» Ð¸
C ame
Act uellement
min ines
Ġess aient
si p
Ġblu etooth
ri ves
ĠT rue
ĠPay pal
q n
Ġane cd
Ġp endentif
Ġen com
Ġapporte ra
Ġme dium
Ġf esses
ĠB illy
ĠN OUV
per ia
R eu
n avant
Ġmarchand ise
Ġre ten
ti cite
F orme
tern al
mo oth
ĠPar ka
ĠB eth
Foot ball
F ull
tin ct
ĠO C
Ġpen sions
f low
Ar mor
ĠN ame
Ġde cor
ĠJu p
Ġa ligne
Ġ16 4
ĠPoi gne
Ġp acte
Ġmultip lier
S us
ĠN er
nit ude
Se arch
Z W
ic aux
Ġcon signe
ĠCh uck
r x
Ġsou leve
inf rastructure
ĠDe ep
Ġquali ty
Ġor phe
ĠRe cord
Ġcon venir
ĠGu il
ti cienne
Ġav i
Ġins olite
Ġc ube
orth ographe
ĠSer re
Ġdonn a
Ġo wn
Ġcou reur
ĠI ris
Ġg alement
. _
Ġhabit ations
affir mer
ni ve
ĠOrd onnance
Ġpap er
Ġridi cule
Ġb inaire
Ġl obby
Ġdist ribuer
TE CH
exp ress
m aire
ĠG RA
w ith
Ġconn aisse
F aut
Ġpar lons
ĠGar onne
ĠBay onne
Ġchristian isme
rait s
Ġconv iennent
inter venir
ĠComm unes
cre ts
oc ity
Ġcri min
Ġdev ienne
g ole
ar iser
f irst
col ler
ĠF iles
ĠBour ges
U ME
dor f
Ġra in
A re
Ġvi andes
ĠD O
ch oire
ĠE quipe
G er
Aff aires
Ġab andonner
Ġl omb
Ġprome ner
ly ce
ĠS can
ĠIns crivez
Ġexces sive
Ant h
Ġ0 77
Ġfre inage
Ġm asses
ch io
Ġan tic
S W
ĠNel son
ĠS YSTE
Ġconfront ation
v iendra
ĠG ers
chauffe ur
Ġgastron omique
ĠLo ren
w iller
ĠC ig
Ġpro vence
oign ant
Ġsou tiennent
Ġ0 76
ĠOut let
oeu f
á ĥ
ds on
ĠJacque line
si c
ĠAc cord
n ir
Ġmon o
Ġentrep ris
Ġcomp ilation
23 34
$$ $$
ĠC ologne
L argeur
3 22
ci tement
h ire
ĠAutom obile
ĠCri tique
Ġsit uer
Ġ06 9
Ġcar dio
Ġrame ne
Ġbat tus
ren contres
- ,
Ñ Ķ
ĠColle ctions
Ġinter venant
er ne
Ġpriv ate
arg ile
ĠAnd erson
Ġaltern atif
ĠCal vados
Ġ30 8
Par tie
Ġgramm aire
Ġrecomm end
Ġaccus ations
ĠRE P
ĠBru ce
as ing
35 2
ä »
Ġcre ation
Ġb uilding
Ġpel li
In see
(' #
Ġutili te
B ack
Ġren dra
ĠG amme
ia que
Ġtra ck
ĠOb tenir
lect rom
Ġvari ante
Ġb are
ĠSher brooke
ĠDe me
j p
ĠT D
ĠRes er
Ġcorrespond ants
Ġlou ps
Ġat teste
com pt
ĠCom fort
ĠUnivers al
ro ce
Ġplace ments
w css
Ġtro tt
k top
wcss tore
mi a
Ġtut oriel
ent ry
H H
tabli es
ĠLe cteur
ĠT M
LE CTION
Ġhar ic
st ring
Ġsa che
ĠT au
d oi
zon a
hu a
bat tre
Ġnb sp
ĠMain tenance
ĠCog nac
ĠStu dy
T RO
appro bation
Ġemprun ter
Ġinte mpe
pin ie
Ass istance
ĠBel ge
Ġpar tez
19 82
Ġconcur rent
Ġeth nique
ĠN utrition
Ġexp oser
en tity
Ġ17 4
v ap
v iend
ĠFlo rent
ill usion
ĠF ield
F onds
ĠM asse
mber g
Ġexception nels
ĠPro ductions
Ġbac s
ĠMon ique
Ġref let
ate m
z hou
ĠMon tigny
Ġann uler
Ġmultif onction
l m
":" (
ĠCor dialement
ES P
C LE
ĠV aux
Ar che
G F
Tour isme
ĠS AC
ĠNatur al
Ġin habit
Bra celet
Ġd entiste
no vembre
Ġfl acon
Ġall aient
Dire ct
Ġtuyaute rie
P ass
: .
Ġsou tiens
Ġb rico
Avail ability
W idget
Ġdes se
ĠA ch
ĠA ime
Ġj oin
ĠEN F
ĠV ib
ĠM all
re ra
Ġcop ieux
ĠS ierra
thi opie
import ation
In formatique
h iers
ĠSalv ador
oll ants
Ġpen cher
ĠL iverpool
ab ase
Ġre couvert
Ġaimer ait
ow a
ĠCH AMB
Ġher be
ĠLum inaire
Sh are
Ġ? !
ĠA igu
Ġk h
ĠGri lle
ri orite
ique ment
19 79
ĠV AN
Ġmal heureux
ar bit
3 000
Ġplain tes
s tu
Ġemme ne
olog istes
Ġ23 2
ob ox
ond res
Ġin cen
Ġ06 6
Ġs ant
ĠOli ve
ĠPic ard
ĠBu enos
orm ir
Ġpaille ttes
Ġemp reinte
arti llerie
95 6
Ġs que
C AL
Ġcol lage
ĠH K
ĠPlac ard
Ġcommun istes
U IL
get js
hyper tension
Ġcomp acte
inter roger
art a
ĠH TT
Ġb osse
Ġmul tination
Ġpit tores
ĠRou x
ãĥ ¼
3 25
p las
Ġcra quer
Ġnett oye
duc ative
ĠPhilos ophie
ĠR ER
Ġexp licite
ap a
F ORT
Ġpens es
Ġcartou ches
Ġconc our
Ġdim ensionne
Ġsoud ain
n asse
Ġ13 00
TE AU
29 2
W idth
Vide o
Ġpale ttes
B ande
ĠR he
c ils
T unes
act uelle
Ġbar on
Ġent rant
lu c
ĠBro ad
ĠB assin
l om
Bas ket
ob st
5 10
Ġvi rage
ĠO B
Ġu m
ĠMAR TIN
ĠT ailles
Ġbl ague
Pant alon
ĠCH AP
Ġprodu ites
Ġmont ure
Rece vez
Ġ2 99
ĠCant on
ĠBl ock
c urs
Ġad or
Ġrais onnement
ĠQu otidien
Public ations
b org
Ġbou ffe
ro pe
Ġm alin
ribu tes
ense ignant
ĠCru z
ĠG em
Ġmou che
Ġrestre int
ĠGiov anni
Ġtermin ale
Ġaf ricaines
mocra tes
Ġex otique
ĠRom ans
en ade
ĠCon dition
ches se
Ġtur quoise
que lle
tran ges
ĠPro s
Gar antie
75 7
termin ant
ĠN OR
c endant
Ġal pin
B rit
Ġ omb
35 1
Ġmass ages
Ġre cre
Ġdesser ts
ĠAnsw er
tisse urs
Ġin jection
Ġi p
Ġmaxim al
Ġ:- )<
K ER
Ġconf iture
ogre ffe
Ġcant ons
å Ī
ĠN ak
ou ches
28 1
Ġdel la
Ġmin ier
B ill
Ġfac es
abord er
Ġlou pe
ĠOp tions
Cont rairement
erm ont
ĠVer dun
AND ARD
P RI
un o
Ġbulle tins
Ġb las
bel lion
Ġplan ifier
ĠWal mart
CL US
[...]
