#version: 0.2
e n
Ġ a
l i
Ġ t
e s
o n
Ġ d
h e
r e
e w
li n
lin e
n ew
new line
Ġ s
t e
a n
t i
Ġ i
o r
c h
l e
Ġ p
o u
a r
n d
Ġ c
Ġ w
Ġt he
Ġ f
n g
i s
Ġ m
Ġ b
a l
Ġ e
Ġd e
Ì ģ
i t
Ġ o
a s
v e
i e
Ġ S
Ġi n
o m
a t
Ġ l
r i
r a
ti on
en t
u s
Ġo f
Ì Ī
Ġa nd
d e
r o
Ġt o
Ġ A
g e
i ng
Ġ h
Ġ n
. <
Ġ u
r s
i l
Ġ C
c e
â Ģ
Ġ M
Ġ T
u r
Ġ B
Ġ P
m e
Ġ 1
te r
Ġ I
Ġ D
Ġt h
Ġ g
q u
e l
Ġ re
o l
Ġ v
s t
Ġ 2
Ġb e
Ġ L
s e
Ġ F
i c
Ġ (
a i
p e
ou r
o t
Ġ E
Ġ R
a tion
Ġ H
b e
Ġ G
Ì Ģ
a m
t s
Ġ W
e d
Ġ y
Ġs e
i r
i g
Ġf or
u t
l y
Ġi s
âĢ Ļ
Ġ on
a y
o w
m ent
k e
es t
Ġ le
ve r
a c
Ġ N
Ġl a
u n
a d
an d
e t
s i
r es
u l
Ġ K
Ġ2 0
i ch
Ġu n
Ġa l
Ġu nd
Ġ en
he r
u ng
Ġa n
Ġd es
a b
> <
a te
it h
a u
Ġc on
Ġs t
Ġp ro
u m
Ġde r
Ġ J
f e
Ġe t
t en
Ġ V
Ġw ith
o s
Ġc om
Ġ qu
Ġ O
Ġa u
Ġw e
c i
an t
. .
Ġ k
Ġth at
be r
Ġ j
a g
Ġw h
c t
Ġa s
Ġe i
r en
Ġei n
or t
Ġd ie
Ġ z
o o
Ġ li
0 0
r u
Ġp e
ou t
de r
o p
Ġ U
ai n
v i
Ġy ou
d i
p p
an s
a ch
Ġm o
a ge
c he
ĠT he
Ġ he
Ġ -
Ġm e
es s
i m
c k
Ġp ar
Ġ âĢ
Ġ20 1
Ġf i
Ġw as
Ġ ch
r om
Ġ1 9
Ġp l
te d
u re
Ġa t
Ġ or
ou s
ti ng
Ġe x
t h
o g
il l
Ġa re
Ġd i
Ġd u
is t
l d
d en
l l
Ġs u
Ġi m
e m
Ġi t
ĠS t
Ġ ge
f f
g h
n t
a li
Ġn e
u e
Ġl es
h r
Ġh a
Ġb y
i te
ie r
qu e
al l
Ì Ĥ
ĠI n
d u
n i
o i
o c
Ġs h
us t
r ou
g en
ar d
Ġ 3
r an
i nd
w e
ch en
om e
Ġf rom
Ġm a
as s
l o
on t
Ġth is
a p
us e
c tion
ti c
ĠR e
n s
i on
Ġa b
e rs
Ġt e
z e
Ġs o
i d
an n
ĠD e
r t
) <
f or
a h
Ġy our
Ġ :
en d
ve rs
Ġv on
l a
h i
an ce
en s
u b
o re
' s
el l
r y
Ġp our
Ġha ve
Ġf u
Ġn ot
2 0
Ġd en
ig h
Ġn o
f t
it y
a me
ĠS e
k s
a le
Ġcom p
a re
Ġ <
t y
Ġm an
is e
Ġm it
Ġ "
ĠB e
ab le
Ġal s
Ġ |
a ti
Ġ Z
r ie
Ġs ur
on s
ri ng
ĠL e
Ġa c
Ġp re
a k
Ġc an
ter n
Ġz u
c es
as t
Ġ est
Ġ 4
ac k
me r
Ġw or
i li
u d
b le
Ġal l
a il
v en
es e
on e
al ly
s te
ar t
Ã Ł
le r
on g
i de
ĠS ch
Ġw ill
ĠH e
on n
Ġ 5
l es
Ġa d
Ġ ver
m i
Ġe r
T he
ĠT h
Ġc ou
Ġ Â
ĠâĢ ĵ
o d
o st
Ġs p
Ġ res
Ġ r
Ġi st
ĠC h
li ch
Ġau f
Ġd o
pe r
n n
ation s
ar y
Ġ Y
re d
m en
oo k
or s
ig n
ri c
e ar
m p
o li
a ce
Ġein e
Ġt ra
Ġun e
1 9
a v
ĠW e
an g
Ġd ans
u nd
Ġd as
p s
) ,
en e
t her
o se
f fe
Ġ20 0
ol l
Ġh as
ich t
as e
f i
Ġa m
Ġa us
Ġ us
ate d
ar i
ent s
t t
c om
for m
Ġqu e
Ġa r
or d
Ġc e
on d
Ġs ch
oo d
a is
Ġ ra
li e
tion s
Ġb ut
Ġde m
p h
g i
ge r
l le
u rs
si on
s ch
re e
t o
.. .
Ġ 0
c a
ĠP ro
o b
Ġd is
Ġpe r
rs t
ti n
Ġcon t
h n
Ġu p
en n
ĠV e
lin g
u ch
Ġ es
Ġf e
r n
Ġ 6
Ġh is
li c
s s
c l
u x
m s
ĠS p
gh t
se r
Ġa pp
il d
o ve
l s
Ġ ou
Ġthe ir
de d
il le
Ġt i
Ġp ri
Ġp as
ti ve
ĠG e
en ce
Ġ out
ou ld
Ġals o
Ġon e
Ġwh ich
Ġmo re
Ġ ro
Ġqu i
Ġse r
v es
it s
am p
al s
b en
Ġm y
ĠM ar
ow n
Ġ1 8
ment s
ĠT e
c ri
i a
h en
u g
Ġthe y
ie l
ay s
li s
Ġab out
j e
Ġ 7
Ġ &
ĠA r
ai re
l and
a it
Ġa v
Ġa ve
k t
i en
p tion
Ġs ich
Ġ our
h a
f ic
m an
i le
ul t
! <
ĠI t
te rs
or y
ung en
Ġ 8
ĠA n
i es
m a
Ġ ri
un e
Ġwh o
c ess
Ġw ir
ve l
ol og
ĠM e
Ġre p
Ġpl us
Ġc l
Ġim p
Ġn icht
Ġre c
1 0
g es
âĢ Ŀ
o y
ĠC om
Ġwe re
Ġ 9
Ġg o
Ġm ar
ti e
Ġ1 0
ĠL a
igh t
i ns
ur ch
Ġti me
Ġy ear
t re
Ġc o
Ġ new
Ġau ch
is s
ĠP ar
el le
mi n
te l
k ing
ow e
i b
Ġfi le
Ġs pe
Ġ her
Ġm i
qu es
res s
ĠS ie
Ġave c
r is
Ġcom m
m ber
g ra
Ġ ent
Ġa g
Ġw ar
Ġi nd
at h
v ing
ur es
n ing
ac t
p l
at es
m b
R e
ĠA l
us i
ca use
Ġs i
a ke
20 1
Ġs ome
Ġan y
i re
Ġh ad
ti s
ation al
Ġpro du
n ess
ti es
ou nd
w o
c re
Ġj e
? <
I n
ĠD ie
c ou
ic al
g an
p t
w n
Ġbe en
r it
ic k
ve d
) .
Ġbe i
Ġpe rs
Ġ /
ĠÂ »
ĠF e
u te
Ġo ther
ol d
Ġk n
n is
ra tion
Ġp h
Ġse i
Ġbe cause
ĠVe r
h o
le d
f ter
.. .<
c her
op le
u f
r ans
u i
ol le
Ġi ts
Ġo ver
ĠâĢ ľ
ti t
ung s
Ġa ut
o ol
fe r
Ġm on
Ġ ke
ĠU n
Ġge t
Ġc ar
re at
i z
ti g
ĠU ni
p le
ri n
c o
ch t
Ġwh en
an ge
a us
di tion
y ste
Ġs on
Ġ Q
u al
re i
t ra
âĢ ĵ
vi ce
m es
f ul
Ġ use
Ġc re
ĠL i
onn e
ci al
Ġs a
Ġv ous
o ir
r on
ver y
Ġthe re
e p
Ġfi rst
n o
f en
Ġb l
âĢ ľ
5 0
an ts
Ġsei n
t z
Ġw ould
a z
ch a
he re
rou nd
u ts
Ġf il
r ent
u p
v ent
ĠF or
1 8
Ġw ie
a de
ke r
u ro
Ġli ke
Ġin cl
Ġi f
Ġwe r
ing s
Ġ19 9
Ġ ,
Ġin to
ag es
ĠP e
Ġth an
Ġs ie
Ġ vers
ra i
v is
ri es
Ġwor k
Ġdes cri
ĠP l
oi n
ĠO n
s p
Ġsh ort
c y
r al
00 0
re r
Ġn ach
1 2
ĠE n
ĠN ew
Ġfi n
Ì §
Ġw ur
Ġin ter
Ġwh at
Ġu m
p ar
at t
Ġ1 2
Ġo der
Ġpl ay
Ġb u
Ġthe m
ĠTh is
y s
l u
Ġh at
r and
ĠF ran
au x
Ġpe ople
Ġbe t
a hr
nd e
Ġi l
i p
o si
us s
at s
Ġs te
d ay
or n
Ġg u
Ġre g
E R
il li
Ġc he
ot h
h l
o k
i an
Ġb es
p re
Ġs ind
o is
x t
h al
D e
Ġwer den
c on
w w
a ut
Ġo b
Ġi ch
3 0
f u
Ġv i
rou gh
Ġ *
Ġl oc
ĠA b
p en
ĠE r
he d
Ġex pe
Ġhe l
ar ge
Ġas s
g n
ĠS o
c ts
n k
et te
Ġm ay
Ġ1 5
ou gh
Ġj ust
Ġ ve
ai r
m o
Ġg ro
form ation
Ġsu pp
ĠN e
a ter
Ġpro vi
Ġne ed
Ġpar t
ou rs
Ġp ub
Ġv or
Ġon ly
n ce
ĠM i
ĠE i
1 1
Ġmo st
Ġcon s
Ġ1 7
Ġt wo
L e
ch n
u es
is h
Ġs he
is chen
og ra
a ting
Ġs ont
ng e
il y
r at
m it
Ġmi n
u tion
as ed
ie d
Ġth rough
ti v
ur n
ĠH o
Ġfi nd
ĠS h
Ġdi re
t on
: <
Ġg i
Ġma ke
Ġ â
Ġ201 8
Ġ1 6
p pe
ĠM o
ĠR o
v ic
ĠB l
or k
w ard
ĠM an
b i
as h
Ġte r
m m
k i
n es
c ted
Ġh ow
Ġz um
me ric
Ġt rans
ati ve
W e
Ġw ell
Ġs c
our n
owe r
u is
T h
Ġb est
b re
ĠE x
an k
t es
n en
ai d
Ġse c
ke t
en ti
ul ar
ou se
al le
ĠY ou
ra te
ĠC on
Ġa fter
Ġh o
Ġex p
Ġf am
Ġb ack
Ġp os
i que
a x
Ġkn ow
Ġ [
et z
ar s
1 5
Ġp oli
Ġin s
ou nt
Ġ .
Ġwir d
Ġ1 4
e x
ren d
ĠD i
el s
it en
Ġg ra
Ġsu b
Ġp res
Ġwur de
t he
Ġdi ffe
Ġ| |
usi ness
1 7
ĠS u
Ġh ab
Ġ $
t a
ti f
Ġd ass
Ġv is
ĠA nd
Ġyear s
ch es
ag n
as se
i ter
at ure
Ġse e
Ġe very
1 6
Ġeine r
el f
I N
ĠA d
ĠJ e
f ore
) .<
st ru
E S
b o
Ġz ur
ĠâĢ ŀ
Ġein en
fe ren
z en
D F
c u
Ġth ese
ĠÂ «
Ġd on
h t
Ġs im
ci p
Ġma is
Ġb is
le ct
n a
Ġh igh
Ġpl ace
Ġ19 8
1 4
2 00
ĠEi n
ÃŁ e
b ur
ction s
Ġpro f
d f
d ing
y e
hi p
Ġw here
ro p
r g
vel op
Ĥ ¬
a ve
an y
Ġau x
O N
Ġ1 3
ot re
' t
u di
Ġver y
Ġs yste
m is
an de
Ġman y
le i
Ġ #
ĠS te
ĠJ u
ow s
Ġst ud
an e
et h
an te
Ġg es
vi ew
ig en
w ay
Ġcomm un
Ġth en
ou ve
vic es
ĠJ o
be rs
u de
Ġd urch
ah l
/ /
ff ic
Ġcomp le
Ġein em
A N
ĠA us
at a
Ġl ook
Ġo wn
p on
Ġhel p
Ġan n
ĠC o
al es
m ar
c c
nn en
1 3
ti que
au f
os s
we r
d es
h re
or ts
Ġc li
Ġ201 7
Ġd a
ion s
S e
ĠC l
am es
c tive
Ġd own
as on
ili ty
Ġde p
Ġfor m
Ġt re
Ġg ood
Ġw i
oi nt
Ġre t
se d
ĠC ar
Ġsu ch
S t
ra ge
al th
ĠG es
e k
at ur
n ter
: //
Ġdes ign
ĠL es
ĠM it
ĠI nd
o ot
ĠP DF
ĠF i
Ġk o
- -
Ġt out
me d
ra g
ri b
ul l
E N
o v
> |
at ch
Ġm ed
re ich
Ġof f
ĠZ e
b all
ri l
Ġl ong
or i
ind e
k en
Ġk ann
Ġ1 1
ort h
Ġn ow
ar n
Ġcou ld
ew e
ain t
d s
Ġw ay
Ġst ar
Ġser vice
ali ty
ali s
el t
Ġ X
Ġp df
Ġno ch
out h
Ġund e
e y
Ġ '
li chen
si de
Ġs ol
qu i
ĠP re
ce d
Ġ3 0
p ort
Ġp ra
Ġf l
Ġh ome
li che
Ġma de
2 2
" ,
Ġs it
ĠO r
ĠA meric
at z
fi n
Ġs ti
i nk
Ġ19 7
g le
ĠC hr
te ll
Ġm us
Ġ201 9
ri ch
v ol
Ġus ed
Ġag ain
ct or
oi re
c ent
p te
der n
Ġb i
4 0
Ġ lin
A R
Ġ ren
Ġe ven
ue r
m al
te t
Ġh im
Ġli e
ain s
ver n
D ie
Ġ ru
Ġ201 6
ĠI l
Ġc ap
ain e
ĠU S
ot her
en te
ĠUni vers
Ġb ook
ĠP h
v al
Ġd ay
ier t
Ġv otre
Ġli fe
ogra ph
ai res
ĠA s
Ġdi es
ĠDe r
ĠE uro
p ro
ĠI s
b ar
.. ..
Ġn ur
ĠW h
Ġg reat
y p
Ġdi ese
Ġc olle
gi n
Ġs aid
Ġc ol
u me
Ġs ou
Ġe mp
Ġincl ud
ro w
Ġwe b
Ġc al
oll ow
an z
ĠQ u
o ck
olog y
6 0
de rs
Ġs ite
w ar
Ġg rou
Ġbe ing
it al
o x
Ġb usiness
ĠM a
ĠD es
Ġt em
g t
2 5
Ġpro p
om m
as i
Ġs es
Ġor gan
Ġbe fore
Ġsh ould
i ce
or te
i k
Ġm uch
Ġin tern
Ġse t
ic s
du c
Ġin te
f a
ĠSe r
Ġpers on
Ġre ad
si te
t te
Ġexpe ri
ĠA ll
Ġa ber
Ġc or
Ġg ene
a pp
al t
Ġpro gra
Ġi de
Ġg en
we en
B e
y n
Ġdi d
Ġwor ld
Ġcon n
ge l
U R
Ġc ent
si ble
Ġ201 5
Ġf ac
ic t
Ġh and
" <
Ġn ous
Ġte am
je ct
Ġon line
ĠA p
ĠD as
Ġal le
ar m
ĠB u
A T
u le
Ġt ou
ar ch
Ġent re
Ġc i
lis h
Ġf ound
Ġunde r
ail able
o te
is te
ĠF l
Ġre ce
Ġhab en
st en
Ġen d
Ġl ove
Ġt ake
Ġh ist
pe d
Ġs om
ĠE ng
de m
Ġcom me
o le
ĠHe r
ĠI f
Ġn om
k a
Ġan s
2 4
! !
ĠJ an
Ġbet ween
Ġhe re
is che
at her
si ve
Ġc are
ig i
Ġpar ti
ag en
g a
Ġn um
Ġp op
Ġ2 5
ĠT ra
ĠG u
Ġph ot
osi tion
Ġmo de
tic al
ot s
ĠP ri
nn e
c le
ti m
un k
il s
u ally
ro l
ie ld
Ġcon ce
Ġo p
c is
le ase
Ġm ach
ch i
H e
Ġc ette
Ġwh ile
c ome
Ġw ant
Ġ201 4
b y
o ci
te ur
Ġ2 4
Ġf ree
Ġspe ci
e h
2 1
Ġimp ort
Ġr est
ur y
Ġa ct
Ġf ait
m ie
di n
ĠD u
w a
ti k
at en
Ġe rs
Ġs ame
v re
Ġs m
Ġd oc
ti l
ĠC an
ac he
ic her
Ġth ose
ĠJ ah
ro ss
Ġun ter
ĠIn tern
Ġch ar
Ġdo es
Ġri ght
Ġs el
ran ge
L a
ĠM on
Ġe ach
ri d
Ġsec ond
Ġc le
Ġch ild
Ġm et
rai n
und e
ar be
ĠS he
Ġb re
Ġâ Ĥ¬
we i
ri end
Ġn ame
ra u
ri al
z i
I S
Ġc ur
Ġprof es
2 3
Ġm ain
ard s
Ġpub lic
Ġcon f
Ġ201 3
Ġg ar
o ch
Ġre l
b ru
Ġf ollow
Ġme hr
Ġ x
Ġb ien
r ise
ĠW or
Ġp ost
Ġdu ring
Ìģ ,
Ġv ie
ass en
Ġto p
age ment
an ces
igi n
Ġp rom
8 0
w are
ar ly
Ġcou rs
Ġ ...
om men
ĠM ed
Ġre m
vis ion
en ter
Ġcon tin
ĠA ut
ĠA uf
Ġe le
9 9
Ġf re
Ġb oth
ge b
y le
bur g
om en
Ġa round
O R
E x
h ren
Ġ201 2
en se
Ġ1 00
Ġe ffe
Ġn on
ĠD a
ke it
Ġin f
Ġth ree
Ġr un
ÃŁ en
ĠC e
Ġd ist
Ġqu es
lo ad
Ġst and
is ch
ĠF u
Ġd ar
ut z
Ġ19 6
am i
tic s
Ġke i
v ir
Ġpro cess
ali te
Ġf ran
v ant
Ġm al
Ġ ;
hn e
Ġpro ble
ze r
_ _
la ce
Ġand e
Ġcou nt
Ġsh ow
Ġsch ool
o de
ri te
al k
Ġman ual
i vi
Ġt ak
ĠRe g
ro s
i ve
4 5
ĠA ug
ĠH a
ĠG ra
Ġe as
Ġm en
feren ces
enn e
Ġb as
a ff
Ġh i
ĠC hi
ĠS i
n et
un i
Ġser vices
d ent
2 7
ĠG ru
an c
ĠA u
Ġ2 1
cha ft
ck s
c or
" :
Ġin st
oo ks
. ,
A L
Ġl o
ĠB es
Ġl ast
ĠB ar
Ġch ange
l ess
Ġ +
agn e
y pe
ĠL and
w ays
od y
c ont
or m
I T
Ġb ro
ĠN o
Ġde ux
Ġs ing
Ġf un
con om
ĠM ay
9 0
A n
rie d
Ġp a
Ġfam ily
j a
Ġon t
ĠW i
Ġbu ild
Th is
Ġde velop
2 6
Ġ2 3
Ġa i
i ge
Ġk m
Ġo pen
b es
Ġsti ll
Ġsyste m
ot t
Ġsu c
ĠN ach
ĠâĢ Ķ
ul ation
A S
ĠF re
Ġv ide
at or
Ġ =
P ro
A r
C h
ber g
Ġc ust
tt p
Ġus ing
2 8
p or
ĠThe y
Ġaus si
tt le
che i
ĠT o
ĠFran ce
ĠJ ahr
Ġnum ber
Ġp o
ĠAmeric an
Ġme m
e e
ĠV i
ti ce
ĠI m
Ġf aire
ie ren
ct ure
Ġw on
O n
und en
Ġsein e
ĠA t
Ġ5 0
r um
Ġa ppe
Ġre ally
ad t
ĠE s
ib t
ĠBe r
is ter
si ons
le x
z u
re ad
Ġc a
owe ver
ch ie
Ġ201 1
Ġcl ass
n f
oc ie
ĠB ut
lie r
Ġv ol
Ġpro te
> "
lei n
Ġte chn
il t
Ġf our
ĠA pp
Ġwe ek
Ġs oll
Ġ2 2
Ġun s
ic he
r as
Ġt ri
ĠW o
a f
Ġst ate
Ġ201 0
ĠP a
o f
Ġcomp any
am s
R E
Ġb o
it a
en de
an a
Ġs ign
ww w
Ġv om
ann e
Ġis s
Ġt rou
3 5
as ter
Ġd am
ay e
pp ort
on y
ĠC he
all s
Ġce rt
Ġ ?
ĠV or
g u
ust ra
b or
ati s
age r
O C
Ġ !
Ġfil m
ĠB o
ĠUni ted
Ġh um
7 0
p a
Ġo pe
ĠC ol
b ook
Ġth ink
ber t
Ġn ouve
Ġd ata
Ġprogra m
ĠK o
Ġmon th
Ġbe au
ĠS c
Ġpri n
I C
Ġkei n
G e
ck en
li g
r ont
E n
Ġtra i
te ment
r k
ers t
l t
I t
U S
2 9
lis hed
ut es
al y
ing e
r b
Ġin cre
Ġg ame
ale ment
Ġw ater
e rg
v ie
b um
el d
Ġu ti
g lich
ĠA m
ul ti
all en
Ġad d
Ġor igin
mb re
ost en
or ies
L es
Ġhe alth
Ġare a
Ġc as
illi on
ĠCom p
j et
p art
Ġv al
Ġd ou
Ġd ri
Ġpl an
3 3
L E
Ġat t
Ġto o
b st
Ġl arge
ge t
ĠJan u
Ġun se
ĠThe re
it es
ĠDe uts
p ie
on es
ic i
le y
s h
ĠPro du
ĠSe pte
ĠN ove
ĠZe it
Ġac c
Ġapp ro
am b
Ġgo ing
ĠW ar
re g
ĠIn s
Ġ* <
h or
Ġpe ut
at ter
g ru
ĠV ers
Ġwie der
Ġre qu
he it
Ġb el
f l
i o
etz t
Ġha pp
Ġf ew
al d
z ed
Ġ19 5
ent ly
ll en
Ġh ier
Ġsi nce
s en
k es
M e
ivi du
Ġpe u
ra it
j or
Ġd ann
r us
Ġsupp ort
f ol
ze it
Ġle ur
Ġw enn
ĠAp ril
ĠD is
Ġd ra
L i
A l
Ġpers onn
A C
Ġse hr
Ġf riend
tic le
ĠAug ust
ge d
Ġof fe
o ff
ch ni
T e
l au
and s
0 1
are d
m ail
ĠC ount
ell es
U n
ĠP oli
Ġl ang
i ti
ad a
Ġm is
t ail
Ġg ew
one y
Ġme i
Ġa ir
Ġwith out
Ġg rand
Ġper form
im es
Ġ >
ĠB ri
Ġsm all
il m
b s
ro om
ĠS pe
W h
Ġpar tic
ĠL u
gen d
ĠC ou
> -
l os
ir d
ĠA ng
Ġa ng
Ġs y
te mp
ult ure
f ts
el n
Ġf oot
Ġw o
Ġat ten
Ġp ay
th ing
be i
it z
Ġcom e
Ġp oint
i al
Ġf act
Ġ rou
0 5
E i
, "
4 4
Ġj us
Ġs ay
ab les
ĠI I
z a
Ġs k
g o
ĠA ss
f ort
ĠFe bru
Ġf ut
we ise
m on
3 6
V e
7 8
b u
ĠNove mber
ĠP ers
Ġc ri
ĠCh ar
ĠG o
ĠN ational
le t
tie r
v or
Ġp ower
Ġex ce
Ġv o
Ġli ttle
Ġs ow
Ġ2 8
om an
ti me
Ġv ari
Ġc lo
ac es
, <
ĠG ar
Ġdis c
Ġth ings
Ġp ass
Ġ200 9
Ġh om
Ġagain st
ĠB ro
Ġ ess
il es
Ġcom pe
Ġm ust
op h
Ġwith i
Ġwithi n
y l
Ġf ull
ĠWor ld
Ġ2 6
ĠK e
pe rs
ent re
l as
Ġre le
Ġt it
4 9
ĠPar is
3 8
Ġc ost
C om
en i
Ġs ans
f s
Ġan other
Ġal ways
ar k
ĠSch ool
Ġli st
Ġt ro
v o
Ġne xt
ti vi
Ġapp lic
0 6
ĠT i
Ġm ate
4 8
ais on
Ġh ouse
en g
ĠR es
or g
Ġhe ad
ĠO ct
at ri
Ġc es
Ġg re
ra m
n c
ign e
Ġre f
0 7
gn e
vern ment
Ġind ust
Ġ2 7
our ce
Ġla w
3 9
ĠGe r
ĠM u
ĠA c
Ġgrou p
el y
ch l
ĠN ot
ĠFi n
vir on
Ġ %
ate ur
l ass
Ġm ag
bi n
Ġbe lie
Ġf em
inde r
Ġle ad
Ġse ason
ĠY ork
ĠH ar
Ġc our
Ġtra v
Ġun til
Ġbet ter
Ġ200 8
Ġse ries
ĠD o
Ġ line
Ġp ort
E L
eth ing
d o
Ġde li
Ġz e
ĠWe b
Ġind ividu
en ces
Ġd ays
Ġcur rent
4 6
um mer
den ti
Ġc ame
om i
0 2
Ġprovi de
Ġb ig
Ġvi ew
ĠA ir
el a
fi ce
Ġo cc
ĠC ity
0 8
ĠB et
Ġloc al
am en
w i
a ur
ĠB re
v ille
ie rs
am ent
Ġor der
ĠRe p
Ġsch on
ha us
0 3
Ġke ep
Ġto t
Ġs ure
ĠS aint
Ġin t
nde r
Ġst ru
si b
Ġpos sible
Ġro om
Ġle t
duc ation
ĠW ith
Ġpra c
u tions
Ġmus ic
y d
c ke
tin e
ub lic
Ġt ry
den ce
0 9
is ten
ail le
Ġs ci
ward s
7 5
di tions
ri cht
u ation
a e
al en
Ġfil es
ĠW ir
Ġd ro
0 4
Ġim mer
g s
m y
p i
ag ue
ti ge
ĠK ar
Ġe vent
cou nt
ĠM y
r ong
Ġm om
Ġp ie
ĠC olle
ili t
iel en
ou e
au e
Ġt ru
Ġl ot
u it
ĠJo hn
Ġab le
ĠâĢ ĺ
h rer
ĠSt ates
ĠE l
E D
De r
Ġe lle
l ung
ĠK u
Ġad dition
m ble
Ġp age
Ġge gen
Ġg ibt
ll es
ra b
ate ly
pe rt
] <
fic ation
Ei n
Ġb ring
Ġcon stru
mis sion
Ġt ous
z ie
ag s
ti st
k ed
b al
Ġweb site
t ait
Ġb ased
Ġn et
Ġw ri
Ġne ver
Ġchild ren
ver al
ĠS a
t ain
b ra
ĠZ u
ĠC or
at he
Ġgu ide
ĠB i
ri ght
ĠPe r
Ġw a
ĠU m
Ġres ear
Ġm ir
Ġun i
Ġp ut
rei n
ĠW est
d ic
O S
ĠEuro pe
Ġw el
ur al
c ore
u ment
os p
ĠG ene
Ġla ter
w as
hal ten
Ġconn e
Ġh ard
Ġgi ve
S ch
Ġst art
h ol
me t
Ġc amp
Ġj ourn
Ġkn own
ĠMi n
o ber
li ck
ĠS outh
le ment
ni a
ul ts
9 5
x im
i nt
g est
A M
P e
Ġe ff
am m
an der
im mer
Ġemp lo
3 7
ill s
Ġgro w
b l
Ġcon side
ri ct
Ġwor ks
Ġl ess
ĠA f
w ick
id ent
m ann
= "
> Â
ĠM us
Ġal ong
ali st
r ier
vi ous
on de
Ġof fic
rn e
n si
ch s
Ġa ff
j oy
k an
amp le
ach t
it t
ot es
ir t
Ġs l
ĠR i
k o
r z
ustra li
Ġlin ks
Ġb ar
the rs
ra ft
ĠC ont
Â °
4 7
Ġg ot
w ork
Ġr is
Ġ2 9
op p
asi no
Ġsuc cess
Ġwor king
ord ing
Ġfran c
ĠG ro
ir th
w or
A s
sion al
ĠM ari
y ing
Ġmei n
li que
Ġs ous
ti gen
Ġac cess
Ġ .<
ĠG re
ri que
ĠB ra
Ġo ld
is m
Ġe qu
ot o
I f
our ces
Ġin v
te il
Ġf ra
ou ght
st a
ren ce
Ġma jor
ĠCount y
Ġh al
ĠTe r
at u
âĢ Ķ
Ġg ut
Ġ200 7
b t
ge ther
Ġdiese r
Ġso cial
be d
w ischen
Ġf ace
ate g
ĠO ff
ĠE nt
re is
Ġcust ome
Ġper fe
A d
Ġj ob
hi n
at ures
Ġme r
Ġof fice
min ist
Ġf ood
tern al
ais s
O M
Ġd onne
Ġb on
com m
Ġma king
is se
Ġm ight
Ġt yp
Ġcert ain
si n
ke rs
Ġund erst
Ġc ase
Ġqu el
5 5
Ġt able
Ġsu per
Ġcours e
ul es
ĠMar ch
ch te
I L
re am
Ġplay ers
ĠP res
Ġre view
s y
com p
C H
Ġl ui
ĠE t
lo ck
ĠS an
N e
D as
Ġwe iter
tt ps
Ġres pon
ri a
ah n
Ġi hre
es ts
ĠChr ist
ĠAr be
E T
Ġc ity
ier ung
oin ts
Ġm ulti
nne r
w it
Ġsim ple
Ġac ce
ĠChr is
gh ts
ĠH igh
Ġstud ents
3 4
ord s
ti ques
Ġse veral
Ġf ol
g al
ili e
Ġb it
Ġrece i
Ġha be
Ġm u
Ġ4 0
Y ou
Ġp ot
v a
Ġ ...<
am men
Ġ: <
Ġcomple te
Ġe lect
hn en
Ġmem bers
ĠR u
ĠK om
Ġv ill
ab ility
Ġkein e
is cher
ot he
Ġt en
au te
Ġst yle
li ed
am a
Ġqu ality
d it
f ach
Ġto day
ro du
Ġt ype
Ġen g
ĠN orth
F or
Ġsow ie
b a
ĠP ra
Ġex e
ĠM ont
> âĢľ
ar ing
3 2
* *
oc us
f ten
Ġdire ct
Ġb ase
id s
l age
Ġcal led
b ack
ar a
m as
s ter
vi n
Ġj ed
Ġe v
Ġle ft
. âĢĿ
ui n
Ġall ow
us h
Ġein es
Ġre la
3 1
Ġf ar
m ier
ĠW as
ft ware
ak ing
ĠH ome
Ġt our
Ġo hne
Ġimp ro
Ġincl ude
u ter
ĠJanu ary
li ght
b el
Ġbl og
Ġs ide
ĠA rt
ĠH ol
ami n
Ġ Ð
ce mber
ch land
tis h
ĠSt ate
Ġcom ment
Ġf av
ra tions
ĠJ une
ĠH and
Ì ĥ
Ġl og
ĠCom m
Ġof ten
r d
ĠK on
ol f
Ġs ig
ou l
r ant
h am
J e
u en
Ġpre mie
Ġde uts
Ġdis p
Ġp ati
ent lich
me di
res sion
b au
Ġli ve
te i
ĠOn e
ĠM al
ĠP ort
Ġprodu cts
Ġw omen
Ġre al
Ġlook ing
Ġal bum
Ġtem ps
ĠPar k
ĠU hr
ap an
ie t
Ġa way
O T
Ġuti li
Ġm ess
Ġt imes
Ġ !<
u elle
á Ħ
ĠL o
Ġnot re
á ħ
ĠOct ober
olog ie
ri ve
oi ce
Ġj u
ĠD OC
oci ation
ĠV ol
feren ce
Ġcon se
ĠW hen
ar ie
Ġab s
ĠG od
p ond
ĠS m
I D
ze ich
Ġha ving
Ġt u
i nes
Ġen s
k u
e ment
g ing
ĠOn line
yste m
Ġm oney
Ġsing le
Ġp ain
Ġof fer
ĠP our
un ity
ĠM c
ich te
Ġest ab
Ġv os
ĠF am
Ġ200 6
ur ance
ĠB as
v ation
Ġchar ac
Ġresear ch
6 5
ore d
Ġorgan iz
Ġth ough
Ġli ght
oo gle
Ġmar ket
Ġcont rol
te ls
ti an
u el
g re
op s
ĠL ond
l an
uch t
ra p
Ġa li
ĠSt re
n st
ĠJu ly
Ìģ .
Ġwur den
ti re
end ant
Ġto gether
Ġe l
sch a
Ġpri v
Ġpro ject
Ġc ir
Ġs av
ĠA nt
Ġe arly
Ġfe el
pl ay
r or
Ġen joy
Ġc m
enti al
Ġen viron
Ġmo ve
p rise
Ġaut om
ĠIn ter
Ġn a
eh men
is ts
ce r
us ammen
i ni
ou d
S u
Ġm or
k l
ain ed
Ġw he
n ow
vi d
â Ĥ¬
Ġf ur
ĠFebru ary
n ie
a der
ir m
h m
> âĢ
ĠL ie
ad en
ĠI S
Ġbe im
Ġvis it
Ġbe re
f ace
" .
red it
k y
Ġvide o
> (
Ġet c
or f
Ġmin utes
8 8
ki n
le ich
Ġm es
Ġj a
Ġz wei
ĠGer man
Ġne ar
he im
rit ten
Ġst ory
ab ly
and ing
ĠA ustrali
Ġd ont
r un
Ġa nge
ff en
s ent
ur ity
d ie
Ġs ong
P ar
Ġs or
ven tion
ac ks
Ġbe come
ĠM ich
ĠDe cember
Ġques tion
a ise
c ol
ade rs
or ge
I ON
h and
Ġcount ry
f ahr
ĠT rans
ĠB y
p is
a pe
Ġeas y
Ġb ody
Ġm ind
ab i
ĠHo tel
ĠTh at
Ġmo b
an i
ke ting
Ġle arn
ĠPers on
ke ts
) ;
ci n
Ġse x
4 3
ĠBl ack
ĠM or
Ġl ors
S o
Ġb irth
. "<
k te
Ġhist ory
Ġcl ub
Ġsu g
S h
Ġa rt
n ah
hl en
g alement
hi le
ill es
201 8
Ġann e
Ġle vel
ent al
Ġvers ion
ĠW ind
c ame
le ction
ĠSp iel
Ġp ou
Ġparti cip
st ra
Ġneed s
pe ct
eth od
f r
Ġnom bre
A P
ai ent
i f
ĠB est
ah ren
ab or
P h
ye r
vers e
che d
Ġk ind
6 6
id es
Ġm ich
ĠH i
ure d
ting s
Ġav ant
ĠWh at
Ġhat te
es se
Ġcom mer
Ġche ck
or ing
Ġbe d
4 2
j our
ĠR ed
ĠS al
b ut
ri od
Ġ ran
Ġb ene
Ġex tra
chei n
an ks
ier te
i x
ĠA g
ĠY our
Ġg ames
Ġn ational
res se
ĠSt adt
as si
Ġp ast
Ġ3 1
n te
ose d
h ic
ot or
ig ital
p iel
Ġi hr
Ġde ath
Ġmo dern
ter min
Ġe ar
ograph y
Ġret urn
O L
Ġt reat
ur t
Ġn ature
Ġs al
ĠSt a
ĠB en
rend re
erg y
19 9
f ied
ĠB au
Ġcont act
de l
ĠM ag
Ġan ti
Ġf ocus
u ck
Ġrep res
ĠD an
ri g
Ġto ok
ĠA k
an ies
om me
Ġwh y
ili te
ut en
ch ite
ic ally
Ġdu e
al og
ke y
Ġfu nd
Ġl ow
ra y
Ġt urn
ĠM ens
her n
Ġbe came
Ġg ran
p o
Ġai nsi
g y
Ġb ra
ĠPro f
ĠTh ese
O U
end ing
4 1
201 7
hr t
Ġ20 20
ĠB el
ĠM et
re m
P os
ĠA fter
", "
Ġo thers
ali se
un ic
Ġw ind
ĠIntern et
Ġhi n
us es
Ġcre ate
je cts
Ġcont ra
ĠP ol
ĠMe r
Ġstud y
oo se
Ġc ro
for d
Ġmom ent
b ens
Ġf on
Ġ range
Ġbuild ing
pe ci
Ġf ois
7 7
Ġ200 5
ĠK ing
ĠQ ue
ti ful
is on
Ġwi n
ri or
Ġa pre
ĠTe il
ĠH owever
Ġke y
ĠS ur
ĠA ls
use um
v oir
ver t
Ġsi x
as es
n ers
b ot
, âĢĿ
ĠLond on
it her
20 19
Ġp oints
Ġan im
ĠD E
f le
Ġpri x
n ey
ĠI ch
ĠCh amp
Ġin vol
Ġdi ffic
Ġpres ent
Ġe ver
au fen
Ġch arge
Ġp osi
i ent
is ation
Ġc all
ĠD r
. "
U ni
Ġfe r
A D
u ring
ĠH ist
l or
Ġre du
nn ing
Ġd om
scha ft
T E
ĠE d
Ġprin cip
Ġ20 00
v ier
Ġdep uis
Ġf ield
Ġstar ted
8 5
ĠSer vice
ĠO ur
Ġprodu ct
Ġdown load
Ġ ?<
Ġal ler
Ġsp ace
read y
udi o
Ġcont re
ĠD ire
Ġf ore
Ġt est
ĠJah re
ĠI hre
i ÃŁ
m ost
it ure
Ġn ight
F i
Ġac ross
Ġac tivi
Ġh ttp
op y
Ġin ten
qui red
z on
Ġp osition
Ġme an
um p
Ġad v
Ġen core
1 00
Ġv iel
Ġun ique
Ġ6 0
ĠH ouse
di o
atur al
Ġm illion
und es
ĠBer lin
ĠA nn
vol ution
ĠS y
igh ts
ss en
Ġd one
h ing
Ġst rate
se t
M ar
ĠT V
Ġen gin
Ġme ans
an ti
Ġma kes
d a
b and
ti tion
u ded
P l
ĠH am
Ġ ents
Ġe uro
Ġs ays
Ġsig ni
pert y
ell en
C on
Ġren cont
ren ch
ĠDes ign
qui pe
' m
og en
u ge
Ġth ing
Å ĵ
Ġin iti
ad i
d le
ĠL ou
n y
Ġn u
Ġo pport
Ġorigin al
Ì Į
Ġex ten
Ġp u
Ġt ax
) :
ren ces
rid ge
Ġd ate
ĠO b
Ġf ru
Ġm ai
ĠH ow
r est
F e
Ġco de
ac te
ri en
ĠP o
ĠG i
ch ten
ĠM ai
i ble
Ġfi nis
Ġperfe ct
es tiv
Ġs ocie
Ġpri ce
ĠD on
Ġc y
Ġspe cial
Ġsim p
ol s
me l
ĠJah ren
z ent
um b
ĠFran k
rou p
ĠN or
Wh at
si a
ÃŁe r
ĠS im
Ġa ge
et t
h ttp
Ġmon de
ti ves
il der
Ġperson al
Ġspeci fic
ve lo
Ġm id
Ġex ample
ĠS ci
ĠSp ie
ĠH is
ang es
Ġf a
Ġex pl
at te
z ahl
Ì Ħ
ab y
Ex ternal
ĠR a
-- --
Ġbl ack
Ġse it
om b
Ġhum an
Ġz wischen
ac y
Ġfut ure
ĠNew s
lein e
Ġsel bst
' re
ĠGes ch
Ġdon c
Ġe conom
ĠD em
Ġte le
s elf
p ra
a el
Ġpe riod
ch ts
ĠT ri
Ġn ation
Ġdies em
Ġp uis
ese r
I I
tell t
aue r
Ġen ough
Ġrequ ire
Ġl and
ĠN i
od es
ĠC ap
c ting
Ġin stru
Ġar ticle
ti sch
Ġbel ow
c ar
Ġal ready
Ġa me
ou nce
lic her
ĠF rau
Ġp urch
li es
or ted
c ul
Ġhist or
Ġse em
ĠV ide
7 6
Ġgi ven
ly mp
ĠC re
ĠPa ul
ph one
ach ing
Ġtot al
E C
tis che
aye r
Â »
Ġn or
Ġbe h
ir es
b ild
is en
D es
Ġein fach
Ġte chni
Ġde tail
Ġfi ve
Ġi te
5 6
al ys
her che
ĠW elt
Ġpro b
Ġe rst
ig t
Ġqu ick
ĠJo h
lo bal
ĠSt ra
a que
ĠA ns
Ġv ia
Ġle ast
Ġn os
ite re
Ġon ce
Ġg l
n ung
Ġfor mer
Ġmonth s
Ġ200 4
pp ing
I l
omi n
Ġprom o
5 9
Ġm ethod
u ed
es ter
ĠS am
Ġcom es
th ough
g ion
Ġm atch
Ġme mber
ĠJu li
Ġloc ated
ir l
v an
re t
Ð ¾
Ġande ren
Ġh ours
ĠUn ter
orn e
li t
cri ption
Ġl ar
Ġcomm on
cis ion
ge ben
sy ch
led ge
Ġf ast
e i
Ġde ci
8 9
az i
Ġri ch
ag i
ĠC enter
ĠT op
Ġaut hor
us ion
Ġp ays
Ġp ict
ĠP art
ĠJe an
Ġmo ins
u age
Ġm uss
Ġget ting
Ġseine r
tic les
201 6
ĠJ apan
ĠU p
Ġin form
Ġproble m
Ġf it
ĠU nd
Ġj our
Ġw u
it ung
Ġfind en
ĠT re
Ġwar en
ĠT u
ĠEng lish
Ġqu ali
Ġsh are
Ġli ving
I m
ĠD ist
ĠW illi
ap s
Ġcommun ic
ac tion
ĠT ag
uf act
ĠAf ric
H E
ĠPro gra
Ġp ack
c ing
ad es
Ġhe ld
ĠD ay
ant es
ai rs
es ting
Ġp ur
ra gen
an o
ĠâĢ ¢
as ion
8 6
Ġth ird
A G
b r
Ġc oll
z y
Ġw ent
te e
ĠBe i
Ġindust ry
ĠS on
Ġfe atures
ĠB ur
Ġh old
Ġfav or
or es
Ġe mail
ru ck
Ġf lo
si onn
Ġfriend s
ĠLi n
Ġme ille
k ommen
Ġs ound
ograph ie
an cial
Ġam ong
cre en
Ġtrai ning
Ġin ves
ili ties
ĠFor m
Ġal ors
ali for
ĠS w
S p
A nd
ab en
Ð µ
Ġg anz
and id
ĠP i
Ġvari ous
te urs
ie urs
Ġcle an
Ġg rat
Ġb ou
chie den
a tic
ĠN et
ale r
c ker
Ġc ulture
iss en
__ __
Ġt r
S T
Ġres ults
aiss ance
ari n
Ġsi ze
Ð °
Ġcont rib
Ġli gne
un ch
Ġab ove
it chen
ĠR ich
re z
ĠP rin
Ġnew s
hi ps
ol es
ĠR oy
7 9
cre t
ie ux
Ġbe gi
ĠGru nd
ar ning
os es
ĠH aus
Ġp i
ĠO f
Ġf ront
w ood
Ġcont ent
um s
Ġcare e
Ġcaree r
sp i
Ġte xt
our t
ing ton
Ġval ue
Ġdo ing
b it
Ġme e
Ġb ie
Ġp ress
ĠF ilm
om as
Ġm ont
u ite
f it
ĠB ewe
Ġt as
Ġs che
ĠCan ada
Ġpre mier
Ġsim il
ĠD en
Ġcl ai
am t
f te
Ġth ought
ci es
ance r
hal b
z o
Ġi ll
av y
e ded
tz en
st and
ain ing
Ġreg ion
ĠP ost
Ġp an
Ġbu y
Ġrecei ved
Ġc ell
ti mes
p ru
ess en
Ġmed ia
p ris
.... ....
Ġfin al
ĠCl ub
hi li
ĠColle ge
ste ll
g ung
P re
Ġph ys
P S
lie ÃŁ
Ġtrav ail
Ġrele ased
Ġch allen
N ew
Ġwh ite
Ġle urs
Ġs w
ĠW al
ra le
j ours
Ġm m
ti mm
Ġim age
ene r
We b
Ġbu ilt
ĠSt and
Ġyou ng
Ġsu i
di en
f ie
I G
>| -
Ġst ay
Ġplay ed
Ġb en
ĠS ol
hal t
ak t
ĠF ace
Ġact ually
Ġen ter
au pt
Ġra p
es tern
Ġc ra
tit ution
Ġim m
' ve
Ġch amp
The re
Ġne ue
I M
Ġbe f
em p
ĠI N
ĠBri tish
Ġar tist
ĠH u
Ġre ason
ke iten
me tt
en den
Ġoffe rs
D i
un st
Ġare as
ĠH el
IN G
at re
Ġen f
Ġtro is
Ð ¸
ĠSt ar
u k
land s
omm t
l ag
5 8
ĠO ut
Ġav oir
ĠM ore
Ġp ol
Ġphot os
ĠS ome
Ġiss ues
Ġn i
ille d
h le
ĠT our
ĠC ent
Ġtou te
ran k
Ġcli ents
Ġfam ili
as ing
Ġrec ord
Ġc u
ar ten
ac her
si an
ra ted
ĠE ins
Ġf ig
tiv ity
it ation
Ġfoot ball
Ġp lease
EN T
estiv al
tz t
ri r
Ġst ation
Ġers ten
ag o
Ġpa per
Ġt al
Ġse arch
ĠWe r
Ġb rand
Ġw ide
ĠS ing
ur z
Ġ200 3
Ġdid n
Ġca use
ĠMens chen
Ġev ents
ĠM il
tis chen
an ger
ĠB ild
ri ge
ĠI mp
H ow
v il
ĠTe chn
a be
ĠM ac
Ġdam it
": "
Ġpro perty
Ġpop ular
ĠLe ague
Ġj oin
ĠM em
> #
Ġhal f
ra ble
Ġfun ction
Ġso it
at ors
A b
ĠC i
l am
o ver
Ġ3 5
z immer
gle ich
gen ce
att le
Ġsp a
Ġet was
ri ous
Ġfur ther
ĠA nge
part ment
Ġup d
re ment
Ġm ilit
au m
Ġcont ro
Ġac count
ĠSu per
Ġag o
Ġs ent
Ġaut res
res h
ĠG rand
rie b
ĠN ord
p ons
Ġc ook
Ġt ell
h rend
Ġle d
b orn
ic o
ĠUn tern
Ġcre ated
ĠR ad
Ġres ult
ul a
ĠB ru
Ġtout es
ĠM en
Ġla te
age d
ĠG oogle
ann ing
Ġas se
Ġpar ty
og ni
ĠF ree
Ġh on
Ġst op
mit tel
Ġsigni fic
s on
Ġa ction
si dent
ĠP al
k tion
pp en
U N
Ġro ad
ĠK ir
di a
Ġwri ting
Ġb ox
oli s
ĠG ew
Ġbe gan
E M
Ġse en
Ġtrou ve
Ġy et
ĠS il
Ġj etzt
g ie
Ġpe tit
Ġsch n
o e
Ġpre vious
ĠSch u
ĠS k
g round
5 7
Ġfe ature
' ll
t at
R O
Ġinv est
peci ally
rs elf
ĠFl or
6 9
ze ug
Ġv ille
Ġt a
em ple
ĠT est
ges ch
Ġb ooks
ĠStre et
p hi
ĠK inder
Ġre d
ĠI de
bo ard
ourn e
A ll
ĠJ uni
Ġloc ation
nge r
Ġadd ress
st u
Ġincl uded
Ġcol or
ĠSe c
ant as
ic a
Ġfil ms
me rs
ĠF em
Ġ @
or ie
Ġs il
Ġad minist
im m
ran ce
Ġj oue
Ġint rodu
ra d
Ġc ut
Ġv ac
ĠDa vid
p ose
li m
r ti
d om
r ist
Ġide as
ĠÂ ·
Ġm as
ĠU K
Ġde fin
Ġsu is
Ġge ht
ĠChi na
lin es
Ġde velo
Ġst rong
Ġvill age
ier re
ir it
I ch
Ġuni vers
ĠC ons
Ġcom bin
Ġpar tie
ou te
ĠTe x
Ġ( *
ĠGe me
Ġh or
Ġv arie
b ie
ance d
ĠE mp
gen cy
Ġk osten
ĠE lle
Ġre quired
ĠAmeric a
ĠT ur
ist ance
B N
Ġs us
Ġtrai n
Ġou ts
Ġro le
Ġme as
? ?
st ag
ful ly
Ġ rom
ment al
ĠRe c
Ġ200 2
oi ns
Ġc ove
Ġv en
ĠSch w
alifor nia
ĠV is
x e
Ġclo se
ĠHe alth
Ġbi n
b on
ag ing
Ġfon ction
Ġs elf
Ġe dition
ĠC al
tik el
Ġse ra
Ġde c
ĠMo de
Ġsyste ms
Ġb ad
d y
Ġk om
Ġt ur
z z
oi x
Ġtak ing
h u
Ġfe e
Ġzur u
ĠA lex
I E
Ġimpro ve
he l
Ġb and
un a
Ġdesign ed
ti en
y a
ĠB usiness
Ġo pp
ĠR en
Ġle g
Ġcent re
Ġi r
I V
Ġc aus
ro id
T o
Ġto wn
ĠA ct
Ġe ither
Ġdoes n
Ġp ris
Ġk onn
ĠC le
Ġwho le
Ġprovi des
A ut
ven ue
Ġapp ar
I R
Ġ8 0
Ġsit es
Ġpro per
Ġen ergy
Ġche z
ĠSp ort
Ġd rei
Ġe ffic
ic ro
un ter
ĠR us
Ġinclud es
Ġread ing
Ġfi re
is ed
Ġf ab
l en
Ġin c
ve ls
Ġmode l
ch an
Ġgene ral
ie f
az u
Ġw an
Ġprovi ded
f ahren
Ġsh i
ain es
Ġtou jours
z ug
unk tion
ĠB ed
ati que
ĠJ ose
a w
w ir
Ġh owever
olog ical
Ġquel ques
Ġen tire
Ġli s
ĠB undes
Ġhapp en
Ġhe art
ri ff
Ġbere its
Ġf ai
meric an
Ġexp lo
or en
ich ts
Ġmais on
war z
A t
ali ta
i nte
nc il
hr ung
z ing
l ang
ge rs
Ġs ource
Ġmach en
Ġs old
Ġmein e
ch ange
y m
he i
Ġpas se
H o
Ġvie le
Ġi den
dition al
B C
k la
Ġg leich
Ġb al
ate urs
he ad
tit ute
cou p
Ġcontin ue
ĠW ie
Ġp en
Ġ200 1
udi es
Ġmo is
Ġ0 9
Ġinst all
Ġqu ar
g ang
ff entlich
ĠGene ral
Ġreg ard
ic tion
ind en
8 7
ĠUn e
at o
Ġrep ort
Ġphot o
on i
cou rs
Ġs ens
at ten
ĠSt ud
Ġmach i
Ġsu ite
ĠH all
Ġdo ch
ĠInd ia
ĠF rom
ĠOff ice
Ġann ounce
Ġtra ck
Ġde v
f ield
Q u
Ġide a
5 4
Ġbes te
ste ad
Ġc ann
ak es
u ff
ĠF ar
B l
b ach
Ġth i
ri ce
Ġt w
Ġex tre
uis i
Ġbre ak
> [
Ġcor re
Ġp at
W hen
u ti
ĠG roup
P our
h op
Ġeffe ct
m ary
f re
Ġjus qu
nis se
Ġcomm it
Ġ- -
ut h
ĠN a
Ġch i
ĠM ad
ð Ł
le b
ĠSer vices
au gh
Ġpriv ate
Ġsome one
Ġst aff
c rit
ll t
Ġsol ution
r de
com ing
ĠPl an
C e
ol a
oi d
es ted
azi n
M it
m l
S i
Ġ round
ser v
Ġe ing
ĠTe am
Ġp orte
Ġcom men
Ġrep air
tie rt
u be
6 4
Ġst ock
Ġemplo ye
Ġw ww
own load
ĠS el
Ġle tz
Ġmachi n
Ġho pe
wer k
ĠIt ali
Ġen cou
ĠE ast
ĠT or
w end
ail y
z ation
Ġ9 0
iss ens
Ġin n
I P
on ce
6 7
Ġtak en
Se e
5 3
Ġass oci
Ġso ftware
ĠLa w
ge me
v ous
H ist
ĠMich ael
Ġc ard
ĠA M
ĠF rench
Ġz we
aur ant
ci dent
6 8
el ves
mar k
rie ur
en ted
un kt
ĠB ook
Ġande re
ach es
Ġc v
Ġcon du
Ġwhe ther
Ġequ ip
T M
ra us
usi k
Ġb orn
ĠD ar
ĠE le
ĠUS A
Ġpos sib
li st
ati ves
ise r
alys is
uisi n
ĠWh ite
Ġappe ar
ĠA N
Ġalle m
c al
ĠC D
es te
Ġa chie
ĠO k
Ġad ded
Ġprop ose
201 5
Ġmain ten
un es
Ġt rop
Ġp or
Ġv a
pis ode
Ġd im
Ġmess age
fi ni
ĠAnd re
ĠRe i
ĠPl us
or din
>âĢ ¢
at us
Ġso ci
li te
Ġn un
f o
ot a
Ġsch o
k ely
5 2
ĠP as
hl t
ĠG old
. )
Ġdou ble
Ġge ho
ĠInd ian
ĠC amp
ĠM as
tie ren
f el
ĠK a
ĠB uch
Ġmachin e
il os
A U
Ġdoc ument
ĠP en
um i
Ġjed och
id a
et y
Ġc at
5 1
ig her
E s
ou n
Ġconce rn
Ġabs ol
Ġop tions
Ġw ritten
Ġn atural
usi ve
velop pe
Ġc asino
Ġal most
Ġman ufact
ct ors
Ġo ption
Ġac comp
pe ctive
Ġiss ue
Ġav ait
ĠR est
rit t
rin e
Ġprac tice
Ġ )
Ġdist rib
ake r
> â
A B
os ing
ĠWo hn
Ġs au
Ġe mb
Ġci n
ĠS ocie
s ente
Ġall es
oll en
ĠJ ames
u c
g ew
ti ci
ac i
Ġl on
ewe r
Ġbelie ve
Ġind ic
Ġhe ute
ĠB and
f ang
ĠÂ» ,
C ar
ure r
ĠS ti
i nf
Ġz usammen
ĠRo ad
ĠG en
ĠPre is
Ġag ree
c ast
ac hed
ra tive
Ġaus ge
Ġj ours
ĠFace book
Ġim ages
tei n
Ġmin im
at ory
Ġmob ile
ĠP C
uisin e
Ġproble ms
Ġve hic
ĠA re
le ur
Ġda bei
ĠGre en
Ġdies es
ĠH en
ille t
ĠPl ay
h ab
ĠA lle
Ġw ich
O P
w ort
ĠE m
Ġver w
ll ent
for med
Ġa ffe
Ġi ls
te rst
Ġpe ti
ud es
ĠD el
Ġne eded
ĠW a
rain e
z es
Ġal tern
Ġre comm
Ġde i
ri als
Ġcou ple
du le
Ġ0 8
ĠChi n
Ġg round
ur en
e ks
Ġpar ts
Ġuse r
ĠB ank
av ing
Ġsimil ar
Ġne cess
A m
O r
Ġse ction
Ġwork ed
ĠD aten
Ġde termin
ot os
Ġper cent
ĠT ro
ĠSt u
T S
end re
Ġname d
lin ks
Ġm illi
Ġh ttps
Ġ7 0
ĠComp any
Ġsec urity
Ġde l
Â ®
ĠFi rst
Ġvi ol
ĠL y
ib li
g ar
ĠM ais
ĠWind ows
T ra
es ch
ĠO p
Ġam az
ite t
ĠA ma
ĠReg ion
om s
ĠVe rt
man de
Ġf aut
Ġv oy
n ig
z w
aus s
ĠF ahr
Ġcle ar
Ġfor ce
Ġma xim
Ġstand ard
Ġc andid
Ġw atch
Ġpl at
Ġf ul
agi n
ab el
unde r
l n
p ut
ell ow
oir es
ue il
Ġcent ury
Ve r
hi re
Ġthi n
d is
ĠSe e
Ġsh ows
Ġre li
Ġpar ents
at est
Ġw all
yn am
Ġ5 00
b les
bo x
Ġch au
end ent
Ġer fol
z eln
il ling
ĠSch n
alt ung
Ġb ud
ĠPar ty
e au
m ic
Ġreg ular
Ġat tra
ĠF a
te xt
Ġmo i
iz ed
Ġtyp es
ant ly
Ġmo di
Ġd it
ĠTh omas
e ts
ĠM ax
Ġtra vel
N otes
Ġw en
tell en
ig keit
ĠI hnen
os en
Ġdetail s
p lo
Ġam ount
Ġch anges
ĠP hili
ĠRi ver
ĠW ash
Ġplay e
Ġs ale
ens ch
Ġinter est
alis ation
Ġplaye r
Ġqu ite
ĠP M
un t
ĠE UR
ĠWe i
Ġmi x
Ġouts ide
h ood
r c
Ġph one
f eld
Ġc ela
Ġson dern
tif ied
ĠIn c
ob ile
ĠJ ac
c teur
ĠP an
ĠCh urch
Ġm iss
Ġr ather
p lace
t ab
ĠS ub
y ear
b at
ĠG et
p are
Ġar ri
inge r
R A
Ġob je
I s
M y
Ġso on
Ġany thing
Ġme et
ĠPe ter
oc ation
f alls
ĠM id
ent en
S ie
Ġtru e
ĠSe x
Ġsimp ly
ĠEin e
Ġse par
F u
Ġcon st
Ġad ap
C E
ve y
k on
ed s
Ġnouve au
j i
Ġe ig
Ġra te
o ft
Ġst ri
ĠK ont
Ġm ort
Ġinf lu
Ġres te
ĠG a
Ġ199 9
i ques
l agen
Ġan ci
S S
Ġl oss
Ġder n
ori al
ĠEng land
f y
c an
is ting
ĠN ow
Ġup on
Ġevery one
Ġne uen
aut res
Ġ4 5
ĠC H
Ġpl aces
201 3
i nter
Ġus ually
Ġtak es
c tif
Ġle arning
ve z
201 4
ĠR oman
Ìģ <
Ġch urch
Ġst ra
ĠB on
7 4
tt es
gru nd
B y
Ġs qu
ĠMar k
o on
a ling
ĠRo bert
ci ous
ĠS and
as ons
Ġser ved
ro te
Ġst ore
ari es
am ment
Ġmo y
Ġsa f
ts chaft
Ġle aders
ĠR et
ĠV ous
ffe r
Ġpl ans
ĠD ies
li p
Ġpro g
Ġw ays
ili en
Ġbeau coup
ĠS ystem
ĠCl ass
Ġri ghts
Ġ0 6
ce l
8 4
Ġgran de
Ġp le
h ttps
Ġo il
l ation
ĠO lymp
Ġre mp
Ġun ters
ĠO ri
Ġsoll te
ĠS en
Ġbeh ind
f all
Ġmen tion
h ist
ĠB ad
ĠMus ic
ĠR ob
Ġwor ds
cou n
il a
A pp
t res
t ant
ash ion
h an
Ġ199 0
Ġp ick
de t
Ġrun ning
Ġparti r
ĠDist rict
i um
im p
lle d
ar es
Ġch oose
m us
kt u
Ġac tive
wi n
ĠL ib
ĠSch ul
t ty
A us
Ġsci enti
z el
ail s
ĠL ove
Ġl ost
or age
is me
Ġl assen
ĠPro ble
Ġh ar
Ġwan ted
Ġu l
i ties
ĠTe le
ĠSe ite
f its
Ġn ie
Ġb ri
Ġtit le
Ġintern et
Ġd igital
c m
e ur
k n
Ġd og
Ġrece ive
unic ip
ra is
Ġyou rself
b our
Ġco ver
ai gn
ppe d
Ġt alk
Ġper mett
Ġcom ing
ĠFe r
ĠE nde
ĠOr gan
Ġ0 1
ill a
Ġg ou
om a
ĠM useum
k un
A merican
le g
reich en
ĠLou is
ĠÂ» <
ĠK i
ch st
Ġn ice
Ġgrou pe
201 2
opp ing
8 3
Ġm at
N o
Ġk ommen
c te
Ġch ance
Ġs ag
ven ir
ĠLi fe
Ġsein en
ci pe
res sed
ĠP ub
Ġh igher
ĠC a
Ġli kely
Ġcustome r
Ġqu alite
Ġs ales
Ġh it
Ġex tern
ĠN ous
ĠB a
Ġli c
ĠM ain
ĠC up
be re
Ġin side
ĠF all
7 2
Ġno te
ĠC as
am bre
Ġf ond
Ġsci ence
b uch
v res
ee ring
S E
ĠDi ese
Ġpoli cy
enn en
Ġin j
ho f
Ġc her
Ġv oir
ĠEurope an
ĠE st
ĠY ear
Ġaut re
ĠBl og
Ġlang uage
ad o
al a
Ġb le
ĠHo ch
ĠB or
ĠN ie
Ġlie gt
end s
Ġde al
Ġi hrer
Ġnet work
ĠM ount
Ġ {
Ġre mo
r ung
Ġfor ward
y si
ant a
Ġcomp uter
Ġwor d
p ts
ult ural
Ġincre ase
ĠJahr h
ffe e
ĠS P
ĠMar tin
Ġens ure
5 00
Ġrel ated
Ġg est
mi ted
Ġcomp te
7 3
gi es
ĠB ay
Ġmed ical
fe rn
ĠFran c
Ġs en
Ġin no
ĠW il
Ġn ut
ĠG reat
w es
Ġd ru
min e
Ġnouve lle
ck t
ĠN ov
Ġhab it
u ments
Ġc et
ĠK n
M an
ra de
M S
Ġm aint
Ġs we
m u
ĠI hr
cri pt
Ġprob ably
Ġk itchen
Ġk u
âĢľ ,
Ġcou p
Ġ Î
I F
ri an
erg ie
p he
cha ften
Ġj ud
ĠP ress
Ġn ive
Ġris k
Ġ3 2
o lin
Ġto ld
Ġb us
Ġsit ue
h ui
d re
st adt
Ġcom fort
ra ting
Ġbo ard
Web links
Ġk ids
6 3
Ġk ommt
C C
c us
w h
Ġre fer
ĠA uch
Ġd ort
ĠJ ourn
ĠS T
Ġm ise
ĠD ou
Ġs n
Ġlon ger
h ouse
Ġs creen
Ġwe eks
9 8
Ġste p
ĠT od
Ġste ht
oc ra
Ġch aque
re cht
Ġqu and
el ling
Ġtry ing
" .<
ren g
me mber
W ir
Ġwon der
Ġgrou ps
y es
Ġpati ents
ster reich
Ġ0 7
Ġpar f
rie f
Ġse ule
ĠGe orge
Ġgra du
Ġre lease
ĠV ir
ĠH il
ĠH al
r lich
Ġb ath
Ġstud ent
g g
Ġm atter
Ġread y
le gen
nd en
Ġar chite
Ġ199 8
azin e
ĠV o
ĠIS BN
el ler
si der
ĠK unst
ari o
ie le
eng th
Ġs le
Ġcli ck
ll a
r ass
Ġfor t
Ġes p
Ġpartic u
Ġmate rial
ĠB al
he m
b ased
Ġ; <
Ġhapp y
Ġ[ ...
Ġc redit
t ag
oy e
Ġv rai
oli c
d ings
Ġf all
ic es
Ġe inge
Ġb all
ir ls
Pos ted
ow ers
Ġh ot
w est
ut ter
Ìģ .<
Ġave rage
Ġcour t
b an
ĠF il
to ber
Ġsug ges
ro y
ring s
ã Ĥ
ĠInd ust
6 2
s ult
Ġb ott
t ten
ly ing
fen se
Ġfol gen
ali e
7 1
Ġp ages
N E
Ġmar che
Ġi hn
Ġin spi
ri gen
cu tive
ist ant
Ġex cl
ĠO ber
Ġfi x
ier ten
ti se
Ġb an
Ġlead ing
ĠO pen
Ġv an
ed ding
á Ĩ
s es
se ite
Ġpro jects
ul te
ĠIn te
Ġsk ills
Ġw alk
Ġa f
ĠWilli am
ĠG l
enn es
S P
Ġs icher
oss en
8 2
Ġdo it
w ing
Ġter ms
ese arch
Ġat temp
tig t
Ġcon c
Ġst age
w ahl
D E
Ġite ms
ĠWas ser
p f
ze i
ĠF ri
Ġuse rs
Ġpri or
Ġres e
jour d
ĠO s
Ġcann ot
ĠM ary
Ġplay ing
Ġad j
Ġsy mp
ĠRe ad
Ġj an
a ded
Ġdem ande
ess or
Ġle ave
ar te
ĠMe x
I A
li se
av es
ĠD ans
.âĢĿ <
Ġdies en
Ġpoli ce
Ġp sych
Ġgo al
h men
Ġrec ogni
ĠS un
nis ter
Ġbirth s
ĠC asino
Ġc enter
fi le
ĠD urch
m ont
ĠÂ £
ĠCou ncil
Ġc ross
; <
P ers
6 1
ist ry
Ġs ummer
re ib
wit ter
ri ft
s a
ence d
pro du
ĠA ward
temp or
g ue
oc al
Ġcomple x
ĠA cc
i nn
Ġex per
nah me
ri me
vi ent
Ġunse re
ste i
ĠC entre
D is
ling s
rie ben
iel t
mb H
it te
Ñ Ĥ
Ġden n
ĠS om
z em
Ġcli ent
à ¸
it ar
n el
Ġcoll abor
ĠArbe it
| |
Ġo ct
ĠE nd
le cted
eni or
Ġso li
or gan
Ġt arge
qu ent
Ġrec ent
ĠH um
ĠRo ck
Ġprop os
Ġfor me
Ġc op
Ġgrow th
Ġt om
di es
der al
ch ar
Ġe d
ĠL og
li k
Ġdisc us
rom e
u ra
ĠF ol
ĠL et
asi n
20 10
ber n
Ġutili se
w s
ĠV an
is sion
ĠLe bens
Ġrese r
> >
g l
C ont
Ġb or
Ġn atu
Ġpl ant
Ġcomm une
Ġsa ve
Ġinn e
Ġmin e
O ur
ĠM iss
ĠPl atz
Ġper met
Ġlie u
Ð ½
A fter
Ġter rit
Ġges ch
an cy
Ġs un
Ñ Ģ
Ġdi vers
Ġe ben
Ġfem me
ali zed
je kt
Ġprodu its
ve c
Ġc el
ĠD et
or ting
Ġappro ach
ce ption
Ġdo or
Ġn orth
ĠIs land
ic ros
Ġpre tty
v on
do or
Ġe m
z t
Ġan aly
Ġinvol ved
hi bi
ĠArbe its
Ġj am
ĠUni on
ĠB ig
ri k
Ġpeu vent
ĠPri v
Ġdis play
Ġli ves
w ie
ree k
Ġposi tive
Ġs outh
ã ģ
Ġp endant
i nst
Ġpro ce
Ġp ath
tz ung
ĠRep ublic
le rs
pl atz
ĠW hile
Ġsa w
ĠOk tober
Ġ3 9
for der
Ġw ood
ĠRe view
ati n
ĠAma zon
anne r
Ġsur face
ĠL ong
8 1
Ġm ass
Ġde ep
ĠC ourt
Ġmo ved
Ġvarie ty
ad s
M o
la is
Ġet wa
Ġhe ar
Ġne u
Ġspeci es
Ġk on
Ġcas es
Ġsh op
Ġlin k
Ġ 00
ĠM el
an gen
Ġd ir
Ġelect ric
Ġse m
Ġe igen
be t
Ġas ked
ser ve
Ġd azu
Ġmulti ple
ĠT a
Ġi hren
au d
g ent
Ġas k
ou le
B u
Ġk aufen
ĠBe it
Ġa fin
E r
ali en
rai ning
ut t
Ġsh all
ĠW enn
Ġtra de
ĠE rs
Ġcir c
il ler
ĠMit g
ĠVide o
g ree
ron ic
Ġmar s
Ġh ous
Ġdie d
Ġenf ants
ĠC ong
N ach
Ġdri ve
ĠC ro
Ġf ather
A F
ari an
Ġcli m
Ġin stead
ĠProgra m
ĠP lease
ĠRoy al
alle y
Ġg ri
se e
Ġown ers
i der
Ġers te
op f
av ig
res sive
ĠG mbH
Ġm ari
Ġwe il
201 1
ĠA ca
Ġprogra ms
ĠM r
Ġengin e
Ġplat form
den s
ĠR em
se mble
k lich
Ġel se
ĠAng el
Ġt un
Ġwel che
n chen
ouve z
Ġmee ting
Ġho ch
ict or
T V
G B
Ġwe itere
Ġex act
terst u
qu is
>Â «
an che
ul ations
Ġra ce
Ġsp orts
Ġav is
ĠHe re
o hn
Ġimp act
I nd
kan nt
Ġst re
ĠK unden
Ġter m
osp ital
ĠP os
is ters
Ġd ise
ĠChar les
Ġrem ove
Ġk leine
b ind
Ġl atest
Ġapp re
Ġge f
ĠT om
ĠS E
ob re
C l
Ġi denti
Ġv it
Ġch oice
Ġkonn te
Ġ 000
Ġs kin
Ġali gn
h es
ĠJ es
Ġamaz ing
ĠK re
sch n
' ,
ĠLe ben
Ġbe g
Ġits elf
Ġno ve
ach en
p ress
> *
nd ig
Ġsein em
W ith
ĠM ass
Ġnot hing
ĠJanu ar
A u
Ġ3 6
ĠP ublic
ist re
k le
Ġi hm
Ġt on
ci te
Ġl ower
Ñ ģ
s ur
r ger
oy s
i den
B ut
l ot
ĠH or
Ġsub ject
ĠIs ra
D o
Ġquick ly
Ġ3 00
oc ol
ĠM ate
ĠF ru
Ġ199 7
alle ry
ĠFrau en
Ġpro jet
tim ate
ĠL ang
t ze
p m
Ġli ter
Ġis n
Ġd est
ĠL im
Ġp ouvez
Ġp m
Ġg lobal
chni k
Ġdeci ded
Ġj uin
Ġg ru
r m
Ġrou te
ĠSci ence
Ġâ Ĩ
ĠP ower
ĠG ood
f est
r asse
cent ury
urn iture
Ġde cor
ĠR E
Ġcap ac
lo se
Ġ199 6
Ġb zw
Ġw ish
c as
ig ns
Ġm other
r ust
ĠF lu
Ġgene r
ĠBl ue
Ġh air
ĠAls o
Ġdei n
ĠA li
olog ies
ga be
ĠB ack
and a
v est
on a
9 6
Ġde cision
B i
Ġsu it
ct ures
V i
v rier
ĠV al
rou ght
ĠL au
st on
unde rt
ĠF ort
ĠB lu
Ġexpe ct
Ġrep re
or a
ĠH ier
Ġsav oir
Ġeas ily
u z
Ġw orth
Ġle gal
ĠD am
pie le
vi dence
ĠA v
O W
U E
à ¤
Ġgre en
tion al
On e
B A
ĠWeb site
reng th
li ance
Ġpurch ase
Ġc ru
Ġf la
Ġinte ra
Ġb ur
Ġ198 0
Ġim medi
Ġre ve
Ġtou ch
ici n
Ġwe ight
9 3
Ġe mer
for me
an zen
ĠAr tikel
Ġrec ently
Ġany one
A c
Ġs atis
Ġw rote
ĠV on
Ġall ows
Ġseem s
Ġflo or
p ub
ĠS et
ĠU N
ol den
ĠE ar
Ġst att
li ke
U T
Ġfam ille
ha vi
uer re
ĠU s
Ġw rite
Ġex ci
pl an
ĠE lect
Ġdist rict
he its
Ġg old
ca pe
ĠA ber
ci d
Ġind ep
ad ian
Ġex emple
ĠMe i
Ġbe gin
p es
we rs
Ġcust om
Ġa k
9 7
Ġmis sion
ĠE v
Ġ0 4
M i
Ġer halten
se ment
lis ation
Ġro ck
Ġcon fi
Ġc oo
ach weise
an ze
c raft
ĠAut o
Ġab ility
ĠR esearch
rie l
Ġmor ning
n ement
A A
pe ri
uts chein
Ġs mo
Ġl ooks
b us
Ġb lock
zem ber
m ore
Ġnive au
ilos oph
ations hip
Ein zeln
ms elves
ĠFu ÃŁ
ors ch
Ġc ad
Ġprodu it
z ig
ĠGerman y
ell schaft
Ġle vels
for ce
Ġsel on
ar di
Ġprodu ced
we rt
Ġar ticles
ĠO ver
te m
c s
ĠJ us
Ġsa fe
ent y
he rs
ĠI T
um en
ĠG al
Ġan alysis
vi te
F F
D R
out hern
i denti
Ġa p
pris es
ĠM ost
ĠTex as
ult ur
co le
wick lung
Ġs ense
9 4
9 2
Ġschool s
Ġar be
p ite
Ġinst al
l auf
Ġs ort
ang ing
ĠLa ke
Ġge m
ĠEng i
ci a
Ġt ran
Ġg ave
Ġd rin
ĠW omen
ĠH aupt
Ġspe ct
ort hern
Ġd av
b as
ĠEngi n
Ġst udies
L A
S te
Ġje u
Ġc art
s se
n eh
p an
ĠE U
cha fts
C he
ĠW ill
C T
Ġ0 5
ĠBo ard
Ġf resh
cin e
ce mbre
Ġinves tig
b ro
Ġf lu
Ġnor mal
ĠTi me
use r
Ġau di
pre chen
Ġhigh ly
ĠF estival
kun ft
ĠS und
ĠD ownload
ĠSe i
re l
ch o
Ġ ðŁ
O UR
Ġsp irit
Ġb onne
is es
Ġte il
ĠF ound
A ls
Ġteam s
Ġ0 2
ar din
D A
Ġrep orted
Ġunse rer
ĠW ater
Ġs ac
ĠCom ment
Ġ199 5
Ġh ost
oli d
co ver
ĠSocie ty
umi n
ĠC ur
be c
E uro
ĠC ette
o h
Ġad op
Ġn ume
ai te
Ġre i
col or
ions hip
ĠC are
Ġv ier
Ġsur vi
ĠT HE
Ġder nie
tit ude
st al
ĠFran cis
Ġof fen
Ġtrans fer
Ġsp ielen
Ġh ol
ĠDe zember
Ġwi fe
Ġra dio
Ġsub s
Ġpart ners
t est
ĠAca dem
Ġman age
ĠT able
ach i
Ġsh ip
ĠP atri
ĠF C
ĠK l
Ġcolle ge
Ġspe ed
rum p
Ġsp ort
Ġbe k
ĠFor um
u ted
Ġge l
V D
Ġser ve
opy right
ĠU l
ĠG ames
ĠNe u
ĠS ite
aut y
ĠO rt
com es
or ation
Ġatt ack
ĠWi n
Ġmilit ary
on ders
Ġto ols
Ġsu pe
us ed
ra um
Ġon es
Ġdis pon
Ġd augh
ĠG ran
p unkt
ĠCent ral
Ġdep art
Ġch o
oin ted
B S
Ġgi ving
i ted
lace ment
Ġch ap
ĠSt art
par ation
Ġcon vers
Ġcost s
Ġc uisine
Ġd aily
Ġw oman
Ġdern ier
M ed
Ġfe ed
Ġsaf ety
Ġjan vier
ĠW ell
Ġf ish
ande l
ĠBe ach
Ġfab ric
Ġpie ce
ĠBe rn
Ġ3 3
Uni vers
r ast
Ġbei den
Ġbest en
ist an
ĠGeme inde
j ou
ĠFebru ar
p g
ase r
ĠGro ÃŁ
Ġcon ten
te red
Ġdirect ly
ure au
Ġpar ties
Ġein mal
Ġto wards
Ġ1 50
tel ler
mi um
ĠAfric a
U M
ale d
I ns
ĠCh ic
Ġg lass
Ġe duc
Ġde fe
ateg ory
ĠBewe rt
stei n
ĠB rand
ĠU r
lic ation
Ġfavor ite
ĠC y
Ġmet tre
Ġgi ves
ĠSp an
Ġde vice
Ġru nd
ĠIn f
ĠK ind
ĠD ra
tic ally
Ġsu d
Ġcel ui
an ni
ĠB ud
en k
j o
Ġli mited
us a
ĠÂ ©
Ġst ories
Ġcons tit
velop ment
ĠAb s
ĠT em
au en
Ġ199 4
Ġoffic ial
id ung
y ond
Ġse pte
oli day
ĠWi nter
Ġbro ad
Ġne g
Ġc lin
Ġje der
s st
am ing
ann el
Ġ197 0
ro ll
or ter
ĠGe or
Pro du
Ġhand s
Ġpl as
Ġdro it
Ġli vre
Ġag re
Ġres pons
Ġf al
Ġw est
az z
ĠSh ow
Ġb ul
Ġeff et
ĠN E
A cc
ite l
Ġg irl
auss ures
omm un
Ġrap ide
Ġ0 3
ĠFe rn
Ġne igh
Ġe li
a ks
stell ung
Ġgo es
cu rite
Ġtri p
Ġres pect
Ġmar que
s u
Ġextre me
Ġschn ell
ĠF oot
ĠA P
ĠLi ve
!! !
w ell
k reis
ĠJ ust
li ers
ĠK at
ung e
ĠC at
ous ly
tif y
tel li
ĠSh op
Ġs end
Ġorgan is
Ġvol ume
ĠBe is
tivi te
Ġpl anning
Ġans wer
9 1
ĠFem me
Ġho tel
ĠJ ew
ĠM ann
Ġg as
Ġf antas
aur ants
Ġch ose
rop ri
Ġse hen
Ġcl asse
te au
ĠK ap
g as
ĠL os
ch ied
ose r
en a
ĠAr chi
Ġbl ood
ĠA L
ĠH om
ĠM os
p ted
Ġcent ral
ĠCo de
gen e
Ġf est
ment ation
Ġma le
ad y
ah men
icros oft
Ġb ank
D a
Ġbl ue
Ġun it
t op
ati v
. :
bo te
ĠSch l
I B
ges tellt
ach sen
AT ION
Ġfin e
ig u
Ġcor res
Ġ3 4
ac ing
200 9
oc c
Ġst ates
Ġ3 8
ĠR os
ĠS ar
Ġauf ge
Ġn orm
Ġform at
ĠH ill
Un e
Ġd oll
ĠK osten
Ġus es
r ary
ĠE very
k ten
ĠP at
Ġemplo y
ĠH y
Ġst rength
Ġcon cl
Ġhim self
ĠSt udi
Ġav ons
ĠW ood
ate rs
Ġprodu ce
ie lle
Ġsm art
R o
Ġ199 2
Ġmach t
Ġe u
Ġge me
D S
ri kan
Ø §
20 20
amp les
Ġpict ure
min al
ĠEn ts
Ġletz ten
Ġm icro
ĠA R
Ġpro s
ĠGes cha
Ġt ant
Ġtra ite
ĠII I
Ġde b
ring e
mit ted
Ġf ais
ĠG eld
t ation
Ġst y
C hr
Ġind e
. -
ac c
ĠMed ia
P ri
me ld
Ġall en
uni ties
ali d
ing en
tic es
ĠZ we
Ġbene fits
h y
Ġmo vie
Ph one
Ġver b
c ie
Ġst a
Ġbie tet
Ġli mit
P ub
Ġse rious
p ri
Ġdire ctor
ĠL A
Ġful ly
ĠR ou
ĠP f
ĠDi vision
ens es
ĠC O
ĠC am
f on
Ġcons ult
u ri
Ġte x
por ate
Ġfamili es
Ġsou h
ĠRe al
Ġcontin u
ĠW all
Ġsuc ce
Ġob tain
ĠG ame
di te
Ġco ol
>|- <
fi que
Ġh uge
ĠM usik
Ġi ci
h ler
C an
ĠMit tel
Se r
Ġave z
kt ur
Ġwar m
bild ung
ĠS n
Ġstar ting
Ġinne r
arbe it
Ġwir klich
ĠO ld
Ġch ois
oc key
z us
ĠR uss
Ġst orage
qu et
Ġocc ur
ĠB ou
ĠThe ma
Ġv s
g ro
ĠP age
Ġre com
Ġcon sider
ĠM at
ĠAr ts
Ġste hen
Ġg ab
ĠE ss
l og
Ġm ount
Ġ4 8
ĠDe p
Ġrespon se
Ġs um
ĠRich ard
pe t
Ġbud get
f la
Ġar rive
Ġv ic
w an
Ġk am
Ġcap t
ĠP ass
Ġlar gest
Ġein ige
ag ra
T C
Ġextern es
Ġphys ical
en z
vi a
ĠEuro pa
Ġgo als
Ġeuro pe
ond s
Ġv oll
ĠD amen
Ġm unicip
Ġconce pt
i me
Li ens
tell ung
Ġpro je
ĠP ap
ĠJ ack
Ġgrat uit
T ER
Ġp rendre
ĠO pe
Ġf le
Ġ20 21
Ġge ts
H ome
Ġs li
Ġs yn
Ġachie ve
Ġrela tive
lau b
Ġs alle
Ġpos ted
ĠJ ob
b ody
Ġv irt
h ard
ck ing
Ġ199 3
Ġatten d
ĠW el
Ġw al
ĠB ul
w ide
Ġde gree
onne ment
Ġin fe
Ġre ach
Ġb ran
Ġf irm
ĠV ictor
Ġn ar
ã ĥ
v it
Ġd re
atur day
ist es
Ġgou vern
ei n
Ġd ur
par tement
ĠG ri
Ġmy self
ĠSm ith
ick en
Ġs ce
Ġmet al
Ġh y
ch at
Ġcomp ar
ĠC ra
Ġret rou
\ /
ti z
Ġacce pt
S A
un ction
Ġmo d
ĠApp le
qu ently
h aps
ĠM ond
Ġp ul
ĠS yste
ĠL E
abi n
d am
ĠAut om
Ġju illet
Ġme chan
ĠH D
ĠSe ries
Ġb rought
Ġri en
Ġoct obre
ĠâĨ Ĵ
Ġl y
au ght
Ġe dit
S C
ĠMe hr
n ame
Ġp ense
as st
ĠLand es
k om
e z
Ġac tivity
Ġh os
Ġden en
r der
ht ml
P R
rich ten
Ġdar k
A uf
qu ip
che rs
Ġal though
V ous
ĠS icher
Ġl ay
ĠJes us
Ġnove mbre
ĠSo cial
IN E
c les
200 8
N A
pe cts
Ġcar ry
w u
ĠD at
ĠVe rein
Ġpers onne
ĠM otor
Ġau c
ĠP op
Ġd an
em i
as te
ĠM iche
Ġsl ow
m ati
ĠFri day
E ng
L C
um es
ĠSc ot
ul aire
ai led
ĠA G
Ġsub st
Ġs an
A ss
ĠCh ild
ĠD re
ular ly
ĠJoh ann
Ġb a
b are
Ġav ril
M A
Ġb aby
Ġbe havi
ĠF ach
k auf
Ġ7 5
lo y
ĠFlor ida
Ġdire kt
m als
Ġcap ital
Ġa war
enn is
âĢĿ <
tz lich
av a
ĠF ried
ĠZ ahl
ĠW estern
Ġopen ed
Ġs aison
ap on
Ġsp ent
rb an
ite ly
Ġse ven
Ġfinis hed
r ents
Ġto ol
Ġcre ating
Ġ199 1
Ġp il
Ġd ig
Ġbe ach
t d
ri ck
arin e
Ġde ad
Ġt end
ĠO ther
Ġce ux
Ġt ourn
D on
li a
is ing
p tions
ĠV en
l der
Ġ }
icin e
d as
r te
Ġpri ces
ĠW u
Ġgro ÃŁe
alist s
ĠOri gin
Ġsou vent
Ġjam ais
Ġn ichts
Ġcl assi
Ġli m
Ġsur round
u vre
Ġsong s
se rt
n am
Ġm otor
b ewe
m or
ĠChin ese
d ate
rap y
M on
l ler
bor en
it zen
l ar
ĠAr my
Ġb ois
Ġhel ps
ĠB ill
ser vation
ĠSp a
men te
Ġtit re
es p
le gt
Ġra pport
Ġdem on
Ġd ry
Ġop ti
Ġe ye
tif s
Ġeconom ic
ĠPri x
v rir
Ġe mo
Ġv ent
ro it
Ġjoin ed
p age
Ġthin king
Ġl ength
Ġp assen
Ġocc asion
ol o
Ġrequ est
ĠP R
ĠZ usammen
ĠTh en
A lle
Ġvehic le
ĠGe gen
Ġme hre
Ġfor ces
ĠHe i
m ens
Â «
Ġgar den
Ġ19 60
Ġcontra ct
ĠD ien
Ġvoy age
Ġv ote
Ġinte gra
ĠA tt
Ġt ic
Ġmo ving
Ġgra ph
ĠB ilder
Ġac ade
Ġre pe
li fe
Ġ4 00
w here
Ġf elt
Ġa che
ĠAn ti
ation ale
ĠGu ide
Pe ople
Ġc ancer
um ps
Ġver fu
r per
ĠT raining
Ġpl ate
Ġapp ly
ti ven
Ġle ader
Ġst ress
k m
ĠP ay
Ġm ieux
ĠN ic
usi que
ĠP la
f ier
ut o
Ġc elle
Ġent ry
de red
chl ossen
Ġcorre ct
ĠM aster
Ġh our
or ien
ca de
Ġ4 2
Ġof t
Ġw rong
Ġchange d
Ġpict ures
or igin
ol ution
Ġeffe cts
fi z
ĠHist ory
Ġeff ort
Ġl ux
ĠSo ftware
G u
Ġdem and
ĠAcadem y
Ġreview s
ĠP u
Ġmilli ons
Ġmar ried
ed y
Ġz ahl
vi es
ĠHo tels
E UR
Ġl ack
s c
zeich net
Ġg lo
ig ung
Ġpart n
fe rs
zie h
Ġsc ore
Ġpartn e
onn en
Ġcamp aign
anc ing
ket ball
ĠSund ay
chs el
ĠV ill
Ġf ail
u he
Ġfollow ed
y ant
Ġ3 7
Ġfem mes
Ġsp ot
ub le
Ġclai m
ĠT al
j pg
Ġtrou ver
ul ty
Ġpur pose
Ġc ast
f es
Ġd at
Ġre member
>Â ©
ound s
ig an
C D
Ġbes ch
ende t
pi n
or al
ĠP ierre
ĠF rei
Ġdes tin
Pos te
ĠChic ago
Ġd ating
ion n
V oir
Ġgrow ing
Ġch oix
ĠF ire
Ġbe ru
Ġprop rie
ĠRe chts
ĠWo chen
ĠK ra
h old
ĠP et
Ġh yd
Ġexpe cted
Ġpou voir
Ġim agin
Ġsh own
Ġreturn ed
b ahn
lie der
ĠPh il
Ġde t
Ð¾ Ð
Ġac ces
ches ter
. .<
ap pe
ring en
Ġre lig
Ġdist ance
Ġdaugh ter
Ġdar auf
w and
Ġwo hl
v ra
Ġmean ing
Ġda fu
s che
lieÃŁ lich
Ġf lex
ĠC ook
ĠWe g
Ġsit u
ĠE li
ove red
ĠE N
Ġnom i
ĠS hi
âĢľ <
D u
T A
Ġm ur
Ġm el
T R
Ġad ver
Fi n
Ġar range
ts ch
b ank
P C
ĠPerson en
geme i
d on
Ġpeti te
Ġnomi n
Ġk lei
Ġde f
Ġ4 4
di re
ĠB ox
t out
J u
ĠS l
ĠPe ople
ch arge
j u
' d
Ġtem per
P A
wit ch
Ġlin es
Ġs ell
und i
ĠS qu
Ġh us
ĠR om
ĠT im
ĠCol or
U L
ĠDu ring
ĠIn n
Ġfin ally
Ġele ction
F C
Ġm aster
urs e
Ġoffe red
Ġ198 9
we g
t ter
Ġi ng
Ġde dic
ĠC E
Ġsy mb
u che
ĠL ight
Ġl ange
Ġse ul
Ġf ont
m ond
ĠSei n
ĠEn ter
F ilm
ĠHist or
s ie
Ġli sten
ĠJose ph
D ans
ĠR ose
onde re
ve re
ĠN ame
it or
Ġa ktu
ĠF le
al and
um ber
ĠBe ru
identi al
iste red
ĠJu gend
Ġhom me
rei ben
fic ations
ĠSp orts
ĠL iste
Ġpress ure
h rs
Ġdam age
Ġhigh est
ĠU se
ĠS au
f urt
Ġc ry
ĠE as
ĠRad io
ĠI mm
200 7
Ġad vant
ĠH ans
dien st
Ġgro ÃŁ
li ste
Ġbas is
Ġg ute
ĠLe ist
al ten
ĠL ist
tain ment
qu el
a per
Ġfig ure
Ġ6 5
Ġmode ls
gan gen
ĠBe rg
se au
Ġinno v
Ġse cret
stru ction
Ġs og
se hen
E nt
Ġbas ic
Ġrom an
Ġv ict
Ġgro ÃŁen
Ġinf o
ĠAfric an
ĠM ur
c la
c are
Ġ5 5
Ġme mb
ers ey
t ent
ĠK ore
Ġallow ed
chl uss
E t
Ġst uff
F A
Ġp al
Ġactivi te
Ġsoli d
Li ving
ĠK en
M a
p oli
ĠProdu kt
ĠA ff
Ġge rade
Ġp ool
/ <
ĠMi nister
ĠTh anks
ĠB all
Ġb ew
Ġcon cent
si cht
ĠCom mit
ze igen
ĠC ath
ĠL ord
Ġra il
ĠâĤ¬ <
chi n
ĠE rn
am ps
ĠL ux
Ġv ielen
Ġp aid
ĠO li
Ġview s
ac ts
Ġso le
Ġe arn
Ġli br
fle ge
ĠDire ctor
ont o
F L
Ġover all
ar ante
Ġrei n
k re
oo p
r ons
alis m
Ġlis ted
Ġf air
au ft
Ġcl oth
w ise
lich t
Ġbe yond
Ġwen ig
' '
Ġs ources
tin a
ĠP S
Ġd omin
Ġdise ase
Ġsay ing
Ġcomp on
C o
gi a
Ġra di
Ġn ord
Ġbe e
Ġjed en
ĠT as
ul ated
w agen
Ġpri nt
ĠWe rk
âĢ ²
h ar
ĠF ore
S he
Ġge ben
ĠS ummer
Ġe yes
Ġst atis
Ġbe kannt
Ġe vidence
il ome
Ġd ress
Ġoffic i
Ì Ĩ
O D
le ist
ĠAngel es
Ġl ands
ten d
ar f
ran e
Ġfe et
Ġs ais
ĠT it
Ġj ewe
W or
ild ing
ĠV alley
ab s
Ġwe iÃŁ
Ġmeille ur
und red
is ted
Ġd ich
Ġd ynam
Ġa ctions
n z
Ġce r
Ġnum bers
Ġann ual
ali gn
Ġm iles
Ġc ash
ĠBro wn
ĠPro zent
ĠMar ie
d own
Ġpri mary
Ġt ried
abi net
ot en
ĠG ren
Ġmove ment
ar en
Ġturn ed
Ġ198 8
Ġaut h
qu oi
st off
ĠM P
Ġper man
ĠT rump
ĠM ake
ĠGar ten
De uts
w elt
Ġbed room
Ġb row
AN D
Ġar gu
ation en
Ġhealth y
ĠS ign
ra ch
ul ting
ĠR eser
ĠMan y
wor ks
L iter
li ghts
Ġmid dle
um a
Ġwh ose
Ġr ules
Ġab ge
Ġau jourd
we is
ĠS ud
Ġhe at
p end
ande lt
ĠR el
ĠW ild
os ure
fi k
ten ir
ĠMe e
ĠB us
elle ment
ĠM es
la f
Ġb il
N aissance
nd et
Ġce rti
Ġpol y
itt le
ĠN u
ĠT ru
Ġz one
l on
ce an
ĠT age
Ġcomp ris
tig keit
Ġa mp
Ġvrai ment
---- ----
Ġaut o
tempor ary
Ġra pp
ĠE ven
ĠT witter
ĠW ahl
âĢĿ ,
t ats
Ġdisc uss
ĠJapan ese
Ġin come
c tic
Ġpar k
Ġwich tig
ĠSm art
it ness
ĠH ard
Ġsp end
ĠK auf
ak i
ĠAr chite
Ġh arm
ali ste
gi ous
ĠHer ren
Ġche m
ĠBe reich
ĠT wo
Ġhe ard
Ġsle ep
ĠVi ew
ĠW ed
i ger
ĠF ood
Ġapp ropri
Me r
on om
g is
un s
Ġcert ains
x x
rat or
p ren
Ġ1 20
ĠIn st
w ith
Ġeff orts
C O
Ġinter pre
ĠS aturday
3 00
Ġpati ent
ob ilie
an nt
Ġw edding
ĠM A
Ġcar te
og a
be reich
Ġmethod s
ĠC li
Ġmi ni
Ġerfol g
Ġsh ot
W as
Ġcom ments
ut lich
Ġw ollen
Ġa e
Ġno vel
t ro
Ġpro ced
Ġ[... ]<
Ġw ai
ind et
Ġch air
Ġst udio
b b
Ġcon ven
Ġsupp ly
ari a
ĠS che
aut re
Ġmaxim um
Ġder en
que r
Ġa ou
Ġdeli very
f il
ĠS or
ĠD ata
id ents
ter y
ĠK le
Ġen h
Ġad vice
Ġun be
Ġ9 78
Ġth reat
it ch
ann ed
ĠCh ap
Ġcad re
Ġru e
ĠS ong
Ġrec or
ge ra
rai ent
ĠZ immer
ĠW he
ĠCan adian
ĠI P
ĠJourn al
Ġartist s
ĠC ross
Ġmeas ure
s o
ar re
ĠM illion
ĠS aison
ĠLe e
Ġde te
ĠW ord
Ġappro xim
ĠSt ock
ĠLi ter
Ġnombre ux
ĠWe ek
Ġge b
ist ent
ĠS ac
Ġent wick
ĠSe iten
ĠN atur
ĠD ate
ĠSch warz
Ġb lo
Ġbes timm
li sch
ĠKom ment
ĠM au
t al
Ġgeme ins
ĠI nt
ĠA th
ĠF rage
ĠFam ily
Ġplace d
Ġwor den
ĠHe ad
Ġpe ace
Ġest ate
Ġar tis
es is
Ġac coun
Ġth ous
Ġexact ly
Su jet
ĠL ED
ĠKing dom
ĠZ ug
Ġn ames
W ie
Ġni n
Be i
sch l
Ġsign ed
ĠB an
Ġcor ps
d orf
hei n
ĠA vec
Ġv oice
ch nis
Ġopen ing
Ġop ini
il ly
Ġear lier
ich ten
Ġin cor
n ent
w al
Ġge rne
ĠF ra
he iten
Ġde vices
ais se
ES T
Ġb ag
Ġha ut
Ġw ild
ou ch
re y
Ġweek end
ĠRec ords
Ġse lected
w ig
Ġcomm and
ati f
one r
Ġeigen en
ĠC ust
g or
ĠE T
Ġhel ped
Ġr ates
Ġbene fit
ale ur
Ġk urz
and en
re land
Ġbath room
Ġco ach
Ġbes oin
ow ns
200 6
ĠBeis piel
Ġge hen
Ġdi agn
u a
Ġav oid
i ting
ee r
ĠRe gel
nn te
Ġt rib
Ġi Phone
Ġpub lie
Ġa im
Ġset ting
arn e
Ġfinis h
Ġass ess
ĠRe ise
me ister
ĠHol z
Ġwind ow
ch sten
ign ed
Ġcont ains
tig ung
P oli
Ġst ream
Ġocc up
ĠAnd roid
ĠAn y
Ġide al
Ġfac ile
ĠT H
rend s
ĠS C
ĠN ouve
Ġst at
Ġra re
out es
gi nia
ĠSpie le
Ġsocie ty
nde rn
ĠD om
Ġabsol ute
Ġal um
Ġwas n
Ġw ait
u ve
ann ten
Ġv ue
ili ta
ĠM att
Ġne arly
ĠP rom
ĠSi nce
o ke
T op
ĠF ir
ian o
ĠUn ters
oin e
ĠI ls
kt or
Ġlet ter
ie ur
t aient
C ol
Ġvis ion
Ġs and
Ġdav on
Ġfor um
M ail
Ġv ente
ĠRe ich
Ġcar acte
c ap
Ġs ante
ĠEins atz
ĠN oir
o pe
ĠB ob
Ġgi ft
____ ____
ĠHer z
S pe
Ġv endre
U nis
hr te
Ġso ft
f ast
neh mer
i i
c ons
ĠJ ud
lish ing
ĠW ork
n em
Ġun its
O b
ak a
ĠC onne
F rom
am me
ĠH ers
ous se
oli e
Ġn avig
un ning
** **
Ġfee ling
ust ain
ane r
ĠD ub
ĠPro ject
Ġuti lis
A V
Ġnot es
Ġf an
Ġl ots
ook ing
... .<
ĠH on
ici ans
ĠK rie
ache rs
sult ats
se i
stra ÃŁe
ĠBel gi
lich es
ay a
Ġmo tiv
Ġag ric
ĠT O
ĠVi n
Ġdeath s
Ġtra ffic
cre di
ĠF und
zi al
Ġpre p
orne r
Ġdeli ve
Ġhus band
ali ze
Ġsur tout
Ġch at
Ġess enti
x is
Ġlar ger
ti ent
Ġcre ative
Ġown e
ĠMar kt
ns on
ri age
Ġgo vern
ER S
Ġex isting
ĠHam burg
Ġowne r
ĠEr fahr
Ġoffe ring
Ġgem acht
Ġbl anc
rich te
cou ver
lin k
ģ Ħ
G E
ĠC V
vert ure
ge ment
l ant
hist oire
c tives
Ġpartne r
c os
ĠFam ilie
w ord
Ġlove d
Ġ198 7
ĠSch we
Ġappre ci
Th at
Ġman ager
sp ie
au me
R es
Ġgen au
achi n
Ġ( )
ĠO F
Ġal one
ĠA me
fini tion
Ġhe raus
ru cture
Ġst atus
f rei
pe dia
ti r
u mer
Ġpas sion
ale rie
ĠN Y
ĠPro vi
ĠEx e
ex e
ti ger
Ġ6 4
z ogen
â ģĦ
Ġclass es
ĠSu pp
Ġ4 3
Ġpo or
ĠC ast
Ġh op
arbe iter
i rs
Ġm il
ĠG ast
ĠF ab
ap os
N ous
ĠA ust
ĠLi nk
Ġexp an
Ġch ambre
ate l
Ġtrav aux
Ġl ock
Ġc ards
G o
Ġjourn e
V ers
iss ance
Ġredu ce
ie re
ĠU nder
ze pt
p ack
Ġrep orts
h ow
Ġsog ar
ma tic
Ġthan ks
ĠB rit
ĠD igital
amp f
Ġe ight
ĠE dition
ed i
ann te
Ġf ashion
Ġ198 6
Ġconf ir
f ass
f ree
Com p
Ġti ps
em pl
om et
Ġsu ff
Ġhe avy
ti le
Ġbe de
ÃŁer dem
ĠHen ry
ĠSte i
on al
ĠB ot
Ġno tice
bour g
Ġse a
Ġb atter
os is
ĠS ale
ĠK la
ĠI ts
Ġjob s
Ġst ars
teil ung
rie ure
ame d
Ġrecor ded
ro ad
ĠN on
ĠRus sian
Ġac cu
ph a
pon se
ĠP ack
Ġre asons
v oll
y an
Ġpower ful
Ġi ce
Ġsp i
Ġfem ale
ol as
ĠR ahmen
Ġhat ten
ĠFoot ball
alog ue
Ġpoli tici
Ġmon di
Ġ4 9
glich keit
Ġ2 50
ĠS ha
Ġsp read
mb ly
Ġgu itar
. )<
Ġf ans
Ġconce r
Ġpre vent
ĠJ im
Ġrec ru
Ġele ments
ut ch
ĠQu alita
> âĢĵ
nah men
ĠF R
ĠSte ph
Ġf o
Ġwe ather
ri ka
h as
ĠAc cess
Ġhom es
cl ai
Ġo lder
Ġappe ared
Ġli t
Ġ198 4
w ri
Ġ19 50
Ġfor ms
Ġuse ful
Ġcove red
ur g
Ġins tit
ĠN ut
r one
Ġcal cul
Ġ1 000
ĠZ us
Ġprote ct
Ġf at
d ess
ci de
Ġo per
Ġtra ve
ĠJah res
Ġg irls
Ġstrate gy
Ġb at
ĠAr m
ab ilite
Ġla bor
ĠMar ket
Ġvide os
Ġfl ow
te lle
ric ain
Ġdis tin
Ġstra ight
ĠH ot
Ġihre m
Ġcommen ce
Ġp ap
Ġe val
ĠEr geb
Ġm ot
C re
o ti
ake rs
Ġses sion
Ġ áĦ
se c
Ġg ilt
ĠSch o
en der
ĠMi ni
ĠD VD
ai de
aine r
ĠAb out
Hist ory
Ġk new
ĠC ame
ĠItali an
ĠVers and
ĠG as
Ġer h
Ġcomp ose
Ġpie ces
co de
p her
T H
ade l
ĠE conom
Ġh undred
ĠSec ond
amin e
Ġob lig
Ġfind et
Ġcon ver
Ġp ic
temp s
Ġa ward
Ġv oc
it ter
Ġro y
ogra phi
w ind
ah a
Ġcap it
Ġwi nter
w alt
chieden e
se re
char ger
Ġb ow
ĠL ab
Ġhi nter
ĠF o
ese hen
Liter atur
se x
sib ility
Ġcri tical
mit t
mis sions
M E
Ġgre ater
Ġc rus
Ġ198 5
Ġpra tique
Ġbie ten
le ben
du ction
] ,
ĠT imes
re iche
2 000
ir k
um n
kn own
pp s
ĠM ulti
u chen
Ġste el
ĠBe au
Ġte aching
ĠW ay
ĠMo dern
cis ions
ĠPart n
U p
Ġwe gen
ĠA wards
ĠK ey
ĠSec urity
Ġer n
olin a
cu it
Ġne ben
ĠL ig
Ġbott om
ad ing
ĠO R
Ġnu mer
st att
Ġc old
H i
eni ger
ĠO tt
g aben
Pe r
ri ger
ĠVer fu
ĠBeit rag
vis ions
rich tet
Ġqu atre
Ġstre et
Ġhe ures
S c
ĠC ost
ĠMond ay
Ġpe int
let ter
igh ting
Ġpers o
Ġla un
Ġrela x
ed en
Ġtru ly
ĠR ot
Ġjourn ey
qu ence
Ġwin e
P a
n ot
c ur
ut y
av al
Ġco ffee
ĠFor ce
Ġdra w
Ġb oy
ibli othe
au teur
st an
Ġf ro
ĠA D
av is
Ġse lect
unk te
ĠJ a
Ġcomp ared
ĠS it
ĠPartn e
ĠR ab
ĠHa w
Ġcar s
nt age
Ġdi ff
ĠO x
Ġre cht
Ġr ent
Ġsur ge
Ġste ps
ĠN r
Ch ar
Ġbes ser
ĠProf es
Ġno ir
In tern
Ġmag azine
Ġgra de
Ġinter ess
ĠR ay
por ation
t aire
ĠÂ» .
Ġminim um
Ġgu arante
M P
Ġexper ts
Ġeas ier
ĠE sp
Ġf as
ĠR ail
Ġcame ra
ĠMan ager
Ġes tim
C A
h nt
ĠIsra el
ali ser
Ġa ren
ou re
Ġquar ter
Ġpay ment
ĠCon se
ĠVers ion
aly se
W enn
Ġt ree
ĠC es
V or
Ġk ing
Ġess ay
wes ome
igne r
ĠWe iter
ĠC ir
Ġclo sed
vis or
Ġsh opping
ĠSe cret
comm od
is ches
ri m
tis ing
les en
ĠN ight
ĠC her
ĠC A
ĠP ot
ĠZ iel
ĠMex ico
Ġc it
an ie
e u
c enter
d ra
g lise
ann a
Ġ4 6
Ġz ie
Ġadv anced
Ġli ste
Ġmes ure
Ġdo ctor
Ġrun s
ph y
Ġbro ther
Ġe pisode
ĠS us
Ġsc ene
S ome
Ġman ie
ĠC our
ost on
Ġf arm
L O
ĠL td
ĠLin e
ĠCh a
T ags
Ġc opy
Ġme isten
ĠDan iel
at oire
Ġph ysi
ren ti
Ġsatis f
Ġp ied
ĠVir ginia
ĠSel bst
sch ule
ĠK an
St ar
Ġ4 1
ed om
Ġt ag
Ġmus ical
onn a
ti ers
e ux
ĠT urn
ĠSom mer
Ġreg ist
li ament
ich en
ams ung
haus en
Ġv ir
tit ut
Ġre lie
Ġmiss ing
Ġres s
ĠPro te
ri ode
ar ticle
ĠH aut
ur b
lin gen
Ġrec ords
Ġsepar ate
ES S
ti ni
Ġe at
Ġw ants
ĠF ragen
ĠChe ck
sch af
Ġsem aine
ĠAN D
ĠT own
Ġwe it
all ation
Ġpas sed
ill on
Ġpost s
Ġsu ffe
Ġsh ared
Ġsoll ten
uch te
im al
Ġ Åĵ
Ġ19 45
Ġfor med
Ġje une
ĠWh y
et ter
co pe
f riend
Ġite m
Ġsi n
ĠW ho
ge ber
onn es
av oir
Ġbe coming
Ġis land
Ġmin ute
ĠI hren
ĠC lin
Ġg uerre
Ġl ance
o di
Ġpl ants
Ġche f
Ġmem ory
Ġtr ust
vent ure
ĠAu ft
ĠR ome
Ġret ur
Ġex pen
Ġbe tra
Ġhelp ing
qu en
ĠR am
Ġfam ous
Ġear th
Ġges tion
Ġsp ring
Ġra i
ĠProble m
ĠA rab
nis te
la ced
hel m
ĠC u
ĠStand ard
G et
Ġrec onn
st ar
Ġcomp re
v y
ĠF lo
Ġin e
ĠZe aland
Ġswe et
Ġthe ory
al ter
n ten
>â Ĩ
ĠL ast
ĠI D
ĠPh ot
Ġc ore
as ure
ng en
Ġz war
schn itt
ig es
Ġwri ter
on ic
Ġaff ord
Åĵ ur
ch est
ĠMari a
Ġexe rc
ĠW olf
Ġlaw s
chei den
ant on
oi ds
ours e
on ie
nn ers
ĠE ach
b alle
ĠK ong
ĠD im
men ded
b res
Ġe ast
ĠHe im
ce pt
Ġf ear
ens us
ĠF our
Euro pe
y o
ĠTe xt
ĠB ow
vi le
ge fu
ĠWor ks
ĠN etz
te x
uin e
achin e
ĠP or
Ġpar ce
Ġeing es
oi le
chieden en
Ġau dio
ĠCont rol
Ġexpe rt
Ġch a
F R
r ats
ĠStei n
Ġa yant
ig ration
Ġma p
Ġa head
Ġth us
re f
ĠA nne
ĠP ati
p ass
Ġs enior
te ili
Ġsom mes
> ...
mer ce
ges amt
S a
ak ed
osi te
ole t
Ġdi vision
ĠMitg lied
te ring
Ġclass ic
ve ment
osi tions
ate ver
Ġto w
Ġre cip
es en
r ge
f ung
Ġb illion
= =
ĠI reland
ĠB ase
ĠKir che
th i
Ġb elle
Ġpos te
zi n
ĠZ um
ni vers
ĠMed ical
Ġar m
Ġse ts
Ġl oi
Ġnumer ous
ĠN amen
Ġcell s
Ġmay be
r den
Ġdes sen
Ġle tt
A nn
lie gen
Ġtarge t
Ġfound ed
ak en
F ran
E E
Ġm ul
ĠSt ation
ke hr
ĠA C
ĠB run
ĠG lu
st re
ti ker
k ir
wend ung
200 5
Ġkom ple
Ġf ight
sion als
k osten
end ar
oi rs
ĠYou ng
Ġs light
olog ique
Ġcaus ed
ex p
P lease
G ra
g color
ris h
ĠK inde
Ġb rain
ron ze
Ġass ist
ter m
G es
ĠLib rary
Ġes pe
il en
Ġli gh
ĠC all
pond re
Ġse at
Ġvers ch
Ġau g
Ġprof it
g ic
ĠM ess
Ġk illed
Ġt es
Ġgen re
Ġpri ve
vi de
Ġfe deral
Ġli ber
ĠAl though
ri ence
ĠB aby
Ġv ar
Ġe uch
D I
Ġp rou
aci fic
4 00
hi o
ĠA S
Ġfa ith
Ġsc en
Ġfore ign
icht ung
ac tions
Ġad ult
im age
Ġche ap
ĠI hrer
u alite
ĠO u
Ġce leb
Ġre ached
ce ll
uelle ment
Ġp et
osp it
Ġf ille
Ġ198 3
Ġmemb res
Ġhom mes
oc ket
Ġunse ren
icher ung
T rans
s ung
Ġce le
Ġsh aring
ĠB le
ĠB ang
ĠEar th
ĠS S
Ġupd ate
Ã Ĺ
ew ork
Ġw oll
agne r
ĠAd d
Ġra ison
l ungs
ĠGe ra
Ġk g
Ġpre fer
Z e
tab lis
Ġlo an
ĠSpe cial
g lichen
Ġde vant
ĠM ah
Ġf r
isse ment
ĠG lobal
ce rt
ĠSp ring
u gen
Ġri de
ĠÂ §
ra cy
ĠD ann
Ġsouh aite
f am
h il
Ġc ul
urs day
ĠK reis
ĠEr fol
Ġdes igns
Ġthan k
Ġer kla
!! !!
Ġm usique
ign et
Ġdri ving
mm ing
ĠPerson al
amb res
ĠAd minist
ateg ories
Ġh il
gra de
e te
Ġwe ar
ĠVol ks
Ġor din
Ġon to
Ġrem ain
k ra
t ru
Ġeng age
Ġ198 2
Ð º
lic ations
ĠTh ank
res ent
B est
Ġwi nning
Ġfin ance
lin s
Ġg ing
Ġm ut
ĠS tern
Ġcou nter
Ġve ro
ris on
os ter
Ġkann st
b est
Ġe ro
ĠJ on
Ġsec ure
Ġ/ /
ĠSpan ish
f lu
ĠW ien
Ġd anger
ag it
Ġdire cted
port ation
Ġvi n
Ġen ded
Ein e
Ġbal ance
ĠAnge bot
li ga
Ġval ues
Ġcours es
reib ung
de z
and y
mar kt
ab ase
og n
Ġc ate
z ip
Ġ Ìģ
Ġlook ed
Ġg ain
Ġ ~
lie b
f al
st s
ch ter
Ġ= >
Ġann once
ĠB is
Ġlog ic
iz ation
Ġfriend ly
Ġmen u
Ġklei nen
Ġtra vers
Ġcapac ity
ĠR is
id th
sent ation
rei fen
ar o
Ġst ations
enn ent
ĠG ed
ad or
A rt
ro i
Ġt ut
li x
Ġcompe ti
N ot
b lick
ĠB aye
utz t
ĠMari n
Ġser ver
Ġl as
Ġde but
ol ar
Ġinte g
Ġrem ains
ĠSpie ler
owe red
ĠC ON
qu elle
ĠCol umb
ĠMin uten
u ft
f oli
mi le
ĠAl t
h ang
I ER
le urs
ĠJ ersey
bur y
ĠCath olic
ĠMei n
00 3
h um
rag on
ol ars
ĠCar olina
ĠI V
Ġfeature d
Ġ198 1
ĠIt aly
ĠPhili pp
Ġte acher
uck y
Ġe di
ĠF ig
Ġwor kers
ues day
Ġasse z
Ġj ardin
mal ler
ĠOr der
rne r
ib les
os it
Ġaut our
Ġbe comes
AR T
Ġmajor ity
Ġfe u
l ad
ĠWilli ams
ĠAd v
Ġprog ress
ĠB ahn
Ġjus te
Ġalbum s
Ġc ris
Ġle ague
ĠL ittle
ĠLu ft
os se
Ġun terstu
Ġoff re
Ġe p
ĠR aum
Ġaudi ence
Ġre ven
Ġd ance
Ġ4 7
Ġke pt
un ion
ĠG el
Ġvis ite
Ð »
ant wort
ur ther
ĠDien st
b ri
Ġdein e
ĠHi n
ĠA sia
ob i
ĠT y
âĢĿ .
Ġw eniger
Ġiniti al
ies en
>âĢ ŀ
ĠF ind
Ġm ac
O V
O K
In ter
ĠFuÃŁ ball
ai me
rs ch
Ġse ttle
Ġpro pre
ĠJ ones
Ġthe me
Ġdri ver
K e
le ts
Ġli qu
i ze
rent es
ori n
Ġv u
pre is
opp el
gemei n
Ge boren
ĠB la
Ġb gcolor
Ġcou n
ĠâĢ ł
Ġaut or
ĠW ol
Ġens uite
a ult
ĠP ie
Ġrele vant
k us
Th ese
ĠF est
ĠTod ay
ach ten
d d
Ġdru g
Ġ197 9
ĠCong ress
Ġrich tig
ĠK ultur
e ch
Ġser ont
ĠT hr
s m
N ow
Ġs oi
hem ali
meld ung
atu ring
el ly
Ġt aille
ĠMont re
A ng
ge hen
Ġrequ ires
ense mble
nes day
Ġatt rib
ĠK enn
ĠN ote
r man
ĠP sych
pl ate
ĠKar l
Ġ5 2
spie ler
acks on
ric s
ĠS anta
te ments
ĠU k
Ġg au
Ġbut ton
ĠEle kt
ra pie
Ġmin or
re di
Ġeconom y
Ġfind ing
Ġu ng
lin d
Ġat hle
an ci
ĠNet work
st o
ts chafts
ĠOn ce
U B
Ġmo der
mo de
Ġro se
Ġbeste ht
k rie
f ilm
Ġneigh bor
om o
r ve
Ġv ou
Ġp urs
Ġd rop
Ġro t
Ġroom s
O ri
Ġpro ch
Ġh oliday
N r
os a
Ġ197 8
v oye
k ins
li ss
Ġser ving
Ġout door
ĠFl ug
ĠVe ran
ir ds
is tic
Ġze igt
Ġm ent
Ġje unes
Ġb attle
Ġ197 2
yl van
Ġb out
wor ten
ach s
le ve
ĠThe ir
Ġsh ape
U P
ĠRus sia
ĠPort ug
ĠG R
cre te
ute t
Ġsui vant
ste llen
Ġt iss
Ġdim en
ĠF OR
ĠSt rate
Ġm athe
t age
ĠI ran
ĠSu pport
A Y
i nnen
ĠP lace
F l
Ġle icht
Ġgrat uite
ans as
ĠAir port
ag og
ĠL am
ĠUS B
f red
Ġnut ri
Ġsub se
M ode
Ġex change
Ġst ated
Ġmaint ain
Ġc ade
on der
hibi tion
Ġwind ows
ĠL as
ĠHum an
arbe iten
Y our
Ġ6 00
Ġp ose
Ġtran si
iss ant
Ġle aving
en ni
ctive ly
ĠDe i
Ġsqu are
Ġtr uth
oo ting
Ġph ase
or b
x i
Ġco ast
hand lung
ot al
Ġen able
be ho
ran ken
Ġtal king
ĠL age
Ġto ile
Ġci ties
ĠFe b
Ġappe ars
Ġworks hop
Ġact ual
Ġfour th
g ant
ool s
A p
ÃŁ ig
ph p
ĠT itel
Ġman if
t udes
ti a
ser ver
ĠIs lam
Ġpar ten
sch utz
p oint
Ġse rait
ĠProdu kte
Ġer re
Ġst one
Ġs now
gen ommen
Ġlibr ary
Ġre ality
Ġret our
Ġcol ors
ot te
( '
ĠK ur
ĠBes ch
Ġbef indet
Ġqu oi
ĠKont akt
cu pe
Ġp rend
ĠG em
un sch
Ġt esting
Ġ197 5
Ġla unch
b ul
Ġag ent
G ene
ru g
Ġcom mande
Ġpas ser
ĠH an
Ġac cident
Ġpa ar
ond a
Ġs maller
Ġunse rem
richt ung
ĠT R
Ġpl ane
Ġgew a
p orts
ĠF ull
cle ar
t ude
g age
ns chaft
hne r
form ance
pl om
Ġkei nen
ĠM obile
Ġex te
w en
W hile
o hl
Ġcont ain
Ġpl ays
He re
lich keit
u ting
ien cy
Ġ8 00
B ar
AN T
arbe itung
Ġ197 6
Ġvo iture
Ġz usa
The y
es tic
ĠZ ent
v ard
ĠPro jekt
Ġpro file
ni n
Ġre ques
Ġr and
Ġv alid
ĠO st
Ġmost ly
ĠB ran
Ġph arm
Ġro of
Ġper haps
Ġsch warz
Ġrel ation
ĠO N
Ġapp lied
Ġp ush
en ting
Ġpar king
ĠA T
M em
Ġci vil
ĠD or
c ise
ĠSt aff
le men
ĠD enn
Ġc ultural
chl ag
B as
Ġlearn ed
p la
G ru
Ġmar k
Ġincre di
Ġra ised
Ġpris on
Ġ196 8
Ġb ru
Ġse cre
b ooks
B I
M us
ĠD oc
- ,
Ġd ream
le ctions
ĠS um
isten ce
H S
Ġa st
ĠG las
Ġar ts
te mber
ĠÂ °
sin e
Ġdeux ie
M ay
v ue
Ġri ver
pie ler
Ġfact ors
s ites
Ġspe ak
Wh y
ra c
we et
Ho tel
Ġjus tice
bur ger
y ers
C omm
ĠSch wei
Ġbe auty
Ġn uit
Ġf rag
âĢľ .
ĠDe c
00 00
ĠM om
Ġman aged
I X
Ġs cre
ĠH im
B on
ĠPartne r
ĠI r
m me
st anding
Ġwh om
vra ison
M ann
r ates
Ġadv ance
ti li
tail s
ĠPol y
Ġc up
r ash
Ġen c
Ġ )<
ed ing
ĠF unktion
200 4
ĠJo e
Q U
ĠB oston
gi me
Ġsche dule
g art
Ġla b
n ehmen
Ġt ests
j ahr
!! !<
Ġch ocol
Ġg a
ĠR at
Ġshe l
Ġm and
C ette
Ġe lles
m lich
ĠD ort
ĠC ru
Ġneg ative
Ġda her
Ġan zeigen
l ungen
Ġe ux
" )
use ment
be th
ĠSing le
x y
un n
U nd
al o
ĠSe it
bl og
ĠF oto
V on
Pl us
Ġb rief
Ġg one
chi nen
Ġpou v
ĠN avy
ax y
Ġac commod
ali zation
S ur
Ġm ist
ĠD C
Ġs ki
ul pt
ĠRo om
Ġp lein
co very
Ġt or
Ġmodern e
t u
ag t
Ġdeuts che
Ġh ors
ori ties
en f
ocra tic
origin e
m ate
en en
ĠM aison
ĠM S
lie ÃŁen
Ġ9 5
w issens
ĠSch m
ĠLi ke
uf ig
ĠPrin ce
r ut
Ġma il
c ular
Ġ197 4
w ald
Ġele cted
on te
ĠR ights
u il
s pe
Ġy outh
Ġlong ue
Ġsee ing
ĠGar den
ism us
qu ie
Ġf rei
Ġanim al
Ġc alls
ĠAnt on
ĠH ong
Ġcl os
Ġbe kommen
ĠAn fang
ĠB M
ym n
ĠEn ergie
Ġleg is
Ġhand le
ĠC R
Ġpro xim
ov a
ffic ial
Ġans wers
rie re
S aint
He r
ĠSe a
l assen
Ġb ound
Ġown ed
Ġanim als
we iter
ens ter
ĠS ho
W i
Ġimp os
Ġwel come
Ġsp iel
Ġi gn
ll s
u ries
ha ft
Ġele ment
ff ent
bind ung
ĠSc ott
ĠCon tin
ĠPri me
Ġse ctor
ĠSt udio
ĠA i
r f
c op
ĠC oo
Ġeven ing
ĠF la
ier ungs
Ġne hmen
ĠMid dle
v ise
Ġtop ic
hn ung
Ġas pects
Ġle cture
ĠVer lag
Ġmeine r
Ġf is
\ "
p ann
ĠSyste ms
cou vrir
Ġtem por
ath an
Ġbon us
ĠSt unden
ke e
t udi
ĠCo ast
ĠQue en
ĠPh oto
ĠS af
ĠPre mier
ris che
ĠT ab
ik o
ĠG ot
Ġers ch
Ġfra me
ĠG h
os h
Ġle aves
Ġ q
Ġc am
Ġno ti
Ġattemp t
ĠP y
ĠPoli cy
id den
Ġma tie
Ġje ux
pe cted
V ide
r ke
uf en
ĠQ ui
L S
ĠB lick
Ġdoll ars
Ġ| --
Ġclai ms
Ġve get
Ġ197 7
n ach
ĠDa bei
ic ks
ly wood
Ġmess ages
ĠM ot
% <
Ġpack age
ol y
ĠGe ba
Ġpass age
Ġk it
ome r
Ġfl at
Ġdeli ver
ĠK it
Ġfra is
ĠL is
Ġsag t
Ġexplo re
Ġar ti
Ġmed ium
iz i
ĠF ord
Ġ197 1
sp an
ri nnen
Ġs agen
Ġa j
Ġlaun ched
ĠHil fe
ah rs
1 50
Ġl ose
Ġb ought
Ġ5 4
Ġhappen ed
H el
Ġgro s
Ġt ard
Ġam bi
Ġde vient
ĠS itz
ur ent
W est
Ġe her
ĠSch utz
Ġcom bat
ĠP oint
Ġweiter en
ex es
Ġli ved
Ġi hnen
adi um
Ġpres ence
par k
vis ed
g bar
Ġ197 3
Ġter min
d chen
Ġsu jet
Ġd ad
ĠP ak
Ġprep ared
Com ment
Ġ8 5
Ġtra ding
ĠComp uter
ĠJoh nson
ro t
Ġc row
d ruck
Ġexe r
Ġw ire
Ġsur pris
Ġgar an
ĠN utz
Ġer k
Ġbig gest
{ "
fe rt
n cl
ĠEnt re
Ġc ance
Ġin sp
re chn
ĠK h
Ġfund s
uni vers
ke hrs
ran ts
ĠW ald
ian a
ris chen
ĠT el
Ġk id
g ment
ĠSt an
Ġchar ges
ac le
Ġr us
Ġill ust
Ġpeti ts
ĠN at
ali ties
Ġvac ances
o line
hin e
h aupt
Ġexp ress
Ġprovi nce
Ġwri ters
zei tig
Ġdie t
Ġ5 6
ĠGes und
w ater
D P
g ri
ĠS ou
ĠSt ory
ĠW issens
Ġgrand s
am mer
ĠA ri
Ù Ħ
Ġd oi
nst ler
d n
L ie
Ġc herche
ob by
rin k
for mer
ĠCont act
ĠBe cause
Ġh ospital
ĠMi ke
Ġd ure
rou pe
ĠH omme
orn ey
ze uge
ou ts
ĠA st
Ġdes e
Ġste llen
8 00
or der
Ġru le
ĠV ors
Ġmehre re
tis cher
Ġpro t
rie bs
ul f
Ġ rend
Ġres pond
ĠNi ke
Ġpot enti
Ġcould n
A f
Ġcomp l
D ep
ĠN ation
Ġh ast
it aire
Ġcou leur
man der
sionn el
ĠK ommun
Ġcook ies
Ġre ti
aille urs
ĠK im
ul ate
Ġexerc ise
Ġc os
ĠM ul
j an
Ġsp ons
ĠUntern eh
Ġdis cip
ĠK lein
Ġtas k
est en
Ġthough ts
ĠPri ce
âĢ ĺ
ĠI nde
M ore
F il
Ġdonne r
ĠL ow
Ġp ure
Ġpur p
Ġch anging
Ġsie ht
rat ure
Ġcoo pe
Ġte achers
Ġclean ing
ĠR ol
Ġmach ines
ĠT ax
h end
sch ul
Ġrec on
Ġpl ais
ĠMich igan
ylvan ia
Ġfru it
I mp
m osp
Ġ196 9
ĠT ype
c oin
IT E
Q ue
schl uss
Ġan sch
am an
qu ences
Ġun ser
Ġfil s
Ġacade mic
Ġande rem
ic an
quis i
ĠR ap
ti ll
K E
ch lich
id ing
w orth
Ġge e
ra che
st alt
ti ges
Ġm g
fic ial
ĠOn ly
le itung
O G
ĠC amb
vin e
ak tion
Ġpi n
] .
Ġconce rt
l ow
bur gh
Ġ9 9
Ġli be
w ich
k ar
obilie r
Ġm ental
n ight
h ou
ĠP il
ĠT w
Ġf iction
ĠL oc
B ook
ĠC ri
Ġawar ded
Ġj oint
ĠB it
T ube
ĠTh ursday
Ġlie gen
ĠL ud
ĠNie der
v ors
ĠNe ben
ĠG olden
ĠR od
l ker
l ande
bes ondere
ber ry
Ġkeep ing
Ġdi vi
imm t
i na
ĠAn th
ĠBo den
C S
Ġges am
Ġcy cle
Ġz una
Ġdi ning
Ġa ide
Ġs enti
ĠCom ple
ari f
ub s
Ġapp oint
ĠWo che
ap es
ĠSt ad
de ck
Ġla bel
ĠK opf
Ġb ill
c at
or ben
Ġde utlich
Ġ5 1
geb iet
Ġp oll
ĠB ooks
p ool
ĠOr ts
u ters
ac ce
Ġh all
Ġsoll en
ĠH ave
Ġvol un
Ġk ur
Ġse mble
Ġver k
ĠP L
fe ct
Ġ19 40
ograph ic
ĠS at
Ġen semble
ay lor
ĠS av
Ġa w
fa ult
ah rer
ĠK ri
ĠS A
app y
ĠG olf
Ìģ -
ĠProgra mm
ĠEn ergy
Ġsmo oth
tie g
Ġtro tz
fest yle
Ġa part
ĠSta ats
f ig
Ġbe r
ad ow
ĠBra z
ch ing
Ġsch le
ĠJ ackson
od ge
Ġto ward
Ġshow ing
Ġdes pite
Ġcove rage
ĠB oy
ĠSe p
Ġpres e
Ġf estival
Ġha ven
ĠK ateg
ĠSein e
ĠP RO
P L
pro gra
Ġrep laced
Ġp rise
val ent
Ġsupp le
O ff
Ġsom ew
ĠN orthern
o es
ĠS ound
ĠAl bum
Ġad ding
Ġs ustain
po que
U m
Ġsus pen
ĠS ain
ĠB our
Ġinte rior
ric al
ĠG ab
ĠS ky
IL L
ti ment
f rage
ile d
Ġ ring
ĠC ard
ĠRe port
ĠC lick
lin ois
pie ls
ĠF ac
Ġnouve aux
ly n
Ġ19 20
Ġinj ury
Ñ ĥ
Ġb ureau
Ġ ..
ĠF air
ĠF ront
ar p
un ately
Ġwai ting
Ġvo it
P ort
m at
ĠA mb
ĠA pre
a a
Ġsel ling
pis odes
gen s
H L
Ġ19 30
ĠH au
Ġex am
hen sive
Ġse mi
B o
G esch
de ring
n or
ĠAre a
ar me
ĠSch a
ĠAut hor
Ġtem pe
ur u
ord an
ss el
ĠB R
ang s
inf o
ĠA e
Ġal t
ĠD och
ĠR ub
Ì Ĭ
Ġt rial
Re g
ĠT uesday
Å Ĥ
J an
H A
F re
Ġpat tern
Ġfocus ed
Ġvehic les
bra uch
Ġ196 7
ud ing
ĠS ir
Ġsc ale
d ru
ra k
ĠN ik
la w
ĠFam ilien
bur t
ĠK li
Ġdro its
Ġf ell
Ġ5 9
ĠE ig
th ur
ĠM achine
Ġer war
ĠF A
ĭ áħ
ro g
ra pe
Ġdemon st
e ments
op en
ĠD og
I RE
Ġvers te
amm lung
Ġlors que
Ġfin anc
gru ppe
ug s
ren z
ĠH as
u fer
Ġrai n
Ġf light
lie rt
Ġh yp
ĠS outhern
ĠBe gi
E l
te ile
fahr t
ĠSt ore
Ġp air
ĠA venue
f an
se h
Ġreg ar
Ġgu ests
utt gart
li ge
Ġtre es
D r
Ġed ge
Ġter rain
B O
ĠSp ace
ĠOrigin al
rit anni
Ġco ordin
v as
Ġeli min
Ġremove d
P ost
Ġhelp ful
Ġfac ility
Ġpo e
ĠChild ren
ank en
ĠH ann
Ġde e
Ġac tiv
ĠEin zel
medi a
ap re
lle icht
ĠWe rt
ĠCom ments
Ġu r
Ġf unktion
Ġso fort
Ġstar ts
Ġqu anti
Ġex ist
c tement
Ġc oin
Ġc atch
tre ten
ĠFin anz
f ted
Ġou rs
p as
Ġcombin ed
ĠComm unic
Ġth row
II I
Ġshow ed
c ue
ĠMount ain
Ġopini on
200 3
ess el
F rance
Ġwas te
Ġre tire
Ġw issen
Ġer ror
ĠP acific
Ġre mar
Ġsil ver
Ġzwe iten
Ġbu ying
ĠH ospital
occ asion
ĠM od
Ġair craft
M C
ĠC L
Ġtrans l
rn en
Ġst ores
rat en
Ġjourn al
Ġupd ated
Ġde gre
Ġs witch
Ġalum ni
Ġhe ure
Ġvisit ors
li on
Ġcin e
Ġ( "
n age
Ġgu ys
Ġc orner
ze iten
Ġhon or
cl ass
o or
c en
ar ily
stag ram
chin e
Fi rst
Ġ5 3
Ġcol on
P E
ĠB ag
V is
D an
ille urs
Ġinten ded
ber ger
Ġhous es
ĠMiche l
ue rt
nt he
Ġi ron
ĠV it
ame rikan
Ġdra ma
c teurs
Ġa ware
ĠN C
ĠMarin e
ĠT ok
it ze
u ps
Ġf ill
ĠPoli ce
ou x
ct u
Ġno ted
Ġla isse
se ur
Ġclim ate
ns ylvania
Ġs ister
ĠF ield
z uf
ron om
l lig
geb ung
di das
Ġm ouve
ĠIn nen
we it
ĠS uch
Ġadj ust
Ġclub s
oot s
Ġaut hen
ĠHi nter
ĠC OM
se igne
Ġa gency
ĠNach t
Ġob vious
Ġe hemali
Ġpoli cies
rs e
St and
Ġco vers
Ġin vite
Ġquel que
k el
Ġm ilie
Ġviol ence
p x
Ġgar age
line r
he ure
Ġing redi
ais es
Ġweb sites
ĠK ent
Ġcaus es
* <
ĠIn form
ĠStra ÃŁe
ili gen
ĠX X
Ġt el
ĠO hio
Ġmin istre
ĠL ind
Ġpl u
ĠT un
Ġpour rait
Ìĥ Â
Ġp aint
Ġc ategory
m und
ĠK or
ish op
h at
ch ste
ot ogra
ĠM ade
ĠK now
P ress
Ġwer de
gi o
ĠSci ences
we ight
Ġsound s
le ft
et ts
jou ter
Ġpl uto
hal ts
view s
ind est
Ġb lei
H T
Ġ196 4
ĠT am
raine r
Ġ1 10
Ġa wesome
p os
Ġconne ct
cy c
Ġmar kets
ony m
ã Ģ
Ġallow ing
Ġcre am
ĠV ille
ĠL ar
B ay
f asst
ĠD ank
i ff
Ġsag te
ĠEx peri
Ġcap able
Ġp un
ag a
Ġk ennen
ns tig
ĠSy mp
ĠG allery
ti ble
ĠC ase
ĠE vent
Ġag g
lish ments
pub lique
n elle
ci ence
z ess
st one
ati e
ac ter
6 00
ĠT ai
Ġn ah
Vi ew
ĠW is
ĠAnge bote
Ġd ates
ĠSu che
ĠIhre m
a j
ĠSp ain
f ois
en ess
Ġcol our
rie den
Ġorgan ise
Ġter re
ĠB E
iet nam
ĠK ol
Ġang es
Ġ- <
ct ural
Th anks
2 50
ĠFran z
ĠAl tern
> @
AL L
D ate
h ig
Ġli bre
Ġre b
! !<
Ġhous ing
Ġfor get
wh ich
u able
Ġplas tic
F ree
aus se
Ġg ens
ĠDis ney
n ergie
ĠS up
D C
ri ften
A nt
ps on
Ġro b
duc ing
L o
= #
e urs
ab ilities
Ġ5 7
ions hips
ut ung
p u
ĠT ake
ĠD ri
ĠCount ry
S m
Ġdom aine
qu ant
ĠCh air
ĠV alen
ĠBes te
ĠW ri
Ġfai led
Ġinspi red
cl ar
Ġmoy en
yd ney
Ġste llt
Ġdeci de
t an
ĠM ob
O ther
m and
si ch
Ġi P
Ġvers ions
Ġpan el
Ġsur ve
ĠE ffe
g te
um ie
Ġsy nd
ĠAu gen
Ġiden tify
Ġcar ried
rate ur
Ġenjoy ed
ĠDeuts che
ĠLe ip
Ġre tra
ĠY es
ore r
N C
Ġprom ote
f ying
ĠD ark
U C
Ġern e
Ġ196 5
chei nt
Ġp atri
ow a
ach ts
ĠB os
n aire
Ġbit te
ĠPart ners
Ġregion al
Ġter ror
P al
ite te
Ġpurp oses
P art
B es
Ġt im
ur is
ment aire
Ġmar riage
Ġpos se
C opyright
ĠB ell
cou vre
di um
Ġu rban
Ġgegen u
o ise
ra ges
ĠR olle
hab it
Ġoffice r
Als o
Ġhapp ens
Ġeuro s
ĠC reek
Ġsign al
ĠAb end
Ġhin aus
ĠAs se
Ġ( âĢ
on ia
za beth
ĠR and
ĠMin e
Ġat te
> +
Ġir gend
Ġsui v
Ġnew sp
Ġshi pping
out ube
de uts
ĠTra vel
R S
ab ha
Ġsu chen
ĠS es
Ġsecond s
E mp
Ġg az
Ġwal king
Ġparf ois
Ġble ibt
Ġrem ained
Ġcre ation
Ġknow s
ac re
ĠH ou
ĠCl au
li ant
Ġbe is
ĠThe men
ĠSte ve
K om
Ġcon text
k ung
Ar ticles
Ġpl enty
Ġbe vor
n on
i ncl
L and
ew o
ĠA sian
rit te
au ch
Ġtas te
Ġmag ni
Ġb oi
ĠS H
asin os
ĠCh ief
Ġa id
Ġb ass
Ġ196 6
Ġang lais
Ġwh atever
ak te
F orm
ĠM ir
en burg
Ġrou ge
Ġprou d
ĠOlymp ics
ĠVert rag
Ġstar k
Ġarri ved
Ġpain ting
Ġatten ded
ĠAus wahl
bar en
G ar
ĠF riend
ĠH art
ĠSil ver
ft ung
Ġsor tie
li r
Ġslight ly
ĠIn vest
al ty
T re
v ain
Ġab and
Ġl ou
p endant
Ġte en
Ġf ich
P M
Ġh aute
ĠAnd ers
ĠB il
Ġintern al
Ġpar ent
ĠSchu he
ĠMate rial
ĠK raft
R et
Ġex c
ĠV ari
f ar
Ġop tim
ĠL abor
ent es
Ġm useum
ĠI rish
ĠE X
Ġsc ored
Ġt ab
ĠGru ppe
ĠE rst
Ġpo et
Ġnin e
ĠâĢ º
Ġb right
ve rein
ĠN icht
ĠA z
ffic ient
ĠW ales
ĠMc C
ri p
as che
ĠFol ge
ĠA V
ĠEnts che
Ġfu el
J a
Ġo k
Ġz a
Ġdi nner
it ts
Ġus age
e c
h res
Ġsch w
Ġch ac
Ne xt
ĠLi ber
z iert
able ment
ĠB oth
Ġprop osed
ĠM ons
gi ment
k tiv
Ġpro ven
Ġcount y
ten tion
Ġaccu rate
Ġpro fi
ĠL icht
ra li
x ie
Ġfund ing
ri o
y ou
th is
( "
enn y
Ġauc un
ĠCh allen
rau en
qui n
cri re
Ġinf rast
Ġcar rie
he ast
Ġl os
Ġch ambres
cont re
ĠN otre
m ans
ri ques
Ġcons ume
Ġlove ly
Ġb att
Ġgu y
Ġla quelle
ind re
ĠL un
Ġlead s
ĠThe ater
av or
ke a
ĠT yp
balle rs
Ġacc ord
ĠLie fer
ĠMed ien
D em
Ġr ise
Ġmat ches
ĠHei n
Ġi lle
Ġo c
Ġf illed
Ġnut zen
ĠMe ter
Ġgef unden
B M
ĠAs h
Ġ5 8
Ġge fa
Ġen vir
Ġgu est
h omme
ra ce
ration al
dic tion
Ġp ren
Ġen tered
Ġexce pt
Ġre gel
Ġter me
ĠGeor gia
Ġass ure
Ġag ents
ĠPatri ck
rodu ction
ĠVictor ia
s k
Ġc abinet
ĠF L
Ġsign e
ĠJus tice
p osition
aus ch
F am
we hr
Ġv end
Ġiss ued
Ġb la
te te
RE E
au g
ils on
ĠB row
ollow ing
bie ter
Ġn ative
ĠF orsch
ir ts
ĠW atch
Ġru b
Ġch annel
Ġme ant
ist a
wo hl
ĠD ur
Ġit alien
Ġeig ene
Ġdet ailed
Ġdur ant
} <
ĠSt udies
ĠIn iti
v ar
ĠBl anc
or tion
Ġb ain
Eng lish
Ġent stand
se y
ĠPi n
C ou
ĠSp irit
sionn els
Ġin kl
gen de
ord nung
Ġru g
Ġcri me
ĠCh am
ĠPh otos
L ast
un ting
Ġte ach
ĠWei hn
tiz ens
Ġmom ents
ĠC ore
le e
Ġcon vi
Ġpar ame
G A
ĠK urz
Ġcommer ci
AR D
ĠTor onto
no vation
Ġdest roy
Ġblei ben
Ġd os
Ġsing e
ĠI ng
s ol
Ġt ie
rib ution
ĠB ath
ĠA ction
oc cer
ĠB io
ensch utz
ĠM is
igu ration
ag ram
u an
ĠB ab
con de
ĠSo hn
Ġbre ath
Ġhe iÃŁ
ande ls
s ing
H P
ĠNe xt
Ġfe es
ÌĢ ,
ĠJ un
go ti
ĠD U
Ġsur vey
qu ar
ĠLi ving
Ġo ben
Te r
Ġvi ent
am ond
alle t
ro lle
onne r
iss on
ĠLy on
Ġste ll
J ohn
Ġ6 6
ĠSe arch
atic ally
a ven
Ġver t
l oi
ĠS emi
Ġsug ar
ĠSer ver
Ġmulti p
Ġt ent
Ġre j
ĠL auf
is tics
ress es
p ute
ĠL ady
Ġf ly
ah re
Ġhon est
Ġ7 2
Ġve ut
ĠGe b
ĠL ew
ĠW and
ro che
ĠM ill
V ER
Ã ¸
ck ed
te ilt
ĠConse il
ĠW ars
V o
ĠMe rk
Ġre cipe
Ġconcer ns
Ġd rum
Ġpremie rs
ĠB at
ĠF al
us ter
Ġdo ors
Ġch oses
ĠDet ails
ph ones
Ġg od
Ġar re
B R
ic ian
alie r
ĠMar s
ur l
Bl ack
Ġbro wn
us st
fe hl
Ġab ges
ĠP ict
Ġbor der
Su per
ĠGo vern
ĠSim on
Ġsal on
u cher
Ġsymp t
ĠS yn
f th
Ġretrou ve
Ġ6 9
200 2
ĠB attle
Ġj em
Ġrap id
Ġanci ent
Ġan nivers
AT E
c ran
ĠC el
ĠF ut
Ġfran zo
Ġfor ced
g les
bes ch
cont ent
Ġv aleur
li ct
Ġex amples
Ġtrans par
Ġaff ili
Ġsur f
Ġt ables
ĠP ant
ĠAt lan
ĠV oir
Ġde fen
Ġar chi
h ung
ust rie
Ġp ours
W E
Ġle ider
Ġe ating
ĠSchwe iz
rs pru
Ġp p
ĠSm all
f ra
C are
Ġcomp are
ĠN ap
ur m
ĠN ick
Ġdar u
Ġgood s
Ġmas sive
Ġexci ted
Ġben o
bens o
ili s
V P
nde rt
zeich n
gen cies
Ġbring s
Ġqu oti
ĠLe on
sei n
ĠBon us
Ġmont re
ck y
Ġw elt
O ut
g las
Ġg un
Ġsp ending
Ġin telli
lie ren
Ġcle arly
ĠG irl
ĠD S
Ġphot ogra
ĠM E
Ġze it
Ġcirc um
Ġgro ss
Ġmount ain
Ġconf ort
Ġsur prise
bot en
>Â »
ap ore
ro ph
ĠÂ» .<
ĠT en
Ġdar f
Ġpoli tics
conom ique
ut ation
ri um
ach us
ilosoph y
I O
Ġinst ance
b ung
Ġtrou ble
Ġkonn ten
rie ren
Ġci tizens
ĠAnn a
Ġf ourn
B ack
ĠG lo
Ġsing les
Ġup per
ĠRe cht
Ġs ample
Ġv ib
ĠC C
nt ario
Ġmus ste
ĠWi ki
Ġrelig ion
ru ption
Ġc rite
ow nt
Ġmon it
Ġt ourne
ĠBro ad
tra g
v age
Ġsche du
Be r
ĠYou Tube
ĠBur g
Ġdi verse
st yle
ĠBu ilding
n ar
oll ar
Ġb oo
Ġm anner
Ġconf irm
c ase
Ġsec teur
Ġhel fen
Ġpar le
ĠEmp ire
ris ch
Ġappro ved
Ġnom me
Ġcl oud
ĠC S
f ront
m ir
ĠN OT
ĠB lo
Ġk lar
Ġmei nen
ĠVer b
conom ie
Ġwould n
ĠA qu
Ġ19 44
Ġli re
m agne
ĠS amsung
ĠN ar
Ġpar alle
M ont
Ġl oin
D en
Ġ196 2
ĠL ot
Ġje dem
Ġer ha
pp i
ces sion
Ġglo b
Ġris que
av ant
ĠE ric
ĠEl tern
b ourne
ure rs
Ġt ap
Ġher vor
nd ung
b ad
ĠRegion al
Ġpre d
v ens
ĠThe atre
Ġi d
ru fen
an ing
OR T
gi en
lin a
ma de
b ou
et tes
ĠP ic
Ġsp or
mi que
Ġp it
O u
ĠF arbe
R ed
u ages
Ġor ders
ĠE p
Ġ196 3
Ġfield s
AG E
ĠBaye rn
ange rs
ĠCE O
ĠGran de
ĠColumb ia
ĠP A
rich ts
Ġau pre
Ġbegi ns
ilit ary
Ġsow ohl
ru re
Ġs ang
Ġaffe ct
ve t
Ġgu ess
Ġw illing
Ġde bt
ĠI ll
N ational
Ġsinge r
Ġcon cours
Ġexten ded
c ut
Ġexci ting
Ġfer me
Ġacce pted
ĠÎ Ķ
ĠJ r
A re
ĠD ir
Ġ7 7
Ġun less
Ġs ides
ĠC P
ande rs
Ġli ghts
200 1
im a
timm ung
Ġredu ced
r ors
ĠS ydney
Ġin vi
ĠB ien
Ġpor tion
Ġthe rapy
Ġca fe
B re
Ġde cre
ter ie
ĠT ar
line d
Ġer mo
Ġpour quoi
ĠG reek
Ġro ll
ro ck
Ġc ot
f ting
Ġcin q
hal te
Ġob ser
Ġwi nner
als o
Ġbi o
ĠS ales
ĠV oll
L ist
áħ ¡
Ġcons omm
ns ter
Ġgrand es
h ome
h yd
Ġad min
Ġch ief
Ġdi rige
Ġbo at
u als
on ge
ĠMit te
g ot
ad d
atter ns
ĠV ietnam
Ġt aux
Ġsug gest
D uring
Ġbehavi or
b n
ĠMa ÃŁ
Ġsh ower
ĠChe m
ĠJew ish
ĠO S
zie hen
th a
ges etz
S port
Ġwatch ing
ĠEd ward
Ġze igen
ĠEn viron
Ġh andelt
n ander
Ġrep lace
Ġf oll
y c
k or
New s
go ing
Ġim pe
ili an
ĠSpe ci
Ġapp are
g lied
ĠTh ree
tt a
ini um
i nander
Ġe ra
Ġpar mi
ĠEi nk
e ff
S tra
all o
C L
Ġlim ite
ti te
ĠMag azine
p ur
Ġf and
ĠMet al
Ġh ospit
ub a
gi ns
ĠL em
Ġfl ash
Ġhold ing
ĠD ruck
an ten
ĠIl linois
Ġg anze
ĠFe deral
kt uelle
ro ffen
ĠA le
ran g
ĠVide os
ren n
ĠSch laf
an im
ff t
Ġauf grund
Ġbatter y
pers on
aff en
Ġfl owers
O ver
b is
ĠE P
s us
Ġdoi vent
Ġres ource
ai ling
chn e
ĠN ature
Ġenf ant
st ances
achus etts
Ġmeas ures
ĠClass ic
ĠA rn
H igh
Ġcommun es
cess aire
ce i
ĠBrit ain
ĠD own
A ug
Ġp iano
ĠSh ort
Ġli en
ĠAl bert
ĠT ier
ĠK itchen
Ġp is
L et
Ġs outhern
f lex
Ġlog o
ren a
li cite
fer nt
Ġre aders
ĠD ES
Ġsou l
Ġappe le
Ġm outh
Th ank
Î ±
Chr is
C ha
Ġproje ts
Ġclin ical
Ġcon fe
lect rique
ĠMo del
Acc ueil
ÌĢ -
Ġat mosp
Ġad ults
Ġmed icine
et o
je kte
# #
B E
ĠP ru
nn y
ĠFe uer
ĠCar l
Ġst ret
W el
Ġjewe ils
ate au
ĠC ulture
ĠEx press
ser vice
ru pt
ru p
Ġal te
ĠI ce
Ġ rendre
Ġwoll te
le tzt
tern ehmen
ĠQu ar
ac o
ĠC ry
ĠF otos
ĠM ap
imm ing
ĠB und
M et
Ġto i
e ps
nt ag
ĠO range
Ġt ail
Te le
Ġge bra
Ġex iste
Ġpl anned
Ġres ol
Ġproper ly
ĠK al
Ġdis cover
n om
Ġdat abase
ab ord
Ġre ar
ĠF ox
Ġ196 1
Ġsl ot
rol og
ĠT aylor
Ġaccoun ts
ĠH ay
C lass
Ġfix ed
Ġwor ry
ti al
Ġfail ure
A pre
J ust
G ro
Ġle ben
Ġsuit able
ty pe
Ġutili ser
ĠSt yle
H z
H ar
ĠJac ques
ut her
ĠV iel
Ġob ject
ĠHe art
qu ire
zon a
Ġso ir
Ġpossib ly
Ð ²
pl ant
aue rn
Ġnear by
ĠAr ticle
Ġent fernt
ĠF un
Ġconce rne
te en
Ġme ist
ĠSt one
Ġ1 30
T ag
Mi n
ĠP ays
Ġcal ling
rit z
[ ]
w altung
geb ra
f ind
Ġgreat est
ĠSch ule
ĠP ul
Ġse asons
ĠM icro
it o
be ding
ĠS ki
- <
ĠA U
P op
T P
Ġprovi der
ig te
Ġ6 2
tier te
m g
ent ation
l ook
T i
gh an
ĠDi eser
ch ant
Ġc oc
Ġch osen
and o
Ġbus y
ĠD ro
was ser
Ġren ov
ĠAss oci
Ġmix ed
we b
Ġs ons
iss ent
g riff
Ġai me
Ġhist oire
tra gen
ke its
ĠAr gen
ni en
Ġci vi
g orie
Ġch ain
n ements
Ġplais ir
Ġerh ielt
h ens
Ġdesign e
ĠReg ister
ĠMa jor
t or
ĠKore a
as ts
ĠMi nn
Ġres i
m os
A uch
Ġy ellow
Ġhor se
Ġw alls
Ġbel ong
ĠR und
Ġges cha
Ġput ting
ringe r
ĠG reg
Ġcy c
ron ique
Ġsol o
Ġ19 39
Ġvor hand
qu est
ĠAl ter
Ġm au
Ġconse il
ĠOx ford
Ġv ul
H a
Ġmoy enne
ĠBi ble
ĠLie be
ĠDeuts ch
ric aine
ĠThr ough
etz en
Ġgut en
Ġvis ual
Ġge fu
Ġvis iting
ent o
Ġ6 8
M en
w el
Ġv ais
ĠR an
Ġda ÃŁ
Ġb ewe
Ġsurge ry
F ind
Ġsti m
Ġmain ly
Ġoffice rs
Ġmo vies
E very
Ġne ut
hr lich
arbe itet
en ters
Ġau rait
ame ra
Ġal ten
Ġmal ad
Ġdrin k
ĠâĢ ķ
ari at
ĠP fl
ĠR ing
ĠPre ise
ali a
Ġrefer red
Ġde als
ĠH P
Ġsupp orts
k arte
Ġmilie u
ĠT ages
ĠEi nt
Ġstand ing
ĠD rive
ĠMi x
ĠN ations
fu ge
M I
Ġhal ten
Ġthe r
Ġupd ates
ĠCou pe
ĠD J
wor king
AS S
Ġearn ed
Ġlic ense
ro se
Ġdefin ed
vers ion
Ġdes c
M ag
ĠWe iÃŁ
Ġ6 3
Ġbeg ann
Ġprote i
Ġtw ice
Ġvict ory
li tz
R L
ans on
ĠLeip zig
Ġtell s
ĠÎĶ E
Ġhe ight
Z u
Ġprotei n
Ġenh ance
Ġk a
ac tivite
Ġpro che
ĠR on
g yp
Ġfact or
ati ble
Ġdesigne r
ĠT agen
ĠG est
E d
Ġdis ting
tim ately
ff net
Ġfal se
Ġele kt
Ġg athe
ĠTri p
ĠTe ch
quisi tion
Ġeval u
ĠDei n
ĠSal z
ĠSch aus
Ġpl ain
ĠW ide
oo den
omi ni
ĠT out
ff re
Ġre de
Ġrec o
V ol
1 20
Acc ording
Ġpre pare
ĠHar ry
Ġme mbre
ame r
Ġh u
Ġtop ics
Ġsub mit
Ġp hr
ĠN am
Ġcou leurs
ĠM utter
ĠScot land
ĠB ridge
ctif s
Ġw at
uch s
ĠFe rien
ĠVill age
Ġmer ci
urs t
Ġimpro ved
foli o
ĠColor ado
Ġidenti ty
ĠV ier
c ard
B ibli
Ġte a
Ġind ique
Ġtal ent
Ab out
St art
atri ce
ew ay
Ġfact ory
Ġli vres
Ġchamp ion
rus h
tif ie
ĠAn other
Ġreve aled
ing ly
ĠKir chen
Ġ18 0
ĠR oll
Ġbring en
ib ility
li ve
ĠDire ct
Ġsom it
ut zer
oth ing
Ġbe at
ĠCom mon
Ġt rend
Ġ195 6
ĠM ail
agn ie
Ġb ridge
ĠR hein
ment aires
Ġbro ken
rent ly
Ġen ds
L ou
ce des
ĠRei n
s ki
ĠL ook
ĠBe e
Ġc la
ache lor
Hist oire
ahrs chein
Ġcamp us
ĠM use
ins on
ĠAl ler
Ġtic kets
ĠIde en
ĠB C
Ġw estern
Ġfig ures
ĠWal ter
is si
me m
G O
N et
Ġpre mium
Ġn orthern
Ġcre w
ra e
k h
i nc
Ġa vi
il ton
ĠEx tra
or den
sult at
M O
Ġun ion
Ġsty les
ou ri
ĠCi vil
olog ist
Ġhe aring
se ille
Ġ195 8
ĠM athe
Ġremo te
Ġv ois
Ġsig ns
ind ex
M ais
ĠCi n
B et
ĠPos te
Ġg lu
lieÃŁ end
ĠAd am
rel ated
Ġt aught
Ġse chs
ord re
ĠEv ents
ĠT ic
ĠIs lands
ĠD un
ĠWohn ung
Ġcon j
A ir
Ġa ctor
Ġcerti fic
Ġg olf
ĠFor est
Ġne ck
r fen
Ġfran ch
Ġch art
ĠL atin
od a
ĠAndre w
Ġk aum
Q UE
ionn at
Ġra is
W S
Ġ[... ]
ĠEst ate
Ġv ary
ĠJ am
ste lle
st ream
Me i
ĠEin wo
k raft
Ġter mine
Ġbrand s
S ub
ale m
ĠA udi
B ri
Ġexp lique
Ġinte lle
ĠQ ues
Ġedit or
Ġmein em
ĠB r
an es
C al
Ġc abin
Ġne ues
Ġex amin
Ġdes ire
ĠSt rom
Ġw es
mar ily
IS T
Ġcele bra
ob en
E st
Re ad
Ġr ural
an lage
ĠK y
ĠW ett
zahl ung
ĠBet rieb
ĠKe r
ĠPre mium
IC E
Ġfre edom
Ġpres se
Ġ19 48
ĠEas tern
Ġl u
ll o
ĠWei n
Ġa wards
Ġ7 8
Ġdisp ose
ĠErfol g
ĠMon te
ĠW here
Ġl ac
ĠC ab
Ġagre ed
Ġqu iet
Ġrec her
H ier
iz za
p our
k as
Ġimagin e
K o
ĠD id
Ġmari age
Ġacc ue
ĠD orf
it ag
Ġc Åĵur
Ġar my
Ġfeed back
mer cial
A v
ĠPra c
d agog
ve ux
Ġsee k
Ġdri vers
L ocation
Ġco ck
de aux
Ġ195 9
ĠZu kunft
Ġtra cks
Ġhold s
Ġje de
Ġc orn
ust a
ĠR ichtung
Ġi con
t ons
ag ues
ĠI st
ĠS enior
Ġg al
c ter
Ġf ir
Ġdim anche
Ġbes cha
Ġsch we
ĠPres se
Ġer ho
um ption
ĠC os
C ap
c r
fol ge
ie ls
ĠM un
ac tive
ĠD I
N ote
pl us
lis chen
u els
ish ing
Ġbi ke
ce p
Ġ6 7
Ġbelie ved
ĠL ocal
Ġdom ain
de te
une r
Ġset tings
Ġtot ally
op her
C lick
ĠMar c
r me
ĠE dit
EL L
ĠSo vie
b ew
b ig
ĠF antas
Ġes c
Ä ±
Ġv ite
Ġsp an
a way
u ÃŁ
Ġt ac
ĠD ol
hi bit
li gh
ren cy
S al
h rige
ang le
Ġen em
O h
ĠJ ane
Ġbirth day
u gh
etz ung
N S
b ell
ĠIn ves
ĠB ah
zeich en
f rom
Ġsh oes
ĠF arm
Ġau ra
" -
Ġligh ting
Ġs ad
ĠP flege
C or
ĠIm age
ĠUn terstu
ats a
Ġpart age
G R
tern oon
Ġconn ai
l ong
ĠN S
lection n
ar is
Ġgre w
Ġma x
Ġtow ns
Ġgau che
A me
ĠK ath
ĠG T
Ġra ise
p df
Ġ7 6
Ġak tiv
ĠC op
Ġas king
Ġcir cuit
ch utz
ownt own
Ġsch olars
ĠT on
k at
al ler
Ġc odes
% ,
Ġwhe el
Ġbe ge
Ġsee king
ti ste
ĠFem mes
Ġm ig
Ġb ord
Ġbring ing
Ġdog s
ĠK ids
H ote
H and
athe rine
ex pe
ĠPe ters
ĠProdu cts
Ġdec ades
Ġau ÃŁer
Ġcapac ite
ĠV orte
s ence
Ġcommer ce
Ġl unch
wor ld
ĠM B
Ġsc ulpt
ree ts
cid ents
ĠDou ble
Ġve ra
ĠSt ru
ĠLin ks
ĠO cean
ĠBe de
us ch
Ġis ol
ati ven
Ġp ai
+ +
ĠBe z
ĠS ant
m atique
Ġtex te
Ġna he
Ġser ves
H ol
ter dam
je ts
Ġve ri
Ġsp lit
Ġp ull
Ġand ers
Ġfoll ows
Ġne goti
ĠBe fore
pe ople
zeich nung
co hol
ĠS old
ĠB lock
Ġles en
w all
ĠN O
Ġth read
urs ing
ul ous
ĠV ie
D ire
ĠY e
se tzung
Ġpar is
Ġdom estic
Ġchois ir
ĠStra ÃŁen
Mer ci
phi a
Ġfamili ar
ĠD ach
Ġfin ale
Ġprodu cer
ci o
ĠSqu are
Ñ ı
1 10
( )
ĠE ing
Ġmo le
kt op
ĠM ission
Di ese
Ġm ou
ĠAlex and
Ġs cript
Ġpa pers
te re
ĠA ge
Pl ay
ge ld
ĠNe ue
ĠT hi
R C
Ġpriv acy
Ġhe ro
Ġf aster
Ġcapt ure
Ġimp lemen
ĠCl oud
ĠPar ti
it ations
Ġpo ker
Ġmit t
Ġbis her
ati sch
tz te
Ġ19 42
Ġst ab
ill age
Ġvis ible
Ġache ter
Ġli tte
ti o
ic y
B el
Ġman que
cor ation
qui valent
ĠAp art
hn lich
we isen
fi ques
Ġpre gn
Ġ: :
chen k
Ġb oys
... )
On line
Ġdu rable
Or gan
ĠPak istan
Ġp om
bar a
Ġv oix
isch of
Ġwe g
Ġsein es
. âĢľ
Ġreli able
Ġth ick
ĠAth le
ĠE lement
es ota
Ġj ew
ow der
p al
ĠT ous
ĠMem ber
ĠSe rie
Ġ195 7
ĠG il
Ġsit ting
ĠO ntario
ĠN ur
Ġlo ad
ĠR oute
Ġa men
Ġexpl ain
ar gent
per atur
ran ger
Ġg lau
Ġwe alth
Ġmo tion
ĠOb ama
Ġrem ind
ĠProvi nce
Ġdes i
ĠH ai
reg on
ĠR un
Ġter ri
Ġvi ce
N ame
ĠJ ava
Ġâ ĸ
Ġhistor ic
ens te
is ser
Ġsee med
Ġref le
ĠLim ited
ĠA B
ĠAsse mbly
ĠG rat
Ġany where
Ġadap te
Ġapp s
Ġind em
Ġcons ists
Ġn atur
Ġwe i
n ed
ĠJob s
Ġcho ices
ID E
ul ted
tim men
Ġas pect
ĠD res
a vi
Ġemploye e
ĠAn im
Ġ19 46
l ay
ĠGal axy
ĠR as
Ġor dered
ĠJ i
ram ework
Ġhyd ro
ĠJac ob
Ġbut ter
es pe
Ġc reat
k tions
Ġarbe iten
b ene
Ġspe ech
G en
Ġ rough
ti lle
Ġsch wer
ĠS M
Ġauc une
Ġill ustra
Si nce
Ġa illeurs
S im
Ġbrow ser
Ġim me
M ost
ĠJ azz
Ġconse ils
Ġp ron
gor ith
uch ten
. ),
ard o
gel n
Ġver m
IN T
ĠGes amt
ĠG ott
la ut
ac ke
Ġne uf
sch u
Ġde fense
Li n
Ġd oss
Ġprom i
Ġmondi ale
N i
ĠK ris
Ġpar c
y ard
Ġse vere
ĠâĨĴ <
Ġsci ences
ĠCa fe
gi ble
aise r
Ġmonth ly
Ġsol ar
e uro
Ġfe els
ĠB ol
n nt
Ġet h
ten u
áĦ ĭáħ
Ġcom b
Ġcon g
ning s
ĠKe i
Ġ14 0
Ġcont est
Ġper mis
E lle
Ġf onde
ĠN orm
ĠW ilson
du ate
ĠMal ay
S ep
F S
ĠIsra e
W ell
Ġadv oc
U K
Â §
r ten
ĠB ureau
ĠS ab
ĠV ene
p ublic
Ġle ather
Ġe c
ĠDie u
Ġtur ns
adel phia
las si
ĠP ur
Ġz ones
Ġlet ters
fe hlen
up art
ux e
Ġp atterns
Ġren ew
ff n
Ġ195 5
Ġpri vile
Pub lie
p ost
ĠHo f
av ais
ĠHistor ic
ĠIn stru
ilome ter
t range
Ġor ange
p ot
empl oi
enn a
ute ur
ĠJ ordan
Ġtru ck
E sp
ĠProble me
ust and
ĠE ssen
P reis
me isters
ĠVe gas
Hote ls
Ġstru gg
ĠCh ange
Ġre form
vers ta
ur ier
zent rum
Ġses sions
rb ung
ĠD ok
Ġh ur
och ter
ar tement
Ġen reg
val ue
. âĢľ<
i ling
ĠF r
Ġcons umer
Ġreco very
ĠM and
re me
Ġstud ied
Ġc ult
Ġf ellow
Ġpl upart
ĠEx per
sch rift
ĠPro vin
ĠPoli zei
ĠE isen
Ġh ockey
ĠSte uer
We itere
cri be
ĠA udio
ĠS lo
i v
Ġsoci ale
Ġ19 43
Ġ19 41
ĠSt o
Ġdou bt
Ġ195 2
ĠF eld
ob ilien
Ġlis ting
force ment
Ġair port
ĠB ody
Ġdis count
ĠN ige
ĠPh ys
" |
im ages
ĠGu y
Ġflex ible
Ġne uro
Ġj oi
x ic
Ġmy th
Ġe g
ĠC art
w hile
Ġinst ant
ĠDam it
ĠBro ok
Ġne r
K ar
Ġsame di
Pa ul
w art
ĠPriv ate
Ġcont rat
nter est
ste hen
bers icht
ma tics
Ġp ump
Ġst ring
ĠCh at
ul um
Ġ6 1
ĠHel p
Ġhundred s
hal f
ul d
Je an
ĠheiÃŁ t
Wor ld
gra tion
Ġv otes
Ġaffe cted
ĠArchi ves
Ġk ick
Ad d
ag u
ĠGe burt
Ġsen si
K on
Ġsau ce
ĠC N
ol en
Ġob jects
ĠWe ise
E X
Ġgar de
Ġaut ant
Ġte chnis
ĠUS D
ĠIde as
ungs ver
am our
o tic
Ġv oi
Ġlang ue
A g
Ġfav ou
rs g
Ġcou pe
ĠK as
Ġspe zie
it re
p res
Ġde ri
ge gen
Ġcar bon
ĠJe ff
Ġpub lique
ĠC la
uis se
Ġport able
Ġtrois ie
Ġ3 60
Ġfru its
di ge
Ġsh ares
se ud
ĠV illa
G re
atel lite
c ier
Ġso zi
Ġj ump
ss eld
halt ung
ĠO ption
IV E
Ġfac ulty
Ġge gru
ge ord
Ġstand s
ap h
B en
ĠSe ason
ĠK ranken
ĠVer kauf
Ġt ough
H D
Ġspi n
Ġmed ic
om y
Ġra b
ze rn
b ly
fi es
ĠFe de
Ġsex ual
L oc
S ing
gi an
Ġ8 8
ĠBri g
19 99
Ġorgan ic
sch uhe
ai g
Ġbeste hen
ĠDe ad
Ġcon crete
ĠD ig
Ġy es
Ġsympt oms
Ġj ui
Ġm arine
umps ter
m ing
ĠT rust
zahl en
Ġbes oins
Ori gin
ĠBar cel
Ġobtain ed
all es
ous es
ĠK os
ĠSte lle
end es
ĠT enn
Ġ Ø
Ġv ont
p per
cher che
or row
Ġm ots
Ġmat ters
B L
ĠU rs
Ġ19 49
Ġc aught
Ġa de
Ġope rated
Ġai der
Ġj oy
Ġcook ing
ĠL LC
ĠBu y
d ale
Ġwel ches
E arly
M al
Ġval uable
ĠF ro
Ġ195 4
S el
Ġret ail
Ġm l
ĠV ater
ĠT isch
ĠP ad
u med
ĠSen ate
tra ck
S y
ĠD utch
Y es
orm ais
ĠHo pe
ri mer
ler n
Ġ19 47
Ġsupp lies
ĠT rib
ĠLud wig
lin ge
est ens
ĠSt atis
k g
ep ing
% )
Ġche ese
J oue
00 1
as tic
ffe rs
Ġtrain ed
AC K
ich ter
ĠP ain
Ġer reich
Ġg allery
Ġpri me
ĠB L
Ġreg ister
ĠMode ll
ff age
ck now
P T
m t
Ġersch ien
ac on
ĠD ad
min ation
Ġbe tre
us te
Ġgew esen
u ille
on ces
ĠðŁ ĺ
se rie
Ġre venue
ra q
ken nt
tit led
T u
O ct
omm age
Ġ9 8
Ļ Ĥ
am ents
Ġmanif est
Ġl ayer
Ġpe ux
ĠMed icine
Ġrand om
Ġhe u
Fu ÃŁ
Ġcri tic
ĠD avis
lis che
val uation
W ar
he w
Ġf alls
ĠZ wei
me hr
re ur
nis h
ĠO il
Ġer forder
E U
Ġdis h
G i
ĠR ud
Ġein igen
Ġconn exes
Ġtre ated
Ġfac ilit
Ġm ill
des ign
Ġth or
ĠA uss
room s
ar on
ĠI ss
Ġma tin
st ate
ĠC orn
h ops
ĠCh ance
ent h
Ġr ental
loy ment
g are
Ġp oids
Ġout put
s ormais
ri di
Ġze hn
Ġliqu id
is p
ver te
Ġb urn
n os
ze ugen
ge ts
ie ÃŁen
du it
Ġvendre di
ĠM AR
ĠB BC
ĠO ak
ĠSte el
Ġli es
d ar
ĠPortug al
Ġcomp ens
ĠN atural
ĠH it
ĠZ ur
Ġsole il
si ns
ant h
ĠT oy
ĠU ser
Ġar ms
M T
au re
An y
be z
con sin
as chen
Ġro i
Ġgl ad
od cast
ĠS ans
s atz
ath on
Ġcolle ct
Ġfil ter
Ġ19 38
Ġ9 6
ok es
Ġfor est
ĠHol y
ĠS ource
ĠA h
ĠT r
ĠE th
ĠRo ber
ĠK olle
Ġ7 4
ĠMit t
b ility
Ġf ron
Ġdro ite
T ype
B D
ĠE he
P G
ĠChin e
Ġreg ul
Ġasse ts
Ġc able
ĠWil helm
Ġw et
est he
Ġ195 3
f angen
vi ter
ĠC ome
lan gen
Ġretur ns
Ġatt acks
< /
ng ig
Ġmil k
ĠProm o
ĠG irls
ĠSovie t
Ġind ex
ĠM D
Ġ12 5
Ġle quel
ĠX V
int ure
ä ¸
Ġor d
ri nt
ester day
icher t
ou vel
new s
old ing
Ġme al
Ġ8 9
M ich
re chen
ĠS O
c ket
tex te
Ġâ ĺ
ou b
Ar ticle
Ġhist ori
Ġsp aces
L ove
Ġcut ting
ic ker
bers ch
qu ette
Ġmo teur
pro chen
ig ten
Ġam is
âĢĿ .<
ĠSteph en
b aut
Ġwo bei
ĠAg ain
Ġbase ball
Ġdes halb
Ġhard ware
H owever
Ġpar ler
Ġm oun
ĠW y
hr ungs
ĠSar ah
Ġentire ly
ĠTra de
! )
tis sement
f unction
ten s
ĠP osition
ti ls
Ġver bes
Mei n
oul der
C ur
ĠJuni or
c ure
Ġdru gs
ĠRes ort
Ġunde rg
Me hr
ĠT reat
ĠT at
Ġincor por
Ġtax es
C R
ĠSi x
Ġs alt
gh a
ord on
pp y
Ġfood s
B ro
Ġl osing
Ġtem plate
C i
cu le
Ġy eux
ĠD aily
Ġwe ak
ĠCor ps
Ġun able
se ments
Ġex ternal
Ġass ign
l aden
ĠCom me
iss es
rop oli
ĠHa use
ĠB ade
lot te
Ġk ont
Ġa cid
ĠA y
ĠSta aten
xt ure
Ġt ub
c tivity
ĠAr tist
Ġnet works
ra lement
Ġdou te
ĠAn aly
ĠEx plo
fl uss
b ing
Ġconf lict
ĠF ashion
ĠR oss
Ġpre par
W ind
ĠC ela
me e
ĠDe b
ĠT oul
Ġconn u
k ur
Ġclai med
Ġ9 7
ĠTh om
Ġspe aking
hol z
Vide o
M ax
Ġwide ly
ĠBau m
ĠF red
i ra
ti enne
ĠDon ald
gend a
ĠS U
ss ig
Ġu nge
Ġsor ti
ag on
ĠR ight
ĠS em
Ġb ot
L og
A K
qu ality
Ġpay ing
Ġpra k
ĠCe r
ĠPhili ppe
ĠCo ver
hy th
Ġgee ignet
il st
ĠJ ung
ag ent
Ġen fin
as ant
ĠH at
Ġ19 33
C I
ĠInd ep
all as
Ġre alis
be e
G S
Ġdar an
ĠAut or
Le ben
Ġre alize
be ck
termin e
Ġzu dem
Ġver lor
ĠC ann
ĠJe ux
Ġde ck
ĠM ale
ĠJ etzt
Ġdep th
rs en
ĠH ab
Ġte eth
Ġme at
ĠG ree
Ġge geben
ati k
Ġfi xe
' <
ci alise
ĠM illi
ĠDie go
Ġp rest
ĠMon th
Ġu k
it ten
Ġ Ù
L ab
Ġro les
ĠB ir
We r
rit age
Ġres pe
ĠG r
we ar
Ġhor iz
ers e
Ġsk y
) )
o der
cus sion
Ġa gencies
ĠV el
G est
ĠG B
ĠMer ci
Ġkind s
M ess
Ġexe cu
Ġp ed
ĠM agn
Ġent h
Ġb ist
P ublic
Ġaus ges
C hi
b ow
ti ous
owe en
Ġequ al
Ġregel ma
ĠP ast
Ġp ale
Ġcade au
Ġe au
Ġpe au
Ġjed es
bewe rb
ĠItali en
Ġapp el
ĠPa per
Ġaus sch
V E
ĠB ois
ĠT owns
Ġsi zes
Ġse ats
Ġlux ury
n ous
ĠT ony
Ġless ons
ĠS tie
I d
Î ¿
Ġreser ved
Ġge k
hil fe
X X
Uni on
ĠF alls
ĠBegi nn
ra ire
Ġk i
Ġpos ses
ĠPro cess
ĠUm gebung
ĠBeit ra
Ġ7 9
ĠL ager
an ded
tel lig
Ġ( +
Ġsol che
ver band
ĠG ut
ĠE ro
G oogle
ĠMo on
Ġcris is
ik a
Ġvi vre
Ġp oin
Ġshe et
ĠAp r
ĠPoli tik
Ġ16 0
ĠAr thur
Ġc ab
att an
ĠR id
Ġstop ped
Ġsupp osed
ĠD ru
olid ays
Ġtyp ical
ĠM ath
Ġde ven
pf lich
Ġass ocie
Ġp orn
Ġmag ic
ĠMi ami
ĠM O
ĠL ac
ĠSchl oss
ĠA ve
Ġl umie
Ġremp lace
cla re
Ġzwe ite
ĠO wn
Ġch ai
Ġchac un
Ġw is
alist es
ic ile
ĠDies es
old s
Ġfi nde
Ġo vers
ĠCast le
G reat
Â» ,
ĠHein rich
ĠSp i
ĠI M
zieh ung
áĨ «
b ay
Ġdegre es
Ġa te
rin a
el ess
Ġyou nger
Ġl undi
em s
Ġre vi
Ġmi ning
ĠKre uz
ĠO l
F T
Ġche min
ĠD oppel
ĠSi ze
ĠW ort
ÃŁ te
Ġn one
F OR
Ġsem aines
Ġ19 00
g ues
Ġde vi
Ser vice
sp iel
Ġc ake
nis chen
ain less
rit able
Ġc elles
Ġhe i
Ġcommon ly
org ung
c ution
Î ¹
ple x
Ge rman
Ġg ay
Ġchap ter
ĠMil ler
ĠVer kehrs
ĠM ou
V O
u elles
ĠZ i
Ġshi ps
Ġfit ness
Ġm use
Ġvis ited
ro e
ĠWhe ther
g ten
tra i
Ġa mi
lo aded
re ise
ĠD ia
k ungen
Ġdan ach
ĠS D
s or
ze igt
Ġbe ide
Ġrelie f
Ġe benso
te ri
che l
n lich
la tive
u ary
ĠE mail
r ter
Ġletz te
gra d
Ġins pe
Che ck
ac ker
W a
ĠFar ben
ograph s
Pro gra
or able
Ġnah m
ĠHal b
C ons
Ġâ ľ
Ġer fahren
Ġbe ar
ach at
li en
D ownload
IS S
Ġob tenir
Ġtri g
Ġ7 00
ĠBe rat
we gen
Ġeuro pa
Ġ3 50
ĠF act
Ġplan et
le tte
ĠCh ambre
v olle
ĠR ound
V C
Ġachie ved
id ance
m oire
E P
alen der
ĠL ad
be tt
Ġac quired
nd igen
ĠF itness
ĠWelt krie
Ġein f
ĠMin istry
P ierre
Ġs our
Ġin put
ĠM ind
ic ide
b rid
part n
n ch
ĠAri zona
R est
l ter
wer ke
H R
Ġcon serv
ers to
c ra
ric ulture
ĠE is
Ġgro wn
ogn e
partn e
tt o
ĠSaf ety
ĠLew is
Ġro w
Ġrecip es
B ra
ĠP unkte
gu lie
T O
Ġconc ur
Ġauth ors
ĠWe itere
ng lich
ber haupt
O f
Ġquar tier
nc ol
Ġrail way
Ġ \
Ġjoue r
v u
c am
me ter
couvre z
Ġvers e
Ġti re
Ġcharge d
Pre vious
ĠB onn
ĠH ung
ĠMad rid
ati ques
T od
ĠL ocation
ĠGe org
nd ige
?? ??
ĠLe ute
Ġou v
ĠSp ielen
S et
ĠReg ist
Ġope rate
h rigen
" ).
Ġ7 3
ĠFin al
ĠH aute
Ġoff res
at um
ene ver
AN CE
ĠLe vel
Ġul tra
ĠBri an
Ġmanage rs
asse ur
ng t
ĠR yan
Ġ195 1
g liche
ĠNouve lle
I K
n ull
Ġconce pts
Ġs ogen
h andel
Ġ19 36
ĠSpe ed
Ġgew ann
Ġinter ven
& #
k arten
Ġri d
ĠG lass
Ġgen annt
Ġinsp ire
ĠNo e
Ġtic ket
it zer
Ġn our
Ġen tie
gne r
ĠPri nt
ĠB elle
under ts
Ġmar ch
ĠPe tit
k tive
we gs
Ġch icken
ĠT ochter
Ġen voye
ĠKe vin
ER E
ni es
Ġf ighting
ĠSe ction
ill ance
e ffe
h s
ĠH ind
quip es
Ġlett re
ĠI d
Ġoffic es
Ġg amme
p el
Ġdec la
Ġsh ock
ĠS her
vo que
en sed
Ġreg ions
Ġt rus
Ġ8 4
Ġm agne
Ġl atter
Ġ9 2
pro fit
Ġg rass
Ġdel ay
ch tig
Ġhe rself
ĠI ron
Ġgru nd
le vel
ĠChris ti
Ġerst mals
^ ^
A lex
Ġ9 3
Ġor ient
Ġdes k
sionn elle
ĠMi k
teil en
ande ln
Ġ19 14
m oine
Ġre chts
d oc
ĠSup reme
ĠLe der
ron ics
ĠBM W
Ġvi ntage
Ġvoc als
ĠEr d
P O
Ġatt ached
ĠT ou
Ġcamp agne
Ġt atsa
si d
ĠQu ali
ateg or
ĠCe rt
> .
en dence
Li fe
Ġb ald
gn es
Ġlin ked
ĠH op
rie rs
ĠInd ones
no te
ber ge
OS T
ĠNutz ung
N a
vent ures
h ors
ta pe
ĠD R
u um
ave c
Ġs la
Ġpetit es
l anta
ĠSal on
Ġclos ely
b oy
Ġmee tings
ĠG leich
ff s
B B
Ġb ronze
pa per
Ġsu ivi
ÃŁ t
Pers onn
ru f
or ters
m ag
ÃŁ ten
p ati
Ġt um
Ġt ours
An other
Ġw id
Ġmy ste
Q L
Ġhos ted
ur f
ĠD ating
Ġg le
ten ces
Ġsti ck
ĠBra d
op tion
Ġ8 6
v ents
ĠBre ak
Ġin cident
ĠAk tiv
Ġlo ans
ĠL ors
tin es
Ġho he
Pers on
Ġ| <
ĠSte llen
In te
ge richt
f ris
Ġdis par
aut om
w illi
Ġp ink
ĠJohann es
ĠðŁ ĻĤ
R ad
ĠPre mie
s chen
Ġtas ks
ĠO h
1 000
ĠOffice r
Ġfi fth
si dence
ti vis
A vec
ĠLeist ung
Ġet hn
o it
ĠF ly
ĠH yd
Ġho hen
Ġou i
S ource
ĠMon ate
ow ing
ĠT her
Ġprese r
D ies
Sp orts
Ġpi pe
Ġeffic ace
uni or
ĠEnt wick
Ġnew ly
w ords
Ġm ile
Ġo d
Ġcar re
Ġsel ber
P DF
Ġin vent
Ġg orge
Ġra ting
ĠStud ents
Ġh ire
Ġbo dies
Ġk ill
} ,
Ġdev rait
Ġsk ill
tee r
Ġman ip
ĠO K
ĠSu pe
ĠLe arning
Ġra y
m outh
Ġbere it
ĠL ap
ĠBas is
t rans
ĠS ony
Ġein zel
im g
ĠV ac
And re
Ġte ch
T ime
sseld orf
Ġv ast
Ġm ath
Ġvoll sta
Ġar me
mer n
Ġh au
Ġcri minal
w p
E m
Ġun known
ĠCook ies
Ġb acte
en cing
ĠO regon
quen cy
Ġconst ant
Ġp ill
ĠSn e
ĠS now
ĠZ wischen
Ġfin anz
ĠL ic
ĠHou ston
si ze
ites se
us ing
Ġde le
Ġp hen
ĠL en
Ġact ors
ris tiques
ĠÅĵ uvre
ĠB ass
m ale
nd lich
ktion en
Ġsud den
sch ung
.. ...
ĠLe ave
ks am
Ġprin ted
se tzen
ĠFre und
chest ra
ĠF urther
ie z
ĠAnt wort
Ġdam als
pective ly
ĠMens ch
Ġh am
Ġclo ser
199 8
Ġc ric
ĠVe ra
M u
ann els
Ġdest ru
el la
Ġcou ncil
: :
Ñ ĭ
ĠF as
ĠB aden
Ġan sehen
ar ts
ĠR ace
AN S
L u
Ġknow ing
oc a
Ġ8 7
Ġtit les
Ġerre icht
Ġgew orden
no is
ĠQue ens
ĠFir ma
Ġsp ielt
ound ed
ĠGre y
Ġfish ing
Ġc rash
ĠD ance
end ra
ai ry
Ġsav ing
ĠStud ent
rage d
Ġdi plom
at hi
Ġpres que
ĠP om
ra cle
al tet
Ġse tt
ĠAns pru
ĠLe arn
los en
R i
aut or
laut om
th ode
ĠH ur
Ġsh ut
ĠD ream
ap ter
igh ter
Ġdi abe
Ġbig ger
Ġk lass
Ġaus gest
ign on
S outh
clar ation
Ġre je
Ġven ue
d ical
la it
Ð ¼
Ġwe aring
ĠSE O
ĠComm un
Ġd uty
Ġb anks
Ġevery day
Ġdern iers
b lich
Ġbede utet
Ġcri tique
ĠHe raus
Ġhy per
ail and
ro d
Ġt ennis
ĠUk raine
ap ons
ar rive
Ġan th
H O
Ġcomp orte
ut or
ric ing
ĠPl aces
Ġs oire
ĠS ide
ĠP AR
Ġr uss
Ad resse
ĠSon ntag
ĠIn fo
Ġtw enty
ess es
r r
ĠH oll
Gene ral
ĠN ice
Ġme uble
o be
Ġvill ages
Ġmis sed
Ġchem ical
z iel
on ed
ni k
ni ge
th at
ĠMe ister
schaf ts
Ġe book
G ood
Ġaj oute
ĠH appy
pe ten
ĠS ig
ational en
K u
ĠSpa ÃŁ
Ġconn aiss
Ġg olden
Ġab use
ĠFahr zeug
ĠHeim at
nder ungen
ĠDe ath
uten ant
nis che
Ġ10 1
M any
f allen
en nt
ig are
Ġgradu ate
di ent
Ġac ting
Ġjud ge
Ġind u
Ġhe av
own ed
yn e
te z
ĠCl ar
ament al
Ġreti red
Ġcomple t
ik ation
C olle
lic it
prechen d
ĠA gency
ĠBraz il
ĠSp rache
j s
ĠC ape
ĠCap ital
Ġpay ments
Ġt ight
Ġ ....
Ġde mi
v oi
lt nis
Ġa cknow
ue rn
ĠBern ard
ter re
ĠP ear
Ġ9 4
Ġcom edy
os tic
Ġemp has
Ġch anger
ĠUp date
li ca
ĠMem orial
em a
ĠPol and
ed u
ĠKei n
ie ment
Ù Ĭ
l ent
Ġ8 2
ĠGes etz
Ġent de
cy cle
ĠF an
Ġdig it
ĠTele fon
m od
D ist
Ġeffect ue
ĠBle u
fl ug
ĠGovern or
ĠUs ing
R el
ĠFin ance
ĠBu ff
Ġopti mi
Ġdefe ated
Ġvill es
st altung
Ġtra il
bal ler
esse e
Ġbes onde
v aux
ude m
Ġ7 1
Ġus ual
ĠV I
Ġo lymp
t able
12 5
Ġsh ooting
are r
ric ts
eto oth
Ġ8 3
ĠH ills
ĠGew inn
j ack
Ġk la
Ġprovi n
Ġsui vre
ĠS ri
- )
zz le
i ans
re ll
Ġl en
ma x
Ġa ges
Ġ19 18
tis m
Ġmus cle
Ġbro ke
Ġme re
ri ll
ĠGe fu
ĠTi pps
b ian
Ġc ache
wri ter
id ae
ĠRei he
Ġtu be
ra ub
ĠJ ul
ĠV ar
N ove
Ġsh a
hei mer
u fe
B ER
ĠAnton io
P rin
oo re
Ġav aient
Ġbest a
O pen
Ġla g
Ġse ctions
Se c
Ġaus gew
a ill
ãĤ Ļ
Ġke eps
Ġpre dic
Ġinvi ted
ĠOut door
al bum
Ġnar row
Ġst ages
Ġconten u
P ra
Ġg anzen
her lands
>| <
Ġd onn
Ġsch u
Ġv ig
ĠKore an
Ġsl ots
f ragen
Ġcons ist
Ġpass ing
zi ge
Ġdi ame
Ġoccur red
Ġhe ll
19 90
al on
ĠSti ll
Ġpers ons
r als
ĠI raq
s ub
ric a
12 3
ant ry
ĠAu ÃŁen
ĠSo zial
ĠiP ad
O nce
k ont
hr ten
g ate
ĠProdu ct
ĠTra il
, -
ĠE del
Ġfac ing
Ġ19 37
U se
ĠT aille
h ost
as hi
ĠNe ver
Ð ´
Ġe cht
UR E
Ġcloth es
Ġla ugh
ĠP ho
ĠE C
Ġge ar
ĠF REE
Ġdis app
ĠScot tish
ĠPl at
Ġj uris
ĠV ice
ĠCe rti
Ġweek ly
ĠAuft rag
Ġ' :
Ġse pt
Ġ: )<
ĠN umber
7 00
o z
ĠBes ucher
se a
c ourt
ent ure
gi nes
ĠS we
Ġy ards
Ġpis cine
S ta
Ġhos ting
j ust
Ġun ver
ĠElect ric
Ġbre ad
ex plo
ĠR io
Ġa le
ff nung
ĠC uisine
ns el
Ġcombin e
ĠK ansas
Ġjoue ur
ĠF enster
ĠK ons
gy pt
Ġt ank
ĠFl ash
Ġac ts
Ġtur ning
Ġho tels
Ġlie ux
king s
ĠL ock
V A
ĠSi n
W u
Ġc ite
Ġf allen
ci en
an alyse
eni x
i ness
ĠChe f
M L
Ġla ke
Ġqu ant
Ġopti mal
sp ort
ak ter
ati fs
Ġdi vor
Ġin se
Ġav ail
Ġout re
ĠP au
ĠAc count
s am
ang a
k mal
ilosoph ie
Ġunde rt
ĠE D
Ġb ritanni
o om
Ġdeuts ch
ĠBe re
T able
arch ite
Ġlo ves
Ġpick ed
ĠP ool
m ess
n form
ĠC ot
16 0
Ġass igned
ĠP ed
Ġsoci aux
Ġri g
ĠStud y
se aux
Ġsel ten
ĠBet t
Be it
ĠRo ger
Uni ted
Ġfolgen de
ĠLe g
p rin
ke rn
du ire
be k
f oot
Chr ist
ĠA vi
wes en
ag an
res sions
Ġerfol gt
ĠW etter
ĠRe f
re ins
Ġerne ut
Ì £
Ġmar ked
u ent
r ond
ac ted
n els
Ġven ir
ĠIde e
Ġgi fts
ĠSu ite
Ġ Ø§
Ġbring t
ĠErgeb nis
ĠM ethod
ĠRe lig
b rigen
ĠP orte
ĠLie b
g gle
ĠHaw ai
ĠL arge
ĠBud d
Ġp ad
Ġful f
W o
Des ign
. [
ĠC redit
pren eurs
p ir
ok ra
e rge
ĠIn stead
Ġman aging
ac ite
UN G
Ġjem and
s hip
Ġfre uen
cha e
ĠB O
Ġpe i
Y ear
rape u
ĠQu ality
ĠV ente
ah i
ĠMem bers
on line
ĠM ut
Ġup coming
ĠEas y
ok al
Ġar res
Ġcondu ct
ĠM usi
Ġst able
o a
ah oma
ĠSt rand
ĠM rs
Ġdra wing
199 7
Ġphysi que
Ġh idden
ĠTh ose
ze ch
Ġbran ch
hn liche
Ġequip ped
bru ch
ĠPl ant
r iert
Ġver h
ĠB itte
ric ulum
un ite
Ġfl ood
Ġpar ad
Ġ ÃĹ
ent ral
Gest orben
Ġdim i
ĠW E
Ġbef inden
p ing
Ġt rends
ĠE S
u vres
Ġble u
Ġvul n
Ġhoch wer
ĠSil ber
rem ony
te ch
ch au
Ġfind s
ĠSe lect
ĠB art
unk el
oun ts
ĠK urs
ĠAtlan tic
ĠKl asse
C P
ms terdam
ĠKinde rn
Ġlors qu
Ġp ierre
ĠLe i
ber ras
ĠE ver
ake t
T T
d t
ĠT ourn
Ġb irds
ĠIndian a
Cont act
Ġin ch
ĠGes pra
ows ki
ber w
Ġvuln e
p it
qu em
z ens
Ġse conde
Ġse p
FuÃŁ ball
li ques
Ġv ital
oye r
ĠAr ch
Ġnu clear
Ġth ro
Ġen ti
ĠDo es
to iles
â ĸ
Ġw ooden
ĠS alle
esp ace
B ox
Ġso il
ĠS W
Ġser rure
an tie
im port
Ġde venir
Ġb ewer
Ġjoue urs
Ġul timate
ĠRou ge
Ġlarge ly
ĠSh are
Ġson st
Ġin ches
pare r
Ġpro of
ing ham
Ġsu cht
ĠTok yo
Ġpap ier
ĠDo ctor
C ode
S on
ep endant
b be
din e
ĠG uerre
Ġexp and
âĢ² âĢ²
Ġs at
olog iques
ub les
couver te
Ġm ens
Ġb om
ĠT emple
rit es
Ġt ape
st ock
is ie
S am
ĠC ourse
ĠY outh
Ġwi der
Ġer fu
ĠNe ed
ĠS til
us ions
ĠLi ncol
Ġad resse
ĠNi n
Ġwith dra
ĠAll en
Sh op
ĠSt ri
i nform
ĠC rus
z ub
Ġbl ess
v able
Pri x
ĠM ak
Y S
lish ment
kl asse
Ġent rai
L AN
1 30
Ġt elling
Ġform al
ĠB ry
ĠF ast
incl uding
Ġvirt ual
ĠSain te
min iste
tember g
ĠT E
om bre
ĠR ain
ĠRail way
j amin
Ġe Bay
ĠEngin e
Ġch rist
Ġg esehen
ĠW edding
Ġal cohol
Ġmass age
Ġcloth ing
m aster
Ġbee r
Ġe vol
wi ki
ig s
n ic
U nter
ma ÃŁ
Ġch arm
Ġdro pped
olog n
che t
Ġs am
ĠUl tra
Ġp y
ĠIns el
Ġmo dule
Ġcu ir
ĠP ales
I ES
F P
. ):
ĠN AS
ĠIn cl
Ġ19 35
che m
Ġj ou
EN D
Ġer wa
Ġpil ot
Ġt all
ĠPra xis
ath y
te uer
b urn
Ġpl ot
hl te
j on
Ġanci en
othe k
Ġc ute
D et
ren te
ou est
v ate
Ġou b
Ġlaw yer
ĠSta at
ĠNic olas
ĠSie g
ĠAnders on
ĠSe k
Ġwor se
Ġthor ough
it at
ĠE mer
ĠK am
Ġg ained
Ġf ri
id t
Ġin formed
ov o
P res
u ant
ĠBe vo
feren z
ali tion
à ¥
Ġfile d
> !
ĠD ays
Ġle gs
sy chi
EN S
Ñ Į
Ġche veux
en ed
ĠC lo
ĠR ue
Z um
ĠS ens
Ġs aint
Ġs oph
Ġmoy ens
I nt
ĠT an
Ġra cing
Ġk ilome
ig lich
oo ter
Al bum
s ha
Ġdisp os
Ġwi nners
ĠKar ten
Ġha us
Ġtri m
P as
ab a
Ent re
te ers
lic ate
ĠMan ufact
onne ur
ĠJ ay
Ġb ars
Care e
ĠVe ry
Ġse tzen
de p
Ġde aling
Ġinf l
ĠG ib
Caree r
di v
Ġcon vic
ĠCh au
Ġgran ted
Ġenth usi
ĠAn zahl
199 6
ĠM ach
W here
Ġref lect
S to
mi a
ĠPl ayer
Ġspiel te
Ġexce ll
ĠFe hler
ĠBelgi que
statt ung
Ġad vis
14 0
. ;
Ġhum ans
Ġw ins
red its
Ġgroup es
quip ment
ĠDi ffe
lic ated
Ġ7 50
Ġnorm ally
f assen
S k
ĠAk tion
Ġf t
Ġw ave
ank a
T our
ch mal
ac ent
list s
i ently
Ġbow l
Ġl oy
ĠM oney
, ,
tell ungen
Ġvir us
progra mm
ĠL an
h igh
p r
Ġst unning
ĠTur key
âĢĻ ,
Ġst orm
ativ ity
S an
M ain
Ġgleich en
el ry
elle d
ĠG ou
yn as
Ġra ces
Ġcal endar
lis her
s he
R em
l f
St ud
wit zer
ĠTe chnik
Ø ±
Ġsou ff
ĠZu beho
Ġdep osit
ĠS elf
ĠW at
T wo
Ġb id
ĠE R
ĠH os
Ġadop ted
p op
ĠR O
ĠOlymp ic
j ob
ins chaft
H is
Ġn immt
Ġspect ac
ĠBor deaux
ĠO fficial
S tre
ĠS V
Ġroy al
ig keiten
Ġl ois
19 95
Ġremo val
ĠZ a
as y
Ġqu ote
ĠGru ppen
Ġt els
ide t
Ġappe al
u ell
Ġnet to
kl ahoma
ang o
st ation
ari um
re ibt
Ġt ack
v ais
ĠTi ps
C OM
P N
Ġcont rast
Ġeng aged
fin ed
Ġb ond
Ġt ested
Ġe ri
ĠY OU
ĠK no
ĠL iz
ĠKe ep
oue r
f ried
ed ish
ĠPri ze
Ġst u
v als
S w
ĠS ue
Joue ur
O lymp
ĠAndre as
Ġst reets
Ġtem ple
Ġg oogle
Ġinst alle
ĠSt adium
ĠD ave
Ġfor th
Ġcert aine
Ġcaus ing
Ġsou tien
ĠLin ux
ra ux
am aha
ĠF is
ĠS K
Ġ' ,
B au
Ġe pisodes
Ì ĩ
Ġ19 34
ĠAr k
Ġfac ts
IL LE
Ġa qu
occ up
ces sive
Ġ9 1
ĠT S
Ġcomp rend
Ġgen der
Ġver d
ĠP ink
li z
ĠPriv acy
Ġsqu ad
Ġen de
Ġdivi ded
bo ards
Ġob serv
Ġ19 19
ĠUn it
ide l
Ġh its
Ġwar rant
d aten
ĠIndust ry
ul aires
Ġgra ve
ĠMiss ouri
k ap
ĠY or
Ġcli mb
ĠPar tei
ĠS uisse
Ġd rag
ĠAnth ony
ier ungen
ĠStudi en
ĠM ig
ge m
ĠH ub
Ġatt orney
ul ent
k urs
Ġcrus her
tit le
nd ler
Ġbra ucht
Ġ1 15
ut te
Ġcour ts
ĠW es
H rsg
ĠCh annel
ĠB ene
Ġfound e
ĠSch lu
Ġla ut
ĠMar sh
Ġremp orte
si v
at ric
f tig
ato es
Ġj ac
d ou
Ġsh ops
ces sed
Ġsch l
ue rst
K i
ĠIm ages
ch ron
no ch
Ġje udi
al ph
Ġj unge
M B
olog ue
oc ke
te chnik
ĠAl fred
gangen en
ĠE pisode
Ġon going
Ġde cade
Ġdad urch
at tet
Ġdom icile
Ġ8 1
pe ration
yste me
Ġcomp osed
Ġinde ed
ĠHer r
Ġla isser
Ġc ensus
oc ker
Ġris ks
and is
ĠVol ume
Ġre ader
M r
h stu
B ild
Ġsy nthe
Ġdescri be
piel t
Ġdi x
Ġmon itor
Ġzu letzt
chne r
v oy
Ġou vert
am pe
m ut
Ġsp iele
Ġview ed
ĠEx p
rou vez
Ġdes tine
Ġma je
Ġmon te
Ġjoi ning
Se it
Al though
ĠMo vie
c ro
rus alem
Ġb ande
ce llent
TM L
Ġgu idance
ĠCont ent
Ġsche me
ĠT X
ĠD onn
ali sed
Ġc raft
leist ung
Ġm ic
ĠJe u
Ġsoi ent
Ġan ime
ps y
ion e
Ġcop ies
Ġk ri
Ġver z
rie lle
ie u
ul s
ĠMag ic
ten sion
fal se
A h
Ġlist s
el and
Ġir re
Ġsc ol
Hist or
Ġst rict
ĠG au
Ġat ta
Ġnoti ced
Ġi OS
Ġd ens
Ġcre ates
ok en
ĠInf os
ĠCap tain
Ġo w
b te
geb aut
Ġmar gin
g lieder
lectionn e
Ġres ume
partne r
Ġfounde r
fi zie
ol t
AC T
os ph
L D
Ve ro
ologn e
olle y
F O
% .
tz ungen
E le
ĠD azu
ĠF ili
ĠTh u
ĠAg ent
iss ons
mittel n
ĠDe li
amp ton
z one
b la
ĠJ apon
ĠVe rn
ger n
ĠFre itag
mes ser
ĠS ach
inde rn
or ama
Ġro ot
Ġdynam ic
Ġco eur
ĠT ie
Ġen ding
K S
Ġb omb
Ġmur der
h ot
Ġill ness
AS T
ti ns
ĠB ach
ĠK redit
Ġn ations
ĠN FL
n u
ĠBl ut
b ilder
Ġb ril
Ġtou che
ĠPriv at
Ġpeint ure
Ġser r
M arie
bewe rt
we ile
g on
Ar tikel
Ġâ Ķ
iz ing
it aires
Ġr um
ĠF it
Ġer za
ent ative
ĠGra mm
ĠAnn ual
arne r
h igkeit
m oins
ad minist
Ġsold iers
ĠR h
Ġesp ace
ral es
Ġsac ri
Ī Ĵ
ci ple
ĠAi nsi
ct ual
Ġde fault
ĠAl ber
Ġexp osure
d ays
> $
ĠDres den
Ġti ny
ĠS onnen
asse mble
w atch
Ġ19 29
at rie
ĠR au
Te am
ĠW unsch
ak h
lin der
ĠSte ll
Ġmer credi
ĠSw iss
Ġe ase
Ġb les
Ġm assi
ĠErn st
ro b
Ġver la
A ustrali
lker ung
ĠK lei
Ġj azz
f ly
P D
hol der
Ġst range
Ġrest ri
? âĢĿ
Ġad mi
ĠTh ough
mar ks
Ġvo ie
18 0
H och
l us
Ġliber te
Ġch annels
Ġl uck
ĠMay be
rder ung
ĠE mb
ti ver
Ġle ve
ĠIS O
l ange
ĠMon at
Ġal lein
R I
A ber
Ġren dez
Ġes cape
mett re
ĠH ell
ĠFol gen
ĠC ash
uss y
F oot
ĠLig a
ale rs
ffic he
asing ly
il ation
ĠI L
Ġpei n
schaf ten
Ġor ien
N on
lin ie
Ġlie be
ĠB h
Ġr outes
Ġben ch
Ġsw imming
Ġvac ation
ĠAg ree
Ġbl an
rt temberg
Ġrug by
pro of
Ġwar um
con tin
W ho
C le
ĠBeru fs
quar ters
ĠM ove
Ph oto
zuf u
zi alis
ĠHam ilton
coun ts
Ġdistin ct
ig a
Ġy e
Ġgew innen
ĠHe ro
rag t
B usiness
Ġy ard
ĠReview s
Ġch ances
ĠVin cent
Ġmal gre
ĠSt ars
ous s
Ġfais ant
Ġfl ag
fi re
c est
Ġmar di
ĠIn spi
ĠB ush
we chsel
az a
Ġproce ed
ĠD O
ĠMary land
ie ten
acte z
Ġent rance
Ġsa ved
ĠBar bara
Ġd ental
E nd
k ri
Ġges tellt
ĠB oo
Ġre action
ĠTur k
ĠHer bst
oy en
alis me
ĠAl ors
Ġof fizie
L ear
lie ben
ĠK aiser
L Y
un esse
ue ur
en ing
ĠKon ze
oud re
Ġeas tern
end ations
hl ung
ĠMet all
ĠCont ra
Ġen titled
om ing
ĠSe attle
IC H
ĠT au
ĠEs c
ĠUm welt
pl ays
p y
OR E
els on
Ġst ro
n agement
rid ges
sion en
che ter
Ġobser ved
m ap
N or
Ġs ait
Ġh ate
ĠHann over
ai m
ĠSch iff
Ġ19 28
xie ty
pl atte
Ġinj uries
Fil ms
u ing
gi que
Ġb are
ĠD ak
Ġocc urs
cher n
Ġdis cre
ĠG riff
hol ders
ag le
ĠSam stag
ali zing
tig ation
able d
D urch
s enter
Sie he
Ġgre y
Ġpres ents
at ar
et he
an ia
ĠHigh way
Ġexpan ded
ĠBl au
lect ri
ĠEx change
A E
ĠA ch
tel n
Ġhe aling
ar de
ĠLa ter
Ġse le
ĠV oy
ĠD ynam
Ġqu elle
ocra cy
' ).
ĠKar te
ĠAf ghan
di as
o ie
load s
ab ama
bl att
Ġm ad
ĠM ort
AC H
ir us
D ay
ler weile
Ġcom te
Ġne uer
rie be
Ġcart es
Ġallem and
Ġshi ft
ĠErs atz
ff i
ĠTe ile
op he
ĠTh us
ĠBet riebs
ĠT ags
ĠAus tin
Ġv itesse
ĠPoli sh
lang uage
ĠOr th
Ġl un
Ġb rau
fass ung
ĠC ow
ĠMei nung
ĠT anz
Ġli ked
ĠHand y
ĠK ampf
um ing
Ġg rant
Ġt v
od ox
fi x
ĠR ug
Tod ay
ĠAcc ueil
Ġprin ting
ac a
ĠAng aben
l tig
Ġcru cial
Ġpro test
Ù Ĩ
Ġopp osite
ĠN ich
ap i
Ġver re
E rs
Ġkomple tt
] [
Ġ9 00
S ite
Ġgen utzt
re ct
ĠH ug
atri x
ĠO cc
Ġun ten
Ġappro val
IG N
Ġen gines
Ġchau die
estiv als
p ad
ĠQu ad
op a
Ġsuffe red
Ġto ll
re al
ĠS L
Ġcho osing
fe fe
ĠC ell
Ġsom me
ul le
Ġpharm ac
ĠDes pite
ĠSy mb
r ts
Ġal gorith
Ġrep rodu
Ġein zig
Ġs ick
ĠUr laub
nis hed
Ġmed al
Ġ !!
men ter
ĠAns ch
ĠGew i
ĠR ho
ĠG row
he t
Ġstru ggle
Ġt y
Ġfait es
Ġse tzt
vention al
walt ungs
Ġ19 32
Ġtra ins
ĠH andels
ĠR ai
L ink
Ġvers t
Ġexer cis
le m
ĠS icht
Ġn ied
ĠPf ar
Ġmis sions
Ġbre ast
>â ĸ
Ġo cean
Ġzu vor
oo f
ĠR S
ĠTh ings
fl ow
id o
ĠYear s
tic a
ĠR ene
be it
Ġu rb
ĠA mp
W omen
di d
Da vid
ĠWeb seite
ĠVi ntage
ib ilite
ĠL it
Ġun li
Ġele gant
s ungen
m ain
une hmen
Se i
Ġfor te
ĠL ed
ĠIn telli
ĠL ire
qu ili
ĠPh ysi
Ġargu ment
F rank
ĠSol ar
H ave
ade mie
il de
ĠFre de
ĠK elly
Ġ19 10
ĠFut ure
V al
ĠC asinos
ĠHen ri
Ġmo ist
ĠB rief
Ġdra ft
acc ueil
m are
Ġmi niste
ĠU rban
Ġmee ts
li an
Ġg ent
be y
ven ce
rie ved
cert ain
ĠDu ke
Ġcove ring
Ġla pt
Ġa cht
199 4
ĠJu an
v d
Ġhead s
ĠBe auty
Ġso fa
n ke
ak tiv
ĠH oliday
P rice
tie re
j ah
tellig ent
Ġsupe rior
âĢ ¢
Ġtom be
ĠD NA
Ġp up
pri nt
li cken
Ġgra tis
Ġmo ves
ĠB irth
ti ck
Ġt ari
Ġit ali
ĠM other
Ġcol umn
Ġb ab
Ġwe apons
l ust
F ig
Ġrec re
ĠRep air
Ġl aser
Ġmes ures
Ġs ending
mas chine
ĠPh one
un al
Ġex tent
w achs
Ġvari able
ĠAust ria
Ad visor
ĠC ut
Ġm ons
Ġli kes
ĠT ry
Ġgene rate
h agen
ĠMer cedes
ĠG rant
ĠMor gan
Ġj apon
ĠD DR
gra ph
ĠMen ge
us che
Ġk re
ĠS atz
ei der
ĠTh ailand
ĠSo ft
ĠCust omer
man uel
Ġgrat u
ĠInde x
ĠAt lanta
mis es
rop ort
oli que
Ġfun ny
ON T
tiv ation
Ġtre ffen
Ġch ronic
Ġen se
ĠT rainer
ĠZ one
Ġc au
ĠOtt o
ĠKrie g
min ister
l ast
E tat
acc ord
Ġti p
ĠFir men
ON E
e rk
b rand
Ġch ante
ster y
l ab
N D
Ġre fuge
ler nen
A tt
izi n
Ġu rspru
res ser
Ġch ron
Ġbek ommt
Ġple ased
m d
Ġin ters
Ġle rnen
poli tik
ense igne
Ġcrow d
Ġgen ug
it able
P lan
F M
s ky
ti ms
ĠZent rum
Ġrou tine
A ns
ĠN un
ni an
Ġbott le
Ġsugges ts
Ġtrack ing
Ġtro ops
Ġpro ve
or ph
R u
Ġcou rage
ĠAn bieter
Ġblo cks
B ig
Ġm ains
ĠGra ph
>< /
G H
Ġsh oot
ĠC et
Ġnature l
h om
ĠAuf gaben
I Z
l fte
Bon jour
Ġcar di
ĠTer min
cl ub
ĠT rin
ĠChap ter
Ġles qu
10 1
Ġno ise
ma ker
d te
z wischen
olo ge
ĠSur vey
ĠD allas
gel t
H aus
ĠLe x
ĠCom pe
ĠR ange
ĠAL L
Ġnot wend
Ġfran ce
ĠL or
ĠY oga
che lle
Ġ(âĢ ł
M ENT
ĠDem oc
Ġl aid
gi le
Ġscen es
ĠM unicip
z an
Ġedi ted
EM ENT
P i
ĠR osen
atis che
Ġh auteur
Mit glied
Ġkn app
ĠB atter
Ġanti cip
Ġpe rt
ĠU ng
Ġho le
Ġple asure
gemein e
Ġk illing
? "
pons es
ĠL ane
por ter
ĠT otal
Ġfair ly
Ġlogic iel
Ġf ahren
ain ts
for men
ĠX L
ĠMan ual
ol ly
J o
Ġges etz
ĠWolf gang
Ġfi ni
ĠLe aders
Ġter rasse
ind ustrie
Ġcapt ured
Ġdoss ier
Ġdeb ate
Ġb ags
ĠAl um
Ì ¨
ĠM ilitary
pen se
ori um
as a
tif ier
be red
Ġt ort
ĠAl b
mitt lung
ir y
Ġgu ides
as ka
ĠMet ho
Ġf lying
ĠPh arm
ĠTer ms
d ata
Ġst ored
y age
ĠPar ad
Ġp owers
ha w
ĠReser ve
ĠV ic
ĠS ul
Ġang le
ĠA ud
ĠDein e
ĠT rain
st he
Ġdre ams
ch ild
Ġmi nister
Ġar ray
ĠCost a
ĠP unkt
la v
g ren
Ġwor st
ĠKom pon
( );
à ¹
Ġprom ise
Ġwe chsel
A nge
h h
mas chinen
Ġsub jects
Ġri ce
ĠTag ged
Ġsav ings
ĠReser ved
ak u
cyc lo
und ers
R en
t ah
d ass
ĠSch lag
Ġfas cin
k rank
Ġtal ks
Ġsie ben
Ġc ath
Ġd rain
nder ung
J apan
Ġs orte
ĠE arly
Ġb ird
Ġb ras
g essen
ou red
ĠInn e
Ġbe half
ĠB B
Ġcent res
Ġan t
ob jet
cri ptions
Ġ( ),
Ġman ger
c ow
end orf
r ar
gha fen
ĠSw eden
k ind
St ation
ĠV irt
Ġa merican
ĠMon de
ĠM all
chei nen
Ġille gal
Ġdies el
ĠC onn
Ġun us
ding t
9 00
ĠSch ritt
Ġre alized
ĠTer rit
} }
Ġw idth
ult ane
Ġslow ly
mis ch
me tery
Ġbou tique
nd re
as ions
os hi
Ġe aux
Ġs oins
p ap
Ġsh irt
Ġm att
bau m
Ġh ill
p ol
ens is
Ġges agt
ir ty
Ġy oga
t ags
i ence
ĠHow ard
Ġs amples
ĠFi nn
ĠT es
ors hip
ri fts
ĠP un
Ġou tils
C a
Ġo x
olog ists
den te
fi a
is hed
Ġengin eer
Ġdra wn
ĠR acing
ĠLincol n
ĠE c
ĠZ udem
W elt
Ġc um
as is
Ġsou p
bar keit
IT Y
ap olis
Ġoffic iel
Ġra w
li orer
uert o
Ġju ge
ĠCre ative
ĠGeb iet
E G
ĠC it
Ġnach dem
ĠSt ream
Ġcra zy
ĠE ri
ĠBer liner
chl agen
Ġfai ble
ad resse
ĠAn alysis
Ġsol ve
ĠCust om
Cl ub
M ate
am bi
Ġhand ling
as en
ĠN os
Ġsomew hat
ĠPlan et
hic ule
Ġ> >
Ġthe ore
pl ates
Ġ _
ĠR adi
ĠB alk
Ġb rut
cl osure
Mem bers
omm y
Ġv ale
Ġra tio
yl on
ĠAff airs
si di
ul ter
al te
amb ling
ĠCons ult
Ġfee lings
ĠBe rt
Ġdise ases
Fe bru
x elles
ĠD inge
b one
Ġs cheint
ĠG alerie
ĠE ve
Ġcontro ls
ĠI owa
Ġvor her
l li
att form
P H
m aking
Ġce remony
Ġsch a
Ġp ru
ĠC M
ul en
tudi ants
S H
c ale
ĠHe il
tin o
ĠS achsen
Ġb ind
Ġb ons
Ġs mile
ĠBes uch
K ey
Ġge d
Ġwel cher
li ty
EC T
ur re
Ġthe atre
ĠE gypt
ĠCol omb
Ġcarry ing
ĠD ragon
Ġw itness
N orth
Ġmar ks
Ġlo gement
Ġch airs
S il
ing t
ĠT ree
" ]
Ġdi alogue
ille ur
ind ruck
Ġp n
tz liche
as sin
ĠF ather
kir che
ĠDel hi
IS E
ĠM az
Ġmir ror
Ġde vis
Ġsitu ated
ou verture
U D
re ten
Ġze ro
ĠF M
Ġeli gible
ĠR ent
ĠWie der
Ġse ien
Ġ !!!
lo ye
li de
ens tein
dess us
ns che
Ġle gend
ĠJ ason
j us
Ġact ress
Ġo re
ĠM ic
ĠFi ve
ĠDub lin
ĠK los
Ġpar cours
Ġder zeit
ĠN atu
Ġ19 17
ĠF lex
Re c
atri ate
Ġrepe ated
Ġcomp rom
Ġch im
ot ype
Ġport es
Ġen vie
ĠPal ace
ĠRead ing
ci ent
Ġcomp os
ri ors
geme inde
Ġs me
ĠU RL
Ġers ter
n issen
ck lich
Ġexp enses
ĠSchool s
ĠC AR
Pers onal
ĠM oore
ĠS yl
ĠD ich
Ġfre und
M ake
Ġcult ures
Ġroad s
Ġse g
Ġsex y
ĠChamp ion
ar ma
ĠMax im
be richt
ĠK ings
Ġp ace
ir ie
Ar chi
Ġinten se
Ġh alt
Ġgen ommen
Bri tish
ĠR y
ber pru
Mus ic
Ġtable au
Ġpass es
199 3
Ġres ulted
Ġalle ged
lau fen
ĠMon aten
Ġ19 24
Ġfac es
Ġboo st
Ġref use
Ġdri ven
Ġ: )
di ger
ĠH ad
ĠIns titut
ar l
a fter
Ġarri val
rei ber
ĠSh ould
ges etzt
Ġc rise
Ġlim its
K osten
Ġt rat
st ahl
S ign
ĠClau de
I QUE
ĠCl ark
ĠDe cor
Ġwelt weit
ĠForm at
Ġs ight
ĠFam ili
m ment
ĠS ad
ĠLux em
Ġre v
sto ffe
Ġgel ten
lin ary
l asse
L iste
et ten
Ġdam aged
iss an
Fe rn
ĠTe chni
ting en
vent h
Ap ril
ĠDou glas
ĠSt y
Ġver me
ĠDe ux
Ġve ux
app el
ob el
Ġgorge ous
ĠH R
tif ying
ĠSp rings
ĠQu el
ĠFrei zeit
Ġ19 27
le iter
ĠT s
f unktion
Ġan alys
Ġ19 25
wo ch
Bl og
Ġ19 31
ĠSam uel
Ġface d
ĠBul g
ĠVis it
erst ag
": {"
Ġge lang
] .<
ĠG ris
sent ant
Ġpeu ple
ĠV ale
ĠH us
D ou
Ġpri ze
ĠStudi os
M ari
Ġf ene
ĠH air
Ġwire less
Ġconf ig
ft y
Ġdesi red
Ġwh ilst
Pro f
Ġemp ty
Ġb oss
Ġpe e
m ocra
ge geben
o tive
Ġwe ite
ĠF unk
Ġam b
bet rieb
ĠK rank
US T
Ġinvol ves
Ġqu asi
Ġmem ories
ab is
Ġanim aux
p flege
Ġsp oke
r ry
Ġcal me
Ġp ocket
ry th
rat ors
Ġcoup les
ĠRep ub
ĠKrie gs
10 5
ĠFar b
R oy
ĠInd ividu
av an
199 2
ĠLond res
bin ation
her en
' .
ĠSt ew
ĠF ul
ĠH em
nn ten
p ting
F urther
Ġad ds
u ler
ĠL ag
ĠS ER
Ġam ounts
ĠA didas
si m
off s
Ġw aters
ĠO der
ĠBl ood
ĠArbe iten
ĠHar ris
hal le
ĠFil ms
yste ms
F rench
ĠC ancer
Ġup gra
ĠAm t
>Â ·
Ġvers ta
" >
Ġg ast
ĠRa j
ĠM ali
Ġbestimm t
Ġfol ks
Ġfir ms
ropoli tan
Ġin ven
ĠH und
Ġj unior
S ystem
n ummer
Ġve ter
Ġm agn
Aug ust
out heast
Ġtra gen
Ġgraph ics
Ġa ktuelle
Ġpre ven
Ġse ed
Ġsi nk
ĠCol on
mel n
Ġsh arp
pin e
ĠD ress
ĠTh or
im b
ĠOr le
owe it
Ġattemp ts
un ters
ĠWh it
Ġpro tes
ache l
ption al
Ġfore ver
G rand
Ġvi agra
L P
ĠB oot
Ġdecla red
ĠKli ma
Ġpublic s
ĠCon fe
Ġsuiv ante
Ġde me
st ore
ĠK han
ros se
Ġstri ke
ĠCo le
Ġde vez
Ġd ank
cas ting
st rong
tern e
ĠS witzer
Ġco aching
ÌĥÂ ©
Ġj apan
ĠN ag
ĠO klahoma
Ġent ha
ĠAl an
Ġpos ting
d urch
ear ch
Par is
Ġpropos al
ogra fie
ĠTe en
lin ik
Ġ19 12
ĠD al
j en
rz te
ach te
ĠMom ent
ĠM ust
ĠSh an
C amp
av ait
ix el
Ġp owder
>âĨ Ĳ
- /
Ġ( )<
OU T
ĠBow l
P oint
ĠQu ick
ĠC ad
ĠHe ritage
ond on
ĠAll es
ĠGeor ges
hab ilit
Ġeg gs
ĠLang uage
iche l
est one
Ġsou ght
ĠPe ace
rn ie
Ġst o
Ġdou ce
Ġpar ish
ot yp
ier ter
ĠC oll
ĠD ick
Ġbegin nt
ĠBit coin
ĠPl anning
Ġlic ensed
Ġune x
tru e
ĠK och
olog ische
r ungen
A ct
ĠP fer
ĠB ap
pf licht
ĠToul ouse
ĠBe im
Ġarres ted
velop per
ĠE hren
Ġphr ase
Ġimm ig
ch anges
ĠPro p
Ġparalle l
Ġl ucky
ĠJ ak
Ġpoet ry
>âĨ ĳ
no v
AL E
pe ctives
ĠArchi ve
nde re
ĠL ES
Ġj et
Ġpass word
Ġer he
ab elle
ĠP rag
áħ µ
ĠT rop
ĠH alle
ĠG P
Ġopp on
Ġb our
Ġprofi ter
ĠKent ucky
t ud
Ġreser ve
de cin
Ġdisp ute
Ġcas ual
tiven ess
Lou is
im s
ĠCH F
L ors
ĠB ew
Ġf illes
Ġa chat
ĠBeru f
le ep
Ġsp ann
ĠFore ign
ic here
tis an
ze hn
Ġemploy ed
Ġk lein
N T
rest ling
Ġpein e
s ume
ĠP ick
Ġkn ock
Ġpain ted
Ġcom bi
ling ton
Ġwe rt
sh irt
Ġp itch
te rin
ĠP H
rag ing
col es
ĠKla us
ĠB oys
Ġc enters
ĠTh ai
ir ates
Ġt ill
Mich ael
Ġver te
is ant
Ġce iling
ĠG ive
O p
ĠBild ung
ĠC ari
ĠR T
o ted
p richt
Ġk amen
Ġpour rez
i nch
de la
ĠDis play
ĠPub lik
ĠSi nn
Ġcamp ing
ver gleich
cou vert
nd nis
Ġw ing
t ung
anc en
Ġ15 00
ac kers
ĠPict ures
en vir
AC E
Ġto y
ĠW ire
ver ty
Ġindic ate
Ġw issens
ĠLi ver
ĠJ ess
Ġ2 20
ĠG PS
l ate
unk ten
Ġdiff use
ĠVis ion
ar ity
se rn
ĠS as
Ġre ducing
Ch amp
Ġass ume
A k
re chte
Ġobje ts
ÌĤ âĤ¬
f ound
Ġa ged
fin e
ĠG ay
ĠAli ce
Ġmalad ie
ĠD omin
ĠLe hr
re c
p unkte
I EN
ĠBre men
Ġyou rs
Ġm os
Ins titut
Ļ ¥
P an
Ġemp loi
ĠPro perty
rs ten
mati ques
og ene
199 1
hr ungen
ĠBe at
ib el
sh ow
m ack
M ark
Ġtag ged
ĠL ess
ter istics
ĠJew s
nde te
Ġin je
z n
Ġh ang
Ġman uals
Ġo ven
li ances
c d
S yn
ĠQu elle
H allo
atte ries
ĠLe gis
ril ler
ĠS ache
ĠKe rn
est a
ĠPfl anzen
Ġlay out
ĠAb d
produ ct
g ard
Ġkeine r
Ġpro ches
Ġtom orrow
Te chn
ĠL ate
ĠPe ak
tis me
an lagen
Ġme als
Ġ à¤
Ġdis appe
ĠAd dition
Ġtrou bles
Ġatt ach
Ġfl ower
ĠMar gare
n b
for um
Ġb lieb
ĠDe ep
Ġbe teili
Ġbook ing
Ġre aching
1 12
19 0
Ġtrotz dem
ĠF el
ove ring
Ñģ ÑĤ
Ġeri nne
ĠVe ro
Ġge legen
Ġg ris
Ġav ance
Ġper mit
ĠS R
Ġmi xture
Ġgro ÃŁer
Ġheu tigen
ĠH S
Ġfl our
az ines
ĠG un
Ġve rein
Ġdrin king
Ġun f
Ġrep as
Ġor al
Ġp au
l ai
ĠSte fan
te es
âĤ¬ <
Ġbox es
Ġmehre ren
enni fer
Ġbro thers
ĠRe gen
+ []
Ġi hres
Ġrep ly
ĠR ick
ĠPos ted
wh ite
I nnen
G C
ver kehr
f ait
ĠSu c
ĠC ris
ĠS z
Ġ19 26
or ders
ĠNige ria
tier ung
re ign
ĠNor den
ath olis
ĠUn sere
ffic her
Ġsecre ts
19 80
ĠB achelor
p ly
ĠFriend s
Mess age
ĠG ang
ĠM atch
ĠY u
Ġfond s
umin um
âĢľ .<
Ġt andis
F ace
Ġend lich
Ġb one
ĠI C
Ġjud ici
Ġab stra
ĠV a
w estern
ĠR ang
IN D
on en
P age
Ġwas h
ĠC T
as tern
ĠT ool
Ġst ake
ĠBen jamin
W ill
Ġnot able
ĠD omini
end ung
Ġver tra
Ġinj ured
A Z
Ġperfe kt
Ġ Ã
Ġreques ts
Ġpe ak
ĠDe ck
nt on
Ġasse mbly
ĠAdv anced
ĠBase ball
ĠM ans
or o
f ish
Ġprof onde
ĠCon serv
ĠS ave
Ġcompe tit
Ġrich tige
ame l
ace u
a ver
Ġst ron
Ġ vel
h ad
Ġdep ends
Ġpromo ted
lis abe
Ġpour tant
ĠSt off
ĠG on
oph ie
ĠG E
ĠMont ag
op hi
fr ast
ĠW asse
Ġcon duc
Ġwh enever
ĠJ ardin
Ġaktu ell
Ġsch rieb
Ġmo des
ve ille
he ur
ĠG ordon
Fran c
Ġnie der
ĠMari o
ĠAl liance
IT H
ĠT ower
F lor
Ġpour ra
ĠM aine
J ose
Ġb ands
ĠS omme
Ġd owntown
n ant
Ġins ight
Ġ( $
Ġrep ris
Ġper d
ai tement
Ġlie ÃŁ
ra ter
ĠCap it
ĠEconom ic
Ġat titude
Ġacce pte
ĠH E
mo tion
or ten
ĠTowns hip
Ġli ft
Ġs cope
qu ate
sh op
oule z
Ġhin zu
Ġten sion
Ġg aming
Ġd umpster
A ma
gru ppen
v ity
ĠCon f
Ġwich tige
ĠBre t
g licher
wer te
Ġc asse
ĠA de
Ġ19 22
Ġp ens
Ġpre is
ck sich
xe r
Ġfinanc ie
ĠC ars
ĠWri ting
ĠB ras
f un
nten do
est re
ĠRe chn
is ms
ĠL oire
3 50
Ġad s
d aille
mer zen
Ġover w
Ġpuis que
osp el
Ġqu otes
Ġt elle
Ġmodi fied
ob il
qui ring
Ġdo ctors
que z
gi ving
ĠWin e
rab ility
ĠMex ican
Wh ite
); <
M arch
ĠTra ck
Ġran ked
Ġl umin
L ong
Deuts cher
ĠS ug
ĠDe v
ass ung
ple te
ĠF ile
Ġexpl an
Ġse mb
Ġsal arie
ĠT ennis
! "
lo ser
Ġ19 21
ĠG ewer
og ue
ĠB arn
ĠSo ci
ch y
ĠSing les
Ġgra b
Ġ ling
ĠN R
Ġob serve
ink el
p at
per or
li min
Ġres ter
ĠMar ken
ns tige
Ġg la
Ġpres sion
g ow
ĠRob i
Ġ10 5
li o
Ġsc ores
Ġclo ck
s il
c it
Ġsp ots
... )<
ĠF ell
B ien
Ġsouh ait
ĠM ys
Ġali ve
Ġch an
Ġstud ying
Ġhe aded
c ute
Ġt ons
Ġexp osed
ĠHon or
: #
kle idung
ĠP E
M ac
US A
ER T
Ġcons ent
Ġein sch
> '
ĠPl as
Ġbe gru
Ġdefe at
ĠRab att
fts fu
Ġless on
s ous
r gen
p ower
T hen
Ġb illi
ĠCent ury
ĠO be
Ġd ust
ĠMus lim
Ġre mark
p rice
ho ch
ppe rs
Ġtit led
ĠDre h
w idth
od ing
ctic ut
ĠTe ams
Ġenem y
Ġ19 23
Ġmag asin
Ġb onnes
v ac
ĠV iele
g ut
vide o
Ġparf ait
ĠO P
form ing
ĠK il
ĠK id
ĠN avig
it age
ĠMee ting
ĠAr men
me th
Ġpat ron
Ġvict oire
ĠSP D
Ġma ps
T ro
Ġmort gage
Ġdar unter
Be fore
ĠMil an
Ġen tering
ĠTh ird
o den
Ġthe mes
Ġex amine
Ġsimp li
Ġloc aux
Ġno vels
ĠP ou
Ġt ente
c onne
ĠGi ft
Ġans we
Ġexp ose
Ġb ug
Ġpl age
Ġg agner
G L
ĠPor no
R ich
ud a
e b
ro lled
T ax
ĠA ppe
Ġerk ennen
ĠBar on
Ġran k
friend ly
ĠCo ach
Ġch anson
mi nin
Ġsle e
W A
Ġdem ander
n ut
Ġto le
Ġgu ard
ĠS creen
Ġh olidays
fre und
mar ket
ĠSong s
d ated
ew here
ok o
ch u
Ġe gg
ĠPrin cip
Ġh ip
ĠZ ustand
Ġgreat ly
Ġwen ige
ic ke
V ID
Ġcomp li
pi ration
t ure
issi ppi
ĠAl abama
ĠPe ru
Ġgen us
Te ch
Ġde fini
ĠBi n
ie te
ĠB ishop
Te il
g ories
ĠHu gh
Ġstat ut
Ġpos s
ĠLig ue
b aye
Ġpours ui
Ġe igh
Ġf ou
ĠG ust
j ing
tik eln
etz te
ĠAm ts
ĠCh art
Ġqu ad
ĠGree ce
ĠRe isen
Ġn ights
ĠP ut
elle rs
ĠA ra
ks hire
b ai
ĠNie ders
ar u
Ġvol umes
Ġl amp
ack en
owe ring
ĠL ion
ĠB ronze
st op
aci ous
pe z
ĠQ U
R oman
S K
ĠDok ument
cr its
oph one
Ġmach te
L y
ĠCom merce
Ġopp osed
le ucht
ĠSe bas
Ġcou ch
ass el
Ġhe ating
ĠPh illi
fic ie
m its
Ġfol k
Ġup grade
esp rit
U r
ĠR ie
Ġto lle
f lo
art z
ĠP le
ĠApp ro
Ġhop ing
cas ts
g ame
ĠSci enti
ĠFin e
ĠMalay sia
c li
E ven
lin ien
ĠE M
dess ous
b ag
om on
ĠCle an
ĠBe griff
ĠMet ro
ra id
ĠW H
Ġfla vor
Ġk os
ĠP orn
Com me
Ġn urse
Ġextern e
Ġasse mble
Ġra us
Ġri ding
Ġmar ques
pie ce
Ġacc um
ĠPo ker
ol z
ĠN ear
r ity
Ġdo se
ch or
Ġpack ages
ro ir
l oc
Ġle gen
wo hnung
ĠBru ce
Ġre ward
Ġp ricing
ĠS ter
Ġold est
cri pts
ĠDet roit
ĠM C
Ġstrong ly
Ġapp orte
c tivite
an ke
ĠBlu es
Febru ary
Ġde vo
ĠE ye
ĠH aving
Ġw ra
Ġris ques
Ġbe ant
mar che
ose x
je uner
Ġtiss ue
e ring
ĠRober ts
Ġgesam te
ĠC zech
Ġabs ence
Sep tember
Ġ4 50
Ġb oot
ĠHa ar
Ġch am
19 89
Ġhil ft
se urs
ges cha
Ġphen omen
Ġcomp act
tag on
ĠNouve au
Ġexpl ains
O k
Ġcon serve
Ġop ens
Ġp anne
Ġp r
ĠBe h
iction ary
ĠChe v
Ġun ite
Ġpan els
Ġmor al
Ġge ma
Ġbelie ves
Ġcons acre
cri bed
Ġev il
ĠVe reins
Ġuni form
Ġto oth
> âĢĶ
Ġgraph ic
ĠW ahr
f ran
ĠFern seh
ĠWel come
ĠSch wer
ĠIsrae li
ony me
Ġcomp ren
li ser
on ing
ĠBe zug
is tique
Ġer rors
ĠJ oy
ĠJ uin
glich t
ong s
age gen
Ġdep end
F E
N ouve
ĠSon der
Ġh inge
Ġein zeln
je ctif
ĠâĶ Ĥ
Ġemb ar
D ata
Ġg agne
Ġpl a
Ġcour ant
Ġapp lique
d lich
en c
Ġgesam ten
aff aires
ĠMar ke
Ù ħ
Ġn ick
Ġtra ce
Ġdoll ar
am as
Ġpul led
Ġsen sib
Ġvic tims
Ġele v
Im age
Intern et
ell s
Ġan xiety
ing ers
Ġt one
ĠBe ing
h all
Ġspe aker
/ -
Ġse quence
Ġpied s
f rieden
ĠAus gabe
ĠB ischof
ĠMatt hew
ĠBes cha
Ġst ood
Ġt ue
Â ¿
Ġs ah
Ġgi ant
F I
rab ble
fic i
Ġcamp aig
Ġpub lish
p ic
zeug t
Ġen ables
Ġcou pon
g ation
Ġsurf aces
Ġande rer
el ve
ĠIn tel
ĠWith out
ĠPost s
ĠWal ker
Ġ19 13
p ay
ab out
ĠL igne
ste rs
Ġport rait
ĠCu ir
Ġau ft
Ġsh ots
ĠA ktu
A nne
ĠBahn hof
lie f
p asse
Jan uary
ul u
Ġa side
Ġr it
ĠO m
te ro
ĠMen u
Ġf usion
ĠComm and
ibliothe k
Ġla dy
Sei n
Ġh urt
ĠPri or
Ì ¦
ĠP ath
ĠO per
Ġ- >
ĠSt ahl
chl oss
Ġr as
Ġres ort
ĠF ont
Dep uis
f rau
k op
Ġtext ure
ver fahren
ĠL ok
dien en
rai nt
Ġcl osing
ĠS onn
ĠVer le
b ound
ĠH orn
c f
ĠT ools
Ġmon ument
ĠE L
Ġt we
Ġrece voir
ĠD rei
Ġ19 11
B ad
ĠMein e
Ġbre aking
ĠAr zt
ma kers
Ġprior ity
) :<
Ġdu al
ir me
ĠSt op
off re
ff nen
Ġbran ches
a wa
g arten
n ves
om ed
ĠWh ich
ĠR unde
ric o
ze ige
Ġsyn th
abin e
b ridge
Ġfal ling
qu ot
T out
J une
Ġcont acts
Ġder rie
ren nen
ĠS olid
Ġs occer
Ġmajor ite
ik on
Ġdis cri
Ġpart ager
ĠE u
lisabe th
Ġ ]
lo sed
Ġwalk ed
Ġp ole
ou v
Ġer lau
Ġman us
Ġk or
Ġf aud
ĠTer re
n tern
Ġlo ving
Ï Ħ
ĠChar lie
enf ant
ein e
ĠImp ro
Ġein zige
Z ur
ch ain
ĠW oman
ĠLi be
ĠSw edish
bor ough
b ran
ĠU V
l ager
ach st
Ġ ^^
tier ten
ĠPer fect
ĠH ockey
Ġes time
Ġabs or
Ġcrite ria
st ro
ĠVer d
dem ment
M as
rab les
Ġconvi nce
onym ous
Ġrou lant
ir ur
ĠPro zess
ĠSt age
che ck
nig s
ĠChe l
Ġope ra
lin i
Ġperson en
ĠB ai
Ġw ahr
v ada
ĠQu and
m ons
Nove mber
it ate
Ġdis cours
Ġstay ed
ĠD ollar
ĠRoy aume
le hrer
te ra
w id
T ake
AN C
gleich en
ns chen
Ġfra ud
ĠW alk
Ġle af
b its
ĠKar riere
itz t
Ġo e
Ġto wer
ĠZeit ung
cu its
ĠEn joy
ĠW C
ĠDi amond
Ġaut onom
hol m
ĠOli ver
ĠK ro
Ġcre di
hold s
vi an
Ġre bu
Ġne ither
Ġp ier
d l
l ling
ĠAr ten
tim ore
Ġenjoy ing
Ġ1 12
din burgh
Ġpl ug
M c
ie use
c olle
ĠAd ams
c ulation
ren e
Ġmed i
ĠEv ange
17 0
ĠN an
Ġri vie
ĠC oc
bre ak
ĠGot tes
Ġind i
gion al
Ġly rics
us si
ille rs
ĠMo z
iz z
Ġnu cle
ex te
quipe ment
ĠD ue
d ri
~ ~
tisch es
ĠJon athan
ral d
Ġsc oring
h amm
ĠR A
um mi
Ġcomp oser
Ġvis its
Ġb anc
ĠDe f
Ġris ing
Ġretra ite
ĠDep uis
m ates
Ġset up
Ġdisp osi
Ġcot ton
ate ment
i nves
O s
is hi
oth y
Ġhum or
An ti
ĠDe fense
Ġex ists
Ġcap s
Ġcompe te
Ġfut ur
Ġfer tig
e f
M or
ĠAuf ent
ri alien
H u
ĠPap ier
t ais
Ġheav ily
Ìģ :
Ġfam illes
si denti
Ġsynd ic
par ty
Ġ orth
Ġbas es
áħ ®
ess a
He alth
ĠPho enix
ĠNut zer
anti al
ĠF ans
hi ver
d ans
ti tel
ĠChi le
hed ral
ĠLau ra
Î µ
z we
uti lis
ĠSch rifts
Ġcomp an
Ġgra ce
rie ux
Ġli gnes
lic al
ro be
ĠGra de
Ġsch wie
w ho
Ġy ield
Ġg ap
bie ten
Ġdens ity
ĠG U
ĠTra um
Ġc ow
une ral
Ġdivor ce
ĠDes igner
Ġp on
Ġeffe ts
enn ung
Ġo ber
ĠContin ue
ĠDis kus
bin e
gh ai
Ġthous and
N Y
ĠP ier
dition ing
th on
ĠFe atures
Ñ ĩ
ĠB ond
ION S
Ġmar ie
ĠSim ple
g ions
on ique
ver la
Ġ19 15
c amp
ĠT alk
rop rie
Ġsing ing
ok ed
ĠF avor
nah m
Ġpe ur
ĠZe iten
ĠC ob
M AN
ĠMe chan
ma link
ĠW ander
Ġmais ons
ĠC ool
Ġemo tion
Mar tin
We iter
Ġref und
-- -
we gian
f ont
OR D
Ġcol ours
Ġbelie f
ĠMed al
Ġsi nn
Ġfab rique
ru nde
ĠY ellow
ĠDie t
Ġh ook
Ġz ip
ci per
ĠRe chte
Ġsett led
ĠV A
rn berg
Ġproch ain
ĠB urn
ĠFre unde
zus tellen
ĠA vis
ĠClin ton
ant age
Ġb lind
ff el
ces site
Ġblog s
ĠR ow
Ġ ),
Ġpra yer
C ity
ĠMee r
unge r
og s
ĠK ate
Ġtend ance
Ġse gment
ĠU ms
gra duate
ĠMau rice
ĠL G
ĠBerat ung
ĠRelig ion
ĠSer ge
th rough
T it
T om
ĠMed ic
h te
Ġfi de
I AL
- )<
tail le
Ġste ts
Ġcli p
ĠPhili p
Re view
Ġany way
Ġcro is
ĠGed anken
si f
ĠLi nie
che ll
IN S
ous ing
Ġfocus es
Ġst uck
ĠS ili
ĠS oul
Ġroman tic
Ġ2 40
Ġge boren
od or
ĠW are
Ġfor got
Ġse es
zu ki
Ġrapid ly
ĠT ran
ĠHe ute
P P
geb a
Ġex hibi
Ġdes cent
Ġpas st
Ġhand ic
ĠT ouch
ĠAnd y
J ac
Ġzie mlich
E ss
Ġm ene
ar th
fin ale
Ġphys ics
Ġprop res
Ġ3 000
be ing
Ġph ilos
ĠA rena
ĠG all
Ġco aches
ĠGra f
ange bote
f inden
ass age
Ġher itage
ĠÐ ¿
ĠT emp
t own
we alth
din al
d ig
Ġlife time
ĠSo le
Ġexten d
ĠR C
Ġsp ark
ĠH andel
at on
Ġmit tel
Ġper te
Ġdem ands
Ġvers us
Ġschle cht
men ted
se rs
Ġse eds
ob s
K W
2 20
Ġre mb
ĠHe iz
ĠBud get
ĠT ests
at al
Ġb ay
h orn
ĠT rend
ĠNor way
ĠLe o
l ades
Ġein z
Ġopini ons
Ġrep l
Ġadap t
Ġm ood
i ntern
ĠWorks hop
E lect
ence r
st lich
Ġmus cles
ar den
ha ber
ric ains
au ration
ĠV otre
ĠHar vard
ge hend
Ġs ew
ce t
Ġchar ts
ĠPro g
ĠBas kets
leb nis
ĠRec ord
se iten
Ġam ateur
ĠAuf lage
ĠM ilita
ĠTai wan
ĠSl ots
ĠW ies
ir ks
att oo
Ġre fers
Ġge h
Ġhoriz ont
Ġn ursing
Ġground s
re ck
mi x
Aut hor
Af rique
Ġver tical
C es
ĠSi nne
g un
Ġtra verse
Ġper du
s ischen
Ġau dit
ĠD ame
Ġb un
ĠP ale
ĠSqu ad
um ble
fort able
Ġcom ic
ĠCham ber
u ality
ie val
ĠE lles
ier n
Ġf inger
ar zt
Ġspe akers
ĠS weet
ĠDI Y
m ari
Ġp ois
20 21
ĠTas chen
Ġchau ffe
ath le
Ġ19 16
Ġande res
Ġ1 14
up loads
ali sten
Pe ter
Ġmont ant
bi o
ĠToy ota
âĢĻ .
ve land
ĠBrook lyn
ĠLis a
ĠLi vre
lieÃŁ t
Ġgebra cht
ÑĢ Ð°
ĠRe giment
tell ten
Ġemail s
n kt
Ġanci enne
igen ous
Ġlapt op
Ġb lin
L T
ĠAb ra
ber at
we der
Oct ober
ĠG ary
ĠE igen
H en
O rt
ĠInte rior
Ġl utte
Ġfantas y
Ju ly
Ġb elles
anci en
19 88
f ur
ĠN ummer
less ly
ha use
p ace
Ġst amm
is a
ĠS ay
N ET
Ġchurch es
ĠLaw rence
Ġw it
sp ot
en viron
ĠAktiv ita
Ġg are
Ġsch affen
ĠEt ats
Ġc ord
Ġsor gen
Ġbas ket
Ġle ts
r hein
ĠTic kets
ĠAng st
hic ules
k unde
Ġbe gle
b ah
Â» <
P hili
Ġcent rale
ĠPrac tice
tic o
R us
Ġan alog
Ġtri ps
Ġg ren
ro le
Ġz uerst
Ġbeau te
Ġsc rat
Ġal ter
Ġb asse
Ġbl end
ĠP uerto
ĠIslam ic
ĠK ay
ĠPort land
Ġprin cipe
ĠM acht
cou te
and ra
ĠP ont
ĠSc rabble
ah oo
ĠB ac
Ġbe ds
Ġvor bei
Ġg uns
ĠW M
Ġp c
Ġstay ing
ĠN elson
Ġsor tir
Gre en
ĠProvin z
W illi
ĠVers ch
rg arten
ĠF otogra
s al
Ġi kea
Ġcompe ted
Ġher unter
ĠR d
enti l
m art
N otre
ĠApp s
ĠK amera
O O
ah me
Ġus w
Ġout come
Ġout comes
ĠX box
ĠNe uro
sch uss
Ġ( ,
Ġs ili
ar tige
av ier
ĠM T
P o
le it
E mail
ĠO sten
Ġl ens
li ce
Ġbuy ers
T el
ĠFe ed
Ġun abha
F em
ĠT ak
h onneur
ĠCle ar
ĠE qu
Su pp
is k
ĠT ed
Ġp owered
Ġch ien
ob a
S M
Off ice
Ġhost s
L ive
ĠT rou
ĠRe lease
ĠHer mann
ĠGra y
ĠN ep
ass urance
Ġlow est
Ġg ang
Ġind ire
Ġstret ch
ĠDub ai
ĠS oc
ĠSt orage
Ġph ones
ĠAn lage
p fl
ĠCamp ing
ĠAm ong
Ġf lights
Ġn ouvel
ĠZ ie
ĠRuss ell
CH E
H on
geb nisse
H C
Ġge rn
mon th
Ġatte int
Ġdes sus
Ġ20 22
comm unic
Ġste am
Ġtrop ical
Ġpro ved
S piel
ĠA BC
g esehen
pre ch
Ġdep ic
ĠS mo
R ock
rou le
ĠG or
ĠSch reib
ĠE uch
Ġf ame
Ġfich ier
Ġperiod s
ĠA si
áħ ©
me i
OM E
li est
eng lisch
ĠDis c
ĠBut ter
unders cho
S or
áĨ ¼
b lock
ĠDes igns
Ġapp lying
Ġens uring
ou i
Ġanaly se
Lab els
att ung
ĠJ ag
Ġdis hes
Don ald
ier ra
ĠY et
tes te
Ġsuff it
, .
Ġrela tiv
h our
LE D
ĠStudi um
Ġtit res
art a
ĠF ame
Ġshort ly
Î ½
ari tion
ti les
Ġind oor
Ġco al
b ten
Ġ19 08
Ù Ī
p orte
ĠK ab
qu iry
Ġexp ort
rab ly
h arm
ative ly
Ġfor mes
p ng
ĠÐ ²
se ason
Â ·
che id
com merce
R T
Ġunus ual
T yp
Ġv oulez
Ġsum mary
Ġwe igh
Ġlett res
Wi n
ha fte
f alen
p ouse
C ount
v iel
lo e
Ġstell te
AN G
ĠS lot
c ategor
ĠAl ten
ag re
Bl ue
Ġpri nce
Ġsc ru
âĢ º
Ġb ac
Ġvale urs
Ġti le
lin ger
igne ur
ĠPro s
ĠCh or
lim ate
IF A
Ġhop es
Ġo verse
ri aux
Re i
Ġcheck ing
op ath
Ġb ap
ĠKar ls
vis ible
ĠS id
fern ung
ĠP itts
ĠMor gen
ĠB att
bild ungs
ant o
Ġer g
ĠDe an
ni fe
Ġ1 11
AS E
di teur
Ġan z
ott age
Ġsc and
Ġl our
Li ke
W he
ielle icht
u ung
n ome
vi dent
Ġann onces
Ġch ris
Ġme ters
f ab
Ġcare ful
pren eur
Ġac qu
ĠHom es
Ġup load
ĠRobi n
Ġar bit
Ġp ounds
ĠEin fu
Ġpati o
medi ate
Ġmake up
p ielen
ra lis
ĠK aufen
Ġrele ases
ali on
[ /
irm ingham
it ment
ĠN ash
IC K
t r
rin es
áħ ³
N O
glich st
Ġerfolg te
ĠMos cow
Ġsp ray
Ġg rie
ĠLa urent
ling t
Ġd arin
ci ce
ĠIn halte
ĠComple te
ign y
Ġsu cre
Ġfind ings
Ġsor ry
ĠWor king
ĠC ategory
ĠRuss ie
ĠTe e
em an
Ġv as
c ot
aut o
E ach
reg ion
ĠF ish
ver b
end ment
an while
Ġsch war
ardi an
Ġac teurs
19 70
bbe an
ĠR s
ĠMain ten
ĠG ross
th al
we ek
im i
ut ors
t rop
ci ation
> âĤ¬
rau cher
H or
Ġconfir me
min ute
Ġame rikan
ĠG ymn
ĠSel on
bere itung
sp ace
hum an
Ġaff aires
Ġverlor en
Ġa ra
ĠOr d
el te
mis che
Ð¾Ð ²
ĠR ide
Ġr ush
7 50
ĠDoc ument
ĠDo or
Ġpor ter
Ġc ub
ĠH TML
Ġvers ucht
ĠC ate
Ġp atch
ĠHom mes
ĠH onda
Ġutili ty
19 87
ra ction
ĠCh an
ru e
Ġbar re
Ġg ue
ĠMa j
leucht ung
Ġstron ger
ĠK ann
f li
Ġ1 16
Ġre ct
Ã ¦
Ġcap tain
> ,
c il
ĠV orsch
ĠN BA
ĠDim en
2 40
ĠH unter
ĠN ancy
ĠVers ta
ĠIn halt
Ġh ung
ĠCh rome
ĠG rie
app en
w y
ĠGra ce
Ġab road
Aut o
ĠZ oll
ĠAl ge
hol t
ign ant
Ġpropose r
gle ment
Ġt win
ĠNE W
ĠFre ib
ĠS CH
cor de
Ġdrin ks
Ðµ Ð½
s olution
Ġbo ards
Ġly ce
n elles
ĠSh opping
age rs
ĠU tah
H ot
t aires
Ġsix th
Ġquali fie
Ġvisit or
n se
ĠRe v
Wor ks
Vers ion
ĠR ic
hamm ad
ĠAn forder
Ġter mes
Ġp el
s istance
ĠFlo or
te le
r iss
Ġfar mers
ĠK ie
Ġrob ust
C ast
Ġsent ence
Ġrais ons
Ġcons ole
ĠFantas y
. /
oli a
p resent
mer z
Ġj ungen
le tt
Ġrela ting
Ġcl air
are il
g ov
Ġc ogni
Ġun re
Ġer weiter
b ungen
p us
Ġemplo yer
ve ra
n zen
U X
s burg
Ġflo ors
Ġb iss
Ġen orm
mp h
f lix
Ġch ip
Ġno tion
ĠMed izin
Ġrom ance
ach ung
Ġvo ila
ĠH av
Ġloss es
ĠBra un
f ax
ei nf
ĠAb sch
. ).
il ty
) -
Ġde cent
Ġaim s
ĠW W
Ġcur rency
uis hed
Ġp leine
ĠV W
ĠH ud
Ġintern e
ĠW onder
ĠZwe iten
S ex
ari na
ĠF ischer
Ġde fi
Ġch est
ĠNe b
ĠPrin cess
Ġfai te
ĠS ante
o ce
Â ¬
Ġro ots
d its
ĠB ron
Ġdu ties
le terre
I nde
ĠC old
Ġob wohl
Ġli ens
Ġ19 05
C ust
Ġwo hn
v ail
Ġprom pt
H ey
Ġret ai
Ġterri ble
Ġdi ver
e ing
Ġloc ale
it alis
ĠM s
h attan
Ġmoun ted
ĠSp rach
Ġre mem
ĠVer ha
ĠCar los
Ġobje ctif
ĠVir gin
ĠN y
v ait
Beit rag
F B
an as
pann age
ari ties
S it
ps hire
Ġv ain
Ġcabin ets
att a
or ia
Un sere
Ġeng lish
ordin ary
M ad
a pers
c ence
Ġbl oc
m useum
T ur
T est
Tra ck
meric a
ĠAuf gabe
Ġh ref
ors che
Ġform ula
Ġsor gt
Ġso dass
ĠG ir
we ite
b ien
Ġp ig
Ex p
ĠOff en
Ġchar ity
aus o
g ale
Ġvis u
D oc
ĠCo ffee
Ġher z
S ources
Ġc ali
G old
ĠLe ather
ĠGew icht
ho tel
S chn
isp ens
Ġd ritten
Di eser
Ġu ms
row s
ĠT ours
ĠIm pe
ĠF resh
Ġdi plo
Ġref used
Ġwar ning
e le
v c
ĠBe ck
reis en
ĠSt au
mate rial
ieren de
icher ungs
ĠEn f
Ġ âĢĻ
Ġathle tes
ÃŁe re
19 86
ĠHome page
ĠW ich
an walt
re w
Ġman chmal
ĠMas ters
bo den
sche ch
ĠRepub lik
Ġgew u
Ġflu id
ĠKenn edy
cri te
f as
Ġch aleur
ĠOpe ra
' :
le rin
ĠSt ories
ave z
N ord
wir kungen
Ġp es
ĠBed ing
ur ant
S ty
ph ase
ĠWest en
m n
ĠN ative
ĠFor ces
ĠA j
ment ary
19 85
Ġbi ento
Ġbur ied
C y
Ġdivers es
Ġfocus ing
C onne
ĠCamp us
ul ator
ci um
ĠHawai i
ver trag
euro s
Ġprop ag
ĠL amp
cess aires
ĠK G
Ġpo verty
w urf
r ous
Ġminim al
Ġf osse
Ġcir cle
ĠBrow ser
ĠGu ard
Ġh es
ĠKi no
ĠL P
Ñ ĸ
L ES
ti ens
ange bot
ĠS onne
Ġge lesen
Ġad he
asi ve
for schung
ĠM L
ĠJe ans
ĠA K
n lichen
c art
Ġrest ric
Ġret ourne
ĠMc G
Aut or
imp orte
ĠPl ans
ĠN J
Ġsu icide
S D
ĠTer rasse
Ġautor ite
ration en
ĠT iere
Ġchois i
k opf
ĠGra d
Ġrem ise
ĠGe fa
ĠG A
ond es
ĠOff iz
Ġ1 13
Ġsurvi val
Ġre ly
Ġcont ents
ĠEig ens
ĠLe gal
Ġle gi
ĠGar age
ĠNach dem
ns te
ro gen
r ze
Ġc and
B ooks
ats u
z um
ĠMin ute
Ġres ident
agin e
ĠN az
ag nes
Ġlic ence
agra ph
Ġv ingt
ĠL uther
Ġwat ched
ro ge
e ver
est ab
Ġge kommen
ĠL ati
Ġv olet
ĠG O
ĠE g
Ġsp rechen
Ġcri mes
bare r
iz ien
F ar
Ġpri de
ĠFin ally
Wel come
Ġp us
ri enne
ort ant
Ġde leg
te aux
ĠHist oire
Ġuni verse
k tiven
Hel lo
i ents
Ġg ras
ch ent
Ġgra phi
U l
ing o
ĠB Y
Ġsens or
Ġconcer ts
y re
ĠF ot
wi ft
Ġh oney
B rand
ĠJoh nny
Ġaccu racy
Ġsurvi ve
Ġh anging
Ġpart out
auss ure
Ġdep loy
ĠT ap
u ous
ĠMo di
Ġamong st
Ġo xy
rz t
f unk
Ġarrange d
10 2
lies en
ic kt
Sh irt
j ar
Ġp seud
ĠEig ent
Ġf aute
ir al
Ġfle urs
ĠD M
ati le
C all
Ġzie hen
credi ted
n aires
Be au
c ity
Ġth ri
Ġke ys
Ġliter ary
aire ment
Ġra ising
ric an
Ġrec yc
Ġwhe els
Ġd agegen
ĠThi nk
ĠM esse
li ving
d ad
ĠF ond
Ġeduc ated
19 45
Ġdefin e
ĠP D
Ġco at
J oh
ĠFi x
Ġb elt
ĠPh ase
og an
Ġrus se
um an
Produ ct
ĠWe chsel
Åĵ uvre
o ons
is tik
ĠBri ght
Ġkleine r
t rise
re chts
Ġqu itte
v ak
oles ale
Ġh orm
i ben
ĠRos a
Ber lin
ĠB eth
ĠL uis
app ro
ĠNe ck
Ġex emp
Ġbl ow
ĠJ oin
Ġaf raid
Ġmo on
ce rn
othe rs
ĠP od
s ser
Ġsh oulder
mer ksam
ph abe
ĠK ost
ĠSp ann
be zogen
Ġra ted
k ok
rig ue
Ġsol chen
lo ve
Ġcar pet
Te xt
Ġf ati
Ġ18 90
) (
Ġm ature
te am
X L
the less
Ġc uts
AR E
ĠðŁĻĤ <
ĠK az
Ġa x
ieren den
pro ble
Ġcat alog
re ux
ĠZ uf
wi nning
ĠZ ahn
Ġwen igen
qu id
fic tion
Ġthe rm
form es
Ġvent es
ĠB un
ĠB ie
m ise
Ġpl ates
Ġaus fu
Ġar rie
Ġlie ber
ĠJ ur
ls ewhere
mittel t
v ari
Ġbeach ten
Ġoper ator
ĠK art
s el
ori ous
ĠElekt ro
Ne u
Ġtem p
I de
b il
em pe
s uch
ĠNi ntendo
F a
s ystem
ĠMan uel
Ġview ing
im en
Ġv ali
s si
Ġde fic
an moins
ĠD rag
quili bre
Ġrep airs
ĠF on
fe i
ze p
ĠAus fu
ĠMar oc
ort heast
S earch
tz ten
Ġsn ap
ĠD ry
v oc
ye z
Ġ1 18
ĠB oots
ĠV ort
Ġfin est
th en
is i
p fle
ĠG lau
ĠSho es
Ġdeven u
os si
thi op
Ġc anton
Ġpri m
P lace
D ra
De cember
gemei nen
at oires
i ro
Ġbrau chen
ĠReg ie
u ese
arge t
om ber
ri ties
ho e
gi bt
Ġdec line
ĠW issen
ket te
wri ting
Ð ·
P rom
Ġvo ted
Ġl angen
ĠOrle ans
pp ich
ras bourg
ĠG uine
ĠDi agn
Ġderi ved
ul ating
Ġsou li
ox y
ĠEx pe
Ġper dre
ĠL ith
ĠBrun o
ĠThom pson
en cy
Ġge omet
B is
Ġein s
ĠRid ge
Ġhi red
Ġch ic
clai med
ri tion
ĠFrank lin
Ġwarrant y
Ġess ays
t v
ĠCan on
ĠDen ver
ir che
ĠB A
og o
ove d
h ill
ĠTru e
Ġfore x
w l
Ġ2 30
ĠW ould
Ġhors es
im me
ĠP ep
ĠCamp bell
Ġdes sin
ent atives
Ġany more
ĠB ased
Ġshould n
Ġerwar tet
ĠAn alyse
ĠM und
** *
Ġbil den
k ampf
ĠRes ults
ru he
Ġvis age
ĠK op
ĠSt r
agn ol
ĠB eng
ĠBu ild
: \
ĠEd ge
Ġas set
ile y
c ents
Ġchi ff
ĠS oll
Ġang ene
ĠGri ll
Wind ows
G T
Ġartis tic
nd ing
Ġsch la
Ġreve al
ĠO d
Ġmed ian
Ġf ewer
Ġappar ai
fe cture
ĠZ w
Ġdu o
ĠDe e
ma tical
ĠFlor ence
ĠK oo
al z
Ġis lands
f are
H il
ĠGab riel
Ġ17 0
Ġ19 07
ĠStew art
fik ation
U s
Ġh ack
ĠPro file
ĠB ird
ĠAnspru ch
ĠSe pt
Ġscre ens
ĠJuli a
Ġthe rap
od ie
Ġfe i
ĠG la
ze pte
cei ved
Ġbou che
ĠSchl uss
Ġsw ing
S cript
land o
pie gel
oo oo
ĠBelgi um
Ġgar anti
Ġvent ure
Sh ow
ac ion
l arge
Ġsil ence
ĠPar ker
l ooking
ĠW A
Ġp ayer
Ġsign ing
st art
Ġa ci
crit ure
ĠErn a
ĠL ay
mic als
19 84
S I
bes ser
Ġel der
Ġquel qu
on ut
ann es
Ġev ange
ĠA ou
Ġsie he
10 4
mis si
Ġeng aging
ĠF ur
Ġin com
ĠK abel
Ġad oles
ĠSe ven
ĠM AN
ĠJose f
Ġverk auft
b acks
ĠLand s
**** ****
Ġexte rior
Ġk il
Ġshe ll
wend ungen
l te
Ġoc cupe
Ġdei nen
ĠB ott
Ġgaran tie
Ġpa iement
Ġv alle
l ature
ĠWe rner
B a
T ri
3 60
ĠAl aska
he ld
ĠCi nem
IG HT
as sion
ĠK el
ĠI denti
ĠS la
Ġtalk ed
jou x
ĠFe ature
Ġpai x
os te
ĠFahr rad
it ude
and es
Ġden noch
u u
tell te
ĠUn fort
Ġc ant
an ied
che ment
Ġb ills
iter rane
ĠLab our
b age
ab ad
ĠGra ham
lic op
alis iert
Ġfil ling
Ġr entre
ce let
Ġgu ter
ĠCoo per
Ġfl or
ĠR AM
icher n
ĠI an
ĠVene zu
ĠGu ill
hal ter
Ġhead ing
Ġdeep ly
ĠStand ort
st ands
Ġcri min
ye ur
athe rs
Ġpar ks
ĠM ol
th y
ĠJim my
tre me
Ġter minal
ĠT oute
ĠCli ent
ĠKa ffee
Ġge le
Ġfle et
Ġmy stery
" ;
Ġl anding
Ġgu it
Ġp uts
G M
ĠKn ight
ĠC ul
ĠSo zi
rie urs
Ġ19 06
ĠCo ck
ar tig
cial es
B ewe
Ġj ack
ĠWir kung
Ġsau ve
ĠSt at
ĠBas ic
ĠK ai
Ġh ie
quet tes
Ġf its
In st
Ġtext es
Ġdurch aus
pp t
J ames
ĠSau di
ĠH ob
Ġan cest
Ġextre m
L INE
ss age
Ġge o
ĠBro thers
g ood
ĠFran ces
Ġgent le
ĠP on
Ġdimi n
ĠOs car
ĠLet ter
H y
k au
Ġwor ship
ĠGes chenk
Ġd ys
Ġ12 8
Ġthe ater
p rom
tit udes
meld en
ĠWe bs
Ġvill a
au ber
11 5
fol gen
um ar
ge legt
Ġ18 00
g au
ĠG roupe
Ġsymb ol
ĠEar l
Ġquanti te
Ġlay ers
F ull
peci fic
um ped
ĠSchm idt
ĠMot ors
b ase
adi n
4 50
ra z
de cine
Ġethn ic
ĠHor se
Ġsp aren
ber blick
Ġcro wn
Ġchair man
ĠRu he
g ler
ĠSt unde
Ġs hed
wh at
ĠW ard
Ġmer ch
reg ist
ĠCon cert
ĠRe de
Ġp he
ĠEink auf
man ns
di men
ov ation
Ġtarge ted
> ^
Ġd auer
Ġlaw yers
S un
Ġb run
hu ile
bed arf
Ġren du
bere it
ĠAtt orney
ĠAu ff
ĠS ax
? !
Ġb ub
ĠBe ar
ĠPro je
Ġent gegen
ĠM I
Ġw rites
ĠAf rique
Ind ian
ss on
Ġcal m
Ġfol gt
ar ks
ĠSte ven
Ġtrai ler
Ġsk illed
Ġch asse
e es
ĠC ours
ĠB aker
wachs ene
Ġju ridi
Ġa it
Ġvol onte
ĠChair man
Ġden ke
T ous
Ġjui ce
p to
Ġacc used
Ġven ues
Ġcapit ale
Ġg ate
ĠZe ichen
ĠJ et
ut zen
d ure
Ġg li
Ġend roit
Ġbri ck
ĠK amp
ol k
ĠProf il
dam n
Ġcra fts
lt lich
ĠP el
uss en
Ġex is
Ġacce le
ĠLa ur
C M
rate ful
Ġmoi tie
d west
ĠI hres
ĠL ost
th an
ĠG len
Ġsudden ly
ĠMontre al
Ġbou le
ĠH T
elf are
Ġ1 17
ĠMi niste
AB LE
Ch ild
L ang
ĠK B
fiz iert
Be cause
ĠO hne
Ġ19 09
c ules
Ġausgew a
Ac cess
ĠIn frast
r gies
Ġprof il
ul ties
ĠE ns
ĠL ooking
Ġ ).<
Ġsp ie
Ġemer ging
Ġre verse
sch lag
Ġdi agram
ĠIns pe
GB T
Ġh ide
ĠN ad
im ir
Q uelle
mp fen
ĠH unde
Ġagg reg
Ġad mit
ac les
Ġv ise
Ġfe ra
ble r
icher heit
ĠDak ota
on ly
Ġge a
Ġgovern or
Ġwan ting
Ġun mittel
Ġartist es
ress um
ĠC ler
ĠGh ost
onn ie
Ġpn e
Ġche v
Ġbatter ie
M ulti
Q uel
Ġhand y
Ġbat aille
Ġdee per
Ġou verte
Ġt ries
ĠRe le
n liche
Ġdou che
usive ly
hu a
ĠEr z
Ġhand book
c one
Ġt ied
ĠAr ticles
ĠSpe ct
wer ks
ĠCro wn
Ġsex e
ĠWo hl
ĠR ES
ĠWe ge
ĠV as
e rgies
ch tet
Ġum fang
ops is
ĠG round
Ġk W
ur ban
ational es
ci an
ĠAP I
f ug
oc at
Ġex cess
pl ayer
Ġk an
Ġg rain
Ġanci ens
Ġinters e
Ġdis plays
Ġc redits
Ġcour tes
olley ball
Ġl ok
10 3
ĠSt orm
and i
alen ted
c tiveness
pond ing
s igne
ffi n
ĠAd ult
ser ts
ai red
en du
Ġc ure
Ġjew elry
Ġpl aque
a o
ON S
ĠB illy
oure ux
ĠE V
rist ol
Ġt ags
ci ale
ĠGrat uit
ĠA ctive
ĠStan ley
Ġs ke
ali an
Ġt ar
ĠMitt woch
Ġban king
ac comp
bl ack
g ungs
ĠDies el
ĠCar ter
Ġdef end
Ġob st
P ower
ĠC F
Ġw ake
re tt
ĠR oth
Ġri val
Ġpl antes
ĠStie fel
Ġc ave
ĠS ous
hl ten
ĠDort mund
S ti
Ġale rt
habit ants
Ġti red
Ġemo tions
Ġar ch
ĠX i
Ġfem ales
ĠPh D
âĢĻ <
illi r
Ġla it
Ġcons olid
ĠS N
ĠP r
Ġb old
utz ung
n at
IS BN
p ital
ac io
ĠF ron
Ġapp le
Ġb ol
zieh ungs
aut hor
Ġh oles
ĠW en
ĠS MS
Ġm ild
ĠH oo
ĠB ull
â ĺ
ĠGeme ins
ĠNe ub
Ġrare ly
site z
Ġsmo ke
we chs
ĠV ent
Ro bert
Ġcame ras
Ġoper ates
Ġden tist
ĠMarsh all
ĠTurk ish
ount ain
Ġequ ally
ĠWi ener
ĠOber fla
ĠLu ke
Ġes timate
Ġp oser
Ġbi ology
st ud
ap se
Ġto ys
Ġs ket
Ġedi ting
Ġai med
Ġprogra mm
te lier
Ġad mitted
ĠL anka
D am
ĠMo der
ĠâĢ Ŀ
b iz
Ġ12 00
lle rs
ĠM uch
ĠB enn
St ate
Ġmin istry
ĠFl at
ra h
ĠSt ab
Ġcheck ed
Ġv ole
Ġch ale
sp ra
ĠBet re
ĠGe ist
For um
ĠKlos ter
ĠKein e
ĠLog o
he iz
ĠCerti fic
Ġmet res
ti tions
ite z
et a
ĠC AN
Ġvic tim
Ġcir cul
Ġ10 2
ĠCom ics
re k
W atch
ĠSpie gel
que ur
ĠA del
Ġgef allen
E ducation
Ġface book
ĠLe h
end a
ĠR unning
Ġmeas ured
ĠTrans fer
A i
Ġdiabe tes
Ġdese r
ra ment
19 83
ĠMass age
akes pe
Ġ ryth
ĠM aking
mo ign
m acht
ap est
f ru
ĠMay or
Ġt elles
phe rs
ĠSch le
Ġt rom
Fam ily
ĠPar te
Ġ Ñģ
Ġj ury
berat ung
ĠR ess
ĠFil ter
z ard
ĠF ak
Ġen tier
fi ant
ĠRob inson
Ve rein
k it
ĠW right
Ġmondi al
ĠR alph
Ġd or
Ġ(âĢ ŀ
ĠH essen
Ġsti mm
Ġmis es
richte te
ĠJ os
Ġdes ktop
oc kets
or ti
Ġ18 80
Sec ond
Ġsp ati
ĠWell ness
W ater
r ard
Ġc igare
Ġre tre
lu ence
ci aliste
H am
Ġ( =
ĠLe hrer
ra its
Ġ ×
ĠB ain
ĠItali e
Ġtarge ts
i us
ok a
Ġrece tte
ĠKi n
Ġc oi
chland s
Ġtre m
geord net
st age
Ġsigni fie
uti liser
>| }<
ĠAl ain
ra uf
ĠModern e
ĠWay n
ĠLe iter
d b
F ri
umb ing
Ġph il
ric ane
Ġent fern
Ġ19 01
ĠMor ris
i nten
m iss
mi k
Ġsupp ose
Ġcos me
ĠO H
ĠAd resse
ĠP ages
Ġab und
Ġpro lon
Ġf es
ĠA I
Ġ18 70
ĠZus ch
Ġs wit
ronom ie
M od
O ui
u lier
ĠWer ke
la us
on st
ĠG ulf
Ġint ui
tili ty
ome rs
Th omas
Ġlongue ur
B ahn
ĠWayn e
sert ation
Ge me
10 6
chaft ler
, ...<
K ont
ĠS ons
G P
ri fier
k w
ĠWas ch
ĠAir lines
Ġc oins
B ru
Ġcit oy
Ġbl au
de ment
lo ver
Ġne un
ĠBet ter
Ġmere ly
Ġhigh way
Ġend or
Ġdis order
ĠMargare t
ĠBewe gung
Ġstru ck
Ġ1 19
ress ant
unn e
am o
Ġbl anche
Ġhe aven
amp a
Ġa ur
own ers
ĠI R
Ġform ats
Ġglo be
bre chen
Ġins ights
Ð ³
Ġloc ally
ĠStre cke
it ting
Ġcon texte
ann on
ĠN as
Ġadj us
Ġrub ber
Ġbe aux
Ġ19 04
Ġli mi
Ġma tern
b lau
Ġprodu ces
ĠS ites
ĠVert re
Ġr hyth
isse z
Al ors
ĠSch i
kir chen
K a
ac ting
anze igen
Ġt arif
ĠA W
Ġcry stal
ĠSur ge
udi os
c lick
Ġb unch
ĠZ y
pond ent
Ġg ym
æ ľ
e g
ĠSch les
Ġis lam
Ġbal con
Ġor n
Ġhar der
rop he
e rn
ai k
ĠFre ude
ĠCh ocol
ĠG rau
Ġpra y
Ġdes sine
ĠIns tit
10 9
Ġres cue
ographi es
Ġwis dom
Ġgeb aut
V R
Ġin tra
lle ment
C as
be x
Ġcan al
Ġpar a
ĠCle aning
Ġflo oring
lie fer
M M
ow ed
Ġh ub
Ġdri ves
ond o
ir chen
ent lichen
Ġou til
Ġav oi
ĠEng lisch
gar de
ĠEx cel
ĠD A
f reich
Ġgro sse
Ġpack ed
Ġem pe
Ġmas cu
Ġtrans por
ĠF ollow
itzen der
Ġran ging
Ġtot ale
Ġje unesse
ĠWar en
Ġper ce
Ġcomp ter
ju ana
Ġge lo
h on
il ar
ul us
Ġhigh ligh
ent a
iss ue
Ġan sp
ĠØ§ ÙĦ
ad ows
legen heit
Bu y
D B
ĠBet ween
ĠA vant
ĠHer bert
Ġa rom
ru ktur
Ġgar dens
Ġvoit ures
ĠWer be
ĠV oice
gre en
stan bul
ĠL ille
ĠR ico
Col or
Ar chite
M iss
ĠM w
sen tiert
ĠZ en
Ġtran qu
Ġ10 4
Ġopti mis
Ġw ard
Ġb ains
ĠRei nig
ĠRe is
leg te
AT A
Ġbi ens
Ġpen ser
Ġbedroom s
? )
ĠK eller
Ġf ought
w ill
Sel on
Ġbre aks
ĠAn imal
Ġt iers
ĠSuc cess
Ġal arm
z ell
ĠC abinet
b ring
ĠD j
ti zen
Ġri ches
ĠAl ters
f ox
Ġpurs ue
sch rank
S R
asi um
ĠL ese
Ġm asse
es h
ns ch
E AN
Ġmont agne
ĠEr de
Ġfron tie
Ġuti le
Ġp ont
ĠHer rs
S om
Ġz og
ĠBest and
qu it
ab end
st r
rechn ung
ob ili
Ġfre quent
b ling
ra tif
2 30
mi ns
p id
Ġl oose
Ġd ict
Ġsub je
ĠSt atus
ĠPro test
ĠZahl ungs
ĠH arm
ti ments
Ġmodi fier
u aire
t ranger
Ġpen alty
Ġhear ts
Ġb aisse
ĠGe heim
ĠPo pe
pe rate
ĠEin fluss
Ġstock s
Ġac ous
ver tra
Ġsp richt
Ġen que
ĠDan ach
ig o
ĠNE U
ĠMe uble
ĠH yp
Ġse min
ver an
Ġra con
Ġpe pper
wei ÃŁ
e ter
br ity
ĠG aming
ĠMur ray
Ð ¿
Ġser vers
cke rs
Ġs oin
ĠFre edom
rie ls
Ġvo ici
Ġdis aster
Ġcl ari
Ġp ion
Ġquoti di
N ie
Ġleg acy
ĠJus tin
oc y
Ġdi z
pl atten
D M
Ġimp ose
ĠFA Q
ĠRug by
iden cy
ĠZ o
umb ai
Ġsign als
ac co
n ite
Ġman che
ĠTre k
ĠK omm
Ġro be
Ġin her
ten ce
ĠC ali
ĠPal m
tudi ant
ĠSex y
áħ ¥
ĠS ak
as ted
Ġs ail
Ġw under
brigen s
1 18
w he
ĠW it
ĠL at
Ġg r
ĠA cheter
ĠTer ror
ĠA ub
atis chen
mi ni
Ġenable d
P I
Ġsynd rome
othe rapy
Ġto xic
ap or
Ġc ler
L ib
f ather
Ġbiss chen
ĠG anz
t oile
M id
Ġtri ple
Ġdeli ght
G ER
Ġch re
Ġcon damn
Ġreg ards
l at
Ġo pt
O B
st ab
Ð ĵ
ĠNot es
Ġla ufen
19 82
k al
Ġsu ffer
ĠPo ke
d or
Sp an
Ġv ende
ĠReich s
Ġordin ary
Ġp sychi
Ġaug mente
lis on
Ġg utes
um ph
ĠN AT
Ġwar s
Ġcop per
Ġwor n
t ri
Ġb aking
Ġp ointed
Ġm ouse
ĠMar cel
! âĢĿ
et ry
hist or
U nder
Ġl oop
Ġj oli
Ġg lace
Ġsocial es
Ġcon vert
ĠSing h
G ew
Ġv oire
b ane
ĠDe te
ĠF ocus
Ġp ac
ce au
C ri
Ġarbe itet
Ġfis cal
Ġclick ing
ĠEn semble
and ie
In fo
Ġg our
Ġge rman
Ġgar c
j ourn
ĠZent ral
r ken
ĠIn v
ĠMed i
y me
ign es
Ġsti r
Ġfur ent
ĠS ow
ĠBour g
cell ence
ĠL aser
ĠS UR
aue rt
b onne
ge ma
Ġwhere as
ĠBu ck
hard t
Ch au
ĠJ ennifer
Ġfa its
e lect
Ġf oss
Ġo m
2 12
re o
ab o
ĠR SS
Ġou ter
ahr ung
Ġart work
Ġqu an
Ġgar der
Ġbes itzt
ĠHe idel
ĠSt ro
Ġhas n
áĨ ¯
D el
" ),
pro b
ĠA x
pe g
Ġint ro
ĠBret agne
ĠL odge
ĠLe it
ĠMar vel
Ġj ung
Ġf ence
fin als
lin ing
Ste p
ĠAd vis
ĠAnt rag
cri vain
ise x
Ġum fasst
ĠEv ans
= \"
Ġa esthe
F ollowing
Ġbu ff
Ġtri als
Ġok ay
Ġcons ulte
ĠSte p
ess els
Ġv alley
Ġsw im
Ġbon heur
M aster
ĠUn fall
Ġh unting
ĠMed ium
Ġf aux
n alite
ul se
ĠNov a
ĠNetz werk
Alle magne
ĠRuss land
10 8
Ġcon tient
ive au
Ġvie ux
ĠHug o
ĠBas el
ĠB og
Ġmist ake
ĠSp ot
C at
ĠC iti
Ġges pielt
Ġm ite
rie ures
ĠZahl en
stra ted
rate urs
ĠGu est
ish ment
ĠT ut
Ġan te
ĠMus ter
ber nahm
Ġst ack
pan nt
ĠBru der
ad ap
ici ens
L ire
ĠC rime
D ER
ĠStern e
Ġg ewe
Ġh uit
ph en
Ġsuff is
isten z
Ġapp lies
ĠL av
Ġac quire
ĠV R
Ġb auen
tivi ties
Ġm aire
lie fert
Ġz usta
Ġc iel
Ġ19 03
ĠB ug
ĠTro tz
ĠA ben
min a
ik es
fes sional
av ance
ĠF isch
Ġtw elve
ace ae
J etzt
m ali
ter en
ra ÃŁe
eni ors
k oration
Ġas ks
is ure
Ġre vers
ill o
do ors
Ġrough ly
ĠF ritz
pel lier
H ER
b lo
Ġbe ans
ol ation
ĠNe vada
ah o
Ġsus pect
Ġscol aire
ĠCan al
hens wu
Ġkey board
== ==
R ob
Ġm p
ie ger
S U
m usik
ĠDa her
Ġwas hing
Ġges und
ĠF ors
ĠM ie
ĠX P
ĠShan ghai
ĠCry stal
S O
3 20
ĠFe e
ĠI kea
Ġtra um
tern eh
Origin al
ĠSus an
c ad
ĠFl uss
Ġpu iss
ĠSpe zi
Ġdecre ase
ĠGew a
ass ade
Ġdesc end
wo hn
OC K
ĠEri nner
lis hers
for mers
t our
ĠR ost
19 79
ĠCl ay
tiful ly
ĠBl umen
C ro
ĠCh oose
ĠPol en
ĠT ank
ĠAk tien
P ack
igh ters
rg ent
ĠSe xe
uch ung
ĠPar ks
ĠZug ang
Ġshe ets
ĠDien stag
ĠWar ren
ĠHoll and
ĠC row
ĠB d
Ġse ar
is c
Ġbe ob
ĠG ard
ĠE duc
iz es
ha ve
ĠSch rift
cal led
ĠG ros
s ar
T unes
9 78
Ġunse res
Fe r
Ġgene ric
at om
di ter
Ġre mer
ĠFin ale
rite rien
Ġan zu
ĠJ ub
B ur
ĠG az
Ġse rt
Ġdar um
entre tien
ĠRo be
ĠSp re
ĠS achen
um ente
ĠGe h
kun fts
nf te
ĠGem u
Ġpers u
Ġreview ed
ĠQue bec
11 1
B undes
le tin
ĠC ub
ĠB ord
Ġti ent
Ġk ra
Ġlang ues
Ġattra ct
Ġlux e
p ent
ro v
Ġgen uine
Ġrest ore
ĠF iction
te chn
ass es
sent ent
be tre
Chris tian
Ġar med
k omm
w ed
li b
Ġs auf
Ġequ ity
19 81
Ġ13 5
D id
Ġ3 65
J oin
ĠD rum
Ġno se
Ġpos ter
Ġre icht
Ġw are
ĠS G
Ġgene tic
Ġgen auso
Ġb rush
Ġinvol ve
Ġex hibit
ĠD arm
le gung
Ġeinzeln e
r ker
Lear n
Ġsupp lied
L ooking
ĠAndre a
Ġclim at
ĠG M
w achsen
d ae
oth s
m ais
! "<
ĠC uba
Ġmode le
ass ador
ĠHerz og
W ork
chei ben
l est
ĠTit le
Ġsub sidi
ĠAuf bau
ĠN antes
Ġtex ts
ĠS ara
re rs
Ġdrum s
ĠW an
F oto
ĠPort al
Ġsch aff
Ġcri tics
D ar
ver tising
ĠI BM
P ay
g ical
Ġex haus
ĠRay mond
ge ls
c up
st rom
um m
ĠEdit or
Ġp izza
cht ung
ĠS ind
ction al
Ġenh anced
áĦ Ģ
ot ten
ĠBar ry
stan tin
Ġn ai
T or
h im
ĠT ac
Ġers tellt
wie gend
Ġro lling
ted t
ĠM ong
ian e
Ġwir kt
ĠDan ke
ann y
Ġtoile t
ber all
Ġmus sten
O ld
Ġab sch
ĠE lite
ass is
ĠâĢ ļ
ĠS ophie
li ms
end rier
ed a
qu alita
Ġchau d
Ġren amed
Ġar che
c ost
ĠS tim
Ġass urer
ach im
Ġ !!!<
wert ung
ĠTra ding
ni al
St adt
Ġrej oi
p ire
Ġdan se
ĠG y
ĠArk ansas
d ates
P at
res a
Ġn it
> /
ĠPers o
um my
Ġri che
ir n
fre ie
ĠL ust
t l
Ġsh apes
ÃŁe ren
ra ctive
ĠJ ar
Ġp ist
w itz
ĠRe form
zug s
run n
Ġcol oring
K at
ĠMor ning
og nis
at tra
Ġwar ten
Ġt alented
Ġabsol v
fi rst
ĠUn ser
ĠB ris
Ġst ops
Ġo dd
vers ity
reg ierung
Ġo s
Ġmatch ing
ĠG ela
Ġ( âĢľ
ator en
Ġalle z
ĠSpan ien
Ġp orts
Ġer ga
Ìģ )
ars h
Ġce re
las tic
ĠMc K
Ġme ubles
ĠP O
ini ti
ĠU C
Ġpouv ait
Ġmusic ian
atte red
Chi na
Ġja une
ĠP RE
ĠSa fe
pre cher
mati k
Ġtable t
ide d
Ġking dom
m ind
wei n
ĠFl ag
ĠCh arge
Ġlo ge
lades h
Ġum fassen
LE CT
g roup
v at
Ġru i
Ġsu jets
am az
ats on
pe kt
ĠUp per
ath lon
ĠPri mary
op les
c ury
qu ali
ril ling
li ft
19 60
ĠSp ark
ĠC OL
ĠDen mark
Ġra tings
I mm
Ġformer ly
st ung
ĠMun ich
Ġsuiv ants
Aut res
ĠInst all
nd ischen
Ġt ief
á ĥ
ĠBirth day
Ġw aves
Ġac cent
Ġaus reich
Ġmen ace
Ġcar rier
Ġins u
Ġtari fs
Ġcou nsel
ĠDel uxe
ĠK ult
re ien
a illes
ĠV ER
Ġy a
ĠKri tik
n itz
ĠGra b
akespe are
Ġac tivis
Ġfourn ir
fam ily
Ġ19 02
Ġfound ing
t le
Ġ10 6
Ġl ol
ĠV O
ip es
Ġmist akes
Ve rb
Ï ģ
W ohn
qu a
ci nes
Ġlis tings
ĠDes halb
ille ts
Ġb its
ĠSu jet
chs ter
ĠBei n
roffen en
ĠBe ge
W al
Ġge halten
ĠU E
li us
Ġaus dru
Ġpo em
undi n
Ġsus cep
Ġsen sible
ann ers
ĠK urt
M el
ĠÅĵ uvres
ram ic
Ġact uelle
Ġc out
ĠMe g
Ġvor aus
Ġvin yl
F ollow
ĠPro t
Ġt at
Ġquali fy
ĠBl an
K O
D U
Ġdiame ter
ĠDar u
ĠKen ya
ĠCol lins
ĠSymp h
B esch
ĠG ol
ĠMar co
ĠBro ther
v ants
H al
rder t
val u
Ġwild life
par ent
v ollen
ï ¸
Ġar rest
ĠBal ance
ĠMit chell
Ġc ats
ĠWith i
sident en
he alth
Ġre gime
ĠP red
zeich nis
Ø ª
ĠB onne
ĠF at
Ġfr ustra
Ġent weder
Ġinfl amm
op es
ĠD ass
Ġgra y
ĠF ed
Ġfab ulous
g mail
Ġhor ror
ĠWithi n
Ġst om
Ġtour ism
ĠVe hic
13 5
ĠNe ues
e a
Ġw and
ĠRe member
Ġd r
Ġstri p
ati a
Ġkn ee
ĠT OP
Ġmet ab
Ġcast le
ĠT outes
Ġz ersto
Ġregar der
Ou est
ĠPan el
ĠW ant
ĠCar di
met ure
Ġsp oken
ĠRol and
G roup
Ġmodi fie
Ġc ush
land ais
19 75
Ġover view
ĠSh irt
ali ers
Sein e
ĠGlas gow
Ġhi ring
us tin
Ġban que
ĠNap ole
ĠG am
lo yd
Ġwe apon
Spe cial
10 7
ĠSch war
ri de
Ġ10 3
ĠEm ma
Ġwe ren
hol en
ĠSy ria
nc ing
Ġtrus ted
Ġun com
Ġ12 3
Ġla p
Ġling uis
pend ance
ĠK leine
zahl t
ĠVorte ile
Ġcry pt
d h
Ġve gan
at aire
IM E
Ġver bre
Ġste m
Ġfit ted
Ġf ake
ĠZu ge
OS S
Ġse tzte
b ringen
ĠExper ten
19 50
Ġex t
Ġf anden
Ġprof its
Ġpass iert
ĠB oule
We i
) "
ĠFore x
ĠMan ns
Ġbur ning
Ġvo ting
ĠB ier
els h
Ġoccup ied
Ġmode rate
Ġg rid
Ġbe quem
ĠCe metery
19 78
M aison
es sed
ĠO ui
Ġten u
Ze it
Ġ5 000
g rand
ĠSe hr
Ġw ann
gri ffen
Ġout let
Ġre fe
lo is
Ġover come
Ġsty lish
ĠS alt
} ,"
Ġk ar
Ġra ppe
prechen de
Ġfi ber
ĠVo ici
m ay
ĠVi enna
I st
Ġconf ron
Ġkom p
ĠLe ader
ĠK ant
zi ger
Ġelect ro
Ġhabit at
Ġge ra
Ġadj acent
ctive ment
ul sion
Ġf ung
M ER
h aben
ĠHoch zeit
Ġsaf ely
Ġw ed
ĠCas ual
ĠRo h
ĠRec ru
B al
), <
Ġactive ly
Ġn as
ĠHe avy
Ġtr ash
E ins
Ġv aut
A z
Ġstar ring
ĠIn side
ĠWar um
ĠAm y
Ġfich iers
Ġg ambling
Ð ±
rie z
wor tet
mit tag
Ġport ray
ĠU sed
ĠJu lie
Ġas pi
ĠSt ay
Ġac res
Ġpregn ant
ĠE aster
ogra pher
Ġmod ules
ĠTe a
Ġ18 60
Ġneigh b
Can ada
nsi cht
geord n
p rung
o vic
Ġrein e
F rau
Ġpuis se
ome ter
kt uren
Ġc amps
ab ling
lo re
Ġton ight
Ġco e
che z
Gru nd
c ool
r ari
ĠB orn
ver tre
uille z
Ġin ex
Ġn an
Can adian
ĠVor ausse
Ġerlau bt
Ġattack ed
C lau
f ood
ĠPer haps
sm ith
ult an
G ame
fol ger
ĠHim mel
ĠSti ftung
Ġdra matic
Aut om
Ġre vol
Ġimp rime
Ġgu ilty
Ġadop tion
T HE
ffn ungs
co ck
p ath
Dies es
Ġm ales
o ble
Ġre vient
ke ters
che f
Ġwor ker
ĠSl ow
te c
r liche
ĠMe isters
ĠP ow
zi f
? "<
Ġreve als
ra ct
ĠMi o
Ġma j
AM P
cont res
Ġartis an
m arine
n ario
ra tives
ĠT oo
d an
d action
Ġcolle ges
G od
ĠComm ons
Ġback up
Ġex empl
ste ller
ĠVo gel
bo ot
Ġacc ueil
ĠH ood
Ġsol s
ĠS li
Ġsp ont
ĠE cht
ynas ty
áĦ Ĥ
ĠMode lle
ass y
Ġun fort
Ġl oud
ri x
Ġsha ped
cious ness
ĠJe re
thi as
x it
origin al
ĠStad tte
k ammer
isse ur
ĠCra ig
R ay
Ġgra des
Ġautor ise
In f
Ġabsol ut
Ġgrund sa
Ġsch reibt
Ġgathe red
ĠGe brauch
est y
Ġsupp lier
ĠS F
Ġfla v
ki na
Ġviol ent
Ġt au
c z
; "
la ter
ĠT ip
f iel
le z
Ġre ag
ĠKon zept
hen sion
ĠAll tag
Ġtrav aill
Ġbegi nnen
Con tin
Ġp ousse
ĠE SP
ĠBe richt
th odes
ĠPro jekte
Ġe gal
Ġnive aux
n ze
Ġfati gue
Ġfi red
bed ded
Ġfais ait
ĠNet flix
h art
ĠLe itung
Ġsc ar
m oi
Ġg rateful
b orne
ĠUm gang
ĠMe yer
Ġro bot
l ants
ene rg
Ġf iche
>âĢ ĺ
ĠJud ge
ĠCar oline
Ġex it
ill ons
F ort
le ton
nis ters
Ġtour ist
Ġges pe
ĠCl assi
e ra
Ġf ave
ĠMob il
ĠO ffic
ĠO FF
Ġarchi ves
Ġsep tique
ĠChel sea
n al
row ing
om es
Ġrep ar
ç ļ
ĠArchi v
ass o
rei he
à ®
ĠCir cuit
Med ia
Ġb rig
B and
it ant
So cial
Ġcru ise
Ġges ucht
ĠA ni
M obile
Ġrepe at
Ġpouv ons
r chen
ap ing
Ġk inder
Ġp s
J ourn
Ġen seigne
ĠBroad way
ĠWe ight
ĠM ON
Ġch rom
ci fique
Ġerwar ten
au p
Ġgra u
Ġser vir
Ġent ries
Ġpass ant
Ġre vue
Ġc d
AM E
T I
Ġth esis
at eway
ilis ation
Ġpred ict
ĠC av
ĠD ise
ĠZwe ck
Ġaff airs
ĠWe rbung
Ġquali t
K inder
Ġhab its
Ġrab att
IC S
ĠW ITH
Ġpre uve
ĠF IFA
Re f
Ġwe der
Ġ10 8
ĠF light
Ġ! !<
ls en
ä º
Ġtri ck
oc ated
EL LE
19 77
pub lik
st ory
ĠLand wir
our g
ĠBen utzer
Ġn at
o ks
im um
ort on
chnis che
Ġremo ving
Ġw ings
ĠLe hre
it ures
Ġdam ali
ĠðŁĺ ī
G U
ĠAb u
Ġquanti ty
Ġres em
bor o
ĠShi pping
W C
y outube
ĠHal f
f alt
ĠPear l
Ġimp acts
In form
ĠR oule
ĠAk ademie
11 6
Dis c
tit ule
b f
Ġg ains
Ġer z
Ġmix ing
Ġver lie
ve au
l ament
Ġresol ve
Ġout fit
ĠSub s
Ġsh if
g r
ĠLe op
ĠPlat form
Ġconne cte
Ġen vis
K A
ens ing
ĠPre vious
? ?<
ori als
ĠP ure
Ġemphas is
Ġra tion
ĠL isten
ĠS witch
ĠPro vence
ĠC ultural
Se lect
Ġer leben
ĠSt ress
ro let
Se hr
G l
ĠOp tions
Ġsleep ing
ĠS occer
ĠD h
hren de
m ung
Ġstat ue
ag as
Ġinn oc
ĠH IV
ĠSchn e
tig te
Ġp ous
ti bles
n eur
B itte
ra di
sch au
Ġm ensch
ĠKir ch
Ġimm un
cast le
Â ¤
ish ockey
Ġpri est
Ġse am
Rel ated
We ek
S ol
Ġv orn
il det
ĠL ower
ĠL anc
Ġbacte ria
ĠS AP
Ġcor por
Ġl ancer
ĠL yn
onna ie
ĠG ue
ĠBi ke
Ġcan ada
Ġn oire
Ġob jet
b ies
istic ated
ĠSch olar
Ġadap ted
ali zes
Ġperfe kte
den ken
flex ion
ĠStud ie
Ġp ant
ĠHor iz
ĠDe al
Ġin aug
ĠFahr t
Ġdis que
wer den
ĠBes itz
ĠBed u
Ġkur ze
Ġsucce ed
c un
1 19
Ġs icht
Ġre ich
% .<
Ġtrans it
Ġdam ages
B us
omb ier
P RO
Ġfor der
an or
tain ing
Ġamaz on
ĠMad ison
s ome
Ġ18 99
ows hip
ĠDel ta
ĠEvery one
ĠSie d
din and
lic ke
am on
at ra
ĠSa ar
pro zess
Ġregar ded
ili g
M otor
Ġf au
res si
T hr
ĠY OUR
ĠSch on
Ġque en
ord onne
It alie
n etz
Ġbelie bt
ari os
Ġ ><
Ġvor be
Ġa genda
ĠEmp fehl
Ġs q
el li
Ġle ase
Ġ( @
Ġkom bin
s hi
Vo ici
Ġbl u
}, {"
ĠCh o
ĠB S
ste ht
ĠVal ue
D D
ĠB ald
ĠGou vern
Ġide en
ĠFil me
reg ation
. '
r h
Ġde alers
áĦ ī
ĠT ob
utschein e
Ġcont amin
FOR M
f aut
bra cht
Ġlab els
ry ing
ĠHard ware
ĠZu cker
ĠU ns
sch t
19 76
ĠTex te
Ġpl acing
Ġmit tels
Ġlang sam
ĠgroÃŁ es
Ġa ffiche
os o
Ġbet a
Ġfulf ill
Ġg all
ĠAus land
Ġb und
E ffe
ĠS ierra
Ġamp li
Ġfind est
Ġmention n
23 3
ĠRich mond
ĠG ear
Ġmel den
Ġden ied
K ing
sh ore
Ġten ue
ĠF rie
ĠC AS
Ġbu yer
Ġback ing
Ġle bt
Ġun like
ĠF E
ĠCou leur
Ġpar tis
ĠSchul en
ĠGro ÃŁe
Ġan tique
ĠPict ure
ĠDi plom
ss ystem
ĠLu c
Ġschn elle
ĠRud olf
Ġdu ration
Ġl us
ĠPa ar
ĠC ards
Ġra ck
Ġreje cted
V I
Ġpe ts
si chts
ĠU pon
ĠRen ault
ĠAut os
Ġb oul
ation ally
s ole
11 4
b ia
Ġmind s
ph oto
bu ilding
N ic
ĠBed room
ĠNor man
ds on
or gt
ĠSch olars
Ġ18 98
end ation
ĠE ST
ĠGar dens
Ġcon vey
Ġvo ter
Ġpen sion
ĠCl aire
ĠNC AA
O H
Ġtri fft
ar ite
f ond
Ġ19 0
Ġoption al
n erge
Ġneut ral
k ens
ounce d
ox id
any on
ĠBund est
ĠVorte il
ĠPer ry
ĠPra k
Ġz i
ru pted
nor me
.... ..
ĠJe rry
ĠO pp
ĠRep ly
z ieren
ĠI van
Ġess ence
N os
Ġze ich
ĠFact ory
ĠCru z
Ġ rings
Ġcher cher
ĠCar re
Ġpus hed
d auer
Ġb oots
Ġv ocal
Ġcom ite
Ġthin ks
s isch
ungs be
Bu ild
F ab
ĠGrund stu
T ex
Ġg ather
b d
as ures
Ġbo ats
ĠSe veral
F ru
Ġvis a
Ġstar b
F our
ou che
Ġsec ured
ĠBath room
ĠCar ol
u ves
ason ic
Ġmatch s
Ġ* *
ĠCre ate
Ġp ics
Ġci alis
ĠTi ger
od on
Ġver an
mos pha
Ġi phone
19 74
i zer
app ar
ï¸ ı
ĠS ame
ĠTurn e
Ġvo ters
ĠF ahrer
B ase
exe r
ry pt
ĠV om
ĠC yp
De ath
Ġappar ent
ĠArn old
ĠB ristol
Ġpri nter
App le
ĠPl ate
Ġconn ex
Ġk ennt
ĠMit arbe
ĠSn ap
is ent
Ġin k
ĠAl pha
v ale
ĠE ck
ĠSen ator
Ġstro ke
k alender
rai ler
Ġt ier
g alite
ĠCon ver
dis cip
Ve ry
Ġtax i
ĠTo gether
ob jectif
Ġfl ows
ad ore
OV E
ĠBuff alo
Stand ard
B uch
Ġche fs
ĠBe am
Ġal uminum
l ash
Ġdo ct
Ġcan on
Ġa ustrali
ĠD IN
N G
âĢľ )
can ique
ty p
ĠB omb
des h
ĠFin land
Ġtes tim
ĠW ing
w olle
ĠBap tist
Ġg ig
ĠHe at
ĠR he
ĠN ah
Ġins crit
ann once
Ġrece ttes
ĠBe teili
pre ad
Ġran king
sh ot
Ġth irty
Ġ$ ('
V otre
ĠH az
ĠOp fer
Ġann ually
ĠH old
ins el
ic on
ĠIs a
Ġden ken
Ġd ancing
ĠV ista
Ġeinf ache
ĠEx am
ĠU g
se ts
ene z
ĠS TE
Ġmoder nen
igh ty
Ġgar ten
me ga
ag h
z esse
atis ation
Ġevalu ate
Esp agne
s ische
M es
ĠLu cas
Rad io
Ġar tic
ĠA CT
ra ins
ĠCon st
ĠCD U
Ama zon
ĠJ ed
P ass
nb sp
ĠJ as
ĠFa ith
Ġpro cure
Ġrec y
ill ot
Ġcoast al
ĠMont age
Ġargu ed
Q ui
ĠBe gle
pond ant
ĠNe r
O pe
ĠP it
ĠV alle
ĠVis ual
gen ces
Ġesp aces
y u
k unst
Ġn ette
Ġw rap
Ġre vised
ustra lie
Ġlet ting
ĠOp ti
Fern seh
Ø ¯
çļ Ħ
Ġs lip
ste p
Ġun a
C AR
Ver lag
Ġexpen se
ĠR ules
orne ys
Ġcook ie
pte ur
ĠAd obe
ĠAuf nahme
Ġ10 9
Ġdom aines
Ġfund ed
ril og
Ġla dies
ĠFreib urg
ane ous
Ġges te
ĠD auer
ĠOli vier
Ġwish es
ĠD ual
men se
Ġgew onnen
Ġ} );
Ġser vi
Ġpain ter
Re al
Ġun n
Ġfra mes
ĠNat urs
12 8
p fe
Ġs alles
ĠJ oint
Ġenti ty
ĠMe illeur
Ġple asant
ĠStaff el
oc o
oli tion
Sch o
ci nn
Ġwi ring
Ġsu isse
Ġsal ad
ĠM iet
Ġs oweit
ĠW ang
Ġweite rer
Ġpeint re
ĠSum mit
Ġpris es
Ġhe im
US E
Ġs org
ĠAn frage
C ra
ĠBe ho
L R
ach tet
lie u
B T
Ġtal ents
Ġgot ten
Sing le
ce ry
ĠS ah
Ġrecei ves
ĠSc ar
Ġcost ume
ĠM are
Ġdon ation
ĠEn fin
ĠDet ail
Ĺ ı
ĠThe ory
Cont actez
j acke
oc ese
Ġau ction
ex tra
ph ant
res e
Ġache te
Ġlin ge
Ġcivi li
Ġro cks
ĠPar ts
H appy
M ai
Ġst up
Ġdi am
ĠExplo rer
," \
Ġelekt ron
sive ly
ĠIll ust
Ġpublic ly
Ġd ump
trai n
Ġwal ks
ĠCh oice
ĠK unde
ĠM isch
hood s
ĠVol k
u rious
Ġvis iter
Ġli te
ĠSole il
Ġbeg un
6 50
che ts
gh ted
ĠH ack
Ġci vile
en o
Ġspect rum
Ġlands cap
Ġren ouve
ĠGu ys
sch irm
ĠSp ons
F ahr
ĠG le
Ġsel ben
ID S
Ġp odcast
Ġnach hal
pose r
Ġguide d
c ente
ĠImpe rial
ok u
alis ateur
ĠOr te
Ġge ld
ce mment
ĠP is
kle id
Ġh ind
ĠN av
Ġnorm ale
B orn
Ġoff rir
Ġdeli vers
Ġges etzt
ĠWin ters
b ritanni
ĠDen is
ĠAnt oine
ĠAu jourd
ĠV II
Ġpou vant
ren nt
Char les
cl usive
Ġrej oint
Ġfin ances
Ġrec ognis
ground s
ĠDia be
ĠBrig ade
ur gence
ission ed
ĠBild ungs
chn itten
ur as
ĠL T
Ġline ar
Ġ å
Ġb arbe
Ġle ctures
ĠP ER
Ġf roid
sta at
Ġp od
lau ch
27 0
ar ms
nis ch
ĠRich ards
ĠUni que
Ġass umed
g irl
ĠZ oo
Ġed ges
sei tig
si le
W H
Ġoverse as
O li
ver ha
Ġshel f
ent rai
icy cle
ĠPop ular
22 5
Ġanim ated
Ġlas ting
Ġsurvi ved
ĠB aus
f tigt
Ġdi ent
Ġdeine r
W ri
ar tikel
Ġchi ps
ĠFab ric
P ER
Ġ10 7
Ġge zeigt
ro x
ais ons
ĠLe ad
Ġse al
Ġwe ird
Ġign ore
ins ula
clai rage
ĠSchn ee
Ġret ain
ĠLou ise
Ġklei nes
E nter
ĠS QL
Ġune r
pert oire
li ter
ĠGren zen
Ġent endu
A ff
ĠA chat
vol ue
ĠL ite
P atri
Le ist
Ġs tit
ĠGe bu
Ġmin es
19 73
Th ree
ht m
ffers on
ĠGre ater
H ouse
pro te
ĠCir cle
ĠC ream
ĠL oren
Ġm orts
rei f
urs es
Ġme urt
ic ien
f our
ĠCong o
A wards
i no
Ġutili ze
Ġd ot
I r
a un
ĠAm ateur
Ġf iel
Ġre bel
ĠG L
ĠHo ff
ĠE ls
ĠCh en
Ġinten s
hei rate
Olymp ic
ĠVirt ual
rou ps
bor g
Ġde aler
Ġau teur
ĠR icht
Ġfast est
Ġce inture
Ġfor d
Ġn am
Ġ6 50
Ġjud ges
ĠKen nt
ĠZe ich
Ġimm une
m ac
| <
ĠAl ban
acht ung
ri on
Ġse ctors
Ġens ures
Ġbis he
ĠGro ve
ĠMar x
l ength
Ġdev ait
19 72
Ġsta at
Ġpassen de
Ġrest ored
Ġmay or
M D
ĠD ennis
ĠSp ra
Ġcour te
Bi ography
Ñ ħ
2 10
he ll
m ill
ĠRe cent
ĠEm peror
ĠP endant
est o
Ġbel ge
Ġplate au
e v
ĠSemi n
Ġ18 95
se iti
He ad
ĠBran ch
m otor
ĠDri ver
Ġglau be
Ġnom s
Ġround s
cor por
Ġsu pre
zus ch
Ġpro sec
ĠVertrag s
A I
il ders
am ente
h me
ĠFle isch
ĠB auern
ch ard
ri che
Ġch ant
Ġh onda
Ġm usik
K n
anth rop
ĠSe cre
ĠDra ma
Ġfol der
ĠF itz
it sch
ĠTer ry
ĠBlo om
Ġstamm t
al led
ĠP uis
al am
f unden
s creen
tini an
ĠPla za
Ġcon temp
ĠM etz
vi demment
p ul
pre uve
Ġinten si
Ġner vous
Ġsole ly
Ġcoo ling
On ly
Ġbul k
ag les
le bt
fil ter
Ġal leine
Aus wahl
j k
ĠDe put
lis se
m w
Ġhol der
ĠAss ess
Ġ3 20
ĠOr lando
lad imir
ĠSch wa
ĠK ob
Ġgle iche
Web site
tic ing
Ġo ils
ĠI F
ĠLar ry
Ġanswe red
Ġexecu ted
Ġcin ema
Ġposs ess
de cke
Ġau teurs
Ġge mu
ac ier
Ġri es
lis cher
rst and
Ġsome how
bezogen en
rechn et
sib les
spe ed
ans ons
K reis
Ne ben
Ġmob ili
Ġg host
Ġfa ult
ĠTurne r
S n
vi val
Ġsp are
Ġi Tunes
Ġcou sin
ĠF akt
Lin e
Ġchi ffre
ĠCor p
ĠM me
ĠS kin
C et
Ġgek auft
B ou
ĠGe richts
b ute
Ï ĥ
inde rt
chen ke
Ġche aper
Sm art
lo ir
ĠEin richt
Ġ2 10
il o
Ġport ant
ber tra
Sto ck
ĠT U
ran ten
Ġsil ent
f ahrer
ĠÐ ¸
le uchte
ĠSy nd
ci ns
Ġrec over
11 3
ĠImp act
Ġsli de
ĠEng el
ĠSch la
Ġj o
olis m
Ġv orne
Ġru led
pra che
Ġsal ary
Fig ure
ĠS ammlung
J ack
ch air
rsen al
Ġm ille
Ġfor ums
fe ction
te enth
ĠK lassi
ĠV ict
ber gement
ĠU mb
Ġchau de
ĠGe fahr
ĠSe an
and re
ran o
Ġapp ren
Ġtru cks
Â ©
ro ff
ĠA ux
Ġri vers
Ġappro che
un ate
ĠE reign
Ġv essel
ĠAs k
led ged
Ġcandid at
Ġso ap
renn e
âĢ Ĳ
Ġstar ke
s ste
Ġle e
ĠCom par
chied lich
Ġcomp tes
ong ue
Ġpre cious
Ġbes uchen
ck te
Ġwh is
Ġvib rant
Ġbei n
cture d
Ġappare il
ĠD B
Ġen zy
ĠCame ra
Ġh ay
L ight
Ġpo ems
Ġent lang
ĠUl timate
Ġche cks
Ġprot oc
ĠSalz burg
Ġcric ket
tab lir
ann en
ĠRe zen
Ġcy ber
ĠÎ ¼
b lu
us chen
Ġfe hlen
ĠG ate
Ġk ommun
19 69
N icht
ĠRis iko
Ġ18 96
Ġs able
19 68
ĠN och
Ï ħ
Ġsh ore
op oli
Ġlog i
Ġin con
lique r
ĠE co
tic ker
timm ungen
b lichen
Ġre venir
anci enne
ĠM umbai
ich es
em ade
H ab
Ġo z
ĠCOM P
Ġchi nois
Ġe re
ĠL aden
b ott
ĠS ui
ĠBei jing
Ġsc an
Ġra dical
i ens
E vent
Ġ( -
Ġbil det
und ai
E dit
11 7
Ġn av
u fi
b ird
F lu
sp iele
ok us
ĠChr onic
Se ite
Ġsh ade
AD E
nf tig
Ġfol gte
ĠB I
Ġsn e
Ġreg roupe
Ġchi n
gew icht
c ir
ĠW orth
u ce
Ġten ir
ige rs
Ġang ew
Do es
Face book
Ġ18 50
ĠE ff
ĠMont ana
Mein e
ĠDe velo
Ġintera ct
f und
ĠMw St
ri tis
ĠI A
Ġw ise
land es
H ers
ras ka
ĠAus gang
ĠMore over
Ġdi amond
ĠS timmen
rai nian
ĠL ied
ed ic
ĠC AP
M ichel
ĠRo che
ĠF irm
Ġdes sert
ĠN athan
ĠI den
S W
Ġbu chen
R om
ĠSp itze
ĠCar bon
Ġrun n
Un ser
di atement
K ateg
tin y
t apes
ndig ung
fic ier
Ġprop he
rei ter
ug os
Ġprin ts
i bex
ĠP oints
piele rin
Ġ" <
illi g
h it
ĠFran co
Ġv essels
ten e
ĠInte gra
Ġb alls
Ġcross ing
Ġâĸ ·
gi ene
Ġs rc
Ġcook ed
ĠR ating
ĠR D
ĠHit ler
I hr
M at
Ġfo am
Ġgratu its
ĠU P
Ġs ust
ĠVer l
Ġpo che
Ġign or
Ġcul tiv
Ġe ure
N ur
we ig
Ġhy brid
ĠR enn
form at
ĠN aval
ĠRes ume
Ġdein em
] +
ber tragen
Ġlo aded
atel li
Ġbelie fs
ver ts
ĠTro is
Ġcra ck
ve rage
ei den
lad ung
Ġdis k
gu ay
At lan
le ver
Ġsp acious
ng st
qu enz
ast es
ĠKind le
zieh ungen
Ġhum aine
Ġgen u
ĠAlber ta
m ischen
pl ane
B aby
Ġtour isme
me lle
d ge
Ġform ing
Î ·
Ġsk ip
R a
far ben
ĠW arner
ĠWe il
C ON
ick ed
Ġar gent
ĠM ent
Ġan ten
ĠEngin eer
ĠKe ith
Ġb rus
ĠK ru
fin ite
ĠN omin
ĠMove ment
p assen
ĠA F
Ġlogi n
om ic
ĠW LAN
end or
Ġret ro
us age
let ten
ĠRon ald
Ġa ler
Ġcons iste
f arbe
Ġpat ent
Ġadop te
g old
chn en
ris cher
ĠR achel
Ġscen ario
Ġhor ri
fol k
ĠDeput y
ĠW agner
Ġar chae
Ġsure ly
Ġle mon
ĠThe rapie
n v
ĠW achst
Ġrec ou
ĠBe ob
Ġcu rious
gu ard
ĠN othing
ĠL CD
Ġnew est
ĠI stanbul
ĠB ent
Det ails
Ġoxy gen
ĠV il
ĠP OUR
me ment
F ra
Ġsel ler
) {
ĠSemi nar
Ġge be
Ġgl uten
AN K
ĠU TC
Ġt ale
arian ten
sc ale
Ġhinge gen
ĠP enn
off ice
plan ung
Ġt res
Ġor chest
ĠStrate gy
Ġref us
ĠB ib
ste uer
urch ase
Ġzahl en
ari en
T im
Ġbei ge
ĠM am
ĠTeil en
So ftware
r fte
ĠV id
o ge
ĠAn zeige
Ġf ingers
ĠBez irks
Ġcom ics
Ġsme ll
OT E
ĠV os
ĠE gyp
ĠL ing
He i
ĠS EC
ĠAn ha
ma ke
Ġzie ht
ili ge
As semble
Ġo live
rk te
Ġpro vo
V ille
fass ungs
C ong
Ġs ter
ric ket
ĠCar n
ĠEx pert
Ġar c
ign ation
Ġill umin
ĠMus ical
al ous
m other
ĠR ate
ĠDad urch
17 5
Pro te
ĠBou tique
i as
Ġad vised
par ts
ĠW agen
a venir
Ñģ Ðº
Ġve ille
ĠKat zen
ĠE ben
ĠD IS
ĠStern en
ĠP VC
ĠPay Pal
Ġcro ise
ĠB ist
lin ess
Ġf als
Ġstar ten
ab lo
P en
Ġrunn e
Ġtun nel
mes ter
Ġh ence
ĠNic ole
ĠS cre
ĠLa ut
mir al
port al
Ġbal anced
ar c
Ġen rich
Ġreser ves
utt le
ĠAn a
Ġu ps
am ation
Ù ĩ
abor ation
E ast
Ġr he
Ġver n
ĠChe ap
ĠMil ch
Ġas h
rais ing
= >
ĠTre ffen
Ġess en
ĠD rop
V an
ĠPar c
sicht lich
45 6
19 71
ĠThe me
ĠRi vers
C ategory
Ġchocol at
Ġthreat s
Ġloc omo
mi es
ĠR V
Ġloc ales
ĠH unt
Ġmagne tic
Ci n
Ġsmo king
ER N
ĠH als
Ġbab ies
Ġp airs
um per
Ġc av
Ġmus st
Ġeng ag
ass urer
A vis
Ġgesch u
ĠMons ieur
Ġqu it
mon ie
ĠRe li
Ġpre ce
Ġla uf
Ġsh adow
Qu and
we ge
iss a
Ġnoch mal
ĠB oul
Ġtut orial
ri ences
Ġco te
ĠT win
Ġdo te
ĠAl ong
Ġma ker
V ill
Ġs que
r mer
Ġse venth
Ġpur ple
Ġges tern
l tigen
ĠS oli
Ġjapon ais
Ġmont rer
ĠÃ ĺ
ĠCrus her
ĠA aron
Ġj ail
Ġgra mm
Ġdro ps
ister t
Ġcondu it
Ġwieder um
Ġhyd rau
ĠSchn itt
ĠOb je
v s
ac ity
to k
Ġhin ten
Ġpic king
Ġre act
ros sed
othe ke
ĠChr on
ĠS end
Ġch ute
m ite
ĠPot ter
dis play
ha ften
ĠAn teil
Ġob tenu
Ġcon vain
f is
g ary
D VD
ĠAr mee
ĠSt amm
Ġdele te
bau en
Ġtri cks
p c
einf l
ĠThe rapy
ardi ns
ad ien
and ise
ĠCur rent
Ġlie ben
lip se
ĠS cript
Ġp ix
F ore
gen te
li ts
k und
Ġconf lic
est ation
Ġob ten
Ġst ating
X T
as m
Ġcol li
Ġpre cise
place ment
od ore
L ocal
au ts
ĠRich ter
ili a
ĠD ental
li bat
OL D
count ry
Q ues
ni ti
Ġfav our
Ġa jouter
Ġp ian
Ġv ra
sch w
Ġmus ul
ĠHer zen
Ġm oto
Ġfl ags
Ġbe aches
Ġl obby
em ail
Ġcal ories
Ã ·
f aire
ĠCy ber
Ġa ch
Ġ18 97
ze its
Ġdra uf
g rid
ok ia
ĠG ur
Ġdomin ant
Ġv es
Ġob tient
ĠPlan ung
ĠLe ban
ĠA CC
22 3
ionn ats
Ġharm on
ĠS UP
ĠT ell
bern ehmen
cinn ati
u tel
Ġjud gment
unde rb
Ġcomple xe
ĠGew alt
Ġad vers
s ents
ĠFig ure
Ġrunne r
> {
Ġwe iss
Ġmy s
Ġs orts
ĠAut ob
ĠD os
ĠE agle
Ġd ated
Ġin ac
ĠLa uren
ĠRet urn
ch on
ĠR ew
Ġg am
Ġr ally
Ġadult es
Ġbrief ly
Ġb iz
Ġsu e
ĠC anyon
Ġconf used
ew ise
hr le
ĠPl u
ĠB rid
S au
ĠNik ol
L ook
si zed
Ġt iles
ĠG ali
ĠGren ze
ĠG ui
ĠMar che
p il
A th
ĠEx pl
Ġdep ot
Ġb ib
ful ness
ĠDeli very
ĠEinwo hne
ad os
Ġm ud
Willi am
es sion
Ġor g
amb a
A bs
ti ss
ĠUr lau
ca ke
Ġtiss u
à ¦
Thr ough
Ġfort une
Ġy amaha
Ġvi ens
ri os
le cht
b und
ĠMons ter
Ġher um
ĠJ ens
ti ennent
Ġ< /
Ġf ier
ron ik
ĠB oli
Ġo h
Ġno v
face book
ĠDon c
ĠW ords
ĠM ace
igh ten
vra ges
k amp
p fen
ĠR it
ĠNep al
li sten
ti de
ĠM oyen
M usik
Ġd unk
ĠT rends
ĠA Z
Ġdress ing
ĠR av
t ains
ill ard
ci le
ĠUms atz
ĠKonze rt
Ġ ).
Ġf us
re view
h ier
oc her
Ġpas si
ĠOrd nung
Ġde hors
denti al
c ler
bra ucht
ĠStre it
ani n
ĠD y
Ġworld s
ĠAc ce
Ġpl ante
ĠLe icht
Ġpre de
ag ar
art ment
va ise
k ts
Ġcri tici
Ġberu f
rke i
Ġin ser
Ġne rve
L ondon
ĠSch au
ĠWe ber
Ġou ght
ĠApp ly
T otal
ĠQu ellen
Ġform ule
H K
ĠÐ ½
Ġview ers
Ġau ff
Ġvo ices
P ark
M il
Ġu ph
ĠVer ka
Tag ged
mp fe
Ġno ter
Ġbest and
fic es
r ath
Ġf leur
Ġ- --
Ġme me
ĠCh and
i enne
xt ures
Ġbra chte
ĠFac ulty
ĠW ish
ĠMari na
G a
Ġve ctor
ahi n
Ġg ly
irur gie
ĠBet a
Ġmau vais
ĠTam il
ĠHud son
U G
ent ra
Ġbind ing
z ul
Ġla wn
Ġentde ckt
g ungen
ĠNAS A
ĠSh ah
mo dern
Ġprom ised
van che
rupt cy
all a
ĠB oss
Ġvend ors
ĠFis her
he e
Ġten der
ven irs
Ġwor ried
ĠC lose
Re chts
b ogen
c ott
Ġd irt
Ġbi kes
Ġopp ose
O ber
S L
ĠS per
Ġrelax ing
z unehmen
ĠCar te
ĠAr c
pri x
ĠH ousing
ie rig
Ġmilli ers
Ġcar ries
wei ler
ĠPour quoi
fer red
fini tive
ĠL ace
Ġspe aks
m il
v ance
mp fa
Des pite
ĠMark us
ĠSte vens
ĠSchm uck
Ġpar ole
ai gne
Ġoc cident
ĠZ ip
Ġdem o
Ge or
eni oren
ĠAbra ham
Ġsp okes
A X
ĠEl li
ĠSu ites
ĠP T
Ġtrans mit
áĦ ħ
ĠLiber ty
T urn
Ġm s
arch y
or de
Ġvoy ages
nig reich
Ġconst ate
A li
ĠR ural
Ġpil ote
ese rt
ĠAn nivers
ĠGi ov
Ġprote ins
ĠAbs ol
sib ilite
Ġvic times
li ziert
Com merce
Ġpuis qu
Ser vices
ĠM IT
be au
ĠL ions
ĠM aler
Ġvi vant
ĠDi ning
99 9
Ġmed izi
ĠM ang
d essen
Ġteil en
om ens
ound ing
ĠL ub
j n
Ġjac ket
hr liche
Ġdis abled
ĠPers onn
ĠGil bert
ĠB rie
Ġar te
12 4
ab we
Ġm old
act ualite
Ġsimp les
ĠR ice
Ġrece pt
ĠSupp ly
ar an
ĠNor mal
Ad minist
per n
haus es
OR S
S ave
M AR
M ini
Ġdig es
ĠSne aker
ĠMo h
Form at
ĠD rug
Ġim per
19 20
Ġ17 5
": [
Ġfei n
ĠEsp agne
Ġpan ier
Ġc asinos
is ations
ĠBe yond
Ġbe aring
M icrosoft
pro jekt
ĠBe ige
he astern
Sh are
P u
ĠR ib
Ġsh orter
Ġwork out
ĠEins ch
U sing
aiss ent
k os
ĠP es
ĠKle id
Ġear liest
ĠHar rison
Ġvol tage
ĠLind a
for ward
Whe ther
Mo dern
Ġa chten
tud ie
ĠHy per
t ar
ĠGes icht
Ġse rial
ĠMerk ur
alle ries
ĠInter ess
ĠGar antie
Ġces se
ĠPro phe
Ġweiter es
ĠC B
oo ps
ĠK anton
ĠQuar ter
ĠD rit
ĠP orsche
ilie r
the y
Ġk redit
ĠDan ish
Ġa gence
ĠPoli tics
ck len
ĠSim ply
Ġprese rve
ĠJ osh
ĠL oss
D om
s ort
or us
19 67
ed ar
rol ler
ĠDem okra
Ġam our
peten z
ĠH amm
fu me
ĠLux ury
ĠL abel
bern ommen
Ġverw ende
is tischen
H ard
ĠÐ ¾
ĠT N
ĠMe et
Ġsp u
ĠHe aven
Ġor ig
ĠTu be
ron en
ĠC au
Ne ue
D igital
ĠTh read
k ov
ĠEm ily
ĠEi nige
b aden
Ġsh oe
ĠJess ica
ĠC BD
Se rie
Ġob ses
ĠP rest
ill ant
ri ns
Ġfe hlt
Ġa didas
Ġti es
augh ter
Ġ( ...)
Ġtra ils
lis ted
Ġru ling
Ġfl ux
Ġcar go
ĠM ack
pts a
Ġst ammen
AS H
S emi
H om
ĠBud apest
Ġcann abis
ĠSte am
Ġtrig ger
ĠTod d
Ġob lige
Ġmag ical
R ail
di enste
ĠWo h
kee per
ro st
Ġcat ast
v t
Ġrel ate
ĠWe ather
R ES
bre w
Ġman ga
Ġrep rise
g ales
Ġbri ll
ier ry
ĠC ord
Ġdee med
W D
C ome
Ġgrow s
cont ainer
AU X
Ġt ome
S hi
ĠTas che
Ġdem ain
ĠWel che
Ġs isters
Ġcomm is
12 9
Ġ% <
Ġcou pons
ke tt
Ġro tation
ĠMi ning
row ave
2 60
ent liche
ĠT arif
ĠHe y
14 5
Ġfra gen
Ġsecond es
G al
ĠD av
rier te
Ġph osph
ĠL akes
onn ance
Ġf oi
Ġbl ues
F ire
Ġim mers
th ouse
S ou
Ġtim ing
ĠDen kmal
19 65
ĠA round
Ġmine ral
Ġf ried
ett bewerb
ĠMar cus
ĠD ela
Ġho ffe
ĠSign al
ich i
Ġinves tis
Ġatta que
ĠSymp t
ĠEr kla
olis hed
Ġabs orb
Ġviel fa
tion ed
Al pes
ĠE va
Ġbles se
ru guay
m ath
Vi n
Ġz entral
fin al
ĠCo ordin
Ġw ides
chi ff
use rn
Ġri dic
ĠC ould
Ġri b
or am
rse its
S che
Ġdo is
ĠSpe icher
amp ire
Ġaff irme
Ï Ĥ
Ġbut tons
ĠM M
Ġang el
Ġbe mer
ĠMain z
Ġfave ur
ĠEx ten
ĠLe iden
ĠMur phy
Ġpee r
uro pa
Ġz us
Ġ, <
ring ton
V ari
oc co
ĠT um
ĠDa fu
Ġade quate
Ġk its
ĠSek unden
Ġn ull
Ġmatt ress
man i
ĠShe l
Ġ18 93
Ġcan vas
ĠY ang
Ġper tin
Ġsing ers
Ġsand wich
tian ity
ĠInf antry
is tern
de cken
ier tes
ĠG ute
Ġcham ber
d r
Ġinv asion
ĠHa fen
ĠLe gend
M att
Ġeing esch
ĠPro fi
ĠStru ktur
ag ence
Ġcli ente
Ġvi ennent
et ary
Ġwir ken
... ]
Pub lished
ĠM assi
nisse urs
fic ent
W il
k k
Ġsc al
Ġrec all
Ġli ps
eni n
âĢĿ )
ĠL GBT
ĠP ir
l ew
cis m
ĠPe tite
ĠCh aque
ri ke
ĠB am
ĠSquad ron
Ġâ ĪĴ
ĠM IN
ĠGrow th
Sch ool
ĠGes ell
A H
ĠR uf
Ġcolon ial
Ġanth rop
, ...
Ġmaxim al
Ġqu ot
Ġdeme ure
r kt
ĠC ensus
ĠB od
ĠEint rag
Ġchiff res
lie dern
Ġli ver
Ġnu its
Ġci ted
Ġ18 89
ĠSp ider
ĠW arm
ĠMon aco
men e
ĠDire kt
Ġval ve
ĠMy th
ĠSain ts
ĠM oi
s ir
ĠP ump
onom ie
Ġf li
den cy
c end
Ġb ite
ĠKl assen
Ġtrans fe
+ <
ĠBot tes
ĠS hip
Res ults
fel der
Ġra mp
ĠRis k
ĠT ief
Ġgre c
la de
ĠR ah
ll ung
se arch
Ġtra ces
is co
ho le
Ġdef ence
Ġs its
ue ux
en os
unne r
Ġst ones
ĠNich olas
dem ain
ĠTem plate
Ġra dic
enne r
Ġwel chen
Ġann oy
Ġs ab
child ren
I nn
Ġo ak
Ġd ange
ĠR uth
Ge orge
ĠC ai
ĠT ang
rst u
or ro
Ġe cos
Ġf rench
ĠProgra ms
N ER
Ġsau ber
ĠD oll
ing es
Ġst adium
Ġbee f
tra ge
Ġlesqu els
F ood
ĠS ed
Ġear nings
Ġve ulent
ĠMiche lle
ait es
ĠHel en
ĠAthle tic
Ġsp ell
as ters
ten te
ha ven
Ġsp rach
ĠB asse
ĠWire less
rik aner
Ġv oud
Ġcon form
ĠKar en
et ze
Ġe books
ĠO ste
ais ser
ĠM ist
ĠQues tion
Ġst rain
ĠR ennen
Ġ( ;
Ġnor mes
Ġcon forme
Ġver bind
ĠI gn
ĠF O
ĠB rust
Ġcot on
Ġmont age
Ġpoin te
ge richts
B an
ĠPas cal
ĠRet ro
Ġge pra
Ġeing et
ĠOtt awa
Ġryth me
Ġal liance
c opy
B ot
be cken
ĠZus atz
Ġsubs cri
ĠTi n
ĠT ren
Ġfaud ra
Ġmoist ure
ĠLux us
ĠMem ory
Ġsyn chron
s ource
He ute
ĠLe ft
du ct
ĠB D
zeich nen
fer tigt
Fin al
Ġaffe cts
ar b
ol lo
w au
ĠP HP
14 9
ĠJe der
pt ure
, '
Ġar gue
Ġbase ment
Ġkos tet
Ġin nen
Y e
ble d
ĠH O
Ġass ault
Ġwe chs
ru ch
w enden
Ġde bu
ho ff
ĠH ost
par atur
Ġst ade
s hine
Ġun lock
Ġche e
aktion en
stre cke
M ade
u ish
ĠT ruck
ĠVit amin
ĠSand ales
Ġp aye
Ġcondamn e
West falen
hren den
her r
Ġrep os
missi oner
ar ctic
ĠSol ution
r fe
ĠP izza
ĠVier tel
Ġgran ts
Ġfeu illes
Sh ort
ĠL ights
ĠH ass
ĠFre is
y t
ĠS ure
au ra
oy a
Ġpro hibi
ĠM ason
ĠF ax
Ġdi n
Ġver urs
ro llen
Ġra m
Ġcon vient
ĠGust av
M ary
ĠCO VID
par tition
ĠCot ton
Ġf rauen
f ir
Ġn uts
zie ht
ĠHam mer
F ol
Ġmoder nes
ĠHar bor
Ġse ating
US S
sid ents
Ġfor gi
vers ial
ĠKolle gen
dn e
Ġglass es
ĠL eser
Ġd il
om be
ĠR angers
Z E
Roy al
36 5
ĠC ass
ait re
l ain
ĠS IM
Ġch ines
K an
Ġthe rapeu
ci li
cu ter
Ġear ning
Ġin titule
ĠS hin
ĠM usique
Ġatten dre
Ġti n
Ġsozi alen
ÌĢ .
ĠEn e
Ġen v
ĠMotor rad
Ġdro ve
ce aux
sie he
isation en
Ġship ped
Tele fon
P s
12 6
ĠB rain
Ġhum ain
G N
ĠE du
ĠErs ten
tin ct
ĠR ental
ĠSh adow
Ġand roid
Ġo be
I EL
ĠF aire
deck ung
nd igt
I ng
ĠTi bet
R ou
ĠPol o
ĠV ul
Ġanalys es
Ġvar ied
Ġunli kely
Ġbew usst
ĠSp itzen
nd ers
ĠP av
ex istence
lique z
Ġmaxim ale
ĠA ndere
ĠF onds
K K
ĠHe ights
ĠCou ch
ĠEr weiter
Ġfi ns
Fin ally
ĠGe richt
k ultur
Ġg uer
m age
Ġstab ili
ac cess
ĠT ome
Ġsch auen
mei n
ol ph
å ı
x en
weis ung
zeichn ete
Ġri des
Ġm urs
Ġtack le
bro ok
ĠSo fa
g umes
Ġ8 88
ĠPar ish
ĠEm manuel
LE T
ĠT ommy
ĠReg ard
d us
airs ty
ĠPrag ue
Japan ese
g ames
je ux
um ented
vers y
ĠC ant
Ġmed ieval
Ġou vre
Ġcon que
ĠL oi
mode ll
ãģ ®
cont ra
Ġfal sch
EN CE
Ġfor ests
ĠV este
Ġfeed ing
Ġor dre
Ġ2 25
A cade
' )
M ex
ac teur
D ame
k ord
um bers
Ġsou ri
19 66
ĠB ring
Ġcomp ly
ĠSchn ell
pers onal
L im
Ġren for
le der
m achen
Ġno ble
ction n
ĠL O
sch ool
Ġexp licit
ĠLiber al
geb u
L uc
Ġpush ing
Ġla und
Ġers etzt
ĠColumb us
Ġadv ances
ans pru
app ort
ĠTr uth
ĠPan ama
te or
ins en
ĠT ul
ĠKir k
Ġoub lie
Produ kt
15 5
ĠM its
Ġdon ated
ke ley
av as
asse ment
Ġprot ocol
ĠHin weis
?? ?
Ġvol ler
ĠO z
ĠMine ral
Ġren owned
ĠJ ungen
Ġpl o
att ache
zer bai
ti mer
Ġ18 85
Ġg ymn
ĠSol o
Ġdevo ted
Cl oud
ĠT ape
Ġextra ct
L ien
h is
ĠR F
Ġgri lle
Ġl ouer
Ġs ed
bec ca
ĠParti cip
For mer
H omme
ote chn
Ġb uts
ia o
Ġd ough
ĠL atest
ĠSER V
ĠAl ways
ĠPar king
Ġcar ing
ĠW atson
rist al
Ġgener ous
Ġkur zen
Ġzu gleich
Ġenem ies
um ns
ĠErs te
Ġl ob
ĠNe il
te ten
Ð½ Ð¸
ĠG ale
K T
Ġfre el
Ġrou le
ĠTable t
ĠK iel
ph an
Ġdi vine
ĠIN TER
Ġlo hnt
Ve rt
Ġro d
Ġgri ll
Ġadv ise
ĠCin e
Î ¼
ut a
n ur
Ġerst es
ĠM oto
P AR
nie ur
che idung
Ġci tizen
s pecific
V B
Ġz wo
Ġne ige
osi tive
g os
Ġhand led
ĠVor der
ze iti
ste chnik
ĠFe lix
ĠR itter
ke i
ap a
w ander
Ġdese rve
ĠL ange
ĠBalk on
Ġ18 94
g ou
Ġcade aux
ĠBre ite
ok ol
ĠW ai
ES CO
d os
uc cess
Ġge ring
ĠSan ti
li gen
Ġe lite
Ġgar lic
res pon
Ġi tine
W O
ff y
ach ter
ĠCare e
b auer
Ġdese rt
ĠMed ik
Sty le
12 1
ĠCame ron
st ad
ĠCom ite
and t
ĠStra f
Ġouv rage
vo ie
K ultur
ĠGh ana
W inter
on sten
Ġali ke
Â» .
ck el
Ġprof iles
ĠPro per
Ġport al
Pro ble
Ġste igen
Ġsymb ols
Ġ18 92
ĠRa w
St atis
ĠIn ten
A mb
ĠOver all
S ar
ĠMar ion
Ġp ussy
fahr ung
Ġmitt le
Ġstom ach
Ġpar ai
ĠO t
Ġb ree
al an
Ġep ic
g ly
B ased
aff aire
O fficial
Ġt ritt
Ġb ateau
Ġpati ence
B oth
ĠV IP
ari ans
Ġdynam ics
ĠQ uin
2 80
Ġre vanche
Ġbit coin
ĠD um
Ġst amp
Ġle ar
ĠS lim
Ġk ap
Ġt une
ĠRo gers
age l
ĠC able
ĠP unkten
Le ave
Ġreser v
Be im
Ġparti al
ĠP odcast
Ġin tim
ai es
ĠSal v
Ġpin e
n icht
r ally
Ġre ign
Ġhe t
Ġess aye
ĠCaree r
Ġnear est
Ġmas k
gebra cht
Ġd ent
Ġso lit
te ms
Ġass isted
Ġb au
Ġlo ads
Ġreven us
bl ast
D ien
k unden
ĠMat thias
Ġran g
Ġw age
Ġex kl
Ġk nife
Ġge plant
> :
ĠStu art
ĠC ove
ĠRep orts
ĠHung ary
ĠTh an
Ġn ail
Ġpl onge
e me
ON G
Ġad ore
ĠH ang
S ac
un is
as k
Ġbil an
ĠBas ket
Vis it
Ġ[ "
12 7
S V
Ġheure ux
Dan ke
Ġtrem end
ĠLink ed
ti ken
re le
ap per
L G
ir its
ĠM Y
Ġran ks
Ġac ier
lic ity
gen ds
ĠH ERE
ki ni
Ġac teur
Ġhad n
d ist
ĠDer by
ĠWood s
di que
or tive
ĠHei nz
Ġplu gin
Ġp iste
kon om
Ġa xe
ĠInd ians
aus en
19 19
F iled
ĠDat abase
uf s
Ġrapp orte
Ġarchi ve
ĠN iveau
Ġb ell
ar us
ĠL ob
kre uz
Ġf ach
hi bits
Ġten ant
Ġact uel
Ġwind s
ful l
hn lichen
Ġhit ting
ĠN azi
ĠL loyd
Ġvac uum
Europe an
Ġb rass
u li
Ġtrou vent
ĠCh ester
ko hol
liegen den
mel det
ĠD up
Ke ep
Ġcomp ati
Lie fer
Ġai red
ĠEss ay
Ġdi enen
ĠVe ter
w orte
ĠMo tiv
13 6
Ġtime ly
Ġ18 88
Ġbre it
ou ds
Ġaus zu
ĠCon c
áĦ Ĵ
ĠFor men
ĠGra fik
ĠArab ia
Ġreg ret
for ced
it as
h ls
Ġsch rift
amp oo
Ġbor ders
ĠHa ft
ĠVer bind
Ġaus wa
Ġeing el
att aque
UR L
ĠN issan
Ġent steht
ĠCro ix
w ann
Ġra cial
Ġau rez
ber zeugt
p uts
30 3
Ġsub tle
ag ree
ĠN est
cklen burg
Ġworks he
ĠZe ro
ĠB ros
Ġrep orter
Ġod ds
lu ft
I AN
aut en
he ro
ĠKom p
Ġer nst
ch rift
ĠS ustain
ĠM ills
ĠY outube
c ose
Ġgen es
nd ische
ven ess
k ul
Ġop tical
Ġlou nge
G lobal
Ġpl af
up pe
19 18
Ġin h
ĠAut oren
ct es
Ġh ills
Jose ph
Ġmor gen
ĠAh med
ĠUr teil
ts eller
f aces
ĠRegel n
ĠM asse
ĠW elsh
ĠAv r
ĠLou nge
Ġlong est
Ġkon zent
Ġre aches
ĠIss ue
fl ower
rol ling
ĠA UT
mi di
ĠW under
16 5
Ġveter an
ĠB och
Å Ĵ
Ġisol ated
C li
Ce rt
ĠL INE
Ġzu ge
Ph otos
ĠJ ama
ĠF ellow
Ġim mense
ĠT hin
Ġclin ic
Ġi i
Ġres pir
ra ys
t wo
Ġpe tition
ĠTe acher
Ġn ul
Ġair line
Ġdis ku
lo pe
aur us
Ġposi tiv
P ad
ĠSes sion
ĠJ ui
Ġdete ct
c au
f tet
Ġspons or
Ġki n
n heit
Ġredu ces
f act
ĠGet ra
Ġ18 91
ite ment
ph on
Ġimp lique
auf nahme
ĠCamp aign
ĠV ia
ĠRoman ia
Ġpeace ful
re publik
li oration
Ñ ķ
ĠC and
ĠIn nov
rolog y
limin ary
Ġf uneral
ĠNe i
ĠK au
li mine
Ġprodu ire
Ġprom ises
abs ence
UL T
ĠBang kok
Ø ¨
Ġint ent
Ġun emp
Ġqu atrie
ĠMad ame
Ġfu ck
Ni ke
cis ely
ĠZ iele
N ov
Ġged acht
ik ations
ouch age
Ex tra
3 40
Ġdre w
Ġeigen es
auft rag
L ux
ĠFran zo
ile rs
ĠH C
en ommen
Ġe h
Ġpor no
ho fen
Ġbis lang
lit ter
ĠWer te
B lu
19 40
Ġc rop
Ġlong ues
ĠEi nen
mb and
ĠVer te
Ġb ibli
aceu tical
he bung
ĠSch al
pflich tet
ĠPro jects
Û Į
Ġdas h
wau kee
v r
ĠPe e
Ġ5 50
ĠK itt
Ġcare ers
P ol
De rnie
he ber
Ġy outube
ĠWerk zeug
ĠS ang
ĠV PN
ri fie
Ġl ying
ĠMe ga
S en
Ðµ ÑĢ
Ġdec lined
Ġrand onne
ĠCh icken
oin te
Ġ18 48
own e
ĠA id
ĠWe iss
Ġja w
ĠAl pen
Ġbra un
ry lic
laf zimmer
gi na
Ġco ating
K unden
K ind
ĠIm mer
man te
l ou
Ġi nge
che idet
Ġth y
y our
ĠCre w
U ser
und erst
nor mal
Ġbin ary
Ġemer ged
war en
ĠZeit raum
rend um
ge ois
gel assen
b oys
is tet
ĠMar athon
Ġarri ver
ĠPort o
. âĢĻ
Ġref res
endre di
Ġ' '
ĠP ent
Ġstri king
Ġt orn
ac ew
ui tion
Ġconn ue
Ġb ones
ĠLe ider
19 64
ĠWeek ly
* ,
Ġcondu ite
sp rach
ĠMik ro
ĠClin ical
Ġf ot
produ kte
timm t
ĠP iano
ĠOrth odox
Ġc ree
ĠEr kennt
Ġze igte
Ġdar aus
ress en
Ġt anks
Ġim aging
Ġk auf
Ġla bour
y r
m id
Ġâ ĩ
ĠC BS
du es
ent wick
ĠAng ela
ĠPub lie
ATION S
ch ir
12 2
Ġis rae
Ġrapp elle
Ġle bens
el en
fol gt
Ġpour ront
Cur rent
lass es
20 5
tig keiten
M ix
Ma jor
ĠN om
ĠPed ro
ĠM N
en et
Ġeinge fu
Ġh p
Ġt ang
W ow
16 8
Ġdemand es
au gu
z hou
A ction
ĠO pport
ap t
Ġke en
ĠG ig
Ġuni ted
ĠPra desh
Ġran ges
ĠNY C
å ħ
atin e
ĠAn lagen
mt liche
ĠI ngen
Ġne ur
im ar
C onn
Ġst opping
ĠCP U
ĠWell s
d ue
ĠRoule tte
C hin
ĠVis a
f tigen
å ¤
ry l
zus etzen
ha ut
t witter
Emp ire
ĠQu ant
bez irk
Ġp ile
ĠL och
d ten
ĠY an
Ġfro zen
Ġback ed
ĠP ig
ĠK ick
Ġ `
ver kauf
c ano
anim ation
agne ment
áĦ ĥ
Ġst udios
ĠRes ource
and ro
fa its
tern ity
ĠM iles
Ġclaim ing
ord able
ĠBez irk
Ġhuman ity
p om
Ġn aked
hol ung
rich ter
Ġindep end
diter rane
Ġbene ath
ĠDann y
g it
ĠMin or
a fe
b ewer
uss els
fefe fe
ĠUl rich
Ġz w
Ġicon ic
Ġstrate g
ĠSne akers
ens on
fris tig
ĠH ut
L L
Ġtest en
Ġben utzt
Sm all
S peci
Ġmari time
Ġspezie ll
ĠE indruck
ĠPro b
Ġther mal
C am
ĠInd ien
ĠVoy age
ĠNeb raska
IN O
Ġdo zen
Ġk licken
Ġrapp orts
ĠB U
ub en
ĠG S
ies o
m mer
ĠD od
ĠF BI
Pop ulated
Ġor dent
de ten
l ac
Ġbro ker
tis ation
ĠC orne
ĠVi ol
Ġcoun ties
ndet en
n ns
Ġb ail
ĠV ib
ar ound
" );
Ġtrib unal
bru ck
Ġcou ps
medi zin
sha ped
ĠTic ket
ĠG ent
Ġlaund ry
ĠM AT
Ġmo tif
ens or
Ġorgan ize
h ose
ĠViel zahl
aisse z
voye r
m obile
ari us
Cha uss
e ven
nge re
Ġdu p
ĠGl ad
W M
Ġinc onn
Ġchar ging
Ġhab t
ĠM ise
an terie
3 30
Ġracon te
ĠCom ic
Ġpe ri
Ġdis pers
Ġcont ras
ĠLe rn
ĠGu itar
Ġto ps
ĠF ris
ĠPal ais
Ġcou che
Ge ography
ĠRe ce
por ting
if y
Ġattrib ue
Ġg onna
ĠK un
Ġge re
ĠR ett
ĠLa us
ĠAd olf
c lin
ĠCal endar
Ġf rust
k ommt
Ġbare ly
Ġvol ont
ĠN HL
t urn
ĠM essen
ĠP ai
Ġoptim ale
li van
ĠPublik um
Ġd ragon
Ġcol ored
ĠTri ple
tit a
Ġhard ly
Ġpremie re
ĠE bene
ĠAma zing
ĠH ed
ori o
OS E
ĠSp ur
Ġhau ptsa
Ġde ar
Ġhol z
ĠHu a
Ġout doors
ĠFrei heit
es us
int es
Ġstar ken
ĠTi pp
ĠAbs atz
Ġli p
ĠW att
bo at
Ġass ured
ĠVor stand
ĠDi am
Ġd ying
ĠH oney
t asche
ĠM t
Ġac corde
ĠMo vies
ĠMess age
H aving
Ġche val
ĠPlay ers
r tel
f els
rou ve
Ġbes se
ni que
rn ier
ĠOrts teil
Ġess ayer
ĠAg ric
Ġreven u
ĠCinem a
Ġcoc onut
Ġcu ps
Ġa si
ĠAN Y
rs chen
â Ĩ
ik h
heirate t
ĠWi Fi
ĠDom ain
Ġenjoy s
Wh ich
I tem
ĠBat man
g ations
Ġlo ading
geb nis
stu hl
ee red
forder t
ch ung
ns cht
ĠN ume
form s
Ġwi rst
ĠBatter ie
Ġtrain e
Ġapp orter
Ġro ller
de ur
aler weise
ĠF inger
Ð¾ ÑĢ
Ġvit amin
Ġdou bles
ĠGu ardian
iz ard
ĠC SS
20 3
Ġcli ps
Ġ0 17
Ġbott les
ĠG itar
z ers
Ġthere by
Ġen roll
Ġwe ib
ĠB av
Ġsi zed
Ġvol s
tein e
rit ure
Ġ2 80
ĠUn like
ĠTrin ity
Ġvor ge
ĠVol un
d omin
ĠBris bane
Ġg ree
L ittle
Ġch ore
ash es
Ġsuper b
ĠHe e
ĠVer mont
cke ts
Ġla d
Ġter res
du ctions
g ome
y en
ãĢ Ĥ
ak o
Ġfu ite
ĠDes ktop
Ġblog ging
Ġw elfare
ĠGra z
ite ten
ĠH igher
ĠEr krank
an ic
ĠEr za
ĠWe hr
Ġ2 60
ho ven
ĠLam pe
p ame
ĠBel ow
ĠO uts
gesch oss
ĠN au
Ġwi nes
ĠG and
Ġincl us
k ewise
Ġh orn
ĠSe at
ĠKon kur
Ġt onnes
Ġ14 5
ĠMus lims
Ġseg ments
Ġrec ours
W R
at ti
Ġwhat s
Ġloc ate
Ġgen res
C ho
ĠJ ules
Ġsuper be
Mate rial
ĠR ennes
ĠB oi
olog ien
u den
u hr
ĠCom edy
re icher
k ow
Ġs eniors
Ġpriv aten
Ġsc rap
gen den
Ġbout on
Ġ12 7
Ġreconn ai
Ġaus geb
Ġfoot age
Ġkon kre
ĠGet ting
bb ing
Ele kt
Ġgew o
id ity
I e
Ġapp elle
ĠBer keley
as ins
ĠC odes
Ġdigit ale
ĠH ip
Ġhaus se
stru ktion
Ġpri ori
lo ge
Ġrelax ed
t ch
Ġpl ac
Ġob sc
Ġag ing
ĠCann es
Ġje ans
Ġversch w
Ġch ansons
lei der
Ġ. .<
Ġtre ating
t tingen
sch riften
ĠN Z
ĠE di
Ġen abling
Ġrefle cts
ĠP oll
ĠHo hen
De ux
ĠPhilipp i
Ġbes sere
mi nster
pl oma
Ġcro ire
it arian
Ġsur name
Ġm ol
Ġpom pe
ĠEmp loye
ĠAu ge
ati o
B ul
inter pre
h p
hi ge
Ġin forme
ĠSug ar
ĠHar vey
m atch
ĠGe gner
h us
E lement
ber ries
ique r
ĠHy de
ON D
Ġend less
ĠRe zept
Ġchap ters
ĠPaul o
aut es
Ġan erk
G V
Ġsome body
Ġt este
l ap
ch tigt
Ġun ve
ĠGes am
G I
n atural
Ġfit ting
riger ator
at omy
oc ity
omb ie
au be
Ġthro wn
B ud
ĠM aps
G allery
Ġapp arten
ĠEd wards
ĠConne ct
iel ten
ĠV S
t here
ĠBed arf
N P
ĠRechn ung
ĠP ots
ĠA w
W ash
Ġau ÃŁen
Ġwas ser
Ġqu est
C ross
Ġscrat ch
Ġtour ists
ani ties
Ġvoc ab
mit glied
Ġuti les
Ġc ran
m ant
Dan iel
Ġmake rs
li um
ure aux
ma ÃŁen
Ġtub es
open hagen
ck land
13 9
Ġn est
ĠW id
ĠC limate
Ġchar me
Ġir rit
Ġ16 00
ĠT ore
ber zeugen
ov al
o ct
ĠBere its
!!!! !!!!
un ts
ng el
Ġla tin
gl ome
Ġbe einfl
ĠNew ton
ĠS ai
lie gt
mus ter
. (
', '
Ġdead line
Ġho her
Ġphr ases
Ġsymp a
Rich ard
26 4
Ġus i
osi um
chei be
teil ungen
ven ant
bar es
Ġh ype
Ġind ia
Tra vel
B ank
An im
Ġsouli gne
pt on
li me
ĠWind ow
vi k
coun ting
fiz ierung
Ġt rin
ĠCons umer
L M
unsch weig
ve tte
Ġf ails
Ġret ard
ĠUse rs
ĠLau fe
T a
bei n
Ġbatt les
ĠB T
Ġâ Ļ¥
ĠA A
19 30
onn ier
Ġg agn
Ġhi king
ent rum
ĠFer rari
Ġoffe rt
ga e
ĠSch ie
ording ly
ĠPhys ical
ĠJuli en
ĠPer th
Ġtra its
ĠS lip
Ġbur den
Ġj olie
ci dence
Ġrec ense
pap ier
19 62
ĠAr te
ĠGer hard
ewo hner
ĠPer m
ĠT igers
ĠA ce
lier te
oth ic
ĠT railer
Ġs ib
ĠRe ally
ĠH our
ĠCh ancen
ook ie
all ow
Ġlog ique
B ed
zn e
Ġrep lied
ĠK linik
dne r
tei ger
Ġn iche
Ġang ry
Ġsa x
Z immer
Ġall ons
15 6
ue rs
nte red
cess ary
C enter
La w
ĠAl pes
st ags
amb ig
k aufen
que ment
ay an
## ##
Ġum ge
tz lichen
geb iete
ĠRe covery
Ġdu c
19 63
yl an
Ġex isted
Ġ18 65
ĠP ill
sec ond
Ġph ases
Ġrecei ver
p ter
ĠL on
F K
ĠA sp
Ġbes uchte
lt ras
ane ben
Ġc rossed
A lles
ĠW ah
ĠSch aden
Ġpar as
ĠInter pre
Ġch op
Ġfarm ing
alis tic
Ġmuseum s
ĠRe cip
Ġauf s
ograph ics
az ita
ĠL amb
Ġbes ie
ler nt
ĠMo tion
ĠStim me
ji n
ĠC hip
ĠRe y
ĠMetho den
K urz
Ġk atholis
ĠN urse
f et
ra ctions
best a
j ac
Ġremar que
IT S
Ġthe ories
Clau de
Ġerfol gre
Ġla den
Ġar rond
ĠF ou
Ġt witter
Ġtrave led
ri ffe
ĠC andid
uc ci
ti us
Ġd orm
14 8
Su pport
J ud
les h
Ġ18 86
Ġdi alog
ĠBob by
r gi
B enz
ĠLic ense
Ġk le
ĠR ig
v ante
ache ter
ĠJuli an
Ġenorm ous
s w
b ud
ĠT ah
Ar be
N R
od s
Ġra cc
ĠW affen
Ġshi n
ĠO ster
ĠS B
ĠJu il
Ġb ush
13 3
zi o
Ġdir ty
ĠD ell
ĠN BC
ĠPrin zip
Mo di
Ġ10 80
Je u
st es
usi n
Ġw c
S us
ĠSti ck
Ġj ohn
Sc ot
Ġtra vels
Ġsin on
ĠMu hammad
' .<
ress ing
ĠArtist s
Ġz o
13 4
ĠRail road
ĠC ay
Ġmalad ies
Ġread s
Ġb ake
ĠBl anche
ĠP ris
ĠGrie chen
Ġsh ield
oc ate
We rk
I ls
Ġm icros
ĠPar tie
use i
ĠG RE
de re
Ġup set
g f
ĠCo lin
19 39
ĠM indest
kas ten
vi dson
ĠAust rian
ite rs
ament als
ĠT arget
Ġtele fon
uge ot
Jac ques
j as
ĠColon el
Ġshel ter
Ġsee ks
ci fiques
ĠA ld
z gl
wohn ungen
Ġr at
ag ge
Ġmode ling
ici ous
Ġbrow se
ĠLa de
b ald
ĠBut ler
ĠVor ga
ĠOp tim
Ġ18 71
rd lich
ĠSomme rs
ĠEin fach
áĦ Į
ar tigen
Ġal phabe
g ab
S at
Ġclo set
ĠFle et
aus chen
ĠAuf s
Ġconf ront
J us
her z
Ġvi olin
ra hmen
Ġhom osex
ĠL ars
Ġpen et
teri zed
Gro ÃŁ
T em
ĠM ER
S and
Ġg ib
Ġh unt
ph ane
izien z
G G
ĠGro ÃŁen
tition ers
de ro
Ġfem i
Ġsoli de
Ġres ist
Ġcombi nes
Ġge he
ĠW ave
oh nt
Ġein iger
Ġfi bre
It alian
Ġesp agnol
I hre
Ġs age
ar ische
ite m
be ring
renti al
f iles
Ġfran k
Ġl an
ĠTre as
mpfa dern
ĠIde al
ĠCont est
5 50
Ġto it
ic kets
ĠNS W
ĠIn fe
Ġemp ire
R Y
A W
ĠVe get
Ġweak ness
ĠR oof
ĠR ally
Ġde pen
ĠLes en
ĠDou g
l ord
ĠP U
Up date
oun ted
V M
h ma
anz a
Ġine vit
ĠW ear
ro its
Ġadd ic
ĠE llen
Ġsol aire
W ed
Ġearth qu
15 9
alis mus
Ġd ritte
Ġcitoy ens
ledge able
Ġsoll test
Ġto llen
Ġmut ual
Ġfai ling
ĠD H
Ġe ars
Ġabstra ct
ĠAt las
Ġali en
Ġass assin
ĠDep ot
Ġb atch
oli th
ĠA BS
ĠLad ies
Ġar mes
Ġzu verla
ĠS hen
ord net
Ġd ick
ĠLors que
ĠJo achim
e ffic
ied s
ĠC ade
Ġsu its
ĠR um
Ġtrou pes
Ġlock ed
w enn
Ġclos est
Mode l
Ġange r
ĠConfe de
rn a
' );
elling ton
Ġgl ory
dic aments
Ġan al
Part n
K re
ĠHin weise
ori ker
ĠSp ar
j ab
Ġaff irm
ĠT T
Ġv ues
ÃŁ ige
Ġtim ber
Ġbet ting
le hre
ĠSymph ony
qu ote
ĠL um
os ch
ĠH ors
ĠGuine a
ĠRe b
Ġs ouve
ĠH ours
ĠG are
ĠW end
Ġ18 87
schul en
A e
ar ded
Ġnavig ate
Ø ³
nd iger
pre ise
ĠT ub
ĠG illes
Ñ Ĩ
ich tet
ĠR ica
C ate
tempor ain
Ġclimb ing
ur laub
Ġdraw ings
kl ag
un it
Ġg ale
t rie
Ġte ars
h ai
OW N
ĠCor re
ĠAR T
25 5
Ġpe oples
Ġwell ness
ĠAut hen
ĠI o
Al tern
B row
ĠVi ze
us site
Ġt ester
rit ts
ĠPro ce
rai nes
Ġeth ics
Ġh anded
ĠF res
ĠVer mo
Ġ( Â«
owne r
Ġce ci
ge fa
Ġp ande
Ġcur ve
s wick
h igen
ĠA ven
Ġdou x
Ġzu ku
ĠTro phy
Ġcomp ound
ĠC ricket
ĠAir es
Ġjus ti
g ewe
ati se
ci enti
ĠK ame
Ġfil ters
ĠGiov anni
ĠLi quid
ĠP atch
tic kers
ĠUnivers e
oo ling
Ġgrie ch
ar ticles
enti el
Ġdeli be
Ġvor bere
ĠPe te
Ġf res
ĠEgyp tian
IT ION
eng age
Ġs ach
Ġer ziel
Ġatmosp he
ĠDela ware
ĠL ack
ĠHer rn
Ġin cont
ac ute
D O
Ġlois irs
tie gen
P et
end o
ĠT oile
Ġcl ay
ti gious
r lichen
Ġrec ur
M R
Ġ ]<
liss a
ami nes
ĠT rus
ĠSp acew
Ġt an
Ġvac cin
ch al
ĠPort able
Stra ÃŁe
Ġd ol
Ġanaly ze
Ġd unkel
Ġ3 30
ĠK ali
Ġci ble
ĠComple x
DA Y
Ġme ter
Ġdest ro
Ġgri nding
ĠHil fs
Ġnie mand
ĠSt rong
i tern
20 2
E li
ĠFl ower
ĠAr me
Ġaff aire
Ġs ung
ĠS ke
Ġtw ist
IS H
R esearch
ĠDiabe tes
Ġspe eds
Ġen ce
st anz
14 4
Ġusi n
ĠLeon ard
uch ungen
ĠOption en
g oogle
ok i
Ġc athe
il fe
nis cher
Ġh ielt
Ġsom met
S und
Ġcl osure
St ore
ĠK andid
ĠV III
Ġ% ),
si nk
Åĵ urs
ĠP ART
Ġspor tif
app re
Ġoppon ent
Ġcolor ful
Ġcle ver
Ġmodi fy
ĠEsc ort
Ġbla me
ĠTri cks
ĠAn fa
Ar tikeln
Ġhum ains
æ ĸ
Ġ18 61
ĠR ush
Ġtable ts
ĠB anks
> \
is tische
Ġre chten
cht est
ĠF alle
ĠKont o
Ġsh ame
Ġass ists
Ġg aining
Ġei nde
t w
ĠStein e
ini n
Ġsol ving
Ġrepris es
ĠCe le
Ġ* **
ĠR ams
Ġfre ien
he ri
ĠMon ats
Mar c
Ġhol y
Ġb onds
V ente
Ġbe zahlen
M ap
Ġblock ed
ĠFran ken
ĠJourn ey
ĠBre xit
ĠSh ore
p um
ĠW et
Ġnahe zu
ĠPers pe
ph is
ĠB ars
ĠPil ot
Ġret ained
13 8
ĠV es
ĠNe g
b c
tin ation
ĠJu den
ite rin
me ts
Ġle isten
omber ie
Ġpar ois
mus ic
ĠC ond
ir ch
Ġste ady
st ens
ĠW OR
gome ry
.. ...<
ste t
gbar keit
ĠCh ain
Mode ll
ĠGu ild
ign ons
ĠVe ri
te hen
ĠHel lo
Ġ2 70
kre ta
rou n
Ġstra w
Ġle cteur
Ġst rive
Ġjourn als
w ire
M os
Or der
or um
áĨ ¨
ĠY am
ĠFre undin
C ard
lo b
AR S
Ġunn e
rie t
ĠH end
di vision
Ġpa use
b ischof
N un
psy ch
Ori ent
Ġenti ties
Ø ©
Ġoub lier
ĠGen re
ĠB elf
ĠMusi ker
ĠTH IS
ĠWhe el
Ġculture l
cons cious
Ġsh ades
ĠPhilli ps
yn th
ru nd
Ï Ģ
ĠT ats
aut ant
Ġsc ul
ĠAdvis ory
C N
Ġdis sol
Ġkont rol
udi um
unt u
ĠIce land
ĠAgain st
Ġmar oc
m c
18 5
U k
Ġf ancy
Î »
å ®
he ben
Ġtrib ute
Ġcas ting
ĠC AD
M ass
Ġusin e
Ġp ants
Ġor dering
ĠGe rade
ĠO racle
Ġman ches
Ġbas ics
d k
vo it
Ġm ache
ĠGra tis
ĠKom fort
Ġdi ale
ĠK rist
Ġch aise
B ill
ĠK up
Ġvig ueur
s it
Ġpros pect
Ġtra it
Ġagric ole
Ġcock tail
lo ch
d atum
ethe less
K unst
Ġof fense
Ġbes itzen
li ci
ĠSo on
Si ze
ĠS r
Ġ18 81
ĠWild life
ĠGe bie
Ġm amm
ĠAt mospha
Ġadvoc ate
tig ungs
Ġvol unt
A vant
Ġat tire
Ġpri ced
ĠParte ien
ĠWal king
ĠE pis
est es
v oire
ĠU nde
ĠN ursing
Pro vi
Ġpic ks
ĠBil dern
helm ing
ĠDate i
ĠP ull
Ġlo vers
Ġ$ (
>âĸ ·
ĠBar b
Ġbede ut
Ġcan adi
Gu ide
b art
Ġri ders
Ġ18 64
li mited
ĠPort rait
ĠLap top
atten tion
Ġindire ct
eff et
Ġf ed
ĠVer lauf
ein ander
ul ary
res sionn
ann ah
3 80
13 7
Ġno body
Ġexemp les
Ġinsp ir
rali zed
Ġm eth
qu ite
ĠS lee
de ll
Ġconf ie
ĠD EL
ĠG ul
ssi ge
Ġesc ort
ĠTur bo
ĠAvi ation
Ġb acks
al ore
Ġa merica
Ġgran ite
>> >
nisse ur
ĠLog i
ĠT ol
den k
et tel
L arge
Ġs amp
], [
Ġrep rend
ĠLem mon
ock en
ĠM old
19 5
Ġdev ast
ust y
de v
ĠDef ence
men u
ven u
Rus sian
forder ung
ĠB ali
Ġ4 000
ĠO thers
ĠAug sburg
n ove
ent hal
Ġle an
ĠZ usa
ĠN obel
Ġd pa
ĠVari ante
g renz
ĠK anz
ĠEn cyclo
Foot ball
en tin
Ġsur gical
ah u
ĠDi n
ĠB auer
ob tenir
Ġg out
w uchs
pp o
ĠNo tice
h riger
Ġvis ites
Ġ rs
Ġte ens
P resse
etz ter
he il
ĠNach bar
Ġ15 5
ĠMann heim
rier ung
M au
ĠTra ffic
sm all
L oire
ĠRei fen
ĠHe iligen
Ġak zep
Ġfore cast
19 61
Ġst ays
Ġsou venir
agne tic
as ia
Ġle ak
di ents
Ġpath s
Ġsymp athi
n sten
19 58
Ġunderg o
Ġretre at
a ber
Pri vate
hn a
arch iv
cl en
4 20
Ġsatis fy
ĠGra duate
vi al
ĠN okia
gis la
Ġexc av
Le ague
Ġbles sed
ĠJe anne
Ġst olen
amme lt
Ġrest ent
NE W
Ġpas te
Ġein zu
AN N
Ġmau vaise
J im
ĠÐ º
ĠSh ield
w ritten
ie uses
Ġcir cuits
Ġseul s
% ),
H F
Ġtraine r
ĠD raft
ÌĪ Â¿
gi nn
ĠSe ts
ĠA jouter
rein igung
ran z
ĠD ale
e rt
Ġra dar
M ond
Ġwelche m
it ur
ĠM BA
ĠSch ro
Ġbe ating
Ġsum mit
Ġate lier
Ġgew i
u ellen
ma jor
ĠPati ent
li ore
s ong
J ew
ĠKon zer
Ġsur ren
ĠAe ro
ĠáĦ ĭáħ
ig ungs
Star ted
id al
Ġflo ating
ahr t
at aires
ĠRi vie
C our
end ie
E rst
gion ale
18 3
Ġmo tifs
ĠPo e
cl usion
jen igen
Ġmer ged
Ġcon ge
el o
ĠH ose
Ġj ar
m met
ĠSe g
Ġesp rit
00 2
Ġact es
ĠClin ic
ĠL ance
ĠSchw eden
ili ter
ĠTun is
ĠRes pon
ãĢ ģ
Ġfre ie
F ile
Sp ace
ĠO NE
gh ter
ĠLi vres
c ci
ru fs
Ġfac ial
h yp
Ġe en
M ilitary
ĠO U
ss lich
Ġab ha
te ils
ro de
Ġ18 84
Ġregar de
ĠG our
19 59
N u
amb oo
Ġad ulte
Ġfi ling
ĠColomb ia
cou ter
oph y
Ġpra ise
ĠAng riff
di al
Ġl at
ĠNam ens
t um
ron es
ven tions
ĠIsa ac
um me
en que
ai der
D ann
ilder ness
Ġdom es
Ġ ÌĦ
IN A
quis ite
ĠT M
re iten
are t
ĠT RA
Ġem bedded
ĠW im
ĠBee r
T ON
ĠIn se
ĠBet ra
Ġv aste
ĠL OVE
ĠRo hr
Ġchar ter
ish ops
imb abwe
Ġque ry
16 6
ĠAcadem ic
w ai
stell ungs
13 1
dem ic
Ġge ringe
Ġseason al
mans hip
4 80
W ood
og h
Ġma ÃŁ
ay ette
ĠAu ckland
ĠHa ven
Ġdist urb
Ġparf aite
ĠStell ung
let ters
ĠBe k
ĠWh ats
Ġevol ved
Ġbound ary
Ġ12 9
Ġde voir
Ġliber al
ĠStan ford
Ġbek am
ĠCe ci
Den is
ĠCo aching
ĠRet ail
ĠSold aten
ĠBan que
Ġcrus hing
Â £
b liche
â ĪĴ
Ġas ser
Ġvois i
Ġad orable
ders on
ĠP OL
ov as
ĠT odes
b eln
st rate
as ting
Ġbot an
ĠTy ler
M useum
ĠAus nahme
Ġactiv ist
Ġcy cles
c ieux
ĠFor der
ĠL ois
ĠF F
ĠPack age
Ġch ains
C entral
ĠC raft
sch ie
Ù İ
ĠWasse rs
roff ene
trange rs
ĠSU V
ov ie
IN K
ke rin
ĠSp encer
ĠD esert
Ġavi ons
ĠEconom y
ĠAll ah
Ġwhere ver
Ġhu ile
Ġnot ably
Ġshow c
raub en
ĠP ologne
Che f
Nach dem
r zen
cu ador
L I
Ġw ounded
Ġtri o
ĠChap el
ĠNei n
g ance
ĠCar lo
Ġto b
st y
Ġcyc ling
Re cent
amm ens
lis me
c p
F un
un ted
ĠE agles
Ġbas sin
Ġveri fy
rei ft
vers t
Ġte aches
Fe b
Ġd ressed
sp rache
Ġmor ph
t ale
Ġfis c
ss igkeit
ĠN ai
ax e
14 6
Ġcart oon
Ġmul tic
ze rt
ar tiste
ĠE k
ĠMo le
av irus
ĠDise ase
ĠR M
ĠLun ettes
du ite
Ġsac re
Ġal gebra
Ġle ichter
ĠA ur
n ist
Con se
alis che
Ġer w
is mes
ĠAuf grund
15 7
Ġpart ly
Ġra c
effe ct
rop ra
Ìģ (
ĠH app
p ou
Ġdress es
Ġprof ite
tel ling
no le
zeit ung
ĠP aint
Ġs ichere
ĠJuli us
bi ke
ch ou
Ġt ires
Ġex ige
ĠP ion
ĠC RE
L ot
ĠK iss
G ran
Ġcl an
ĠBatter y
ute urs
Ġfl oral
de en
Ġa ust
Ġplu ie
dire ct
i ves
Ġdiffe r
em en
i nv
mb les
ĠAk ku
ĠM ED
Ġe vident
ord n
f ashion
Ġher b
ĠRead y
ces ter
ang ular
com ed
Comm unity
Ġarri ves
cor p
ĠLu ci
Ġfi fte
Ġminor ity
ĠDi nner
Ġhal b
Ġv ape
ĠAng es
ĠI X
ĠCh es
Ġfeu ille
aum ont
Ġmu ÃŁ
Ġde lla
ĠAs pe
Ġharm ful
u ÃŁer
Ġemb odi
Gru ppe
co is
A uteur
vi na
ange l
Ġ18 62
ham med
be at
h os
y au
ĠBe et
ate mal
per c
sp ring
Ġsui ted
m ith
Ġany time
War um
Ġw achsen
Ġmob ility
usei n
g am
ri ver
B U
ĠM ET
ĠWebs ites
cre ation
Ġj ug
Par ti
Ġd w
Ġang ep
ĠSh ar
Ġmi di
lect or
16 9
ĠF ett
ĠSha w
ĠH U
Ġcon cre
D L
ins ch
Ġtourn oi
p hine
ĠSk ills
Ġcle aner
Ġwoll ten
Ġli v
ĠO bst
Ġzu ges
R ose
f inder
av ons
ĠRes i
T Y
ĠJere my
Ġstart up
P ap
Ġ12 2
ĠA RE
t aking
Ġe ager
ĠWi der
ĠP owered
ff ield
Ġd ahin
âĺ ħ
ĠBern hard
inst ant
me re
Ġn aval
Ġbe ings
AV E
b ots
d ish
ĠLe af
Ġrun ners
ĠOwn e
u h
M s
Ġinves ted
Ġcourtes y
fin ity
ted ly
ĠSe henswu
ĠT ot
ĠPin e
gra ve
F ac
Ġre wards
Qu ick
ĠHugh es
z heimer
ĠK ee
ĠOwne r
! )<
Ġto x
es es
ĠRei hen
Ġhe rs
ge re
ĠVer band
Ġk iller
Ġbl ank
ch amp
Ġstar tet
ĠBe ide
n ation
ĠGi ants
ash ing
Ġ18 82
ten dent
Ġimp rison
ĠR oma
C entre
Ġc andy
de cins
78 9
Ġr al
bre cht
Ġpor tions
Al um
Ġtreat s
Ġs ni
Ġh art
ĠT ampa
Fri day
he y
Ġadap ter
ant ra
Ġver ha
Ġh ood
pon ible
d rop
ĠMe tern
Ġelder ly
Ġserve ur
Ġt omb
osi teur
Ġmob iles
ĠE ure
ĠAl te
l ocation
Ġfin ir
ĠN ob
wir kung
che hen
ĠB alle
ctu ary
Ġcance l
z ene
ĠF oster
omi ze
ĠDe als
Ġorig ins
Ġv enti
ĠK ub
ar r
ex per
L ow
Ġf lip
Ġacces sed
ĠH ale
Ar gen
uen cy
u ÃŁen
bar ung
Ġdis agree
Ġunge fa
ff ure
b usiness
Ġse he
Ġlaws uit
Ġpot atoes
Ġser vant
us ste
ise aux
Ġpne um
Partn e
ĠS enioren
Ġinteg ral
isten cy
ĠBene fits
ĠJo an
uti lise
Ġgau ge
Bewe rt
otyp es
to gether
d al
ke eping
ĠL ighting
ĠB ak
Ġlo ver
ende z
ĠY ard
ĠGren z
ĠPhys ics
Ġve rei
ĠPi pe
Ġchi na
ĠB ub
m ai
arch ie
Ġb ridges
Ġdis se
19 44
UL L
Ġshow case
ĠSanti ago
Ġ16 5
B ob
Ġb illet
Ġ18 63
ff le
av ailable
illi ers
ll ation
ĠK ok
p ression
ĠRes ult
ĠSt am
ĠS co
Ġtou ches
ĠF iles
Ġ12 4
w hen
ĠCal gary
ĠO ffer
S QL
Ġre que
Ġutili zed
ĠGlo be
Ġbewer ten
ĠJam ie
Ġint ake
â Ķ
Ġro lled
ad ays
ver le
cor der
19 56
Ġnature ls
Ġd ign
Ġv oul
Ġde ce
ĠFol k
tin um
Ġexp rime
F arbe
pack ung
ĠWol fs
ĠE cke
Ġcy cl
Ġglob ale
Ġj oints
N om
ri ens
19 55
Ġpre mises
af el
Ġhum aines
T outes
ĠRe ed
P ie
Ġpra ised
ie rend
Ġh d
ĠAth ens
B F
Ġf et
re tte
h ling
Ġpain ful
J ob
__ _
cks ack
Ġcha os
ĠKle idung
Ġ18 40
ĠVin yl
ĠY a
ĠG ospel
Ġman ge
ĠAn cient
ahr ungs
Ġ{ {
Ġbi ble
Ġbel oved
Ġn ude
j un
ign ants
A IL
Ġhom ework
Ġadop t
Ġwra pped
ĠAng els
Ġexce ed
Ġd ried
fu ÃŁ
Ġbla de
ĠRe yn
Ġso vie
ĠMal ta
ĠM R
C ost
Ġerfol gen
13 2
ÃŁe rg
Ġbou te
ry s
fur ter
l ante
Ġcon dem
pann ung
Ġtra duit
Ġhe ct
ĠUm fang
ign an
Ġcomb ien
Ġbro yeur
Ġhi ver
ain te
a al
ĠArab ic
Ġ; )<
IG H
Ġe co
c urs
Ġse rez
ĠBer gen
ĠBe gru
? âĢĿ<
ĠBut ton
Ġsla ve
ĠC OR
ĠJahr zehn
Ġf rau
Ġb aign
no ise
en ade
ĠRe gens
en es
ĠN one
ĠIn k
ĠA SS
Ġf oster
Ġerinne rt
und a
Ġbad ly
qui ries
am ins
Ġbe am
wer ten
Ġpre view
ĠTe aching
Ġcor on
ĠE thiop
ill ac
termine r
M ur
ut able
Ġpl atz
ĠFre unden
Be rn
conom ic
Ġi di
C art
C ulture
chn et
Ġd auert
ĠS leep
ĠFire fox
Ġsens ors
Ġla ce
ĠCh uck
Ġ18 30
12 00
Ġhon ored
Ġemb race
B it
p oints
Ġb undes
ĠEnt ry
res sional
ĠHol mes
Ġg ently
ĠE b
ĠSe conde
u ke
h irt
Ġk ulture
ĠC oin
ĠC orner
ĠH obby
âĢ ļ
y i
wer ken
D T
14 7
Ġcoun ts
Ġmo indre
os its
Ġ( ...)<
ä »
ĠEd die
Ġenvir ons
Ġal titude
ĠSpe aker
Ġmon ter
Ġan bieten
Ġavant age
ar tet
ĠView s
Ġvou lu
j ay
ent rale
ĠMuseum s
Ġn ap
Ġgod s
bro chen
ĠUE FA
di aire
ĠHau pts
oun ces
Ġer geben
ĠBu enos
ĠInne r
19 57
Ġb ugs
Ġmai rie
Ġsold ier
Ġac ute
ĠCert ains
C asino
ĠBed ien
tie fel
ti tive
ĠLe eds
ĠAdd ress
ĠBes ides
cul aire
Ġtre ten
app renti
ĠOb jekt
ĠY i
h d
ter ieur
) [
ĠU ti
ĠUm sta
Ġein iges
vie rs
Ġ18 75
P ORT
ĠRe vue
Ġbran che
Ġhyp oth
ĠUnd erst
for ds
Ġhe ated
l tige
ĠP fe
Ġt ongue
ĠT C
ĠC ake
st own
ĠMar tine
fe uer
Ġm c
Ġdep uty
ir on
Ġ12 6
b aus
ĠSche dule
ĠOrgan ic
ĠLei n
Ġmas que
Ġs mi
ic z
ular ite
Ġbri de
li gence
Ġ18 76
ĠCon cept
Ġenc ry
ĠS ark
ĠR ule
ĠD owntown
val ence
Ġpl ai
Ġno de
ĠDi alog
sp ielen
Ġhom eless
Ġf old
IC A
Ġal ge
ad vant
S ongs
Ġmons ter
Ġpale tte
cur ise
Ar ts
nk en
ĠVen ice
ÃŁerg ewo
Ġcro y
Ġchee r
Ġbeg onnen
s ischer
ĠHar per
peratur en
Ġp rie
F r
ĠTer mine
Ġb uses
pen sive
tit ue
Ġres on
ĠNe ust
Ġcli quez
ĠA mi
Ġh arsh
Al ge
lam pe
Ġschl oss
00 7
d og
sion ally
ch tigen
ĠF rieden
Ġe chte
ĠR ac
rt on
ĠG MT
Ġlie fern
doc ument
ls on
ĠLu cy
b ons
Ġw ax
Ġscre w
I ran
ĠRet our
De c
die re
ĠLinked In
oca ust
ĠSyste me
ad ier
z ia
rom an
pi red
ĠImp ort
T en
Ġ18 67
à¤ ¾
Sch w
Ġac te
Ġhe licop
Ġex ams
ĠC OU
kn u
Progra mm
ĠM K
Ġcorn ers
ĠCo hen
Ġpier res
N I
ĠCh ase
ĠDes k
agas car
st airs
ĠSchl acht
ĠVers uch
p enses
Ġret rie
ĠX IX
ar ischen
ĠSe rien
Ġest he
Ġsp orting
ĠBlog s
âĢĻ .<
Ð¸ Ð¸
ver gne
mp fer
Ġf are
leg ten
Ġs enden
ĠMon itor
Ġshel ves
um ann
ket ten
ĠSurge ry
Ġdeploy ed
ĠWh is
los es
ĠH its
fig ur
Ġow ns
ĠN T
b ye
cours e
Ġge ograph
Ġast ron
ĠSc and
Ġch rome
ubs cribe
Ġla kes
bl ue
ĠBer ry
ĠJak ob
imp act
ĠIn vent
riff t
p n
as ten
ĠB om
Ġad visor
ze ption
Ġeth ical
ĠX I
u ka
ĠT rom
su per
ide rs
app elle
19 00
ti ch
itzen de
ĠMig uel
D ig
Ġacc use
B este
O rd
Ġnice ly
Th ose
ĠFe el
ĠBo at
ĠFeed back
K en
Ġs id
ĠM ama
ĠBla ke
Ġ18 83
Ġfi li
Ġl anded
Pres ident
be rater
sch i
rain ts
qu are
worth y
fal z
ĠGewer be
ob iles
ĠBl att
de es
Ġmehr fach
ĠMan che
ĠMir ror
c ross
Ġbl onde
/ ?
Ġpu zzle
it ale
ĠTru ppen
Ġacc us
enn ame
ĠBos ch
Ġemp run
Ġfu me
gy pte
Ġhand ful
ĠAf rika
Ġthrow ing
pen sion
Ġped est
Ġroy aume
Ġremar qu
K it
ĠW art
ĠFor ums
ĠOli ve
man e
St udio
Ġg ingen
um t
Ġfac ilite
Ġpro voque
Ġligh ter
ac tement
ĠRe fer
gesch wind
uch i
ĠSur face
Ġha zard
Ġsug ge
ĠLu cky
ĠMetho de
l b
Ġa venue
ĠV f
Ġin sert
Ġcredi ted
ur ances
ĠCe leb
2 90
ĠK ammer
di an
vious ly
ĠNov oline
Ġhe ir
ĠBank en
Ġvra ie
23 5
Ġmer chant
Ġres igned
dis ambig
ĠBau ch
sen tieren
Ġconf lit
si chten
ĠW ays
on ome
Ġfin als
ĠT F
Ð° ÑĤ
Pour quoi
Ġbelong s
d lichen
ĠTurn ier
Ġdra ws
ĠS ample
ĠNe uk
T al
Ġerre ur
ni on
Ġmem orial
ĠFlug zeug
h jahr
20 4
Ġdeci des
ĠSter ling
ĠUp dates
Ġle isure
Ġlie b
ĠFem ale
Ġj unk
G ast
ten dre
v oile
Ġ18 78
Ath le
Ġcol umns
fi able
Ġcl uster
ĠBro oks
ral a
ĠPl astic
ir ge
y ed
Ġdelay ed
Ġgro cery
V ictor
Ġeinde u
ĠSur f
p rop
g ran
Ġremo de
p ages
ĠSalv ador
Ġtra iter
Ġmon at
c ologique
D aten
ri us
Partne r
Ġval or
En fin
Ġam bul
uel ler
Ġsozi ale
o vers
ĠR ollen
Ġâĺ İ
ĠCan adi
ĠM AC
Ġpros per
R U
Ġcomp iled
en ded
est yle
Ġb anned
Ġ18 79
m aid
Ġte ar
Hel p
ĠF ests
un en
s hed
identi te
cl os
ĠCou nter
an mar
ãĥ ¼
m uck
ĠH ospit
Ġlate ly
Ġsac red
ĠR EC
w oman
25 6
ĠT ER
ĠJi n
A lt
Ġconne cts
Ġw rest
rum ente
Ġtra m
Tit le
ĠR im
Ġem ig
app ing
Pro jekt
ĠMon it
balle ur
Ġr onde
Ġoe uvre
ie ll
sta tic
ĠK alender
Ġden se
cl air
quin e
b ol
ĠGe ha
Pl ot
Ġhand les
Ġeigh th
Ġmassi f
Ġf ate
su pp
Vers and
hig keiten
ĠInves tig
ap ped
Ġtra uma
w alk
Ġmand at
W ild
le ading
ĠF I
Ġp unch
v orsch
A rab
Ġpau vre
F ach
Ġlie f
ĠSc ore
l oo
!!! !<
P rop
ist le
Ġver letzt
Ġlite racy
Ġst air
ĠForm ula
Ch ambre
ĠK ill
ĠChr ys
ĠF usion
k abel
ĠB elt
Ġpren nent
ĠVer kehr
ĠGe off
t ages
ĠPo etry
Ġdi ve
Ġleg ally
i fication
ĠCor ona
k ong
Ph il
ĠTour ism
20 8
Ex cellent
ti ft
bu y
f rag
ĠRom ans
Ġf risch
ĠZu hause
ĠAdel aide
ĠVehic le
U nf
ĠSch atten
agent ur
ĠId aho
Ġgri p
Ġm others
me tte
jah res
f z
00 5
ran ces
ĠTal ent
besser ung
Ġsn ack
cu ler
ric ol
man ent
Ġstre ams
ĠH ER
Fe rien
Ġdispos al
Ġpro tagon
Ġacous tic
ente red
ug u
Ġartis ans
Ġb arn
onn et
p aid
iz ations
on o
fin anz
app ropri
p ins
Ġrapp el
clai m
> --
ĠEr lebnis
Ġo ce
ĠR ies
ĠSa w
Ġt ir
ann ter
ĠW ool
rin o
Ġ^^ <
Ġsit zen
J P
mi ques
Ġne at
ĠNe uer
ĠLu ck
ĠW ande
ĠD ing
ĠD ure
com me
ĠW ake
ĠGes tion
ha ust
Ġbe her
H uman
g us
Ġt ales
Ġla be
ĠAuf lo
aus end
Ġinvest or
ĠSchu h
oc ur
Ġarri ving
l c
... ]<
ĠMac ron
ĠW alt
Ġbe raten
ĠP aket
n us
ĠRan ch
n orm
Ġbre ach
Ġen gra
Ġpast or
ĠSz ene
ĠW orte
ĠMag de
ĠIn sp
Ġcharm ing
ä ½
Ġcolle cte
Ġpl umbing
ĠSA INT
Ġver kauf
uri ties
Ġvan ity
Ġpays age
j ew
cus sions
Ġad vent
Ġmal heure
Ġloy al
Ġpred omin
olog en
Ġtro cken
Ġbar rier
Ġque ue
Ġdoct rine
ĠV au
Ġal lie
sch la
f c
tic ism
ĠNor folk
Ġbesch ra
pra ch
15 8
Ġar ise
o que
ĠLogi n
ĠIran ian
lic an
was aki
Ġpul ling
E pisode
Ġmar ble
Ġaut umn
em u
Hol stein
ich age
ĠPar alle
ĠOut look
Se ason
ionn e
Ġrecei pt
ĠOb serv
ĠOri ent
ĠO w
23 2
Ġac tif
wend ungs
Ġin timate
opp elt
Ġsch li
$ $
ĠLog ic
ĠFra me
Kont akt
Ġto iture
ĠZ oom
Ġas te
Ġtra fic
Ġcal cium
p aisse
Ġemb ra
Ġvari ant
ĠNach b
Ġelect ron
Ġv ague
ĠLy nn
gh ten
ctionn e
14 3
Ġ18 66
N etz
N orm
ogra phe
Cre ate
Ġro ses
ĠP and
ĠSw an
Ġen vers
ĠJ unge
Ġbew a
Ġ12 1
zz les
f aite
Ġveter ans
Ġun cle
S ha
ĠClub s
Ġrhyth m
h ungen
Ġexcl usi
the it
Ġdes sous
ĠDe z
ĠPfer de
ĠCher ry
Ġung laub
it an
Ġre zept
amaz on
S chlag
Ġfla vors
ve ur
Ġw ool
k olle
Ġyoung est
Ġsus p
ĠGreg ory
ĠL ett
Ġdo zens
ĠO blast
stru ktur
Ġac ted
Ġbek annte
op ing
Ġoffen en
k ie
ĠT esting
Comp uter
um fang
ĠB W
ĠT schech
stell t
ĠM ental
ĠS ag
ĠR oi
sent ants
D onn
Ġam id
Ġback yard
ĠAt om
am ount
B ear
Ġcol ore
ĠDis count
Ġexp i
A udi
Ġmus h
ĠT ow
exer cice
nd igkeit
mer ci
ĠKon fli
Pl atz
I ts
Ġenvis age
! ,
hes ive
ĠD iana
ĠB out
ang lais
ĠSoc orro
ĠTra vail
F ix
fra me
B all
at ens
ĠP ist
ĠNe uen
or ms
19 38
ĠXX e
(" #
Sch we
ĠNR W
nne rn
hab t
ox ic
mocra tie
Ġpri zes
Ġgl oss
D amen
Ġang em
ĠZ ul
Ġval ued
Ġrob ots
Ġhon our
ns tigen
ĠX avier
ĠP ET
ĠK ot
ons o
Ġgel ungen
Ġwhe at
tille ry
ĠN H
ĠShe ll
on ial
Ġd ore
ĠRe e
P ing
Ġen rolled
M ah
Ġchale ure
ĠRob o
âĢĶ âĢĶ
bers etzt
30 5
l de
dition en
ĠKap itel
l tere
ĠNe uf
Ġstand en
Ġan hand
Ġinter fe
cou rage
ex ception
17 6
ĠCON T
ĠHar old
F unktion
Ġsc ra
ĠA rom
Ġkur zer
Ġma re
ĠA way
Ġsou mis
Ġn utz
ham mer
vers ch
Ġpoli sh
ĠA achen
V ir
ph al
Ġa stu
Ġe ditions
Ġtra ded
Ġcoll apse
Ġdi y
Ġtou ring
Ð¾Ð »
Ġwhe rein
oure use
S F
Ġform ally
Ġvoi es
ĠSt ade
20 6
Ġcost umes
ĠWall ace
Ġc ents
ĠVer bre
Ġcro ps
Ġsou tenir
ĠF DA
Is rae
ĠBe havi
ĠT TC
Ġp unk
15 2
Ġd ras
B ilder
Ġex em
ent um
ĠN A
y on
gri ffe
r v
Ch ange
Ġg alerie
Ġab zu
Ġle ichte
Ġle ver
mont re
M arne
Ġambi ance
ator ies
Ġman ages
lin gh
ĠHor ror
ĠâĢĵ <
ĠI v
gra ben
Ġar th
Ġ æ
ĠOtt oman
Ġ9 11
ar rie
Ġreconn u
wri ters
ĠBry an
tab li
ĠAr ray
ĠDe velop
Ġaufge fu
ri gu
ms on
ĠF ear
la ise
Mar keting
Ġchac une
Ġate liers
15 1
g rer
b uts
gel ung
p air
Z i
st lichen
ore an
ĠN I
Ġpix els
ĠDa wn
ĠF els
ĠWor kers
19 46
ĠCont ro
Ð ł
Ġs ati
19 49
wer de
ren zen
T rouvez
R uss
Ġru es
lle y
vel t
19 14
ys on
s l
ge rin
bas tien
ĠSti ch
Ġcost ly
Ġvic time
ĠGi ven
oo ded
ĠO kt
ĠLINE AR
OL L
ys ical
ĠS ultan
Ġatt ache
Ġcom for
ĠEle gant
war ded
ĠN ombre
v ot
ĠM ord
Ġt enter
den d
ĠMar que
US D
Ġru hig
ĠG ad
S aturday
dition e
li ons
J on
en gin
Ġm ieten
Ġse mester
ĠParad ise
ru b
ĠY ves
Ġco le
r pers
Ġmar tial
15 3
ĠBest en
liche m
Ġgo ver
Ġnew e
ag iste
ĠD ob
Ġst rap
ĠAnn ie
ĠCru ise
am y
c oo
Ġd az
Ġun w
30 1
ro sion
Ġho ped
ĠD au
Ġdonn ant
Ġle gt
m men
D J
; "|
ĠReg ular
blog spot
ielle ment
Ġ14 4
n ters
rne ath
] ]
Ex plo
am ar
ĠN ass
le ger
Ġmeisten s
ĠGren oble
ĠRe ader
Ġprin ces
Ġdiagn os
ti ma
Ġrou lette
Ġhyp othe
Ġfre ely
ĠHealth y
19 53
ĠAud it
Ġexten ds
Ġsais ons
Ġfra ppe
ns tein
fin ir
Ġbar g
are l
ĠSteph an
e lection
Ġbor row
r dern
it us
Ġe b
Ġbuild s
lis sement
Ġt ends
Ġhom emade
Ġdark ness
aly mp
erse ys
ai nder
Ġwel comed
Be rg
ĠCl ara
Not able
ĠPay ment
Ġben annt
ĠC out
ch ure
terin ary
ĠAb bey
Ġm aman
ĠH unting
b w
ho fer
ĠLie der
Ġsurve ys
med aille
e ck
Ġb ilder
oles te
Ġcomme mor
Ġsli des
3 10
p ore
ĠKap ital
asi est
ĠHel mut
ĠPur ple
19 33
Ġter rest
ru ctures
Ġprotes ts
Ġ18 74
ti ts
ĠGar de
ĠInd oor
Ġany body
utzer kla
ĠHy brid
R ho
Ġshin e
ĠS ic
K lasse
ĠF okus
d ownload
Ġsp ouse
ditione r
ĠF IN
Ġread ily
B ap
Ġx xx
45 5
fin itely
ke hrt
Ġaff air
F iction
Ġenvoye r
Ġwood s
Ġshe ep
ĠHyd ro
ĠCom fort
ĠTit re
ien en
Ġfig ured
19 54
16 7
scha fter
baut en
Ġer gibt
ĠD usche
ĠÐ ´
gen der
ĠMc L
bre aking
Ġ7 20
Ġquali fiz
Ġvary ing
ĠC alifor
Ġresol ved
Ðµ ÑĤ
af ood
nd ungs
an aly
po on
ĠT all
ĠE mm
ĠMc Donald
Ġdonn ent
Ġr ares
ĠArbe iter
Ġmemb rane
k onto
Ġall ant
x us
Ġlimit es
ocal yp
Ġcom man
ĠF uss
ĠMon ument
as hed
ĠW I
ĠCh ang
ck ss
ĠC elle
Ġ18 77
M is
Ġroy ale
Ġre charge
uation en
iss y
":" ","
Ġac quis
ĠOr din
Ġl bs
ĠAni me
ot ti
Ġmin ist
ĠTe ppich
Ġli b
fe uille
ĠZahl ung
Ġnewe r
Ġge r
Ġbes tellt
li ma
Ġet ab
19 36
ĠAsh ley
Ġprior ite
G EN
ĠP ix
Com pe
ĠK lass
ĠBook mark
Ġmid fiel
dep th
Ġworth y
Ġcan ape
Ġste ep
D imen
19 48
Ġve g
Ġdeci ding
Cont ent
Ġth riller
Ġdev ra
ĠBeng al
ali t
hal tet
ĠP ac
ĠBr ussels
22 8
D re
Ġtail ored
ĠEx port
Ġin verse
ni fic
Ġdist ant
Ġp ockets
Ġri ve
ĠKl ar
Ġsec teurs
Ex e
Ġpro se
ĠIs le
Ì Ľ
Car rie
ĠSpra chen
H yd
ung al
che ur
ch ule
ĠSee le
ĠBor is
d ose
ĠA chie
ge le
Ġstup id
ĠT ari
V G
n ab
ende l
Ġb r
A udio
Ġprim aire
Ġam ateurs
Ġv olle
Ġb ild
Ġse raient
ĠN W
ian de
ĠS zen
ĠMerk el
Ġqu oted
Ġburn ed
Ġg ad
ĠB ibli
Ġpal m
az ier
Ġ[ #
ĠHall o
Ġc amb
mo di
ĠRom ance
n ational
Ġin quiry
ogen ic
ĠB P
an en
rei be
Ġpl ats
bewe gung
Ġth resh
Ġlang age
N B
Ġ18 72
are z
Ġe cc
Ġrec ue
ĠM uss
ĠP orter
Ġwe ist
R P
ĠPa pers
Ġfe at
ĠCi ties
Chin ese
ĠV ladimir
15 4
Ġbra celet
Ġk iss
pe ts
ĠEing ang
Ġprof ound
usin e
Ġou vrir
Ġsicher n
ric ot
Ġper c
ĠCy c
ces seur
ĠWeek end
ĠUn til
Ġen comp
ĠJ up
ĠV M
ĠVi enne
Ġan melden
Ġ18 68
lest on
ĠChe mie
roy able
Ġfinis hes
Ġadjus ted
S ummer
ĠU T
we ist
Ġpup ils
ass ure
om ar
ĠHil ton
ol ven
Ġausge fu
Mi ke
Ġoffen bar
n it
ĠEx po
Ġdete cted
th o
A ktu
Ġstock age
Ġs lim
ĠIn cre
ĠWie de
Ġf ests
ver brauch
Ġfor k
ans a
fang s
Ġgef ragt
ed uc
ĠDe co
Ġglau ben
ĠRem ote
ande z
" /
ĠMedic are
Ġpost es
ĠBelgi an
Ġu t
ti sed
Ġce ramic
ĠC assi
ÌĪ ,
Ġcom bus
ĠN ak
les te
AR L
uss ir
Ġvie les
lit zer
ĠMP s
ĠAl li
Ġwa ist
ĠBel ast
8 50
Ġmarch and
i at
V EL
Ġtex tile
ss igen
Ġout line
ĠPas sion
Ġpri ma
ĠSp ringer
ĠF lying
Ġre medi
19 52
im mers
ligh ten
Ġbe ars
ĠE ich
Ġc attle
Ġtac tics
ĠP P
IT A
ĠD ow
Ġre mettre
m ol
Ġun t
D ollar
ĠS ut
h ten
ĠB rut
ĠF S
Ġf ighter
Ġchan tier
g oci
rf nisse
ĠM oss
E A
Ġm atrix
Ġw ore
ĠKost u
V iele
ĠLiz enz
ĠT ue
Ġillust re
ĠL C
Ġtom ber
Sp ring
K ri
Ġsu ites
20 9
ex tre
Ġmaje ur
ĠD uch
Ġli g
Ġl enses
E asy
N ice
up pert
Ġdes sins
Ġm ali
ĠTur m
P falz
ur red
Ġspati al
ĠDi x
to ires
Ġch amps
ĠChr isten
ĠProdu its
ĠFl owers
ĠSand ra
ĠMar ty
hn te
ogra m
Lie be
Ġde venue
d owns
ĠLib re
ĠF au
Ð½ Ð¾
aster y
ĠY ale
av enture
pan ic
ĠF ille
par ents
Y L
ĠOb wohl
af rika
m acher
s ay
ç Ķ
Ġquan tit
ĠG uts
se her
23 4
ĠEle mente
Ġinf os
Ġfra ction
Ex peri
Kom ment
g b
ĠFor mer
produ cts
Th ough
br ates
als a
ĠBer nd
ĠT rag
ĠK ais
Ġli able
Ġren force
ĠTh ierry
16 3
Ġfi fty
ck ge
Ġl ung
rolog ie
ĠHe ath
O cc
akt or
Ġd airy
Ġdis estab
ĠB ind
ber nahme
mber g
ant om
app areil
fo hlen
Ġwithdra w
n ier
n stru
Ġrefuge es
Span ish
ĠChem ical
Ġste ering
ĠSud an
ĠL ai
Ġhero es
Ġcirc ons
Ġel abor
Ġpe ers
enf ants
gew iesen
ag ir
Dis play
Ġkri tis
Ġrui n
Ġb oring
ĠBu ilt
Ġwill st
Ġ18 73
Ġl amin
pon du
Ġdis co
us on
ĠCh al
cess or
ĠFig ur
ĠSh ops
QU ES
ĠP ries
19 42
Ġb icycle
Ġper pet
mont on
z ar
Fem me
ĠCra w
27 5
f enster
ru fe
Ġmag asins
ĠH A
ĠJ O
ĠAp ost
oul ders
ĠM aus
IC ES
Pal mare
en regist
ĠEint ra
ĠIss ues
Ġs per
18 9
ĠSpi n
ĠD uty
ĠPl ain
qu els
Ne ver
F ast
ĠD umpster
n zt
j ud
Ġelev ated
ĠDog s
ĠBenn ett
ĠF IG
edi atric
Ġedit ors
fam ilie
urre ction
Ġch oc
ĠHau ts
Ġher bs
Ġj oie
C ore
Ġkor re
ĠM assen
ĠAb lauf
duc teur
ĠQu est
Pe tit
aus schuss
ĠSh im
bahn hof
Ġhes itate
re icht
ĠA wesome
Ġswe at
ter istic
Ġcell ules
b ags
ĠShe et
Ġk Wh
l ene
Ġfig u
ĠLith uan
ĠIs abel
Ġc ens
Ġaci ds
ĠZug riff
ĠO hr
ng igen
T w
wachsen en
gew a
Ġmine rals
Ġchap itre
Ġk enn
ĠPol ar
elle ry
Ġhe al
ĠHa are
ĠE yes
D K
H all
[...]
