#version: 0.2
Ġ a
n e
t h
Ġ th
e r
l i
Ġ o
r e
Ġth e
Ġ i
Ġ s
n d
t i
Ġ w
o n
Ġ c
o r
n g
e s
ne w
e n
li ne
Ġ f
o u
new line
Ġ b
t o
Ġ p
e d
a n
a r
a l
a t
Ġ m
Ġ to
Ġa nd
Ġo f
i ng
Ġ h
Ġi n
Ġ d
l e
i s
a s
r o
ti on
i c
. <
o m
Ġ e
l l
Ġ re
en t
u s
v e
i t
Ġ S
Ġ y
Ġ T
a c
Ġ I
Ġ g
l y
Ġ C
Ġw i
Ġb e
â Ģ
Ġ A
Ġi s
Ġy ou
Ġf or
r i
l o
s t
h e
r a
u r
a y
t er
v er
Ġ M
n o
e c
a i
a m
a d
Ġ P
a tion
t s
Ġo n
c e
c h
Ġw h
Ġwi th
Ġ B
u t
g h
i d
Ġth at
l d
e t
s e
Ġ 1
Ġs t
i r
o w
Ġa s
Ġp ro
Ġ W
Ġ D
t e
Ġ 2
Ġ H
o o
er s
k e
Ġ F
Ġ (
âĢ Ļ
Ġa n
a g
Ġ R
u n
Ġa re
u l
Ġ no
er e
at e
Ġ li
m ent
Ġ L
Ġc om
ti ng
a b
p p
Ġi t
Ġm o
Ġc on
Ġh a
Ġw e
Ġ l
Ġa t
Ġo r
Ġ G
Ġw as
s i
ĠT he
e l
Ġ N
Ġ E
ro m
u m
o l
Ġe x
re s
q u
Ġ v
Ġf i
h i
Ġd e
Ġb y
Ġyou r
a nd
Ġ lo
t r
th er
Ġf rom
es t
Ġ2 0
Ġ O
u c
Ġth is
om e
Ġs h
Ġs e
t y
Ġa l
ai n
or t
Ġha ve
e m
ti c
ar d
Ġ n
Ġ us
f f
o p
Ġs u
Ġ u
Ġh e
Ġc an
u d
Ġ J
i l
gh t
m p
ou r
Ġ le
es s
i ne
al l
Ġd o
r ou
Ġ ne
i g
Ġ âĢ
m e
an t
Ġa c
u re
Ġp l
a p
> <
Ġp o
Ġw or
Ġc h
Ġwi ll
n t
Ġs p
Ġno t
it y
Ġa b
ac k
ĠT h
al ly
a k
ag e
' s
c i
s s
ou ld
g e
ou t
us t
Ġ U
Ġs o
e ar
a re
o d
Ġa ll
Ġ k
Ġ j
Ġcom p
0 0
e w
Ġ ti
p er
is t
b er
ar t
ic h
a li
ĠI n
Ġa d
at ed
Ġ20 1
k s
Ġd i
s o
Ġh as
Ġ K
Ġm e
n i
. .
ne r
ab le
on g
Ġc o
a ke
e p
ti ve
Ġb ut
f or
o t
T he
id e
as t
Ġ r
ic e
t w
Ġ1 9
Ġu p
v i
it e
Ġm an
ar y
i m
ou s
an s
ac h
ec t
i es
Ġo ne
Ġthe ir
ver y
Ġ V
an ce
o re
o s
ac e
Ġmo re
u e
li c
Ġ Y
o ne
Ġ te
v en
Ġo ut
Ġo ur
u b
en ce
Ġ en
am e
Ġ tr
Ġthe y
oo d
c t
si on
Ġd es
tion s
Ġwh ich
Ġm y
Ġs ome
re e
Ġin c
Ġ un
er v
ai l
Ġre s
n ing
as e
Ġa pp
m er
Ġh is
Ġab out
Ġd is
k ing
Ġal so
ation s
Ġ 3
Ġg o
ĠS t
Ġof f
Ġ "
Ġwh o
Ġp er
g i
Ġ qu
a ng
re d
for m
Ġ -
nd er
i gh
Ġbe c
i li
ac t
b le
Ġti me
t ra
ne d
us e
or d
Ġy ear
ĠC h
Ġa r
as s
ĠI t
d uc
s h
w n
ay s
Ġan y
li ng
v ing
Ġ new
or s
Ġm i
l es
i a
c ess
at er
Ġw ere
d e
on s
p e
i ll
Ġ ro
Ġp e
âĢ Ŀ
f e
v es
n s
t en
Ġli ke
o nd
or y
o c
Ġo ver
ou n
Ġa g
al s
Ġo ther
ent s
Ġs i
Ġf e
Ġi mp
m i
c es
Ġbe en
r y
ĠW e
Ġin ter
Ġh ad
m s
ir st
Ġ ra
Ġwh en
Ġthe m
Ġg et
re at
ti es
a use
g ra
Ġth ere
ĠâĢ ĵ
Ġp re
p s
Ġre c
Ġcon t
Ġi ts
Ġp ar
ic al
p h
Ġwor k
lo g
res s
Ġne ed
Ġh er
Ġ tra
is h
Ġk no
f ter
Ġw ould
op le
Ġi f
v id
l ud
ar i
ou nd
Ġth an
ĠH e
Ġre p
ĠâĢ ľ
Ġwh at
Ġ 4
ar k
v ed
Ġs erv
Ġin to
a th
at es
Ġex p
Ġb o
u al
c k
ment s
am p
d i
oo l
oo k
Ġf irst
ĠTh is
Ġa m
Ġ tw
Ġh ow
rou nd
Ġ 5
o k
Ġcom m
rou gh
Ġ ri
a w
Ġb u
ow n
f i
T h
c ri
r u
a u
Ġpe ople
Ġinc lud
Ġj ust
e nd
ing s
! <
ic k
ver s
f t
Ġi nd
f ic
Ġm ay
o se
n al
Ġ |
m o
f ul
f er
Ġh el
b s
d ay
Ġc l
a ti
p tion
a ting
h o
ec i
Ġcon s
ul t
ad e
c om
Ġus e
Ġmo st
n k
) <
ĠR e
Ġm ake
Ġon ly
) ,
ec h
Ġ20 0
i on
u ll
ai r
Ġh igh
le c
Ġg i
th ing
Ġs ec
a v
ation al
en ti
en s
Ġpro duc
Ġp ri
Ġwe ll
Ġpl ay
ou gh
Ġs c
Ġu nder
Ġkno w
Ġfi le
2 0
ou nt
? <
r ic
y s
Ġtw o
li sh
ve l
Ġc ol
i le
Ġhel p
t ed
Ġs he
Ġs y
ĠC om
an y
Ġst ud
qu i
Ġ &
Ġb ack
i z
Ġe very
Ġsu pp
ĠY ou
1 9
as ed
t le
ai d
i ght
Ġd ec
n a
ar ch
d er
Ġa fter
ro w
Ġthe se
ĠW h
ig n
r is
ine ss
w ard
o ll
g an
l and
u res
it ed
Ġdi ff
Ġc re
ur ing
Ġse e
f ore
Ġyear s
Ġex per
ĠP ro
Ġ very
Ġ 6
ers on
Ġg u
ter s
Ġman y
i e
I n
x t
Ġlo c
Ġwh ere
us iness
u ch
lo w
e ll
ul ar
ve lo
st em
i an
Ġg e
Ġin s
i nd
' t
Ġo p
n ce
ti n
am i
Ġ ke
o st
ic es
ch ool
hi p
Ġthe n
Ġc ar
Ġg ood
ak ing
a ne
Ġsh ort
c o
it s
Ġw ay
u p
Ġw ant
ĠN ew
Ġs to
on t
t ur
a ve
Ġc ould
is e
ĠA r
i ld
i nt
Ġp art
velo p
at ch
Ġsu ch
.. .
re n
Ġd own
ili ty
al e
tr y
Ġdes cri
a tive
Ġin form
or k
Ġh ome
Ġac c
m an
Ġe ven
) .
Ġsh ould
Ġb est
Ġno w
se l
ĠS p
o b
a z
Ġe v
Ġs et
i al
t ain
Ġ <
u nd
Ġ 7
ĠA l
Ġa v
o y
a x
al th
Ġfi nd
ĠF or
ali ty
c ed
Ġe ff
e e
Ġc hi
re ct
Ġad d
Ġg reat
ou se
o ld
Ġre ad
Ġd ay
Ġsh ow
Ġp res
Ì ģ
Ġs m
t on
ci al
Ġdiff er
Ġ 8
Ġus ed
Ġ1 0
mer ic
Ġre g
l ed
Ġm ade
Ġs aid
as h
Ġ ed
Ġm uch
e en
Ġin v
z e
r uc
Ġsp eci
t ake
Ġl ong
an k
to m
Ġ1 8
u es
Ġs ur
o g
u g
c y
w ay
Ġ $
ic t
Ġin st
Ġexper i
t ri
Ġm em
Ġm on
Ġe nd
Ġsy stem
ĠL i
ĠL e
Ġli fe
Ġi m
Ġag ain
ĠI f
as on
Ġp erson
ĠS h
ĠA nd
ent er
Ġbe ing
ne ss
Ġd on
Ġn um
Ġm ed
oll ow
Ġbe fore
ĠN o
Ġ take
Ġs er
p t
Ġth i
ow er
Ġtr ans
v is
i o
Ġp r
j ect
Ġc he
Ġd id
ne y
ĠS o
di tion
ag es
ti m
Ġh im
i th
Ġre l
at a
Ġch ang
u ally
Ġwor ld
Ġp ub
Ġv is
Ġg ra
Ġh ere
Ġcomp le
en ces
vi ew
a h
r ing
Ġsu b
Ġ 9
p l
Ġp h
Ġpro vid
r it
Ġe ar
k i
Ġfi n
ĠB e
Ġc all
log y
Ġha nd
ng e
Ġdo es
âĢ ĵ
Ġth ose
ĠD e
Ġv i
Ġri ght
Ġch ar
Ġte am
ra tion
Ġwe e
o li
u tion
an ts
Ġe ach
e ver
ail able
ner s
Ġst art
Ġfor m
ti ll
Ġwh ile
t ech
Ġc are
le ct
Ġa u
Ġle ad
Ġres p
il li
ti t
Ġd ri
ut e
at ure
es sion
b e
Ġc lo
ak es
c c
Ġbe tw
le ase
ami ly
c on
ter n
Ġc ur
Ġm ar
ĠA meric
Ġpo st
Ġchi ld
Ġf ollow
Ġe as
Ġo wn
00 0
t ter
W h
Ġ tech
Ġcomm un
Ġ tri
ĠA d
Ġf ound
mi n
ar m
Ġa round
Ġc us
t al
1 0
am es
ĠU ni
Ġl ar
Ġlo ok
i p
ĠA n
ur ch
Ġas s
Ġpl ace
ĠU n
Ġf ree
Ġlo ve
Ġbo th
Ġpro gra
re ad
ec ts
ri end
c er
ĠJ u
ĠP l
or ts
Ġs ame
R e
ou th
Ġc le
b ers
ĠI nd
Ġc our
si ve
ar s
Ġc oun
tic al
g g
r an
Ġre qui
ne s
Ġb ook
ĠC on
Ġb l
et y
ĠE x
vers ity
Ġd uring
W e
Ġc li
Ġre ally
c tion
Ġre m
Ġl ast
Ġf l
w ays
Ġoff er
ti v
ro ss
Ġ 0
ic s
Ġto p
Ġus ing
Ġ ter
o h
Ġm ain
Ġf ull
Ġbu ild
Ġre ce
Ġr un
Ġ Q
Ġc or
Th is
n ts
Ġad v
si ble
Ġli st
Ġth ree
ho to
Ġs till
p le
Ġpro f
Ġ19 9
Ġfi l
m it
m b
Ġto o
Ġf un
m ber
Ġv ari
ĠA s
Ġ ty
Ġs chool
ĠThe y
Ġ Z
gi n
a j
Ġ *
ĠM ar
Ġthi nk
li e
rou p
i ve
Ġimp ort
ur y
a ther
th e
Ġapp ro
Ġac t
Ġnum ber
no ther
Ġi de
Ġor gan
t t
Ġf amily
Ġsm all
Ġc ap
re nt
y ing
it al
ur al
ĠC ol
Ġ '
Ġs a
ĠD i
Ġm us
oo t
id er
t re
Ġle ar
Ġf ew
al le
ver n
Ġpar tic
re en
p ri
g y
5 0
e x
Ġw ater
Ġgo ing
m es
1 8
Ġp i
ĠH ow
is s
Ġmon th
qu e
Ġo b
st s
Ġhe alth
Ġpo s
Ġsec ond
o ve
v ide
ĠB ut
ĠS he
Ġe mp
Ġ .
or th
Ġst ate
Ġd ata
l ess
ĠI s
ec tive
ĠC hi
Ġin f
Ġlo o
Ġmi n
ĠTh ere
od y
Ġ1 2
Ġall ow
) .<
gra ph
us h
Ġha pp
d u
e ld
sel f
es e
c ent
d f
Ġco nd
Ġs w
Ġ201 8
Ġ line
em ber
Ġ| |
Ġke ep
Ġst r
Ġst and
te nd
ĠC oun
ic i
m ed
D F
Ġis s
or n
Ġe ng
ĠM i
st and
l s
Ġli t
o te
m a
ard s
ĠM an
Ġare a
Ġpl an
Ġb re
Ġcon f
are d
tic s
Ġor der
b o
Ġdes ign
m is
er y
ĠC l
Ġo per
ĠG e
g et
Ġ tur
it ch
Ġcl ass
Ġ ve
" <
lo y
Ġf riend
Ġm ark
Ġdis c
Ġth ings
ĠA ll
Ġdi rect
ine d
Ġal ways
ra nd
Ġsi mp
Ġp ower
Ġs uc
Ġlit tle
E R
ent ly
Ġp op
i tion
Ġp ay
Ġd et
r on
Ġcon tin
Ġpo li
Ġb ro
Ġs ay
ĠO n
Ġm ust
Ġon line
lo ad
Ġp df
at ter
b all
at or
Ġwe bs
ri es
Ġhe ad
Ġv al
ĠC an
Ġun i
om en
Ġs it
id ent
Ġcom e
Ġlo w
fi ed
Ġf ac
Ġle vel
ti l
ate ly
i ti
ĠP DF
at s
ĠC o
ti ce
Ġbe tter
Ġ es
ĠR es
Ġc ent
b y
Ġpro per
g n
ir d
lec tion
el s
1 2
Ġsu re
i ties
ĠR o
Ġwith i
Ġj o
Ġwithi n
ĠE ng
e b
Ġd ra
Ġo ld
Ġne xt
Ġs ig
I t
Ġsi nce
p i
Ġs ol
Ġde li
Ġpro ble
ĠT o
u ro
Ġo pp
Ġinc re
Ġcont ro
Ġc er
Ġqu es
Ġop en
our s
lish ed
Ġre st
Ġs ing
ri d
Ġf act
Ġg ame
Ġpub lic
z ed
Ġre f
ĠU S
ĠP ar
Ġde p
ĠS e
od e
Ġs ite
Ġh ist
ĠB l
Ġre se
Ġge ner
Ġab le
Ġ ver
Ġh ard
Ġp hoto
> âĢ
is ter
en cy
Ġb ig
Ġdo c
Ġwi n
v al
um p
3 0
Ġ1 5
Ġgi ve
en se
Ġd ays
as ter
al es
Ġsp e
Ġro om
as es
uc k
ro om
age ment
el f
n y
ri b
ĠM ay
Ġa ir
Ġg row
Ġn ame
s ing
w w
Ġvi ew
> |
Ġpr ac
u ts
Ġs k
i ning
Ġl ess
ĠW or
Ġlo t
Ġp ut
or ies
Ġrec ord
Ġne ver
Ġwee k
Ġlar ge
ĠC ar
i or
: <
Ġl aw
Ġ est
Ġdes ig
Ġse ver
Ġmo d
op e
th ers
m on
Ġpo si
Ġ tal
i ons
t es
Ġmi ght
Ġf our
ou ght
Ġun til
I f
.. .<
d ing
Ġh ouse
ĠO r
b r
pp ing
g er
I N
1 5
g ed
Ġa ff
ĠP ri
Ġf ur
ĠT r
ĠF i
p ar
ĠW ith
Ġloc al
Ġapp lic
Ġo ri
ĠUn ited
ĠâĢ ĺ
ort un
ain s
Ġman ual
i ns
ec tion
Ġg ot
Ġev ent
ap er
Ġf ood
illi on
gh ts
Ġ Â
j oy
Ġb as
y le
ĠâĢ Ķ
ĠA t
Ġm aking
Ġ /
ĠD ec
th or
ge ther
Ġ19 8
Ġco ver
Ġst re
le y
Ġb ased
w h
ĠS u
ul ts
Ġal ong
Ġto day
1 1
p ort
Ġv ide
Ġne ar
. ,
ĠP e
Ġp ain
Ġac cess
ne t
Ġg roup
Ġh um
ĠB o
ĠS c
ĠD is
f ect
amp le
m ail
> "
Ġm et
or m
l li
Ġwor ks
aj or
Ġ201 7
h a
Ġgo vern
ac es
Ġm en
Ġchang e
Ġex ce
Ġ3 0
vis ion
Ġ1 6
Ġc ase
i vid
1 6
pp ed
Ġse ason
Ġimp ro
s p
un ch
Ġmark et
lec tr
Ġb lo
Ġw he
Ġ1 7
g o
Ġbe lie
no logy
ĠJ oh
1 7
ai ned
Ġb oo
vi ous
t ro
o f
ab ility
Ġcon ne
ect ed
Ġfe el
ab ly
me nd
Ġpo int
Ġof ten
Y ou
ĠG u
v ir
m y
n ks
ĠR ep
oc us
Ġl and
ward s
Ġmo ney
Ġp ass
ate g
Ġre tur
p or
Ġpro t
ill s
Ġcour se
k ed
l or
Ġa way
Ġre al
a ff
Ġan n
Ġle g
Ġ [
Ġm ater
ĠWh en
ut es
ur s
Ġser ies
id s
Ġneed s
Ġ1 1
O N
ul ti
Ġmus ic
ac y
li n
p o
ra li
Ġresp on
Ġo w
Ġo cc
Ġti mes
ĠM e
Ġkno wn
Ġcon st
Ġre view
t reat
v il
Ġ201 9
Ġw rit
Ġha ving
ĠS y
r al
Ġed uc
Ġst ar
E S
Ġcus tom
l er
ĠJ an
Ġli ght
ĠS chool
Ġeas y
er ing
Ġrece i
Ġ tre
Ġl ater
Ġth ough
Ġse em
gi on
ĠM y
A T
Ġc ri
Ġvis it
Ġen joy
at ures
Ġs ide
li ght
ure d
an ces
vir on
2 00
á Ħ
á ħ
Ġemp loy
ĠT ra
Ġat t
Ġre le
con om
Ġ X
Ġc ou
ĠCom p
Ġ201 6
b i
le ge
ĠM ed
ĠS i
ap e
1 4
Ġ1 4
Ġg l
Ġle t
Re fer
Ġc ity
ow s
Ġmo ve
E x
ĠS te
A R
ul ation
Ġte ach
Ġwor d
Ġle ft
ĠS outh
ĠS erv
est ed
Ġcall ed
ĠA c
c l
Ġbe ne
Ġrep ort
Ġde v
ri ght
th od
Ġdet ail
Ġ enter
Ġbec ome
ac hi
Ġte mp
ĠG od
t a
Ġf r
ĠD es
om es
A N
f y
ĠTh at
Ġwh y
Ġn on
Ġf lo
ti me
Ġm ajor
o ice
ĠA pp
ĠD o
am s
Ġcre ate
m m
Ġco st
Ġi d
Ġf ocus
ĠWh at
ic ally
Ġ19 7
Ġ treat
Ġf oot
Ġb ody
Ġp age
ĠE n
sion s
al f
Ġw ar
ĠN e
Ġ #
u tions
Ġli ve
Ġ ,
Ġk ind
ĠSt ates
g es
1 3
ĠT e
ĠE uro
ĠP o
u ary
/ /
ĠWor ld
n am
, âĢĿ
ĠS ep
Ġf ore
ur ity
ord ing
u ng
b ook
A s
Ġw on
s ed
Ġ201 5
ack s
ĠO ur
Ġv ol
ut ure
il t
âĢ Ķ
Ġ1 3
ar ing
Ġchar ac
au ti
is ts
us try
w e
Ġp ast
hi le
e f
i re
Ġre mo
tr act
ra y
Ġo thers
Ġst ory
an ies
i er
Ġd ist
ĠC ity
Ġp ati
ĠTh ese
re w
Ġear ly
enti al
nd s
an ks
Ġme ans
Ġdo ne
ĠG o
Ġm akes
Ġan al
Ì Ī
ĠA ss
>âĢ ľ
Ġth ing
Ġf ar
r ist
lic k
read y
art ment
st er
ner gy
b ility
Ġche ck
p es
is m
ni a
Ġw omen
Ġf und
: //
b al
pri l
res ent
e ad
p os
no w
! !
Ġe ver
le ment
Ġso cial
Ġke y
Ġac ross
, "
Ġe t
Ġh old
Ġfil m
ĠB ar
Ġde f
ri ting
Ġf av
Ġeng ine
fer ence
re t
al k
ir c
u ff
O R
Ġme an
ir th
ti re
j ects
Ġqu ick
i od
Ġvide o
s w
s c
Ġs im
Ġpr ice
id d
ĠF eb
Ġf am
a pp
ro p
ĠN ot
Ġen ough
Ġc al
Ġinv ol
ĠO ff
ĠIn ter
c to
. âĢĿ
Ġs hi
Ġ ent
' re
our ce
i ther
ki n
te mp
Ġj ob
O C
Ġc amp
ng th
Ġr is
or ing
Ġc r
ĠA ug
Ġn ight
ĠA ust
ĠY ork
Ġm ulti
Ġest ab
Ġcom es
Ġsing le
Ġbu y
ĠN orth
ĠCoun ty
ĠO ne
F or
Ġp urch
Ġfi eld
an a
Ġl a
Ġapp ear
ĠSt ate
i ous
Ġsp ace
Ġ2 4
Ġ201 4
um e
Ġbe low
Ġto ok
Ġin te
Ġb ed
i ble
Ġ1 00
te mber
ĠM arch
Ġ z
Ġcus to
Ġb it
Ġs um
our ces
Ġen s
one d
mo st
ub lic
u f
v ent
cto ber
ch ed
Ġstud y
Ġyou ng
ĠJoh n
ĠB ri
ĠEuro pe
ruc t
ang u
ĠP er
Ġgu ide
a us
es ts
S t
on y
Ġd ue
' m
Ġa w
Ġb ar
ĠY our
Ġto ol
Ġra nge
Ġtr y
ull y
Ġf uture
ĠG er
Ġ2 5
Ġe l
t as
ĠB ro
ĠV i
oc k
Ġ19 6
ri ed
Ġsh are
Ġar ti
ĠA pril
ĠW ar
Ġst ep
Ġle ast
Ġw r
ĠQ u
Ġs ci
Wh at
Ġcle ar
p ro
Ġon ce
ur ance
Ġar tic
Ġen c
Ġ ess
an c
Ġa ge
Ġh ours
a tic
Ġb log
i nts
oo se
u ed
Ġse arch
2 5
Ġau thor
at ural
Ġsu per
le x
Ġc ame
om mend
ĠM o
ĠA fter
om an
C h
Ġb i
a f
Ġfin ish
u ter
Ġs ays
Ġclo se
ce pt
ab or
Ġi te
Ġgi ven
n ation
ting s
Ġc e
t able
Ġdo ing
Ġbe gin
ĠJu ne
Ġ201 3
ru ary
Ġcon cer
ti al
ĠIn s
ĠH igh
Ġmonth s
lect ed
Ġre ach
auti ful
Ġe conom
. "<
ad a
Ġid enti
Ġme thod
tw are
ĠC he
Ġper iod
ke ts
Ġb ring
Ġp ack
Ġbene f
Ġres ult
Ġso f
ap s
A S
t ax
Ġs ong
Ġpri v
no t
Ġf re
Ġstr ong
ll ed
Ġ er
ak en
Ġoff ers
t our
b ed
Ġp ict
Ġe lectr
ili ties
Ġval ue
Ġe qui
Ġab ove
Ġm ag
Ġde b
E N
H ow
ĠH er
t aking
Ġst e
Ġg r
ili t
Ġg ames
ni fic
ĠA m
ac tion
f ully
du ce
ter m
ĠS ec
o nder
Ġman ag
u le
led ge
y c
Ġwi nd
Ġli nks
Ġ tour
p eci
Ġs ound
um b
gi nal
Ġcomm on
ĠC or
Ġre ason
ĠA b
Ġ201 2
Ġe mail
' ve
ag ue
b ack
Ġdisc us
Ġfi ve
th ough
Ġty pe
os p
ĠJu ly
b um
ter nal
Ġ tax
Ġne tw
an cial
n c
Ġli ving
Ġm om
H e
A L
Ġb rand
ti sh
ine s
Ġst ra
Ġhum an
- -
Ġch alle
Ġf ra
Ġp ress
Ġc ult
ec e
l u
ruc tion
Ġdid n
4 0
Ġ tas
Ġm is
om i
ir m
i um
Ġam ong
Ġw ent
pp er
Ġst yle
ĠF r
E D
d es
Ġp lease
pl ay
I S
ĠA f
Ġwe b
t est
Ġmi nd
Ġde ath
d o
Ġe y
ĠNo ve
Ġare as
Ġinv est
Th ere
uf act
I T
Ġlear n
ne l
ĠP re
tr ict
ĠH ar
ĠCh ris
at ors
Ġb irth
Ġc red
ĠC ent
ch ie
Ġsi ze
O n
Ġst ay
as tic
Ġme e
Ġ* <
Ġge ne
Ġc ount
ch es
Ġw atch
at t
ac ed
' ll
Ġde al
ĠAug ust
Ġan sw
Ġcl ai
au gh
ĠP ark
Ġiss ues
Ġ :
u ment
res h
Ġbre ak
Ġth ird
il ar
Ġp ur
Ġc ard
Ġcomp e
Ġcle an
Ġbec ame
Ġy et
Ġb r
ĠH is
Ġtra vel
ti g
Ġmed ia
ati s
i ly
ĠD ep
Ġoff ice
ĠS w
ĠR i
Ġmo der
p ris
Ġm atch
iz ed
f ort
Ġ table
Ġ5 0
as ing
Ġdoes n
ĠS ome
Ġw all
Ġa ud
ke ting
I C
Ġte ll
.. ..
2 1
g ing
si a
re am
Ġf it
ĠMi n
nd ing
m un
fi n
Ġmem ber
co ver
id ed
Ġd ig
Ġto wn
lic y
Ġar t
k y
k a
Ġ x
ed er
Ġup d
mis sion
Ġoff ic
Ġre qu
graph y
ĠB y
am b
Ġdec is
Ġbl ack
ĠA ir
ic ro
tiv ity
Ġsimp le
and s
l ling
u ri
ĠM c
Ġre li
2 2
Ġse en
ĠW est
Ġwho le
ang e
Ġg lo
t or
o int
ĠSt ud
it es
ĠR ec
Ġhe ld
ci ation
id es
A C
Ġsh o
ĠP res
h ic
Ġph one
Ġ taking
Ġo uts
ĠA g
w ork
an i
Ġph ys
Ġe nergy
ir t
il es
Ġh y
Ġev ents
Ġme as
Ġe le
s m
Ġwh ite
ĠCh rist
Ġ201 1
ĠP h
en sive
Ġ ten
Ġpro b
r or
ol ution
te e
no v
iz ation
ĠT w
Ġp aper
Ġf low
Ġin iti
Ġh alf
Ġfr ont
Ġc ut
ĠIn c
ĠW i
Ġe ither
ci es
ther n
s y
op y
Ġde m
rent ly
Ġ201 0
Ġm ess
h am
Ġfe e
Ġm or
Ġwi de
Ġide a
le t
Ġrep l
ad em
Ġuni que
Ġd am
en ing
Ġsu gg
Ġsi x
t aken
Ġbu ilt
Ġen tire
Ġh ope
lo t
ur g
Ġc ra
ĠT i
m en
Ġw onder
ĠB u
ĠH ome
ĠS to
Ġhe art
Ġide as
Ġst aff
ĠS er
ent al
is ed
c il
ra i
ab les
Ġal bum
u ation
Ġnew s
Ġinter n
Ġf ace
S o
Ġro ad
i als
Ġm achi
Ġc ell
A l
Ġc irc
Ġass ist
g est
ci p
ĠM on
Ġj our
Ġp are
hi ps
i tions
Ġas so
ĠK e
ĠE d
R E
a ur
6 0
ĠH ouse
Wh en
angu age
Ġcomm it
c he
Ġs elf
sel ves
ĠCh ar
g round
f ace
Ġpo ten
lo s
n king
Ġag o
Ġd ou
Ġcare er
Ġpar ty
Ġin tro
Ġo il
ĠD OC
ear ch
" ,
Ġa chie
Ġes peci
Ġpri n
Ġres id
Ġp ort
t ar
itch en
ĠM us
ut y
2 4
rid ge
ond on
an ced
air s
vi ties
c ome
Ġ test
Ġmod el
ou ch
ver age
it or
Ġtr ack
Ġann oun
. "
Ġam ount
Ġro le
res sion
tend ed
er ed
n it
L i
tim es
Ġneed ed
d d
Ġfi nal
ĠC ont
for d
a e
u x
Ġ taken
Ġac ti
u ge
Ġfav or
b or
Ġadd ed
i no
Ġne cess
ĠC enter
Ġal most
Ġboo ks
ul es
g le
Ġs ign
Ġfor mer
C om
ĠIn tern
ĠK ing
ho ld
g s
Ġre gion
at ur
Ġcol or
Ġ ...
Ġmi ni
ti li
l a
Ġqu ite
Ġb ase
ten tion
m as
s er
Ġbo x
Ġp as
ĠAf ric
ivid ual
m ing
Ġsp ec
Ġac com
ent ed
ep end
2 3
Ġar ch
re g
Ġus er
am er
es ting
Ġdiff ic
ar a
Ġsimp ly
ĠS an
s on
Ġab s
tt p
Ġreg ard
az ing
am ed
hi nd
ren ch
Ġch oose
Ġve hic
Ġfi les
8 0
Ġag ree
ĠD ay
ti fic
Ġet c
Ġw ood
Ġm iss
ali ng
ant ly
P ro
Ġpo ints
Ġtur n
he ad
Ġto tal
ment al
log ical
Ġ2 1
ci ety
Ġli nk
ote l
Ġens ure
Ġme et
ĠL ondon
Ġg ir
T o
Ġa li
tion al
Ġw ays
o logy
Ġ rou
ĠR us
Ġp ric
Ġsp end
ic ation
ĠD a
Ġiss ue
n ical
Ġan im
ĠFi n
Ġb ad
o id
ti ne
Ġc aus
vil le
Ġ tes
Ġrec og
ĠT H
Ġte xt
med i
t akes
Ġplay ed
ĠO f
Ġs ent
to p
Ġb al
Ġmoder n
Ġd ate
Ġs al
a ving
Ġre d
o v
A nd
ĠT ech
Ġb ot
ĠG ra
Ġra ther
am a
uc t
op h
ner al
ed s
Ġv ia
Ġcom b
wh ere
p ment
U S
Ġst ruct
Ġbe gan
Ġex tra
Ġlike ly
Ġf ail
Ġp ick
ai ly
Ġpro mo
o x
li es
Ġtr u
si an
Ġg round
Ġexp l
9 9
re et
Ġfam ili
idd le
ĠP hi
Ġso on
ber t
Ġ takes
Ġac tion
ou d
ĠD on
ce p
Ġre fer
Ġl ay
av y
Ġw a
ys is
u als
Ġte le
Ġin j
Ġfi re
at ory
ĠD r
ak er
hi b
w ood
Ġshow s
ĠC ons
m ary
Ġ19 4
Ġ round
el ling
ĠJ o
as hi
o ver
ĠB er
one s
ud e
Ġco ll
Ġd u
ĠU K
ĠI I
ĠC ali
ĠHe alth
ke y
at est
ĠJ ap
Ġcons um
B e
oo gle
Ġwork ed
Ġre ali
en ced
Ġi ll
or ge
Ġli m
Ġf all
ĠA u
at form
ĠM ore
z ation
Ġ200 9
er c
Ġcom ing
ular ly
Ġcl ub
Ġan ti
Ġ2 3
g r
Ġlo ss
Ġhigh er
ĠBl ack
ĠN or
Ġr ate
Ġwant ed
Ġst ri
ĠP i
Ġs en
Ġ4 0
Ġde pe
Ġ2 2
Ġad min
Ġs ales
ĠAss o
ti an
li ed
ab y
ou ra
Ġsa fe
Ġel se
Ġread y
Ġm atter
Ġup on
a ul
ĠInd ia
ĠS ci
is ting
Ġ Ð
Ġbe hind
Ġsto re
igh ts
li er
ver se
Ġl ate
Ġim age
Ġe qu
Ġtr ying
b ile
Ġpar ts
k et
Ġo ption
Ġword s
k er
A M
t ail
for nia
Ġs le
Ġh ost
Ġex c
ra nge
O S
Ġ tar
Ġp ers
ag ing
Ġ200 8
Ġs kin
Ġde g
tr ac
op s
Ġtr ue
ec u
Ġk ids
rou ps
ĠF rom
Ġe p
Ġmi x
Ġretur n
os ed
Ġins ide
i ni
ĠO p
amp ions
Ġsk ills
ĠA re
Ġrep air
el t
t ty
Ġus ers
c ol
ain ing
Ġapp e
ci ous
Ġlong er
" .
s es
Ġs qu
Ġhapp y
at tle
Ġto ld
Ġsu ff
Ġris k
ress ed
si tion
u el
Ġf ast
Ġar ri
Ġa p
Ġdra w
i ence
Ġmo vi
Ġn ice
c tions
ĠS ch
ct or
Ġe mb
ĠL a
Ġpri or
O T
Ġwee ks
Ġite ms
z ing
u ne
Ġpo licy
fi eld
Ġcan not
ag s
Ġpre p
Ġbo ard
Ġre duc
Ġ19 5
Ġdri ve
ĠB ra
ir it
Ġc as
y ear
Ġasso ci
Ġce le
al d
c ks
Ġsu bs
ut ed
bo ard
ĠC our
Ġli ves
Ġgrow th
rali a
Ġexp lo
Ġb ri
st r
Ġsc reen
ĠR ed
Ġg re
Ġle ave
Ġpre tty
ĠRe g
Ġb ath
ww w
ly ing
rai n
ĠN ow
as ons
Ġcred it
li d
ĠIn st
b ased
Ġfi g
Ġc ode
vi n
or age
mer cial
Ġas k
S h
Ġso ld
ĠA ng
7 0
ar ies
z z
Ġc enter
Ġla unch
cl us
ash ing
ll ent
ali st
ĠM ark
or ting
Ġse par
ĠU p
e es
Ġter ms
Ġp at
Ġw ish
Ġb orn
Ġrec ent
Ġsto p
tit ute
ĠM r
Ġlo st
A ll
Ġis n
Ġin ves
velop ed
ic tion
ard en
Ġb and
ord s
u k
Ġch oice
Ġins pi
h ood
n ter
Ġs ched
p re
ag ra
ĠChi na
Ġv ill
Ġexp ect
Ġs ale
Ġ2 8
Ġh air
Ġeas ily
ĠCom mun
Ġs un
p ose
Ġc and
g u
es tern
Ġsum mer
li ke
3 5
Ġc ross
Ġwor th
ĠW illi
ĠT V
Ġhe ar
Ġb us
Ġri ghts
Ġch urch
ĠW ind
ĠA cc
Ġh it
Ġgo al
Ġimp act
O U
A n
Ġ2 6
19 9
Ġex act
Ġcou ple
ĠSt reet
2 6
Ġl atest
ac ing
O ur
E C
Ġo bs
Ġn orm
o ff
Ġallow s
Ġc ook
ilit ary
Ġre ci
Ġg roups
O M
Ġs ave
ad es
y l
ed ding
Ġde ep
ĠE ast
Ġfi ne
Ġl ed
ider ed
ĠW hile
land s
use um
Ġra di
Ġhist or
2 8
Ġl ab
Ġc ause
Ġas ked
ati ves
on ic
ĠG roup
Ġse ll
ra ft
Ġsa f
Ġqu ali
ĠP lease
cess ful
Ġ +
Ġdo or
Ġ2 7
Ġth er
Ġde fe
M y
I D
Ġp le
r as
á Ĩ
ĠL aw
2 7
Ġwe ight
Ġ200 7
Ġde term
E T
line s
B ut
Ġany one
Ġplay er
Ġf ish
ĠM or
ĠV e
ĠT er
Ġau tom
Ġh ot
Ġs aw
Ġpl ans
z es
Ġseem s
Ġf resh
ĠF e
Ġb ur
A t
Ġlow er
Ġc ases
ĠL o
ar ter
ic o
Ġh or
fin ite
ĠInd ian
Ġits elf
Ġind ic
IN G
i b
omi n
Ġty pes
ag ed
ĠP ost
k es
ar an
ĠF irst
Ġloo ks
Ġat temp
Ġn amed
ve y
ĠDi rect
Ġserv ed
Ġtal k
Ġpri nt
ti tion
d om
te ly
Ġgo ld
Ġs on
Ġpl ant
Ġb ud
Ġa ward
Ġs ource
Ġco sts
Ġeff ici
v a
Ġm id
br ary
Ġad j
Ġlevel s
W ith
oun ts
re st
ĠT ur
ĠF rench
Ġdis e
Ġinf lu
Ġac tive
Ġim medi
ill ed
ĠE ar
ĠB est
oo ks
2 9
ĠF ree
d y
er ous
ĠCan ada
al y
t ouch
w i
Ì Ĥ
4 5
Ġex tre
Ġs ou
Ġhigh ly
g en
Ġtool s
Ġc i
Ġwr ite
Ġmo bile
Ġw al
es tiv
b an
he l
ff ic
s tic
Ġmom ent
Ġe li
id a
Ġs ense
Ġu nd
b and
Ġe mer
ĠH ere
qu es
ro wn
ĠG l
Ġp ath
er ve
ĠTr ans
Ġm ount
ĠM ag
E L
Ġsh all
A r
Ġco ach
om ing
Ġh ous
ĠSy stem
Ġter m
A P
Ġflo or
Ġcamp ai
Ġli c
Ġpl aces
Ġwe l
to wn
ĠP ort
ist ory
Ġ- -
ĠCh urch
ĠSc ot
Ġdi re
ub e
I L
ver ti
eder al
ĠT ri
Ġdev ice
Ð µ
Ġd ed
h er
Ġim ages
Ġc lick
at us
Ġsc ore
Ġsaf ety
sy ch
Ġgi ving
Ġ .<
Ġbro ad
se qu
it ect
Ġw alk
erv ed
Ġs outh
ol f
ect or
A fter
w are
Ġleg al
Ġ touch
Ġch ance
Ġgi ves
Ġg reen
Ġfi x
vious ly
e th
rou ght
nit ure
a el
f ts
Ġim m
Ġs il
Ġfe ed
Ġd aily
ĠM od
g ar
ĠF ri
v an
Ġsw e
ĠLe ague
ot es
Ġ200 6
ĠNew s
3 3
ĠF ran
Ġ =
ĠRo ad
Ġow ners
ĠA ct
Ġone s
re ments
Ġsit es
b orn
ag o
iz e
Ġcon ven
Ġp red
Ġg en
Ð ¾
ol es
or ks
Ġhand s
Ġat tend
st on
ha vi
Ġty p
ent y
Ġglo bal
l am
ĠF ace
er t
ĠG reat
Ġ2 9
i ting
Ġp en
C on
_ _
Ġeff ect
tim ate
Ġpi ece
ech an
ĠRi ver
Ġs li
Ġse nd
ĠI N
ecu tive
is ing
Ġu tili
? ?
ĠG oogle
l ation
meric an
a res
Ġtech ni
c ast
am ent
Ġc ool
ĠS en
form ed
ĠDa vid
ĠC le
Ġh uge
or ary
m od
Ġg ar
ĠG old
Ġdec or
Ġgl ass
Ġspe ak
Ġs low
Ġti tle
ĠWh ite
z er
Ġansw er
ĠRe ad
ĠA N
N ew
y ond
Ġli ter
ĠC ap
ain t
Ġj ud
Ġgo es
Ġc oo
ĠJ e
Ġd ru
Ġex ten
Ġ6 0
Ġfull y
augh ter
ĠÂ £
Ġs us
Ġm er
ĠE l
si b
ĠGo vern
Ġmo ther
Ġn ature
u it
m ark
7 5
ĠT im
i ed
ĠY ear
Ġ ul
B C
Ġpro g
ord i
w ise
3 6
Ġtri p
ir ing
i ans
Ġmo ved
Ġg ri
ĠO ut
p ut
ĠG reen
Ġn or
e k
to ne
= "
ĠP at
S ee
ĠAr ch
z y
Ġin nov
N o
o ts
Ġh oli
Ġhel ps
Ġspe ed
A D
Ġno te
ll s
S T
a ult
osp ital
ru it
Ġsu it
Ġm ax
c ing
mi th
gra m
Ġa ng
Ġmy self
ĠCl ub
Ġg ave
ĠS m
d ers
Ġcon c
Ġphoto s
ro te
Ġpric es
le g
ĠG i
all ed
ĠP r
Ġse x
ĠM ost
ĠD em
Ġst age
Ġpro m
3 9
Ġ â
Ġe vid
is on
ĠJ es
S p
ĠN et
c le
h aps
Ġf ather
Ġau to
ĠP en
Ġre nt
or g
ari ly
ĠAr t
O ne
ĠSu per
Ġne igh
ĠS und
Ġf em
8 8
p ite
P ost
Ġori gin
Ġpro pos
ĠPro duc
Ġfil ms
Ġgra du
O L
Ġn ation
ĠPro f
Ġpre fer
Ġsto ck
u ra
Ġm as
Ġd ro
ag er
ti s
res sive
Ġd ark
m al
m ore
Ġapp ly
Ġh i
an cy
i x
ul ated
Ġus es
Ġb ank
ĠT ex
Ġre ve
ri al
Ġatt ack
ine r
er i
Ġgo als
Ġ tic
Ġv ac
Ġd el
ĠM ac
ne se
Ġf irm
Ð °
P S
Ġteam s
Ġfre qu
and er
ane se
Ġcar ry
Ġc at
ich ael
I ON
er n
ĠPl ay
ff ee
Ġcon ver
Ġg as
x im
Ġas p
Ġaw are
ĠL et
us ed
Ġd ry
h ouse
Ġge ts
Ġf ai
ĠE very
hi re
lo ne
b u
Ġal ter
ĠS um
estiv al
m ar
ã ģ
Ġw arm
Ġvi ol
ĠE duc
ll er
Ġlo ad
> (
9 0
Ġblo od
z a
3 4
v ant
ĠJ ust
ĠTh en
ĠJ ames
Ġn orth
Ġblo ck
se y
Ġs ce
Ġcour t
Ġdi ed
ch ange
ers hip
Ġav oid
Ġp or
ĠB re
n ic
mit ted
ng es
Ġc amer
E O
b ra
Ġc ab
Ġc ateg
m ate
ĠG et
P l
ort ed
Ġmo ving
Ġb all
P e
ord er
D o
i f
Ġwr ong
Ġse ven
c is
ly mp
Ġtr ust
th es
ili ng
ke nd
an ish
s et
li t
k en
ĠI mp
Ġa im
ĠR em
Ġ200 5
Ġro ck
Ġass ess
Ġh our
Ġh on
amp les
Ġas se
Ġcli ent
ĠF lor
Ġtemp er
ĠM ount
ĠM al
ĠCour t
Ġun it
Ġsh op
ĠLi fe
d ed
Ġocc ur
ng ing
Ġst ates
Ġdeg ree
b on
alle y
ĠO ver
ĠS ing
> -
ashi on
ven ue
Ġtra de
T M
ĠGer man
A d
L e
Ġhe at
om b
B y
Ġc opy
ĠS al
Ġsp orts
Ġw oman
ĠDes ign
Ġpost ed
tic es
Ġr ace
Ġbe havi
ve ment
Ġadv ant
Ġfra me
Ġw rote
ti ves
ous ly
3 8
Ġf ab
ã Ĥ
ate gy
au ght
ĠG ood
Ġf elt
à ¤
Ġwi fe
Ġsp ent
atur day
lo ck
Ġex erc
por ate
it ation
Ġh ar
Ġf arm
as si
Ġ20 00
do or
w ide
ĠSu pp
ĠN i
on a
ĠR oy
Ġent ry
ĠFri day
Ġne g
ĠAl so
an o
n ary
ĠM et
r d
Ġaccom p
g a
Ġ >
Ġsle ep
ĠM em
od ay
1 00
ĠL ou
ĠR ich
ol ute
ĠTH E
ce ed
om a
pl ace
gh ting
Ġfe ll
3 7
er o
Ġey e
ree k
Ġmovi e
el ess
ĠSt ar
ĠBo ard
b ur
Ġo pe
Ġdam age
) :
ti fied
ĠP aul
ven tion
Ġbl ue
Ġs n
>| -
un t
b ody
Ġlo g
Ġtar get
ĠP M
ec es
ĠCl ass
na tive
ap y
ĠV is
od es
n ner
Ġex am
a ves
ad o
y n
ec ause
D e
ali zed
Ì Ħ
ĠA M
Ġp ages
p m
Ġanal y
Ġeff ort
Ġins tit
6 5
gi ns
Ġsp ot
3 2
ĠB ook
Ġh otel
Ġgi ft
a vi
Ġm iles
Ġ3 1
i nc
ic ated
Ġf air
Ġsh own
Ġh ttp
ĠJ er
Ġde ad
oo th
pris e
Ġser ve
Ġpoli ce
y a
ĠB ay
Ġcand id
Ġsp irit
Ġind ust
Ġst uff
ni tion
ro l
ie ld
ĠC al
Ġp aid
re l
m any
t ained
ĠM ic
Ġp ane
Ġac cept
ĠS ub
Ġdo g
Ġno vel
ĠP hoto
I s
li st
, <
ĠB ur
ĠM ary
Ġbas is
un k
ĠMus ic
ĠS hi
Ġb an
ĠV ol
Ġm at
l ong
ĠQ ue
Ġle ngth
ĠOff ice
Ġchar ge
ĠTh anks
fi le
ĠWe b
Ġsur vi
Ġv o
Ġen h
Ġde mon
ari an
Ġwa it
Ġdou ble
4 4
ĠSund ay
ĠD ri
Ġm ass
E M
ĠF ore
Ġbas ic
Ġ @
pri ate
ĠSp eci
ĠB en
' d
ĠPar ty
ĠH o
Ġapp re
ĠIs land
ĠL ake
ĠE mp
tain ly
ĠTh om
ra w
Ġfe et
Ġh omes
Ġbe yond
Ġex ist
ul a
ufact ur
it ter
es ter
Ġe at
N e
Ð ¸
Ġtri ed
Ġpro ced
Ġm aster
f ying
as ion
ĠL ove
tt ps
ot ed
ĠS ur
Ġline s
I P
ĠC li
I G
Ġr an
ĠTex as
Ġpre mi
ĠD own
Ġep is
ĠS tr
5 5
anc ing
Ġsupp ly
Ġadv ice
Ġdem and
Ġmax im
Ġb row
el p
Ġr ates
ĠF l
Ġey es
Ġc ash
ĠAfric a
Ġs atis
ess or
Ġst y
a uty
ĠT y
Ġb aby
Ġhe ard
Ġjo i
ph one
al ed
ĠL oc
Ġc yc
Ġim ag
Ì ĥ
ra b
Ġe mo
] <
ĠI S
Ġjoi n
Ġgir l
se e
Ġmod els
Ġm echan
li ance
Ġs l
Ġch an
f it
Ġp ool
Ġ200 4
ĠP ower
Ġd en
Ġreg ul
Ġl ack
ĠM any
ĠG re
o lic
tain ing
Ġsm art
ĠP al
c a
th le
ĠC up
Ġwas n
Ġp ush
Ġann ual
e ts
ĠF ound
tic ally
C C
ĠM er
log ies
ĠE ven
Ġh op
ĠT op
ĠJes us
ad ian
Ġtur ned
Ġsay ing
an ti
und red
Ġlo ved
ant a
ĠRe view
ister ed
Ġinc ome
ĠFr ance
ĠC ong
ĠC are
ri e
am ing
Ġgra nd
Ġmet al
duc tion
ĠC re
Ġhapp en
Ġre duce
Ġm iddle
ĠP art
ĠGe orge
ul f
Ġm icro
for ce
F i
ĠA ward
ĠEng ine
ĠS un
Ġbud get
ac he
ĠB i
Ġth ous
Â ®
ĠJ ew
ali d
az ine
all ery
Ġr ules
Ġs ch
c are
rali an
ĠW ater
cri pt
Ġope ned
ĠBl ue
me ly
ic ine
3 1
T S
ten ance
al og
ĠI m
Ġaff ord
ac ity
Ġb io
Ġbe ach
ĠP ublic
ĠW he
ĠO b
Ġ ur
Ġeas ier
Ġst ress
as y
ĠC ur
h op
I M
ap ter
ĠD el
Ġest ate
L E
b our
Ġd ress
Ġexp and
Ġwi ld
Ġfor ce
ĠB as
ĠB r
e ned
ĠC amp
Ġb le
ond ay
ĠP oli
ĠM ex
h y
Ġ áĦ
um an
ap ers
Ġuse ful
ĠH all
Ġnear ly
Ġhelp ed
Ġau th
ĠS ee
ĠA p
ound s
ami n
Ġlist ed
Ġlo ts
Ġc ards
Ġh one
Ġh us
Ġpl us
Ġgu aran
Ġs hip
ali sts
as ts
Ġtru ly
ĠV al
ĠS a
Ì Ģ
st ate
Ġle tter
are nt
Ġch o
ĠÂ »
ĠB ank
Ġacc ur
Ġbirth s
ĠH y
Th at
as ting
Ġf ant
Ġ tro
Ġco ld
Ġac adem
ĠO ther
ut ri
Ġwho se
en cies
te xt
il ling
d en
t ree
ĠV ir
ic a
aur ant
ĠP ress
v o
ĠAc adem
ac i
ĠAn y
Ġinte gr
ĠM ad
Ġwind ow
ber g
Ġas si
Ġthan ks
ĠL it
Ġlar ger
g ence
ĠW ood
ĠIs ra
Ġclai m
Ġcap t
s ide
clus ive
ec ting
p ed
b it
Ġn ar
Ġpe ace
Ġjo ined
G e
9 5
Ġtra il
ĠG rand
Ġgra ph
um s
Ġa lone
un te
ĠB ig
0 1
ell ow
Ġs ust
Ġi P
al a
t u
Ġcond uc
Ġcol lec
ĠH am
l an
ari o
ran ch
Ġp sych
4 8
us tice
Ġli mit
Ġb atter
Ġk new
us ion
19 8
iti z
ĠI T
ad s
ct ed
>âĢ ¢
o le
Ġr ich
Ġpl ane
Ġbot tom
Ġs ens
ĠChi ld
ali an
ĠP C
ĠPl an
I V
U R
Ġi ng
y er
Ġsong s
Ġpl aced
Ġp ull
Ġse lect
ul ty
Ġev al
Ġview s
Ġ200 3
ru gg
Ġcan cer
ĠUS A
ĠM icro
Ġno tice
Ġow ner
Ġsh ot
ĠT our
Ġsp read
Ġco ffee
Ġn ames
Ġarti st
Ġso ft
* *
Ġsw itch
ĠSi nce
mi nal
Ġoff ici
ng er
w ell
or ial
ol ar
ĠK en
ĠU nder
duc ed
Ġre pe
Ġ8 0
ĠJap an
t ag
Ġpi eces
cent ury
ĠTi me
es ome
Ġpo or
d own
ĠS am
ĠT or
Ġad op
7 7
Ġper m
ĠC i
Ġti ps
Ġmo tor
Ġd at
ĠF il
t ent
nd ed
Ġpar k
all s
u ments
no wn
Ġstep s
b re
Ġcou p
Ġnorm al
ĠS T
ro id
Ġc reat
Ġs tic
Ġg arden
ĠV er
ĠA lex
ĠUni on
ĠC as
6 6
Ġv oice
Ġk m
Ġradi o
d a
ag no
Ġwi ne
bo x
O W
is es
one nts
is tic
cess ing
ach ed
e al
Ġp m
T r
ĠR et
b urg
is c
Ġcele br
Ġmay be
ĠW al
um i
Ġjo bs
ar ge
ĠD uring
ĠG lo
ĠB el
ad y
Ġdou b
ate ver
ish ed
ĠWe ll
ĠW omen
) ;
ĠB ill
Ġlaw s
al ty
5 00
ĠR ock
Ġhe avy
ĠS ou
ĠD en
b es
ra tive
ĠAng el
c raft
Ġc ry
ak ers
> Â
ra tions
Ġw ants
ĠC ath
S ome
Ġwe ar
ĠOn line
ĠC us
ĠE ach
ll a
Ġcom bi
ĠM iss
Ġst rugg
ici ans
ĠO F
Ġw ai
Ġtech no
ati n
C an
Ġlead er
Ġsa ving
Ġst atus
ĠW ed
ĠJ our
Ġb ow
ĠT re
Ġfor ms
ĠS im
or row
. )
Ġon to
cess es
ol a
ict or
ali sm
Ġste el
Ġa head
gi ous
Ġite m
4 9
Ġop ini
ni ght
ĠR ob
st e
ĠR ad
.âĢĿ <
ĠOp en
re ed
ist or
ĠIn form
Ġdo ll
S e
Ġinc or
ĠCom mit
Ġc ast
az on
ĠE li
ĠM onday
Ġ9 0
Ġun its
ĠPe ople
ot a
com ing
Ġro of
Ġide al
Ġad vis
Ġadj ust
A A
Ġ tree
ĠC r
Ġm ap
Ġcamer a
ĠT om
Ġsec ure
Ġra il
ĠC er
ic ago
c king
Ġex hib
Ġsub st
it ar
y nam
D es
um ber
ĠH ill
ature d
4 7
Ġthan k
Ġar g
ĠG ar
Ġold er
u pp
s is
Ġm ale
Post ed
Ġs light
M S
Ġrel ax
ac ts
ac tions
Ġp an
Ġi ce
ĠM useum
Ġli f
ur t
h ol
res p
Ġsh ared
n is
ro ll
ul ting
ac tive
li m
ĠP R
Ġu ne
en a
Ġf ear
0 5
Ġvol ume
Ġcar s
Ġre v
os ph
Ġswe et
Ġmem ory
Ġsus p
C H
Ġcell s
Ġ200 2
ĠL u
Ġch air
ĠO lymp
Ġlook ed
Ġe ight
Ġdis h
" .<
id ence
ĠW ork
ĠF ur
ĠS il
U n
li ghts
Ġsy mp
Ġf at
ri a
Ġsp ring
y e
Ġman age
ou ble
Ġv irt
ĠA P
lish ing
Ġrem ain
red i
ĠAn n
Ġwin ter
ce l
Ġpl ants
ĠD u
agra m
4 6
Ġso lid
Ġ7 0
ĠW ill
Ġval ues
ult ure
ĠWh y
ĠG r
ĠL ord
Ġe th
Ġd r
S he
ent ure
ĠTh ank
S i
Ġcr ush
Ġbut ton
Ġb rain
Ġpos sib
so ft
ĠO nce
si n
Ġ200 1
Ġcas ino
ĠR oman
Ġpass ed
ĠEx p
Ġb ra
Ġsit u
ling s
Ġre tail
D on
ĠS pe
Ġsig ned
ĠM ake
Ġfai th
Ġinc red
ĠRoy al
Ġ3 5
Ġform at
Ġf lex
B A
er ry
Ġac cep
ĠS et
ĠL ist
Ġb ag
Ġin ten
Ġres ist
oint ed
ĠL and
B S
ens es
N A
Ġes c
Ġpre par
20 18
ĠBe ach
i k
Ġfam ous
ro y
Th ese
Ġh arm
Ġupd ate
te en
Ġv an
ing er
ĠAd d
rit er
Ġs and
Ġrun s
P re
room s
ĠT em
f ree
en ting
Ġmini m
ĠJ ose
w ith
Ġcomp et
Ġche ap
C l
Ġear th
Ġremo ve
Ġd ream
ĠBu ild
g ency
Ġlo an
li p
o th
u ps
ĠTe am
is try
un ning
R A
D A
Ì Į
ĠI ts
Ġfab ric
Ġfl av
ul ate
Ġb ul
S S
ra g
ĠL ear
Ġser ver
Ġcol ors
Ġali gn
Ġfig ure
Ġsh ape
ĠV alley
h ab
wi n
un ction
a ven
Ġke pt
P lease
Ġth us
l ate
Ġstre et
ti o
ative ly
Ġad ap
Ġact ual
Ġd ang
Ġclo sed
f riend
oura ge
Ġre mi
Ġse a
Ġvide os
Ġins p
Ġf an
Ġm ine
Ġp hi
at re
N ow
it a
âĢĿ ,
Ġi r
ĠW il
uck y
W hile
Ġpro te
Ġcaus ed
Ġare n
ĠK ore
ĠC D
or al
Ġmo di
Ġcal c
enti fic
ĠSh ow
Ġra i
M ar
ĠTw o
v est
Ġc atch
Ġd rop
t d
ĠM en
ot t
o sition
Ġhand le
Ġ ...<
Ġdri ver
cover ed
urs day
Ġv oc
R es
Ġth reat
ĠU se
Ġp et
7 8
Ġs ort
Ġdra ma
ic ks
ri age
f ast
Ġinst ru
ĠS mith
ul ed
Ġroom s
ning s
O P
ĠB al
ĠC ard
Ġpost s
ordi n
ĠRo bert
Ġse ts
Ġsee ing
Ġg un
ĠH en
w ord
Ġf ans
Ġv s
ist an
ĠI r
li fe
Ġgir ls
Ġess ay
ĠO ld
Ġmo de
0 8
ĠTr ump
Ġdis p
I I
L C
Ġes tim
The y
ĠSer ies
Ġm ath
Ġm enti
Ġfi ght
h an
ris on
Ġbre ath
M e
ĠAr my
h ttp
Ġg ather
ĠDem oc
p id
ĠM a
Ġte nd
Ġf al
rou d
ol ate
Ġsm ooth
ĠAr ts
ci n
c an
d ays
b a
et ry
I nd
ĠM ari
Ġra re
Ġwas h
ĠF ood
ues day
Ġtru th
I A
ĠP an
u ing
Ġw ww
ant ed
ĠPe ter
w est
gi a
ĠThom as
ĠB ack
Ġse at
ĠT en
Ġg one
T H
Ġinf o
Ġti t
Ġtra i
ĠA li
Ġto w
ĠM ill
j o
Ġp urs
Ġtrai n
ĠM at
Ġat trac
Ġsy n
Ġthe me
Ġs now
Ġsec ret
ver si
re h
ĠIn f
Ġp ow
Ġwas te
ĠG ames
ĠE v
ĠLou is
ĠB et
Ġtas k
Ġexper t
Ġ20 20
os en
nt on
g ned
0 4
F rom
ĠW all
form ing
Ġdis app
to ms
Pe ople
Ġco re
ã ĥ
ĠSo cial
ĠCent re
0 2
ro ad
un ic
Ġdo ctor
> *
ick en
Ġfund s
ĠU s
Ġc y
uc tion
ro s
as ure
Ġis land
Ġsen ior
ra ble
Ġdru g
Ġcould n
I R
Ġb ird
nes day
Ġre gi
Ġha ven
Ġland sc
olute ly
ĠM ass
Ġfi ll
p et
Ġend ed
Ġob j
Ġv ote
0 9
Ġg ain
u ting
ĠCol or
6 4
y m
ti tive
ession s
ĠL ong
ĠL os
ĠF amily
ĠL im
Ġc itiz
at ers
Ġbe auty
Ġsur g
vi nce
Ġmed ium
los oph
Ġcent re
ĠT oday
oll y
it ness
re es
Ġfl at
ce an
ide o
Ġs ector
Ġfem ale
ĠFr ank
mb ly
ki ns
ab ase
ress es
ĠD ata
Ġwi re
ci ate
v ity
âĢĿ .
ĠN Y
ateg ies
ĠD et
re land
Ġcall s
et te
ver ed
o ke
j i
Ñ Ģ
ri an
us tr
Ġsto ne
Ġadd ing
Ġdi et
ĠIn te
ĠEn ter
Ġvis ion
Ġc ities
Ġocc up
P A
Ġche m
ĠApp le
Ġ4 5
0 7
0 6
Ġshe l
oo king
O D
Ġde fi
re te
Ġ5 00
Ġdi agno
ail s
Ġcl oud
Ġbu ying
le ar
ĠW ho
o i
id ing
ĠRe al
ĠChe ck
ĠAN D
u ries
il ed
Ġh ab
h as
ach es
ĠM ont
em a
ĠMed ia
ĠM aster
g ment
Ġgu ests
ĠOff ic
b b
Ġdepe nd
H ere
Ġp ray
ĠE lectr
ol k
I F
ri er
Ġcomp ar
Ġb ought
Y our
ĠThe ir
Ġra ised
ĠP ay
e ed
Ġwrit er
fic ally
. .<
ĠSt and
Ġsqu are
k nown
li g
b ut
ĠO per
Ġclai ms
Ġc row
Ñ Ĥ
EN T
Ġrai n
m ond
ra p
6 8
Ġtr an
Ġmost ly
Ġc ris
h ow
Ġp air
Ġl abor
um n
Ġle aves
or i
Ġ vers
ĠD ig
Ġform ed
Ġsce ne
ore d
ult ural
ĠA C
Ð ½
nam ent
Ġf old
Ġthe ory
ĠF ind
Ñ ģ
c ar
P R
Ġm ist
s ec
Ġpl enty
Ġd ating
Ġfor get
Ġconf ig
ci ent
0 3
ol ars
ĠPar is
Ġdes k
ach ing
Ġb right
Ġd om
Ġpers p
Ġl ux
Ġrep res
gi nia
ĠL ight
Ġw est
ĠHe ad
ĠW ord
ĠI D
Ġdi e
ĠS qu
ai ne
âĢ ²
Ġcol our
qu is
Ġnot es
unic ip
ĠFi re
ĠBro wn
ĠT O
ace ment
Ġfor ces
uct ure
ĠF lo
Ġmin ute
Ġto ward
Ġe gg
Ġp al
ci ting
Ġve get
k o
ĠLi ke
ak ed
Ġdi ning
to re
Ġgra de
Ġso ci
az z
Ġn ine
Ġc up
Ġto t
u a
and a
ĠSum mer
i et
Ġdec ide
col or
Ġk ing
as er
Ġco ast
ĭ áħ
ĠLe ad
on us
Ġsp i
ĠVi ew
ĠG ri
ĠMark et
ĠOr gan
Ġv alid
Ġinj ury
Ġ199 9
Ġun f
ĠB ud
Ġ tag
Ġth row
x i
Ġcre am
Ġbri ef
ut ch
o graph
ĠM il
c us
Ġjour n
ĠV ictor
Ġbo y
Ġi ne
Ġlo se
ĠWi n
Ġdis tin
tit ude
Ġcomp l
Ġm ir
Ġfl u
Ġli s
or a
Ġhy d
Ġd est
mm ing
Ġtas te
ow ns
rom e
Ġpo ly
Ġin si
n ting
Ġk illed
Ġup gra
Ġyou th
Ġdes tin
Ġar m
O V
at uring
Ġleg is
Wh y
Ġp roud
Ġc op
av ig
ĠA L
A pp
Ġsc ale
w ater
Ġtre es
Ġmin or
Ġstar ts
ĠS ol
Ġcor ner
Ġsound s
Ġn utri
ĠA v
one nt
Ġac qui
Ġgu itar
ed y
an n
Ġfi f
ĠZ eal
Ġtop ic
l ad
s a
5 8
ĠEar th
6 9
Ġsw im
Ġb ill
ket ball
o very
ip ants
Ġ199 0
ill a
ĠSec ond
ine t
P ri
Ġb ound
oc olate
Ġwh om
u i
Ġb attle
A G
Ġcon tr
ĠS and
7 9
4 2
ĠG ir
ti se
Ġpl ays
ĠL ab
on om
Ġr ule
5 9
Ġshow ed
Ġst ated
ĠC lick
Ġcomm is
al low
ec k
ĠMex ico
S c
B l
ra tic
Ġex ec
oli na
Ġpain t
ni e
ai ling
ĠEx per
D i
pos es
lo c
Ġag ency
e li
Ġed ge
Ġe ast
ĠU N
Ġow ned
oun ting
Ġcol le
Ġm il
Ġfour th
as tern
e le
m ade
ac ter
Ġse qu
Ġknow s
Ġm ort
ig r
or ney
ig er
ĠI de
Ġth ri
Ġfe es
Ġs ti
Ġap art
Ġdi nner
or ter
or ough
Ġreci pe
ĠRo om
Ġstud io
ist ent
Ġsto res
g age
ĠJ ack
Ġdes i
ou ts
Ġgu ys
Ġrou te
S te
Ġ rom
Ġs ki
ĠAm azon
ĠAb out
u able
i bility
cip les
S P
F L
z en
ĠSp ring
Ġf uel
to s
Li ving
Ġgu ess
ĠB rit
Ġeli min
Ġli ved
c ons
li ament
A cc
Ġv en
j a
h one
Ġri de
Th anks
ĠP et
Ġdeath s
em s
oot ball
ane nt
O r
ĠH otel
ĠL td
Ġde ter
umi n
Ġd ynam
ar p
Ġri ver
Ġd ump
ĠC all
Ġst atis
Ġa mp
ĠH and
Ġfi lled
ip ate
ĠE m
ns on
ak s
ĠO ri
Ġk id
S A
Ġj u
Ġpo ss
20 19
or king
ras tr
Ġsu gar
Ġf light
s hip
um ni
ĠGu ide
am ps
ĠT own
6 7
com p
erson al
ĠH or
Ġsc he
ĠGe or
Ġhone st
av a
ĠIsra el
ĠRus sia
Ġbr ings
is tics
ĠA sia
ĠM ain
ĠD an
Ġtri al
ĠM el
Ġexp lor
Ġm ental
Ġh ttps
Ġaud io
ĠSec ret
Ġer ror
C hi
re y
rib uted
Ġfav our
au ce
G et
" :
T C
ap es
ĠH ave
ĠPri v
Ġe ating
one y
4 1
en cing
Ġj ump
est yle
ĠK ar
Ġ199 8
A b
ĠAd min
V i
ĠC ross
Ġwould n
Ġmen u
Ġsy mb
d is
st al
4 3
M an
Ġm ur
> [
ĠâĢ ¢
Ġre b
Ġlead s
ĠLe g
aci fic
Ġset tle
it ors
Ġd ance
ĠW ay
ĠJ ud
il s
ĠA nal
or ld
Ġh om
er ies
Ġpane l
U N
Ġr ub
ĠC A
Ġ3 2
ĠB lo
Ġwor ry
ĠAu to
Ġbe at
ĠB log
r ont
Ġman ner
Ġlove ly
aur ants
Ġco vers
Ġe lect
ĠIt aly
A c
ĠC a
bs ite
Ġ ton
ĠTim es
oh n
bor hood
Ġlo ck
ĠS k
en ni
ru p
ap ed
Q u
ĠA ud
Ġpre c
wh ich
ners hip
ali s
Ġsh oo
am ond
S C
os ting
Ġdo ors
ĠH aw
C ar
ou nder
wh at
Ġa thle
Ġf le
r ick
ĠCon ne
v or
ĠH ear
ĠC ond
N ot
ĠR E
Ġcirc um
5 7
u ous
Ġme ant
hi o
ĠI P
x y
Ġhous es
ote ls
Ġre lie
L A
i ent
ĠF ar
C he
ĠM iddle
ĠM P
Ġsee k
ne ls
Ġun less
m et
T V
Ġsur vey
lo ts
Ġi ron
Ġv ic
ĠFor m
e y
ti mi
Ġr ise
ĠP ub
Ġbe long
Ġgood s
ĠF und
! !<
ĠS ar
ra ting
Ġob tain
Ġne t
omes tic
ĠE conom
lud ing
Ġdri nk
idd en
fic ial
ĠG al
Ġle ague
uc ks
Ġf ruit
Ġl unch
Ġpro p
B u
ol s
Ġr ing
ĠCom m
Ġed itor
t ons
l as
5 6
Ġth ick
ĠE r
Ġbus y
Ġfre ed
is ation
Ġb en
resp ond
Ġanim al
Ġex tend
Ġl ap
ĠBo th
ĠH uman
ĠSo f
f low
Ġdec l
Ġc ere
Ġag ent
Ġdeb t
Ġnot ed
ici ent
v as
y an
go ti
Ġd er
ff er
ic ate
ĠC at
ĠP ack
ĠG ame
is tr
r ac
Ġprof it
li a
ad d
ĠA rab
ĠM id
en sion
ĠW ild
n ch
ĠGlo bal
ut ter
m l
vi a
Ġmo tiv
rib ute
ens us
Ġp itch
ĠN E
ĠA ff
Ġli ghts
Ġexce pt
ĠM as
ĠY es
Ġsil ver
ĠT ake
us tin
ĠO R
Ġdeb ut
T A
Ġra pid
id ents
ĠOr der
d s
po int
ĠRe gion
ĠOn ly
Ġac tiv
R ec
ĠB ed
ĠE nd
ĠAd v
ti ally
C ol
ict ory
Ġac ces
ĠJ un
o log
hi gan
ĠH D
E E
pre ne
Ġro w
ric s
Ĥ ¬
ious ly
mer ce
ou b
g or
M ed
ost on
Ġsub mit
Ġconne c
Ġres erv
M A
Ġ198 0
t an
r ich
Ġb ond
áħ ¡
Ì §
ches ter
Ġ3 00
Ġad ults
r s
Ġs ides
osp it
Ø §
ĠM ax
Ġv ir
ut ation
ĠL ine
ni zed
v y
Ġiss ued
ĠJ im
t ough
ĠO N
ĠH istor
ĠC ra
o ner
b ing
U T
Ġfield s
-- --
ll y
Ġfail ed
C A
Ġag g
ĠL uc
cri p
um es
Ġjo int
9 8
f oli
Ġro ll
Ġf o
ĠM ob
ut or
Ġs ister
Ġde als
ec tions
Ġcre w
Ġeval u
Ġgu y
ph er
ft ed
ĠWe ek
ĠF ull
ĠL ast
os ite
ĠF re
Ġk it
t ub
we ight
Ġfix ed
ĠY OU
o graphy
Ġr ank
ly n
qu id
ĠC ri
Ġdec re
ĠMar tin
re prene
Ġob ject
Ġs ample
ider ing
ic an
g as
Ġ199 7
si tive
Ġres ol
ĠSp orts
en tic
ĠCo ast
Ġaff ect
Ġbo at
Ġshow er
c ont
on to
ge ts
og a
line d
os it
it age
ĠU l
undred s
Ġ tough
ec tives
ĠB ow
od ies
Ġbrand s
Ġk ill
an na
ani el
ĠM achi
ĠH u
M ay
tic ed
7 6
20 17
Ġal le
Th ank
ĠCol umb
mi le
> >
Ġte a
li pp
h and
ĠSi mp
ĠL ee
v ic
ron ic
e per
ĠCon st
Ġun s
Ġ199 6
ĠF er
ĠChi ef
Ġad ult
f s
Ġtes ts
Ġgu est
Ġcri tic
ĠM ur
ĠLi ve
Ġor ders
atter ns
Ġfact or
Ġstre t
F C
Ġri d
ĠM os
u nder
ĠH i
ct ors
Ġu pper
ra m
g ers
x p
ĠRe v
Ġbe gins
E ng
ish ing
H istory
ng ed
Ġch osen
no on
gi e
ĠC ab
ans as
t un
di n
Ġst ars
Ġv ary
ac le
rel ated
F irst
ali ties
ĠA wards
bers hip
i na
ab led
ĠF ort
ng ers
Ġwall s
ĠR ail
Ġa id
Ġas king
Ġf aster
Ġwe ap
Ġpro mis
ĠC ost
Ġreg ist
Ġm outh
Ġ tu
Ġre ar
Ġcaus es
C ont
r ors
Ġf ly
ĠC y
ĠD ie
Ġlab el
Ġbut ter
Ġdep art
Ġp ump
b ar
ateg ic
us es
li nd
Ġm ail
Ġsig ns
Ġpri m
b ury
m osph
ĠLit tle
ed i
C E
Ġ4 8
ĠPre mi
ti st
un ting
ð Ł
Ġp ra
th i
Ġm useum
ĠJer sey
le ts
S E
f ra
end ar
o res
U p
ul ous
b l
Ġra ise
Ġe m
Ġro t
Ġdes ire
ĠYou ng
is ters
Ġvis ual
th s
aw ay
r ings
a to
ĠK i
k now
Ġspe ech
vis ions
5 4
Ġtop ics
ĠT able
Ġch ain
Ġwhe el
ĠB ob
ing ly
ĠAu thor
ĠC H
t aught
ain able
ĠA sh
G o
5 2
ĠE s
ĠCh air
o or
ĠN ight
Ġdo gs
b ration
Ġop tim
Ġcoun ty
ne ver
c ur
iz ing
ĠFil m
Ġtra ve
a o
el come
ĠS ite
i me
Ġno ne
Ġprote i
Ġaff ili
ce ll
M ore
ge nd
Ġen able
n ame
ĠR ights
Ġchi ef
Ġn ative
or ry
Ġbro ken
Ġfil ter
Ġseem ed
ĠN OT
Ġfe els
Ġne ck
Ġstic k
G B
Ġso le
Ġnew sp
ĠO k
ĠA D
5 3
ĠPo licy
Ġ3 6
Ġp ul
5 1
Ġfor ced
Ġbro wn
Ġro b
ĠE nergy
V D
ĠBra z
Ġtw ice
tri b
Ġ18 8
D is
ĠM ot
Ġp ic
ĠD ub
ĠM u
ĠA ri
Ġdom ain
f ting
lic t
ĠV ideo
Ġc ru
ai re
Ġci vil
re nce
t ables
ĠV an
ĠH ard
ĠA R
Ġb onus
n f
ĠFor ce
o e
Ġsur f
Ġwi d
ord ers
ĠSw ed
d em
ĠR el
Ġhold s
ĠT hi
an ing
Ġend s
ĠS ho
ĠPl us
Ġme al
ĠN C
Ġf u
Ġr u
b ro
Ġwin ner
Ġdoub t
acks on
Ġi l
ni vers
us i
Â °
cis co
Ġ197 0
li s
w orth
ĠI ran
ĠB oston
Ġs mo
Ġbi ke
ou l
or ation
Ġpare nt
ner y
Ġ taught
Ġsig nal
Ġpl ate
ĠC lo
os h
Ġexp os
ruc ted
> â
P C
Ġlist en
Ġar ts
ian o
Ġ199 5
ve ments
Ġs ac
Ġtrans l
Ġscore d
Ð¾ Ð
Ġgl ad
Ġnear by
Ġrent al
Ġc a
on i
ir ty
Ġc ro
Ġfood s
Ġqu iet
A re
ĠAre a
enti st
Ġp ure
ĠSe a
d ate
7 2
Ġth read
re ams
ĠE p
Ġj ew
à ¸
Ġmix ed
E very
ali gn
ir med
oun ter
ĠS af
ĠKe y
ri n
Ġne goti
Ġch at
Ġapp s
Ġal co
Ġ tables
Ġy ellow
ĠC EO
T ra
van ia
Ġlay er
Ġte en
ĠV ill
Ġsh ut
w ar
fect ly
ĠWh ere
ĠGe ne
ĠDe f
P ar
Ġlic ens
l ers
ĠHen ry
L oc
ld er
ng o
y ard
ĠWor ks
Ġm ul
Ġag reed
ĠC ode
P er
; <
Ġmain ly
m ont
uc lear
y ou
Ġpay ing
Ġti ght
c tic
Ġpas se
Ġmovi es
ĠL y
it oring
ĠF ollow
Ġre ti
Ġre new
Ġhor se
ĠO hio
ĠAc cess
How ever
Ġh o
Ġear ned
Ġ tor
ĠRad io
Ġac id
no is
Ġemp has
áĦ ĭáħ
Ġsho es
ĠS aint
Ġasse ts
xt ure
ĠS P
Ġg ear
hi a
Ġsp ort
L et
Ġb es
ur n
T R
Ġsol ar
7 4
ĠJe ff
Ġtr uck
lo red
Ġtell s
Ġserv es
Ġkind s
ed ing
ĠPr ice
Ġr ug
it er
ut en
Ġn avig
ĠS ale
are n
Ġpro sp
ĠB rand
J ust
E ar
u ters
Ġpro to
Ġ rough
ĠDes ig
ĠW atch
Ġobs erv
Ġam b
20 16
ĠM is
ĠIs lam
ĠSp ain
oo sing
ĠF air
T w
Ġf ulf
uri ous
Ġ Î
ĠJ ones
ĠTh er
ĠiP hone
ou red
Ġur ban
ĠB ath
Ġsi zes
Ġsh ares
Ġwe alth
ject ed
t ab
app y
C o
v it
Ġcyc le
ĠP ak
ĠPoli ce
fer red
ĠB ang
Ġmil k
ma to
6 3
ĠI nt
enti sts
illi ons
ĠC ast
Ġf er
ĠCon f
Ġsugg es
as te
ĠM A
yl vania
ce ption
Ġsever e
Ġy es
h ar
Ġde mo
Ġme at
r ance
ru pt
Ġd a
cl ass
Ġte eth
ĠE U
ĠD ar
ph y
ĠT est
Ġk ick
ĠSte ph
Ġre tire
Ġb order
ress ing
ic ity
D uring
Ġ199 4
Ġtur ns
In ter
ĠKe ep
ĠBo x
w hile
Ġimp os
Ġpre gn
__ __
6 1
RE E
ĠMi ke
Ġi con
Ġout put
g ent
Ġg rew
Y es
Ġre i
20 15
m me
y o
Ġra nd
ber ry
Ġst ruc
6 2
oc key
g color
ad ing
ĠTe le
am ber
j u
Ġph ase
L ast
ub s
Ġdru gs
ah a
ĠA sian
Ġn ur
Ġal umni
us ter
Ġsp aces
ud i
ad ium
Ġadv oc
7 3
ĠB ase
st ances
Ġhe ight
ss ue
Ġar rest
ĠK now
ĠK it
O ver
c ase
U L
p hi
pp ers
ist ed
Ġj oy
Ġexp an
to l
ĠNo v
i ved
ĠScot t
e ter
ap os
H ome
losoph y
lud ed
Ġd omin
dd en
ĠJ ac
u ration
Ġstre am
ĠR est
Ġe c
ĠPro t
A m
ĠApp lic
ĠP u
Ġche ese
ĠP age
Ġc aught
Ġsal t
Ġbe t
form s
l aw
ip ated
ck et
ge ne
A dd
at ri
ĠS anta
Ġg od
e ast
7 1
Ġre si
ĠSm all
int age
ack ing
y ers
b ec
n ity
Ġalbum s
? âĢĿ
Ġshe et
Ġ3 8
Ġb read
gi ble
ir ms
ĠL ow
E n
ch ang
Ġtas ks
ĠTra vel
Ġpro mp
ad ow
h t
as p
ĠB ell
Si nce
Ġcont ai
ĠIr ish
ine nt
w ing
ap ore
Ġp apers
re me
ar ks
Ġv it
ree ts
ĠA tt
Ġwe ak
ĠPri n
ĠBe fore
h alf
aw a
Ġp un
Ġe ne
O ther
Ġg ro
ĠS ky
A u
Ġbo ys
e ff
Ġne r
Ġte x
ĠP op
T e
Ġter rit
ren cy
bu ild
AT ION
Ġpo ll
Ġh ire
loy ment
Ġtre nd
Ġlux ury
ĠJew ish
Ġb ridge
ĠRep ort
y al
Ġcri me
ĠF our
M ost
Ġse lec
Ġele v
Ġmo tion
tic le
ali ze
Ġg rown
ak a
Ġsc en
ĠQue en
ĠF OR
D S
ĠJose ph
A ny
gi an
ĠD C
ma tic
Ġcoo per
ĠR ose
w a
o on
ee k
ak i
ou g
M P
Ġmur der
Ġg olf
Ġbig ger
ty pe
qu ality
r ace
Ġlo ves
Ġremo te
Ġd ates
Ġcamp us
Ġa wards
Ġsty les
ĠS us
amp ion
tain s
Ġsp ect
ĠC amb
lli nois
Ġrand om
Ġcl assi
Ġ199 2
um ps
F F
H i
Ġh all
Ġher o
Ġset t
ch i
Ġch art
âĢ ľ
or able
Ġstand s
Ġjud ge
un a
Ġr ac
lo ok
w ich
ĠH im
load ed
Ġsou l
Ġ1 50
id ance
ĠF arm
ĠC irc
ĠLi ving
ĠK o
Ġph arm
Ġtr acks
ĠS C
em p
i os
ĠF ield
Ġag ents
bur gh
Ġgar age
w an
ic ts
ĠG arden
ĠAnd rew
ĠH on
l ay
t ank
ĠCor por
ĠP ol
em i
it z
Ġm ent
áĨ «
ĠK h
Ġdi vid
Ġc lic
ĠJ on
ĠB ru
Ġlo ans
ci a
Ġve ter
ch o
Ġfore st
âĢĿ .<
Ġin put
Ġbl ess
ian a
U ni
ĠC O
Com p
Ġfell ow
Ġbe ar
ĠO w
Ġc ake
Ġen th
ĠS earch
>|- <
Ġc u
ĠNe xt
M i
ab eth
Ġun able
er a
ĠLi ber
ĠK ent
ish op
t all
ĠG reek
Ġassi gn
O nce
ĠA ni
te l
ad or
x ford
Ġsp lit
val ent
Ġ196 0
ĠA S
Ġrei n
Ġmi ll
F A
Ġav ail
Ġsk ill
li ers
ĠC ro
ag on
ĠH el
ĠJo e
Ġ18 9
H S
Ġcar bon
ĠP A
Ġ199 3
ay a
st ers
Ġra d
Ġflo od
ment ary
Ġc ruc
b ooks
ĠR os
R ep
ip ation
Ġc able
Ġsc an
Ġkeep s
Ġeng age
ĠPri nce
il le
ti le
ist ant
ĠPen ns
Ġclo ser
T ER
ĠC reek
ction al
t ested
ĠF riend
Ġli ber
ĠPl ace
ĠÂ ©
vi e
nd ers
er man
the tic
gra tion
ll o
Ġw et
Ġv es
ick et
Ġh ur
d ney
Ġen ti
ĠP ass
com es
Ġag ric
r us
cep ts
Ġsc r
Ġ3 3
Ġind ex
Ġequ al
th eless
Fi n
ĠM S
ĠE gy
co very
>Â ©
ĠB io
ste i
p ret
vers al
Ġop timi
Ne xt
Ġh ospit
ĠSil ver
ch er
W ell
ĠR ou
Ġe lec
ĠB an
Ġlo sing
20 14
ĠP as
ĠC ook
on ics
ĠÂ ·
Ġs ad
ĠS up
Ġ tab
ab et
ĠTh ree
ell y
ĠF ra
A nother
stei n
ĠH ot
m ers
Ġ4 00
ard ens
ar ters
Ġdi men
ĠPro per
ĠT it
ĠMin ne
Ġwide ly
Ġf ro
tract ed
mis try
A B
Ġwith d
ĠAs se
Ġse mi
st ery
Ġ20 21
Ġar ms
rect ly
Ġwor se
Ġdel ay
ĠRe f
view s
ĠT ax
ĠB ible
du ate
ĠF red
rou s
Ġsing er
Ġsk y
Ġele g
orge ous
Ġal tern
Ġmiss ed
Ġcris is
ti fy
i nf
Ġus ual
Ġ7 5
sp eci
Ġref lec
ĠA venue
Ġear n
Ġb anks
20 13
Ġac know
C D
ĠS on
Ġver i
ay lor
le vel
av al
ĠSp irit
R o
P ress
od i
Ġsu dden
ĠB ul
Ġcli mb
ĠCom ple
c enter
Ġi g
Ġm m
Ġgu ard
arch ers
Ġz one
al t
Ġde le
pro fit
ĠB ooks
Ġfac ing
u ine
cip al
Ġf as
Ġ ly
Ġsatis f
ĠSh op
Ġto m
Ġbow l
ĠMob ile
M any
ĠN avy
ĠG en
Ġli quid
Ġse ats
ĠR am
Ġbr ush
Ġhab it
ĠSp ace
Ġ tub
B est
vis ed
r at
ĠD og
Ġtic ket
ĠPr ac
ni ze
g ot
Ġro les
ĠH ope
ain ts
ĠR ay
ĠA T
Ġ199 1
ony m
st ar
g un
ni an
st ream
ngo ing
ĠT ag
ol ks
ur b
Ġ tall
ĠW is
Ġo dd
ĠKore a
Ġgi fts
Ġa st
Ġs ter
Ġmi ning
Ġc ul
Ġag es
ri nk
Ġat trib
Ġnar row
ĠS ty
red it
ĠM ah
vi li
Ġ tank
ĠS ales
L S
ĠII I
v ine
Ġcr ash
Ġter ror
Ġpick ed
Ġun like
foli o
ĠC R
Ġcon so
Ġst at
ĠTh ose
u an
mon y
Ġsp ok
ĠW alk
Ġmag ic
ĠSt art
cri be
ĠCh an
ĠW ales
li ve
20 10
T ube
atform s
ĠTr ust
M C
Ġpro s
tit led
c u
ne e
C lick
F ind
Ġob lig
Ġasp ect
D r
L Y
F il
Ġbe l
ģ Ħ
Ġp ed
ĠK ong
f ortun
Ġd eri
Ġm ac
Ġtre nds
i i
ag ues
Ġfl ash
ĠO ct
ĠC oo
king s
ĠK im
D ec
ĠSte ve
Ġrec on
Ì Ĩ
Ġv ast
Ġe ase
gh ter
ti oned
ĠIde as
ĠF ord
i ves
Vi ew
ĠU sing
ĠU k
Ġl angu
â ģĦ
Ġin ches
er ial
Ġul tim
ric t
ĠS ong
Ġsp ons
i nter
Ġde velo
Ġb odies
Ġris ks
ĠE ss
3 00
ond a
Ġqu anti
Ġdec k
Ġso il
bi n
ĠM ath
ain less
r ate
Ġgr ass
ai red
te es
lo o
ri ne
tive ly
ES T
s en
man n
Ġlo go
p on
Ġcomp os
Ġo k
Ġlink ed
ĠLi n
to ck
Ġplane t
f ront
ĠH elp
as ant
alle t
Ġs cript
ĠB oy
lic ated
vi et
Ġ tail
Ġm ut
clus ion
ĠL og
ĠDe v
Ġm ere
l en
ĠBro ad
Ġv ital
ati vity
Ġc ute
Ġpro of
ting u
i ers
Ġtal ent
E d
l ass
t ac
ĠSt an
Ġter min
Ġact or
Ġle ct
Ġ tested
Ġer a
Ġbe er
Ġ6 5
z abeth
Ġre ward
ĠF ac
G u
av is
Ġd uty
Ġl augh
Ġr ural
ĠPri me
!! !
Ġ3 4
ĠS H
Ġsi n
J ohn
Ġar my
ig ure
Ġp ill
us ing
play ed
graph er
Ġabs or
al o
az e
Ġm and
ĠSto ck
id i
ĠBu y
m ic
E A
ĠNo te
Ġund ers
Re ad
to mer
we et
p age
ĠOb ama
A ss
Ġw ave
ame ter
20 12
> #
B I
Ġmi le
ĠPo int
ter ior
um a
ab e
B ri
ĠB and
Ġweek ly
C T
ĠSen ate
st yle
Ġter ri
Ġcle a
Ġnew ly
Ġfi led
ã Ģ
ĠD aniel
h ere
ĠHo ly
Ġtri gg
Ġpo ker
ear s
ĠSto re
Ġd ental
trac ts
ublic an
K e
ap ing
es h
Ġmo ist
Ġfor th
z ona
b io
ĠU r
Ġro se
ĠE state
ĠDo es
Ġpl ain
bour ne
ĠInd ust
S ec
il a
ĠO il
ĠDri ve
Ġan tic
ĠMay be
Ġh am
th at
Ġqu ote
ĠVi et
Ġin ner
ĠG ro
ER S
o si
Ġw ra
R S
Ġli es
ĠJ r
Ġpi n
Ġappe al
Ġbot tle
t ack
tine nt
ĠS S
Ġar ra
ĠS U
Ġpos si
Ġs lot
Ġdep th
act or
Ġmer ch
ce ler
ĠSte el
Ġb low
et ts
Ġind eed
Ġpi pe
ĠE ff
j ust
ĠR un
P M
ach us
ĠSto ne
ĠF L
Ġh idden
Ġdis cip
Ġco ck
ĠC am
a is
unte er
Ġthi n
ĠAn ti
ĠP rom
p to
ĠLoc al
8 9
ĠM ulti
ane s
A Y
Ġhost ed
O f
ĠSy dney
ĠCom mon
ĠR ight
Ġ198 9
Ġev ol
ĠB ridge
Ġm ari
Al so
ra q
ib ly
ĠH a
re ate
Ġra ting
Ġve nd
ĠH ou
Ġrelie f
yc le
ag en
Ġy ester
p ur
ĠL LC
Ġo ven
ath y
Ġass um
Ġti ny
ar ry
Ġs tim
ĠMod ern
ate lli
Ġboo st
h ttps
M o
w er
ir ts
Ġtax es
c lo
ĠCi vil
Ġv ul
Ġsh ops
ĠM ember
Ġinv ent
re c
graph s
ne ys
u per
b ri
M us
Ġhon or
d ri
Ġn i
ent le
oli s
is ms
ption al
Ġun ion
Ġch ose
Ġacc ord
ath an
il er
ĠB ad
ack ed
ul ating
z i
ep ing
ti e
Ġc art
ĠR od
re al
Ġin ch
Ġs auce
str ate
ĠI ce
Ġ )
Ġpow der
Ġ3 9
Ġfac ts
l lect
ver ing
an tic
Ġspi n
oo p
ul pt
ES S
ĠMc C
f rom
Ġb ass
ĠH ong
ĠB all
Ġph en
ra ge
b ell
Ġwood en
F ree
om et
om s
ment ed
Ġhe avi
Ġac ts
Ġ tack
ĠH as
or ters
ution al
Ġp p
Ġclub s
ĠH ol
asing ly
ĠD VD
8 5
f l
cess or
ĠF ish
v ard
ack et
ĠO s
b et
u zz
il ton
hold ers
C are
arent ly
ĠMi ni
ne tic
G reat
ost er
Ġdec ade
ic ian
o ir
ul um
ĠFore st
p an
ĠAg ain
Ġfair ly
cent age
E P
t ation
ĠWi nter
Ġsh arp
ĠC ou
ĠB C
ho st
Ġsche me
reg on
Ġtw enty
Ġl ad
Ġâ Ĩ
ĠHear t
ĠT ool
Ġl atter
Ġves sel
ĠLi nk
t ube
ĠDis ney
20 11
Ġ198 8
lan tic
Ġbird s
unte ers
Ġwar ran
di tions
ot al
Ġac ting
en n
Ġy ard
ch ing
Ġarri ve
ĠL ED
ĠSen ior
fic i
Ġhum ans
Ġcor por
nt ario
Ġclo s
c m
ĠP ra
Ġmark ed
l ar
f ies
ĠSt ory
ci ated
Ġread er
Ġfor um
Ġsa ved
ĠPh ys
graph ic
Ġpro ven
Ġleg s
z o
Ġb ranch
Ġform al
Ġs ick
Ġab use
ĠM ap
Ġsto red
Ġlaw yer
Ġsex ual
L ist
Ġst ring
Ġshi ft
Ġ tac
Ġmus cle
Ġ ðŁ
ĠL ind
ord an
xi ety
Ġpl u
ĠAn th
Ġli ked
ch ar
Ġb ags
t um
Ġ[ ...
ĠP ict
ĠS ig
ound ed
ĠH olly
ĠN iger
Ġy ards
= #
Ġsol ve
Ġh ung
Ġso lo
ĠP it
ĠT ar
ĠMal ay
al ling
Ġl ake
ĠL abor
Ġdis s
leg al
ect ors
y stem
ĠC lin
r ated
Ġben ch
se ll
ad i
Ġ ;
Ġlist s
ri g
Ab out
p ool
s he
Ġhyd ro
a it
Ġ ?
ĠR og
th ew
C O
ĠGu ard
ĠS ir
F ollow
Ġm al
p ower
Ġex tent
Ð º
ĠL ook
ĠGold en
r ite
f all
g ns
ĠSt ra
B M
ĠTh us
ĠJ ane
Ġgr ant
Ġc odes
tic ians
pris ed
Ġpro ve
A V
R I
Ġdem oc
Ġg ran
ĠCh alle
re ment
p ass
ĠT reat
' ,
ĠT ai
Ġ( "
Ġs at
so ta
Ġh otels
c les
Ġf olks
Ġrep ro
Ġadd s
p a
O h
Ġrem ark
Ġpi nk
ĠL atin
v ol
Ġs me
nd a
Ġfind s
H igh
s pe
ĠD ra
i ors
t to
por ated
ĠL ew
Ġm el
oura ged
Ġg ained
n st
E G
Ġst orm
ĠL as
ree ment
Ġfif th
Ġr ush
Ġn omin
Ġ3 7
ĠSh ould
c or
ĠSaf ety
ĠR om
ĠTy pe
Ġmo ves
Ġm a
Ġr ice
Ġpred ic
T op
Ñ ĥ
ĠT ro
Ġcomp li
los ure
Ġli e
Ġst ro
ĠB attle
C opy
ĠD er
Ġ8 00
ĠO ak
ĠL is
Ġf irms
ĠF ox
ĠIn vest
ĠSm art
Ġse ed
ĠE vent
ill y
ĠO S
ĠF REE
le tter
Ġslow ly
el ry
k h
Ġ19 50
Ġcra ft
Ġ4 2
n ish
Ġ' :
ĠNe ed
ĠD utch
Ġdefe nd
on so
ens ity
Ġhead s
Ġtit les
ĠLear n
Ġre nov
ke l
ar ity
p en
m ans
as k
l ai
Ġme als
m ble
R C
s hi
ĠC P
ai ry
elp hia
he im
ĠM att
Ġbri lli
Ġus age
ap h
Ġno ise
v able
ĠSqu are
Ġro ot
Ġcrow d
Ġtr ick
Wh ere
p ical
Ġwor st
âĢĻ ,
Ġ6 4
ĠR u
t une
2 000
Ġa mend
ĠC ase
AN D
f are
Ġex ami
Ġbe half
Ð »
ĠC ru
Ġ5 5
gh an
Ġblo cks
p aper
ĠN on
ĠT al
Ġl uck
ĠB aby
ĠSt aff
ĠD am
Ġcon g
ĠM D
ĠT am
Ġauto mo
ĠCas ino
ĠI raq
ĠV ery
Ġha ng
Ġocc urs
B ack
o tic
Ġs mile
ĠF u
Ġshi ps
8 00
ous es
Ġli kes
Ġbre ast
il st
U M
Ġadv ent
an ting
d on
Ġp lot
w ords
ĠTh ough
r acy
c ue
ĠT aylor
f its
pp y
Ġra w
T oday
Ġp atch
ĠN ever
Ġres ume
to red
ĠEmp ire
Ġfal se
ĠI d
is k
ateg ory
ĠStud io
Ġover w
ĠAg ency
c ular
Ġpl ug
Ġc riter
ra d
gor ith
sion ate
ĠC ON
th a
J u
ac ious
Eng lish
Ġy ield
ĠPort ug
ed ge
Ġtrans p
alog ue
Ġwh ilst
Ġd reams
er ts
ĠP ot
ĠM ee
ĠD un
ru g
Ġ tun
Ġg ate
H ave
or gan
and y
p art
enti ne
ĠM es
tic ian
ĠH old
Ġ198 7
8 6
ped ia
âĢĿ <
Pl ay
re ts
b rid
ĠD ark
se x
Ġview ed
lic ate
lic it
Ġb ars
au x
4 00
az a
ĠO xford
Ġti p
ri nt
Ġcol umn
ĠC amer
Ġfun ny
Ġf inger
ĠSh ort
ast ed
ĠBro ok
ĠSe ason
R em
con sin
ĠP sych
Ġne uro
te ed
Ġbox es
Ġinc l
are t
Ġcap ab
Ġvul ne
Ġtal ks
Ġge nder
Ġfl our
ĠS EO
Ġdri ven
ic he
m ad
ĠB a
tw ork
Ġend ing
Ġcra zy
Ġ198 6
ti a
J an
Ġmar ks
Ġpo t
ac ting
ĠH ung
Ġh ole
h u
ĠH oli
ons es
Ġflav or
Ġdeb ate
Ġun us
Ġs oph
ĠEd ward
ball ers
A F
ĠM ade
St ud
Ġb acter
ĠF un
ac on
Ġph r
ri ers
w een
Ġ4 9
Ġact ors
ne ll
ĠAr g
Ġst ake
Ġlim its
m outh
Ġcol on
ĠW H
ĠD id
h ops
oi n
Ġr acing
ĠE qui
L ove
ru ption
N ote
Ġwi ns
ach er
Ġdis pl
ĠL es
Ġtoo th
ĠS l
sequ ent
um er
ĠC ry
Ġsh oot
Ġegg s
Ġh ate
ors es
ĠF low
ĠE mer
Ġ1 20
ĠF all
ĠCon tin
ĠO regon
O K
I ns
m aking
Ġ2 50
St ar
Ġgra b
Ġemp ty
ou ri
Ġdis m
tract or
Ġsp oke
j e
ure ment
ip ating
o to
li nk
Ġig no
Ġin her
k ers
Ġar ray
e ah
!! !<
ĠD oc
am ic
Ġdra wn
Ġl ucky
li ns
Ġst ages
Ġn atur
ĠE ver
ĠS ound
ny l
ati ble
Ġ198 4
Re g
e ties
ĠO cean
Ġroad s
Ġmee ts
G ood
200 9
ti tio
abet es
Ġb one
Tr ans
Ġb are
to od
Ġab and
pro of
ĠJe an
Ġad s
Ġqu e
ĠM ajor
Ġm ic
ĠSo viet
d ale
Ġs an
Ġch airs
less ly
Ġdi es
Ġci vili
v als
Ġco s
ph ones
t ut
Ġk i
Ġj un
R L
em ed
ĠK ids
c ut
Ġhop ing
cess ed
Ġg ym
Ġp ris
cer tain
hold er
ir l
ĠR on
ĠT ry
pe ople
Ġesc ape
l ah
e ve
Ġac quis
D P
e qu
Ġ198 5
act ed
ĠCus tom
Ġas ide
Ġmi nds
ow a
lin ary
ĠL ady
ĠR ome
t ai
Ġf lying
ĠS ign
ĠBraz il
Ġmed ic
ĠH ay
ad ed
w orks
Ġo cean
ĠB on
200 8
ĠR an
ĠM ater
ĠO h
ĠW ars
as ty
Ġc m
tur al
ĠP ur
ist ance
Th en
Ġmo ld
Ġp rison
W ho
ri ger
at ric
r ant
Ġven ue
M em
ĠV en
Ġb id
ĠMot or
ĠS uch
Ġar gu
Ġch ap
Ġneigh b
ĠPro vid
r ats
Ġpo cket
erv ice
Ġ4 4
ci ple
ĠD aily
ins on
ĠL au
H is
Ġill ust
ine ts
Ġst able
Ġ' ,
i est
ĠS n
Ġe co
Ġz ero
Ġp iano
Ġmo lec
nc ol
un ter
is er
ĠVe gas
ache lor
ĠAnn ual
G A
Ġ1 000
pris es
ĠBar b
op er
Ġl aid
Ġb rid
B ook
Ġport ra
áħ µ
end ing
ams ung
ag i
V is
ĠLe vel
Ġer rors
vi ation
Ġa ut
b ow
s ite
Ġst rict
Ġless on
ors hip
igh ting
Ġcom edy
Ġimag i
iz za
ĠR aj
mi ze
ĠL A
Ġfac ed
Ġti ll
ĠE ric
Ġh its
Ġdra ft
pe nd
ar on
IN E
Ġ tum
ĠR ub
all as
ic als
ĠBra d
t ou
Ġclo ck
W he
ĠP ers
ail ed
ĠH aving
th is
am ental
Ġ tut
on ia
ĠA h
Ġis ol
Ġw aters
Ġj e
lud es
ni tive
as m
Ġdra g
o ners
ra ine
n ab
ĠJ en
ĠWil son
ti ms
ĠA ge
Ch ar
Ġexpl an
ĠP S
S ub
p erson
Ġti ssue
ĠMr s
P L
ĠCr ush
C ons
ĠM om
ĠPhi lad
ema tics
Ġlay out
Ġto ile
Ġup load
ĠC B
ĠAr m
ric ulum
Ġflow er
Ġsce nes
Che ck
ĠBer lin
ĠMod el
N C
p ay
xp ected
ĠTur key
di e
ag a
Ġpane ls
" )
ĠH ind
T ech
ĠQ ues
ti er
ĠUS B
i us
ĠWh ich
Ġbuy ers
Ġwal ked
x x
ul ator
H A
E ven
ch est
Ġlegis l
ĠH ills
Ġb ind
ĠR en
el ve
ĠC C
ĠN ame
Ch ris
Ġ ~
Ġpri ze
ĠDie go
ron ze
à ¥
ĠS oc
ĠD avis
D own
li on
l anta
C ur
Ġref und
ĠS ab
u its
Ġset up
ĠA ve
a ver
Ġra tio
ir y
ĠB ris
9 6
ti sm
/ <
! )
ĠKore an
Tw o
?? ??
ĠH P
Ġper mit
Ġdis tr
Ġ0 1
ĠD oug
Ġlo ving
Ġli ft
Ġsho ts
M r
Ġsur ve
ĠA ction
M on
Ġs ought
hi bi
ĠB it
Ġco t
9 7
ĠGl ass
Ġpow ers
umin um
m ates
ĠCl oud
n as
Ġsi ght
nd e
Ġg li
Ġh urt
ĠMe thod
ĠB oo
ĠA st
h ome
ĠS till
S W
L ear
ĠR yan
ĠN umber
ĠP ain
Ġble nd
ti ans
Ġhy per
ĠFor um
ĠA nton
Ġbro ke
Ear ly
Ġmir ror
Ġsc ulpt
O G
ĠT an
ĠTra de
qu est
Bl ack
id ers
Ġb att
le ft
Ġs oo
ĠJ am
Ġto ne
Ġh at
os si
ĠE st
ĠE X
Ġali ve
ĠT ok
ig en
Ġpo d
Ġcop ies
Ġtag ged
ĠRep air
ĠR ound
W i
B ar
Ġhead ed
p ress
ĠGir l
Ġpull ed
ĠE le
Ġdish es
Ġsuff er
ĠInd one
Ġfac es
li x
tr um
y si
ĠS M
Ġpsych o
ell o
ĠH appy
ĠR oo
ĠR oll
ĠP aper
hi gh
Ġst uck
ĠA mb
Ġfl ag
I E
Ġb ab
8 7
ĠB BC
ĠPri nt
Ġpe ak
Ġle gend
T E
el le
om er
lud e
ur is
ĠF eder
Ġn ights
Ġg entle
Ġmo du
ĠNe ther
Ġc am
x ic
ub a
% ,
iner s
Ġf ranch
> âĢĵ
us s
er en
ta to
Ġsc ope
Ġh ook
Ġany way
ĠâĨ Ĵ
ular ity
] .
Ġsp ots
Ġo u
ĠH an
fi er
Ġd ust
Ġtown s
Ġne ut
V ER
th ur
ĠF A
ĠA z
Ġstri ke
ĠF ather
ĠEn joy
ak h
Ġlo ose
ĠMi ami
co i
Ġphone s
ĠAd am
ĠDe li
200 7
ĠDis c
ĠR a
tit u
ĠS lo
Ġle ts
M ake
h es
AT E
9 2
tr ack
ro g
ĠAd vis
Ġf ru
n on
Ġthem es
H P
ĠS E
Ġhop es
on na
ĠPol and
Ġqu otes
Ġl es
coi n
Ġvoc als
for mer
ir k
us ive
od ing
ĠN ation
z an
Ġdis pos
gi ving
ĠC ome
ĠF C
ĠT R
no s
Ġb orrow
round ed
Ġres ort
ĠQue ens
Ġtri ps
an tial
ĠH ur
lic a
Ġatt ach
Ġfra ud
Ġpo tato
ph a
Ġsc ores
ĠK ansas
Ġgi ant
Ġri ding
Ġmodu le
ĠMi x
Ġ198 3
p tions
ĠStud y
Ġre ly
U D
verti se
Ġm ood
ht ml
ĠD I
ĠBri an
Ġre nder
Ġass ume
Ġop ens
Ġwe igh
I mp
U se
ĠYou th
Ġse eds
Ġp ace
F eb
ĠSe lect
Ġtr oub
Ġo range
it able
ĠBud d
el a
Ġp ig
Ġed ited
T P
ĠA nt
Ġvis its
Ġris ing
y es
Ġex ha
a fter
be ing
ax y
T ags
Ġgre y
% )
Ġf t
ever al
Ġag ed
Ġcar pet
i nch
ces sive
P o
act ory
D a
Ġfall s
ä ¸
ane l
ĠM ir
ver ty
L a
Ġob st
ĠM oo
li ty
t ap
ĠCast le
Ġfor got
ĠMill er
8 2
ĠMar sh
ĠC redit
ĠE N
Ġun w
roy ed
G E
Ġcomb at
Ġl ou
Ġpri me
as i
ĠAd vent
rit ten
S outh
Ġsp ell
av or
ĠD NA
Ġst ead
re f
lam m
Ġj us
ĠMo on
ti tions
Ġdi vor
S m
Ġyour s
Ġpi lot
Ġsp ark
it zer
ĠWh it
Ġth ro
ĠC S
con ne
8 4
ĠHaw ai
S ep
Ġpray er
Ġl ens
ĠS ri
Ġb omb
Ġg all
Ġcot ton
ĠPl ant
ĠY et
S w
li ances
6 00
I m
Ġg aming
thes is
Ġc ater
C L
ĠF le
ĠIm age
Ġdri nks
Ġm aps
Ġcas ual
Ġreci pi
ĠN ick
Ġ198 2
Ġemail s
ĠG ive
ult ant
9 1
ĠG row
ar ia
Ġsc rew
AR T
em ic
Ġlow est
áħ ³
Ġhor iz
Be fore
ĠD rag
ĠB us
em eter
G ra
um mer
t les
ĠE th
Ġr aces
Ġlap top
Ġsof a
ĠG olf
ĠPo ly
Ġ6 00
ĠDon ald
tig ate
ĠBe ing
nes see
E ach
F ur
lish er
si e
z u
od ge
Ġex ists
Ġsqu ad
m ir
áĨ ¼
w orld
ro lled
8 3
ĠB at
ĠC ape
ĠCh ange
1 50
ti que
9 4
h ou
Ġa x
W orld
ĠEv ents
Ġy oga
cri bed
hy th
i j
Ġto mato
s k
âĢĻ .
ĠH air
áħ ©
ĠTer ms
ic ide
li sts
ĠU ser
ĠN ic
ãĤ Ļ
ol t
p he
ĠI V
Ġp ounds
ĠJ ordan
Ġre form
ĠI ron
ĠB E
R ed
Ġd ad
Ġm g
ĠG as
Ġaim s
Ġpri de
Ã Ĺ
re ction
g ments
ĠHar ry
Ġ( )
f ish
le ep
| |
ĠUn it
Ġ197 9
ĠSh are
Ġad equ
9 3
P hoto
ĠP erson
ĠP ati
bo ards
ĠMo ther
Ġhead qu
Ġb ands
gg ed
lah oma
H er
ĠL ic
Ġsto od
ces sion
Ġpres id
er g
Ġdec ent
mi zed
d ro
2 50
r un
F e
Ġdi pl
w art
oli tan
' '
Ġm att
onso red
ĠO li
Ġke ys
M od
Ù Ħ
igr ants
. )<
u um
200 6
Ġflo ors
Ġse es
ali a
ĠSi x
ĠD ate
orm al
Ġg ap
st ep
Ġgra d
ĠF ab
ĠR ac
Ġass et
s ome
âĢ² âĢ²
ĠLew is
ĠCh ap
or se
ĠP ales
duc t
ch ild
te ned
Ġfas cin
et t
Ġti le
ure au
Ġfine st
Ġp ad
Ġf its
ĠDe ad
irm ing
lim ited
ĠV ers
Ġrecog n
Ġev il
ps on
Ġover se
U nder
ĠE P
Ġ[... ]<
ncol n
Ġ ?<
ĠS ize
nam ed
ĠG M
ĠS D
men ting
ĠC L
ĠSte ven
Ġdra i
Ġdrai n
ĠN FL
ali zing
ĠSt ri
d ep
ĠJ i
ĠB h
p ers
ag an
yc ling
ĠG reg
z ech
ine ma
Ġd ual
Ġg al
Ġb ills
ĠPri ze
u nes
P ub
pi ece
ĠDec or
ĠK er
ĠB ody
Ġe book
Ġbo ards
ar n
ĠT a
Ġrep ly
ĠS om
ĠD J
Ġsi nk
fra id
uro pe
ĠA ustin
Ġcour ts
ĠT oy
â Ĥ¬
ĠT X
ĠK u
Ġstay ed
IG H
ER E
load s
ti ble
ĠFi nal
Ġh es
ĠV ice
Ġtro ops
n n
ĠMed ic
Q L
ĠDo ctor
Ġ à¤
Ġk il
ke e
ĠAn ne
T y
cri min
l on
ce nd
ĠFr ont
Ġtal ked
ov a
ĠP ow
ac ular
Ġan th
ĠMon th
Ġpo etry
ĠM oney
d am
ss a
Ġrank ed
c ard
Ġrec re
Ġbelie f
8 1
T ake
az i
Ġa fraid
ĠN O
Ġene my
ĠA k
ari ous
si zed
t ape
Ġdoll ar
Ġhe aven
Ġsac ri
ĠTh ings
P h
Ġv otes
ĠApp ro
Ġk ni
ĠH omes
Ġ198 1
% .
f oot
ab ad
Ġâ Ĥ¬
ĠD O
Ġgold en
ĠV o
an while
ĠD ream
ĠAnal y
ĠRe gi
rie ved
p orts
ai th
ĠA B
ĠSar ah
... .<
ĠE asy
Ġpass es
ĠKe vin
ĠBer n
ab ili
is ode
ĠDe ath
di nary
Ġ tube
chest ra
les h
hold s
ĠI L
ĠT ony
Ġju ice
ĠR id
L o
ch arge
ate ful
Ġti e
be an
Ġb unch
ĠLe ave
ĠB ull
ing ton
Ġdef ine
ok er
ĠM ind
Ġ5 2
Ġc uts
Ġtech n
Ġv ice
Ġha z
ĠD ave
Ġs lo
os is
ĠR ap
Ġexce ed
cy cle
Ġold est
P N
Li fe
Ġ9 5
ĠW y
Ġw is
b ian
IL L
ĠP y
Ġde eper
Ġor al
enti als
N otes
ĠT ru
Ġab road
Ġ4 1
ver t
A ust
Ġgu ides
ĠL ater
Ġg am
Ġpe pper
> ^
h r
se ason
ati le
D C
ch en
m us
ar o
Ġ( $
Ġind oor
m ies
ĠB es
ali sed
ame ters
. ;
Ġlay ers
ĠLit er
Ġref uge
ĠR h
ĠD or
Ġ tou
W S
pp i
ro it
ĠGir ls
ĠTra il
Ġ0 4
ĠIn iti
ĠAnd re
ĠG h
th rough
Ġad mit
Ġb aking
ci ence
Ġ197 6
Ġ197 8
ĠL ux
ing ers
Ġ197 2
ag ers
Ġpromp t
en z
ra ne
i nal
ĠM oh
Ġhone y
Ġdes tr
Ġb at
ĠSer ver
se a
fi re
ĠB ot
Ġloss es
Ġro ots
ob e
ĠEx pl
Ġ4 3
Ġgr ace
h our
l ates
Ġl aser
ĠJ ay
ĠMar ia
ell er
Ġ tons
ĠM it
Ġ tap
amb ling
pri nt
Ġdeep ly
ĠS elf
ĠO K
Ġsti r
ĠN ature
g ue
ĠC e
ĠAL L
c tive
u ality
Ġm ig
Ġreve al
ari b
ĠB M
ang le
str act
Ġther ap
Ġcomp an
ĠBre ak
Ġpack ed
ou ver
D R
ĠTur k
U C
ĠB ush
ĠB irth
ur er
Ġc ensus
v ation
200 5
loo king
Ġtw i
O ut
ĠDel hi
Ġpati o
ist a
I B
ce ived
ĠC opy
E X
G i
ĠEgy pt
b us
Ġwhe els
uri ties
r ice
ĠRo ber
ili an
t ours
Ġ tape
ĠE ag
Ġbo ss
ĠIn nov
ris e
ut ors
aw are
Li ke
ang er
Ġ {
Ġhard er
ĠG un
is si
In st
onym ous
ĠEar ly
Ġpre v
Ġall oc
as ka
ell a
Ġch est
Ġ Ø
H L
osp el
lic al
ĠA thle
tion ing
t age
Ġh ill
f ers
i mp
c al
ĠJew s
Ġsc ar
Ġpro ved
te x
ĠW ould
ac o
ce ment
mis si
Ġdep loy
Ġed it
Ġmed al
Ġti red
O ff
Ġv on
Ġpro por
are st
ĠR s
ail and
Ġflu id
gra de
ĠN AS
Ġsp ray
L ab
ĠSwed en
Ġ196 8
ĠB or
B o
to ps
ane t
P oli
Ġn urs
us al
Ġbed s
ĠP ier
ĠT ree
Ġ197 5
mark et
Ġco al
Ġ19 20
N S
n th
ch a
ri x
ab ama
on ing
Ġ19 30
ĠS uc
mo ther
Bu ild
Ġ4 6
Ġme ters
Ġhas n
A ug
Ġh oles
ĠN at
Ġ0 8
Ġste am
ĠD allas
Ġe igh
ath ers
ĠMet al
ĠF R
C or
i ra
ti ous
ĠI ll
ud es
log ist
Ġto y
ĠL em
Ġh ockey
Ġ9 9
Ġref ers
Ġbl ank
ac ent
ag u
bra ting
ĠC ut
Ġaud i
" ,"
B O
ĠT el
ĠMar ine
e o
ĠCan cer
Ġpri vi
ĠS ex
Ġex cess
Ġ19 40
p g
Ġfew er
gra ms
en na
ug s
ruct or
re ens
alle l
Ġco at
ĠI owa
Ġ tours
ash ed
ĠTi ps
Ġ ..
Ġsens or
cc er
Ġcirc le
Ġmake up
ĠN ap
ĠM un
pi n
ari ties
ear ing
ĠAll en
Ġman if
cl ai
Ġw ise
Ġdu ties
ĠP ear
Ġsmo ke
ar r
umb ing
as ions
ĠO range
ne tt
ĠP ho
Ġtit led
ĠC OM
N et
S peci
Ġsp ir
our se
w riter
Ġp uts
AL L
emeter y
en ix
ult ane
ĠG il
v ous
Ġ0 2
w ho
app ro
Ġsh irt
ĠJ ob
Ġcal m
ĠSy mp
Cont act
Ġrub ber
Ġc ow
Ġ197 4
Ġbel t
b ound
Ġs ke
g al
!! !!
B ecause
ĠC ore
AN T
tit ors
t ah
Ġw ing
Ġs orry
Ġcra fts
Ġper f
ang a
ff s
vi es
at to
ĠL arge
st an
st y
p ing
ĠCoo per
tr ans
Ġr ated
Ġ0 9
Ġmere ly
ĠB ou
Ġdefe at
ĠLe on
u tic
Ġh ip
ĠYear s
ĠM ove
ĠW as
ĠMus lim
ĠB ry
Ġ197 7
ĠD ays
nd ry
ĠJun ior
hi ll
P op
? "
ĠI C
ount ed
qu iry
Ġvers us
Ġhost s
Ġpar ks
IC E
Ġab und
Fur ther
t v
Ġtra dem
p ost
Ġrare ly
ĠCh ang
P res
Ġtow er
Ġmar ine
ĠT owns
ĠA G
Ġl ady
com fort
ĠN ur
áĨ ¯
Ġang le
ĠUS D
ĠB ird
ĠTem ple
go ing
ĠL ane
ĠC T
200 4
att an
cis ion
ĠD E
Ġbe auti
w all
ĠB uff
duc ing
Ġ197 3
áħ ¥
ĠI mm
Ġse am
Ġdri ves
ĠPo lish
is l
c ity
w ick
Ġle af
ĠI M
Ġ4 7
ĠS at
Ġw ake
are nts
arm a
Ġex tr
Ġcap it
Ġaim ed
p ack
Ġbo ld
rit ers
ĠB row
c ow
br aries
Ġto ler
it ate
ĠS now
T ime
e v
ĠC op
crip ts
ĠSim on
IV E
ĠAr k
oles ale
il ty
b age
Ġwi nds
or ized
ĠD ance
ĠC ell
ĠCour se
ĠAp r
c asting
ok ed
Ġl au
Ġin hab
Ġ 00
ĠP or
ĠCle ar
D ay
Ġa es
ĠSty le
ul ties
ĠS O
Ġtemp le
ĠCor ps
a a
Ġ196 9
b el
ĠL yn
Ġl oud
ĠD ue
Ġb lind
U K
Ġlo op
ĠLa ure
IT H
ĠW ine
Ġh iring
ĠTem pl
ac les
Ġp up
uris d
lli gent
Ġh orses
r ical
Ġb ran
ĠBe ne
c os
p res
Ġcr ack
amp ton
mod ate
n tend
om ed
ĠB ec
Ge neral
Ġbur n
sh ot
IT Y
ĠF ive
Ġ ta
ĠH um
ĠAm ong
Ġcon j
I O
ĠGre ece
k m
ĠSur vey
Ġst amp
Ġp uzz
b ia
le ments
tic les
Ġg rid
EC T
Ġpop ul
Ġp it
Ġo x
Ġten nis
Ġc ali
un ct
ilar ly
Ġb uck
Ġsur ge
Ġsafe ly
ĠB B
tic k
Ġsu ite
ĠP ast
ĠJu li
o ther
ĠH art
Ġequ ity
Ġw eren
Ġsh apes
tom y
Ġsy nd
us ting
ne z
ĠQu ick
Ġe lder
ap olis
Ġinv ite
Ġpurs ue
Ð ²
Ġ197 1
p ot
ate ur
h ai
c ond
art ed
Ġcus hi
ti na
d ated
ĠF uture
m ical
j an
ord on
Ġcap s
aw s
ic ed
Ġf olk
ĠS ave
ĠM s
Ġle gi
Ġkno ck
ĠL ess
ĠP ad
Ġsp an
Ġso ccer
Ġin tr
ĠTh ird
hi l
ĠS ac
Ġwis dom
m ia
Ġshe ets
o lo
ani ed
oc he
Ġhear ts
b ot
ĠD ouble
ĠE C
Ġtri m
Ġ194 5
ĠSp ort
igen ous
Ġacc um
ĠTech no
sc ale
ĠPl aces
ĠT u
Ġh ide
ve t
ĠB ased
com mun
ow ners
gg ing
lo re
Un ited
to nes
Ì Ĭ
Ġbreak s
ĠJ ava
ĠCo ver
F S
Ġam en
ĠPe ace
ĠiP ad
ĠM and
Ġwi der
f ly
Ġwor n
ĠP L
Ġ8 5
Ġvic tim
ĠN ep
ĠH ai
Care er
Ġcor n
i red
Ġsw ing
sp an
âĢ ĺ
Ġ196 7
le e
S pe
ĠK y
er k
w orking
Ġmo on
od d
ĠC and
ĠGu ys
ĠVis it
str ated
Ġess ays
ath on
ĠE mail
Ġhi red
Ġac qu
Ġnovel s
Ġfr ust
ĠS ide
atch ing
Ġvi br
Ġco pper
agra ph
ĠK elly
ĠA w
b les
Ġblog s
g ate
ic kets
s ers
Ġi OS
si ght
am ili
Ġal arm
Ġcan ce
ĠB R
ĠRo ss
els on
Ġbuy er
Ġdi al
Ġshe ll
Ġpro hib
ĠN a
Ġb ou
Ġde leg
Ġe ner
mon th
ĠPh one
ĠGr ant
ĠShe l
Ġto ys
Ġg ay
win ning
Ġpi one
L D
ol as
ĠSing le
ĠDu ke
Ġv ine
Ġland s
ĠE mb
Ġhy po
ĠG a
Ġin tend
ĠP ut
ĠM ust
Ġv oted
Ġu k
h ard
W est
Ġtw e
Ġ0 7
Ġmi ld
Ġs our
200 3
ab ling
ilit ate
OR E
er or
Ġagg reg
Ġti ed
Ġfi ber
lot te
Ġtr ash
ĠE lli
ĠN ar
lo se
Ġa po
ĠAg ric
ous ing
Ġm ouse
Ġpar ish
B L
Ġbr ick
Ġp our
Ġse al
ĠJ osh
Ġloc ks
ĠPe ters
b oy
Ġpro sec
Ġno se
ĠW W
Ġconf id
ĠG ran
H z
erv ing
ĠAf ghan
ĠSpe ed
ss ues
Ġwrit es
tili ty
Ġdi vide
In tern
O ri
b ird
ĠJ ason
ĠR and
AC K
Ġstruc k
>â Ĩ
ĠB ureau
ĠR ow
ceed ed
Ġs lots
Ex p
ĠP a
ĠB lock
Ġrepe at
Ġ7 2
' .
Y ear
ĠH allow
Ġb oot
Ġp a
sc reen
ĠC u
xy gen
Ġst em
Ġ0 3
tic ing
Ġun p
f ric
nter est
Ġsymb ol
ĠH R
ur u
Ġul tra
th an
Ġcoll ap
Ġo uter
j ection
ĠL ie
Ġf oo
ĠBow l
A g
Ġvir us
Ġse min
lo sed
ĠGe ner
min ute
] ,
ĠO pp
Ġgo ver
ĠThi nk
Ġs ons
Ġtwi n
Ġasse mb
Ġmar gin
Ñ ı
ĠIn ves
Ġv ent
" |
t ale
ĠA I
Ġj urisd
Ġsto ps
id ae
ul us
os c
Ġchar ts
Ġb ay
Ġco g
In c
o line
m g
Ġman ip
ĠF ine
Ġj azz
ĠDo or
Ġb ub
Ġtri als
red ited
Ġre tro
ĠV anc
S M
W omen
ĠK ings
sh op
pris ing
ĠU C
ĠB ag
Ġfle et
ĠJo i
Ġtri b
Ġ5 1
n or
ĠF alls
ĠC el
Ġ5 4
E l
ĠNi k
le nd
Ġre hab
Ġchi ps
do ors
ĠL ot
an try
Ġcom ic
Ġ196 4
Ġre loc
ĠK ind
Ġsix th
ĠC ele
ĠCh oose
u li
ĠF al
Ġla wn
Ġglo be
teen th
Sp orts
U P
ĠM ine
Ġrou tes
az ines
th al
ĠU RL
Ġr um
Ġcon vey
Ġm ad
Ġpe ts
Ġad mi
ĠR ain
Ġb ic
Ġgot ten
Da vid
Ġwa ves
ĠMo vie
R et
Ìģ ,
ĠC ash
ĠC ow
ĠCl ark
as ters
Ġback up
oun ce
vi an
m aster
ĠHar ris
Ġleg acy
u ce
em an
ver e
ĠW el
Ġ Ù
ĠLin ux
M ark
Ġle ase
medi ate
Ġun cle
l est
Ġc ats
am an
t ang
Ġpre ced
c s
Ġcul tiv
Ġly rics
ĠB rew
Ġglo b
qu et
ĠG ab
ĠC os
N E
Ġin tri
b log
ĠC zech
ĠJoi n
ju ana
ĠC oll
f a
uc king
ig s
cus sion
m akers
ĠImp ro
ĠSo ci
V C
ĠS ud
lo ved
gi um
s uch
Ġcry pto
K E
Ġtri es
ĠG P
Ġpi x
Ġtable t
Ġfit ted
Ġjun ior
Ġwi ring
Ġ196 5
ll ers
ank a
c asts
Ġw ard
Ġh ub
to pher
ĠD ur
c kets
ist rib
uc ed
Ġp upp
Ġ( âĢľ
Ġr us
ig ned
de f
and o
ric ted
Ġh ack
Ġsimp li
ĠB ab
Ġfold er
Ġcook ed
ell ows
re p
w estern
ud d
ĠVi n
N orth
le m
Ġfru its
ĠMor gan
n ar
Ġtra ins
! âĢĿ
ĠA y
ĠCom pe
ĠF ast
rist mas
ust ed
Ġdang er
no te
ven ting
atch es
be y
Ġ0 6
D em
Ġgun s
ed ral
Ġcru ise
ĠK han
iz er
D I
ĠPh D
ess ed
ing ful
ĠE aster
Ġw are
> @
Ġwid th
S L
ri m
Ġmy th
ĠN ear
ĠPhi l
mi ning
Ġbu ried
Ġas ks
m ach
ple te
pi red
R P
ui n
Ġsure ly
M L
ĠMoo re
Ġoil s
en i
Ġex ecu
ph ic
Ġhand y
ĠRou te
Ġ %
bur n
Ġed ges
ir s
or neys
ĠInt ro
Ñ ĸ
Ġs ed
Ġrec ru
fe fe
áĦ Ģ
Ġcoup on
ĠSc reen
reed om
ĠPri or
ĠRes ort
Ġsh aped
200 2
v oc
ug g
C P
ĠMag ic
Ġmet ab
ĠAP I
Ġf ence
Ġp ip
Ġac res
> ...
Ġrob ust
g ree
Ġfo am
ĠH op
H D
Ġres cue
Ġwork er
Ġa er
Ġ0 5
ctic ut
ĠF ile
au thor
isc al
c alled
Ġeth nic
Ġl amp
ĠHow ard
Ġadap t
et ch
ĠS av
ĠA qu
200 1
im en
Ġro yal
Ġan ch
li est
ĠB ishop
ĠPlay er
Ġb li
Ġsh ock
Ġk nee
o ch
Ġ196 6
ĠAu tom
Ġte nder
th y
ĠC N
Ġex it
it t
Ġche cks
Ġam bi
a ud
s ki
Ġ1 10
Ġmor al
O B
ĠTok yo
ĠP ick
Ġ5 6
vel and
Ġdo se
Ġout fit
M en
Ġsh ade
Ġexce ll
ĠV A
re tion
ĠS A
ĠB os
Ġc rown
Ġw rest
Ġpro vin
S upp
w he
Ġou ght
L ooking
ci ll
ĠAr thur
o es
Ġsc al
au g
Ġcon fer
Ġs tit
Ġimm une
Ġpro tes
ĠC F
oli n
ĠW ire
iz es
Ġsp a
Ġapp le
ĠDe ep
Ġbu ll
w ear
ĠL am
ĠF resh
ĠSi n
b acks
Ġmy ster
M I
ĠTr ack
ĠRe li
ĠAl ber
w riting
B ig
H ar
Ġthi nks
Ġsme ll
issi ppi
Ġhab its
ĠG ate
r ish
ĠMet ro
Ġenti ty
ĠRec ord
ĠNor way
b ul
Ġimp l
er m
Ġ !
l ace
is ure
ĠR ab
S uper
S et
ĠT ower
Ġfra mes
Pro f
ĠF an
ĠS W
now ned
ond ed
on ly
ĠU tah
P art
= =
te m
ĠD at
ĠWith i
er to
u ity
ch ain
Ġpar ad
ĠA V
ĠWithi n
ĠM ort
Ġc ig
let te
ĠJo bs
off s
Ġvo ting
Ġhe ll
ĠN J
ĠEd itor
ĠSe ven
Ġsum m
Ġwish es
l ash
Ġpush ed
ce llent
Ġsal ad
it ting
Ġsh oc
al so
Ġpl ates
IS T
to on
B R
M arch
Ġthe ore
ali tion
ĠMos cow
y d
ie val
ĠR ick
az ed
ĠGre y
P i
Whe ther
erv es
ĠD ak
ĠR ent
Ġfund ra
Ġin hib
s ection
Ġsole ly
Ġi gn
par ty
Ġshel f
Ġsal ary
ĠM ul
re ll
Ġle mon
Ġhy brid
Ġfur n
Ġgro cer
Ġbu g
ĠC ount
ĠF ant
c ore
bre ak
ĠN ich
ĠH ad
abor ate
Ġf ault
ĠM uch
enti na
Ä ±
Ã ¸
atri ate
Ġin k
Ġtoile t
ed d
Ġd ess
to oth
Ġwal ks
Ġexp ort
er ted
ĠVe ter
Ġ3 60
ĠH al
Ġgu ilty
b ridge
Ġnew est
Ġ10 1
ĠR ot
no ld
ĠV ac
tes y
wh ite
atch ed
ish ment
US T
Ġsell er
ĠB L
ĠCo ffee
ĠR ing
ched ule
t ags
ĠSw iss
tim ore
Ġtes tim
He alth
Ġj er
Ġvo ters
Ġpr on
R us
Ġd ough
ter ed
v ada
Des cri
B io
Bri tish
ĠIn sp
ic y
n an
Ġm es
ĠC arib
U E
Ġmix ing
Ġr hyth
nes is
Ġspok en
ĠLi ver
Ġweap on
Ġc hip
Ġc ord
C ap
O s
Ġdipl om
A pril
ĠLet ter
ĠC ool
si ze
Ġr ings
w ind
Ġbu ff
f red
ĠC ris
Ġven ues
S tr
ĠN ative
Ġwe ird
Ġg ang
Ġfund ed
ĠRes pon
ĠDub lin
ĠW olf
Ġ5 3
ow ned
Ġdep os
C R
un i
as se
ĠGra de
Ġbul k
ÌĤ âĤ¬
ĠDen ver
J une
is ine
ac kets
S y
ĠCon cer
gi ve
ĠP ath
Ġvi nyl
ĠFlo or
and e
ĠS ource
le ans
the ast
ĠR oc
Do es
Mem bers
ĠPhi lli
ĠEmp loy
Ġthe sis
ĠAn na
ĠEx am
ad er
ti sts
f le
Ġmed ian
ling ton
Ġo re
ĠE qu
hel ming
Ġimm ig
C us
áĦ ī
Î ±
Ġen orm
Ì £
Ġsto cks
B re
Ġok ay
A v
F T
A ir
TM L
id th
Ġp y
w eek
Ġop t
ĠCon c
at ar
ĠL ad
ĠA th
Ġcli nic
Ġgra y
im b
Ġbro ker
bu ilt
P P
Ġload ed
P al
Ġar bit
E duc
ĠMar g
Ġre tain
i res
f ather
Ġr ack
ard o
ad ows
me tic
Ġm arch
Fil ms
go v
W elcome
li ning
Ġcli n
bor ough
ĠGi ft
Ġl ung
ĠV it
Ġpost er
b ie
OV E
ĠPal ace
n ut
Ġse as
ĠS emi
ĠB ah
ci ally
ĠDe al
sc ape
Ġh ob
W ill
Ġf ake
N or
P ort
ĠSh a
ĠDi ffer
Ġa ver
Ġsp are
ĠUr ban
ground s
d og
u ali
Ġtw elve
Ġbab ies
S earch
ring e
Ġmed i
y alty
ĠV irt
ĠG ulf
Lear n
ĠA ns
Ñ ĭ
ĠAl an
ĠBe at
Ġh em
Ġp izza
ĠCom b
Ġs la
Ġtex ts
Ġsou p
Ġsli de
Ġbu nd
Ġd irt
sive ly
Ġtr ucks
ĠT alk
Ø ±
ĠC oc
Ġan no
Ġind i
Ġf ought
Ġb ronze
Ġgu ided
ĠLeg al
um my
Ġlog ic
Ġar med
ali nk
Ġb er
Ġstri p
is hi
Ġinc om
p ati
Ġh ence
we gian
u ously
Ġgar lic
Ġbe ans
ĠG A
con f
Ġdr um
ĠM aine
Ġbe gun
nab is
Ġp unch
Å Ĥ
rane an
Ġbo ats
ĠW onder
Ġphr ase
olog ist
Ġbre w
ts burgh
ĠD R
rect ed
Ġv alley
. âĢĻ
Ġanal og
for ward
ĠS ug
ĠInd ex
ĠR eci
Cl ass
ab out
Ġdeal er
Fin ally
Ġmet res
vis or
os ystem
ĠPe ak
Ġhum or
enni fer
ĠE D
ng u
Ġpri nts
ĠM aking
ll en
Ġgra i
Ġadv ise
AC T
Ġ196 3
ĠB ap
ĠSimp ly
Jan uary
ĠM ess
Ġun re
ĠMay or
Ġbe ef
ĠCle an
ul u
ic ted
Ġsuper b
Ġpo et
Ġs orts
Ġlo b
> $
! "
Ġe mis
ĠBet ter
ĠMic hel
ĠHu gh
Ġdro ps
ness es
Ġexc ite
Ġre tri
ĠBo ys
ĠD ad
ĠMc K
Ġs av
Ġhold er
ĠO cc
ĠL ay
Ġtime ly
ĠAl b
Ġden ied
ĠS ony
c r
ĠC M
Ġro cks
u ke
ed ia
Ġage nda
I ES
Ġ tai
ĠDe an
Ġdes per
ĠD oll
Ġfi red
ĠI ng
Ġimp lic
ĠR d
Ġca fe
C all
Ġimp er
as is
ĠSy ria
Ġo xygen
en h
ĠIn n
Ð ¼
ĠC ars
op ter
ĠSc he
Ġsn ap
l ades
Ġh ills
Don ald
we alth
ĠRid ge
ĠS kin
ĠFl ash
th ouse
load ing
ĠWalk er
h ave
ĠB ear
Ġs ail
ĠCar l
ĠG R
áĦ ħ
Ġspok es
ee ts
oun ced
Ġcar b
ĠH ans
ge ting
gu ard
it ects
ĠB right
ĠPi nk
ric ane
ari n
ĠP ric
Ġc ub
ĠPh arm
ic ial
T O
Ġgen re
ĠSp i
Ġw rap
Ġth irty
ĠHawai i
ni k
Ġ3 50
Ġcli p
gi le
ĠS ti
": "
Ġali ke
qu er
ĠBe auty
Ste p
P ublic
c at
Ġ196 2
ĠAud io
ep tion
v ar
ĠSh er
ur l
g ood
g ame
P G
ro se
Ġlab els
Ġgra des
Ġti les
vi val
Ġlad ies
Ġ6 6
ĠR ug
ĠM C
ĠN ash
Ġcl ari
i ft
se ts
ĠP ool
ab s
ĠIns tit
Ġgen us
ĠO bs
Ġ5 8
Ġro bo
ise ly
or ate
ĠW ITH
Ġball s
ĠK no
Ju ly
Ġsc ra
ĠLab our
Ġd up
ned y
ĠAl aska
ed u
ag ger
t ong
es tive
Ġcomp ly
am aha
at on
C ent
ĠC old
Ġph ysi
Ġlo d
Ġdele te
Ġs q
ĠM E
ont al
Ġ5 7
ĠAl ter
ngth en
x ity
ĠT ruc
mar ks
Ġco con
ĠGal axy
ĠDes k
X X
S ing
Ġn uts
ir ates
ed ly
ĠP od
ĠC orn
ps y
ĠProm o
ĠJ oy
. -
b n
ĠAl bert
Ġ194 4
ĠG ordon
b lo
xt ures
Ġen jo
Ġpo em
ĠSa udi
Ġg ross
line ss
r ank
Ġtrail s
au ge
Ġemb ed
av an
g ade
Ġpres ti
ĠS ay
ĠSt atis
Ġflow s
ball er
ĠUp date
ĠR ace
Ġsub tle
uten ant
pri et
J ap
Ġexp ed
Ġsli p
ĠBru ce
ok es
Ġ âĢĻ
ke ters
ĠBe ng
ash er
i v
: :
Ġori ent
ĠT ow
er ick
ĠG ary
ĠAd ams
x ed
O ctober
Ġex em
ĠS olar
Ġri val
Ġrec all
ĠF M
D ri
ful ness
Ġhor ror
ĠNE W
pl us
á ĥ
Ġend e
Ġregi me
pe nded
D id
Ġsho e
ps hire
Ġcar ing
ĠP ap
en ne
Ġm aker
ĠTag ged
ĠÂ» <
nam ents
Mus ic
Ġm ature
AR D
Ġs its
Ġo live
ĠVol ume
li ms
Ġpat ent
S im
ag ar
play ing
ic tions
ĠP ed
Ġstro ke
Sec ond
Ġfem i
ĠCor p
ĠDe b
ĠT otal
Ġd ash
g art
Ġde ar
Ġc ath
U I
N Y
Ġdis ag
Ġhad n
Ġj et
c ers
. '
Ġload s
Ġfl ags
onom ic
ĠM ail
M c
ven ues
ĠT rib
z ens
or er
V ideo
the y
Ġ tent
and ra
Ġboo ts
Ass o
Ġti re
ĠW ant
Ġgrai n
mis es
est ab
ĠCo le
ĠTit le
Au thor
e ng
ĠYOU R
ĠSu ite
ĠPl ans
R el
ĠWi ki
usal em
ĠDI Y
op les
Ġc amps
Ġa qu
ĠCo ach
ues e
ĠD raw
rupt cy
ĠB ond
op hi
k ind
ĠE din
ater al
Ġfemi n
Ġw ings
ĠCre ate
ĠK al
G oogle
áħ ®
Ġsi zed
Ġpe er
i ro
.. ...
ĠBlo od
ĠW A
Ġgr ants
ĠPar tic
Ġd ont
Ġke en
Ġp ol
an ie
Ġtack le
he alth
Ġti ming
ĠE V
lish ers
os a
Ġvari ed
Ġ !<
ĠSt ay
ĠT oo
ĠLeg isl
add le
ĠIS O
ĠP ic
S I
ĠAsso ci
ĠJud ge
S D
19 99
c ap
be at
ĠW ol
ĠK ra
Ġo z
sh ore
Ġdis k
ĠA na
Ġs enti
c oun
ĠAnd y
P oint
ĠTr ue
EL L
Ġb its
Ġpro c
en tical
ound ing
ĠB ee
ac co
Des pite
li min
el and
Ġspeak s
7 00
Ġcou ch
Ġcon vin
or ig
ill er
le an
Ġwi nes
as ures
ĠE T
umb ai
Ġsh ore
ĠM I
Ġclo th
Th rough
Ġloc ate
Ġti m
Ġ tan
worth y
ur d
S er
n ations
ĠTur n
Ġinter f
ĠE ve
new s
he t
il ation
D ep
ĠG ray
ach t
ph p
Ġ196 1
B et
loy d
ĠM B
U sing
ĠMed al
ĠK at
Ġcook ie
g ly
am ous
ĠCard i
s ky
N ove
ĠW E
IT E
ĠMon te
ĠBudd h
enni al
Ġstra w
Ġs lic
J o
Ġsh ed
ĠN one
Ġimp le
anna h
ass ador
ĠL ang
c d
ĠAl ong
ĠJ ul
V ery
ode ling
ah oo
Ġj acket
ĠMan ual
ai gn
Î ¿
er ic
Ġli ver
ĠH it
ĠS co
iss ance
ri k
Ġarg ue
Ġdet ect
Ġk nit
up id
Ð ´
Ġround s
row s
L P
ane ous
ĠIm ages
Ġcon ce
ud a
ti te
Ġenjo ys
ĠD ry
Ġjud ges
Ġn a
g reen
ris es
Ġd ys
at u
C re
s ub
ĠPost ed
og en
om as
ig a
sel s
ĠB rid
ra u
ĠG B
Ġpur ple
ag ne
er ra
áĦ ĥ
H ello
f il
Ġstri ve
AS T
Ġal ert
Ġri g
Ġcast le
ĠT es
ĠU P
Ġicon ic
am ine
p tic
âĢĿ )
ĠFra me
ss on
Ġvac uum
t ure
ĠAs k
O pen
ĠS weet
Ġman us
ĠE nt
Ġ194 8
St ate
Ġsto nes
ĠSimp le
Ġlab our
Ġhard ly
ĠDrag on
F rench
ĠO l
Ġarg ued
Ġde emed
Ġgrow s
ĠA F
od a
ĠG round
ĠP un
Ġg ard
ĠCa fe
ĠSub s
w y
Ġvo ices
Ġcom mer
Ġbi n
p ir
um bers
se ling
ous tic
ĠDub ai
ĠT un
al ties
cel ona
OR T
B ay
or o
ĠW oman
Ġj aw
O b
Wh ite
t z
rib utor
Ġdro ve
ĠZ one
Ġj am
n ames
R i
ĠL ock
ĠS li
ĠMc G
Ġcomp as
** **
Aug ust
ĠR ol
ĠE ye
Ġout let
ĠTri p
ath e
ĠS ter
) (
c ode
Ġab o
s ity
row ave
ĠAN Y
Ġsen si
S an
ĠD ump
Ġsh adow
pl ant
ĠSp ec
ul li
Ġall erg
ĠR io
Ġ urg
Ġpric ed
ĠN elson
ĠM O
Ġg ains
Ġbrow se
ount ain
> !
ĠS ure
iner als
che ll
ĠSt ars
ti ni
Ġfor t
ĠN ob
ĠR ang
ĠR ange
ĠA BC
Ġ tune
ffic ial
ĠM ars
Ġanal ys
mm ar
Ġworld s
ĠGr ace
Ġ5 9
ĠReg ard
Ġti es
Ġ6 2
ĠW ard
f ice
Ġline ar
j ack
ĠUp on
m art
Ġro d
Ġin tent
ach ers
ĠP ages
v ak
Ġw re
ter y
ĠGu y
Ġfro zen
ne cess
c ade
ce eds
1 20
áĦ Ĵ
v ate
Ġsil ent
W illi
ver sion
? "<
ĠSing h
li nder
t ors
Ġli ps
ĠDes cri
le i
Ġback ed
Ġc it
ĠChe l
meric a
ĠF ro
I AL
Ġodd s
ĠD ating
Ġn an
Ġ194 2
ĠSqu ad
ĠC V
ĠCi n
Ġri b
f lo
Ġso ap
or tion
ĠVe hic
Ġ tong
Ġkni fe
W ar
Ġ tale
H aving
ch air
K S
Ġ195 6
Ġn it
Ġp ine
ĠH om
ĠW at
Ġfall en
Ġs ne
He y
th en
Ġmulti p
Ġpl as
b rew
ĠWe e
ĠAni m
Ġsu its
Ġbare ly
light ed
th on
Ġqu een
iss ed
ĠDak ota
Ù Ĩ
Ġ tags
b est
Ġemb odi
o ven
ĠAb d
New s
mes ter
B oth
ris ing
Ġco ins
Ġnur se
Ġcri mes
Ġcris p
Ġ Ø§
ant um
ĠD ise
ĠSte p
G reen
si oned
form ers
tt es
ĠPro g
view ed
c ateg
ig e
Ġ tang
ĠA le
Ġcan vas
ced es
le ngth
des ign
ĠTh ai
i nst
G old
ĠH ud
Ġenc ry
Ġpo i
ĠL ower
all er
Ġe ager
Ġm akers
ro t
Ġdo zen
Ġri vers
Ġtran si
Ġdies el
till ery
Ġf a
Ġ7 00
ĠC rown
Ġn omi
ĠMor ris
h attan
Ļ Ĥ
Ñ ķ
Ġine vit
ĠH unter
W ork
w eb
ĠC ot
ĠPu erto
ĠWal ter
u ling
k u
ĠLu ke
ĠE co
Ġb ones
Ġf iscal
ument ed
OU N
ĠH ub
gorith m
p op
ĠS urg
Ġ195 9
S hi
igh ty
Ġg ig
Ġch a
Ġclo set
Ġpas te
Ġ195 8
Ġtr us
Wh ich
ĠY an
ĠSto p
ĠI BM
con tin
Ġste ep
ĠTool s
Ġj ack
! "<
k ar
Ġsp o
Ġru ling
ĠJac ob
Ġcon tra
p ace
Ġcab i
or us
sc ar
Ġbi kes
ult ants
ĠToy ota
ĠTe xt
Tr ack
an cer
am m
199 0
Ġbi b
Ġcon vic
Ġval ve
J oin
Ġre de
ER V
ĠB ai
Ġrece pt
Ġn ail
Ġg ut
Ġd augh
ĠZ e
AS E
ĠCost a
val ue
cy clo
m mes
Ġ lying
Ġr uled
gin ally
B N
C al
F igure
Ġbo ther
f ty
inf o
> '
atter ed
us er
ast ro
ce ne
ali on
Ġ9 8
ĠG T
o ly
en cer
Ġh ood
b ank
Ġhi king
Ke ep
P hi
Ī Ĵ
Ġco tt
shi ne
Ġcabi n
Ġaud it
ĠE M
as ive
Ġr it
ĠU sed
ĠB Y
ĠY ellow
Ġwi des
Ġin tu
Ġp orn
u tical
g ow
ij ing
ĠSus an
ĠF o
r ons
Ġwh is
erc ury
Ġp es
Ġge nes
Ġen roll
Ġref ere
lo d
spe ed
P aul
Ġc rop
ĠD al
ac c
Ġg oogle
T ag
ĠR O
Ġhe al
ĠNe vada
ĠM L
Ġmodi fy
Ġrug by
ĠáĦ ĭáħ
Ġrec ur
Ġm ud
>âĢ ĺ
O k
Ġhor ri
Ġfi ling
Ġa rom
ĠUn like
ĠD om
p read
ĠU pper
land o
S R
Ġ194 1
Ġra nges
Ġb om
OM E
ro ck
ĠH otels
Ġlo gin
si gn
ĠBe low
mi ly
ish es
ĠO m
Ġag ing
as a
ĠC ould
ĠY oga
ne n
ra h
onom y
C oun
ĠAr tist
Ġo d
Ġast ron
Ġspe eds
Ġd ated
ĠS el
ang o
ff e
rup ted
Ġra mp
ĠAni mal
ĠF ly
ĠH TML
f old
II I
i to
ĠN eb
Ġ19 39
1 000
G erman
Ġrel ate
% <
on ge
li ving
ĠM all
ĠEd ge
d ig
ber ries
Ġ6 3
M ag
Ġo ak
Ġc ups
f o
Ġth y
Ġk its
ĠP ope
Ġir rit
n te
ĠP au
ar ms
ed e
Ġshi eld
Ġune mp
Ġcy ber
Ġ q
Ġin no
Ġco i
ĠAp art
th ic
Ġstead y
ape utic
00 3
Ġv ig
00 1
Ġ1 30
urch ase
ĠH ERE
Ġsh ades
We b
M et
ON E
ĠPhoto s
ĠS ki
ĠPer u
ĠD ynam
ĠMari e
Ġ18 0
og ue
ĠS ad
ĠO d
Ġvis a
ĠK a
ĠGl en
W ind
Ġp ie
Ġle ak
s u
ĠWe ight
Ġhar sh
W ater
ĠSum mit
Ġcon v
20 20
P ower
Ġin tim
Ġg el
ĠR ules
Ġ tv
G od
Ġw ars
s ervice
c li
T ur
act ors
Ġ195 7
Ġdr ums
y our
Ġmas k
he ld
Ġst ays
ab a
th ere
Ġsu ited
Ġg ently
ĠJ azz
ĠL E
ĠRe qui
ĠH ost
Ġ194 3
Ġ8 88
Ġ6 8
ĠK ate
or tive
ĠP anel
199 8
ĠB aker
ĠG ard
ĠG ot
Ġ ....
B as
Ġth rown
ot ech
Ġlock ed
ĠH E
Ġf ancy
Ġv io
( )
ĠAl ways
W atch
ĠD ental
n atural
iss an
Ġd ict
g ral
ag ine
S chool
Ġj ail
un s
an im
ĠG ree
Ġo h
Ġveri fy
Ġport al
ĠPark er
ĠBe gin
Ġp ics
dis cip
ass y
p al
Ġvo ter
Ġfail s
ĠPost s
o z
ĠTe a
Ġr anks
ĠK am
or ms
o om
Ġb ite
st ra
Ġep ic
ĠG PS
ĠH IV
Ġigno re
Ġz ip
ĠN BA
ul ates
ĠWay ne
Ġpers u
} <
h ang
Ġmo s
Ġ194 7
ĠWhe el
re ach
amp a
ĠAss ess
V P
ĠRog er
lic ity
Ġear s
Ġtreat s
Chi ld
r um
m el
ĠF ed
pl an
ist ency
ĠB uck
ĠGra ham
U s
Ġ19 00
v d
ic ing
b one
Ġm ales
ĠRes ume
Ġ194 6
Ġno ve
ĠHor se
ght ed
od el
for ced
p uts
ĠJ ess
IGH T
Ġpo ems
ho e
g ic
ĠK ay
oo ting
th ri
Ġbe ll
Bl ue
ĠW es
f lix
ĠT ob
ĠDi ning
er gy
Ñ Į
ĠW right
ĠM echan
ĠR y
>Â ·
Ġshow c
b ane
ĠB att
ol ved
ick ed
w ill
Ġmut ual
áĦ Į
ard i
P T
be lie
Ġc ited
Ġnice ly
Ġe uro
k g
ble m
t ort
ĠF ame
b en
Ġ195 5
R T
ĠK id
re tt
On ly
ab ul
Ġdes ert
g on
lect or
j amin
G M
ĠPat ri
Ġster eo
ro ne
ond ers
ĠI an
ĠSt age
ash es
ĠTai wan
Ġsee ks
Ġ6 1
Ġmo b
Ġte ars
Ġun lock
ĠD ol
ins ula
ow ner
um ph
Ġcard io
Ġlo ne
ĠIns ide
ill ance
en to
Ġvac c
ĠAli ce
bor ne
u z
ari ans
ĠPhi lip
ici ous
sel ling
Ġup set
ĠPal m
tr as
Ġplu gin
Com mun
F ull
ĠSam uel
I nt
ten sion
asion al
ast es
Ġvoc al
Ġ9 7
oth y
ry ing
Ġg low
e i
em ale
Ġser ial
us sy
ĠRoo f
ĠI F
s chool
ĠC ards
om y
ĠCar ter
ĠCh a
log ists
Ġrun ner
Ġti res
Ġan a
p ad
Ġd ying
Ġme ter
Ġcoi n
S H
Ġbur den
ember ed
A E
ĠS L
thod ox
E urope
Ġdri ed
Ġh unt
ĠCol omb
am el
ĠK ris
Ġbi nary
F ri
Ġh orm
ti nian
Ġcost ly
tian ity
Ġp ear
Ġbond s
versi al
Ġpath s
ĠK an
Ġang ry
Ġno body
o ks
or ia
M ax
ĠO tto
Ġin take
Ġcur ve
t utor
Ġgl ory
ĠLis a
st ory
s ur
f u
oll and
P ay
is a
Ġmay or
M ain
Ġg onna
ĠFor ces
ĠP H
ĠT N
Ġro lled
Ġremi nd
Ġto ss
S un
Ġ7 6
Û Į
di um
j pg
199 7
ĠM umbai
Ġc ure
ĠM au
Ġ7 7
Ġvi agra
at al
ĠSp a
en o
Ġne st
Ġ6 7
ĠG O
ro gen
atin um
Ġ195 2
ĠH at
ry lic
f irst
Th ree
ric tion
Ġf uck
mend ous
bor o
Ġp airs
ĠLead er
ne st
Ġcol li
ĠIn v
ĠK night
Ġ/ /
li hood
m aker
ĠUl tra
Ġqu it
ĠChe ap
arch y
Ġen zy
ĠCol lec
ib li
Ġex hibi
aren cy
ster dam
Ġsh ri
ĠJu an
Ġang er
p r
Ġcan cel
omi ni
Ġf ed
Ġn om
Ġ7 8
vis ts
anc ers
Ġstra i
Ġd ub
nez uel
Ġp orts
Ġstrai n
Ġqu ot
ĠS ust
Ġbl ame
omet ric
ab i
Ġtr icks
che ck
atter y
str ong
ĠL ati
h en
quis ite
. :
Ġoper a
ĠOper a
ĠD ick
ĠG ian
T ax
Ġd irty
um ns
W A
b ase
Ġne at
Ġor g
ĠH us
GB T
ĠHe nd
B ased
Ġdev ast
id ity
ock et
ĠKen ya
Ġst ack
F amily
Ġf ron
ĠRe y
ĠDep uty
Ġd rew
over ed
ĠSo ft
ĠB ring
Ġbas ics
K ey
Ġf oster
mans hip
S ur
Wi n
oli sm
I X
re nder
ĠTh or
ari um
ĠGl as
nic ian
ĠD omin
ĠT ell
ĠâĨĴ <
F M
G S
Q U
oc al
Ġ195 4
ne red
ĠExper i
Ġwhere i
ad ays
and ing
ĠCro ati
Ġacc ent
ĠMi ning
Ġarch ae
s le
Ġen rich
ĠY u
R ich
Ġli tig
Ġs id
ĠR acing
lades h
S ource
p df
âĢĻ .<
and ise
Ġc od
C li
ĠSa fe
ĠAb ra
ĠðŁ ĻĤ
ke nds
B B
Ġeli te
Ġlo vers
ĠN ice
V e
Ġhand ed
1 10
W H
ĠK ni
h al
sh irt
Ġs amp
ĠEx tra
Ġp ale
ĠC row
ĠVis ion
es a
W orks
um ble
Ġp ants
ĠM aj
% .<
ĠU V
Ġ8 8
i as
ĠT ig
Th ose
áĨ ¨
Ġ tutor
OR D
E s
C ong
le ton
Ġread s
ĠMad rid
ari os
o a
f amily
ra z
st ro
ĠLau ra
m ons
Ġhe ated
stand s
Ġ Ñģ
s or
ĠEx hib
ĠK ath
ĠPar ts
ĠTH IS
ĠN ord
ĠLu ther
b as
Ġ9 6
Ġb ush
t anks
Ġar ise
ĠC ub
Ġlou nge
Ġk er
Ġqu ery
ĠMet rop
ĠC ream
ci um
Ġbas ket
r ates
Ġpe ne
Ġ Ìģ
Ġin t
e ven
M ichael
ĠAl bum
ĠH onda
ed ar
ĠL ar
S a
Ġfi rew
Â ¿
an te
ali zes
Ġal leg
ĠCra ig
te ous
ne ath
st ud
ĠPre p
z able
ĠVal ue
Ġc au
lic ts
ĠF aith
Ġp ays
T om
M ob
Bu y
J ames
ĠS it
an ne
sh aped
ĠP le
Ġas pi
Ġamp li
ĠEgy p
T ele
Ġf estiv
ç ļ
ĠF it
Ġpre m
t orn
D ata
ĠMur ray
ap or
R O
ĠCl ay
à ¦
V al
ĠA my
Ġ194 9
Ġde fic
ĠSal t
ĠInf o
E p
ty pes
. ),
Ġfac ial
On line
list ed
199 6
Ġ195 3
Ġs anc
ght ful
Ġvol unt
hi n
Ġcand y
Ġtw ist
ĠBl ues
ĠRe ally
ĠH alf
AR E
Ġcar go
om etry
ĠB ron
Ġemp lo
ĠT ed
ĠAc tive
port ed
T i
g ary
igr ant
AS S
ĠGro ve
H ead
Ġc inema
i tive
Ġdu ra
E nter
tra tion
ĠSt orm
Ġbr ace
Ġto xic
Ġs ights
ĠWar ren
Ġdis ab
S en
Ġqu est
Ġb ol
gi o
e ves
ĠSh ang
C S
Ġhaz ard
am as
Ġpro xim
Ġ tanks
comp ass
Ġte ar
B ooks
fin als
ĠY e
ĠNY C
com ed
ĠS old
Ġadop t
Ġbre ach
ĠEv ans
atto o
Ex per
S ch
Ġswe at
w atch
ĠV ic
Ġval ued
et a
ĠHe at
rom ise
Ġbe ings
ĠWood s
Ġdi ve
Ġcor re
ĠSep t
u ated
M B
des h
B i
T er
ĠD rug
Ġsto len
u no
ĠIns pi
ĠL anka
ĠV oice
ĠSou l
ong s
ĠReg ist
bs on
] .<
ell ed
Ġ12 5
Ġdo zens
Ġmus h
lai med
az y
C ity
Ġto ps
so le
Ġch ains
Ġc ave
Ġl ately
9 00
Ġsp ouse
ro be
str ates
ĠF igure
ch ron
: #
Ġmag ne
Ġh al
ri ors
Ġchar m
ĠO H
ali stic
ĠDri ver
ĠB ranch
w idth
ĠG all
l ast
ami ns
Ġw ax
o is
ĠQu i
sec ond
m mer
Ġcl ay
Ġp icks
Ġback s
ys ide
ĠNC AA
c est
ĠAr men
Ġsh a
Ġg ree
ĠK az
ĠN an
Ind ian
se ud
Ġex ams
Ġ tort
ĠQue bec
OS T
Ġli able
Ġav o
ĠM T
g ro
ome ter
Ar t
Ġche f
>| <
Ġhy p
fi x
ĠÂ «
F R
Ġpra ise
ĠJ ustin
Ġbuild s
m ill
P s
Ġvend or
Ġfin an
Ġa ug
th rop
Ġinc ur
Â §
199 5
Ġcle ver
C ast
G lo
yn asty
Ġho ly
Ġpri est
Di rect
ge bra
j ud
ip ant
Ġcoun ts
H y
æ ľ
ĠM ason
ĠJim my
Ġre ct
c ence
flow er
dep th
Ġtri ple
Ġri ders
Ġche er
led ged
ad vant
IC K
So cial
ĠC art
M E
çļ Ħ
Ġ6 9
lo nel
Ġbar g
anc he
row ing
si um
Î ¹
Ġti mber
et ric
ura ble
ãģ ®
ĠL akes
ile y
ĠD ress
Pl ace
ated ly
net te
ĠB ol
os ing
Ġemb r
AG E
Ġj unk
ĠS K
Ġin qui
Ġbl ade
h ony
Ġf li
ro po
Ġown s
um ar
vere ign
Ġac ute
Ġine xp
Ġte ens
ĠB our
Ġshi ne
? !
ĠCB D
ĠF ocus
Si mp
h h
Ġfre el
ĠF ried
m ay
Ġcle ans
Ġped est
Ġte nds
Ġb atch
h ad
ĠCh oice
ĠM ig
ĠB O
ĠL odge
Ġfl aw
E mp
ĠJ ere
Ġres on
ĠC itiz
se mble
p ath
ĠL an
ĠV ide
m or
ĠNe uro
ĠH ob
Ġf ridge
> .
ĠR V
Ġprop ag
ngth s
ĠE L
st airs
ĠP ul
Ġpri zes
ĠAd ult
OU R
out ube
ĠTer rit
Or gan
Ġworth y
rai nian
ĠÐ ¿
T ri
Ġsub ur
Ġdraw s
l ap
ĠBas ic
oc ese
b ay
ic ating
ĠL en
ort ant
Ġmem bra
Ġdo s
rau lic
T im
lo ve
igh ter
M ac
tter y
D E
ĠMar vel
d ec
Ġj ar
U B
D ef
oura ges
tw o
ĠHe ll
Ġper pet
Ar ch
à ®
Ġresi li
ĠA mend
Ġm aj
Ġj ury
s upp
Ġhi ke
ry s
Ġst upid
Ġbre ed
ens ed
uc le
C er
Ġ195 1
Ġtas ty
L ong
hes ive
Ġro ller
A ng
ut able
Ġm esh
raw al
ĠPar ks
Ġl as
to x
Ġcon ve
Ġdire c
ĠG ay
ĠC ob
Ġpe ers
ĠC E
ĠBut ter
ar ound
Ġsh ame
Ġreb el
is co
Ġl enses
ep t
ĠH ockey
ĠPi n
ĠN utri
ĠInte l
ĠD ow
ĠOf ten
com mon
Ġrid ic
Ġbad ly
ch an
Ġher bs
ĠAre na
le tt
Ġbr ass
Ġeth ics
Ġ7 4
ĠV ari
ĠTre as
Ġgri p
ric ks
ats on
p ine
vers y
Ġn u
Ġve gan
A K
Ġwhe at
Ġded uc
E mail
ĠL ost
ĠArab ia
ĠHe aven
g roup
Ġmis si
Ġfree ly
Go vern
ĠF ee
e ner
f ax
ĠC ad
cast le
Ġst atic
d rop
ĠBM W
gra d
l at
it ants
ĠVis ual
ĠCirc le
Ġ19 18
ĠS QL
ĠLe x
os ity
ĠF IG
ĠEx cel
Ù Ĭ
is ion
j ar
rat ul
h is
Ġst air
AC E
Ġco inc
Ġsum mit
ĠA er
ĠT ouch
ĠRes id
Ġnew er
H C
Ġf ossi
ĠF light
omen on
ĠI l
Ġir re
Ġmac ro
ĠL at
Ġbe ta
Ġbal lo
ĠP ine
ĠA id
Se lect
H appy
ac re
ĠReg ul
iz on
it arian
ĠS cript
ĠLi th
ĠA bs
any on
ĠR F
B ro
id o
ĠWind ow
ke eper
e at
eri ff
ĠE lect
D et
ĠK ap
Ġn ut
le ges
Ġdo t
A lex
ĠCri me
Ġve ctor
Ġ torn
Ġf ut
Chi na
lic on
ĠO thers
lectr ic
ãĢ ģ
ĠF ig
Ġth res
H ot
ĠBill y
te i
Ġb oring
O lymp
' <
ĠGri ff
ĠMe et
om o
Ġw age
ĠR ather
ĠR ic
S O
z ers
Ġpo le
ĠRi vers
rali zed
Ġshe ep
Ġ9 3
Ġat tr
i ac
12 5
b ably
ĠY orks
n ati
T T
ĠCamp us
Ġd airy
Ġrac ial
Ġres et
Ġline d
ci o
Ġf are
w al
tin y
Ġsc rap
199 4
ĠA ut
Li nk
Ġri des
Ġali en
C OM
C ri
F O
ĠEar l
Ñ ĩ
Ġno tion
Ġloc als
ĠSw itch
Ġsi b
p resent
Ġsu ng
Ġg est
um per
Ġpart ly
TH E
D ig
Ġbook ed
ic king
zu ki
ĠR isk
Ġfor ums
Ġk g
ĠL OVE
os hi
b ies
ox id
ĠT on
ĠL ap
d im
ĠFl at
ĠJ oint
st age
m ath
Ġdi vine
Ġli p
iz z
ĠUs ers
ID S
Ġper i
Ġtra uma
T able
Ġh ay
arter ly
w alk
Ġ8 2
ge ner
le ading
e ing
ĠT odd
ar ts
ĠI A
ke eping
G O
* <
amond s
Ġr ally
Ġtong ue
ras ka
ĠImp act
Ġle ver
ĠBe yond
Ġac ids
Ġm ice
Ġin aug
A li
Ġdec e
ay an
c op
Ġb ases
Ġf ont
V ol
u lin
Ġun ve
Ġre un
ĠBar ry
tig ated
F ore
ash a
redi ent
um ing
ĠThe ory
Ġg auge
R oy
cil s
ĠS em
our t
ter ized
ĠVir gin
Ġdeb ris
il g
are l
ĠGrow th
Ġ8 4
Ġ19 36
ul er
T unes
ĠDel ta
P erson
ĠK el
ĠRob i
Ġfor tun
Ġqu ad
Ġbal con
Ġin ac
Ġele ven
ĠHe avy
dri ven
Ġ7 3
ĠS R
ĠAg ent
ati al
N ET
ĠHigh er
Ġch rom
Ġcro ps
ĠSh ah
Ġhop ed
ĠDi et
Ġbus es
Ġrese mb
wh en
a que
lass es
Ġdis co
ux e
ĠI R
Ġph osph
y on
tit udes
un ted
Ġtax i
O O
ĠI da
Ù ħ
ĠCare er
Ġn ic
ox ide
Lab els
ali n
ĠD anish
c re
å ı
l ord
f ound
Ġon ion
Ì ĩ
ns ic
m ax
ed ed
ĠRet ail
Ġun ited
Ġhe lic
ĠId enti
er ness
ĠA RE
ĠS N
ri or
ĠNep al
h l
ĠR ES
Ġmar ble
Ġh os
ĠT ags
Ġcomm od
Ġk iss
ĠH az
Ġtr ace
W ow
Ġwa ist
ĠSupp ly
akes pe
ĠA round
ĠD M
ort on
k an
ak u
R ob
un ts
ĠGi ven
li gence
arch ing
Ġ14 0
ĠVi enna
Ġ19 38
ĠT ab
one t
Ġcomm em
t astes
iti oner
G C
Ġsa ves
ĠR A
as ia
Ġto pped
ĠEag le
Ġ19 14
Ġsp am
Ġwood s
g am
ĠNi ke
Ġpup ils
Ġland ed
he ets
N ame
S tre
Ġgl uten
ĠL anc
li ft
Ġmod es
ab el
Ġto dd
ĠGu est
resh ing
he m
US A
Ġfear s
Ġz ones
Ġc um
Ġ7 1
lo ss
ĠClo se
Ġbu gs
ĠS hip
Ġref use
Ġpast a
Q ue
fe ld
Ġgri ll
ĠTam il
Ġdi ver
le ased
ac er
L ook
Ġtemp or
ĠD im
L ive
Ġpool s
G en
ĠP on
ĠCli ent
g us
Ġner ve
se nger
ĠCh art
ĠRobi n
ĠT s
ĠSoc cer
Ġfl oral
ris ed
ĠâĢ Ŀ
ĠNot es
tr al
op en
ing o
ĠLa unch
ĠSe an
Ġl akes
Ġ tastes
ĠT as
Ġins ert
St art
Des ign
v ro
ĠM ack
Ġb ang
h ot
amb oo
Ġhung ry
Ġski p
ĠPl anet
ĠV PN
Ġti n
Ġ8 9
Ġ9 2
R ad
Ġcom for
ÑĢ Ð°
Ġlo ver
Ġam id
est y
Ġf lip
ĠCh rome
ĠR ental
ĠB und
ĠSp ot
line r
er ie
Ġob li
ĠS id
ĠR ice
ine a
Ġa te
ĠW orth
ĠL ights
ĠJohn ny
Ġsn acks
Ġc ric
T re
Re view
Ġbit ter
ĠBl u
Ġcom ed
ĠL arry
ĠX i
Ġbo asts
al ph
ĠM atch
Ġk ne
Ġimm ers
ĠG on
he et
l le
mo bile
ĠAd obe
Ġth umb
ĠJer ry
ĠHar bor
19 80
Ġg lor
ĠC ensus
Ù Ī
w elling
ĠBe th
m id
fic tion
lish es
ĠR AM
Ġtun nel
199 3
D B
U RE
Ġsac red
Ġsp rink
anent ly
af ood
ĠSt re
Th ough
Ġto b
ĠÂ §
F OR
Ġl at
and al
ex p
ĠA aron
gram me
oo ling
ĠTw i
ĠSt u
cin nati
ĠRac hel
Ġdeal t
Ġro lls
ac a
Ġ ts
ĠChi le
Ġfil mm
ĠCh and
Ġsn ack
ĠInd eed
n ate
an ium
om on
ati lity
Ġdep ot
Ġw ore
Ġn iche
bl ack
Ġle an
ĠN ag
ab ases
ens hip
ac ies
Ġex pend
Ġun to
ent e
ai ting
Ġp ork
ĠH ab
ĠT ol
pp e
ĠM ills
H R
c ot
Ġfr act
ĠC anyon
ĠApp ly
Ġan ten
ĠL ate
ĠClin ic
x it
Ġn ick
Ġcond em
? )
ĠR SS
ke ep
ĠJ ama
k ov
ti les
f olk
ä º
f ull
m ap
Ġst airs
V er
Ġbe am
199 2
ĠKe ith
Ġd ense
ati e
ntend o
ĠCan on
ley ball
Ġrob ot
po on
Ġd owns
ĠLe ft
arr ass
Ġkill er
ĠM ali
Ġfor k
Ġind uc
ĠSc ar
ĠO tt
Ġnurs es
ĠD rop
Â »
m und
ge nds
m u
ĠLo ss
or f
ĠT een
Ġvan ity
Ġ utter
Ġpick up
ĠK irk
ĠV illa
G R
ĠB ass
Ġlo yal
a uc
ĠLink ed
O p
ĠL atest
Ġ9 4
ĠR S
ang ular
ĠOli ver
Ġ19 37
m its
ĠC uba
Ġdu o
l arge
Ġsqu ee
ĠS le
Ġl uc
Ġfar ms
Ġcra w
Ġch ris
ĠTer ry
p ically
Ġ16 0
S il
Ġwe ld
Ġqu oted
' .<
Ġdis ser
ĠS F
ĠN ad
art z
Ġs ake
Ġthe ft
ĠNAS A
ĠC BS
AC H
N on
ĠPar ad
Ġcom ics
M al
ĠW ang
ph ant
ĠRet urn
ĠA mp
. [
ali e
che t
Ġme th
Ġrev ol
Ġw ool
Vis it
pro duc
Ġhe ater
b ad
áĦ Ĥ
M aster
B en
Ġdri ll
un ny
Ġpal m
ruct ors
to w
Ġ19 17
Ñģ ÑĤ
Ġcou sin
Ġse nds
Be ing
ro e
ĠW ing
Ġto ll
10 1
P at
3 50
vro let
v ors
abul ary
qu ake
Ġse wing
ret ty
ra ng
mi no
ke ley
S al
ct uary
sib ly
en tion
thi op
ĠG y
ĠHud son
ki ly
EN D
um atic
Ġmo net
ĠTar get
Ġdest ro
ĠSo lid
l ated
ĠGar age
ess ors
g l
Ġtra ded
y ed
ĠH oo
ĠN SW
Ġ 000
Ġas h
Ġbo il
T hi
M M
Ġsun ny
e ared
ĠP oll
Con ne
Ġhon our
Ġsp ine
ond ing
ĠSug ar
te lling
ph en
S U
Ðµ Ð½
ant on
M icro
au kee
Ġi Tunes
ĠAb u
Ġbe ars
p ub
Ġli d
chang ed
ri el
Ġ8 6
Ð¾Ð ²
H elp
Ġb urg
ĠL P
Ġpo ison
G H
zz le
Ġdo ct
Re f
chang es
ĠE mily
Ġglo ss
ah n
re ls
D isc
Ġno de
ĠO P
ĠR ico
Ġdi ving
ĠPer ry
ĠH em
ĠPar ish
ĠR C
Ġr he
ĠCamer a
L it
ĠA CC
ĠL ag
thri tis
Ġal to
ĠA ra
Ġver se
yl on
B orn
ĠAc ti
cont ent
lo e
Ġemb ro
Ġban ned
uff y
ai de
ĠNo va
Ġpip es
Ġbl ues
heim er
art a
Ġ8 7
Ġbra ke
j ective
ĠCont ro
Ġo s
tei n
ati gue
Ġrhyth m
B ox
ĠJoh an
ĠB ir
Ġth rew
ĠS ie
w ritten
Ġin fer
c lick
T D
Ġin tra
Ġch er
Ġat tain
usi asm
Ġdon ate
Ġfe as
Ġl bs
I ts
Ġon ions
t ec
ator ies
ĠWel sh
ĠW ords
ome ters
ĠE i
Mi n
ine e
AS H
ĠRem o
IN D
I Z
Ġpo se
Ġacc us
ph ere
ĠStr ong
Ġw and
S ign
H ouse
one n
enti a
ĠF ern
ĠP os
," \
Ġwar ned
Ġreg ret
Ġdi min
ĠC AN
Ġsto ve
Ġbur ned
W ant
on ial
Sh ow
ĠAl fred
áħ ¢
riting s
onom ous
ar u
ĠSw im
ĠA x
vent ed
ro le
ĠM t
DA Y
e ling
N i
ĠM ak
fi ers
ĠCl ar
ĠE gg
ĠSi erra
ĠTru th
Ġu no
Ġind ia
Ġaut umn
Ġfi res
Ġpill ow
Ġrus tic
ĠVide os
vi ting
ĠV a
G roup
e g
ĠCl are
ĠR ate
Ġname ly
ĠCh at
ĠK on
sh a
bo at
ĠF DA
Ġs ni
se ys
ĠD ia
Ġa ired
Ġ19 19
e ners
c ro
Ġpor ch
ĠF ili
pe g
iti ous
Ġn aked
Ġf ic
yc led
c ost
Ġsil k
O ld
m and
i nary
ĠM N
Ġre vel
A h
ĠUn til
ĠK aren
ĠDe vil
w as
199 1
um ed
tit utes
Speci al
De ath
Ġv aries
ĠS EC
G L
I d
is y
im a
F our
ĠH ood
ell ery
ĠC arm
Ġa ce
ri ll
Ġg er
Ġtu ned
ĠLe o
ra ints
Ġbar rel
bro ok
ĠHe brew
ĠMur phy
ĠB rain
Ġ7 9
Ġsh irts
Ġham mer
ĠT ac
Ġhas sle
Ġ19 10
me ga
pos ed
Ġl ac
ĠMor oc
ĠN aval
Ġan cest
ĠH app
ĠP red
Ġfor d
ĠCh ance
ĠFA Q
ident al
ti f
Ġoff set
Ġ15 00
n als
Ġlob by
Ġ19 33
Ġbri de
\ /
ID E
un c
Ġf lesh
ION S
B E
tin ct
Ġsa fer
M or
iling s
Ġl ane
ĠNor man
i nte
ĠL ore
ho le
Ġac ted
Ġ( +
ĠMil an
Ġsell s
Ġf ung
ĠBud get
ĠR ud
M s
Ġce ment
Ġpe nd
Ġc attle
ĠD h
Ġsoo ner
Ġti l
ĠPear l
ray ed
ow ed
M ari
ĠÐ ²
Ġcli ps
ĠS ens
Ġst ew
Ġg y
Ġexc av
Ġ8 1
Ġcloud s
Ġb aked
Ġb ree
ĠR ural
Ġ19 35
es ti
t am
OW N
ai nder
Ġmem or
g mail
ĠRem ove
f an
ĠP ump
on line
ĠE sc
Ġpuzz le
te ms
Ġ9 00
b ach
rid ges
+ +
amili es
ĠP oker
ĠM Y
Ġm p
em ail
Olymp ic
S F
ĠOr acle
Ð ·
N G
ĠTur ner
m ine
ĠFe el
IF A
For mer
fra me
Ġhar ass
Ġ )<
Ġsli des
uck er
uts ide
ĠM ai
Ġtwe et
di rect
ĠPri x
ard ed
T Y
C ome
ĠEx cell
lu x
A wards
ĠSh aw
w aukee
ĠN ico
An n
nd on
Loc al
Ġpro li
C reate
ĠS end
H on
ĠG or
ĠR ece
ĠG am
Ġh onda
P E
ĠLux ury
C ateg
b at
ĠK il
Ġmet aph
ĠH unt
ĠH ence
cri bers
Ġl ug
Ġg ospel
F lor
ĠO scar
Ġp anc
Ġresi gn
m ain
Ġg room
fi able
f ood
n z
ceed ing
Ġc oding
ĠHind u
iti s
å ħ
ar us
Ġtra des
ep lay
ours es
H and
ĠY ard
v ance
Ġp acks
or ous
ict able
Ġqu an
Ġ8 3
Re al
E nd
S ave
ĠLind a
E ast
D en
Ġabsor b
K ing
edd ings
ĠH ack
Ġfif ty
1 30
ĠWeek ly
Ġf ate
Ty pe
Ġaff air
ch t
ĠB art
ĠInte gr
m aid
- <
arch er
Ġ19 29
ĠZ oo
nc ere
Ġtra y
ĠJ ar
Ġhero es
li ps
he ll
ew ay
A ct
E v
ĠAd el
ĠNe il
Ġh ier
ĠM AR
ĠRes p
Ġtax pay
Ġsc ary
ĠU g
Ġg ly
ur st
, âĢĻ
Ġto x
b rand
ann on
lo gi
d oc
et ta
Ġg ad
ĠN orm
c amp
th ird
ĠSn ap
00 00
ĠRe i
el ong
Ġh ind
tom ic
m ag
Ġ ze
Ġare na
S ex
pl ane
ed a
ĠP D
ĠN u
ĠA W
ĠâĢ º
M ad
Res ults
Ġeigh th
Ġw ound
Ġb ust
M D
ĠáĦ Ģ
Ġmod est
ĠF at
um ini
ĠT ran
ĠV ar
ĠN az
ĠR aw
ĠX box
O H
b ag
ĠM iles
re lla
Ġf ond
Ġch ick
S u
gg y
Sh op
Ġre ver
ad os
ĠSong s
Ġp el
ĠC it
Ġmat rix
ĠP ray
ĠSho es
gart en
ĠG ospel
Ġdep uty
Ġcool er
al ore
ĠSt at
ĠC ather
ĠAu th
Ġst ap
M ic
Ġ3 65
Ġgl uc
k le
Ġan x
ĠOff er
ĠC able
ĠF oot
Ġe cho
k it
ĠTH AT
Ġdecl ar
rib utes
oc y
Ġp ile
Ġpar a
ĠQu ali
ĠCru z
coun try
Ġ ×
iz ers
Con f
ĠA A
ĠS ites
ĠS leep
ĠL GBT
c am
Ġw ages
nam on
Ġsc ream
Ġb ump
sen al
ĠWe lls
uck land
Ġmet als
W ould
Ġbr ut
ĠPro to
M iss
OU T
?? ?
ged ly
play er
w oman
b ai
" ),
Ġv ouch
ĠR ule
L og
ĠArab ic
N ever
Ġcan ada
ĠPl ate
v ice
L ead
Ġtal es
Ġfl ush
S am
ar se
Ġjo ints
ĠP ure
ĠW u
duc es
ĠLi nks
ens on
Ġd il
ĠV R
Sm all
Ġbl ast
Ð ¿
ni es
à¤ ¾
ĠSo on
sh ow
ĠM BA
Ġment or
M er
Ġsh orts
ĠF lex
ĠE R
b ig
Ġbar n
Ġres ur
ĠOF F
i at
aj a
u ate
ĠCar los
ĠChe f
St ation
Ġsk etch
ĠF ellow
idi ary
Ġdes p
ĠSt ream
ĠEm ma
ge tic
and ed
ĠInc re
Ġte as
ĠGra ph
ĠP T
Ġex otic
Ġ9 1
De velop
P O
C amp
n se
Ġ19 34
em en
ĠV ent
Ġf ri
ĠNo tice
Ġinc on
om p
ĠN BC
tr yside
st en
Ġp aired
uc tive
Ġsubs id
ĠH ours
ĠM ong
Ġst rand
Ġ \
ĠS aints
erv ices
g om
ĠW rite
ĠMo z
ĠON E
ĠMar c
o ting
s al
p ted
m um
Ġg host
or ti
ĠI ssue
ĠN ancy
Ġco zy
Ġf ried
st ation
Ġnum er
w ers
Ġc uri
ĠH V
Ġre act
O per
Mob ile
ĠDe gree
Ġdi p
ni tions
ĠV ista
Ġtow el
er ce
ĠA ld
as so
Ġsti ff
ĠF BI
St and
ĠB le
ĠÎ ¼
ĠS ERV
et al
ĠT ank
ĠPric es
o logies
fi nal
ĠN ine
ali se
Ġsh ake
ĠBlo om
w asher
Ġsw ord
May be
198 9
ĠFe ed
Ġch lor
ĠS eb
ĠM AN
com o
ĠC raft
En joy
Ġb ru
oles ter
re z
Ġgod s
an ut
col s
d ra
ĠHel en
Ġbes ide
k ok
Ġn urt
ĠN AT
ĠCom ics
ĠÂ °
br al
Ġ19 28
or ie
v t
Ġno tify
L ight
Ø ª
Ġf ran
whe el
Ġref ine
Sh ould
ĠTwi n
Ġre t
Ġtum or
ĠE xt
Ġc akes
Ġh int
enti ves
Ġf auce
ĠCot ton
T it
ren cies
ĠS ample
Ġp ound
ĠLo an
>âĢ Ķ
Ġc ine
Ġher b
Ġ ut
ĠW I
re ne
ĠM az
um en
Ġ ÃĹ
Ġqu iz
ĠH S
an cies
Ġ: )
p ublic
ĠF itz
Ġjo ins
ĠH oney
ĠRug by
ur dy
men to
Ġso y
ĠT ampa
d ess
op ic
ĠHer o
ĠW atson
ĠRog ers
ĠWar ner
Ġh iding
ĠS au
umb led
aff e
ĠSy rian
n ormal
W ood
Ġfra gr
ĠW ide
d epend
ãĢ Ĥ
> +
ĠMot ors
ged y
ĠMin or
fi ve
ĠChap el
h aw
Ġv enti
Ġcat aly
ĠMax im
ĠG ear
ĠRead y
M at
Ġre ign
Ġent ers
Ġmer ged
Ġ um
ats u
onic a
ows ki
old s
M ulti
ĠIda ho
ĠO z
Ġp olar
Ġdel ays
L ou
h ouses
Ġe ld
ĠC AR
ĠH our
ur ers
ĠMem ory
Ġfore x
F ood
ĠPen n
Ġbi as
ke ys
Ġse aled
Ro bert
tt a
c ano
Ġgra ve
ĠE thiop
es us
Ġp uri
r ub
by e
Ġn ails
ĠKar l
L and
ham mad
Ġsol ved
ĠA ber
Ġw allet
re m
R ight
umini um
ĠB A
ĠM ario
ĠH aven
st ed
ĠIs a
ĠBu ilt
ys ical
ra is
ĠBr us
Ne ed
s tore
Ġdig it
et e
ĠTra i
Ġc ables
B lo
se arch
le en
ĠDen nis
Ġline up
osit ory
ĠF a
Cl ub
ĠEss ay
Ġexc use
Ġhon ors
ĠH ang
ai ro
Ġanch or
ĠPres id
c up
ig o
ĠN av
ist ence
Con tin
im m
Ġfin als
r t
ĠK ir
F orm
tiv ated
ĠThe me
Ġvio lin
P H
ĠMed ium
Ġcor ro
Ġcyc les
Ġep id
L aw
amb ig
h all
Ġ18 00
ĠP ent
ish a
f our
old ing
on o
Ġad oles
Ġcalc ul
Ġi cons
ul ent
ĠSh ore
ĠRE AL
p y
f und
Ġch ic
Ġchi na
Ġpro j
ĠAny one
tis an
ĠR hi
j ay
bri ties
Ġje ans
ist le
Ġab d
Ġkid ney
Ġgr asp
ph oto
Ġli ning
Ġlast ed
Ġtra p
Ġfor ty
cess ors
rou t
Ġstri ps
Sh are
Ġwarm th
Ġrem ed
ĠPo ints
Ġban ner
Ġg aps
Ð ³
ĠBr un
ring ton
Ø ¯
ĠEn c
ĠB urg
U l
ud er
ut t
Ġsu pre
ĠC oh
itch ens
ar atus
Ge orge
ĠRep l
Ġle nder
ĠOtt awa
Ġlo como
å ¤
Ġste al
ĠTruc k
ud ge
ĠPl aza
Ġtre k
Ġboo th
ĠEag les
ĠHe llo
Ġhob by
us c
Ġgl ue
Ġun pre
g ning
ĠE speci
19 70
po ints
f ounder
p it
ĠL ac
App lic
e an
over ing
Ġw rist
Ġ1 15
ĠN y
R ock
Ġ20 22
u er
ĠPo ke
ĠC rew
ĠGu ild
Ġ19 32
am bers
g irl
F ire
Ġ Ï
ĠAC T
at ra
C i
tic a
tim edia
pati ent
ho lic
ĠSk ills
d owns
Ġra b
Ġro ster
Ġb oun
ĠB orn
Ġther m
m ati
Ġdist ur
s ong
ĠCh en
W eek
m enti
uc ci
ĠRan ch
Ġstat ue
ĠHon or
Ġco ordi
Ġrep ay
B rand
Ġcoll ar
Ġeng ra
Ġf ool
er ver
Ġpoor ly
ĠRe form
Ġneed le
en tive
ĠT aking
ĠG host
is i
l av
Ġsli ce
Ġli me
s hire
Ġfirm ly
Ġfar mer
G er
Ġ19 12
Ġf rench
Ġsid ew
Ġli qu
19 88
ĠOw ner
Ġb ap
ls on
min ster
Ġpat ri
Ì ¨
Ġup hol
Ġsc ared
ating s
Sh ort
m em
ĠW OR
Ġcap ac
ti ff
ĠBel le
h uman
od ed
Ġd ow
F ace
In form
Ġsl ave
f acts
IS H
Q ues
ac io
ĠM end
ĠAth ens
M ary
S und
b ly
R oman
ns hip
B ibli
Ġto nes
ĠPR O
mi ting
ĠPer m
ĠBe havi
ĠW ILL
ĠShe et
ĠW a
ĠE S
an th
Ġm ph
Ġende av
Ġy amaha
ĠS or
ĠSte am
ep s
Ġli ngu
ĠP aint
ĠB anks
Le ave
ĠA K
Ġg ates
ul ative
nezuel a
Ġg um
ĠMo vies
S till
ĠS aving
V A
ĠB li
Ġ19 16
Ġlo s
ĠT ak
Ġa ne
ĠTh an
Ġre vi
7 50
Ġl amps
Ġrad ar
ruc ting
n to
ĠHe y
ah l
R ail
OL D
Ġabs ent
Ġqu ilt
Ġless er
ĠS atur
ai m
ĠZ i
Ġ- <
hol m
qu ali
Ġprop he
ĠPh ase
Ġind ul
ke a
Ġ19 15
Ġo m
ĠE SP
Ġfle w
Ġy eah
d ue
Ġang el
med ia
is to
Ġjump ed
IM E
Ġle f
P I
ĠV I
Rel ated
ĠLi ons
hi m
p ic
ĠT iger
bo th
ĠCor ner
ent on
Ġsal mon
ĠJ et
ĠSp ac
ĠExper t
Ġm all
z ations
Ġg reet
ER Y
< /
fric an
Ġbra ve
gi ons
ĠN eck
re ns
op ard
P D
Ġrel ay
Cur rent
E li
Ġcand le
ĠVen ice
ti nes
Ġcha os
n h
ĠN H
Ġfr ustr
Ġbub ble
ish ops
Ù ĩ
ĠY ang
); <
Ġ19 24
Ġstic ks
Ġp c
Ġjo ke
ti de
Ġg inger
Ġpan ic
ĠBB Q
Ġb ore
ĠN A
b ath
Ġde er
ĠSh ower
Ġi di
Ġp ads
ah u
o T
Ġvi able
ĠB onus
Ġthem ed
ĠR T
ar ctic
oo s
S K
ti no
Ġz i
Ġch ore
ĠEx po
V ill
ĠSU V
ĠCP U
ĠEn try
IS S
Ġb ake
ch y
i ently
ĠÐ ¾
ĠN OW
ĠP E
ĠIn j
Lit tle
Ġbuck et
Ġthe at
ĠS MS
Ġev ac
f alls
ĠR ena
F I
AT A
Fri day
T en
Fi nal
à ¹
Ġcon gr
ĠO wn
ĠL amb
ĠS ara
Ġ19 27
mi nded
Ġup s
ĠWi Fi
ĠPer iod
ĠL ud
bo ys
j ob
Ġp umps
ĠF ortun
Ġsle eve
es ity
B T
Ġe books
si l
ĠC ass
ĠTy ler
H ope
ĠFish er
an as
on st
Ġox id
ĠTig ers
phi es
ban on
ĠF E
Ġp edi
s ch
Ġthri ve
ĠM ale
d r
Ġal ph
i tol
Ġl amin
ain ted
f ocus
li o
Ġg ems
Ġ19 31
E r
ĠFle et
lect ors
u th
Ġdo ck
T our
ro lling
thi nk
Ġs el
gh ters
ĠW aste
Ġeat en
Willi am
si m
Ġfai ry
ĠP HP
rali ty
gg ies
ak y
w p
w en
ĠLi f
ĠMo ving
tail s
ĠV as
AT H
it ure
Ġsc am
e astern
osi um
ĠáĦ ī
ĠTrai n
ĠS ell
mo tive
ĠZ en
d al
Col or
Ġch erry
bour g
B D
lei n
ulli van
Ġbo om
aster y
ĠCy ber
le ne
Ġf ame
Ġmet rop
ph is
AV E
ĠB omb
per form
Ġgli mp
f ox
b ine
ĠAl pha
te nder
Ġh p
Ġy e
Ġ umb
lest on
bec ca
Te am
ĠTi bet
ĠRep ly
ĠHugh es
char ged
licit ly
Ġar c
Ġwash ed
sp ot
Ġthro at
Ġtri be
Ġh orn
Ġc ope
ind ex
oo ter
st orm
W E
ĠE c
oub ted
lo p
OC K
ĠG L
Ġco ne
Ġe Bay
ces ter
ari zed
, ,
Ġrow s
o bs
Ġsun set
Ġm it
198 7
ĠC ateg
ĠX P
Ġden y
Ġ19 22
Ġb od
Ġ19 11
Ġb acon
an ia
ĠSac ra
ĠCar bon
Ġd amp
IN T
ĠEli te
Ġsk irt
Ġp ap
ĠShi eld
gom ery
18 0
Ġmar sh
pir acy
Ġal lies
Ġm u
ĠL iz
p oli
Ġs illy
ĠG RE
Ġfe ver
ĠHy dro
S ervice
F ran
role um
x es
B ur
Ġ4 50
ĠHar vey
Ġci n
AN K
gie ne
j ab
L ondon
ĠV IP
uri al
Ġderi v
[ /
bs p
Ġmon i
ĠC reat
ĠNe igh
Ġ vel
ĠN HL
Ġ19 25
es peci
Ġpred ec
ĠFlow er
ĠDo ors
Pl us
b lock
Ġno ble
Ġun cons
Ġpic nic
J ew
Ġ10 5
B ob
ĠGh ana
ass is
f ar
ĠSer ge
Ġfe eds
Ġqu il
F rank
al one
r ants
Ġpix els
ĠJu lie
Ġast ro
Ġp ian
are ttes
ĠK ick
Ġan ime
Ġdry ing
ĠS mo
pan ic
S ources
ĠN HS
ath i
j s
D ue
Ġc d
Ġm elt
Ġri gor
l ane
ens is
ĠD ial
po ke
Pe ter
Ġrem edy
Ġreal m
ec urity
ĠGu itar
Ġslow er
arm ing
ĠDi pl
ĠC ake
16 0
Ġbeat en
Ġbund le
Ġst ats
sa fe
Ġass ure
ĠR ush
Cl oud
ĠW ash
Ġour s
Ġsy nc
m are
H istor
ĠN azi
k k
OV ID
Ġemp ire
Ġsp y
Ġrib bon
ĠT ours
ĠCar ol
ĠS r
ris k
Ġso cks
Ġ lymp
Ġ19 21
Ġstra p
ĠS ew
Ġdrag on
EN TS
id ad
ĠRu th
ĠS ant
gar ia
ĠA vi
ĠPier re
Ì ¦
ĠPer th
ĠCh ase
th ood
Ġhas h
Ġshi fts
ts on
Ġc ad
Ġvir al
Ġth r
ĠPro s
ĠF irm
ç Ķ
Im age
ĠGo ing
a tics
fin ity
ĠC ities
Ġpo nd
ĠM ans
qui n
Ġrel uct
L uc
ĠáĦ Į
Ġshe er
Ġpast or
ĠLe eds
n form
Ġinv is
ĠBe er
Ġor th
Ġdry er
od s
Ġag rees
ĠI RS
Ġhead er
Pro duct
C M
ruc tive
ut ory
ĠI g
ĠBl ake
ĠNew ton
t attoo
u to
the tics
Cus tom
D el
ag le
ĠDan ny
Ġ2 20
ĠBi ke
Ġsc ent
Ġl asts
Ġre he
Ġuni ons
ĠO re
Ġ velo
ĠAr c
Ġde fici
ĠH arm
Ġsex y
ĠC ock
Ġn ap
Ġtub es
on ne
Ġno ting
ĠFood s
Ġamp le
198 6
Ġ19 26
Ġro pe
>âĨ Ĳ
Rus sian
ĠW ays
fefe fe
ĠSh adow
un ks
V R
Sc ot
mod ern
ĠAud i
ĠGian ts
ĠDi nner
Ġurg ent
ver ages
le tin
h n
mar ine
k ward
ĠLe gend
Ġbe e
id al
ab we
ut ton
Ġsc ales
s top
id as
Ġsp ices
ri l
u v
s tone
n us
re a
Ġrock et
L O
Ġdraw er
ĠMoh am
Ġsha ft
Glo bal
Ġam azed
Â £
K now
Ġn ons
) -
ĠRec re
ĠGu inea
Ġsh y
Ġabo ard
Ġfor b
ĠA chie
Ġver b
ĠKind le
ĠPot ter
pp le
Ġche es
D M
qu o
S N
G P
lip se
rag ue
si ans
ĠS aw
Ġapp ren
Ġra ises
ĠBut ler
i ntend
Î µ
Ġj ohn
ĠD raft
It alian
Ġtrick y
W al
ĠBeng al
å ®
ĠMod i
Ġcan al
ĠL ion
ĠA us
Ġs ang
ĠBre xit
vis m
ĠM M
ĠR ai
Ġgu ards
ĠFor mer
ĠN Z
j et
Ġsp ite
s ay
nd y
L ine
ĠT W
Ġfil med
Ġp est
Ġa ust
ĠC ord
ĠN avig
Ġfl or
ĠR M
Ġine ff
ĠPet e
ĠVis a
Ġ19 23
Ġapp les
em e
o ss
Ġres c
Ġcri min
id enti
Ġk ay
Ð ±
ni on
M ajor
Ġbe ats
ĠS orry
tle ment
Ġal mond
Ġexp res
a gh
z el
AN CE
ĠCom par
our cing
pi no
ig an
Ġdi alog
198 5
ven tive
par ts
Ġre vers
J ack
ĠBo at
Ġm ilit
es te
on ies
ĠZ ero
ĠM ental
ĠW rest
T or
Ġra tion
ĠX L
ĠR osen
Ġobs c
Ġten ure
w riters
m med
G ar
âĢ Ĳ
Ġmar ry
Ġwh i
ĠBro oks
od ia
áħ §
ĠS ai
ĠE ston
ĠPi x
Ġst urdy
me ter
n at
Ġph ases
au er
zz y
ĠE ST
ts y
he nd
ĠApp s
ĠBas i
G ive
ĠR alph
P ER
Ġp ussy
lo v
A ni
ĠF lu
urs hip
T ry
ĠJam ie
imb abwe
ĠB T
, '
ĠCan al
Ġf iring
ĠF oster
ĠJu lia
ĠCh ain
D oc
ĠCh es
i nform
ĠSu ff
Ġtra its
ĠC SS
ĠB ib
rac tic
p rus
Y eah
d ata
Ġgre ens
Ġcan t
Ġbe lly
Ġtur key
ll or
ĠW ag
b ial
ĠMun ich
Ġfr ank
g el
r r
d le
Ch oose
B log
amp agne
Ġcom bo
ĠWe i
ĠY eah
Ġm igr
Ġwh it
Ġmor ph
Ġ| <
Ġbro th
.... ..
ĠI van
Ġc ents
Ġbro ch
Ġo un
Ġse w
áĦĴ áħ¡
Pl an
áħ ¦
ĠAsh ley
go vern
Ġre ass
ĠL ed
B ase
yle ne
ĠN am
Ġsp ice
one st
ok a
Ġ. .<
ov ic
Ġ tattoo
ĠP ill
. ).
ar re
B ER
vi er
us ters
ĠD ale
ĠG aming
198 4
ĠGra m
f re
ĠAh med
Ġri der
ĠÐ °
z one
be it
hil st
ĠS we
ha ppy
ĠD A
S tra
oi nting
ĠStu art
Ġexce l
Ġdead ly
B er
g ies
ber y
ti ner
Ġcream y
ĠL aser
ĠR ew
ĠAl most
Ġp ills
Ġ19 13
ici ency
ha us
Ġconc ur
Ġkick ed
ĠDes ert
Ġno on
ĠÐ ¸
Ġp and
ĠBar n
pe ts
ou ting
Ġwa ited
ĠTr us
ĠE UR
ĠL loyd
bb ing
Ġsequ el
t ari
ĠMo tion
ond s
ĠLo ts
ĠPl ain
Ġm ate
Ġ1 12
xt on
Ġ10 2
m ist
ĠUni que
Ġve t
L ow
Ġb ible
ord able
op ath
lie f
Tag ged
nd um
Ġwe bin
ĠLe af
li de
ĠInst ru
li ter
Ġto e
ĠMP s
ĠJere my
ĠLaure n
ĠB ald
ĠT ot
Ġgl am
ĠA Z
Ġax is
Ġglo ves
Ã Ł
Ġpe el
ommend s
ĠB uch
our met
Ġwi res
o tion
OR S
Ġfree ze
ĠâĢ ł
li ssa
st ad
Ġmid st
N OT
ĠDe fe
w agen
avor ite
r als
ĠCele br
ir us
Am ong
ĠðŁ ĺ
Ġf led
ĠB end
iti oned
ĠE val
J im
sh ots
ĠSti r
ĠF IFA
Ġc el
AM E
Ġgri ef
ãģ ¦
Ġun ity
V E
Ġne ur
ch ard
Ġbas i
ĠC raw
ason ic
Ġrou ter
ĠG ill
P DF
d ates
ĠI ssues
ĠAl z
un ters
Ġsc roll
Ġmo tors
Ġw itch
gra ting
b ud
ĠB og
ult an
C y
Ġim mun
ĠV M
Ġby pass
ĠTre k
Ġ18 90
ĠM ode
C ard
ĠFi f
ch ant
le vard
Ġbe et
ĠG ru
Ġ: :
Ġst ain
áĦĭáħ µ
ä »
Int ro
Over all
pl aces
uine ly
Ġti er
mo logy
Ġmi nt
s an
erc ise
uck ed
ĠT ask
F ig
u h
ĠL CD
ĠSp ider
ĠH ire
us ions
ĠS ue
Be low
Ġyear ly
tic o
Ġuns uc
usi asts
enn ai
ah an
Pri or
ter min
Ġretri e
ĠIN C
ne ts
ĠJu ng
ĠK yle
so ever
velo per
ĠB eck
hel med
Ġsy rup
f illed
ens en
ĠRe ed
Ġth ir
ĠI tems
G rand
er tion
Au to
loy ed
ĠLuc as
Ġur ge
Ġlay ing
ĠG DP
ĠE di
ĠS AP
st art
ĠCon ver
I K
Ġplas ma
ĠCou p
Ġhere i
end ers
zer bai
tig ator
Ġski ing
ĠG ang
ond ents
ĠHe ath
Ġcl ue
Ġs na
ĠHy per
p ark
ĠFer r
ir ls
Ind ia
om ens
Or der
P ack
ĠD aw
ĠJ a
s ting
ress or
The ir
oh yd
ix ed
rai rie
ĠS ame
ĠS ax
any ing
B al
ĠGu aran
ke ter
ĠCand id
F iled
Ġpat ron
ni val
Ġinf ant
ĠL or
Ġsoci o
F P
ĠC isco
Ġang les
Con st
Ġresp ir
ĠFore x
ok en
ĠKit t
ä ½
th ma
bur se
at che
hy d
an ic
rag on
Ġhigh li
as aki
ĠP O
ĠJoh ns
ĠPo etry
" ).
Ġli fted
is ons
Ġ: )<
Ġv oy
vid ence
w s
fric a
am o
ĠT ap
no ver
Ġview er
c aster
R ay
ĠW AR
ĠCom ing
se en
ĠA nge
ble ms
Ġv ar
r ator
am ount
Ġbu zz
j our
ĠP and
Ġg em
Ġemer ge
Ġcrow ds
st a
ĠK Y
ĠLyn n
ĠM LS
c ra
Ġpal ace
read s
it ars
ff ield
W ed
> **
n ja
198 3
Ġherei n
D an
ĠL G
a ned
n stein
ĠR aven
gen ic
li na
power ed
ĠM old
pre ted
Ġd ar
Ġvill a
co al
ĠG E
ĠBob by
ew atch
ues ts
Ġ7 50
ĠD IS
Ġco ated
ĠMah ar
ĠV lad
ĠK ill
Ġas leep
ĠAr ctic
st als
Ġbul let
ĠW ake
app le
Ġtri bes
Ġlo l
Ġy og
Ġref urb
Ġ( ,
ĠCal c
p arents
ĠForm at
ĠFour th
ess es
ĠFl ag
ear t
Ġsub mis
ĠG ai
ing e
F ar
Ġ3 000
c f
Dig ital
s l
ic hi
Sund ay
Tra vel
Ñ ħ
s ort
al ysis
Ġpure ly
ed uc
Ġn aval
ul s
ĠU TC
ĠCru ise
ãĥ ¼
ĠN W
ĠM aps
uff s
ĠInc ome
Ġaw ful
ĠPi pe
æ ĸ
ĠP apers
ĠHind i
Ġten ant
Ġmem oir
T otal
Ġun for
ĠL ect
ĠFR OM
lipp ine
ĠDra ma
Ġso da
20 21
ĠK or
li ch
ni zing
ĠL INE
Ġc ran
Ġesc al
S ar
velo pe
Ġscen ic
ĠM ich
Ġwas her
ĠY ahoo
ĠG ym
ĠD ell
> ,
ĠLu is
sp ace
Ġf og
St arted
is ers
ĠW iz
ĠR aid
Ġfix ing
p at
M ade
Ġcr ust
ph alt
ĠAll ah
ĠT E
% ),
Ġ19 08
ĠK oh
ĠB less
S QL
u ant
Ġpro ne
Ġar row
aw ays
ĠOcc up
Ġ18 80
ĠM aur
Ġsens es
ĠE ither
ĠW ave
S everal
M ini
Ġign or
Ġbo iler
Ġno des
ĠK ai
ĠMos es
gg er
ĠU I
Ġgra ms
ĠSte i
ĠH orn
ĠM ut
Ġpun ct
ed ic
Ġy arn
names e
ĠSy l
umb ent
n u
ĠLem mon
ĠB elt
ĠPan ama
Ġjer sey
l asting
Ġfl ame
Ġra p
ow ers
M a
Get ting
ot or
Ġlo gs
clai med
Ġm ines
yl an
h p
ĠV ine
Ġmer ger
ĠDer by
AR Y
Ġran ch
ĠHar per
Ġpi lots
los ures
Ġrec k
Ġkne es
W orking
Ġbe ads
N O
Ġinc ons
Ġeli gi
S orry
mir al
Ġhung er
ĠG em
ĠMir ror
Ġcar ved
or ro
Ġarg ues
N ice
Î ½
per ity
ok u
ĠAb bey
sm all
aw i
ic ting
B el
li an
cept ual
EE E
tit uted
Ġsp icy
lo dy
ad ers
ĠB ak
und ai
ĠHV AC
ĠSw an
Ġac ne
ĠAl ban
ere k
Ġi i
Ġdec ay
j ah
ed o
ĠDog s
Ġz oo
fer ring
Ġsou ls
ĠC ott
ir ate
Ġpupp y
Ġlad der
ĠW ear
Ġni nth
ĠA TM
Ġf erry
au th
ĠF emale
âĢĻ <
y ards
Ġlive ly
C at
ĠSe ts
Ġmark er
Ġb ishop
Ġm um
ĠT rop
Ġdis rup
Ġl azy
12 3
ĠA me
Ġcul min
Sp ring
Ġcan on
14 0
tit or
h at
Ġn ucle
ĠPay Pal
Ġcare gi
Ġunf air
ro ts
ĠTro phy
ĠF O
Ġ å
Ġn our
ĠCh o
H en
Ġpi v
T ex
on ts
ick er
Ġb ail
Per haps
ou x
J un
ci li
ĠD ual
field er
V I
um bs
ĠJ ake
Ġun av
nit ude
li b
Ġp seud
4 50
c ross
ĠV AT
Ġmo ck
ĠBry an
ys on
Ġpo lish
ĠSh ot
Ġmater i
Ġk ills
IG N
ould er
Ġdon ors
Ġsw ap
Ġm ali
ody nam
â ĪĴ
ĠCh erry
lic an
Ġl ace
ĠBur n
sty les
ti tle
ĠL ing
Ġmed als
id en
ill o
Ġmar vel
ĠIsa ac
Ġorg ans
ĠSy n
uc tor
ĠH ug
D ate
Ġpar ade
ist ani
u ations
ĠAd just
al an
bu y
Ġre vis
em ption
ĠCar pet
ul sion
Ġcol ony
ne th
Ġcond o
Med ia
L ater
Ġgen ius
ĠW ool
ĠFab ric
ãĤ ĭ
Is ra
ĠSo x
ph an
Ġsub di
Ġa ids
ĠRem ote
C AR
amp oo
IC S
ach ment
10 5
Ġhum ble
Ġfossi l
Ġl b
f lu
ĠSer bia
ĠH ospit
Ġse vent
ĠRes erv
Ġrug s
inc ome
se min
ĠR ide
ĠHo lo
f lies
ms on
Ġn avy
ĠLo ans
Ġdes ce
ĠIs le
Ġst ati
C r
S k
Ġp s
ĠS Y
F E
gh tened
ĠT M
b ishop
qu are
ĠW aters
od er
Ġ" <
Ġdo d
ĠB ug
ĠAv oid
est a
l ag
S ummer
Ġsw ift
Ġhe els
val ence
! ).
c orn
b ags
ies el
R un
gh teous
Ġdeb ts
Ġth ru
198 2
por ates
Ġdi y
St ay
head s
Ã ¦
K en
Ġ10 4
l ain
Ġcr unch
ell ar
ra di
Ġsp oon
Ġs ulf
Ġint act
ai res
Ġu gly
P age
23 3
ĠK ash
Ġ `
sy stem
aj i
ĠAng els
ĠO x
Ġpack et
D ER
Ġpo ets
le gi
G ame
ĠMic he
ĠAll ow
ve ling
T I
ĠB ach
ĠB U
Cent ral
F re
Ġf usion
ĠTen nis
ĠKe ys
ĠN issan
Ġac re
Ġat ten
Ġre im
Ġfl uct
Ġpen cil
vak ia
ĠSh ar
ĠE VER
g reat
ĠM am
ĠH amb
Ġbal lot
Ġso re
EN S
Ġi ter
h ed
ol ence
Ġd ign
ent ry
ĠU AE
19 60
ĠX ia
ov o
oll o
ace ae
ĠT ile
Ġbur st
Ġir rig
avi lion
s cience
ĠF ron
ĠP am
Ġmix er
ĠAr nold
b ee
ĠG and
en za
Ġris es
ter o
Mi ke
C ali
ĠIn to
Ġhous ed
B es
agra ms
Add ress
st ance
ĠDev on
Ġmet ro
to es
Ġ tari
im ir
cy c
P an
Ġd ull
pher d
rid or
M id
b ecause
Ġpre cip
Ġki nder
Ġs ax
Ġtail or
ac ion
Ġli g
Ġc ache
so cial
Ġfat ty
Ġbl ur
aus es
bio tics
T em
ĠT ip
y u
ro d
ĠB I
co logy
ĠN athan
ĠFil ms
ne ck
E m
S um
ul ously
Ġpri nce
Ġplane s
Ġ12 8
Th omas
Ġch rome
H ard
ĠA way
Ġcl ause
ĠP ie
Ġc ares
ĠC inema
Ġgra pe
Ġpi ns
Ġtr unk
Ġf lies
Ġ tam
Ġd read
Ġso dium
Ġri fle
Ġst al
Ġsli m
A ud
Ġd ol
Ġa mino
vi nc
ast rop
mont on
ĠK umar
Ġan kle
ist ries
ple x
Ġmi lls
ĠT ang
ant ra
ĠCo pper
S B
oo f
as c
Ġ24 0
Ġbul bs
ine es
ĠY ale
Ġci alis
th ree
Ġbra kes
T ON
ĠD od
mi e
ro ads
ĠD y
ĠS ed
Ġsh red
Ġgl ance
us ty
Ġy a
Ġpul se
ĠB order
Ġrobo ts
Ġw rink
Ġspi nal
ĠTom my
E asy
Ġe urope
ĠWho le
ĠDa wn
AN G
ĠTh u
br ush
ade qu
ĠT ub
You ng
19 79
Ġass ump
ĠN M
Ġinv it
ĠLad ies
Ġbe es
Ġh il
Chi nese
J P
ave nder
Ġfo il
em atic
at ta
ĠSt amp
ven ant
Ġs ab
ĠP ER
ens ing
Ġrit ual
ra ined
Ġblo wn
Ġtri o
ist on
ĠG roups
tom atic
ĠBat man
OL L
Ġc ass
ĠEs sex
ĠUg anda
ĠGrand e
Ġh ose
P ut
Ġbree ze
Ġ1 11
ĠCy prus
ok ia
ĠH T
ĠApp e
Ġdark er
ĠCo x
cel ain
A Z
J ose
ĠW are
te am
vide o
Ġcru el
K i
Ġtre as
ĠW R
Â ·
Ġemb ark
st ruct
cious ly
Ġj ung
osp ace
ĠSt atus
gu ing
an mar
Ġbul b
us a
ĠA i
Ġvi vid
ĠT ul
ĠR ams
ĠÐ ½
Ġdo i
g re
Ġbi om
yl um
ĠE PA
ĠGi fts
ang ered
ĠPal mer
ĠN V
Ġv oid
ĠObs erv
W C
W D
áĦĭáħ ³
S ty
Ġm aid
ĠØ§ ÙĦ
) :<
Ġwar mer
ĠK as
lai m
Ġne phe
ace y
ĠSand y
a ut
ĠFran c
f ur
Ġsle ek
ili ary
Ac cess
Ġfra med
S mith
ĠB ali
v ory
Ġtow ers
avi er
3 60
z hou
ĠBro s
at y
Ġhe el
or ative
ug os
Ġpro ves
amp ire
ĠH ale
ĠCom edy
Ġbe an
ĠM ile
ĠP AR
ĠB ears
ĠTri ple
ãģ «
Ġh ats
Ġso lic
ci als
" ;
>Â »
ĠT ut
Ġ19 05
Ġme lod
Ġre per
g ae
i fy
Ġm ane
ustr ate
Ġcub ic
Se ason
Ġfi ghts
Ġc auti
ĠMar cus
igh ters
por ting
ows hip
look ed
ou p
ĠA ce
let ters
Ġn as
de al
Mod ern
ĠHe i
ur as
Ġno od
Ġre sin
on al
Ġeven ly
C ON
Ġal erts
ĠDoll ar
she et
he y
Ġdon or
198 1
Ġsi ns
ĠRec ent
g t
Ġci vic
Ġshi ny
Ġdr unk
d ict
C ross
ĠQu otes
à ¶
ĠRes cue
ĠA ub
ĠJo an
Ġge o
ns ure
l ab
ĠRh ode
Ġli tter
S ubs
ĠM ond
ĠEst ab
pe lled
A nal
ĠLuc y
ĠK end
ĠDe uts
D O
1 15
Sp ace
Ġex emp
st ri
Ġpo ts
Ġor din
ĠN ut
Ġsh out
p us
ec ies
ay ette
Ġm ould
ĠEd die
M ENT
Ġch ase
ĠPur ple
Ġform ul
di ed
ĠDec k
ub ishi
ti fying
Ġline r
Loc ated
ĠMe g
Ġin ver
ĠStei n
M ass
Ġco sm
Ġa us
ter ing
g ard
OS S
Ġpay day
ĠH O
Ġevol ve
en os
al am
Ġst ems
Rich ard
C ra
P lot
H E
ri ghts
tion n
sh irts
st ead
Ġsc ru
P rom
el li
Ġbad ge
Ġline n
arter ed
M ap
ard ing
fi ning
Ġcho ir
E ff
ĠL amp
ac tic
ĠPy thon
her o
AN S
Ġsal on
ĠG ates
ro v
ĠY i
Sp anish
Can ada
Ġre min
ĠC olin
Ġdys f
Ġgu ilt
en cia
ĠP om
ĠLaw s
ĠP izza
B ill
cu ador
ĠJour n
Ġind o
ĠAdv oc
ĠSp ark
resp on
ĠH ook
lic one
Ġir reg
Ġur ged
Ġau tism
c ott
F riend
â ĸ
ĠBai ley
Ġfat al
enti eth
f air
Ġgen res
Ġsp lash
le te
cl ub
ĠG ali
ĠMar ti
ĠM ORE
ĠFi x
P rice
per i
ĠCh uck
Ġcry ing
Not able
ĠT D
un ar
leg ant
stan bul
Ġle ap
ĠK ur
Qu ick
ĠN as
Ġlo gged
ose x
Ġtor que
Ġde pri
Ġbasi n
m os
ĠN urs
im age
Pro ject
si g
L arge
ĠLi ves
ĠA U
c ents
h or
Ġtow els
omb ie
le vant
ĠR ica
ni er
ĠM ang
U AL
Ġgra ins
å Ī
ĠRet ur
US E
ĠPro phe
health y
Ġpro be
Ġm uff
Ġs ati
Ġimp air
ĠC ave
ers et
ĠB uc
Ġto ken
sc he
aret te
?âĢĿ <
S end
ĠTer m
to ire
ĠH M
Ġ19 06
f r
Ġpro xy
lid ated
Pro per
) )
ĠCl aire
Ġd uck
ĠP ull
Ġm anga
ĠW ai
u alized
ĠB od
We bsite
Ġsi e
Ġcy to
U r
ĠU T
ĠLi by
ar c
ĠBe lie
Ġphi lan
ĠMc L
C ost
Ġhel met
Ġl ush
ĠSal v
man uel
ĠF lying
tend ing
enni um
ch at
ĠMari na
A w
Ġf ax
il let
ĠAm anda
ĠBar on
sw ick
Ġri vals
ĠAff ili
Ġpan or
AT ED
ni zes
ra ys
ĠSc ore
Ġw it
ĠHol mes
Ġbe nd
Y S
10 2
Me et
Ġp H
M onday
S cript
ho g
ĠB ing
one er
ord e
us hi
Ġrep lic
ĠSlo ven
Ġst amps
Ð½ Ð¸
ĠD ru
ec tious
D eb
ĠD one
p apers
s ource
ĠSe at
Ġan ne
p se
e z
ition al
ĠiP od
Sm art
mi ni
f en
oun ters
ĠGene va
ĠDi x
Ġin puts
19 78
ĠE sp
aur us
Ġ( ),
ĠO EM
ĠRock y
ator ial
ĠD ame
Ġflo at
Ġcur ved
w ig
P en
w ent
ĠY o
Ġj ap
Ġpix el
Ġa erial
verse ly
Ġ( @
w right
ĠUn less
ĠDep ot
Ġyield s
Ġh ints
Ġ }
art et
Ġper mis
ri ka
ĠG az
ĠJosh ua
tr on
N ov
Ġlo ses
Ġch ron
ĠP end
ĠF uel
Ġmass es
Wind ows
Ġclic ks
Ġexp ose
ĠCh ad
ĠS ang
ee th
2 20
v s
Ġi tiner
ĠD odge
aval ry
Ġscrew s
Ġ19 07
uff le
Ġme g
ĠG D
ĠE llen
Ġ19 09
à ·
ĠCoh en
d et
ĠSus sex
ĠR ear
Ġthro ne
ĠRe ve
ĠO live
c lock
ider y
ĠP rague
ĠK ee
Ġfi erce
Ġbl ades
ĠG U
G T
Ġm im
Ġslic es
; "
es tic
ĠW oo
ĠClar ke
ĠCN N
Ġsus cep
Ġins uff
lit z
a ner
ĠRead er
vel t
e h
c ope
ĠT all
omen a
å Ĳ
ĠG C
ag og
ĠB oot
As k
is en
Ġev ange
E conom
Ġscr ub
Ġs or
mark ed
ri de
h istor
ĠN T
ult ancy
e tic
ĠSw ift
me tics
ĠB oli
ĠON LY
Ġb amboo
ĠDr um
ĠGe o
ĠDi vine
ĠDur ham
mit ter
P ass
ĠKer ala
S ongs
Ġam azon
tre ated
Pri vate
Ġte les
Rad io
Ġdi n
M AN
n ters
Ġsa us
lli on
conne ct
up unct
g reg
à¥ į
ub ric
Ġaim ing
na e
Ġend ors
t read
si ns
ĠE ther
Ġlear nt
or p
bl ue
ri ages
ĠB ark
ok o
t et
) "
Ġpull s
ĠAl co
ĠC ork
umb ling
S ection
am y
Ġ12 00
az er
graph ed
ĠP ly
o the
Ġve ne
AL E
Ġre ef
ĠJ ak
ĠLou nge
ĠBr ush
Ġsu ites
Ġeff ic
ĠW riter
ol ph
ĠMal ta
e very
Ġ17 0
ĠC ay
ĠF ut
tr ue
Ġper ce
ĠD uty
m illion
ilg rim
ĠSy nd
ĠC og
ort ment
Ġwish ed
ol ve
D aniel
m ake
r ong
tur n
Ġ10 6
ĠP retty
ĠCh er
ri o
and ers
ĠR at
Ġ( ;
Ġcr ude
si ne
it ated
Ġb ored
ĠGlo be
n ap
Ġl amb
f ill
Ġsk et
nold s
ĠC hip
aken ing
Ġmer cy
19 77
Ġmi ns
Ġbu ffer
ĠR eds
ĠMar x
ĠBrow se
es to
E vent
qu ency
ther apy
ĠSp ons
vi na
Ge ne
Ġdro ne
Ġrele g
hel p
Ġli mes
ĠF ear
h arm
A I
Ġi on
A sh
Ġr at
mit ting
Roy al
us tion
Ġ19 01
pur pose
ĠSeb as
M aking
orti um
Ġte e
AB LE
Ġexc ur
Ġ18 70
ĠR ah
Ġ :<
z ard
áĨ ·
fect ure
ath a
Ġco co
Ġ _
ĠMen u
th am
Ġb ure
F un
ks wagen
Fil m
Ġce ase
c ock
Ġchi rop
rac tice
ĠPort al
ĠDis p
Ġre ject
ĠP orter
ĠIn k
Ġgift ed
Ġrig id
Ġstre ak
Ġ19 04
or ph
nc or
H u
craft ed
ÑĢ Ðµ
n ick
enh agen
ĠD ash
le ged
Ġpro po
ĠDe als
es i
g ran
ch urch
vel s
it ary
Ġopen ly
Ġop ted
19 75
ĠTri al
ĠGre ens
ĠBen ch
ca ust
Ð ł
Ġ ]
Ġthrow s
Ġappro x
Ġa ston
H am
ĠD B
ĠB S
ur ora
ĠTh ous
Ġor bit
ĠJ ai
ĠL ob
ĠTreat y
ĠLo gan
Ġcom fy
ĠC edar
ĠWi nner
Ġreli es
li te
ven ile
Ġshri mp
c ards
Ġb iz
mo on
ra k
ĠP iano
im ens
ĠK l
sp ring
ĠT C
Ġten s
ĠChe ese
c as
ud ed
ĠD ro
ĠJo el
FOR M
Ġch ess
ĠTech ni
ĠB ronze
G N
ĠE t
Ġy east
fi e
ug u
any a
ĠBer ry
ing le
ĠK rish
Inst ead
ĠPow der
ĠDev ice
ĠVe get
N AS
unt u
lec ular
Off ice
O w
ĠH av
c uts
un al
it ance
qui re
Ġk ings
ĠCR M
B row
phi ns
atch er
Ag ain
ĠBur ns
ĠMap le
io logy
ĠE at
Ġdis cer
Ġup side
ĠK atie
Ġtreat y
ĠCli ff
ul p
ĠMar tha
ul se
ĠO UT
OS E
H as
Ġf ocal
G I
ĠSc an
m n
F ive
be k
ĠB rent
Ġwre ck
ĠShe ll
ue z
ams on
R NA
Ġsk ull
Ġban ana
App le
ĠC av
Ġmen us
ĠElli s
ĠTw enty
Ġm l
ĠD S
ĠU E
mus ic
P LE
ĠPro ced
qu ette
nder ing
Ġbuff et
Ġ tread
ophi e
ĠG ross
Ġins ane
rys ler
wa it
ĠIS BN
ery l
ĠF I
ab lo
n ant
ĠCor i
Ġn ude
H uman
19 76
Ġope ner
ĠK B
ĠT ong
ĠRe hab
UL L
Ġlog os
ĠW et
ĠDun can
ĠRub y
iss ue
Ġtr act
an ical
Ġbe ers
ti k
F lo
Ñģ Ðº
>âĨ ĳ
ĠC um
im mer
Ġh ug
Ġru ins
st ring
EN CE
ĠT icket
ap a
Ġ10 8
Ġl anes
ti d
ĠN est
hel m
ĠH ali
19 74
ON G
ĠD ist
Ġmob ili
ar th
pro f
ĠHar old
ut a
B r
ĠLeg acy
IN K
ar is
ĠF ill
ari us
Ġequi p
ĠD j
ng uin
sion ary
ĠC yc
Ġst ains
Ġinv al
ĠS ector
Ġsla ves
ĠS V
pp s
o ids
low er
ĠW ish
ĠRec og
Ġ> >
ors che
Ġp ep
ards on
Y et
e ks
Ġover ly
ĠP ere
us k
ĠH C
ĠM aker
ĠR af
ĠPro gra
he at
ĠS ak
ĠP ane
ĠBi n
ĠBl vd
assi n
Ġsu pers
Ġfauce t
mp h
ru ng
Ġpres um
Ġl an
W ashing
IC AL
ĠP ac
erv ille
e or
ĠS B
Ġst ance
f un
Ġb un
tw ear
ĠC AP
ĠM aced
Ġcup c
Ġrhe tor
Ġ19 03
ĠOri gin
f urt
Thi nk
Ġbe tra
ĠKi n
ĠDom ain
f est
ÑĤ Ðµ
Ġspend s
Ġinv o
te ll
ĠM R
ĠW ere
ol ves
ĠAndre a
Ġ1 16
irc raft
ol an
ra it
Ġblo ss
Ġa no
2 40
Ġslo pe
Ġro ses
Ġad here
Ġso lit
Ġw ounds
ke es
eng ine
per ed
Ġsp ont
C as
Ġp ne
ĠBar nes
ap est
> --
Ġstic ky
Ġrent ed
M ur
Ġdam n
Ġcomp ut
wich es
ty ard
ĠS ah
IS E
ce ans
ĠAny way
| <
Ġra ys
als a
ĠT rou
ER T
li k
ĠEd it
Pro vid
Ġs ali
ĠDay ton
pro t
man ia
ĠMil k
Ġh ref
Ġm illi
Ġlod ge
ĠP ale
ĠSh ut
Ġyog urt
In te
Ġsy mm
ft on
Ġpe aks
ĠU tili
ĠLe ices
T alk
Ġf eder
vi al
b ish
Ġde vil
Ø ³
S ite
19 50
ĠPow ell
Ġdat as
oy le
/ -
ĠView s
sel or
E lectr
ĠL ines
ĠEr ror
Ġ ????
ÌĪ Â¿
! ),
ĠRoom s
ree ned
Ġall oy
od or
pe x
Ġb ats
Pro t
ĠNur se
ĠN ak
M is
ĠF iles
om ore
ri ans
M ex
ĠSh ri
ĠS IM
ĠE b
sw orth
ĠH ands
uge ne
ĠH ip
oc a
ĠH il
Ġcur ves
ĠI oT
ad min
ĠA ges
W ild
ĠSp o
ru ce
Ġst orms
ĠHit ler
Ġ1 17
Ġaff irm
ĠESP N
Ġ2 10
1 12
f ac
ĠC ere
en ic
ĠRo le
ĠNAT O
Th ird
B aby
Ġkind a
ĠLINE AR
Ġswe ep
Ġdos age
Ġ10 3
K ar
ower ing
fil m
ĠC I
ĠJ ump
Ġtra gic
ac ier
ĠGood s
Ġuns ure
qu ot
ĠP ush
Ġo v
ĠD ani
Ġdeb it
Ġsig ni
J on
6 50
d b
ĠF ruit
Ġb ent
ĠUn its
19 72
ĠD AY
ack er
Ġv as
tr ic
à¤ °
osed ly
19 73
Ġsim ul
Eng ine
Ġrac ism
J our
Ġher bal
ric ia
op al
der abad
Ġsp ac
Ġhe x
Ġ5 000
gr ass
co li
ĠAr med
Ġsn ake
re x
no x
me th
ĠLou ise
ĠH annah
Ġfi bers
ĠC AD
Ġr ust
; "|
oc aly
AR S
N T
Ġmel ted
ĠMod els
ĠF ight
Ġcr acks
ĠLoc ks
EC H
