{
  "version": "1.0",
  "truncation": null,
  "padding": null,
  "added_tokens": [
    {
      "id": 0,
      "content": "<s>",
      "single_word": false,
      "lstrip": false,
      "rstrip": false,
      "normalized": false,
      "special": true
    },
    {
      "id": 1,
      "content": "<pad>",
      "single_word": false,
      "lstrip": false,
      "rstrip": false,
      "normalized": false,
      "special": true
    },
    {
      "id": 2,
      "content": "</s>",
      "single_word": false,
      "lstrip": false,
      "rstrip": false,
      "normalized": false,
      "special": true
    },
    {
      "id": 3,
      "content": "<mask>",
      "single_word": false,
      "lstrip": false,
      "rstrip": false,
      "normalized": false,
      "special": true
    },
    {
      "id": 4,
      "content": "<newline>",
      "single_word": false,
      "lstrip": false,
      "rstrip": false,
      "normalized": false,
      "special": true
    },
    {
      "id": 5,
      "content": "<unk>",
      "single_word": false,
      "lstrip": false,
      "rstrip": false,
      "normalized": false,
      "special": true
    }
  ],
  "normalizer": {
    "type": "Sequence",
    "normalizers": [
      {
        "type": "NFKD"
      },
      {
        "type": "Replace",
        "pattern": {
          "Regex": "\\\\{2,}"
        },
        "content": "\\"
      },
      {
        "type": "Replace",
        "pattern": {
          "String": "\n"
        },
        "content": "\\n"
      },
      {
        "type": "Replace",
        "pattern": {
          "String": "\\n"
        },
        "content": "<newline>"
      },
      {
        "type": "BertNormalizer",
        "clean_text": true,
        "handle_chinese_chars": false,
        "strip_accents": false,
        "lowercase": false
      },
      {
        "type": "Replace",
        "pattern": {
          "Regex": "\\s{2,}"
        },
        "content": " "
      },
      {
        "type": "Strip",
        "strip_left": true,
        "strip_right": true
      }
    ]
  },
  "pre_tokenizer": {
    "type": "ByteLevel",
    "add_prefix_space": true,
    "trim_offsets": true,
    "use_regex": true
  },
  "post_processor": {
    "type": "TemplateProcessing",
    "single": [
      {
        "SpecialToken": {
          "id": "<s>",
          "type_id": 0
        }
      },
      {
        "Sequence": {
          "id": "A",
          "type_id": 0
        }
      },
      {
        "SpecialToken": {
          "id": "</s>",
          "type_id": 0
        }
      }
    ],
    "pair": [
      {
        "SpecialToken": {
          "id": "<s>",
          "type_id": 0
        }
      },
      {
        "Sequence": {
          "id": "A",
          "type_id": 0
        }
      },
      {
        "SpecialToken": {
          "id": "</s>",
          "type_id": 0
        }
      },
      {
        "SpecialToken": {
          "id": "<s>",
          "type_id": 0
        }
      },
      {
        "Sequence": {
          "id": "B",
          "type_id": 0
        }
      },
      {
        "SpecialToken": {
          "id": "</s>",
          "type_id": 0
        }
      }
    ],
    "special_tokens": {
      "</s>": {
        "id": "</s>",
        "ids": [
          2
        ],
        "tokens": [
          "</s>"
        ]
      },
      "<s>": {
        "id": "<s>",
        "ids": [
          0
        ],
        "tokens": [
          "<s>"
        ]
      }
    }
  },
  "decoder": null,
  "model": {
    "type": "BPE",
    "dropout": null,
    "unk_token": "<unk>",
    "continuing_subword_prefix": null,
    "end_of_word_suffix": null,
    "fuse_unk": false,
    "byte_fallback": false,
    "ignore_merges": false,
    "vocab": {
      "<s>": 0,
      "<pad>": 1,
      "</s>": 2,
      "<mask>": 3,
      "<newline>": 4,
      "<unk>": 5,
      "!": 6,
      "\"": 7,
      "#": 8,
      "$": 9,
      "%": 10,
      "&": 11,
      "'": 12,
      "(": 13,
      ")": 14,
      "*": 15,
      "+": 16,
      ",": 17,
      "-": 18,
      ".": 19,
      "/": 20,
      "0": 21,
      "1": 22,
      "2": 23,
      "3": 24,
      "4": 25,
      "5": 26,
      "6": 27,
      "7": 28,
      "8": 29,
      "9": 30,
      ":": 31,
      ";": 32,
      "<": 33,
      "=": 34,
      ">": 35,
      "?": 36,
      "@": 37,
      "A": 38,
      "B": 39,
      "C": 40,
      "D": 41,
      "E": 42,
      "F": 43,
      "G": 44,
      "H": 45,
      "I": 46,
      "J": 47,
      "K": 48,
      "L": 49,
      "M": 50,
      "N": 51,
      "O": 52,
      "P": 53,
      "Q": 54,
      "R": 55,
      "S": 56,
      "T": 57,
      "U": 58,
      "V": 59,
      "W": 60,
      "X": 61,
      "Y": 62,
      "Z": 63,
      "[": 64,
      "\\": 65,
      "]": 66,
      "^": 67,
      "_": 68,
      "`": 69,
      "a": 70,
      "b": 71,
      "c": 72,
      "d": 73,
      "e": 74,
      "f": 75,
      "g": 76,
      "h": 77,
      "i": 78,
      "j": 79,
      "k": 80,
      "l": 81,
      "m": 82,
      "n": 83,
      "o": 84,
      "p": 85,
      "q": 86,
      "r": 87,
      "s": 88,
      "t": 89,
      "u": 90,
      "v": 91,
      "w": 92,
      "x": 93,
      "y": 94,
      "z": 95,
      "{": 96,
      "|": 97,
      "}": 98,
      "~": 99,
      "¡": 100,
      "¢": 101,
      "£": 102,
      "¤": 103,
      "¥": 104,
      "¦": 105,
      "§": 106,
      "¨": 107,
      "©": 108,
      "ª": 109,
      "«": 110,
      "¬": 111,
      "®": 112,
      "¯": 113,
      "°": 114,
      "±": 115,
      "²": 116,
      "³": 117,
      "´": 118,
      "µ": 119,
      "¶": 120,
      "·": 121,
      "¸": 122,
      "¹": 123,
      "º": 124,
      "»": 125,
      "¼": 126,
      "½": 127,
      "¾": 128,
      "¿": 129,
      "À": 130,
      "Á": 131,
      "Â": 132,
      "Ã": 133,
      "Ä": 134,
      "Å": 135,
      "Æ": 136,
      "Ç": 137,
      "È": 138,
      "É": 139,
      "Ê": 140,
      "Ë": 141,
      "Ì": 142,
      "Í": 143,
      "Î": 144,
      "Ï": 145,
      "Ð": 146,
      "Ñ": 147,
      "Ò": 148,
      "Ó": 149,
      "Ô": 150,
      "Õ": 151,
      "Ö": 152,
      "×": 153,
      "Ø": 154,
      "Ù": 155,
      "Ú": 156,
      "Û": 157,
      "Ü": 158,
      "Ý": 159,
      "Þ": 160,
      "ß": 161,
      "à": 162,
      "á": 163,
      "â": 164,
      "ã": 165,
      "ä": 166,
      "å": 167,
      "æ": 168,
      "ç": 169,
      "è": 170,
      "é": 171,
      "ê": 172,
      "ë": 173,
      "ì": 174,
      "í": 175,
      "î": 176,
      "ï": 177,
      "ð": 178,
      "ñ": 179,
      "ò": 180,
      "ó": 181,
      "ô": 182,
      "õ": 183,
      "ö": 184,
      "÷": 185,
      "ø": 186,
      "ù": 187,
      "ú": 188,
      "û": 189,
      "ü": 190,
      "ý": 191,
      "þ": 192,
      "ÿ": 193,
      "Ā": 194,
      "ā": 195,
      "Ă": 196,
      "ă": 197,
      "Ą": 198,
      "ą": 199,
      "Ć": 200,
      "ć": 201,
      "Ĉ": 202,
      "ĉ": 203,
      "Ċ": 204,
      "ċ": 205,
      "Č": 206,
      "č": 207,
      "Ď": 208,
      "ď": 209,
      "Đ": 210,
      "đ": 211,
      "Ē": 212,
      "ē": 213,
      "Ĕ": 214,
      "ĕ": 215,
      "Ė": 216,
      "ė": 217,
      "Ę": 218,
      "ę": 219,
      "Ě": 220,
      "ě": 221,
      "Ĝ": 222,
      "ĝ": 223,
      "Ğ": 224,
      "ğ": 225,
      "Ġ": 226,
      "ġ": 227,
      "Ģ": 228,
      "ģ": 229,
      "Ĥ": 230,
      "ĥ": 231,
      "Ħ": 232,
      "ħ": 233,
      "Ĩ": 234,
      "ĩ": 235,
      "Ī": 236,
      "ī": 237,
      "Ĭ": 238,
      "ĭ": 239,
      "Į": 240,
      "į": 241,
      "İ": 242,
      "ı": 243,
      "Ĳ": 244,
      "ĳ": 245,
      "Ĵ": 246,
      "ĵ": 247,
      "Ķ": 248,
      "ķ": 249,
      "ĸ": 250,
      "Ĺ": 251,
      "ĺ": 252,
      "Ļ": 253,
      "ļ": 254,
      "Ľ": 255,
      "ľ": 256,
      "Ŀ": 257,
      "ŀ": 258,
      "Ł": 259,
      "ł": 260,
      "Ń": 261,
      "Ġa": 262,
      "ne": 263,
      "th": 264,
      "Ġth": 265,
      "er": 266,
      "li": 267,
      "Ġo": 268,
      "re": 269,
      "Ġthe": 270,
      "Ġi": 271,
      "Ġs": 272,
      "nd": 273,
      "ti": 274,
      "Ġw": 275,
      "on": 276,
      "Ġc": 277,
      "or": 278,
      "ng": 279,
      "es": 280,
      "new": 281,
      "en": 282,
      "line": 283,
      "Ġf": 284,
      "ou": 285,
      "newline": 286,
      "Ġb": 287,
      "to": 288,
      "Ġp": 289,
      "ed": 290,
      "an": 291,
      "ar": 292,
      "al": 293,
      "at": 294,
      "Ġm": 295,
      "Ġto": 296,
      "Ġand": 297,
      "Ġof": 298,
      "ing": 299,
      "Ġh": 300,
      "Ġin": 301,
      "Ġd": 302,
      "le": 303,
      "is": 304,
      "as": 305,
      "ro": 306,
      "tion": 307,
      "ic": 308,
      ".<": 309,
      "om": 310,
      "Ġe": 311,
      "ll": 312,
      "Ġre": 313,
      "ent": 314,
      "us": 315,
      "ve": 316,
      "it": 317,
      "ĠS": 318,
      "Ġy": 319,
      "ĠT": 320,
      "ac": 321,
      "ĠI": 322,
      "Ġg": 323,
      "ly": 324,
      "ĠC": 325,
      "Ġwi": 326,
      "Ġbe": 327,
      "âĢ": 328,
      "ĠA": 329,
      "Ġis": 330,
      "Ġyou": 331,
      "Ġfor": 332,
      "ri": 333,
      "lo": 334,
      "st": 335,
      "he": 336,
      "ra": 337,
      "ur": 338,
      "ay": 339,
      "ter": 340,
      "ver": 341,
      "ĠM": 342,
      "no": 343,
      "ec": 344,
      "ai": 345,
      "am": 346,
      "ad": 347,
      "ĠP": 348,
      "ation": 349,
      "ts": 350,
      "Ġon": 351,
      "ce": 352,
      "ch": 353,
      "Ġwh": 354,
      "Ġwith": 355,
      "ĠB": 356,
      "ut": 357,
      "gh": 358,
      "id": 359,
      "Ġthat": 360,
      "ld": 361,
      "et": 362,
      "se": 363,
      "Ġ1": 364,
      "Ġst": 365,
      "ir": 366,
      "ow": 367,
      "Ġas": 368,
      "Ġpro": 369,
      "ĠW": 370,
      "ĠD": 371,
      "te": 372,
      "Ġ2": 373,
      "ĠH": 374,
      "oo": 375,
      "ers": 376,
      "ke": 377,
      "ĠF": 378,
      "Ġ(": 379,
      "âĢĻ": 380,
      "Ġan": 381,
      "ag": 382,
      "ĠR": 383,
      "un": 384,
      "Ġare": 385,
      "ul": 386,
      "Ġno": 387,
      "ere": 388,
      "ate": 389,
      "Ġli": 390,
      "ment": 391,
      "ĠL": 392,
      "Ġcom": 393,
      "ting": 394,
      "ab": 395,
      "pp": 396,
      "Ġit": 397,
      "Ġmo": 398,
      "Ġcon": 399,
      "Ġha": 400,
      "Ġwe": 401,
      "Ġl": 402,
      "Ġat": 403,
      "Ġor": 404,
      "ĠG": 405,
      "Ġwas": 406,
      "si": 407,
      "ĠThe": 408,
      "el": 409,
      "ĠN": 410,
      "ĠE": 411,
      "rom": 412,
      "um": 413,
      "ol": 414,
      "Ġex": 415,
      "res": 416,
      "qu": 417,
      "Ġv": 418,
      "Ġfi": 419,
      "hi": 420,
      "Ġde": 421,
      "Ġby": 422,
      "Ġyour": 423,
      "and": 424,
      "Ġlo": 425,
      "tr": 426,
      "ther": 427,
      "Ġfrom": 428,
      "est": 429,
      "Ġ20": 430,
      "ĠO": 431,
      "uc": 432,
      "Ġthis": 433,
      "ome": 434,
      "Ġsh": 435,
      "Ġse": 436,
      "ty": 437,
      "Ġal": 438,
      "ain": 439,
      "ort": 440,
      "Ġhave": 441,
      "em": 442,
      "tic": 443,
      "ard": 444,
      "Ġn": 445,
      "Ġus": 446,
      "ff": 447,
      "op": 448,
      "Ġsu": 449,
      "Ġu": 450,
      "Ġhe": 451,
      "Ġcan": 452,
      "ud": 453,
      "ĠJ": 454,
      "il": 455,
      "ght": 456,
      "mp": 457,
      "our": 458,
      "Ġle": 459,
      "ess": 460,
      "ine": 461,
      "all": 462,
      "Ġdo": 463,
      "rou": 464,
      "Ġne": 465,
      "ig": 466,
      "ĠâĢ": 467,
      "me": 468,
      "ant": 469,
      "Ġac": 470,
      "ure": 471,
      "Ġpl": 472,
      "ap": 473,
      "><": 474,
      "Ġpo": 475,
      "Ġwor": 476,
      "Ġch": 477,
      "Ġwill": 478,
      "nt": 479,
      "Ġsp": 480,
      "Ġnot": 481,
      "ity": 482,
      "Ġab": 483,
      "ack": 484,
      "ĠTh": 485,
      "ally": 486,
      "ak": 487,
      "age": 488,
      "'s": 489,
      "ci": 490,
      "ss": 491,
      "ould": 492,
      "ge": 493,
      "out": 494,
      "ust": 495,
      "ĠU": 496,
      "Ġso": 497,
      "ear": 498,
      "are": 499,
      "od": 500,
      "Ġall": 501,
      "Ġk": 502,
      "Ġj": 503,
      "Ġcomp": 504,
      "00": 505,
      "ew": 506,
      "Ġti": 507,
      "per": 508,
      "ist": 509,
      "ber": 510,
      "art": 511,
      "ich": 512,
      "ali": 513,
      "ĠIn": 514,
      "Ġad": 515,
      "ated": 516,
      "Ġ201": 517,
      "ks": 518,
      "Ġdi": 519,
      "so": 520,
      "Ġhas": 521,
      "ĠK": 522,
      "Ġme": 523,
      "ni": 524,
      "..": 525,
      "ner": 526,
      "able": 527,
      "ong": 528,
      "Ġco": 529,
      "ake": 530,
      "ep": 531,
      "tive": 532,
      "Ġbut": 533,
      "for": 534,
      "ot": 535,
      "The": 536,
      "ide": 537,
      "ast": 538,
      "Ġr": 539,
      "ice": 540,
      "tw": 541,
      "Ġ19": 542,
      "Ġup": 543,
      "vi": 544,
      "ite": 545,
      "Ġman": 546,
      "ary": 547,
      "im": 548,
      "ous": 549,
      "ans": 550,
      "ach": 551,
      "ect": 552,
      "ies": 553,
      "Ġone": 554,
      "Ġtheir": 555,
      "very": 556,
      "ĠV": 557,
      "ance": 558,
      "ore": 559,
      "os": 560,
      "ace": 561,
      "Ġmore": 562,
      "ue": 563,
      "lic": 564,
      "ĠY": 565,
      "one": 566,
      "Ġte": 567,
      "ven": 568,
      "Ġout": 569,
      "Ġour": 570,
      "ub": 571,
      "ence": 572,
      "Ġen": 573,
      "ame": 574,
      "Ġtr": 575,
      "Ġthey": 576,
      "ood": 577,
      "ct": 578,
      "sion": 579,
      "Ġdes": 580,
      "tions": 581,
      "Ġwhich": 582,
      "Ġmy": 583,
      "Ġsome": 584,
      "ree": 585,
      "Ġinc": 586,
      "Ġun": 587,
      "erv": 588,
      "ail": 589,
      "Ġres": 590,
      "ning": 591,
      "ase": 592,
      "Ġapp": 593,
      "mer": 594,
      "Ġhis": 595,
      "Ġabout": 596,
      "Ġdis": 597,
      "king": 598,
      "Ġalso": 599,
      "ations": 600,
      "Ġ3": 601,
      "Ġgo": 602,
      "ĠSt": 603,
      "Ġoff": 604,
      "Ġ\"": 605,
      "Ġwho": 606,
      "Ġper": 607,
      "gi": 608,
      "Ġqu": 609,
      "ang": 610,
      "red": 611,
      "form": 612,
      "Ġ-": 613,
      "nder": 614,
      "igh": 615,
      "Ġbec": 616,
      "ili": 617,
      "act": 618,
      "ble": 619,
      "Ġtime": 620,
      "tra": 621,
      "ned": 622,
      "use": 623,
      "ord": 624,
      "Ġyear": 625,
      "ĠCh": 626,
      "Ġar": 627,
      "ass": 628,
      "ĠIt": 629,
      "duc": 630,
      "sh": 631,
      "wn": 632,
      "ays": 633,
      "Ġany": 634,
      "ling": 635,
      "ving": 636,
      "Ġnew": 637,
      "ors": 638,
      "Ġmi": 639,
      "les": 640,
      "ia": 641,
      "cess": 642,
      "ater": 643,
      "Ġwere": 644,
      "de": 645,
      "ons": 646,
      "pe": 647,
      "ill": 648,
      "Ġro": 649,
      "Ġpe": 650,
      "âĢĿ": 651,
      "fe": 652,
      "ves": 653,
      "ns": 654,
      "ten": 655,
      "Ġlike": 656,
      "ond": 657,
      "ory": 658,
      "oc": 659,
      "Ġover": 660,
      "oun": 661,
      "Ġag": 662,
      "als": 663,
      "Ġother": 664,
      "ents": 665,
      "Ġsi": 666,
      "Ġfe": 667,
      "Ġimp": 668,
      "mi": 669,
      "ces": 670,
      "Ġbeen": 671,
      "ry": 672,
      "ĠWe": 673,
      "Ġinter": 674,
      "Ġhad": 675,
      "ms": 676,
      "irst": 677,
      "Ġra": 678,
      "Ġwhen": 679,
      "Ġthem": 680,
      "Ġget": 681,
      "reat": 682,
      "ties": 683,
      "ause": 684,
      "gra": 685,
      "Ġthere": 686,
      "ĠâĢĵ": 687,
      "Ġpre": 688,
      "ps": 689,
      "Ġrec": 690,
      "Ġcont": 691,
      "Ġits": 692,
      "Ġpar": 693,
      "ical": 694,
      "ph": 695,
      "Ġwork": 696,
      "log": 697,
      "ress": 698,
      "Ġneed": 699,
      "Ġher": 700,
      "Ġtra": 701,
      "ish": 702,
      "Ġkno": 703,
      "fter": 704,
      "Ġwould": 705,
      "ople": 706,
      "Ġif": 707,
      "vid": 708,
      "lud": 709,
      "ari": 710,
      "ound": 711,
      "Ġthan": 712,
      "ĠHe": 713,
      "Ġrep": 714,
      "ĠâĢľ": 715,
      "Ġwhat": 716,
      "Ġ4": 717,
      "ark": 718,
      "ved": 719,
      "Ġserv": 720,
      "Ġinto": 721,
      "ath": 722,
      "ates": 723,
      "Ġexp": 724,
      "Ġbo": 725,
      "ual": 726,
      "ck": 727,
      "ments": 728,
      "amp": 729,
      "di": 730,
      "ool": 731,
      "ook": 732,
      "Ġfirst": 733,
      "ĠThis": 734,
      "Ġam": 735,
      "Ġtw": 736,
      "Ġhow": 737,
      "round": 738,
      "Ġ5": 739,
      "ok": 740,
      "Ġcomm": 741,
      "rough": 742,
      "Ġri": 743,
      "aw": 744,
      "Ġbu": 745,
      "own": 746,
      "fi": 747,
      "Th": 748,
      "cri": 749,
      "ru": 750,
      "au": 751,
      "Ġpeople": 752,
      "Ġinclud": 753,
      "Ġjust": 754,
      "end": 755,
      "ings": 756,
      "!<": 757,
      "ick": 758,
      "vers": 759,
      "ft": 760,
      "Ġind": 761,
      "fic": 762,
      "Ġmay": 763,
      "ose": 764,
      "nal": 765,
      "Ġ|": 766,
      "mo": 767,
      "ful": 768,
      "fer": 769,
      "Ġhel": 770,
      "bs": 771,
      "day": 772,
      "Ġcl": 773,
      "ati": 774,
      "ption": 775,
      "ating": 776,
      "ho": 777,
      "eci": 778,
      "Ġcons": 779,
      "ult": 780,
      "ade": 781,
      "com": 782,
      "Ġuse": 783,
      "Ġmost": 784,
      "nk": 785,
      ")<": 786,
      "ĠRe": 787,
      "Ġmake": 788,
      "Ġonly": 789,
      "),": 790,
      "ech": 791,
      "Ġ200": 792,
      "ion": 793,
      "ull": 794,
      "air": 795,
      "Ġhigh": 796,
      "lec": 797,
      "Ġgi": 798,
      "thing": 799,
      "Ġsec": 800,
      "av": 801,
      "ational": 802,
      "enti": 803,
      "ens": 804,
      "Ġproduc": 805,
      "Ġpri": 806,
      "Ġwell": 807,
      "Ġplay": 808,
      "ough": 809,
      "Ġsc": 810,
      "Ġunder": 811,
      "Ġknow": 812,
      "Ġfile": 813,
      "20": 814,
      "ount": 815,
      "?<": 816,
      "ric": 817,
      "ys": 818,
      "Ġtwo": 819,
      "lish": 820,
      "vel": 821,
      "Ġcol": 822,
      "ile": 823,
      "Ġhelp": 824,
      "ted": 825,
      "Ġshe": 826,
      "Ġsy": 827,
      "ĠCom": 828,
      "any": 829,
      "Ġstud": 830,
      "qui": 831,
      "Ġ&": 832,
      "Ġback": 833,
      "iz": 834,
      "Ġevery": 835,
      "Ġsupp": 836,
      "ĠYou": 837,
      "19": 838,
      "ased": 839,
      "tle": 840,
      "aid": 841,
      "ight": 842,
      "Ġdec": 843,
      "na": 844,
      "arch": 845,
      "der": 846,
      "Ġafter": 847,
      "row": 848,
      "Ġthese": 849,
      "ĠWh": 850,
      "ign": 851,
      "ris": 852,
      "iness": 853,
      "ward": 854,
      "oll": 855,
      "gan": 856,
      "land": 857,
      "ures": 858,
      "ited": 859,
      "Ġdiff": 860,
      "Ġcre": 861,
      "uring": 862,
      "Ġsee": 863,
      "fore": 864,
      "Ġyears": 865,
      "Ġexper": 866,
      "ĠPro": 867,
      "Ġvery": 868,
      "Ġ6": 869,
      "erson": 870,
      "Ġgu": 871,
      "ters": 872,
      "Ġmany": 873,
      "ie": 874,
      "In": 875,
      "xt": 876,
      "Ġloc": 877,
      "Ġwhere": 878,
      "usiness": 879,
      "uch": 880,
      "low": 881,
      "ell": 882,
      "ular": 883,
      "velo": 884,
      "stem": 885,
      "ian": 886,
      "Ġge": 887,
      "Ġins": 888,
      "ind": 889,
      "'t": 890,
      "Ġop": 891,
      "nce": 892,
      "tin": 893,
      "ami": 894,
      "Ġke": 895,
      "ost": 896,
      "ices": 897,
      "chool": 898,
      "hip": 899,
      "Ġthen": 900,
      "Ġcar": 901,
      "Ġgood": 902,
      "aking": 903,
      "ane": 904,
      "Ġshort": 905,
      "co": 906,
      "its": 907,
      "Ġway": 908,
      "up": 909,
      "Ġwant": 910,
      "ĠNew": 911,
      "Ġsto": 912,
      "ont": 913,
      "tur": 914,
      "ave": 915,
      "Ġcould": 916,
      "ise": 917,
      "ĠAr": 918,
      "ild": 919,
      "int": 920,
      "Ġpart": 921,
      "velop": 922,
      "atch": 923,
      "Ġsuch": 924,
      "...": 925,
      "ren": 926,
      "Ġdown": 927,
      "ility": 928,
      "ale": 929,
      "try": 930,
      "Ġdescri": 931,
      "ative": 932,
      "Ġinform": 933,
      "ork": 934,
      "Ġhome": 935,
      "Ġacc": 936,
      "man": 937,
      "Ġeven": 938,
      ").": 939,
      "Ġshould": 940,
      "Ġbest": 941,
      "Ġnow": 942,
      "sel": 943,
      "ĠSp": 944,
      "ob": 945,
      "az": 946,
      "Ġev": 947,
      "Ġset": 948,
      "ial": 949,
      "tain": 950,
      "Ġ<": 951,
      "und": 952,
      "Ġ7": 953,
      "ĠAl": 954,
      "Ġav": 955,
      "oy": 956,
      "ax": 957,
      "alth": 958,
      "Ġfind": 959,
      "ĠFor": 960,
      "ality": 961,
      "ced": 962,
      "Ġeff": 963,
      "ee": 964,
      "Ġchi": 965,
      "rect": 966,
      "Ġadd": 967,
      "Ġgreat": 968,
      "ouse": 969,
      "old": 970,
      "Ġread": 971,
      "Ġday": 972,
      "Ġshow": 973,
      "Ġpres": 974,
      "Ìģ": 975,
      "Ġsm": 976,
      "ton": 977,
      "cial": 978,
      "Ġdiffer": 979,
      "Ġ8": 980,
      "Ġused": 981,
      "Ġ10": 982,
      "meric": 983,
      "Ġreg": 984,
      "led": 985,
      "Ġmade": 986,
      "Ġsaid": 987,
      "ash": 988,
      "Ġed": 989,
      "Ġmuch": 990,
      "een": 991,
      "Ġinv": 992,
      "ze": 993,
      "ruc": 994,
      "Ġspeci": 995,
      "take": 996,
      "Ġlong": 997,
      "ank": 998,
      "tom": 999,
      "Ġ18": 1000,
      "ues": 1001,
      "Ġsur": 1002,
      "og": 1003,
      "ug": 1004,
      "cy": 1005,
      "way": 1006,
      "Ġ$": 1007,
      "ict": 1008,
      "Ġinst": 1009,
      "Ġexperi": 1010,
      "tri": 1011,
      "Ġmem": 1012,
      "Ġmon": 1013,
      "Ġend": 1014,
      "Ġsystem": 1015,
      "ĠLi": 1016,
      "ĠLe": 1017,
      "Ġlife": 1018,
      "Ġim": 1019,
      "Ġagain": 1020,
      "ĠIf": 1021,
      "ason": 1022,
      "Ġperson": 1023,
      "ĠSh": 1024,
      "ĠAnd": 1025,
      "enter": 1026,
      "Ġbeing": 1027,
      "ness": 1028,
      "Ġdon": 1029,
      "Ġnum": 1030,
      "Ġmed": 1031,
      "ollow": 1032,
      "Ġbefore": 1033,
      "ĠNo": 1034,
      "Ġtake": 1035,
      "Ġser": 1036,
      "pt": 1037,
      "Ġthi": 1038,
      "ower": 1039,
      "Ġtrans": 1040,
      "vis": 1041,
      "io": 1042,
      "Ġpr": 1043,
      "ject": 1044,
      "Ġche": 1045,
      "Ġdid": 1046,
      "ney": 1047,
      "ĠSo": 1048,
      "dition": 1049,
      "ages": 1050,
      "tim": 1051,
      "Ġhim": 1052,
      "ith": 1053,
      "Ġrel": 1054,
      "ata": 1055,
      "Ġchang": 1056,
      "ually": 1057,
      "Ġworld": 1058,
      "Ġpub": 1059,
      "Ġvis": 1060,
      "Ġgra": 1061,
      "Ġhere": 1062,
      "Ġcomple": 1063,
      "ences": 1064,
      "view": 1065,
      "ah": 1066,
      "ring": 1067,
      "Ġsub": 1068,
      "Ġ9": 1069,
      "pl": 1070,
      "Ġph": 1071,
      "Ġprovid": 1072,
      "rit": 1073,
      "Ġear": 1074,
      "ki": 1075,
      "Ġfin": 1076,
      "ĠBe": 1077,
      "Ġcall": 1078,
      "logy": 1079,
      "Ġhand": 1080,
      "nge": 1081,
      "Ġdoes": 1082,
      "âĢĵ": 1083,
      "Ġthose": 1084,
      "ĠDe": 1085,
      "Ġvi": 1086,
      "Ġright": 1087,
      "Ġchar": 1088,
      "Ġteam": 1089,
      "ration": 1090,
      "Ġwee": 1091,
      "oli": 1092,
      "ution": 1093,
      "ants": 1094,
      "Ġeach": 1095,
      "ever": 1096,
      "ailable": 1097,
      "ners": 1098,
      "Ġstart": 1099,
      "Ġform": 1100,
      "till": 1101,
      "Ġwhile": 1102,
      "tech": 1103,
      "Ġcare": 1104,
      "lect": 1105,
      "Ġau": 1106,
      "Ġlead": 1107,
      "Ġresp": 1108,
      "illi": 1109,
      "tit": 1110,
      "Ġdri": 1111,
      "ute": 1112,
      "ature": 1113,
      "ession": 1114,
      "be": 1115,
      "Ġclo": 1116,
      "akes": 1117,
      "cc": 1118,
      "Ġbetw": 1119,
      "lease": 1120,
      "amily": 1121,
      "con": 1122,
      "tern": 1123,
      "Ġcur": 1124,
      "Ġmar": 1125,
      "ĠAmeric": 1126,
      "Ġpost": 1127,
      "Ġchild": 1128,
      "Ġfollow": 1129,
      "Ġeas": 1130,
      "Ġown": 1131,
      "000": 1132,
      "tter": 1133,
      "Wh": 1134,
      "Ġtech": 1135,
      "Ġcommun": 1136,
      "Ġtri": 1137,
      "ĠAd": 1138,
      "Ġfound": 1139,
      "min": 1140,
      "arm": 1141,
      "Ġaround": 1142,
      "Ġcus": 1143,
      "tal": 1144,
      "10": 1145,
      "ames": 1146,
      "ĠUni": 1147,
      "Ġlar": 1148,
      "Ġlook": 1149,
      "ip": 1150,
      "ĠAn": 1151,
      "urch": 1152,
      "Ġass": 1153,
      "Ġplace": 1154,
      "ĠUn": 1155,
      "Ġfree": 1156,
      "Ġlove": 1157,
      "Ġboth": 1158,
      "Ġprogra": 1159,
      "read": 1160,
      "ects": 1161,
      "riend": 1162,
      "cer": 1163,
      "ĠJu": 1164,
      "ĠPl": 1165,
      "orts": 1166,
      "Ġsame": 1167,
      "Re": 1168,
      "outh": 1169,
      "Ġcle": 1170,
      "bers": 1171,
      "ĠInd": 1172,
      "Ġcour": 1173,
      "sive": 1174,
      "ars": 1175,
      "Ġcoun": 1176,
      "tical": 1177,
      "gg": 1178,
      "ran": 1179,
      "Ġrequi": 1180,
      "nes": 1181,
      "Ġbook": 1182,
      "ĠCon": 1183,
      "Ġbl": 1184,
      "ety": 1185,
      "ĠEx": 1186,
      "versity": 1187,
      "Ġduring": 1188,
      "We": 1189,
      "Ġcli": 1190,
      "Ġreally": 1191,
      "ction": 1192,
      "Ġrem": 1193,
      "Ġlast": 1194,
      "Ġfl": 1195,
      "ways": 1196,
      "Ġoffer": 1197,
      "tiv": 1198,
      "ross": 1199,
      "Ġ0": 1200,
      "ics": 1201,
      "Ġtop": 1202,
      "Ġusing": 1203,
      "Ġter": 1204,
      "oh": 1205,
      "Ġmain": 1206,
      "Ġfull": 1207,
      "Ġbuild": 1208,
      "Ġrece": 1209,
      "Ġrun": 1210,
      "ĠQ": 1211,
      "Ġcor": 1212,
      "This": 1213,
      "nts": 1214,
      "Ġadv": 1215,
      "sible": 1216,
      "Ġlist": 1217,
      "Ġthree": 1218,
      "hoto": 1219,
      "Ġstill": 1220,
      "ple": 1221,
      "Ġprof": 1222,
      "Ġ199": 1223,
      "Ġfil": 1224,
      "mit": 1225,
      "mb": 1226,
      "Ġtoo": 1227,
      "Ġfun": 1228,
      "mber": 1229,
      "Ġvari": 1230,
      "ĠAs": 1231,
      "Ġty": 1232,
      "Ġschool": 1233,
      "ĠThey": 1234,
      "ĠZ": 1235,
      "gin": 1236,
      "aj": 1237,
      "Ġ*": 1238,
      "ĠMar": 1239,
      "Ġthink": 1240,
      "lie": 1241,
      "roup": 1242,
      "ive": 1243,
      "Ġimport": 1244,
      "ury": 1245,
      "ather": 1246,
      "the": 1247,
      "Ġappro": 1248,
      "Ġact": 1249,
      "Ġnumber": 1250,
      "nother": 1251,
      "Ġide": 1252,
      "Ġorgan": 1253,
      "tt": 1254,
      "Ġfamily": 1255,
      "Ġsmall": 1256,
      "Ġcap": 1257,
      "rent": 1258,
      "ying": 1259,
      "ital": 1260,
      "ural": 1261,
      "ĠCol": 1262,
      "Ġ'": 1263,
      "Ġsa": 1264,
      "ĠDi": 1265,
      "Ġmus": 1266,
      "oot": 1267,
      "ider": 1268,
      "tre": 1269,
      "Ġlear": 1270,
      "Ġfew": 1271,
      "alle": 1272,
      "vern": 1273,
      "Ġpartic": 1274,
      "reen": 1275,
      "pri": 1276,
      "gy": 1277,
      "50": 1278,
      "ex": 1279,
      "Ġwater": 1280,
      "Ġgoing": 1281,
      "mes": 1282,
      "18": 1283,
      "Ġpi": 1284,
      "ĠHow": 1285,
      "iss": 1286,
      "Ġmonth": 1287,
      "que": 1288,
      "Ġob": 1289,
      "sts": 1290,
      "Ġhealth": 1291,
      "Ġpos": 1292,
      "Ġsecond": 1293,
      "ove": 1294,
      "vide": 1295,
      "ĠBut": 1296,
      "ĠShe": 1297,
      "Ġemp": 1298,
      "Ġ.": 1299,
      "orth": 1300,
      "Ġstate": 1301,
      "Ġdata": 1302,
      "less": 1303,
      "ĠIs": 1304,
      "ective": 1305,
      "ĠChi": 1306,
      "Ġinf": 1307,
      "Ġloo": 1308,
      "Ġmin": 1309,
      "ĠThere": 1310,
      "ody": 1311,
      "Ġ12": 1312,
      "Ġallow": 1313,
      ").<": 1314,
      "graph": 1315,
      "ush": 1316,
      "Ġhapp": 1317,
      "du": 1318,
      "eld": 1319,
      "self": 1320,
      "ese": 1321,
      "cent": 1322,
      "df": 1323,
      "Ġcond": 1324,
      "Ġsw": 1325,
      "Ġ2018": 1326,
      "Ġline": 1327,
      "ember": 1328,
      "Ġ||": 1329,
      "Ġkeep": 1330,
      "Ġstr": 1331,
      "Ġstand": 1332,
      "tend": 1333,
      "ĠCoun": 1334,
      "ici": 1335,
      "med": 1336,
      "DF": 1337,
      "Ġiss": 1338,
      "orn": 1339,
      "Ġeng": 1340,
      "ĠMi": 1341,
      "stand": 1342,
      "ls": 1343,
      "Ġlit": 1344,
      "ote": 1345,
      "ma": 1346,
      "ards": 1347,
      "ĠMan": 1348,
      "Ġarea": 1349,
      "Ġplan": 1350,
      "Ġbre": 1351,
      "Ġconf": 1352,
      "ared": 1353,
      "tics": 1354,
      "Ġorder": 1355,
      "bo": 1356,
      "Ġdesign": 1357,
      "mis": 1358,
      "ery": 1359,
      "ĠCl": 1360,
      "Ġoper": 1361,
      "ĠGe": 1362,
      "get": 1363,
      "Ġtur": 1364,
      "itch": 1365,
      "Ġclass": 1366,
      "Ġve": 1367,
      "\"<": 1368,
      "loy": 1369,
      "Ġfriend": 1370,
      "Ġmark": 1371,
      "Ġdisc": 1372,
      "Ġthings": 1373,
      "ĠAll": 1374,
      "Ġdirect": 1375,
      "ined": 1376,
      "Ġalways": 1377,
      "rand": 1378,
      "Ġsimp": 1379,
      "Ġpower": 1380,
      "Ġsuc": 1381,
      "Ġlittle": 1382,
      "ER": 1383,
      "ently": 1384,
      "Ġpop": 1385,
      "ition": 1386,
      "Ġpay": 1387,
      "Ġdet": 1388,
      "ron": 1389,
      "Ġcontin": 1390,
      "Ġpoli": 1391,
      "Ġbro": 1392,
      "Ġsay": 1393,
      "ĠOn": 1394,
      "Ġmust": 1395,
      "Ġonline": 1396,
      "load": 1397,
      "Ġpdf": 1398,
      "atter": 1399,
      "ball": 1400,
      "ator": 1401,
      "Ġwebs": 1402,
      "ries": 1403,
      "Ġhead": 1404,
      "Ġval": 1405,
      "ĠCan": 1406,
      "Ġuni": 1407,
      "omen": 1408,
      "Ġsit": 1409,
      "ident": 1410,
      "Ġcome": 1411,
      "Ġlow": 1412,
      "fied": 1413,
      "Ġfac": 1414,
      "Ġlevel": 1415,
      "til": 1416,
      "ately": 1417,
      "iti": 1418,
      "ĠPDF": 1419,
      "ats": 1420,
      "ĠCo": 1421,
      "tice": 1422,
      "Ġbetter": 1423,
      "Ġes": 1424,
      "ĠRes": 1425,
      "Ġcent": 1426,
      "by": 1427,
      "Ġproper": 1428,
      "gn": 1429,
      "ird": 1430,
      "lection": 1431,
      "els": 1432,
      "12": 1433,
      "Ġsure": 1434,
      "ities": 1435,
      "ĠRo": 1436,
      "Ġwithi": 1437,
      "Ġjo": 1438,
      "Ġwithin": 1439,
      "ĠEng": 1440,
      "eb": 1441,
      "Ġdra": 1442,
      "Ġold": 1443,
      "Ġnext": 1444,
      "Ġsig": 1445,
      "It": 1446,
      "Ġsince": 1447,
      "pi": 1448,
      "Ġsol": 1449,
      "Ġdeli": 1450,
      "Ġproble": 1451,
      "ĠTo": 1452,
      "uro": 1453,
      "Ġopp": 1454,
      "Ġincre": 1455,
      "Ġcontro": 1456,
      "Ġcer": 1457,
      "Ġques": 1458,
      "Ġopen": 1459,
      "ours": 1460,
      "lished": 1461,
      "Ġrest": 1462,
      "Ġsing": 1463,
      "rid": 1464,
      "Ġfact": 1465,
      "Ġgame": 1466,
      "Ġpublic": 1467,
      "zed": 1468,
      "Ġref": 1469,
      "ĠUS": 1470,
      "ĠPar": 1471,
      "Ġdep": 1472,
      "ĠSe": 1473,
      "ode": 1474,
      "Ġsite": 1475,
      "Ġhist": 1476,
      "ĠBl": 1477,
      "Ġrese": 1478,
      "Ġgener": 1479,
      "Ġable": 1480,
      "Ġver": 1481,
      "Ġhard": 1482,
      "Ġphoto": 1483,
      ">âĢ": 1484,
      "ister": 1485,
      "ency": 1486,
      "Ġbig": 1487,
      "Ġdoc": 1488,
      "Ġwin": 1489,
      "val": 1490,
      "ump": 1491,
      "30": 1492,
      "Ġ15": 1493,
      "Ġgive": 1494,
      "ense": 1495,
      "Ġdays": 1496,
      "aster": 1497,
      "ales": 1498,
      "Ġspe": 1499,
      "Ġroom": 1500,
      "ases": 1501,
      "uck": 1502,
      "room": 1503,
      "agement": 1504,
      "elf": 1505,
      "ny": 1506,
      "rib": 1507,
      "ĠMay": 1508,
      "Ġair": 1509,
      "Ġgrow": 1510,
      "Ġname": 1511,
      "sing": 1512,
      "ww": 1513,
      "Ġview": 1514,
      ">|": 1515,
      "Ġprac": 1516,
      "uts": 1517,
      "Ġsk": 1518,
      "ining": 1519,
      "Ġless": 1520,
      "ĠWor": 1521,
      "Ġlot": 1522,
      "Ġput": 1523,
      "ories": 1524,
      "Ġrecord": 1525,
      "Ġnever": 1526,
      "Ġweek": 1527,
      "Ġlarge": 1528,
      "ĠCar": 1529,
      "ior": 1530,
      ":<": 1531,
      "Ġlaw": 1532,
      "Ġest": 1533,
      "Ġdesig": 1534,
      "Ġsever": 1535,
      "Ġmod": 1536,
      "ope": 1537,
      "thers": 1538,
      "mon": 1539,
      "Ġposi": 1540,
      "Ġtal": 1541,
      "ions": 1542,
      "tes": 1543,
      "Ġmight": 1544,
      "Ġfour": 1545,
      "ought": 1546,
      "Ġuntil": 1547,
      "If": 1548,
      "...<": 1549,
      "ding": 1550,
      "Ġhouse": 1551,
      "ĠOr": 1552,
      "br": 1553,
      "pping": 1554,
      "ger": 1555,
      "IN": 1556,
      "15": 1557,
      "ged": 1558,
      "Ġaff": 1559,
      "ĠPri": 1560,
      "Ġfur": 1561,
      "ĠTr": 1562,
      "ĠFi": 1563,
      "par": 1564,
      "ĠWith": 1565,
      "Ġlocal": 1566,
      "Ġapplic": 1567,
      "Ġori": 1568,
      "ĠUnited": 1569,
      "ĠâĢĺ": 1570,
      "ortun": 1571,
      "ains": 1572,
      "Ġmanual": 1573,
      "ins": 1574,
      "ection": 1575,
      "Ġgot": 1576,
      "Ġevent": 1577,
      "aper": 1578,
      "Ġfood": 1579,
      "illion": 1580,
      "ghts": 1581,
      "ĠÂ": 1582,
      "joy": 1583,
      "Ġbas": 1584,
      "yle": 1585,
      "ĠâĢĶ": 1586,
      "ĠAt": 1587,
      "Ġmaking": 1588,
      "Ġ/": 1589,
      "ĠDec": 1590,
      "thor": 1591,
      "gether": 1592,
      "Ġ198": 1593,
      "Ġcover": 1594,
      "Ġstre": 1595,
      "ley": 1596,
      "Ġbased": 1597,
      "wh": 1598,
      "ĠSu": 1599,
      "ults": 1600,
      "Ġalong": 1601,
      "Ġtoday": 1602,
      "11": 1603,
      "port": 1604,
      "Ġvide": 1605,
      "Ġnear": 1606,
      ".,": 1607,
      "ĠPe": 1608,
      "Ġpain": 1609,
      "Ġaccess": 1610,
      "net": 1611,
      "Ġgroup": 1612,
      "Ġhum": 1613,
      "ĠBo": 1614,
      "ĠSc": 1615,
      "ĠDis": 1616,
      "fect": 1617,
      "ample": 1618,
      "mail": 1619,
      ">\"": 1620,
      "Ġmet": 1621,
      "orm": 1622,
      "lli": 1623,
      "Ġworks": 1624,
      "ajor": 1625,
      "Ġ2017": 1626,
      "ha": 1627,
      "Ġgovern": 1628,
      "aces": 1629,
      "Ġmen": 1630,
      "Ġchange": 1631,
      "Ġexce": 1632,
      "Ġ30": 1633,
      "vision": 1634,
      "Ġ16": 1635,
      "Ġcase": 1636,
      "ivid": 1637,
      "16": 1638,
      "pped": 1639,
      "Ġseason": 1640,
      "Ġimpro": 1641,
      "sp": 1642,
      "unch": 1643,
      "Ġmarket": 1644,
      "lectr": 1645,
      "Ġblo": 1646,
      "Ġwhe": 1647,
      "Ġ17": 1648,
      "go": 1649,
      "Ġbelie": 1650,
      "nology": 1651,
      "ĠJoh": 1652,
      "17": 1653,
      "ained": 1654,
      "Ġboo": 1655,
      "vious": 1656,
      "tro": 1657,
      "of": 1658,
      "ability": 1659,
      "Ġconne": 1660,
      "ected": 1661,
      "Ġfeel": 1662,
      "ably": 1663,
      "mend": 1664,
      "Ġpoint": 1665,
      "Ġoften": 1666,
      "You": 1667,
      "ĠGu": 1668,
      "vir": 1669,
      "my": 1670,
      "nks": 1671,
      "ĠRep": 1672,
      "ocus": 1673,
      "Ġland": 1674,
      "wards": 1675,
      "Ġmoney": 1676,
      "Ġpass": 1677,
      "ateg": 1678,
      "Ġretur": 1679,
      "por": 1680,
      "Ġprot": 1681,
      "ills": 1682,
      "Ġcourse": 1683,
      "ked": 1684,
      "lor": 1685,
      "Ġaway": 1686,
      "Ġreal": 1687,
      "aff": 1688,
      "Ġann": 1689,
      "Ġleg": 1690,
      "Ġ[": 1691,
      "Ġmater": 1692,
      "ĠWhen": 1693,
      "utes": 1694,
      "urs": 1695,
      "Ġseries": 1696,
      "ids": 1697,
      "Ġneeds": 1698,
      "Ġ11": 1699,
      "ON": 1700,
      "ulti": 1701,
      "Ġmusic": 1702,
      "acy": 1703,
      "lin": 1704,
      "po": 1705,
      "rali": 1706,
      "Ġrespon": 1707,
      "Ġow": 1708,
      "Ġocc": 1709,
      "Ġtimes": 1710,
      "ĠMe": 1711,
      "Ġknown": 1712,
      "Ġconst": 1713,
      "Ġreview": 1714,
      "treat": 1715,
      "vil": 1716,
      "Ġ2019": 1717,
      "Ġwrit": 1718,
      "Ġhaving": 1719,
      "ĠSy": 1720,
      "ral": 1721,
      "Ġeduc": 1722,
      "Ġstar": 1723,
      "ES": 1724,
      "Ġcustom": 1725,
      "ler": 1726,
      "ĠJan": 1727,
      "Ġlight": 1728,
      "ĠSchool": 1729,
      "Ġeasy": 1730,
      "ering": 1731,
      "Ġrecei": 1732,
      "Ġtre": 1733,
      "Ġlater": 1734,
      "Ġthough": 1735,
      "Ġseem": 1736,
      "gion": 1737,
      "ĠMy": 1738,
      "AT": 1739,
      "Ġcri": 1740,
      "Ġvisit": 1741,
      "Ġenjoy": 1742,
      "atures": 1743,
      "Ġside": 1744,
      "light": 1745,
      "ured": 1746,
      "ances": 1747,
      "viron": 1748,
      "200": 1749,
      "áĦ": 1750,
      "áħ": 1751,
      "Ġemploy": 1752,
      "ĠTra": 1753,
      "Ġatt": 1754,
      "Ġrele": 1755,
      "conom": 1756,
      "ĠX": 1757,
      "Ġcou": 1758,
      "ĠComp": 1759,
      "Ġ2016": 1760,
      "bi": 1761,
      "lege": 1762,
      "ĠMed": 1763,
      "ĠSi": 1764,
      "ape": 1765,
      "14": 1766,
      "Ġ14": 1767,
      "Ġgl": 1768,
      "Ġlet": 1769,
      "Refer": 1770,
      "Ġcity": 1771,
      "ows": 1772,
      "Ġmove": 1773,
      "Ex": 1774,
      "ĠSte": 1775,
      "AR": 1776,
      "ulation": 1777,
      "Ġteach": 1778,
      "Ġword": 1779,
      "Ġleft": 1780,
      "ĠSouth": 1781,
      "ĠServ": 1782,
      "ested": 1783,
      "Ġcalled": 1784,
      "ĠAc": 1785,
      "cl": 1786,
      "Ġbene": 1787,
      "Ġreport": 1788,
      "Ġdev": 1789,
      "right": 1790,
      "thod": 1791,
      "Ġdetail": 1792,
      "Ġenter": 1793,
      "Ġbecome": 1794,
      "achi": 1795,
      "Ġtemp": 1796,
      "ĠGod": 1797,
      "ta": 1798,
      "Ġfr": 1799,
      "ĠDes": 1800,
      "omes": 1801,
      "AN": 1802,
      "fy": 1803,
      "ĠThat": 1804,
      "Ġwhy": 1805,
      "Ġnon": 1806,
      "Ġflo": 1807,
      "time": 1808,
      "Ġmajor": 1809,
      "oice": 1810,
      "ĠApp": 1811,
      "ĠDo": 1812,
      "ams": 1813,
      "Ġcreate": 1814,
      "mm": 1815,
      "Ġcost": 1816,
      "Ġid": 1817,
      "Ġfocus": 1818,
      "ĠWhat": 1819,
      "ically": 1820,
      "Ġ197": 1821,
      "Ġtreat": 1822,
      "Ġfoot": 1823,
      "Ġbody": 1824,
      "Ġpage": 1825,
      "ĠEn": 1826,
      "sions": 1827,
      "alf": 1828,
      "Ġwar": 1829,
      "ĠNe": 1830,
      "Ġ#": 1831,
      "utions": 1832,
      "Ġlive": 1833,
      "Ġ,": 1834,
      "Ġkind": 1835,
      "ĠStates": 1836,
      "ges": 1837,
      "13": 1838,
      "ĠTe": 1839,
      "ĠEuro": 1840,
      "ĠPo": 1841,
      "uary": 1842,
      "//": 1843,
      "ĠWorld": 1844,
      "nam": 1845,
      ",âĢĿ": 1846,
      "ĠSep": 1847,
      "Ġfore": 1848,
      "urity": 1849,
      "ording": 1850,
      "ung": 1851,
      "book": 1852,
      "As": 1853,
      "Ġwon": 1854,
      "sed": 1855,
      "Ġ2015": 1856,
      "acks": 1857,
      "ĠOur": 1858,
      "Ġvol": 1859,
      "uture": 1860,
      "ilt": 1861,
      "âĢĶ": 1862,
      "Ġ13": 1863,
      "aring": 1864,
      "Ġcharac": 1865,
      "auti": 1866,
      "ists": 1867,
      "ustry": 1868,
      "we": 1869,
      "Ġpast": 1870,
      "hile": 1871,
      "ef": 1872,
      "ire": 1873,
      "Ġremo": 1874,
      "tract": 1875,
      "ray": 1876,
      "Ġothers": 1877,
      "Ġstory": 1878,
      "anies": 1879,
      "ier": 1880,
      "Ġdist": 1881,
      "ĠCity": 1882,
      "Ġpati": 1883,
      "ĠThese": 1884,
      "rew": 1885,
      "Ġearly": 1886,
      "ential": 1887,
      "nds": 1888,
      "anks": 1889,
      "Ġmeans": 1890,
      "Ġdone": 1891,
      "ĠGo": 1892,
      "Ġmakes": 1893,
      "Ġanal": 1894,
      "ÌĪ": 1895,
      "ĠAss": 1896,
      ">âĢľ": 1897,
      "Ġthing": 1898,
      "Ġfar": 1899,
      "rist": 1900,
      "lick": 1901,
      "ready": 1902,
      "artment": 1903,
      "ster": 1904,
      "nergy": 1905,
      "bility": 1906,
      "Ġcheck": 1907,
      "pes": 1908,
      "ism": 1909,
      "nia": 1910,
      "Ġwomen": 1911,
      "Ġfund": 1912,
      "://": 1913,
      "bal": 1914,
      "pril": 1915,
      "resent": 1916,
      "ead": 1917,
      "pos": 1918,
      "now": 1919,
      "!!": 1920,
      "Ġever": 1921,
      "lement": 1922,
      "Ġsocial": 1923,
      "Ġkey": 1924,
      "Ġacross": 1925,
      ",\"": 1926,
      "Ġet": 1927,
      "Ġhold": 1928,
      "Ġfilm": 1929,
      "ĠBar": 1930,
      "Ġdef": 1931,
      "riting": 1932,
      "Ġfav": 1933,
      "Ġengine": 1934,
      "ference": 1935,
      "ret": 1936,
      "alk": 1937,
      "irc": 1938,
      "uff": 1939,
      "OR": 1940,
      "Ġmean": 1941,
      "irth": 1942,
      "tire": 1943,
      "jects": 1944,
      "Ġquick": 1945,
      "iod": 1946,
      "Ġvideo": 1947,
      "sw": 1948,
      "sc": 1949,
      "Ġsim": 1950,
      "Ġprice": 1951,
      "idd": 1952,
      "ĠFeb": 1953,
      "Ġfam": 1954,
      "app": 1955,
      "rop": 1956,
      "ĠNot": 1957,
      "Ġenough": 1958,
      "Ġcal": 1959,
      "Ġinvol": 1960,
      "ĠOff": 1961,
      "ĠInter": 1962,
      "cto": 1963,
      ".âĢĿ": 1964,
      "Ġshi": 1965,
      "Ġent": 1966,
      "'re": 1967,
      "ource": 1968,
      "ither": 1969,
      "kin": 1970,
      "temp": 1971,
      "Ġjob": 1972,
      "OC": 1973,
      "Ġcamp": 1974,
      "ngth": 1975,
      "Ġris": 1976,
      "oring": 1977,
      "Ġcr": 1978,
      "ĠAug": 1979,
      "Ġnight": 1980,
      "ĠAust": 1981,
      "ĠYork": 1982,
      "Ġmulti": 1983,
      "Ġestab": 1984,
      "Ġcomes": 1985,
      "Ġsingle": 1986,
      "Ġbuy": 1987,
      "ĠNorth": 1988,
      "ĠCounty": 1989,
      "ĠOne": 1990,
      "For": 1991,
      "Ġpurch": 1992,
      "Ġfield": 1993,
      "ana": 1994,
      "Ġla": 1995,
      "Ġappear": 1996,
      "ĠState": 1997,
      "ious": 1998,
      "Ġspace": 1999,
      "Ġ24": 2000,
      "Ġ2014": 2001,
      "ume": 2002,
      "Ġbelow": 2003,
      "Ġtook": 2004,
      "Ġinte": 2005,
      "Ġbed": 2006,
      "ible": 2007,
      "Ġ100": 2008,
      "tember": 2009,
      "ĠMarch": 2010,
      "Ġz": 2011,
      "Ġcusto": 2012,
      "Ġbit": 2013,
      "Ġsum": 2014,
      "ources": 2015,
      "Ġens": 2016,
      "oned": 2017,
      "most": 2018,
      "ublic": 2019,
      "uf": 2020,
      "vent": 2021,
      "ctober": 2022,
      "ched": 2023,
      "Ġstudy": 2024,
      "Ġyoung": 2025,
      "ĠJohn": 2026,
      "ĠBri": 2027,
      "ĠEurope": 2028,
      "ruct": 2029,
      "angu": 2030,
      "ĠPer": 2031,
      "Ġguide": 2032,
      "aus": 2033,
      "ests": 2034,
      "St": 2035,
      "ony": 2036,
      "Ġdue": 2037,
      "'m": 2038,
      "Ġaw": 2039,
      "Ġbar": 2040,
      "ĠYour": 2041,
      "Ġtool": 2042,
      "Ġrange": 2043,
      "Ġtry": 2044,
      "ully": 2045,
      "Ġfuture": 2046,
      "ĠGer": 2047,
      "Ġ25": 2048,
      "Ġel": 2049,
      "tas": 2050,
      "ĠBro": 2051,
      "ĠVi": 2052,
      "ock": 2053,
      "Ġ196": 2054,
      "ried": 2055,
      "Ġshare": 2056,
      "Ġarti": 2057,
      "ĠApril": 2058,
      "ĠWar": 2059,
      "Ġstep": 2060,
      "Ġleast": 2061,
      "Ġwr": 2062,
      "ĠQu": 2063,
      "Ġsci": 2064,
      "What": 2065,
      "Ġclear": 2066,
      "pro": 2067,
      "Ġonce": 2068,
      "urance": 2069,
      "Ġartic": 2070,
      "Ġenc": 2071,
      "Ġess": 2072,
      "anc": 2073,
      "Ġage": 2074,
      "Ġhours": 2075,
      "atic": 2076,
      "Ġblog": 2077,
      "ints": 2078,
      "oose": 2079,
      "ued": 2080,
      "Ġsearch": 2081,
      "25": 2082,
      "Ġauthor": 2083,
      "atural": 2084,
      "Ġsuper": 2085,
      "lex": 2086,
      "Ġcame": 2087,
      "ommend": 2088,
      "ĠMo": 2089,
      "ĠAfter": 2090,
      "oman": 2091,
      "Ch": 2092,
      "Ġbi": 2093,
      "af": 2094,
      "Ġfinish": 2095,
      "uter": 2096,
      "Ġsays": 2097,
      "Ġclose": 2098,
      "cept": 2099,
      "abor": 2100,
      "Ġite": 2101,
      "Ġgiven": 2102,
      "nation": 2103,
      "tings": 2104,
      "Ġce": 2105,
      "table": 2106,
      "Ġdoing": 2107,
      "Ġbegin": 2108,
      "ĠJune": 2109,
      "Ġ2013": 2110,
      "ruary": 2111,
      "Ġconcer": 2112,
      "tial": 2113,
      "ĠIns": 2114,
      "ĠHigh": 2115,
      "Ġmonths": 2116,
      "lected": 2117,
      "Ġreach": 2118,
      "autiful": 2119,
      "Ġeconom": 2120,
      ".\"<": 2121,
      "ada": 2122,
      "Ġidenti": 2123,
      "Ġmethod": 2124,
      "tware": 2125,
      "ĠChe": 2126,
      "Ġperiod": 2127,
      "kets": 2128,
      "Ġbring": 2129,
      "Ġpack": 2130,
      "Ġbenef": 2131,
      "Ġresult": 2132,
      "Ġsof": 2133,
      "aps": 2134,
      "AS": 2135,
      "tax": 2136,
      "Ġsong": 2137,
      "Ġpriv": 2138,
      "not": 2139,
      "Ġfre": 2140,
      "Ġstrong": 2141,
      "lled": 2142,
      "Ġer": 2143,
      "aken": 2144,
      "Ġoffers": 2145,
      "tour": 2146,
      "bed": 2147,
      "Ġpict": 2148,
      "Ġelectr": 2149,
      "ilities": 2150,
      "Ġvalue": 2151,
      "Ġequi": 2152,
      "Ġabove": 2153,
      "Ġmag": 2154,
      "Ġdeb": 2155,
      "EN": 2156,
      "How": 2157,
      "ĠHer": 2158,
      "taking": 2159,
      "Ġste": 2160,
      "Ġgr": 2161,
      "ilit": 2162,
      "Ġgames": 2163,
      "nific": 2164,
      "ĠAm": 2165,
      "action": 2166,
      "fully": 2167,
      "duce": 2168,
      "term": 2169,
      "ĠSec": 2170,
      "onder": 2171,
      "Ġmanag": 2172,
      "ule": 2173,
      "ledge": 2174,
      "yc": 2175,
      "Ġwind": 2176,
      "Ġlinks": 2177,
      "Ġtour": 2178,
      "peci": 2179,
      "Ġsound": 2180,
      "umb": 2181,
      "ginal": 2182,
      "Ġcommon": 2183,
      "ĠCor": 2184,
      "Ġreason": 2185,
      "ĠAb": 2186,
      "Ġ2012": 2187,
      "Ġemail": 2188,
      "'ve": 2189,
      "ague": 2190,
      "back": 2191,
      "Ġdiscus": 2192,
      "Ġfive": 2193,
      "though": 2194,
      "Ġtype": 2195,
      "osp": 2196,
      "ĠJuly": 2197,
      "bum": 2198,
      "ternal": 2199,
      "Ġtax": 2200,
      "Ġnetw": 2201,
      "ancial": 2202,
      "nc": 2203,
      "Ġliving": 2204,
      "Ġmom": 2205,
      "He": 2206,
      "AL": 2207,
      "Ġbrand": 2208,
      "tish": 2209,
      "ines": 2210,
      "Ġstra": 2211,
      "Ġhuman": 2212,
      "--": 2213,
      "Ġchalle": 2214,
      "Ġfra": 2215,
      "Ġpress": 2216,
      "Ġcult": 2217,
      "ece": 2218,
      "lu": 2219,
      "ruction": 2220,
      "Ġdidn": 2221,
      "40": 2222,
      "Ġtas": 2223,
      "Ġmis": 2224,
      "omi": 2225,
      "irm": 2226,
      "ium": 2227,
      "Ġamong": 2228,
      "Ġwent": 2229,
      "pper": 2230,
      "Ġstyle": 2231,
      "ĠFr": 2232,
      "ED": 2233,
      "des": 2234,
      "Ġplease": 2235,
      "play": 2236,
      "IS": 2237,
      "ĠAf": 2238,
      "Ġweb": 2239,
      "test": 2240,
      "Ġmind": 2241,
      "Ġdeath": 2242,
      "do": 2243,
      "Ġey": 2244,
      "ĠNove": 2245,
      "Ġareas": 2246,
      "Ġinvest": 2247,
      "There": 2248,
      "ufact": 2249,
      "IT": 2250,
      "Ġlearn": 2251,
      "nel": 2252,
      "ĠPre": 2253,
      "trict": 2254,
      "ĠHar": 2255,
      "ĠChris": 2256,
      "ators": 2257,
      "Ġbirth": 2258,
      "Ġcred": 2259,
      "ĠCent": 2260,
      "chie": 2261,
      "Ġsize": 2262,
      "On": 2263,
      "Ġstay": 2264,
      "astic": 2265,
      "Ġmee": 2266,
      "Ġ*<": 2267,
      "Ġgene": 2268,
      "Ġcount": 2269,
      "ches": 2270,
      "Ġwatch": 2271,
      "att": 2272,
      "aced": 2273,
      "'ll": 2274,
      "Ġdeal": 2275,
      "ĠAugust": 2276,
      "Ġansw": 2277,
      "Ġclai": 2278,
      "augh": 2279,
      "ĠPark": 2280,
      "Ġissues": 2281,
      "Ġ:": 2282,
      "ument": 2283,
      "resh": 2284,
      "Ġbreak": 2285,
      "Ġthird": 2286,
      "ilar": 2287,
      "Ġpur": 2288,
      "Ġcard": 2289,
      "Ġcompe": 2290,
      "Ġclean": 2291,
      "Ġbecame": 2292,
      "Ġyet": 2293,
      "Ġbr": 2294,
      "ĠHis": 2295,
      "Ġtravel": 2296,
      "tig": 2297,
      "Ġmedia": 2298,
      "atis": 2299,
      "ily": 2300,
      "ĠDep": 2301,
      "Ġoffice": 2302,
      "ĠSw": 2303,
      "ĠRi": 2304,
      "Ġmoder": 2305,
      "pris": 2306,
      "Ġmatch": 2307,
      "ized": 2308,
      "fort": 2309,
      "Ġtable": 2310,
      "Ġ50": 2311,
      "asing": 2312,
      "Ġdoesn": 2313,
      "ĠSome": 2314,
      "Ġwall": 2315,
      "Ġaud": 2316,
      "keting": 2317,
      "IC": 2318,
      "Ġtell": 2319,
      "....": 2320,
      "21": 2321,
      "ging": 2322,
      "sia": 2323,
      "ream": 2324,
      "Ġfit": 2325,
      "ĠMin": 2326,
      "nding": 2327,
      "mun": 2328,
      "fin": 2329,
      "Ġmember": 2330,
      "cover": 2331,
      "ided": 2332,
      "Ġdig": 2333,
      "Ġtown": 2334,
      "licy": 2335,
      "Ġart": 2336,
      "ky": 2337,
      "ka": 2338,
      "Ġx": 2339,
      "eder": 2340,
      "Ġupd": 2341,
      "mission": 2342,
      "Ġoffic": 2343,
      "Ġrequ": 2344,
      "graphy": 2345,
      "ĠBy": 2346,
      "amb": 2347,
      "Ġdecis": 2348,
      "Ġblack": 2349,
      "ĠAir": 2350,
      "icro": 2351,
      "tivity": 2352,
      "Ġsimple": 2353,
      "ands": 2354,
      "lling": 2355,
      "uri": 2356,
      "ĠMc": 2357,
      "Ġreli": 2358,
      "22": 2359,
      "Ġseen": 2360,
      "ĠWest": 2361,
      "Ġwhole": 2362,
      "ange": 2363,
      "Ġglo": 2364,
      "tor": 2365,
      "oint": 2366,
      "ĠStud": 2367,
      "ites": 2368,
      "ĠRec": 2369,
      "Ġheld": 2370,
      "ciation": 2371,
      "ides": 2372,
      "AC": 2373,
      "Ġsho": 2374,
      "ĠPres": 2375,
      "hic": 2376,
      "Ġphone": 2377,
      "Ġtaking": 2378,
      "Ġouts": 2379,
      "ĠAg": 2380,
      "work": 2381,
      "ani": 2382,
      "Ġphys": 2383,
      "Ġenergy": 2384,
      "irt": 2385,
      "iles": 2386,
      "Ġhy": 2387,
      "Ġevents": 2388,
      "Ġmeas": 2389,
      "Ġele": 2390,
      "sm": 2391,
      "Ġwhite": 2392,
      "ĠChrist": 2393,
      "Ġ2011": 2394,
      "ĠPh": 2395,
      "ensive": 2396,
      "Ġten": 2397,
      "Ġprob": 2398,
      "ror": 2399,
      "olution": 2400,
      "tee": 2401,
      "nov": 2402,
      "ization": 2403,
      "ĠTw": 2404,
      "Ġpaper": 2405,
      "Ġflow": 2406,
      "Ġiniti": 2407,
      "Ġhalf": 2408,
      "Ġfront": 2409,
      "Ġcut": 2410,
      "ĠInc": 2411,
      "ĠWi": 2412,
      "Ġeither": 2413,
      "cies": 2414,
      "thern": 2415,
      "sy": 2416,
      "opy": 2417,
      "Ġdem": 2418,
      "rently": 2419,
      "Ġ2010": 2420,
      "Ġmess": 2421,
      "ham": 2422,
      "Ġfee": 2423,
      "Ġmor": 2424,
      "Ġwide": 2425,
      "Ġidea": 2426,
      "let": 2427,
      "Ġrepl": 2428,
      "adem": 2429,
      "Ġunique": 2430,
      "Ġdam": 2431,
      "ening": 2432,
      "Ġsugg": 2433,
      "Ġsix": 2434,
      "taken": 2435,
      "Ġbuilt": 2436,
      "Ġentire": 2437,
      "Ġhope": 2438,
      "lot": 2439,
      "urg": 2440,
      "Ġcra": 2441,
      "ĠTi": 2442,
      "men": 2443,
      "Ġwonder": 2444,
      "ĠBu": 2445,
      "ĠHome": 2446,
      "ĠSto": 2447,
      "Ġheart": 2448,
      "Ġideas": 2449,
      "Ġstaff": 2450,
      "ĠSer": 2451,
      "ental": 2452,
      "ised": 2453,
      "cil": 2454,
      "rai": 2455,
      "ables": 2456,
      "Ġalbum": 2457,
      "uation": 2458,
      "Ġnews": 2459,
      "Ġintern": 2460,
      "Ġface": 2461,
      "So": 2462,
      "Ġroad": 2463,
      "ials": 2464,
      "Ġmachi": 2465,
      "Ġcell": 2466,
      "Al": 2467,
      "Ġcirc": 2468,
      "Ġassist": 2469,
      "gest": 2470,
      "cip": 2471,
      "ĠMon": 2472,
      "Ġjour": 2473,
      "Ġpare": 2474,
      "hips": 2475,
      "itions": 2476,
      "Ġasso": 2477,
      "ĠKe": 2478,
      "ĠEd": 2479,
      "RE": 2480,
      "aur": 2481,
      "60": 2482,
      "ĠHouse": 2483,
      "When": 2484,
      "anguage": 2485,
      "Ġcommit": 2486,
      "che": 2487,
      "Ġself": 2488,
      "selves": 2489,
      "ĠChar": 2490,
      "ground": 2491,
      "face": 2492,
      "Ġpoten": 2493,
      "los": 2494,
      "nking": 2495,
      "Ġago": 2496,
      "Ġdou": 2497,
      "Ġcareer": 2498,
      "Ġparty": 2499,
      "Ġintro": 2500,
      "Ġoil": 2501,
      "ĠDOC": 2502,
      "earch": 2503,
      "\",": 2504,
      "Ġachie": 2505,
      "Ġespeci": 2506,
      "Ġprin": 2507,
      "Ġresid": 2508,
      "Ġport": 2509,
      "tar": 2510,
      "itchen": 2511,
      "ĠMus": 2512,
      "uty": 2513,
      "24": 2514,
      "ridge": 2515,
      "ondon": 2516,
      "anced": 2517,
      "airs": 2518,
      "vities": 2519,
      "come": 2520,
      "Ġtest": 2521,
      "Ġmodel": 2522,
      "ouch": 2523,
      "verage": 2524,
      "itor": 2525,
      "Ġtrack": 2526,
      "Ġannoun": 2527,
      ".\"": 2528,
      "Ġamount": 2529,
      "Ġrole": 2530,
      "ression": 2531,
      "tended": 2532,
      "ered": 2533,
      "nit": 2534,
      "Li": 2535,
      "times": 2536,
      "Ġneeded": 2537,
      "dd": 2538,
      "Ġfinal": 2539,
      "ĠCont": 2540,
      "ford": 2541,
      "ae": 2542,
      "ux": 2543,
      "Ġtaken": 2544,
      "Ġacti": 2545,
      "uge": 2546,
      "Ġfavor": 2547,
      "bor": 2548,
      "Ġadded": 2549,
      "ino": 2550,
      "Ġnecess": 2551,
      "ĠCenter": 2552,
      "Ġalmost": 2553,
      "Ġbooks": 2554,
      "ules": 2555,
      "gle": 2556,
      "Ġsign": 2557,
      "Ġformer": 2558,
      "Com": 2559,
      "ĠIntern": 2560,
      "ĠKing": 2561,
      "hold": 2562,
      "gs": 2563,
      "Ġregion": 2564,
      "atur": 2565,
      "Ġcolor": 2566,
      "Ġ...": 2567,
      "Ġmini": 2568,
      "tili": 2569,
      "la": 2570,
      "Ġquite": 2571,
      "Ġbase": 2572,
      "tention": 2573,
      "mas": 2574,
      "ser": 2575,
      "Ġbox": 2576,
      "Ġpas": 2577,
      "ĠAfric": 2578,
      "ividual": 2579,
      "ming": 2580,
      "Ġspec": 2581,
      "Ġaccom": 2582,
      "ented": 2583,
      "epend": 2584,
      "23": 2585,
      "Ġarch": 2586,
      "reg": 2587,
      "Ġuser": 2588,
      "amer": 2589,
      "esting": 2590,
      "Ġdiffic": 2591,
      "ara": 2592,
      "Ġsimply": 2593,
      "ĠSan": 2594,
      "son": 2595,
      "Ġabs": 2596,
      "ttp": 2597,
      "Ġregard": 2598,
      "azing": 2599,
      "amed": 2600,
      "hind": 2601,
      "rench": 2602,
      "Ġchoose": 2603,
      "Ġvehic": 2604,
      "Ġfiles": 2605,
      "80": 2606,
      "Ġagree": 2607,
      "ĠDay": 2608,
      "tific": 2609,
      "Ġetc": 2610,
      "Ġwood": 2611,
      "Ġmiss": 2612,
      "aling": 2613,
      "antly": 2614,
      "Pro": 2615,
      "Ġpoints": 2616,
      "Ġturn": 2617,
      "head": 2618,
      "Ġtotal": 2619,
      "mental": 2620,
      "logical": 2621,
      "Ġ21": 2622,
      "ciety": 2623,
      "Ġlink": 2624,
      "otel": 2625,
      "Ġensure": 2626,
      "Ġmeet": 2627,
      "ĠLondon": 2628,
      "Ġgir": 2629,
      "To": 2630,
      "Ġali": 2631,
      "tional": 2632,
      "Ġways": 2633,
      "ology": 2634,
      "Ġrou": 2635,
      "ĠRus": 2636,
      "Ġpric": 2637,
      "Ġspend": 2638,
      "ication": 2639,
      "ĠDa": 2640,
      "Ġissue": 2641,
      "nical": 2642,
      "Ġanim": 2643,
      "ĠFin": 2644,
      "Ġbad": 2645,
      "oid": 2646,
      "tine": 2647,
      "Ġcaus": 2648,
      "ville": 2649,
      "Ġtes": 2650,
      "Ġrecog": 2651,
      "ĠTH": 2652,
      "Ġtext": 2653,
      "medi": 2654,
      "takes": 2655,
      "Ġplayed": 2656,
      "ĠOf": 2657,
      "Ġsent": 2658,
      "top": 2659,
      "Ġbal": 2660,
      "Ġmodern": 2661,
      "Ġdate": 2662,
      "Ġsal": 2663,
      "aving": 2664,
      "Ġred": 2665,
      "ov": 2666,
      "And": 2667,
      "ĠTech": 2668,
      "Ġbot": 2669,
      "ĠGra": 2670,
      "Ġrather": 2671,
      "ama": 2672,
      "uct": 2673,
      "oph": 2674,
      "neral": 2675,
      "eds": 2676,
      "Ġvia": 2677,
      "Ġcomb": 2678,
      "where": 2679,
      "pment": 2680,
      "US": 2681,
      "Ġstruct": 2682,
      "Ġbegan": 2683,
      "Ġextra": 2684,
      "Ġlikely": 2685,
      "Ġfail": 2686,
      "Ġpick": 2687,
      "aily": 2688,
      "Ġpromo": 2689,
      "ox": 2690,
      "lies": 2691,
      "Ġtru": 2692,
      "sian": 2693,
      "Ġground": 2694,
      "Ġexpl": 2695,
      "99": 2696,
      "reet": 2697,
      "Ġfamili": 2698,
      "iddle": 2699,
      "ĠPhi": 2700,
      "Ġsoon": 2701,
      "bert": 2702,
      "Ġtakes": 2703,
      "Ġaction": 2704,
      "oud": 2705,
      "ĠDon": 2706,
      "cep": 2707,
      "Ġrefer": 2708,
      "Ġlay": 2709,
      "avy": 2710,
      "Ġwa": 2711,
      "ysis": 2712,
      "uals": 2713,
      "Ġtele": 2714,
      "Ġinj": 2715,
      "Ġfire": 2716,
      "atory": 2717,
      "ĠDr": 2718,
      "aker": 2719,
      "hib": 2720,
      "wood": 2721,
      "Ġshows": 2722,
      "ĠCons": 2723,
      "mary": 2724,
      "Ġ194": 2725,
      "Ġround": 2726,
      "elling": 2727,
      "ĠJo": 2728,
      "ashi": 2729,
      "over": 2730,
      "ĠBer": 2731,
      "ones": 2732,
      "ude": 2733,
      "Ġcoll": 2734,
      "Ġdu": 2735,
      "ĠUK": 2736,
      "ĠII": 2737,
      "ĠCali": 2738,
      "ĠHealth": 2739,
      "key": 2740,
      "atest": 2741,
      "ĠJap": 2742,
      "Ġconsum": 2743,
      "Be": 2744,
      "oogle": 2745,
      "Ġworked": 2746,
      "Ġreali": 2747,
      "enced": 2748,
      "Ġill": 2749,
      "orge": 2750,
      "Ġlim": 2751,
      "Ġfall": 2752,
      "ĠAu": 2753,
      "atform": 2754,
      "ĠMore": 2755,
      "zation": 2756,
      "Ġ2009": 2757,
      "erc": 2758,
      "Ġcoming": 2759,
      "ularly": 2760,
      "Ġclub": 2761,
      "Ġanti": 2762,
      "Ġ23": 2763,
      "gr": 2764,
      "Ġloss": 2765,
      "Ġhigher": 2766,
      "ĠBlack": 2767,
      "ĠNor": 2768,
      "Ġrate": 2769,
      "Ġwanted": 2770,
      "Ġstri": 2771,
      "ĠPi": 2772,
      "Ġsen": 2773,
      "Ġ40": 2774,
      "Ġdepe": 2775,
      "Ġ22": 2776,
      "Ġadmin": 2777,
      "Ġsales": 2778,
      "ĠAsso": 2779,
      "tian": 2780,
      "lied": 2781,
      "aby": 2782,
      "oura": 2783,
      "Ġsafe": 2784,
      "Ġelse": 2785,
      "Ġready": 2786,
      "Ġmatter": 2787,
      "Ġupon": 2788,
      "aul": 2789,
      "ĠIndia": 2790,
      "ĠSci": 2791,
      "isting": 2792,
      "ĠÐ": 2793,
      "Ġbehind": 2794,
      "Ġstore": 2795,
      "ights": 2796,
      "lier": 2797,
      "verse": 2798,
      "Ġlate": 2799,
      "Ġimage": 2800,
      "Ġequ": 2801,
      "Ġtrying": 2802,
      "bile": 2803,
      "Ġparts": 2804,
      "ket": 2805,
      "Ġoption": 2806,
      "Ġwords": 2807,
      "ker": 2808,
      "AM": 2809,
      "tail": 2810,
      "fornia": 2811,
      "Ġsle": 2812,
      "Ġhost": 2813,
      "Ġexc": 2814,
      "range": 2815,
      "OS": 2816,
      "Ġtar": 2817,
      "Ġpers": 2818,
      "aging": 2819,
      "Ġ2008": 2820,
      "Ġskin": 2821,
      "Ġdeg": 2822,
      "trac": 2823,
      "ops": 2824,
      "Ġtrue": 2825,
      "ecu": 2826,
      "Ġkids": 2827,
      "roups": 2828,
      "ĠFrom": 2829,
      "Ġep": 2830,
      "Ġmix": 2831,
      "Ġreturn": 2832,
      "osed": 2833,
      "Ġinside": 2834,
      "ini": 2835,
      "ĠOp": 2836,
      "ampions": 2837,
      "Ġskills": 2838,
      "ĠAre": 2839,
      "Ġrepair": 2840,
      "elt": 2841,
      "tty": 2842,
      "Ġusers": 2843,
      "col": 2844,
      "aining": 2845,
      "Ġappe": 2846,
      "cious": 2847,
      "Ġlonger": 2848,
      "\".": 2849,
      "ses": 2850,
      "Ġsqu": 2851,
      "Ġhappy": 2852,
      "attle": 2853,
      "Ġtold": 2854,
      "Ġsuff": 2855,
      "Ġrisk": 2856,
      "ressed": 2857,
      "sition": 2858,
      "uel": 2859,
      "Ġfast": 2860,
      "Ġarri": 2861,
      "Ġap": 2862,
      "Ġdraw": 2863,
      "ience": 2864,
      "Ġmovi": 2865,
      "Ġnice": 2866,
      "ctions": 2867,
      "ĠSch": 2868,
      "ctor": 2869,
      "Ġemb": 2870,
      "ĠLa": 2871,
      "Ġprior": 2872,
      "OT": 2873,
      "Ġweeks": 2874,
      "Ġitems": 2875,
      "zing": 2876,
      "une": 2877,
      "Ġpolicy": 2878,
      "field": 2879,
      "Ġcannot": 2880,
      "ags": 2881,
      "Ġprep": 2882,
      "Ġboard": 2883,
      "Ġreduc": 2884,
      "Ġ195": 2885,
      "Ġdrive": 2886,
      "ĠBra": 2887,
      "irit": 2888,
      "Ġcas": 2889,
      "year": 2890,
      "Ġassoci": 2891,
      "Ġcele": 2892,
      "ald": 2893,
      "cks": 2894,
      "Ġsubs": 2895,
      "uted": 2896,
      "board": 2897,
      "ĠCour": 2898,
      "Ġlives": 2899,
      "Ġgrowth": 2900,
      "ralia": 2901,
      "Ġexplo": 2902,
      "Ġbri": 2903,
      "str": 2904,
      "Ġscreen": 2905,
      "ĠRed": 2906,
      "Ġgre": 2907,
      "Ġleave": 2908,
      "Ġpretty": 2909,
      "ĠReg": 2910,
      "Ġbath": 2911,
      "www": 2912,
      "lying": 2913,
      "rain": 2914,
      "ĠNow": 2915,
      "asons": 2916,
      "Ġcredit": 2917,
      "lid": 2918,
      "ĠInst": 2919,
      "based": 2920,
      "Ġfig": 2921,
      "Ġcode": 2922,
      "vin": 2923,
      "orage": 2924,
      "mercial": 2925,
      "Ġask": 2926,
      "Sh": 2927,
      "Ġsold": 2928,
      "ĠAng": 2929,
      "70": 2930,
      "aries": 2931,
      "zz": 2932,
      "Ġcenter": 2933,
      "Ġlaunch": 2934,
      "clus": 2935,
      "ashing": 2936,
      "llent": 2937,
      "alist": 2938,
      "ĠMark": 2939,
      "orting": 2940,
      "Ġsepar": 2941,
      "ĠUp": 2942,
      "ees": 2943,
      "Ġterms": 2944,
      "Ġpat": 2945,
      "Ġwish": 2946,
      "Ġborn": 2947,
      "Ġrecent": 2948,
      "Ġstop": 2949,
      "titute": 2950,
      "ĠMr": 2951,
      "Ġlost": 2952,
      "All": 2953,
      "Ġisn": 2954,
      "Ġinves": 2955,
      "veloped": 2956,
      "iction": 2957,
      "arden": 2958,
      "Ġband": 2959,
      "ords": 2960,
      "uk": 2961,
      "Ġchoice": 2962,
      "Ġinspi": 2963,
      "hood": 2964,
      "nter": 2965,
      "Ġsched": 2966,
      "pre": 2967,
      "agra": 2968,
      "ĠChina": 2969,
      "Ġvill": 2970,
      "Ġexpect": 2971,
      "Ġsale": 2972,
      "Ġ28": 2973,
      "Ġhair": 2974,
      "Ġeasily": 2975,
      "ĠCommun": 2976,
      "Ġsun": 2977,
      "pose": 2978,
      "Ġcand": 2979,
      "gu": 2980,
      "estern": 2981,
      "Ġsummer": 2982,
      "like": 2983,
      "35": 2984,
      "Ġcross": 2985,
      "Ġworth": 2986,
      "ĠWilli": 2987,
      "ĠTV": 2988,
      "Ġhear": 2989,
      "Ġbus": 2990,
      "Ġrights": 2991,
      "Ġchurch": 2992,
      "ĠWind": 2993,
      "ĠAcc": 2994,
      "Ġhit": 2995,
      "Ġgoal": 2996,
      "Ġimpact": 2997,
      "OU": 2998,
      "An": 2999,
      "Ġ26": 3000,
      "199": 3001,
      "Ġexact": 3002,
      "Ġcouple": 3003,
      "ĠStreet": 3004,
      "26": 3005,
      "Ġlatest": 3006,
      "acing": 3007,
      "Our": 3008,
      "EC": 3009,
      "Ġobs": 3010,
      "Ġnorm": 3011,
      "off": 3012,
      "Ġallows": 3013,
      "Ġcook": 3014,
      "ilitary": 3015,
      "Ġreci": 3016,
      "Ġgroups": 3017,
      "OM": 3018,
      "Ġsave": 3019,
      "ades": 3020,
      "yl": 3021,
      "edding": 3022,
      "Ġdeep": 3023,
      "ĠEast": 3024,
      "Ġfine": 3025,
      "Ġled": 3026,
      "idered": 3027,
      "ĠWhile": 3028,
      "lands": 3029,
      "useum": 3030,
      "Ġradi": 3031,
      "Ġhistor": 3032,
      "28": 3033,
      "Ġlab": 3034,
      "Ġcause": 3035,
      "Ġasked": 3036,
      "atives": 3037,
      "onic": 3038,
      "ĠGroup": 3039,
      "Ġsell": 3040,
      "raft": 3041,
      "Ġsaf": 3042,
      "Ġquali": 3043,
      "ĠPlease": 3044,
      "cessful": 3045,
      "Ġ+": 3046,
      "Ġdoor": 3047,
      "Ġ27": 3048,
      "Ġther": 3049,
      "Ġdefe": 3050,
      "My": 3051,
      "ID": 3052,
      "Ġple": 3053,
      "ras": 3054,
      "áĨ": 3055,
      "ĠLaw": 3056,
      "27": 3057,
      "Ġweight": 3058,
      "Ġ2007": 3059,
      "Ġdeterm": 3060,
      "ET": 3061,
      "lines": 3062,
      "But": 3063,
      "Ġanyone": 3064,
      "Ġplayer": 3065,
      "Ġfish": 3066,
      "ĠMor": 3067,
      "ĠVe": 3068,
      "ĠTer": 3069,
      "Ġautom": 3070,
      "Ġhot": 3071,
      "Ġsaw": 3072,
      "Ġplans": 3073,
      "zes": 3074,
      "Ġseems": 3075,
      "Ġfresh": 3076,
      "ĠFe": 3077,
      "Ġbur": 3078,
      "At": 3079,
      "Ġlower": 3080,
      "Ġcases": 3081,
      "ĠLo": 3082,
      "arter": 3083,
      "ico": 3084,
      "Ġhor": 3085,
      "finite": 3086,
      "ĠIndian": 3087,
      "Ġitself": 3088,
      "Ġindic": 3089,
      "ING": 3090,
      "ib": 3091,
      "omin": 3092,
      "Ġtypes": 3093,
      "aged": 3094,
      "ĠPost": 3095,
      "kes": 3096,
      "aran": 3097,
      "ĠFirst": 3098,
      "Ġlooks": 3099,
      "Ġattemp": 3100,
      "Ġnamed": 3101,
      "vey": 3102,
      "ĠDirect": 3103,
      "Ġserved": 3104,
      "Ġtalk": 3105,
      "Ġprint": 3106,
      "tition": 3107,
      "dom": 3108,
      "tely": 3109,
      "Ġgold": 3110,
      "Ġson": 3111,
      "Ġplant": 3112,
      "Ġbud": 3113,
      "Ġaward": 3114,
      "Ġsource": 3115,
      "Ġcosts": 3116,
      "Ġeffici": 3117,
      "va": 3118,
      "Ġmid": 3119,
      "brary": 3120,
      "Ġadj": 3121,
      "Ġlevels": 3122,
      "With": 3123,
      "ounts": 3124,
      "rest": 3125,
      "ĠTur": 3126,
      "ĠFrench": 3127,
      "Ġdise": 3128,
      "Ġinflu": 3129,
      "Ġactive": 3130,
      "Ġimmedi": 3131,
      "illed": 3132,
      "ĠEar": 3133,
      "ĠBest": 3134,
      "ooks": 3135,
      "29": 3136,
      "ĠFree": 3137,
      "dy": 3138,
      "erous": 3139,
      "ĠCanada": 3140,
      "aly": 3141,
      "touch": 3142,
      "wi": 3143,
      "ÌĤ": 3144,
      "45": 3145,
      "Ġextre": 3146,
      "Ġsou": 3147,
      "Ġhighly": 3148,
      "gen": 3149,
      "Ġtools": 3150,
      "Ġci": 3151,
      "Ġwrite": 3152,
      "Ġmobile": 3153,
      "Ġwal": 3154,
      "estiv": 3155,
      "ban": 3156,
      "hel": 3157,
      "ffic": 3158,
      "stic": 3159,
      "Ġmoment": 3160,
      "Ġeli": 3161,
      "ida": 3162,
      "Ġsense": 3163,
      "Ġund": 3164,
      "band": 3165,
      "Ġemer": 3166,
      "ĠHere": 3167,
      "ques": 3168,
      "rown": 3169,
      "ĠGl": 3170,
      "Ġpath": 3171,
      "erve": 3172,
      "ĠTrans": 3173,
      "Ġmount": 3174,
      "ĠMag": 3175,
      "EL": 3176,
      "Ġshall": 3177,
      "Ar": 3178,
      "Ġcoach": 3179,
      "oming": 3180,
      "Ġhous": 3181,
      "ĠSystem": 3182,
      "Ġterm": 3183,
      "AP": 3184,
      "Ġfloor": 3185,
      "Ġcampai": 3186,
      "Ġlic": 3187,
      "Ġplaces": 3188,
      "Ġwel": 3189,
      "town": 3190,
      "ĠPort": 3191,
      "istory": 3192,
      "Ġ--": 3193,
      "ĠChurch": 3194,
      "ĠScot": 3195,
      "Ġdire": 3196,
      "ube": 3197,
      "IL": 3198,
      "verti": 3199,
      "ederal": 3200,
      "ĠTri": 3201,
      "Ġdevice": 3202,
      "Ðµ": 3203,
      "Ġded": 3204,
      "her": 3205,
      "Ġimages": 3206,
      "Ġclick": 3207,
      "atus": 3208,
      "Ġscore": 3209,
      "Ġsafety": 3210,
      "sych": 3211,
      "Ġgiving": 3212,
      "Ġ.<": 3213,
      "Ġbroad": 3214,
      "sequ": 3215,
      "itect": 3216,
      "Ġwalk": 3217,
      "erved": 3218,
      "Ġsouth": 3219,
      "olf": 3220,
      "ector": 3221,
      "After": 3222,
      "ware": 3223,
      "Ġlegal": 3224,
      "Ġtouch": 3225,
      "Ġchance": 3226,
      "Ġgives": 3227,
      "Ġgreen": 3228,
      "Ġfix": 3229,
      "viously": 3230,
      "eth": 3231,
      "rought": 3232,
      "niture": 3233,
      "ael": 3234,
      "fts": 3235,
      "Ġimm": 3236,
      "Ġsil": 3237,
      "Ġfeed": 3238,
      "Ġdaily": 3239,
      "ĠMod": 3240,
      "gar": 3241,
      "ĠFri": 3242,
      "van": 3243,
      "Ġswe": 3244,
      "ĠLeague": 3245,
      "otes": 3246,
      "Ġ2006": 3247,
      "ĠNews": 3248,
      "33": 3249,
      "ĠFran": 3250,
      "Ġ=": 3251,
      "ĠRoad": 3252,
      "Ġowners": 3253,
      "ĠAct": 3254,
      "Ġones": 3255,
      "rements": 3256,
      "Ġsites": 3257,
      "born": 3258,
      "ago": 3259,
      "ize": 3260,
      "Ġconven": 3261,
      "Ġpred": 3262,
      "Ġgen": 3263,
      "Ð¾": 3264,
      "oles": 3265,
      "orks": 3266,
      "Ġhands": 3267,
      "Ġattend": 3268,
      "ston": 3269,
      "havi": 3270,
      "Ġtyp": 3271,
      "enty": 3272,
      "Ġglobal": 3273,
      "lam": 3274,
      "ĠFace": 3275,
      "ert": 3276,
      "ĠGreat": 3277,
      "Ġ29": 3278,
      "iting": 3279,
      "Ġpen": 3280,
      "Con": 3281,
      "__": 3282,
      "Ġeffect": 3283,
      "timate": 3284,
      "Ġpiece": 3285,
      "echan": 3286,
      "ĠRiver": 3287,
      "Ġsli": 3288,
      "Ġsend": 3289,
      "ĠIN": 3290,
      "ecutive": 3291,
      "ising": 3292,
      "Ġutili": 3293,
      "??": 3294,
      "ĠGoogle": 3295,
      "lation": 3296,
      "merican": 3297,
      "ares": 3298,
      "Ġtechni": 3299,
      "cast": 3300,
      "ament": 3301,
      "Ġcool": 3302,
      "ĠSen": 3303,
      "formed": 3304,
      "ĠDavid": 3305,
      "ĠCle": 3306,
      "Ġhuge": 3307,
      "orary": 3308,
      "mod": 3309,
      "Ġgar": 3310,
      "ĠGold": 3311,
      "Ġdecor": 3312,
      "Ġglass": 3313,
      "Ġspeak": 3314,
      "Ġslow": 3315,
      "Ġtitle": 3316,
      "ĠWhite": 3317,
      "zer": 3318,
      "Ġanswer": 3319,
      "ĠRead": 3320,
      "ĠAN": 3321,
      "New": 3322,
      "yond": 3323,
      "Ġliter": 3324,
      "ĠCap": 3325,
      "aint": 3326,
      "Ġjud": 3327,
      "Ġgoes": 3328,
      "Ġcoo": 3329,
      "ĠJe": 3330,
      "Ġdru": 3331,
      "Ġexten": 3332,
      "Ġ60": 3333,
      "Ġfully": 3334,
      "aughter": 3335,
      "ĠÂ£": 3336,
      "Ġsus": 3337,
      "Ġmer": 3338,
      "ĠEl": 3339,
      "sib": 3340,
      "ĠGovern": 3341,
      "Ġmother": 3342,
      "Ġnature": 3343,
      "uit": 3344,
      "mark": 3345,
      "75": 3346,
      "ĠTim": 3347,
      "ied": 3348,
      "ĠYear": 3349,
      "Ġul": 3350,
      "BC": 3351,
      "Ġprog": 3352,
      "ordi": 3353,
      "wise": 3354,
      "36": 3355,
      "Ġtrip": 3356,
      "iring": 3357,
      "ians": 3358,
      "Ġmoved": 3359,
      "Ġgri": 3360,
      "ĠOut": 3361,
      "put": 3362,
      "ĠGreen": 3363,
      "Ġnor": 3364,
      "ek": 3365,
      "tone": 3366,
      "=\"": 3367,
      "ĠPat": 3368,
      "See": 3369,
      "ĠArch": 3370,
      "zy": 3371,
      "Ġinnov": 3372,
      "No": 3373,
      "ots": 3374,
      "Ġholi": 3375,
      "Ġhelps": 3376,
      "Ġspeed": 3377,
      "AD": 3378,
      "Ġnote": 3379,
      "lls": 3380,
      "ST": 3381,
      "ault": 3382,
      "ospital": 3383,
      "ruit": 3384,
      "Ġsuit": 3385,
      "Ġmax": 3386,
      "cing": 3387,
      "mith": 3388,
      "gram": 3389,
      "Ġang": 3390,
      "Ġmyself": 3391,
      "ĠClub": 3392,
      "Ġgave": 3393,
      "ĠSm": 3394,
      "ders": 3395,
      "Ġconc": 3396,
      "Ġphotos": 3397,
      "rote": 3398,
      "Ġprices": 3399,
      "leg": 3400,
      "ĠGi": 3401,
      "alled": 3402,
      "ĠPr": 3403,
      "Ġsex": 3404,
      "ĠMost": 3405,
      "ĠDem": 3406,
      "Ġstage": 3407,
      "Ġprom": 3408,
      "39": 3409,
      "Ġâ": 3410,
      "Ġevid": 3411,
      "ison": 3412,
      "ĠJes": 3413,
      "Sp": 3414,
      "ĠNet": 3415,
      "cle": 3416,
      "haps": 3417,
      "Ġfather": 3418,
      "Ġauto": 3419,
      "ĠPen": 3420,
      "Ġrent": 3421,
      "org": 3422,
      "arily": 3423,
      "ĠArt": 3424,
      "One": 3425,
      "ĠSuper": 3426,
      "Ġneigh": 3427,
      "ĠSund": 3428,
      "Ġfem": 3429,
      "88": 3430,
      "pite": 3431,
      "Post": 3432,
      "Ġorigin": 3433,
      "Ġpropos": 3434,
      "ĠProduc": 3435,
      "Ġfilms": 3436,
      "Ġgradu": 3437,
      "OL": 3438,
      "Ġnation": 3439,
      "ĠProf": 3440,
      "Ġprefer": 3441,
      "Ġstock": 3442,
      "ura": 3443,
      "Ġmas": 3444,
      "Ġdro": 3445,
      "ager": 3446,
      "tis": 3447,
      "ressive": 3448,
      "Ġdark": 3449,
      "mal": 3450,
      "more": 3451,
      "Ġapply": 3452,
      "Ġhi": 3453,
      "ancy": 3454,
      "ix": 3455,
      "ulated": 3456,
      "Ġuses": 3457,
      "Ġbank": 3458,
      "ĠTex": 3459,
      "Ġreve": 3460,
      "rial": 3461,
      "Ġattack": 3462,
      "iner": 3463,
      "eri": 3464,
      "Ġgoals": 3465,
      "Ġtic": 3466,
      "Ġvac": 3467,
      "Ġdel": 3468,
      "ĠMac": 3469,
      "nese": 3470,
      "Ġfirm": 3471,
      "Ð°": 3472,
      "PS": 3473,
      "Ġteams": 3474,
      "Ġfrequ": 3475,
      "ander": 3476,
      "anese": 3477,
      "Ġcarry": 3478,
      "Ġcat": 3479,
      "ichael": 3480,
      "ION": 3481,
      "ern": 3482,
      "ĠPlay": 3483,
      "ffee": 3484,
      "Ġconver": 3485,
      "Ġgas": 3486,
      "xim": 3487,
      "Ġasp": 3488,
      "Ġaware": 3489,
      "ĠLet": 3490,
      "used": 3491,
      "Ġdry": 3492,
      "house": 3493,
      "Ġgets": 3494,
      "Ġfai": 3495,
      "ĠEvery": 3496,
      "hire": 3497,
      "lone": 3498,
      "bu": 3499,
      "Ġalter": 3500,
      "ĠSum": 3501,
      "estival": 3502,
      "mar": 3503,
      "ãģ": 3504,
      "Ġwarm": 3505,
      "Ġviol": 3506,
      "ĠEduc": 3507,
      "ller": 3508,
      "Ġload": 3509,
      ">(": 3510,
      "90": 3511,
      "Ġblood": 3512,
      "za": 3513,
      "34": 3514,
      "vant": 3515,
      "ĠJust": 3516,
      "ĠThen": 3517,
      "ĠJames": 3518,
      "Ġnorth": 3519,
      "Ġblock": 3520,
      "sey": 3521,
      "Ġsce": 3522,
      "Ġcourt": 3523,
      "Ġdied": 3524,
      "change": 3525,
      "ership": 3526,
      "Ġavoid": 3527,
      "Ġpor": 3528,
      "ĠBre": 3529,
      "nic": 3530,
      "mitted": 3531,
      "nges": 3532,
      "Ġcamer": 3533,
      "EO": 3534,
      "bra": 3535,
      "Ġcab": 3536,
      "Ġcateg": 3537,
      "mate": 3538,
      "ĠGet": 3539,
      "Pl": 3540,
      "orted": 3541,
      "Ġmoving": 3542,
      "Ġball": 3543,
      "Pe": 3544,
      "order": 3545,
      "Do": 3546,
      "if": 3547,
      "Ġwrong": 3548,
      "Ġseven": 3549,
      "cis": 3550,
      "lymp": 3551,
      "Ġtrust": 3552,
      "thes": 3553,
      "iling": 3554,
      "kend": 3555,
      "anish": 3556,
      "set": 3557,
      "lit": 3558,
      "ken": 3559,
      "ĠImp": 3560,
      "Ġaim": 3561,
      "ĠRem": 3562,
      "Ġ2005": 3563,
      "Ġrock": 3564,
      "Ġassess": 3565,
      "Ġhour": 3566,
      "Ġhon": 3567,
      "amples": 3568,
      "Ġasse": 3569,
      "Ġclient": 3570,
      "ĠFlor": 3571,
      "Ġtemper": 3572,
      "ĠMount": 3573,
      "ĠMal": 3574,
      "ĠCourt": 3575,
      "Ġunit": 3576,
      "Ġshop": 3577,
      "ĠLife": 3578,
      "ded": 3579,
      "Ġoccur": 3580,
      "nging": 3581,
      "Ġstates": 3582,
      "Ġdegree": 3583,
      "bon": 3584,
      "alley": 3585,
      "ĠOver": 3586,
      "ĠSing": 3587,
      ">-": 3588,
      "ashion": 3589,
      "venue": 3590,
      "Ġtrade": 3591,
      "TM": 3592,
      "ĠGerman": 3593,
      "Ad": 3594,
      "Le": 3595,
      "Ġheat": 3596,
      "omb": 3597,
      "By": 3598,
      "Ġcopy": 3599,
      "ĠSal": 3600,
      "Ġsports": 3601,
      "Ġwoman": 3602,
      "ĠDesign": 3603,
      "Ġposted": 3604,
      "tices": 3605,
      "Ġrace": 3606,
      "Ġbehavi": 3607,
      "vement": 3608,
      "Ġadvant": 3609,
      "Ġframe": 3610,
      "Ġwrote": 3611,
      "tives": 3612,
      "ously": 3613,
      "38": 3614,
      "Ġfab": 3615,
      "ãĤ": 3616,
      "ategy": 3617,
      "aught": 3618,
      "ĠGood": 3619,
      "Ġfelt": 3620,
      "à¤": 3621,
      "Ġwife": 3622,
      "Ġspent": 3623,
      "aturday": 3624,
      "lock": 3625,
      "Ġexerc": 3626,
      "porate": 3627,
      "itation": 3628,
      "Ġhar": 3629,
      "Ġfarm": 3630,
      "assi": 3631,
      "Ġ2000": 3632,
      "door": 3633,
      "wide": 3634,
      "ĠSupp": 3635,
      "ĠNi": 3636,
      "ona": 3637,
      "ĠRoy": 3638,
      "Ġentry": 3639,
      "ĠFriday": 3640,
      "Ġneg": 3641,
      "ĠAlso": 3642,
      "ano": 3643,
      "nary": 3644,
      "ĠMet": 3645,
      "rd": 3646,
      "Ġaccomp": 3647,
      "ga": 3648,
      "Ġ>": 3649,
      "Ġsleep": 3650,
      "ĠMem": 3651,
      "oday": 3652,
      "100": 3653,
      "ĠLou": 3654,
      "ĠRich": 3655,
      "olute": 3656,
      "ĠTHE": 3657,
      "ceed": 3658,
      "oma": 3659,
      "place": 3660,
      "ghting": 3661,
      "Ġfell": 3662,
      "37": 3663,
      "ero": 3664,
      "Ġeye": 3665,
      "reek": 3666,
      "Ġmovie": 3667,
      "eless": 3668,
      "ĠStar": 3669,
      "ĠBoard": 3670,
      "bur": 3671,
      "Ġope": 3672,
      "Ġdamage": 3673,
      "):": 3674,
      "tified": 3675,
      "ĠPaul": 3676,
      "vention": 3677,
      "Ġblue": 3678,
      "Ġsn": 3679,
      ">|-": 3680,
      "unt": 3681,
      "body": 3682,
      "Ġlog": 3683,
      "Ġtarget": 3684,
      "ĠPM": 3685,
      "eces": 3686,
      "ĠClass": 3687,
      "native": 3688,
      "apy": 3689,
      "ĠVis": 3690,
      "odes": 3691,
      "nner": 3692,
      "Ġexam": 3693,
      "aves": 3694,
      "ado": 3695,
      "yn": 3696,
      "ecause": 3697,
      "De": 3698,
      "alized": 3699,
      "ÌĦ": 3700,
      "ĠAM": 3701,
      "Ġpages": 3702,
      "pm": 3703,
      "Ġanaly": 3704,
      "Ġeffort": 3705,
      "Ġinstit": 3706,
      "65": 3707,
      "gins": 3708,
      "Ġspot": 3709,
      "32": 3710,
      "ĠBook": 3711,
      "Ġhotel": 3712,
      "Ġgift": 3713,
      "avi": 3714,
      "Ġmiles": 3715,
      "Ġ31": 3716,
      "inc": 3717,
      "icated": 3718,
      "Ġfair": 3719,
      "Ġshown": 3720,
      "Ġhttp": 3721,
      "ĠJer": 3722,
      "Ġdead": 3723,
      "ooth": 3724,
      "prise": 3725,
      "Ġserve": 3726,
      "Ġpolice": 3727,
      "ya": 3728,
      "ĠBay": 3729,
      "Ġcandid": 3730,
      "Ġspirit": 3731,
      "Ġindust": 3732,
      "Ġstuff": 3733,
      "nition": 3734,
      "rol": 3735,
      "ield": 3736,
      "ĠCal": 3737,
      "Ġpaid": 3738,
      "rel": 3739,
      "many": 3740,
      "tained": 3741,
      "ĠMic": 3742,
      "Ġpane": 3743,
      "Ġaccept": 3744,
      "ĠSub": 3745,
      "Ġdog": 3746,
      "Ġnovel": 3747,
      "ĠPhoto": 3748,
      "Is": 3749,
      "list": 3750,
      ",<": 3751,
      "ĠBur": 3752,
      "ĠMary": 3753,
      "Ġbasis": 3754,
      "unk": 3755,
      "ĠMusic": 3756,
      "ĠShi": 3757,
      "Ġban": 3758,
      "ĠVol": 3759,
      "Ġmat": 3760,
      "long": 3761,
      "ĠQue": 3762,
      "Ġlength": 3763,
      "ĠOffice": 3764,
      "Ġcharge": 3765,
      "ĠThanks": 3766,
      "file": 3767,
      "ĠWeb": 3768,
      "Ġsurvi": 3769,
      "Ġvo": 3770,
      "Ġenh": 3771,
      "Ġdemon": 3772,
      "arian": 3773,
      "Ġwait": 3774,
      "Ġdouble": 3775,
      "44": 3776,
      "ĠSunday": 3777,
      "ĠDri": 3778,
      "Ġmass": 3779,
      "EM": 3780,
      "ĠFore": 3781,
      "Ġbasic": 3782,
      "Ġ@": 3783,
      "priate": 3784,
      "ĠSpeci": 3785,
      "ĠBen": 3786,
      "'d": 3787,
      "ĠParty": 3788,
      "ĠHo": 3789,
      "Ġappre": 3790,
      "ĠIsland": 3791,
      "ĠLake": 3792,
      "ĠEmp": 3793,
      "tainly": 3794,
      "ĠThom": 3795,
      "raw": 3796,
      "Ġfeet": 3797,
      "Ġhomes": 3798,
      "Ġbeyond": 3799,
      "Ġexist": 3800,
      "ula": 3801,
      "ufactur": 3802,
      "itter": 3803,
      "ester": 3804,
      "Ġeat": 3805,
      "Ne": 3806,
      "Ð¸": 3807,
      "Ġtried": 3808,
      "Ġproced": 3809,
      "Ġmaster": 3810,
      "fying": 3811,
      "asion": 3812,
      "ĠLove": 3813,
      "ttps": 3814,
      "oted": 3815,
      "ĠSur": 3816,
      "Ġlines": 3817,
      "IP": 3818,
      "ĠCli": 3819,
      "IG": 3820,
      "Ġran": 3821,
      "ĠTexas": 3822,
      "Ġpremi": 3823,
      "ĠDown": 3824,
      "Ġepis": 3825,
      "ĠStr": 3826,
      "55": 3827,
      "ancing": 3828,
      "Ġsupply": 3829,
      "Ġadvice": 3830,
      "Ġdemand": 3831,
      "Ġmaxim": 3832,
      "Ġbrow": 3833,
      "elp": 3834,
      "Ġrates": 3835,
      "ĠFl": 3836,
      "Ġeyes": 3837,
      "Ġcash": 3838,
      "ĠAfrica": 3839,
      "Ġsatis": 3840,
      "essor": 3841,
      "Ġsty": 3842,
      "auty": 3843,
      "ĠTy": 3844,
      "Ġbaby": 3845,
      "Ġheard": 3846,
      "Ġjoi": 3847,
      "phone": 3848,
      "aled": 3849,
      "ĠLoc": 3850,
      "Ġcyc": 3851,
      "Ġimag": 3852,
      "Ìĥ": 3853,
      "rab": 3854,
      "Ġemo": 3855,
      "]<": 3856,
      "ĠIS": 3857,
      "Ġjoin": 3858,
      "Ġgirl": 3859,
      "see": 3860,
      "Ġmodels": 3861,
      "Ġmechan": 3862,
      "liance": 3863,
      "Ġsl": 3864,
      "Ġchan": 3865,
      "fit": 3866,
      "Ġpool": 3867,
      "Ġ2004": 3868,
      "ĠPower": 3869,
      "Ġden": 3870,
      "Ġregul": 3871,
      "Ġlack": 3872,
      "ĠMany": 3873,
      "ĠGre": 3874,
      "olic": 3875,
      "taining": 3876,
      "Ġsmart": 3877,
      "ĠPal": 3878,
      "ca": 3879,
      "thle": 3880,
      "ĠCup": 3881,
      "Ġwasn": 3882,
      "Ġpush": 3883,
      "Ġannual": 3884,
      "ets": 3885,
      "ĠFound": 3886,
      "tically": 3887,
      "CC": 3888,
      "ĠMer": 3889,
      "logies": 3890,
      "ĠEven": 3891,
      "Ġhop": 3892,
      "ĠTop": 3893,
      "ĠJesus": 3894,
      "adian": 3895,
      "Ġturned": 3896,
      "Ġsaying": 3897,
      "anti": 3898,
      "undred": 3899,
      "Ġloved": 3900,
      "anta": 3901,
      "ĠReview": 3902,
      "istered": 3903,
      "Ġincome": 3904,
      "ĠFrance": 3905,
      "ĠCong": 3906,
      "ĠCare": 3907,
      "rie": 3908,
      "aming": 3909,
      "Ġgrand": 3910,
      "Ġmetal": 3911,
      "duction": 3912,
      "ĠCre": 3913,
      "Ġhappen": 3914,
      "Ġreduce": 3915,
      "Ġmiddle": 3916,
      "ĠPart": 3917,
      "ĠGeorge": 3918,
      "ulf": 3919,
      "Ġmicro": 3920,
      "force": 3921,
      "Fi": 3922,
      "ĠAward": 3923,
      "ĠEngine": 3924,
      "ĠSun": 3925,
      "Ġbudget": 3926,
      "ache": 3927,
      "ĠBi": 3928,
      "Ġthous": 3929,
      "Â®": 3930,
      "ĠJew": 3931,
      "alid": 3932,
      "azine": 3933,
      "allery": 3934,
      "Ġrules": 3935,
      "Ġsch": 3936,
      "care": 3937,
      "ralian": 3938,
      "ĠWater": 3939,
      "cript": 3940,
      "Ġopened": 3941,
      "ĠBlue": 3942,
      "mely": 3943,
      "icine": 3944,
      "31": 3945,
      "TS": 3946,
      "tenance": 3947,
      "alog": 3948,
      "ĠIm": 3949,
      "Ġafford": 3950,
      "acity": 3951,
      "Ġbio": 3952,
      "Ġbeach": 3953,
      "ĠPublic": 3954,
      "ĠWhe": 3955,
      "ĠOb": 3956,
      "Ġur": 3957,
      "Ġeasier": 3958,
      "Ġstress": 3959,
      "asy": 3960,
      "ĠCur": 3961,
      "hop": 3962,
      "IM": 3963,
      "apter": 3964,
      "ĠDel": 3965,
      "Ġestate": 3966,
      "LE": 3967,
      "bour": 3968,
      "Ġdress": 3969,
      "Ġexpand": 3970,
      "Ġwild": 3971,
      "Ġforce": 3972,
      "ĠBas": 3973,
      "ĠBr": 3974,
      "ened": 3975,
      "ĠCamp": 3976,
      "Ġble": 3977,
      "onday": 3978,
      "ĠPoli": 3979,
      "ĠMex": 3980,
      "hy": 3981,
      "ĠáĦ": 3982,
      "uman": 3983,
      "apers": 3984,
      "Ġuseful": 3985,
      "ĠHall": 3986,
      "Ġnearly": 3987,
      "Ġhelped": 3988,
      "Ġauth": 3989,
      "ĠSee": 3990,
      "ĠAp": 3991,
      "ounds": 3992,
      "amin": 3993,
      "Ġlisted": 3994,
      "Ġlots": 3995,
      "Ġcards": 3996,
      "Ġhone": 3997,
      "Ġhus": 3998,
      "Ġplus": 3999,
      "Ġguaran": 4000,
      "Ġship": 4001,
      "alists": 4002,
      "asts": 4003,
      "Ġtruly": 4004,
      "ĠVal": 4005,
      "ĠSa": 4006,
      "ÌĢ": 4007,
      "state": 4008,
      "Ġletter": 4009,
      "arent": 4010,
      "Ġcho": 4011,
      "ĠÂ»": 4012,
      "ĠBank": 4013,
      "Ġaccur": 4014,
      "Ġbirths": 4015,
      "ĠHy": 4016,
      "That": 4017,
      "asting": 4018,
      "Ġfant": 4019,
      "Ġtro": 4020,
      "Ġcold": 4021,
      "Ġacadem": 4022,
      "ĠOther": 4023,
      "utri": 4024,
      "Ġwhose": 4025,
      "encies": 4026,
      "text": 4027,
      "illing": 4028,
      "den": 4029,
      "tree": 4030,
      "ĠVir": 4031,
      "ica": 4032,
      "aurant": 4033,
      "ĠPress": 4034,
      "vo": 4035,
      "ĠAcadem": 4036,
      "aci": 4037,
      "ĠAny": 4038,
      "Ġintegr": 4039,
      "ĠMad": 4040,
      "Ġwindow": 4041,
      "berg": 4042,
      "Ġassi": 4043,
      "Ġthanks": 4044,
      "ĠLit": 4045,
      "Ġlarger": 4046,
      "gence": 4047,
      "ĠWood": 4048,
      "ĠIsra": 4049,
      "Ġclaim": 4050,
      "Ġcapt": 4051,
      "side": 4052,
      "clusive": 4053,
      "ecting": 4054,
      "ped": 4055,
      "bit": 4056,
      "Ġnar": 4057,
      "Ġpeace": 4058,
      "Ġjoined": 4059,
      "Ge": 4060,
      "95": 4061,
      "Ġtrail": 4062,
      "ĠGrand": 4063,
      "Ġgraph": 4064,
      "ums": 4065,
      "Ġalone": 4066,
      "unte": 4067,
      "ĠBig": 4068,
      "01": 4069,
      "ellow": 4070,
      "Ġsust": 4071,
      "ĠiP": 4072,
      "ala": 4073,
      "tu": 4074,
      "Ġconduc": 4075,
      "Ġcollec": 4076,
      "ĠHam": 4077,
      "lan": 4078,
      "ario": 4079,
      "ranch": 4080,
      "Ġpsych": 4081,
      "48": 4082,
      "ustice": 4083,
      "Ġlimit": 4084,
      "Ġbatter": 4085,
      "Ġknew": 4086,
      "usion": 4087,
      "198": 4088,
      "itiz": 4089,
      "ĠIT": 4090,
      "ads": 4091,
      "cted": 4092,
      ">âĢ¢": 4093,
      "ole": 4094,
      "Ġrich": 4095,
      "Ġplane": 4096,
      "Ġbottom": 4097,
      "Ġsens": 4098,
      "ĠChild": 4099,
      "alian": 4100,
      "ĠPC": 4101,
      "ĠPlan": 4102,
      "IV": 4103,
      "UR": 4104,
      "Ġing": 4105,
      "yer": 4106,
      "Ġsongs": 4107,
      "Ġplaced": 4108,
      "Ġpull": 4109,
      "Ġselect": 4110,
      "ulty": 4111,
      "Ġeval": 4112,
      "Ġviews": 4113,
      "Ġ2003": 4114,
      "rugg": 4115,
      "Ġcancer": 4116,
      "ĠUSA": 4117,
      "ĠMicro": 4118,
      "Ġnotice": 4119,
      "Ġowner": 4120,
      "Ġshot": 4121,
      "ĠTour": 4122,
      "Ġspread": 4123,
      "Ġcoffee": 4124,
      "Ġnames": 4125,
      "Ġartist": 4126,
      "Ġsoft": 4127,
      "**": 4128,
      "Ġswitch": 4129,
      "ĠSince": 4130,
      "minal": 4131,
      "Ġoffici": 4132,
      "nger": 4133,
      "well": 4134,
      "orial": 4135,
      "olar": 4136,
      "ĠKen": 4137,
      "ĠUnder": 4138,
      "duced": 4139,
      "Ġrepe": 4140,
      "Ġ80": 4141,
      "ĠJapan": 4142,
      "tag": 4143,
      "Ġpieces": 4144,
      "century": 4145,
      "ĠTime": 4146,
      "esome": 4147,
      "Ġpoor": 4148,
      "down": 4149,
      "ĠSam": 4150,
      "ĠTor": 4151,
      "Ġadop": 4152,
      "77": 4153,
      "Ġperm": 4154,
      "ĠCi": 4155,
      "Ġtips": 4156,
      "Ġmotor": 4157,
      "Ġdat": 4158,
      "ĠFil": 4159,
      "tent": 4160,
      "nded": 4161,
      "Ġpark": 4162,
      "alls": 4163,
      "uments": 4164,
      "nown": 4165,
      "Ġsteps": 4166,
      "bre": 4167,
      "Ġcoup": 4168,
      "Ġnormal": 4169,
      "ĠST": 4170,
      "roid": 4171,
      "Ġcreat": 4172,
      "Ġstic": 4173,
      "Ġgarden": 4174,
      "ĠVer": 4175,
      "ĠAlex": 4176,
      "ĠUnion": 4177,
      "ĠCas": 4178,
      "66": 4179,
      "Ġvoice": 4180,
      "Ġkm": 4181,
      "Ġradio": 4182,
      "da": 4183,
      "agno": 4184,
      "Ġwine": 4185,
      "box": 4186,
      "OW": 4187,
      "ises": 4188,
      "onents": 4189,
      "istic": 4190,
      "cessing": 4191,
      "ached": 4192,
      "eal": 4193,
      "Ġpm": 4194,
      "Tr": 4195,
      "ĠRet": 4196,
      "burg": 4197,
      "isc": 4198,
      "Ġcelebr": 4199,
      "Ġmaybe": 4200,
      "ĠWal": 4201,
      "umi": 4202,
      "Ġjobs": 4203,
      "arge": 4204,
      "ĠDuring": 4205,
      "ĠGlo": 4206,
      "ĠBel": 4207,
      "ady": 4208,
      "Ġdoub": 4209,
      "atever": 4210,
      "ished": 4211,
      "ĠWell": 4212,
      "ĠWomen": 4213,
      ");": 4214,
      "ĠBill": 4215,
      "Ġlaws": 4216,
      "alty": 4217,
      "500": 4218,
      "ĠRock": 4219,
      "Ġheavy": 4220,
      "ĠSou": 4221,
      "ĠDen": 4222,
      "bes": 4223,
      "rative": 4224,
      "ĠAngel": 4225,
      "craft": 4226,
      "Ġcry": 4227,
      "akers": 4228,
      ">Â": 4229,
      "rations": 4230,
      "Ġwants": 4231,
      "ĠCath": 4232,
      "Some": 4233,
      "Ġwear": 4234,
      "ĠOnline": 4235,
      "ĠCus": 4236,
      "ĠEach": 4237,
      "lla": 4238,
      "Ġcombi": 4239,
      "ĠMiss": 4240,
      "Ġstrugg": 4241,
      "icians": 4242,
      "ĠOF": 4243,
      "Ġwai": 4244,
      "Ġtechno": 4245,
      "atin": 4246,
      "Can": 4247,
      "Ġleader": 4248,
      "Ġsaving": 4249,
      "Ġstatus": 4250,
      "ĠWed": 4251,
      "ĠJour": 4252,
      "Ġbow": 4253,
      "ĠTre": 4254,
      "Ġforms": 4255,
      "ĠSim": 4256,
      "orrow": 4257,
      ".)": 4258,
      "Ġonto": 4259,
      "cesses": 4260,
      "ola": 4261,
      "ictor": 4262,
      "alism": 4263,
      "Ġsteel": 4264,
      "Ġahead": 4265,
      "gious": 4266,
      "Ġitem": 4267,
      "49": 4268,
      "Ġopini": 4269,
      "night": 4270,
      "ĠRob": 4271,
      "ste": 4272,
      "ĠRad": 4273,
      ".âĢĿ<": 4274,
      "ĠOpen": 4275,
      "reed": 4276,
      "istor": 4277,
      "ĠInform": 4278,
      "Ġdoll": 4279,
      "Se": 4280,
      "Ġincor": 4281,
      "ĠCommit": 4282,
      "Ġcast": 4283,
      "azon": 4284,
      "ĠEli": 4285,
      "ĠMonday": 4286,
      "Ġ90": 4287,
      "Ġunits": 4288,
      "ĠPeople": 4289,
      "ota": 4290,
      "coming": 4291,
      "Ġroof": 4292,
      "Ġideal": 4293,
      "Ġadvis": 4294,
      "Ġadjust": 4295,
      "AA": 4296,
      "Ġtree": 4297,
      "ĠCr": 4298,
      "Ġmap": 4299,
      "Ġcamera": 4300,
      "ĠTom": 4301,
      "Ġsecure": 4302,
      "Ġrail": 4303,
      "ĠCer": 4304,
      "icago": 4305,
      "cking": 4306,
      "Ġexhib": 4307,
      "Ġsubst": 4308,
      "itar": 4309,
      "ynam": 4310,
      "Des": 4311,
      "umber": 4312,
      "ĠHill": 4313,
      "atured": 4314,
      "47": 4315,
      "Ġthank": 4316,
      "Ġarg": 4317,
      "ĠGar": 4318,
      "Ġolder": 4319,
      "upp": 4320,
      "sis": 4321,
      "Ġmale": 4322,
      "Posted": 4323,
      "Ġslight": 4324,
      "MS": 4325,
      "Ġrelax": 4326,
      "acts": 4327,
      "actions": 4328,
      "Ġpan": 4329,
      "Ġice": 4330,
      "ĠMuseum": 4331,
      "Ġlif": 4332,
      "urt": 4333,
      "hol": 4334,
      "resp": 4335,
      "Ġshared": 4336,
      "nis": 4337,
      "roll": 4338,
      "ulting": 4339,
      "active": 4340,
      "lim": 4341,
      "ĠPR": 4342,
      "Ġune": 4343,
      "ena": 4344,
      "Ġfear": 4345,
      "05": 4346,
      "Ġvolume": 4347,
      "Ġcars": 4348,
      "Ġrev": 4349,
      "osph": 4350,
      "Ġsweet": 4351,
      "Ġmemory": 4352,
      "Ġsusp": 4353,
      "CH": 4354,
      "Ġcells": 4355,
      "Ġ2002": 4356,
      "ĠLu": 4357,
      "Ġchair": 4358,
      "ĠOlymp": 4359,
      "Ġlooked": 4360,
      "Ġeight": 4361,
      "Ġdish": 4362,
      "\".<": 4363,
      "idence": 4364,
      "ĠWork": 4365,
      "ĠFur": 4366,
      "ĠSil": 4367,
      "Un": 4368,
      "lights": 4369,
      "Ġsymp": 4370,
      "Ġfat": 4371,
      "ria": 4372,
      "Ġspring": 4373,
      "ye": 4374,
      "Ġmanage": 4375,
      "ouble": 4376,
      "Ġvirt": 4377,
      "ĠAP": 4378,
      "lishing": 4379,
      "Ġremain": 4380,
      "redi": 4381,
      "ĠAnn": 4382,
      "Ġwinter": 4383,
      "cel": 4384,
      "Ġplants": 4385,
      "ĠDu": 4386,
      "agram": 4387,
      "46": 4388,
      "Ġsolid": 4389,
      "Ġ70": 4390,
      "ĠWill": 4391,
      "Ġvalues": 4392,
      "ulture": 4393,
      "ĠWhy": 4394,
      "ĠGr": 4395,
      "ĠLord": 4396,
      "Ġeth": 4397,
      "Ġdr": 4398,
      "She": 4399,
      "enture": 4400,
      "ĠThank": 4401,
      "Si": 4402,
      "Ġcrush": 4403,
      "Ġbutton": 4404,
      "Ġbrain": 4405,
      "Ġpossib": 4406,
      "soft": 4407,
      "ĠOnce": 4408,
      "sin": 4409,
      "Ġ2001": 4410,
      "Ġcasino": 4411,
      "ĠRoman": 4412,
      "Ġpassed": 4413,
      "ĠExp": 4414,
      "Ġbra": 4415,
      "Ġsitu": 4416,
      "lings": 4417,
      "Ġretail": 4418,
      "Don": 4419,
      "ĠSpe": 4420,
      "Ġsigned": 4421,
      "ĠMake": 4422,
      "Ġfaith": 4423,
      "Ġincred": 4424,
      "ĠRoyal": 4425,
      "Ġ35": 4426,
      "Ġformat": 4427,
      "Ġflex": 4428,
      "BA": 4429,
      "erry": 4430,
      "Ġaccep": 4431,
      "ĠSet": 4432,
      "ĠList": 4433,
      "Ġbag": 4434,
      "Ġinten": 4435,
      "Ġresist": 4436,
      "ointed": 4437,
      "ĠLand": 4438,
      "BS": 4439,
      "enses": 4440,
      "NA": 4441,
      "Ġesc": 4442,
      "Ġprepar": 4443,
      "2018": 4444,
      "ĠBeach": 4445,
      "ik": 4446,
      "Ġfamous": 4447,
      "roy": 4448,
      "These": 4449,
      "Ġharm": 4450,
      "Ġupdate": 4451,
      "teen": 4452,
      "Ġvan": 4453,
      "inger": 4454,
      "ĠAdd": 4455,
      "riter": 4456,
      "Ġsand": 4457,
      "Ġruns": 4458,
      "Pre": 4459,
      "rooms": 4460,
      "ĠTem": 4461,
      "free": 4462,
      "enting": 4463,
      "Ġminim": 4464,
      "ĠJose": 4465,
      "with": 4466,
      "Ġcompet": 4467,
      "Ġcheap": 4468,
      "Cl": 4469,
      "Ġearth": 4470,
      "Ġremove": 4471,
      "Ġdream": 4472,
      "ĠBuild": 4473,
      "gency": 4474,
      "Ġloan": 4475,
      "lip": 4476,
      "oth": 4477,
      "ups": 4478,
      "ĠTeam": 4479,
      "istry": 4480,
      "unning": 4481,
      "RA": 4482,
      "DA": 4483,
      "ÌĮ": 4484,
      "ĠIts": 4485,
      "Ġfabric": 4486,
      "Ġflav": 4487,
      "ulate": 4488,
      "Ġbul": 4489,
      "SS": 4490,
      "rag": 4491,
      "ĠLear": 4492,
      "Ġserver": 4493,
      "Ġcolors": 4494,
      "Ġalign": 4495,
      "Ġfigure": 4496,
      "Ġshape": 4497,
      "ĠValley": 4498,
      "hab": 4499,
      "win": 4500,
      "unction": 4501,
      "aven": 4502,
      "Ġkept": 4503,
      "Please": 4504,
      "Ġthus": 4505,
      "late": 4506,
      "Ġstreet": 4507,
      "tio": 4508,
      "atively": 4509,
      "Ġadap": 4510,
      "Ġactual": 4511,
      "Ġdang": 4512,
      "Ġclosed": 4513,
      "friend": 4514,
      "ourage": 4515,
      "Ġremi": 4516,
      "Ġsea": 4517,
      "Ġvideos": 4518,
      "Ġinsp": 4519,
      "Ġfan": 4520,
      "Ġmine": 4521,
      "Ġphi": 4522,
      "atre": 4523,
      "Now": 4524,
      "ita": 4525,
      "âĢĿ,": 4526,
      "Ġir": 4527,
      "ĠWil": 4528,
      "ucky": 4529,
      "While": 4530,
      "Ġprote": 4531,
      "Ġcaused": 4532,
      "Ġaren": 4533,
      "ĠKore": 4534,
      "ĠCD": 4535,
      "oral": 4536,
      "Ġmodi": 4537,
      "Ġcalc": 4538,
      "entific": 4539,
      "ĠShow": 4540,
      "Ġrai": 4541,
      "Mar": 4542,
      "ĠTwo": 4543,
      "vest": 4544,
      "Ġcatch": 4545,
      "Ġdrop": 4546,
      "td": 4547,
      "ĠMen": 4548,
      "ott": 4549,
      "osition": 4550,
      "Ġhandle": 4551,
      "Ġ...<": 4552,
      "Ġdriver": 4553,
      "covered": 4554,
      "ursday": 4555,
      "Ġvoc": 4556,
      "Res": 4557,
      "Ġthreat": 4558,
      "ĠUse": 4559,
      "Ġpet": 4560,
      "78": 4561,
      "Ġsort": 4562,
      "Ġdrama": 4563,
      "icks": 4564,
      "riage": 4565,
      "fast": 4566,
      "Ġinstru": 4567,
      "ĠSmith": 4568,
      "uled": 4569,
      "Ġrooms": 4570,
      "nings": 4571,
      "OP": 4572,
      "ĠBal": 4573,
      "ĠCard": 4574,
      "Ġposts": 4575,
      "ordin": 4576,
      "ĠRobert": 4577,
      "Ġsets": 4578,
      "Ġseeing": 4579,
      "Ġgun": 4580,
      "ĠHen": 4581,
      "word": 4582,
      "Ġfans": 4583,
      "Ġvs": 4584,
      "istan": 4585,
      "ĠIr": 4586,
      "life": 4587,
      "Ġgirls": 4588,
      "Ġessay": 4589,
      "ĠOld": 4590,
      "Ġmode": 4591,
      "08": 4592,
      "ĠTrump": 4593,
      "Ġdisp": 4594,
      "II": 4595,
      "LC": 4596,
      "Ġestim": 4597,
      "They": 4598,
      "ĠSeries": 4599,
      "Ġmath": 4600,
      "Ġmenti": 4601,
      "Ġfight": 4602,
      "han": 4603,
      "rison": 4604,
      "Ġbreath": 4605,
      "Me": 4606,
      "ĠArmy": 4607,
      "http": 4608,
      "Ġgather": 4609,
      "ĠDemoc": 4610,
      "pid": 4611,
      "ĠMa": 4612,
      "Ġtend": 4613,
      "Ġfal": 4614,
      "roud": 4615,
      "olate": 4616,
      "Ġsmooth": 4617,
      "ĠArts": 4618,
      "cin": 4619,
      "can": 4620,
      "days": 4621,
      "ba": 4622,
      "etry": 4623,
      "Ind": 4624,
      "ĠMari": 4625,
      "Ġrare": 4626,
      "Ġwash": 4627,
      "ĠFood": 4628,
      "uesday": 4629,
      "Ġtruth": 4630,
      "IA": 4631,
      "ĠPan": 4632,
      "uing": 4633,
      "Ġwww": 4634,
      "anted": 4635,
      "ĠPeter": 4636,
      "west": 4637,
      "gia": 4638,
      "ĠThomas": 4639,
      "ĠBack": 4640,
      "Ġseat": 4641,
      "ĠTen": 4642,
      "Ġgone": 4643,
      "TH": 4644,
      "Ġinfo": 4645,
      "Ġtit": 4646,
      "Ġtrai": 4647,
      "ĠAli": 4648,
      "Ġtow": 4649,
      "ĠMill": 4650,
      "jo": 4651,
      "Ġpurs": 4652,
      "Ġtrain": 4653,
      "ĠMat": 4654,
      "Ġattrac": 4655,
      "Ġsyn": 4656,
      "Ġtheme": 4657,
      "Ġsnow": 4658,
      "Ġsecret": 4659,
      "versi": 4660,
      "reh": 4661,
      "ĠInf": 4662,
      "Ġpow": 4663,
      "Ġwaste": 4664,
      "ĠGames": 4665,
      "ĠEv": 4666,
      "ĠLouis": 4667,
      "ĠBet": 4668,
      "Ġtask": 4669,
      "Ġexpert": 4670,
      "Ġ2020": 4671,
      "osen": 4672,
      "nton": 4673,
      "gned": 4674,
      "04": 4675,
      "From": 4676,
      "ĠWall": 4677,
      "forming": 4678,
      "Ġdisapp": 4679,
      "toms": 4680,
      "People": 4681,
      "Ġcore": 4682,
      "ãĥ": 4683,
      "ĠSocial": 4684,
      "ĠCentre": 4685,
      "02": 4686,
      "road": 4687,
      "unic": 4688,
      "Ġdoctor": 4689,
      ">*": 4690,
      "icken": 4691,
      "Ġfunds": 4692,
      "ĠUs": 4693,
      "Ġcy": 4694,
      "uction": 4695,
      "ros": 4696,
      "asure": 4697,
      "Ġisland": 4698,
      "Ġsenior": 4699,
      "rable": 4700,
      "Ġdrug": 4701,
      "Ġcouldn": 4702,
      "IR": 4703,
      "Ġbird": 4704,
      "nesday": 4705,
      "Ġregi": 4706,
      "Ġhaven": 4707,
      "Ġlandsc": 4708,
      "olutely": 4709,
      "ĠMass": 4710,
      "Ġfill": 4711,
      "pet": 4712,
      "Ġended": 4713,
      "Ġobj": 4714,
      "Ġvote": 4715,
      "09": 4716,
      "Ġgain": 4717,
      "uting": 4718,
      "ĠColor": 4719,
      "64": 4720,
      "ym": 4721,
      "titive": 4722,
      "essions": 4723,
      "ĠLong": 4724,
      "ĠLos": 4725,
      "ĠFamily": 4726,
      "ĠLim": 4727,
      "Ġcitiz": 4728,
      "aters": 4729,
      "Ġbeauty": 4730,
      "Ġsurg": 4731,
      "vince": 4732,
      "Ġmedium": 4733,
      "losoph": 4734,
      "Ġcentre": 4735,
      "ĠToday": 4736,
      "olly": 4737,
      "itness": 4738,
      "rees": 4739,
      "Ġflat": 4740,
      "cean": 4741,
      "ideo": 4742,
      "Ġsector": 4743,
      "Ġfemale": 4744,
      "ĠFrank": 4745,
      "mbly": 4746,
      "kins": 4747,
      "abase": 4748,
      "resses": 4749,
      "ĠData": 4750,
      "Ġwire": 4751,
      "ciate": 4752,
      "vity": 4753,
      "âĢĿ.": 4754,
      "ĠNY": 4755,
      "ategies": 4756,
      "ĠDet": 4757,
      "reland": 4758,
      "Ġcalls": 4759,
      "ette": 4760,
      "vered": 4761,
      "oke": 4762,
      "ji": 4763,
      "ÑĢ": 4764,
      "rian": 4765,
      "ustr": 4766,
      "Ġstone": 4767,
      "Ġadding": 4768,
      "Ġdiet": 4769,
      "ĠInte": 4770,
      "ĠEnter": 4771,
      "Ġvision": 4772,
      "Ġcities": 4773,
      "Ġoccup": 4774,
      "PA": 4775,
      "Ġchem": 4776,
      "ĠApple": 4777,
      "Ġ45": 4778,
      "07": 4779,
      "06": 4780,
      "Ġshel": 4781,
      "ooking": 4782,
      "OD": 4783,
      "Ġdefi": 4784,
      "rete": 4785,
      "Ġ500": 4786,
      "Ġdiagno": 4787,
      "ails": 4788,
      "Ġcloud": 4789,
      "Ġbuying": 4790,
      "lear": 4791,
      "ĠWho": 4792,
      "oi": 4793,
      "iding": 4794,
      "ĠReal": 4795,
      "ĠCheck": 4796,
      "ĠAND": 4797,
      "uries": 4798,
      "iled": 4799,
      "Ġhab": 4800,
      "has": 4801,
      "aches": 4802,
      "ĠMont": 4803,
      "ema": 4804,
      "ĠMedia": 4805,
      "ĠMaster": 4806,
      "gment": 4807,
      "Ġguests": 4808,
      "ĠOffic": 4809,
      "bb": 4810,
      "Ġdepend": 4811,
      "Here": 4812,
      "Ġpray": 4813,
      "ĠElectr": 4814,
      "olk": 4815,
      "IF": 4816,
      "rier": 4817,
      "Ġcompar": 4818,
      "Ġbought": 4819,
      "Your": 4820,
      "ĠTheir": 4821,
      "Ġraised": 4822,
      "ĠPay": 4823,
      "eed": 4824,
      "Ġwriter": 4825,
      "fically": 4826,
      "..<": 4827,
      "ĠStand": 4828,
      "Ġsquare": 4829,
      "known": 4830,
      "lig": 4831,
      "but": 4832,
      "ĠOper": 4833,
      "Ġclaims": 4834,
      "Ġcrow": 4835,
      "ÑĤ": 4836,
      "ENT": 4837,
      "Ġrain": 4838,
      "mond": 4839,
      "rap": 4840,
      "68": 4841,
      "Ġtran": 4842,
      "Ġmostly": 4843,
      "Ġcris": 4844,
      "how": 4845,
      "Ġpair": 4846,
      "Ġlabor": 4847,
      "umn": 4848,
      "Ġleaves": 4849,
      "ori": 4850,
      "Ġvers": 4851,
      "ĠDig": 4852,
      "Ġformed": 4853,
      "Ġscene": 4854,
      "ored": 4855,
      "ultural": 4856,
      "ĠAC": 4857,
      "Ð½": 4858,
      "nament": 4859,
      "Ġfold": 4860,
      "Ġtheory": 4861,
      "ĠFind": 4862,
      "Ñģ": 4863,
      "car": 4864,
      "PR": 4865,
      "Ġmist": 4866,
      "sec": 4867,
      "Ġplenty": 4868,
      "Ġdating": 4869,
      "Ġforget": 4870,
      "Ġconfig": 4871,
      "cient": 4872,
      "03": 4873,
      "olars": 4874,
      "ĠParis": 4875,
      "Ġdesk": 4876,
      "aching": 4877,
      "Ġbright": 4878,
      "Ġdom": 4879,
      "Ġpersp": 4880,
      "Ġlux": 4881,
      "Ġrepres": 4882,
      "ginia": 4883,
      "ĠLight": 4884,
      "Ġwest": 4885,
      "ĠHead": 4886,
      "ĠWord": 4887,
      "ĠID": 4888,
      "Ġdie": 4889,
      "ĠSqu": 4890,
      "aine": 4891,
      "âĢ²": 4892,
      "Ġcolour": 4893,
      "quis": 4894,
      "Ġnotes": 4895,
      "unicip": 4896,
      "ĠFire": 4897,
      "ĠBrown": 4898,
      "ĠTO": 4899,
      "acement": 4900,
      "Ġforces": 4901,
      "ucture": 4902,
      "ĠFlo": 4903,
      "Ġminute": 4904,
      "Ġtoward": 4905,
      "Ġegg": 4906,
      "Ġpal": 4907,
      "citing": 4908,
      "Ġveget": 4909,
      "ko": 4910,
      "ĠLike": 4911,
      "aked": 4912,
      "Ġdining": 4913,
      "tore": 4914,
      "Ġgrade": 4915,
      "Ġsoci": 4916,
      "azz": 4917,
      "Ġnine": 4918,
      "Ġcup": 4919,
      "Ġtot": 4920,
      "ua": 4921,
      "anda": 4922,
      "ĠSummer": 4923,
      "iet": 4924,
      "Ġdecide": 4925,
      "color": 4926,
      "Ġking": 4927,
      "aser": 4928,
      "Ġcoast": 4929,
      "ĭáħ": 4930,
      "ĠLead": 4931,
      "onus": 4932,
      "Ġspi": 4933,
      "ĠView": 4934,
      "ĠGri": 4935,
      "ĠMarket": 4936,
      "ĠOrgan": 4937,
      "Ġvalid": 4938,
      "Ġinjury": 4939,
      "Ġ1999": 4940,
      "Ġunf": 4941,
      "ĠBud": 4942,
      "Ġtag": 4943,
      "Ġthrow": 4944,
      "xi": 4945,
      "Ġcream": 4946,
      "Ġbrief": 4947,
      "utch": 4948,
      "ograph": 4949,
      "ĠMil": 4950,
      "cus": 4951,
      "Ġjourn": 4952,
      "ĠVictor": 4953,
      "Ġboy": 4954,
      "Ġine": 4955,
      "Ġlose": 4956,
      "ĠWin": 4957,
      "Ġdistin": 4958,
      "titude": 4959,
      "Ġcompl": 4960,
      "Ġmir": 4961,
      "Ġflu": 4962,
      "Ġlis": 4963,
      "ora": 4964,
      "Ġhyd": 4965,
      "Ġdest": 4966,
      "mming": 4967,
      "Ġtaste": 4968,
      "owns": 4969,
      "rome": 4970,
      "Ġpoly": 4971,
      "Ġinsi": 4972,
      "nting": 4973,
      "Ġkilled": 4974,
      "Ġupgra": 4975,
      "Ġyouth": 4976,
      "Ġdestin": 4977,
      "Ġarm": 4978,
      "OV": 4979,
      "aturing": 4980,
      "Ġlegis": 4981,
      "Why": 4982,
      "Ġproud": 4983,
      "Ġcop": 4984,
      "avig": 4985,
      "ĠAL": 4986,
      "App": 4987,
      "Ġscale": 4988,
      "water": 4989,
      "Ġtrees": 4990,
      "Ġminor": 4991,
      "Ġstarts": 4992,
      "ĠSol": 4993,
      "Ġcorner": 4994,
      "Ġsounds": 4995,
      "Ġnutri": 4996,
      "ĠAv": 4997,
      "onent": 4998,
      "Ġacqui": 4999,
      "Ġguitar": 5000,
      "edy": 5001,
      "ann": 5002,
      "Ġfif": 5003,
      "ĠZeal": 5004,
      "Ġtopic": 5005,
      "lad": 5006,
      "sa": 5007,
      "58": 5008,
      "ĠEarth": 5009,
      "69": 5010,
      "Ġswim": 5011,
      "Ġbill": 5012,
      "ketball": 5013,
      "overy": 5014,
      "ipants": 5015,
      "Ġ1990": 5016,
      "illa": 5017,
      "ĠSecond": 5018,
      "inet": 5019,
      "Pri": 5020,
      "Ġbound": 5021,
      "ocolate": 5022,
      "Ġwhom": 5023,
      "ui": 5024,
      "Ġbattle": 5025,
      "AG": 5026,
      "Ġcontr": 5027,
      "ĠSand": 5028,
      "79": 5029,
      "42": 5030,
      "ĠGir": 5031,
      "tise": 5032,
      "Ġplays": 5033,
      "ĠLab": 5034,
      "onom": 5035,
      "Ġrule": 5036,
      "59": 5037,
      "Ġshowed": 5038,
      "Ġstated": 5039,
      "ĠClick": 5040,
      "Ġcommis": 5041,
      "allow": 5042,
      "eck": 5043,
      "ĠMexico": 5044,
      "Sc": 5045,
      "Bl": 5046,
      "ratic": 5047,
      "Ġexec": 5048,
      "olina": 5049,
      "Ġpaint": 5050,
      "nie": 5051,
      "ailing": 5052,
      "ĠExper": 5053,
      "Di": 5054,
      "poses": 5055,
      "loc": 5056,
      "Ġagency": 5057,
      "eli": 5058,
      "Ġedge": 5059,
      "Ġeast": 5060,
      "ĠUN": 5061,
      "Ġowned": 5062,
      "ounting": 5063,
      "Ġcolle": 5064,
      "Ġmil": 5065,
      "Ġfourth": 5066,
      "astern": 5067,
      "ele": 5068,
      "made": 5069,
      "acter": 5070,
      "Ġsequ": 5071,
      "Ġknows": 5072,
      "Ġmort": 5073,
      "igr": 5074,
      "orney": 5075,
      "iger": 5076,
      "ĠIde": 5077,
      "Ġthri": 5078,
      "Ġfees": 5079,
      "Ġsti": 5080,
      "Ġapart": 5081,
      "Ġdinner": 5082,
      "orter": 5083,
      "orough": 5084,
      "Ġrecipe": 5085,
      "ĠRoom": 5086,
      "Ġstudio": 5087,
      "istent": 5088,
      "Ġstores": 5089,
      "gage": 5090,
      "ĠJack": 5091,
      "Ġdesi": 5092,
      "outs": 5093,
      "Ġguys": 5094,
      "Ġroute": 5095,
      "Ste": 5096,
      "Ġrom": 5097,
      "Ġski": 5098,
      "ĠAmazon": 5099,
      "ĠAbout": 5100,
      "uable": 5101,
      "ibility": 5102,
      "ciples": 5103,
      "SP": 5104,
      "FL": 5105,
      "zen": 5106,
      "ĠSpring": 5107,
      "Ġfuel": 5108,
      "tos": 5109,
      "Living": 5110,
      "Ġguess": 5111,
      "ĠBrit": 5112,
      "Ġelimin": 5113,
      "Ġlived": 5114,
      "cons": 5115,
      "liament": 5116,
      "Acc": 5117,
      "Ġven": 5118,
      "ja": 5119,
      "hone": 5120,
      "Ġride": 5121,
      "Thanks": 5122,
      "ĠPet": 5123,
      "Ġdeaths": 5124,
      "ems": 5125,
      "ootball": 5126,
      "anent": 5127,
      "Or": 5128,
      "ĠHotel": 5129,
      "ĠLtd": 5130,
      "Ġdeter": 5131,
      "umin": 5132,
      "Ġdynam": 5133,
      "arp": 5134,
      "Ġriver": 5135,
      "Ġdump": 5136,
      "ĠCall": 5137,
      "Ġstatis": 5138,
      "Ġamp": 5139,
      "ĠHand": 5140,
      "Ġfilled": 5141,
      "ipate": 5142,
      "ĠEm": 5143,
      "nson": 5144,
      "aks": 5145,
      "ĠOri": 5146,
      "Ġkid": 5147,
      "SA": 5148,
      "Ġju": 5149,
      "Ġposs": 5150,
      "2019": 5151,
      "orking": 5152,
      "rastr": 5153,
      "Ġsugar": 5154,
      "Ġflight": 5155,
      "ship": 5156,
      "umni": 5157,
      "ĠGuide": 5158,
      "amps": 5159,
      "ĠTown": 5160,
      "67": 5161,
      "comp": 5162,
      "ersonal": 5163,
      "ĠHor": 5164,
      "Ġsche": 5165,
      "ĠGeor": 5166,
      "Ġhonest": 5167,
      "ava": 5168,
      "ĠIsrael": 5169,
      "ĠRussia": 5170,
      "Ġbrings": 5171,
      "istics": 5172,
      "ĠAsia": 5173,
      "ĠMain": 5174,
      "ĠDan": 5175,
      "Ġtrial": 5176,
      "ĠMel": 5177,
      "Ġexplor": 5178,
      "Ġmental": 5179,
      "Ġhttps": 5180,
      "Ġaudio": 5181,
      "ĠSecret": 5182,
      "Ġerror": 5183,
      "Chi": 5184,
      "rey": 5185,
      "ributed": 5186,
      "Ġfavour": 5187,
      "auce": 5188,
      "Get": 5189,
      "\":": 5190,
      "TC": 5191,
      "apes": 5192,
      "ĠHave": 5193,
      "ĠPriv": 5194,
      "Ġeating": 5195,
      "oney": 5196,
      "41": 5197,
      "encing": 5198,
      "Ġjump": 5199,
      "estyle": 5200,
      "ĠKar": 5201,
      "Ġ1998": 5202,
      "Ab": 5203,
      "ĠAdmin": 5204,
      "Vi": 5205,
      "ĠCross": 5206,
      "Ġwouldn": 5207,
      "Ġmenu": 5208,
      "Ġsymb": 5209,
      "dis": 5210,
      "stal": 5211,
      "43": 5212,
      "Man": 5213,
      "Ġmur": 5214,
      ">[": 5215,
      "ĠâĢ¢": 5216,
      "Ġreb": 5217,
      "Ġleads": 5218,
      "ĠLeg": 5219,
      "acific": 5220,
      "Ġsettle": 5221,
      "itors": 5222,
      "Ġdance": 5223,
      "ĠWay": 5224,
      "ĠJud": 5225,
      "ils": 5226,
      "ĠAnal": 5227,
      "orld": 5228,
      "Ġhom": 5229,
      "eries": 5230,
      "Ġpanel": 5231,
      "UN": 5232,
      "Ġrub": 5233,
      "ĠCA": 5234,
      "Ġ32": 5235,
      "ĠBlo": 5236,
      "Ġworry": 5237,
      "ĠAuto": 5238,
      "Ġbeat": 5239,
      "ĠBlog": 5240,
      "ront": 5241,
      "Ġmanner": 5242,
      "Ġlovely": 5243,
      "aurants": 5244,
      "Ġcovers": 5245,
      "Ġelect": 5246,
      "ĠItaly": 5247,
      "Ac": 5248,
      "ĠCa": 5249,
      "bsite": 5250,
      "Ġton": 5251,
      "ĠTimes": 5252,
      "ohn": 5253,
      "borhood": 5254,
      "Ġlock": 5255,
      "ĠSk": 5256,
      "enni": 5257,
      "rup": 5258,
      "aped": 5259,
      "Qu": 5260,
      "ĠAud": 5261,
      "Ġprec": 5262,
      "which": 5263,
      "nership": 5264,
      "alis": 5265,
      "Ġshoo": 5266,
      "amond": 5267,
      "SC": 5268,
      "osting": 5269,
      "Ġdoors": 5270,
      "ĠHaw": 5271,
      "Car": 5272,
      "ounder": 5273,
      "what": 5274,
      "Ġathle": 5275,
      "Ġfle": 5276,
      "rick": 5277,
      "ĠConne": 5278,
      "vor": 5279,
      "ĠHear": 5280,
      "ĠCond": 5281,
      "Not": 5282,
      "ĠRE": 5283,
      "Ġcircum": 5284,
      "57": 5285,
      "uous": 5286,
      "Ġmeant": 5287,
      "hio": 5288,
      "ĠIP": 5289,
      "xy": 5290,
      "Ġhouses": 5291,
      "otels": 5292,
      "Ġrelie": 5293,
      "LA": 5294,
      "ient": 5295,
      "ĠFar": 5296,
      "Che": 5297,
      "ĠMiddle": 5298,
      "ĠMP": 5299,
      "Ġseek": 5300,
      "nels": 5301,
      "Ġunless": 5302,
      "met": 5303,
      "TV": 5304,
      "Ġsurvey": 5305,
      "lots": 5306,
      "Ġiron": 5307,
      "Ġvic": 5308,
      "ĠForm": 5309,
      "ey": 5310,
      "timi": 5311,
      "Ġrise": 5312,
      "ĠPub": 5313,
      "Ġbelong": 5314,
      "Ġgoods": 5315,
      "ĠFund": 5316,
      "!!<": 5317,
      "ĠSar": 5318,
      "rating": 5319,
      "Ġobtain": 5320,
      "Ġnet": 5321,
      "omestic": 5322,
      "ĠEconom": 5323,
      "luding": 5324,
      "Ġdrink": 5325,
      "idden": 5326,
      "ficial": 5327,
      "ĠGal": 5328,
      "Ġleague": 5329,
      "ucks": 5330,
      "Ġfruit": 5331,
      "Ġlunch": 5332,
      "Ġprop": 5333,
      "Bu": 5334,
      "ols": 5335,
      "Ġring": 5336,
      "ĠComm": 5337,
      "Ġeditor": 5338,
      "tons": 5339,
      "las": 5340,
      "56": 5341,
      "Ġthick": 5342,
      "ĠEr": 5343,
      "Ġbusy": 5344,
      "Ġfreed": 5345,
      "isation": 5346,
      "Ġben": 5347,
      "respond": 5348,
      "Ġanimal": 5349,
      "Ġextend": 5350,
      "Ġlap": 5351,
      "ĠBoth": 5352,
      "ĠHuman": 5353,
      "ĠSof": 5354,
      "flow": 5355,
      "Ġdecl": 5356,
      "Ġcere": 5357,
      "Ġagent": 5358,
      "Ġdebt": 5359,
      "Ġnoted": 5360,
      "icient": 5361,
      "vas": 5362,
      "yan": 5363,
      "goti": 5364,
      "Ġder": 5365,
      "ffer": 5366,
      "icate": 5367,
      "ĠCat": 5368,
      "ĠPack": 5369,
      "ĠGame": 5370,
      "istr": 5371,
      "rac": 5372,
      "Ġprofit": 5373,
      "lia": 5374,
      "add": 5375,
      "ĠArab": 5376,
      "ĠMid": 5377,
      "ension": 5378,
      "ĠWild": 5379,
      "nch": 5380,
      "ĠGlobal": 5381,
      "utter": 5382,
      "ml": 5383,
      "via": 5384,
      "Ġmotiv": 5385,
      "ribute": 5386,
      "ensus": 5387,
      "Ġpitch": 5388,
      "ĠNE": 5389,
      "ĠAff": 5390,
      "Ġlights": 5391,
      "Ġexcept": 5392,
      "ĠMas": 5393,
      "ĠYes": 5394,
      "Ġsilver": 5395,
      "ĠTake": 5396,
      "ustin": 5397,
      "ĠOR": 5398,
      "Ġdebut": 5399,
      "TA": 5400,
      "Ġrapid": 5401,
      "idents": 5402,
      "ĠOrder": 5403,
      "ds": 5404,
      "point": 5405,
      "ĠRegion": 5406,
      "ĠOnly": 5407,
      "Ġactiv": 5408,
      "Rec": 5409,
      "ĠBed": 5410,
      "ĠEnd": 5411,
      "ĠAdv": 5412,
      "tially": 5413,
      "Col": 5414,
      "ictory": 5415,
      "Ġacces": 5416,
      "ĠJun": 5417,
      "olog": 5418,
      "higan": 5419,
      "ĠHD": 5420,
      "EE": 5421,
      "prene": 5422,
      "Ġrow": 5423,
      "rics": 5424,
      "Ĥ¬": 5425,
      "iously": 5426,
      "merce": 5427,
      "oub": 5428,
      "gor": 5429,
      "Med": 5430,
      "oston": 5431,
      "Ġsubmit": 5432,
      "Ġconnec": 5433,
      "Ġreserv": 5434,
      "MA": 5435,
      "Ġ1980": 5436,
      "tan": 5437,
      "rich": 5438,
      "Ġbond": 5439,
      "áħ¡": 5440,
      "Ì§": 5441,
      "chester": 5442,
      "Ġ300": 5443,
      "Ġadults": 5444,
      "rs": 5445,
      "Ġsides": 5446,
      "ospit": 5447,
      "Ø§": 5448,
      "ĠMax": 5449,
      "Ġvir": 5450,
      "utation": 5451,
      "ĠLine": 5452,
      "nized": 5453,
      "vy": 5454,
      "Ġissued": 5455,
      "ĠJim": 5456,
      "tough": 5457,
      "ĠON": 5458,
      "ĠHistor": 5459,
      "ĠCra": 5460,
      "oner": 5461,
      "bing": 5462,
      "UT": 5463,
      "Ġfields": 5464,
      "----": 5465,
      "lly": 5466,
      "Ġfailed": 5467,
      "CA": 5468,
      "Ġagg": 5469,
      "ĠLuc": 5470,
      "crip": 5471,
      "umes": 5472,
      "Ġjoint": 5473,
      "98": 5474,
      "foli": 5475,
      "Ġroll": 5476,
      "Ġfo": 5477,
      "ĠMob": 5478,
      "utor": 5479,
      "Ġsister": 5480,
      "Ġdeals": 5481,
      "ections": 5482,
      "Ġcrew": 5483,
      "Ġevalu": 5484,
      "Ġguy": 5485,
      "pher": 5486,
      "fted": 5487,
      "ĠWeek": 5488,
      "ĠFull": 5489,
      "ĠLast": 5490,
      "osite": 5491,
      "ĠFre": 5492,
      "Ġkit": 5493,
      "tub": 5494,
      "weight": 5495,
      "Ġfixed": 5496,
      "ĠYOU": 5497,
      "ography": 5498,
      "Ġrank": 5499,
      "lyn": 5500,
      "quid": 5501,
      "ĠCri": 5502,
      "Ġdecre": 5503,
      "ĠMartin": 5504,
      "reprene": 5505,
      "Ġobject": 5506,
      "Ġsample": 5507,
      "idering": 5508,
      "ican": 5509,
      "gas": 5510,
      "Ġ1997": 5511,
      "sitive": 5512,
      "Ġresol": 5513,
      "ĠSports": 5514,
      "entic": 5515,
      "ĠCoast": 5516,
      "Ġaffect": 5517,
      "Ġboat": 5518,
      "Ġshower": 5519,
      "cont": 5520,
      "onto": 5521,
      "gets": 5522,
      "oga": 5523,
      "lined": 5524,
      "osit": 5525,
      "itage": 5526,
      "ĠUl": 5527,
      "undreds": 5528,
      "Ġtough": 5529,
      "ectives": 5530,
      "ĠBow": 5531,
      "odies": 5532,
      "Ġbrands": 5533,
      "Ġkill": 5534,
      "anna": 5535,
      "aniel": 5536,
      "ĠMachi": 5537,
      "ĠHu": 5538,
      "May": 5539,
      "ticed": 5540,
      "76": 5541,
      "2017": 5542,
      "Ġalle": 5543,
      "Thank": 5544,
      "ĠColumb": 5545,
      "mile": 5546,
      ">>": 5547,
      "Ġtea": 5548,
      "lipp": 5549,
      "hand": 5550,
      "ĠSimp": 5551,
      "ĠLee": 5552,
      "vic": 5553,
      "ronic": 5554,
      "eper": 5555,
      "ĠConst": 5556,
      "Ġuns": 5557,
      "Ġ1996": 5558,
      "ĠFer": 5559,
      "ĠChief": 5560,
      "Ġadult": 5561,
      "fs": 5562,
      "Ġtests": 5563,
      "Ġguest": 5564,
      "Ġcritic": 5565,
      "ĠMur": 5566,
      "ĠLive": 5567,
      "Ġorders": 5568,
      "atterns": 5569,
      "Ġfactor": 5570,
      "Ġstret": 5571,
      "FC": 5572,
      "Ġrid": 5573,
      "ĠMos": 5574,
      "under": 5575,
      "ĠHi": 5576,
      "ctors": 5577,
      "Ġupper": 5578,
      "ram": 5579,
      "gers": 5580,
      "xp": 5581,
      "ĠRev": 5582,
      "Ġbegins": 5583,
      "Eng": 5584,
      "ishing": 5585,
      "History": 5586,
      "nged": 5587,
      "Ġchosen": 5588,
      "noon": 5589,
      "gie": 5590,
      "ĠCab": 5591,
      "ansas": 5592,
      "tun": 5593,
      "din": 5594,
      "Ġstars": 5595,
      "Ġvary": 5596,
      "acle": 5597,
      "related": 5598,
      "First": 5599,
      "alities": 5600,
      "ĠAwards": 5601,
      "bership": 5602,
      "ina": 5603,
      "abled": 5604,
      "ĠFort": 5605,
      "ngers": 5606,
      "Ġwalls": 5607,
      "ĠRail": 5608,
      "Ġaid": 5609,
      "Ġasking": 5610,
      "Ġfaster": 5611,
      "Ġweap": 5612,
      "Ġpromis": 5613,
      "ĠCost": 5614,
      "Ġregist": 5615,
      "Ġmouth": 5616,
      "Ġtu": 5617,
      "Ġrear": 5618,
      "Ġcauses": 5619,
      "Cont": 5620,
      "rors": 5621,
      "Ġfly": 5622,
      "ĠCy": 5623,
      "ĠDie": 5624,
      "Ġlabel": 5625,
      "Ġbutter": 5626,
      "Ġdepart": 5627,
      "Ġpump": 5628,
      "bar": 5629,
      "ategic": 5630,
      "uses": 5631,
      "lind": 5632,
      "Ġmail": 5633,
      "Ġsigns": 5634,
      "Ġprim": 5635,
      "bury": 5636,
      "mosph": 5637,
      "ĠLittle": 5638,
      "edi": 5639,
      "CE": 5640,
      "Ġ48": 5641,
      "ĠPremi": 5642,
      "tist": 5643,
      "unting": 5644,
      "ðŁ": 5645,
      "Ġpra": 5646,
      "thi": 5647,
      "Ġmuseum": 5648,
      "ĠJersey": 5649,
      "lets": 5650,
      "SE": 5651,
      "fra": 5652,
      "endar": 5653,
      "ores": 5654,
      "Up": 5655,
      "ulous": 5656,
      "bl": 5657,
      "Ġraise": 5658,
      "Ġem": 5659,
      "Ġrot": 5660,
      "Ġdesire": 5661,
      "ĠYoung": 5662,
      "isters": 5663,
      "Ġvisual": 5664,
      "ths": 5665,
      "away": 5666,
      "rings": 5667,
      "ato": 5668,
      "ĠKi": 5669,
      "know": 5670,
      "Ġspeech": 5671,
      "visions": 5672,
      "54": 5673,
      "Ġtopics": 5674,
      "ĠTable": 5675,
      "Ġchain": 5676,
      "Ġwheel": 5677,
      "ĠBob": 5678,
      "ingly": 5679,
      "ĠAuthor": 5680,
      "ĠCH": 5681,
      "taught": 5682,
      "ainable": 5683,
      "ĠAsh": 5684,
      "Go": 5685,
      "52": 5686,
      "ĠEs": 5687,
      "ĠChair": 5688,
      "oor": 5689,
      "ĠNight": 5690,
      "Ġdogs": 5691,
      "bration": 5692,
      "Ġoptim": 5693,
      "Ġcounty": 5694,
      "never": 5695,
      "cur": 5696,
      "izing": 5697,
      "ĠFilm": 5698,
      "Ġtrave": 5699,
      "ao": 5700,
      "elcome": 5701,
      "ĠSite": 5702,
      "ime": 5703,
      "Ġnone": 5704,
      "Ġprotei": 5705,
      "Ġaffili": 5706,
      "cell": 5707,
      "More": 5708,
      "gend": 5709,
      "Ġenable": 5710,
      "name": 5711,
      "ĠRights": 5712,
      "Ġchief": 5713,
      "Ġnative": 5714,
      "orry": 5715,
      "Ġbroken": 5716,
      "Ġfilter": 5717,
      "Ġseemed": 5718,
      "ĠNOT": 5719,
      "Ġfeels": 5720,
      "Ġneck": 5721,
      "Ġstick": 5722,
      "GB": 5723,
      "Ġsole": 5724,
      "Ġnewsp": 5725,
      "ĠOk": 5726,
      "ĠAD": 5727,
      "53": 5728,
      "ĠPolicy": 5729,
      "Ġ36": 5730,
      "Ġpul": 5731,
      "51": 5732,
      "Ġforced": 5733,
      "Ġbrown": 5734,
      "Ġrob": 5735,
      "ĠEnergy": 5736,
      "VD": 5737,
      "ĠBraz": 5738,
      "Ġtwice": 5739,
      "trib": 5740,
      "Ġ188": 5741,
      "Dis": 5742,
      "ĠMot": 5743,
      "Ġpic": 5744,
      "ĠDub": 5745,
      "ĠMu": 5746,
      "ĠAri": 5747,
      "Ġdomain": 5748,
      "fting": 5749,
      "lict": 5750,
      "ĠVideo": 5751,
      "Ġcru": 5752,
      "aire": 5753,
      "Ġcivil": 5754,
      "rence": 5755,
      "tables": 5756,
      "ĠVan": 5757,
      "ĠHard": 5758,
      "ĠAR": 5759,
      "Ġbonus": 5760,
      "nf": 5761,
      "ĠForce": 5762,
      "oe": 5763,
      "Ġsurf": 5764,
      "Ġwid": 5765,
      "orders": 5766,
      "ĠSwed": 5767,
      "dem": 5768,
      "ĠRel": 5769,
      "Ġholds": 5770,
      "ĠThi": 5771,
      "aning": 5772,
      "Ġends": 5773,
      "ĠSho": 5774,
      "ĠPlus": 5775,
      "Ġmeal": 5776,
      "ĠNC": 5777,
      "Ġfu": 5778,
      "Ġru": 5779,
      "bro": 5780,
      "Ġwinner": 5781,
      "Ġdoubt": 5782,
      "ackson": 5783,
      "Ġil": 5784,
      "nivers": 5785,
      "usi": 5786,
      "Â°": 5787,
      "cisco": 5788,
      "Ġ1970": 5789,
      "lis": 5790,
      "worth": 5791,
      "ĠIran": 5792,
      "ĠBoston": 5793,
      "Ġsmo": 5794,
      "Ġbike": 5795,
      "oul": 5796,
      "oration": 5797,
      "Ġparent": 5798,
      "nery": 5799,
      "Ġtaught": 5800,
      "Ġsignal": 5801,
      "Ġplate": 5802,
      "ĠClo": 5803,
      "osh": 5804,
      "Ġexpos": 5805,
      "ructed": 5806,
      ">â": 5807,
      "PC": 5808,
      "Ġlisten": 5809,
      "Ġarts": 5810,
      "iano": 5811,
      "Ġ1995": 5812,
      "vements": 5813,
      "Ġsac": 5814,
      "Ġtransl": 5815,
      "Ġscored": 5816,
      "Ð¾Ð": 5817,
      "Ġglad": 5818,
      "Ġnearby": 5819,
      "Ġrental": 5820,
      "Ġca": 5821,
      "oni": 5822,
      "irty": 5823,
      "Ġcro": 5824,
      "Ġfoods": 5825,
      "Ġquiet": 5826,
      "Are": 5827,
      "ĠArea": 5828,
      "entist": 5829,
      "Ġpure": 5830,
      "ĠSea": 5831,
      "date": 5832,
      "72": 5833,
      "Ġthread": 5834,
      "reams": 5835,
      "ĠEp": 5836,
      "Ġjew": 5837,
      "à¸": 5838,
      "Ġmixed": 5839,
      "Every": 5840,
      "align": 5841,
      "irmed": 5842,
      "ounter": 5843,
      "ĠSaf": 5844,
      "ĠKey": 5845,
      "rin": 5846,
      "Ġnegoti": 5847,
      "Ġchat": 5848,
      "Ġapps": 5849,
      "Ġalco": 5850,
      "Ġtables": 5851,
      "Ġyellow": 5852,
      "ĠCEO": 5853,
      "Tra": 5854,
      "vania": 5855,
      "Ġlayer": 5856,
      "Ġteen": 5857,
      "ĠVill": 5858,
      "Ġshut": 5859,
      "war": 5860,
      "fectly": 5861,
      "ĠWhere": 5862,
      "ĠGene": 5863,
      "ĠDef": 5864,
      "Par": 5865,
      "Ġlicens": 5866,
      "lers": 5867,
      "ĠHenry": 5868,
      "Loc": 5869,
      "lder": 5870,
      "ngo": 5871,
      "yard": 5872,
      "ĠWorks": 5873,
      "Ġmul": 5874,
      "Ġagreed": 5875,
      "ĠCode": 5876,
      "Per": 5877,
      ";<": 5878,
      "Ġmainly": 5879,
      "mont": 5880,
      "uclear": 5881,
      "you": 5882,
      "Ġpaying": 5883,
      "Ġtight": 5884,
      "ctic": 5885,
      "Ġpasse": 5886,
      "Ġmovies": 5887,
      "ĠLy": 5888,
      "itoring": 5889,
      "ĠFollow": 5890,
      "Ġreti": 5891,
      "Ġrenew": 5892,
      "Ġhorse": 5893,
      "ĠOhio": 5894,
      "ĠAccess": 5895,
      "However": 5896,
      "Ġho": 5897,
      "Ġearned": 5898,
      "Ġtor": 5899,
      "ĠRadio": 5900,
      "Ġacid": 5901,
      "nois": 5902,
      "Ġemphas": 5903,
      "áĦĭáħ": 5904,
      "Ġshoes": 5905,
      "ĠSaint": 5906,
      "Ġassets": 5907,
      "xture": 5908,
      "ĠSP": 5909,
      "Ġgear": 5910,
      "hia": 5911,
      "Ġsport": 5912,
      "Let": 5913,
      "Ġbes": 5914,
      "urn": 5915,
      "TR": 5916,
      "Ġsolar": 5917,
      "74": 5918,
      "ĠJeff": 5919,
      "Ġtruck": 5920,
      "lored": 5921,
      "Ġtells": 5922,
      "Ġserves": 5923,
      "Ġkinds": 5924,
      "eding": 5925,
      "ĠPrice": 5926,
      "Ġrug": 5927,
      "iter": 5928,
      "uten": 5929,
      "Ġnavig": 5930,
      "ĠSale": 5931,
      "aren": 5932,
      "Ġprosp": 5933,
      "ĠBrand": 5934,
      "Just": 5935,
      "Ear": 5936,
      "uters": 5937,
      "Ġproto": 5938,
      "Ġrough": 5939,
      "ĠDesig": 5940,
      "ĠWatch": 5941,
      "Ġobserv": 5942,
      "Ġamb": 5943,
      "2016": 5944,
      "ĠMis": 5945,
      "ĠIslam": 5946,
      "ĠSpain": 5947,
      "oosing": 5948,
      "ĠFair": 5949,
      "Tw": 5950,
      "Ġfulf": 5951,
      "urious": 5952,
      "ĠÎ": 5953,
      "ĠJones": 5954,
      "ĠTher": 5955,
      "ĠiPhone": 5956,
      "oured": 5957,
      "Ġurban": 5958,
      "ĠBath": 5959,
      "Ġsizes": 5960,
      "Ġshares": 5961,
      "Ġwealth": 5962,
      "jected": 5963,
      "tab": 5964,
      "appy": 5965,
      "Co": 5966,
      "vit": 5967,
      "Ġcycle": 5968,
      "ĠPak": 5969,
      "ĠPolice": 5970,
      "ferred": 5971,
      "ĠBang": 5972,
      "Ġmilk": 5973,
      "mato": 5974,
      "63": 5975,
      "ĠInt": 5976,
      "entists": 5977,
      "illions": 5978,
      "ĠCast": 5979,
      "Ġfer": 5980,
      "ĠConf": 5981,
      "Ġsugges": 5982,
      "aste": 5983,
      "ĠMA": 5984,
      "ylvania": 5985,
      "ception": 5986,
      "Ġsevere": 5987,
      "Ġyes": 5988,
      "har": 5989,
      "Ġdemo": 5990,
      "Ġmeat": 5991,
      "rance": 5992,
      "rupt": 5993,
      "Ġda": 5994,
      "class": 5995,
      "Ġteeth": 5996,
      "ĠEU": 5997,
      "ĠDar": 5998,
      "phy": 5999,
      "ĠTest": 6000,
      "Ġkick": 6001,
      "ĠSteph": 6002,
      "Ġretire": 6003,
      "Ġborder": 6004,
      "ressing": 6005,
      "icity": 6006,
      "During": 6007,
      "Ġ1994": 6008,
      "Ġturns": 6009,
      "Inter": 6010,
      "ĠKeep": 6011,
      "ĠBox": 6012,
      "while": 6013,
      "Ġimpos": 6014,
      "Ġpregn": 6015,
      "____": 6016,
      "61": 6017,
      "REE": 6018,
      "ĠMike": 6019,
      "Ġicon": 6020,
      "Ġoutput": 6021,
      "gent": 6022,
      "Ġgrew": 6023,
      "Yes": 6024,
      "Ġrei": 6025,
      "2015": 6026,
      "mme": 6027,
      "yo": 6028,
      "Ġrand": 6029,
      "berry": 6030,
      "Ġstruc": 6031,
      "62": 6032,
      "ockey": 6033,
      "gcolor": 6034,
      "ading": 6035,
      "ĠTele": 6036,
      "amber": 6037,
      "ju": 6038,
      "Ġphase": 6039,
      "Last": 6040,
      "ubs": 6041,
      "Ġdrugs": 6042,
      "aha": 6043,
      "ĠAsian": 6044,
      "Ġnur": 6045,
      "Ġalumni": 6046,
      "uster": 6047,
      "Ġspaces": 6048,
      "udi": 6049,
      "adium": 6050,
      "Ġadvoc": 6051,
      "73": 6052,
      "ĠBase": 6053,
      "stances": 6054,
      "Ġheight": 6055,
      "ssue": 6056,
      "Ġarrest": 6057,
      "ĠKnow": 6058,
      "ĠKit": 6059,
      "Over": 6060,
      "case": 6061,
      "UL": 6062,
      "phi": 6063,
      "ppers": 6064,
      "isted": 6065,
      "Ġjoy": 6066,
      "Ġexpan": 6067,
      "tol": 6068,
      "ĠNov": 6069,
      "ived": 6070,
      "ĠScott": 6071,
      "eter": 6072,
      "apos": 6073,
      "Home": 6074,
      "losophy": 6075,
      "luded": 6076,
      "Ġdomin": 6077,
      "dden": 6078,
      "ĠJac": 6079,
      "uration": 6080,
      "Ġstream": 6081,
      "ĠRest": 6082,
      "Ġec": 6083,
      "ĠProt": 6084,
      "Am": 6085,
      "ĠApplic": 6086,
      "ĠPu": 6087,
      "Ġcheese": 6088,
      "ĠPage": 6089,
      "Ġcaught": 6090,
      "Ġsalt": 6091,
      "Ġbet": 6092,
      "forms": 6093,
      "law": 6094,
      "ipated": 6095,
      "cket": 6096,
      "gene": 6097,
      "Add": 6098,
      "atri": 6099,
      "ĠSanta": 6100,
      "Ġgod": 6101,
      "east": 6102,
      "71": 6103,
      "Ġresi": 6104,
      "ĠSmall": 6105,
      "intage": 6106,
      "acking": 6107,
      "yers": 6108,
      "bec": 6109,
      "nity": 6110,
      "Ġalbums": 6111,
      "?âĢĿ": 6112,
      "Ġsheet": 6113,
      "Ġ38": 6114,
      "Ġbread": 6115,
      "gible": 6116,
      "irms": 6117,
      "ĠLow": 6118,
      "En": 6119,
      "chang": 6120,
      "Ġtasks": 6121,
      "ĠTravel": 6122,
      "Ġpromp": 6123,
      "adow": 6124,
      "ht": 6125,
      "asp": 6126,
      "ĠBell": 6127,
      "Since": 6128,
      "Ġcontai": 6129,
      "ĠIrish": 6130,
      "inent": 6131,
      "wing": 6132,
      "apore": 6133,
      "Ġpapers": 6134,
      "reme": 6135,
      "arks": 6136,
      "Ġvit": 6137,
      "reets": 6138,
      "ĠAtt": 6139,
      "Ġweak": 6140,
      "ĠPrin": 6141,
      "ĠBefore": 6142,
      "half": 6143,
      "awa": 6144,
      "Ġpun": 6145,
      "Ġene": 6146,
      "Other": 6147,
      "Ġgro": 6148,
      "ĠSky": 6149,
      "Au": 6150,
      "Ġboys": 6151,
      "eff": 6152,
      "Ġner": 6153,
      "Ġtex": 6154,
      "ĠPop": 6155,
      "Te": 6156,
      "Ġterrit": 6157,
      "rency": 6158,
      "build": 6159,
      "ATION": 6160,
      "Ġpoll": 6161,
      "Ġhire": 6162,
      "loyment": 6163,
      "Ġtrend": 6164,
      "Ġluxury": 6165,
      "ĠJewish": 6166,
      "Ġbridge": 6167,
      "ĠReport": 6168,
      "yal": 6169,
      "Ġcrime": 6170,
      "ĠFour": 6171,
      "Most": 6172,
      "Ġselec": 6173,
      "Ġelev": 6174,
      "Ġmotion": 6175,
      "ticle": 6176,
      "alize": 6177,
      "Ġgrown": 6178,
      "aka": 6179,
      "Ġscen": 6180,
      "ĠQueen": 6181,
      "ĠFOR": 6182,
      "DS": 6183,
      "ĠJoseph": 6184,
      "Any": 6185,
      "gian": 6186,
      "ĠDC": 6187,
      "matic": 6188,
      "Ġcooper": 6189,
      "ĠRose": 6190,
      "wa": 6191,
      "oon": 6192,
      "eek": 6193,
      "aki": 6194,
      "oug": 6195,
      "MP": 6196,
      "Ġmurder": 6197,
      "Ġgolf": 6198,
      "Ġbigger": 6199,
      "type": 6200,
      "quality": 6201,
      "race": 6202,
      "Ġloves": 6203,
      "Ġremote": 6204,
      "Ġdates": 6205,
      "Ġcampus": 6206,
      "Ġawards": 6207,
      "Ġstyles": 6208,
      "ĠSus": 6209,
      "ampion": 6210,
      "tains": 6211,
      "Ġspect": 6212,
      "ĠCamb": 6213,
      "llinois": 6214,
      "Ġrandom": 6215,
      "Ġclassi": 6216,
      "Ġ1992": 6217,
      "umps": 6218,
      "FF": 6219,
      "Hi": 6220,
      "Ġhall": 6221,
      "Ġhero": 6222,
      "Ġsett": 6223,
      "chi": 6224,
      "Ġchart": 6225,
      "âĢľ": 6226,
      "orable": 6227,
      "Ġstands": 6228,
      "Ġjudge": 6229,
      "una": 6230,
      "Ġrac": 6231,
      "look": 6232,
      "wich": 6233,
      "ĠHim": 6234,
      "loaded": 6235,
      "Ġsoul": 6236,
      "Ġ150": 6237,
      "idance": 6238,
      "ĠFarm": 6239,
      "ĠCirc": 6240,
      "ĠLiving": 6241,
      "ĠKo": 6242,
      "Ġpharm": 6243,
      "Ġtracks": 6244,
      "ĠSC": 6245,
      "emp": 6246,
      "ios": 6247,
      "ĠField": 6248,
      "Ġagents": 6249,
      "burgh": 6250,
      "Ġgarage": 6251,
      "wan": 6252,
      "icts": 6253,
      "ĠGarden": 6254,
      "ĠAndrew": 6255,
      "ĠHon": 6256,
      "lay": 6257,
      "tank": 6258,
      "ĠCorpor": 6259,
      "ĠPol": 6260,
      "emi": 6261,
      "itz": 6262,
      "Ġment": 6263,
      "áĨ«": 6264,
      "ĠKh": 6265,
      "Ġdivid": 6266,
      "Ġclic": 6267,
      "ĠJon": 6268,
      "ĠBru": 6269,
      "Ġloans": 6270,
      "cia": 6271,
      "Ġveter": 6272,
      "cho": 6273,
      "Ġforest": 6274,
      "âĢĿ.<": 6275,
      "Ġinput": 6276,
      "Ġbless": 6277,
      "iana": 6278,
      "Uni": 6279,
      "ĠCO": 6280,
      "Comp": 6281,
      "Ġfellow": 6282,
      "Ġbear": 6283,
      "ĠOw": 6284,
      "Ġcake": 6285,
      "Ġenth": 6286,
      "ĠSearch": 6287,
      ">|-<": 6288,
      "Ġcu": 6289,
      "ĠNext": 6290,
      "Mi": 6291,
      "abeth": 6292,
      "Ġunable": 6293,
      "era": 6294,
      "ĠLiber": 6295,
      "ĠKent": 6296,
      "ishop": 6297,
      "tall": 6298,
      "ĠGreek": 6299,
      "Ġassign": 6300,
      "Once": 6301,
      "ĠAni": 6302,
      "tel": 6303,
      "ador": 6304,
      "xford": 6305,
      "Ġsplit": 6306,
      "valent": 6307,
      "Ġ1960": 6308,
      "ĠAS": 6309,
      "Ġrein": 6310,
      "Ġmill": 6311,
      "FA": 6312,
      "Ġavail": 6313,
      "Ġskill": 6314,
      "liers": 6315,
      "ĠCro": 6316,
      "agon": 6317,
      "ĠHel": 6318,
      "ĠJoe": 6319,
      "Ġ189": 6320,
      "HS": 6321,
      "Ġcarbon": 6322,
      "ĠPA": 6323,
      "Ġ1993": 6324,
      "aya": 6325,
      "sters": 6326,
      "Ġrad": 6327,
      "Ġflood": 6328,
      "mentary": 6329,
      "Ġcruc": 6330,
      "books": 6331,
      "ĠRos": 6332,
      "Rep": 6333,
      "ipation": 6334,
      "Ġcable": 6335,
      "Ġscan": 6336,
      "Ġkeeps": 6337,
      "Ġengage": 6338,
      "ĠPrince": 6339,
      "ille": 6340,
      "tile": 6341,
      "istant": 6342,
      "ĠPenns": 6343,
      "Ġcloser": 6344,
      "TER": 6345,
      "ĠCreek": 6346,
      "ctional": 6347,
      "tested": 6348,
      "ĠFriend": 6349,
      "Ġliber": 6350,
      "ĠPlace": 6351,
      "ĠÂ©": 6352,
      "vie": 6353,
      "nders": 6354,
      "erman": 6355,
      "thetic": 6356,
      "gration": 6357,
      "llo": 6358,
      "Ġwet": 6359,
      "Ġves": 6360,
      "icket": 6361,
      "Ġhur": 6362,
      "dney": 6363,
      "Ġenti": 6364,
      "ĠPass": 6365,
      "comes": 6366,
      "Ġagric": 6367,
      "rus": 6368,
      "cepts": 6369,
      "Ġscr": 6370,
      "Ġ33": 6371,
      "Ġindex": 6372,
      "Ġequal": 6373,
      "theless": 6374,
      "Fin": 6375,
      "ĠMS": 6376,
      "ĠEgy": 6377,
      "covery": 6378,
      ">Â©": 6379,
      "ĠBio": 6380,
      "stei": 6381,
      "pret": 6382,
      "versal": 6383,
      "Ġoptimi": 6384,
      "Next": 6385,
      "Ġhospit": 6386,
      "ĠSilver": 6387,
      "cher": 6388,
      "Well": 6389,
      "ĠRou": 6390,
      "Ġelec": 6391,
      "ĠBan": 6392,
      "Ġlosing": 6393,
      "2014": 6394,
      "ĠPas": 6395,
      "ĠCook": 6396,
      "onics": 6397,
      "ĠÂ·": 6398,
      "Ġsad": 6399,
      "ĠSup": 6400,
      "Ġtab": 6401,
      "abet": 6402,
      "ĠThree": 6403,
      "elly": 6404,
      "ĠFra": 6405,
      "Another": 6406,
      "stein": 6407,
      "ĠHot": 6408,
      "mers": 6409,
      "Ġ400": 6410,
      "ardens": 6411,
      "arters": 6412,
      "Ġdimen": 6413,
      "ĠProper": 6414,
      "ĠTit": 6415,
      "ĠMinne": 6416,
      "Ġwidely": 6417,
      "Ġfro": 6418,
      "tracted": 6419,
      "mistry": 6420,
      "AB": 6421,
      "Ġwithd": 6422,
      "ĠAsse": 6423,
      "Ġsemi": 6424,
      "stery": 6425,
      "Ġ2021": 6426,
      "Ġarms": 6427,
      "rectly": 6428,
      "Ġworse": 6429,
      "Ġdelay": 6430,
      "ĠRef": 6431,
      "views": 6432,
      "ĠTax": 6433,
      "ĠBible": 6434,
      "duate": 6435,
      "ĠFred": 6436,
      "rous": 6437,
      "Ġsinger": 6438,
      "Ġsky": 6439,
      "Ġeleg": 6440,
      "orgeous": 6441,
      "Ġaltern": 6442,
      "Ġmissed": 6443,
      "Ġcrisis": 6444,
      "tify": 6445,
      "inf": 6446,
      "Ġusual": 6447,
      "Ġ75": 6448,
      "speci": 6449,
      "Ġreflec": 6450,
      "ĠAvenue": 6451,
      "Ġearn": 6452,
      "Ġbanks": 6453,
      "2013": 6454,
      "Ġacknow": 6455,
      "CD": 6456,
      "ĠSon": 6457,
      "Ġveri": 6458,
      "aylor": 6459,
      "level": 6460,
      "aval": 6461,
      "ĠSpirit": 6462,
      "Ro": 6463,
      "Press": 6464,
      "odi": 6465,
      "Ġsudden": 6466,
      "ĠBul": 6467,
      "Ġclimb": 6468,
      "ĠComple": 6469,
      "center": 6470,
      "Ġig": 6471,
      "Ġmm": 6472,
      "Ġguard": 6473,
      "archers": 6474,
      "Ġzone": 6475,
      "alt": 6476,
      "Ġdele": 6477,
      "profit": 6478,
      "ĠBooks": 6479,
      "Ġfacing": 6480,
      "uine": 6481,
      "cipal": 6482,
      "Ġfas": 6483,
      "Ġly": 6484,
      "Ġsatisf": 6485,
      "ĠShop": 6486,
      "Ġtom": 6487,
      "Ġbowl": 6488,
      "ĠMobile": 6489,
      "Many": 6490,
      "ĠNavy": 6491,
      "ĠGen": 6492,
      "Ġliquid": 6493,
      "Ġseats": 6494,
      "ĠRam": 6495,
      "Ġbrush": 6496,
      "Ġhabit": 6497,
      "ĠSpace": 6498,
      "Ġtub": 6499,
      "Best": 6500,
      "vised": 6501,
      "rat": 6502,
      "ĠDog": 6503,
      "Ġticket": 6504,
      "ĠPrac": 6505,
      "nize": 6506,
      "got": 6507,
      "Ġroles": 6508,
      "ĠHope": 6509,
      "aints": 6510,
      "ĠRay": 6511,
      "ĠAT": 6512,
      "Ġ1991": 6513,
      "onym": 6514,
      "star": 6515,
      "gun": 6516,
      "nian": 6517,
      "stream": 6518,
      "ngoing": 6519,
      "ĠTag": 6520,
      "olks": 6521,
      "urb": 6522,
      "Ġtall": 6523,
      "ĠWis": 6524,
      "Ġodd": 6525,
      "ĠKorea": 6526,
      "Ġgifts": 6527,
      "Ġast": 6528,
      "Ġster": 6529,
      "Ġmining": 6530,
      "Ġcul": 6531,
      "Ġages": 6532,
      "rink": 6533,
      "Ġattrib": 6534,
      "Ġnarrow": 6535,
      "ĠSty": 6536,
      "redit": 6537,
      "ĠMah": 6538,
      "vili": 6539,
      "Ġtank": 6540,
      "ĠSales": 6541,
      "LS": 6542,
      "ĠIII": 6543,
      "vine": 6544,
      "Ġcrash": 6545,
      "Ġterror": 6546,
      "Ġpicked": 6547,
      "Ġunlike": 6548,
      "folio": 6549,
      "ĠCR": 6550,
      "Ġconso": 6551,
      "Ġstat": 6552,
      "ĠThose": 6553,
      "uan": 6554,
      "mony": 6555,
      "Ġspok": 6556,
      "ĠWalk": 6557,
      "Ġmagic": 6558,
      "ĠStart": 6559,
      "cribe": 6560,
      "ĠChan": 6561,
      "ĠWales": 6562,
      "live": 6563,
      "2010": 6564,
      "Tube": 6565,
      "atforms": 6566,
      "ĠTrust": 6567,
      "MC": 6568,
      "Ġpros": 6569,
      "titled": 6570,
      "cu": 6571,
      "nee": 6572,
      "Click": 6573,
      "Find": 6574,
      "Ġoblig": 6575,
      "Ġaspect": 6576,
      "Dr": 6577,
      "LY": 6578,
      "Fil": 6579,
      "Ġbel": 6580,
      "ģĦ": 6581,
      "Ġped": 6582,
      "ĠKong": 6583,
      "fortun": 6584,
      "Ġderi": 6585,
      "Ġmac": 6586,
      "Ġtrends": 6587,
      "ii": 6588,
      "agues": 6589,
      "Ġflash": 6590,
      "ĠOct": 6591,
      "ĠCoo": 6592,
      "kings": 6593,
      "ĠKim": 6594,
      "Dec": 6595,
      "ĠSteve": 6596,
      "Ġrecon": 6597,
      "ÌĨ": 6598,
      "Ġvast": 6599,
      "Ġease": 6600,
      "ghter": 6601,
      "tioned": 6602,
      "ĠIdeas": 6603,
      "ĠFord": 6604,
      "ives": 6605,
      "View": 6606,
      "ĠUsing": 6607,
      "ĠUk": 6608,
      "Ġlangu": 6609,
      "âģĦ": 6610,
      "Ġinches": 6611,
      "erial": 6612,
      "Ġultim": 6613,
      "rict": 6614,
      "ĠSong": 6615,
      "Ġspons": 6616,
      "inter": 6617,
      "Ġdevelo": 6618,
      "Ġbodies": 6619,
      "Ġrisks": 6620,
      "ĠEss": 6621,
      "300": 6622,
      "onda": 6623,
      "Ġquanti": 6624,
      "Ġdeck": 6625,
      "Ġsoil": 6626,
      "bin": 6627,
      "ĠMath": 6628,
      "ainless": 6629,
      "rate": 6630,
      "Ġgrass": 6631,
      "aired": 6632,
      "tees": 6633,
      "loo": 6634,
      "rine": 6635,
      "tively": 6636,
      "EST": 6637,
      "sen": 6638,
      "mann": 6639,
      "Ġlogo": 6640,
      "pon": 6641,
      "Ġcompos": 6642,
      "Ġok": 6643,
      "Ġlinked": 6644,
      "ĠLin": 6645,
      "tock": 6646,
      "Ġplanet": 6647,
      "front": 6648,
      "ĠHelp": 6649,
      "asant": 6650,
      "allet": 6651,
      "Ġscript": 6652,
      "ĠBoy": 6653,
      "licated": 6654,
      "viet": 6655,
      "Ġtail": 6656,
      "Ġmut": 6657,
      "clusion": 6658,
      "ĠLog": 6659,
      "ĠDev": 6660,
      "Ġmere": 6661,
      "len": 6662,
      "ĠBroad": 6663,
      "Ġvital": 6664,
      "ativity": 6665,
      "Ġcute": 6666,
      "Ġproof": 6667,
      "tingu": 6668,
      "iers": 6669,
      "Ġtalent": 6670,
      "Ed": 6671,
      "lass": 6672,
      "tac": 6673,
      "ĠStan": 6674,
      "Ġtermin": 6675,
      "Ġactor": 6676,
      "Ġlect": 6677,
      "Ġtested": 6678,
      "Ġera": 6679,
      "Ġbeer": 6680,
      "Ġ65": 6681,
      "zabeth": 6682,
      "Ġreward": 6683,
      "ĠFac": 6684,
      "Gu": 6685,
      "avis": 6686,
      "Ġduty": 6687,
      "Ġlaugh": 6688,
      "Ġrural": 6689,
      "ĠPrime": 6690,
      "!!!": 6691,
      "Ġ34": 6692,
      "ĠSH": 6693,
      "Ġsin": 6694,
      "John": 6695,
      "Ġarmy": 6696,
      "igure": 6697,
      "Ġpill": 6698,
      "using": 6699,
      "played": 6700,
      "grapher": 6701,
      "Ġabsor": 6702,
      "alo": 6703,
      "aze": 6704,
      "Ġmand": 6705,
      "ĠStock": 6706,
      "idi": 6707,
      "ĠBuy": 6708,
      "mic": 6709,
      "EA": 6710,
      "ĠNote": 6711,
      "Ġunders": 6712,
      "Read": 6713,
      "tomer": 6714,
      "weet": 6715,
      "page": 6716,
      "ĠObama": 6717,
      "Ass": 6718,
      "Ġwave": 6719,
      "ameter": 6720,
      "2012": 6721,
      ">#": 6722,
      "BI": 6723,
      "Ġmile": 6724,
      "ĠPoint": 6725,
      "terior": 6726,
      "uma": 6727,
      "abe": 6728,
      "Bri": 6729,
      "ĠBand": 6730,
      "Ġweekly": 6731,
      "CT": 6732,
      "ĠSenate": 6733,
      "style": 6734,
      "Ġterri": 6735,
      "Ġclea": 6736,
      "Ġnewly": 6737,
      "Ġfiled": 6738,
      "ãĢ": 6739,
      "ĠDaniel": 6740,
      "here": 6741,
      "ĠHoly": 6742,
      "Ġtrigg": 6743,
      "Ġpoker": 6744,
      "ears": 6745,
      "ĠStore": 6746,
      "Ġdental": 6747,
      "tracts": 6748,
      "ublican": 6749,
      "Ke": 6750,
      "aping": 6751,
      "esh": 6752,
      "Ġmoist": 6753,
      "Ġforth": 6754,
      "zona": 6755,
      "bio": 6756,
      "ĠUr": 6757,
      "Ġrose": 6758,
      "ĠEstate": 6759,
      "ĠDoes": 6760,
      "Ġplain": 6761,
      "bourne": 6762,
      "ĠIndust": 6763,
      "Sec": 6764,
      "ila": 6765,
      "ĠOil": 6766,
      "ĠDrive": 6767,
      "Ġantic": 6768,
      "ĠMaybe": 6769,
      "Ġham": 6770,
      "that": 6771,
      "Ġquote": 6772,
      "ĠViet": 6773,
      "Ġinner": 6774,
      "ĠGro": 6775,
      "ERS": 6776,
      "osi": 6777,
      "Ġwra": 6778,
      "RS": 6779,
      "Ġlies": 6780,
      "ĠJr": 6781,
      "Ġpin": 6782,
      "Ġappeal": 6783,
      "Ġbottle": 6784,
      "tack": 6785,
      "tinent": 6786,
      "ĠSS": 6787,
      "Ġarra": 6788,
      "ĠSU": 6789,
      "Ġpossi": 6790,
      "Ġslot": 6791,
      "Ġdepth": 6792,
      "actor": 6793,
      "Ġmerch": 6794,
      "celer": 6795,
      "ĠSteel": 6796,
      "Ġblow": 6797,
      "etts": 6798,
      "Ġindeed": 6799,
      "Ġpipe": 6800,
      "ĠEff": 6801,
      "just": 6802,
      "ĠRun": 6803,
      "PM": 6804,
      "achus": 6805,
      "ĠStone": 6806,
      "ĠFL": 6807,
      "Ġhidden": 6808,
      "Ġdiscip": 6809,
      "Ġcock": 6810,
      "ĠCam": 6811,
      "ais": 6812,
      "unteer": 6813,
      "Ġthin": 6814,
      "ĠAnti": 6815,
      "ĠProm": 6816,
      "pto": 6817,
      "ĠLocal": 6818,
      "89": 6819,
      "ĠMulti": 6820,
      "anes": 6821,
      "AY": 6822,
      "Ġhosted": 6823,
      "Of": 6824,
      "ĠSydney": 6825,
      "ĠCommon": 6826,
      "ĠRight": 6827,
      "Ġ1989": 6828,
      "Ġevol": 6829,
      "ĠBridge": 6830,
      "Ġmari": 6831,
      "Also": 6832,
      "raq": 6833,
      "ibly": 6834,
      "ĠHa": 6835,
      "reate": 6836,
      "Ġrating": 6837,
      "Ġvend": 6838,
      "ĠHou": 6839,
      "Ġrelief": 6840,
      "ycle": 6841,
      "agen": 6842,
      "Ġyester": 6843,
      "pur": 6844,
      "ĠLLC": 6845,
      "Ġoven": 6846,
      "athy": 6847,
      "Ġassum": 6848,
      "Ġtiny": 6849,
      "arry": 6850,
      "Ġstim": 6851,
      "ĠModern": 6852,
      "atelli": 6853,
      "Ġboost": 6854,
      "https": 6855,
      "Mo": 6856,
      "wer": 6857,
      "irts": 6858,
      "Ġtaxes": 6859,
      "clo": 6860,
      "ĠCivil": 6861,
      "Ġvul": 6862,
      "Ġshops": 6863,
      "ĠMember": 6864,
      "Ġinvent": 6865,
      "rec": 6866,
      "graphs": 6867,
      "neys": 6868,
      "uper": 6869,
      "bri": 6870,
      "Mus": 6871,
      "Ġhonor": 6872,
      "dri": 6873,
      "Ġni": 6874,
      "entle": 6875,
      "olis": 6876,
      "isms": 6877,
      "ptional": 6878,
      "Ġunion": 6879,
      "Ġchose": 6880,
      "Ġaccord": 6881,
      "athan": 6882,
      "iler": 6883,
      "ĠBad": 6884,
      "acked": 6885,
      "ulating": 6886,
      "zi": 6887,
      "eping": 6888,
      "tie": 6889,
      "Ġcart": 6890,
      "ĠRod": 6891,
      "real": 6892,
      "Ġinch": 6893,
      "Ġsauce": 6894,
      "strate": 6895,
      "ĠIce": 6896,
      "Ġ)": 6897,
      "Ġpowder": 6898,
      "Ġ39": 6899,
      "Ġfacts": 6900,
      "llect": 6901,
      "vering": 6902,
      "antic": 6903,
      "Ġspin": 6904,
      "oop": 6905,
      "ulpt": 6906,
      "ESS": 6907,
      "ĠMcC": 6908,
      "from": 6909,
      "Ġbass": 6910,
      "ĠHong": 6911,
      "ĠBall": 6912,
      "Ġphen": 6913,
      "rage": 6914,
      "bell": 6915,
      "Ġwooden": 6916,
      "Free": 6917,
      "omet": 6918,
      "oms": 6919,
      "mented": 6920,
      "Ġheavi": 6921,
      "Ġacts": 6922,
      "Ġtack": 6923,
      "ĠHas": 6924,
      "orters": 6925,
      "utional": 6926,
      "Ġpp": 6927,
      "Ġclubs": 6928,
      "ĠHol": 6929,
      "asingly": 6930,
      "ĠDVD": 6931,
      "85": 6932,
      "fl": 6933,
      "cessor": 6934,
      "ĠFish": 6935,
      "vard": 6936,
      "acket": 6937,
      "ĠOs": 6938,
      "bet": 6939,
      "uzz": 6940,
      "ilton": 6941,
      "holders": 6942,
      "Care": 6943,
      "arently": 6944,
      "ĠMini": 6945,
      "netic": 6946,
      "Great": 6947,
      "oster": 6948,
      "Ġdecade": 6949,
      "ician": 6950,
      "oir": 6951,
      "ulum": 6952,
      "ĠForest": 6953,
      "pan": 6954,
      "ĠAgain": 6955,
      "Ġfairly": 6956,
      "centage": 6957,
      "EP": 6958,
      "tation": 6959,
      "ĠWinter": 6960,
      "Ġsharp": 6961,
      "ĠCou": 6962,
      "ĠBC": 6963,
      "host": 6964,
      "Ġscheme": 6965,
      "regon": 6966,
      "Ġtwenty": 6967,
      "Ġlad": 6968,
      "ĠâĨ": 6969,
      "ĠHeart": 6970,
      "ĠTool": 6971,
      "Ġlatter": 6972,
      "Ġvessel": 6973,
      "ĠLink": 6974,
      "tube": 6975,
      "ĠDisney": 6976,
      "2011": 6977,
      "Ġ1988": 6978,
      "lantic": 6979,
      "Ġbirds": 6980,
      "unteers": 6981,
      "Ġwarran": 6982,
      "ditions": 6983,
      "otal": 6984,
      "Ġacting": 6985,
      "enn": 6986,
      "Ġyard": 6987,
      "ching": 6988,
      "Ġarrive": 6989,
      "ĠLED": 6990,
      "ĠSenior": 6991,
      "fici": 6992,
      "Ġhumans": 6993,
      "Ġcorpor": 6994,
      "ntario": 6995,
      "Ġclos": 6996,
      "cm": 6997,
      "ĠPra": 6998,
      "Ġmarked": 6999,
      "lar": 7000,
      "fies": 7001,
      "ĠStory": 7002,
      "ciated": 7003,
      "Ġreader": 7004,
      "Ġforum": 7005,
      "Ġsaved": 7006,
      "ĠPhys": 7007,
      "graphic": 7008,
      "Ġproven": 7009,
      "Ġlegs": 7010,
      "zo": 7011,
      "Ġbranch": 7012,
      "Ġformal": 7013,
      "Ġsick": 7014,
      "Ġabuse": 7015,
      "ĠMap": 7016,
      "Ġstored": 7017,
      "Ġlawyer": 7018,
      "Ġsexual": 7019,
      "List": 7020,
      "Ġstring": 7021,
      "Ġshift": 7022,
      "Ġtac": 7023,
      "Ġmuscle": 7024,
      "ĠðŁ": 7025,
      "ĠLind": 7026,
      "ordan": 7027,
      "xiety": 7028,
      "Ġplu": 7029,
      "ĠAnth": 7030,
      "Ġliked": 7031,
      "char": 7032,
      "Ġbags": 7033,
      "tum": 7034,
      "Ġ[...": 7035,
      "ĠPict": 7036,
      "ĠSig": 7037,
      "ounded": 7038,
      "ĠHolly": 7039,
      "ĠNiger": 7040,
      "Ġyards": 7041,
      "=#": 7042,
      "Ġsolve": 7043,
      "Ġhung": 7044,
      "Ġsolo": 7045,
      "ĠPit": 7046,
      "ĠTar": 7047,
      "ĠMalay": 7048,
      "alling": 7049,
      "Ġlake": 7050,
      "ĠLabor": 7051,
      "Ġdiss": 7052,
      "legal": 7053,
      "ectors": 7054,
      "ystem": 7055,
      "ĠClin": 7056,
      "rated": 7057,
      "Ġbench": 7058,
      "sell": 7059,
      "adi": 7060,
      "Ġ;": 7061,
      "Ġlists": 7062,
      "rig": 7063,
      "About": 7064,
      "pool": 7065,
      "she": 7066,
      "Ġhydro": 7067,
      "ait": 7068,
      "Ġ?": 7069,
      "ĠRog": 7070,
      "thew": 7071,
      "CO": 7072,
      "ĠGuard": 7073,
      "ĠSir": 7074,
      "Follow": 7075,
      "Ġmal": 7076,
      "power": 7077,
      "Ġextent": 7078,
      "Ðº": 7079,
      "ĠLook": 7080,
      "ĠGolden": 7081,
      "rite": 7082,
      "fall": 7083,
      "gns": 7084,
      "ĠStra": 7085,
      "BM": 7086,
      "ĠThus": 7087,
      "ĠJane": 7088,
      "Ġgrant": 7089,
      "Ġcodes": 7090,
      "ticians": 7091,
      "prised": 7092,
      "Ġprove": 7093,
      "AV": 7094,
      "RI": 7095,
      "Ġdemoc": 7096,
      "Ġgran": 7097,
      "ĠChalle": 7098,
      "rement": 7099,
      "pass": 7100,
      "ĠTreat": 7101,
      "',": 7102,
      "ĠTai": 7103,
      "Ġ(\"": 7104,
      "Ġsat": 7105,
      "sota": 7106,
      "Ġhotels": 7107,
      "cles": 7108,
      "Ġfolks": 7109,
      "Ġrepro": 7110,
      "Ġadds": 7111,
      "pa": 7112,
      "Oh": 7113,
      "Ġremark": 7114,
      "Ġpink": 7115,
      "ĠLatin": 7116,
      "vol": 7117,
      "Ġsme": 7118,
      "nda": 7119,
      "Ġfinds": 7120,
      "High": 7121,
      "spe": 7122,
      "ĠDra": 7123,
      "iors": 7124,
      "tto": 7125,
      "porated": 7126,
      "ĠLew": 7127,
      "Ġmel": 7128,
      "ouraged": 7129,
      "Ġgained": 7130,
      "nst": 7131,
      "EG": 7132,
      "Ġstorm": 7133,
      "ĠLas": 7134,
      "reement": 7135,
      "Ġfifth": 7136,
      "Ġrush": 7137,
      "Ġnomin": 7138,
      "Ġ37": 7139,
      "ĠShould": 7140,
      "cor": 7141,
      "ĠSafety": 7142,
      "ĠRom": 7143,
      "ĠType": 7144,
      "Ġmoves": 7145,
      "Ġma": 7146,
      "Ġrice": 7147,
      "Ġpredic": 7148,
      "Top": 7149,
      "Ñĥ": 7150,
      "ĠTro": 7151,
      "Ġcompli": 7152,
      "losure": 7153,
      "Ġlie": 7154,
      "Ġstro": 7155,
      "ĠBattle": 7156,
      "Copy": 7157,
      "ĠDer": 7158,
      "Ġ800": 7159,
      "ĠOak": 7160,
      "ĠLis": 7161,
      "Ġfirms": 7162,
      "ĠFox": 7163,
      "ĠInvest": 7164,
      "ĠSmart": 7165,
      "Ġseed": 7166,
      "ĠEvent": 7167,
      "illy": 7168,
      "ĠOS": 7169,
      "ĠFREE": 7170,
      "letter": 7171,
      "Ġslowly": 7172,
      "elry": 7173,
      "kh": 7174,
      "Ġ1950": 7175,
      "Ġcraft": 7176,
      "Ġ42": 7177,
      "nish": 7178,
      "Ġ':": 7179,
      "ĠNeed": 7180,
      "ĠDutch": 7181,
      "Ġdefend": 7182,
      "onso": 7183,
      "ensity": 7184,
      "Ġheads": 7185,
      "Ġtitles": 7186,
      "ĠLearn": 7187,
      "Ġrenov": 7188,
      "kel": 7189,
      "arity": 7190,
      "pen": 7191,
      "mans": 7192,
      "ask": 7193,
      "lai": 7194,
      "Ġmeals": 7195,
      "mble": 7196,
      "RC": 7197,
      "shi": 7198,
      "ĠCP": 7199,
      "airy": 7200,
      "elphia": 7201,
      "heim": 7202,
      "ĠMatt": 7203,
      "Ġbrilli": 7204,
      "Ġusage": 7205,
      "aph": 7206,
      "Ġnoise": 7207,
      "vable": 7208,
      "ĠSquare": 7209,
      "Ġroot": 7210,
      "Ġcrowd": 7211,
      "Ġtrick": 7212,
      "Where": 7213,
      "pical": 7214,
      "Ġworst": 7215,
      "âĢĻ,": 7216,
      "Ġ64": 7217,
      "ĠRu": 7218,
      "tune": 7219,
      "2000": 7220,
      "Ġamend": 7221,
      "ĠCase": 7222,
      "AND": 7223,
      "fare": 7224,
      "Ġexami": 7225,
      "Ġbehalf": 7226,
      "Ð»": 7227,
      "ĠCru": 7228,
      "Ġ55": 7229,
      "ghan": 7230,
      "Ġblocks": 7231,
      "paper": 7232,
      "ĠNon": 7233,
      "ĠTal": 7234,
      "Ġluck": 7235,
      "ĠBaby": 7236,
      "ĠStaff": 7237,
      "ĠDam": 7238,
      "Ġcong": 7239,
      "ĠMD": 7240,
      "ĠTam": 7241,
      "Ġautomo": 7242,
      "ĠCasino": 7243,
      "ĠIraq": 7244,
      "ĠVery": 7245,
      "Ġhang": 7246,
      "Ġoccurs": 7247,
      "Back": 7248,
      "otic": 7249,
      "Ġsmile": 7250,
      "ĠFu": 7251,
      "Ġships": 7252,
      "800": 7253,
      "ouses": 7254,
      "Ġlikes": 7255,
      "Ġbreast": 7256,
      "ilst": 7257,
      "UM": 7258,
      "Ġadvent": 7259,
      "anting": 7260,
      "don": 7261,
      "Ġplot": 7262,
      "words": 7263,
      "ĠThough": 7264,
      "racy": 7265,
      "cue": 7266,
      "ĠTaylor": 7267,
      "fits": 7268,
      "ppy": 7269,
      "Ġraw": 7270,
      "Today": 7271,
      "Ġpatch": 7272,
      "ĠNever": 7273,
      "Ġresume": 7274,
      "tored": 7275,
      "ĠEmpire": 7276,
      "Ġfalse": 7277,
      "ĠId": 7278,
      "isk": 7279,
      "ategory": 7280,
      "ĠStudio": 7281,
      "Ġoverw": 7282,
      "ĠAgency": 7283,
      "cular": 7284,
      "Ġplug": 7285,
      "Ġcriter": 7286,
      "rad": 7287,
      "gorith": 7288,
      "sionate": 7289,
      "ĠCON": 7290,
      "tha": 7291,
      "Ju": 7292,
      "acious": 7293,
      "English": 7294,
      "Ġyield": 7295,
      "ĠPortug": 7296,
      "edge": 7297,
      "Ġtransp": 7298,
      "alogue": 7299,
      "Ġwhilst": 7300,
      "Ġdreams": 7301,
      "erts": 7302,
      "ĠPot": 7303,
      "ĠMee": 7304,
      "ĠDun": 7305,
      "rug": 7306,
      "Ġtun": 7307,
      "Ġgate": 7308,
      "Have": 7309,
      "organ": 7310,
      "andy": 7311,
      "part": 7312,
      "entine": 7313,
      "ĠMes": 7314,
      "tician": 7315,
      "ĠHold": 7316,
      "Ġ1987": 7317,
      "86": 7318,
      "pedia": 7319,
      "âĢĿ<": 7320,
      "Play": 7321,
      "rets": 7322,
      "brid": 7323,
      "ĠDark": 7324,
      "sex": 7325,
      "Ġviewed": 7326,
      "licate": 7327,
      "licit": 7328,
      "Ġbars": 7329,
      "aux": 7330,
      "400": 7331,
      "aza": 7332,
      "ĠOxford": 7333,
      "Ġtip": 7334,
      "rint": 7335,
      "Ġcolumn": 7336,
      "ĠCamer": 7337,
      "Ġfunny": 7338,
      "Ġfinger": 7339,
      "ĠShort": 7340,
      "asted": 7341,
      "ĠBrook": 7342,
      "ĠSeason": 7343,
      "Rem": 7344,
      "consin": 7345,
      "ĠPsych": 7346,
      "Ġneuro": 7347,
      "teed": 7348,
      "Ġboxes": 7349,
      "Ġincl": 7350,
      "aret": 7351,
      "Ġcapab": 7352,
      "Ġvulne": 7353,
      "Ġtalks": 7354,
      "Ġgender": 7355,
      "Ġflour": 7356,
      "ĠSEO": 7357,
      "Ġdriven": 7358,
      "iche": 7359,
      "mad": 7360,
      "ĠBa": 7361,
      "twork": 7362,
      "Ġending": 7363,
      "Ġcrazy": 7364,
      "Ġ1986": 7365,
      "tia": 7366,
      "Jan": 7367,
      "Ġmarks": 7368,
      "Ġpot": 7369,
      "acting": 7370,
      "ĠHung": 7371,
      "Ġhole": 7372,
      "hu": 7373,
      "ĠHoli": 7374,
      "onses": 7375,
      "Ġflavor": 7376,
      "Ġdebate": 7377,
      "Ġunus": 7378,
      "Ġsoph": 7379,
      "ĠEdward": 7380,
      "ballers": 7381,
      "AF": 7382,
      "ĠMade": 7383,
      "Stud": 7384,
      "Ġbacter": 7385,
      "ĠFun": 7386,
      "acon": 7387,
      "Ġphr": 7388,
      "riers": 7389,
      "ween": 7390,
      "Ġ49": 7391,
      "Ġactors": 7392,
      "nell": 7393,
      "ĠArg": 7394,
      "Ġstake": 7395,
      "Ġlimits": 7396,
      "mouth": 7397,
      "Ġcolon": 7398,
      "ĠWH": 7399,
      "ĠDid": 7400,
      "hops": 7401,
      "oin": 7402,
      "Ġracing": 7403,
      "ĠEqui": 7404,
      "Love": 7405,
      "ruption": 7406,
      "Note": 7407,
      "Ġwins": 7408,
      "acher": 7409,
      "Ġdispl": 7410,
      "ĠLes": 7411,
      "Ġtooth": 7412,
      "ĠSl": 7413,
      "sequent": 7414,
      "umer": 7415,
      "ĠCry": 7416,
      "Ġshoot": 7417,
      "Ġeggs": 7418,
      "Ġhate": 7419,
      "orses": 7420,
      "ĠFlow": 7421,
      "ĠEmer": 7422,
      "Ġ120": 7423,
      "ĠFall": 7424,
      "ĠContin": 7425,
      "ĠOregon": 7426,
      "OK": 7427,
      "Ins": 7428,
      "making": 7429,
      "Ġ250": 7430,
      "Star": 7431,
      "Ġgrab": 7432,
      "Ġempty": 7433,
      "ouri": 7434,
      "Ġdism": 7435,
      "tractor": 7436,
      "Ġspoke": 7437,
      "je": 7438,
      "urement": 7439,
      "ipating": 7440,
      "oto": 7441,
      "link": 7442,
      "Ġigno": 7443,
      "Ġinher": 7444,
      "kers": 7445,
      "Ġarray": 7446,
      "eah": 7447,
      "!!!<": 7448,
      "ĠDoc": 7449,
      "amic": 7450,
      "Ġdrawn": 7451,
      "Ġlucky": 7452,
      "lins": 7453,
      "Ġstages": 7454,
      "Ġnatur": 7455,
      "ĠEver": 7456,
      "ĠSound": 7457,
      "nyl": 7458,
      "atible": 7459,
      "Ġ1984": 7460,
      "Reg": 7461,
      "eties": 7462,
      "ĠOcean": 7463,
      "Ġroads": 7464,
      "Ġmeets": 7465,
      "Good": 7466,
      "2009": 7467,
      "titio": 7468,
      "abetes": 7469,
      "Ġbone": 7470,
      "Trans": 7471,
      "Ġbare": 7472,
      "tood": 7473,
      "Ġaband": 7474,
      "proof": 7475,
      "ĠJean": 7476,
      "Ġads": 7477,
      "Ġque": 7478,
      "ĠMajor": 7479,
      "Ġmic": 7480,
      "ĠSoviet": 7481,
      "dale": 7482,
      "Ġsan": 7483,
      "Ġchairs": 7484,
      "lessly": 7485,
      "Ġdies": 7486,
      "Ġcivili": 7487,
      "vals": 7488,
      "Ġcos": 7489,
      "phones": 7490,
      "tut": 7491,
      "Ġki": 7492,
      "Ġjun": 7493,
      "RL": 7494,
      "emed": 7495,
      "ĠKids": 7496,
      "cut": 7497,
      "Ġhoping": 7498,
      "cessed": 7499,
      "Ġgym": 7500,
      "Ġpris": 7501,
      "certain": 7502,
      "holder": 7503,
      "irl": 7504,
      "ĠRon": 7505,
      "ĠTry": 7506,
      "people": 7507,
      "Ġescape": 7508,
      "lah": 7509,
      "eve": 7510,
      "Ġacquis": 7511,
      "DP": 7512,
      "equ": 7513,
      "Ġ1985": 7514,
      "acted": 7515,
      "ĠCustom": 7516,
      "Ġaside": 7517,
      "Ġminds": 7518,
      "owa": 7519,
      "linary": 7520,
      "ĠLady": 7521,
      "ĠRome": 7522,
      "tai": 7523,
      "Ġflying": 7524,
      "ĠSign": 7525,
      "ĠBrazil": 7526,
      "Ġmedic": 7527,
      "ĠHay": 7528,
      "aded": 7529,
      "works": 7530,
      "Ġocean": 7531,
      "ĠBon": 7532,
      "2008": 7533,
      "ĠRan": 7534,
      "ĠMater": 7535,
      "ĠOh": 7536,
      "ĠWars": 7537,
      "asty": 7538,
      "Ġcm": 7539,
      "tural": 7540,
      "ĠPur": 7541,
      "istance": 7542,
      "Then": 7543,
      "Ġmold": 7544,
      "Ġprison": 7545,
      "Who": 7546,
      "riger": 7547,
      "atric": 7548,
      "rant": 7549,
      "Ġvenue": 7550,
      "Mem": 7551,
      "ĠVen": 7552,
      "Ġbid": 7553,
      "ĠMotor": 7554,
      "ĠSuch": 7555,
      "Ġargu": 7556,
      "Ġchap": 7557,
      "Ġneighb": 7558,
      "ĠProvid": 7559,
      "rats": 7560,
      "Ġpocket": 7561,
      "ervice": 7562,
      "Ġ44": 7563,
      "ciple": 7564,
      "ĠDaily": 7565,
      "inson": 7566,
      "ĠLau": 7567,
      "His": 7568,
      "Ġillust": 7569,
      "inets": 7570,
      "Ġstable": 7571,
      "Ġ',": 7572,
      "iest": 7573,
      "ĠSn": 7574,
      "Ġeco": 7575,
      "Ġzero": 7576,
      "Ġpiano": 7577,
      "Ġmolec": 7578,
      "ncol": 7579,
      "unter": 7580,
      "iser": 7581,
      "ĠVegas": 7582,
      "achelor": 7583,
      "ĠAnnual": 7584,
      "GA": 7585,
      "Ġ1000": 7586,
      "prises": 7587,
      "ĠBarb": 7588,
      "oper": 7589,
      "Ġlaid": 7590,
      "Ġbrid": 7591,
      "Book": 7592,
      "Ġportra": 7593,
      "áħµ": 7594,
      "ending": 7595,
      "amsung": 7596,
      "agi": 7597,
      "Vis": 7598,
      "ĠLevel": 7599,
      "Ġerrors": 7600,
      "viation": 7601,
      "Ġaut": 7602,
      "bow": 7603,
      "site": 7604,
      "Ġstrict": 7605,
      "Ġlesson": 7606,
      "orship": 7607,
      "ighting": 7608,
      "Ġcomedy": 7609,
      "Ġimagi": 7610,
      "izza": 7611,
      "ĠRaj": 7612,
      "mize": 7613,
      "ĠLA": 7614,
      "Ġfaced": 7615,
      "Ġtill": 7616,
      "ĠEric": 7617,
      "Ġhits": 7618,
      "Ġdraft": 7619,
      "pend": 7620,
      "aron": 7621,
      "INE": 7622,
      "Ġtum": 7623,
      "ĠRub": 7624,
      "allas": 7625,
      "icals": 7626,
      "ĠBrad": 7627,
      "tou": 7628,
      "Ġclock": 7629,
      "Whe": 7630,
      "ĠPers": 7631,
      "ailed": 7632,
      "ĠHaving": 7633,
      "this": 7634,
      "amental": 7635,
      "Ġtut": 7636,
      "onia": 7637,
      "ĠAh": 7638,
      "Ġisol": 7639,
      "Ġwaters": 7640,
      "Ġje": 7641,
      "ludes": 7642,
      "nitive": 7643,
      "asm": 7644,
      "Ġdrag": 7645,
      "oners": 7646,
      "raine": 7647,
      "nab": 7648,
      "ĠJen": 7649,
      "ĠWilson": 7650,
      "tims": 7651,
      "ĠAge": 7652,
      "Char": 7653,
      "Ġexplan": 7654,
      "ĠPS": 7655,
      "Sub": 7656,
      "person": 7657,
      "Ġtissue": 7658,
      "ĠMrs": 7659,
      "PL": 7660,
      "ĠCrush": 7661,
      "Cons": 7662,
      "ĠMom": 7663,
      "ĠPhilad": 7664,
      "ematics": 7665,
      "Ġlayout": 7666,
      "Ġtoile": 7667,
      "Ġupload": 7668,
      "ĠCB": 7669,
      "ĠArm": 7670,
      "riculum": 7671,
      "Ġflower": 7672,
      "Ġscenes": 7673,
      "Check": 7674,
      "ĠBerlin": 7675,
      "ĠModel": 7676,
      "NC": 7677,
      "pay": 7678,
      "xpected": 7679,
      "ĠTurkey": 7680,
      "die": 7681,
      "aga": 7682,
      "Ġpanels": 7683,
      "\")": 7684,
      "ĠHind": 7685,
      "Tech": 7686,
      "ĠQues": 7687,
      "tier": 7688,
      "ĠUSB": 7689,
      "ius": 7690,
      "ĠWhich": 7691,
      "Ġbuyers": 7692,
      "Ġwalked": 7693,
      "xx": 7694,
      "ulator": 7695,
      "HA": 7696,
      "Even": 7697,
      "chest": 7698,
      "Ġlegisl": 7699,
      "ĠHills": 7700,
      "Ġbind": 7701,
      "ĠRen": 7702,
      "elve": 7703,
      "ĠCC": 7704,
      "ĠName": 7705,
      "Chris": 7706,
      "Ġ~": 7707,
      "Ġprize": 7708,
      "ĠDiego": 7709,
      "ronze": 7710,
      "à¥": 7711,
      "ĠSoc": 7712,
      "ĠDavis": 7713,
      "Down": 7714,
      "lion": 7715,
      "lanta": 7716,
      "Cur": 7717,
      "Ġrefund": 7718,
      "ĠSab": 7719,
      "uits": 7720,
      "Ġsetup": 7721,
      "ĠAve": 7722,
      "aver": 7723,
      "Ġratio": 7724,
      "iry": 7725,
      "ĠBris": 7726,
      "96": 7727,
      "tism": 7728,
      "/<": 7729,
      "!)": 7730,
      "ĠKorean": 7731,
      "Two": 7732,
      "????": 7733,
      "ĠHP": 7734,
      "Ġpermit": 7735,
      "Ġdistr": 7736,
      "Ġ01": 7737,
      "ĠDoug": 7738,
      "Ġloving": 7739,
      "Ġlift": 7740,
      "Ġshots": 7741,
      "Mr": 7742,
      "Ġsurve": 7743,
      "ĠAction": 7744,
      "Mon": 7745,
      "Ġsought": 7746,
      "hibi": 7747,
      "ĠBit": 7748,
      "Ġcot": 7749,
      "97": 7750,
      "ĠGlass": 7751,
      "Ġpowers": 7752,
      "uminum": 7753,
      "mates": 7754,
      "ĠCloud": 7755,
      "nas": 7756,
      "Ġsight": 7757,
      "nde": 7758,
      "Ġgli": 7759,
      "Ġhurt": 7760,
      "ĠMethod": 7761,
      "ĠBoo": 7762,
      "ĠAst": 7763,
      "home": 7764,
      "ĠStill": 7765,
      "SW": 7766,
      "Lear": 7767,
      "ĠRyan": 7768,
      "ĠNumber": 7769,
      "ĠPain": 7770,
      "Ġblend": 7771,
      "tians": 7772,
      "Ġhyper": 7773,
      "ĠForum": 7774,
      "ĠAnton": 7775,
      "Ġbroke": 7776,
      "Early": 7777,
      "Ġmirror": 7778,
      "Ġsculpt": 7779,
      "OG": 7780,
      "ĠTan": 7781,
      "ĠTrade": 7782,
      "quest": 7783,
      "Black": 7784,
      "iders": 7785,
      "Ġbatt": 7786,
      "left": 7787,
      "Ġsoo": 7788,
      "ĠJam": 7789,
      "Ġtone": 7790,
      "Ġhat": 7791,
      "ossi": 7792,
      "ĠEst": 7793,
      "ĠEX": 7794,
      "Ġalive": 7795,
      "ĠTok": 7796,
      "igen": 7797,
      "Ġpod": 7798,
      "Ġcopies": 7799,
      "Ġtagged": 7800,
      "ĠRepair": 7801,
      "ĠRound": 7802,
      "Wi": 7803,
      "Bar": 7804,
      "Ġheaded": 7805,
      "press": 7806,
      "ĠGirl": 7807,
      "Ġpulled": 7808,
      "ĠEle": 7809,
      "Ġdishes": 7810,
      "Ġsuffer": 7811,
      "ĠIndone": 7812,
      "Ġfaces": 7813,
      "lix": 7814,
      "trum": 7815,
      "ysi": 7816,
      "ĠSM": 7817,
      "Ġpsycho": 7818,
      "ello": 7819,
      "ĠHappy": 7820,
      "ĠRoo": 7821,
      "ĠRoll": 7822,
      "ĠPaper": 7823,
      "high": 7824,
      "Ġstuck": 7825,
      "ĠAmb": 7826,
      "Ġflag": 7827,
      "IE": 7828,
      "Ġbab": 7829,
      "87": 7830,
      "ĠBBC": 7831,
      "ĠPrint": 7832,
      "Ġpeak": 7833,
      "Ġlegend": 7834,
      "TE": 7835,
      "elle": 7836,
      "omer": 7837,
      "lude": 7838,
      "uris": 7839,
      "ĠFeder": 7840,
      "Ġnights": 7841,
      "Ġgentle": 7842,
      "Ġmodu": 7843,
      "ĠNether": 7844,
      "Ġcam": 7845,
      "xic": 7846,
      "uba": 7847,
      "%,": 7848,
      "iners": 7849,
      "Ġfranch": 7850,
      ">âĢĵ": 7851,
      "uss": 7852,
      "eren": 7853,
      "tato": 7854,
      "Ġscope": 7855,
      "Ġhook": 7856,
      "Ġanyway": 7857,
      "ĠâĨĴ": 7858,
      "ularity": 7859,
      "].": 7860,
      "Ġspots": 7861,
      "Ġou": 7862,
      "ĠHan": 7863,
      "fier": 7864,
      "Ġdust": 7865,
      "Ġtowns": 7866,
      "Ġneut": 7867,
      "VER": 7868,
      "thur": 7869,
      "ĠFA": 7870,
      "ĠAz": 7871,
      "Ġstrike": 7872,
      "ĠFather": 7873,
      "ĠEnjoy": 7874,
      "akh": 7875,
      "Ġloose": 7876,
      "ĠMiami": 7877,
      "coi": 7878,
      "Ġphones": 7879,
      "ĠAdam": 7880,
      "ĠDeli": 7881,
      "2007": 7882,
      "ĠDisc": 7883,
      "ĠRa": 7884,
      "titu": 7885,
      "ĠSlo": 7886,
      "Ġlets": 7887,
      "Make": 7888,
      "hes": 7889,
      "ATE": 7890,
      "92": 7891,
      "track": 7892,
      "rog": 7893,
      "ĠAdvis": 7894,
      "Ġfru": 7895,
      "non": 7896,
      "Ġthemes": 7897,
      "HP": 7898,
      "ĠSE": 7899,
      "Ġhopes": 7900,
      "onna": 7901,
      "ĠPoland": 7902,
      "Ġquotes": 7903,
      "Ġles": 7904,
      "coin": 7905,
      "Ġvocals": 7906,
      "former": 7907,
      "irk": 7908,
      "usive": 7909,
      "oding": 7910,
      "ĠNation": 7911,
      "zan": 7912,
      "Ġdispos": 7913,
      "giving": 7914,
      "ĠCome": 7915,
      "ĠFC": 7916,
      "ĠTR": 7917,
      "nos": 7918,
      "Ġborrow": 7919,
      "rounded": 7920,
      "Ġresort": 7921,
      "ĠQueens": 7922,
      "Ġtrips": 7923,
      "antial": 7924,
      "ĠHur": 7925,
      "lica": 7926,
      "Ġattach": 7927,
      "Ġfraud": 7928,
      "Ġpotato": 7929,
      "pha": 7930,
      "Ġscores": 7931,
      "ĠKansas": 7932,
      "Ġgiant": 7933,
      "Ġriding": 7934,
      "Ġmodule": 7935,
      "ĠMix": 7936,
      "Ġ1983": 7937,
      "ptions": 7938,
      "ĠStudy": 7939,
      "Ġrely": 7940,
      "UD": 7941,
      "vertise": 7942,
      "Ġmood": 7943,
      "html": 7944,
      "ĠDI": 7945,
      "ĠBrian": 7946,
      "Ġrender": 7947,
      "Ġassume": 7948,
      "Ġopens": 7949,
      "Ġweigh": 7950,
      "Imp": 7951,
      "Use": 7952,
      "ĠYouth": 7953,
      "Ġseeds": 7954,
      "Ġpace": 7955,
      "Feb": 7956,
      "ĠSelect": 7957,
      "Ġtroub": 7958,
      "Ġorange": 7959,
      "itable": 7960,
      "ĠBudd": 7961,
      "ela": 7962,
      "Ġpig": 7963,
      "Ġedited": 7964,
      "TP": 7965,
      "ĠAnt": 7966,
      "Ġvisits": 7967,
      "Ġrising": 7968,
      "yes": 7969,
      "Ġexha": 7970,
      "after": 7971,
      "being": 7972,
      "axy": 7973,
      "Tags": 7974,
      "Ġgrey": 7975,
      "%)": 7976,
      "Ġft": 7977,
      "everal": 7978,
      "Ġaged": 7979,
      "Ġcarpet": 7980,
      "inch": 7981,
      "cessive": 7982,
      "Po": 7983,
      "actory": 7984,
      "Da": 7985,
      "Ġfalls": 7986,
      "ä¸": 7987,
      "anel": 7988,
      "ĠMir": 7989,
      "verty": 7990,
      "La": 7991,
      "Ġobst": 7992,
      "ĠMoo": 7993,
      "lity": 7994,
      "tap": 7995,
      "ĠCastle": 7996,
      "Ġforgot": 7997,
      "ĠMiller": 7998,
      "82": 7999,
      "ĠMarsh": 8000,
      "ĠCredit": 8001,
      "ĠEN": 8002,
      "Ġunw": 8003,
      "royed": 8004,
      "GE": 8005,
      "Ġcombat": 8006,
      "Ġlou": 8007,
      "Ġprime": 8008,
      "asi": 8009,
      "ĠAdvent": 8010,
      "ritten": 8011,
      "South": 8012,
      "Ġspell": 8013,
      "avor": 8014,
      "ĠDNA": 8015,
      "Ġstead": 8016,
      "ref": 8017,
      "lamm": 8018,
      "Ġjus": 8019,
      "ĠMoon": 8020,
      "titions": 8021,
      "Ġdivor": 8022,
      "Sm": 8023,
      "Ġyours": 8024,
      "Ġpilot": 8025,
      "Ġspark": 8026,
      "itzer": 8027,
      "ĠWhit": 8028,
      "Ġthro": 8029,
      "ĠCS": 8030,
      "conne": 8031,
      "84": 8032,
      "ĠHawai": 8033,
      "Sep": 8034,
      "Ġprayer": 8035,
      "Ġlens": 8036,
      "ĠSri": 8037,
      "Ġbomb": 8038,
      "Ġgall": 8039,
      "Ġcotton": 8040,
      "ĠPlant": 8041,
      "ĠYet": 8042,
      "Sw": 8043,
      "liances": 8044,
      "600": 8045,
      "Im": 8046,
      "Ġgaming": 8047,
      "thesis": 8048,
      "Ġcater": 8049,
      "CL": 8050,
      "ĠFle": 8051,
      "ĠImage": 8052,
      "Ġdrinks": 8053,
      "Ġmaps": 8054,
      "Ġcasual": 8055,
      "Ġrecipi": 8056,
      "ĠNick": 8057,
      "Ġ1982": 8058,
      "Ġemails": 8059,
      "ĠGive": 8060,
      "ultant": 8061,
      "91": 8062,
      "ĠGrow": 8063,
      "aria": 8064,
      "Ġscrew": 8065,
      "ART": 8066,
      "emic": 8067,
      "Ġlowest": 8068,
      "áħ³": 8069,
      "Ġhoriz": 8070,
      "Before": 8071,
      "ĠDrag": 8072,
      "ĠBus": 8073,
      "emeter": 8074,
      "Gra": 8075,
      "ummer": 8076,
      "tles": 8077,
      "ĠEth": 8078,
      "Ġraces": 8079,
      "Ġlaptop": 8080,
      "Ġsofa": 8081,
      "ĠGolf": 8082,
      "ĠPoly": 8083,
      "Ġ600": 8084,
      "ĠDonald": 8085,
      "tigate": 8086,
      "ĠBeing": 8087,
      "nessee": 8088,
      "Each": 8089,
      "Fur": 8090,
      "lisher": 8091,
      "sie": 8092,
      "zu": 8093,
      "odge": 8094,
      "Ġexists": 8095,
      "Ġsquad": 8096,
      "mir": 8097,
      "áĨ¼": 8098,
      "world": 8099,
      "rolled": 8100,
      "83": 8101,
      "ĠBat": 8102,
      "ĠCape": 8103,
      "ĠChange": 8104,
      "150": 8105,
      "tique": 8106,
      "94": 8107,
      "hou": 8108,
      "Ġax": 8109,
      "World": 8110,
      "ĠEvents": 8111,
      "Ġyoga": 8112,
      "cribed": 8113,
      "hyth": 8114,
      "ij": 8115,
      "Ġtomato": 8116,
      "sk": 8117,
      "âĢĻ.": 8118,
      "ĠHair": 8119,
      "áħ©": 8120,
      "ĠTerms": 8121,
      "icide": 8122,
      "lists": 8123,
      "ĠUser": 8124,
      "ĠNic": 8125,
      "ãĤĻ": 8126,
      "olt": 8127,
      "phe": 8128,
      "ĠIV": 8129,
      "Ġpounds": 8130,
      "ĠJordan": 8131,
      "Ġreform": 8132,
      "ĠIron": 8133,
      "ĠBE": 8134,
      "Red": 8135,
      "Ġdad": 8136,
      "Ġmg": 8137,
      "ĠGas": 8138,
      "Ġaims": 8139,
      "Ġpride": 8140,
      "ÃĹ": 8141,
      "rection": 8142,
      "gments": 8143,
      "ĠHarry": 8144,
      "Ġ()": 8145,
      "fish": 8146,
      "leep": 8147,
      "||": 8148,
      "ĠUnit": 8149,
      "Ġ1979": 8150,
      "ĠShare": 8151,
      "Ġadequ": 8152,
      "93": 8153,
      "Photo": 8154,
      "ĠPerson": 8155,
      "ĠPati": 8156,
      "boards": 8157,
      "ĠMother": 8158,
      "Ġheadqu": 8159,
      "Ġbands": 8160,
      "gged": 8161,
      "lahoma": 8162,
      "Her": 8163,
      "ĠLic": 8164,
      "Ġstood": 8165,
      "cession": 8166,
      "Ġpresid": 8167,
      "erg": 8168,
      "Ġdecent": 8169,
      "mized": 8170,
      "dro": 8171,
      "250": 8172,
      "run": 8173,
      "Fe": 8174,
      "Ġdipl": 8175,
      "wart": 8176,
      "olitan": 8177,
      "''": 8178,
      "Ġmatt": 8179,
      "onsored": 8180,
      "ĠOli": 8181,
      "Ġkeys": 8182,
      "Mod": 8183,
      "ÙĦ": 8184,
      "igrants": 8185,
      ".)<": 8186,
      "uum": 8187,
      "2006": 8188,
      "Ġfloors": 8189,
      "Ġsees": 8190,
      "alia": 8191,
      "ĠSix": 8192,
      "ĠDate": 8193,
      "ormal": 8194,
      "Ġgap": 8195,
      "step": 8196,
      "Ġgrad": 8197,
      "ĠFab": 8198,
      "ĠRac": 8199,
      "Ġasset": 8200,
      "some": 8201,
      "âĢ²âĢ²": 8202,
      "ĠLewis": 8203,
      "ĠChap": 8204,
      "orse": 8205,
      "ĠPales": 8206,
      "duct": 8207,
      "child": 8208,
      "tened": 8209,
      "Ġfascin": 8210,
      "ett": 8211,
      "Ġtile": 8212,
      "ureau": 8213,
      "Ġfinest": 8214,
      "Ġpad": 8215,
      "Ġfits": 8216,
      "ĠDead": 8217,
      "irming": 8218,
      "limited": 8219,
      "ĠVers": 8220,
      "Ġrecogn": 8221,
      "Ġevil": 8222,
      "pson": 8223,
      "Ġoverse": 8224,
      "Under": 8225,
      "ĠEP": 8226,
      "Ġ[...]<": 8227,
      "ncoln": 8228,
      "Ġ?<": 8229,
      "ĠSize": 8230,
      "named": 8231,
      "ĠGM": 8232,
      "ĠSD": 8233,
      "menting": 8234,
      "ĠCL": 8235,
      "ĠSteven": 8236,
      "Ġdrai": 8237,
      "Ġdrain": 8238,
      "ĠNFL": 8239,
      "alizing": 8240,
      "ĠStri": 8241,
      "dep": 8242,
      "ĠJi": 8243,
      "ĠBh": 8244,
      "pers": 8245,
      "agan": 8246,
      "ycling": 8247,
      "ĠGreg": 8248,
      "zech": 8249,
      "inema": 8250,
      "Ġdual": 8251,
      "Ġgal": 8252,
      "Ġbills": 8253,
      "ĠPrize": 8254,
      "unes": 8255,
      "Pub": 8256,
      "piece": 8257,
      "ĠDecor": 8258,
      "ĠKer": 8259,
      "ĠBody": 8260,
      "Ġebook": 8261,
      "Ġboards": 8262,
      "arn": 8263,
      "ĠTa": 8264,
      "Ġreply": 8265,
      "ĠSom": 8266,
      "ĠDJ": 8267,
      "Ġsink": 8268,
      "fraid": 8269,
      "urope": 8270,
      "ĠAustin": 8271,
      "Ġcourts": 8272,
      "ĠToy": 8273,
      "âĤ¬": 8274,
      "ĠTX": 8275,
      "ĠKu": 8276,
      "Ġstayed": 8277,
      "IGH": 8278,
      "ERE": 8279,
      "loads": 8280,
      "tible": 8281,
      "ĠFinal": 8282,
      "Ġhes": 8283,
      "ĠVice": 8284,
      "Ġtroops": 8285,
      "nn": 8286,
      "ĠMedic": 8287,
      "QL": 8288,
      "ĠDoctor": 8289,
      "Ġà¤": 8290,
      "Ġkil": 8291,
      "kee": 8292,
      "ĠAnne": 8293,
      "Ty": 8294,
      "crimin": 8295,
      "lon": 8296,
      "cend": 8297,
      "ĠFront": 8298,
      "Ġtalked": 8299,
      "ova": 8300,
      "ĠPow": 8301,
      "acular": 8302,
      "Ġanth": 8303,
      "ĠMonth": 8304,
      "Ġpoetry": 8305,
      "ĠMoney": 8306,
      "dam": 8307,
      "ssa": 8308,
      "Ġranked": 8309,
      "card": 8310,
      "Ġrecre": 8311,
      "Ġbelief": 8312,
      "81": 8313,
      "Take": 8314,
      "azi": 8315,
      "Ġafraid": 8316,
      "ĠNO": 8317,
      "Ġenemy": 8318,
      "ĠAk": 8319,
      "arious": 8320,
      "sized": 8321,
      "tape": 8322,
      "Ġdollar": 8323,
      "Ġheaven": 8324,
      "Ġsacri": 8325,
      "ĠThings": 8326,
      "Ph": 8327,
      "Ġvotes": 8328,
      "ĠAppro": 8329,
      "Ġkni": 8330,
      "ĠHomes": 8331,
      "Ġ1981": 8332,
      "%.": 8333,
      "foot": 8334,
      "abad": 8335,
      "ĠâĤ¬": 8336,
      "ĠDO": 8337,
      "Ġgolden": 8338,
      "ĠVo": 8339,
      "anwhile": 8340,
      "ĠDream": 8341,
      "ĠAnaly": 8342,
      "ĠRegi": 8343,
      "rieved": 8344,
      "ports": 8345,
      "aith": 8346,
      "ĠAB": 8347,
      "ĠSarah": 8348,
      "....<": 8349,
      "ĠEasy": 8350,
      "Ġpasses": 8351,
      "ĠKevin": 8352,
      "ĠBern": 8353,
      "abili": 8354,
      "isode": 8355,
      "ĠDeath": 8356,
      "dinary": 8357,
      "Ġtube": 8358,
      "chestra": 8359,
      "lesh": 8360,
      "holds": 8361,
      "ĠIL": 8362,
      "ĠTony": 8363,
      "Ġjuice": 8364,
      "ĠRid": 8365,
      "Lo": 8366,
      "charge": 8367,
      "ateful": 8368,
      "Ġtie": 8369,
      "bean": 8370,
      "Ġbunch": 8371,
      "ĠLeave": 8372,
      "ĠBull": 8373,
      "ington": 8374,
      "Ġdefine": 8375,
      "oker": 8376,
      "ĠMind": 8377,
      "Ġ52": 8378,
      "Ġcuts": 8379,
      "Ġtechn": 8380,
      "Ġvice": 8381,
      "Ġhaz": 8382,
      "ĠDave": 8383,
      "Ġslo": 8384,
      "osis": 8385,
      "ĠRap": 8386,
      "Ġexceed": 8387,
      "cycle": 8388,
      "Ġoldest": 8389,
      "PN": 8390,
      "Life": 8391,
      "Ġ95": 8392,
      "ĠWy": 8393,
      "Ġwis": 8394,
      "bian": 8395,
      "ILL": 8396,
      "ĠPy": 8397,
      "Ġdeeper": 8398,
      "Ġoral": 8399,
      "entials": 8400,
      "Notes": 8401,
      "ĠTru": 8402,
      "Ġabroad": 8403,
      "Ġ41": 8404,
      "vert": 8405,
      "Aust": 8406,
      "Ġguides": 8407,
      "ĠLater": 8408,
      "Ġgam": 8409,
      "Ġpepper": 8410,
      ">^": 8411,
      "hr": 8412,
      "season": 8413,
      "atile": 8414,
      "DC": 8415,
      "chen": 8416,
      "mus": 8417,
      "aro": 8418,
      "Ġ($": 8419,
      "Ġindoor": 8420,
      "mies": 8421,
      "ĠBes": 8422,
      "alised": 8423,
      "ameters": 8424,
      ".;": 8425,
      "Ġlayers": 8426,
      "ĠLiter": 8427,
      "Ġrefuge": 8428,
      "ĠRh": 8429,
      "ĠDor": 8430,
      "Ġtou": 8431,
      "WS": 8432,
      "ppi": 8433,
      "roit": 8434,
      "ĠGirls": 8435,
      "ĠTrail": 8436,
      "Ġ04": 8437,
      "ĠIniti": 8438,
      "ĠAndre": 8439,
      "ĠGh": 8440,
      "through": 8441,
      "Ġadmit": 8442,
      "Ġbaking": 8443,
      "cience": 8444,
      "Ġ1976": 8445,
      "Ġ1978": 8446,
      "ĠLux": 8447,
      "ingers": 8448,
      "Ġ1972": 8449,
      "agers": 8450,
      "Ġprompt": 8451,
      "enz": 8452,
      "rane": 8453,
      "inal": 8454,
      "ĠMoh": 8455,
      "Ġhoney": 8456,
      "Ġdestr": 8457,
      "Ġbat": 8458,
      "ĠServer": 8459,
      "sea": 8460,
      "fire": 8461,
      "ĠBot": 8462,
      "Ġlosses": 8463,
      "Ġroots": 8464,
      "obe": 8465,
      "ĠExpl": 8466,
      "Ġ43": 8467,
      "Ġgrace": 8468,
      "hour": 8469,
      "lates": 8470,
      "Ġlaser": 8471,
      "ĠJay": 8472,
      "ĠMaria": 8473,
      "eller": 8474,
      "Ġtons": 8475,
      "ĠMit": 8476,
      "Ġtap": 8477,
      "ambling": 8478,
      "print": 8479,
      "Ġdeeply": 8480,
      "ĠSelf": 8481,
      "ĠOK": 8482,
      "Ġstir": 8483,
      "ĠNature": 8484,
      "gue": 8485,
      "ĠCe": 8486,
      "ĠALL": 8487,
      "ctive": 8488,
      "uality": 8489,
      "Ġmig": 8490,
      "Ġreveal": 8491,
      "arib": 8492,
      "ĠBM": 8493,
      "angle": 8494,
      "stract": 8495,
      "Ġtherap": 8496,
      "Ġcompan": 8497,
      "ĠBreak": 8498,
      "Ġpacked": 8499,
      "ouver": 8500,
      "DR": 8501,
      "ĠTurk": 8502,
      "UC": 8503,
      "ĠBush": 8504,
      "ĠBirth": 8505,
      "urer": 8506,
      "Ġcensus": 8507,
      "vation": 8508,
      "2005": 8509,
      "looking": 8510,
      "Ġtwi": 8511,
      "Out": 8512,
      "ĠDelhi": 8513,
      "Ġpatio": 8514,
      "ista": 8515,
      "IB": 8516,
      "ceived": 8517,
      "ĠCopy": 8518,
      "EX": 8519,
      "Gi": 8520,
      "ĠEgypt": 8521,
      "bus": 8522,
      "Ġwheels": 8523,
      "urities": 8524,
      "rice": 8525,
      "ĠRober": 8526,
      "ilian": 8527,
      "tours": 8528,
      "Ġtape": 8529,
      "ĠEag": 8530,
      "Ġboss": 8531,
      "ĠInnov": 8532,
      "rise": 8533,
      "utors": 8534,
      "aware": 8535,
      "Like": 8536,
      "anger": 8537,
      "Ġ{": 8538,
      "Ġharder": 8539,
      "ĠGun": 8540,
      "issi": 8541,
      "Inst": 8542,
      "onymous": 8543,
      "ĠEarly": 8544,
      "Ġprev": 8545,
      "Ġalloc": 8546,
      "aska": 8547,
      "ella": 8548,
      "Ġchest": 8549,
      "ĠØ": 8550,
      "HL": 8551,
      "ospel": 8552,
      "lical": 8553,
      "ĠAthle": 8554,
      "tioning": 8555,
      "tage": 8556,
      "Ġhill": 8557,
      "fers": 8558,
      "imp": 8559,
      "cal": 8560,
      "ĠJews": 8561,
      "Ġscar": 8562,
      "Ġproved": 8563,
      "tex": 8564,
      "ĠWould": 8565,
      "aco": 8566,
      "cement": 8567,
      "missi": 8568,
      "Ġdeploy": 8569,
      "Ġedit": 8570,
      "Ġmedal": 8571,
      "Ġtired": 8572,
      "Off": 8573,
      "Ġvon": 8574,
      "Ġpropor": 8575,
      "arest": 8576,
      "ĠRs": 8577,
      "ailand": 8578,
      "Ġfluid": 8579,
      "grade": 8580,
      "ĠNAS": 8581,
      "Ġspray": 8582,
      "Lab": 8583,
      "ĠSweden": 8584,
      "Ġ1968": 8585,
      "ĠBor": 8586,
      "Bo": 8587,
      "tops": 8588,
      "anet": 8589,
      "Poli": 8590,
      "Ġnurs": 8591,
      "usal": 8592,
      "Ġbeds": 8593,
      "ĠPier": 8594,
      "ĠTree": 8595,
      "Ġ1975": 8596,
      "market": 8597,
      "Ġcoal": 8598,
      "Ġ1920": 8599,
      "NS": 8600,
      "nth": 8601,
      "cha": 8602,
      "rix": 8603,
      "abama": 8604,
      "oning": 8605,
      "Ġ1930": 8606,
      "ĠSuc": 8607,
      "mother": 8608,
      "Build": 8609,
      "Ġ46": 8610,
      "Ġmeters": 8611,
      "Ġhasn": 8612,
      "Aug": 8613,
      "Ġholes": 8614,
      "ĠNat": 8615,
      "Ġ08": 8616,
      "Ġsteam": 8617,
      "ĠDallas": 8618,
      "Ġeigh": 8619,
      "athers": 8620,
      "ĠMetal": 8621,
      "ĠFR": 8622,
      "Cor": 8623,
      "ira": 8624,
      "tious": 8625,
      "ĠIll": 8626,
      "udes": 8627,
      "logist": 8628,
      "Ġtoy": 8629,
      "ĠLem": 8630,
      "Ġhockey": 8631,
      "Ġ99": 8632,
      "Ġrefers": 8633,
      "Ġblank": 8634,
      "acent": 8635,
      "agu": 8636,
      "brating": 8637,
      "ĠCut": 8638,
      "Ġaudi": 8639,
      "\",\"": 8640,
      "BO": 8641,
      "ĠTel": 8642,
      "ĠMarine": 8643,
      "eo": 8644,
      "ĠCancer": 8645,
      "Ġprivi": 8646,
      "ĠSex": 8647,
      "Ġexcess": 8648,
      "Ġ1940": 8649,
      "pg": 8650,
      "Ġfewer": 8651,
      "grams": 8652,
      "enna": 8653,
      "ugs": 8654,
      "ructor": 8655,
      "reens": 8656,
      "allel": 8657,
      "Ġcoat": 8658,
      "ĠIowa": 8659,
      "Ġtours": 8660,
      "ashed": 8661,
      "ĠTips": 8662,
      "Ġ..": 8663,
      "Ġsensor": 8664,
      "ccer": 8665,
      "Ġcircle": 8666,
      "Ġmakeup": 8667,
      "ĠNap": 8668,
      "ĠMun": 8669,
      "pin": 8670,
      "arities": 8671,
      "earing": 8672,
      "ĠAllen": 8673,
      "Ġmanif": 8674,
      "clai": 8675,
      "Ġwise": 8676,
      "Ġduties": 8677,
      "ĠPear": 8678,
      "Ġsmoke": 8679,
      "arr": 8680,
      "umbing": 8681,
      "asions": 8682,
      "ĠOrange": 8683,
      "nett": 8684,
      "ĠPho": 8685,
      "Ġtitled": 8686,
      "ĠCOM": 8687,
      "Net": 8688,
      "Speci": 8689,
      "Ġspir": 8690,
      "ourse": 8691,
      "writer": 8692,
      "Ġputs": 8693,
      "ALL": 8694,
      "emetery": 8695,
      "enix": 8696,
      "ultane": 8697,
      "ĠGil": 8698,
      "vous": 8699,
      "Ġ02": 8700,
      "who": 8701,
      "appro": 8702,
      "Ġshirt": 8703,
      "ĠJob": 8704,
      "Ġcalm": 8705,
      "ĠSymp": 8706,
      "Contact": 8707,
      "Ġrubber": 8708,
      "Ġcow": 8709,
      "Ġ1974": 8710,
      "Ġbelt": 8711,
      "bound": 8712,
      "Ġske": 8713,
      "gal": 8714,
      "!!!!": 8715,
      "Because": 8716,
      "ĠCore": 8717,
      "ANT": 8718,
      "titors": 8719,
      "tah": 8720,
      "Ġwing": 8721,
      "Ġsorry": 8722,
      "Ġcrafts": 8723,
      "Ġperf": 8724,
      "anga": 8725,
      "ffs": 8726,
      "vies": 8727,
      "atto": 8728,
      "ĠLarge": 8729,
      "stan": 8730,
      "sty": 8731,
      "ping": 8732,
      "ĠCooper": 8733,
      "trans": 8734,
      "Ġrated": 8735,
      "Ġ09": 8736,
      "Ġmerely": 8737,
      "ĠBou": 8738,
      "Ġdefeat": 8739,
      "ĠLeon": 8740,
      "utic": 8741,
      "Ġhip": 8742,
      "ĠYears": 8743,
      "ĠMove": 8744,
      "ĠWas": 8745,
      "ĠMuslim": 8746,
      "ĠBry": 8747,
      "Ġ1977": 8748,
      "ĠDays": 8749,
      "ndry": 8750,
      "ĠJunior": 8751,
      "hill": 8752,
      "Pop": 8753,
      "?\"": 8754,
      "ĠIC": 8755,
      "ounted": 8756,
      "quiry": 8757,
      "Ġversus": 8758,
      "Ġhosts": 8759,
      "Ġparks": 8760,
      "ICE": 8761,
      "Ġabund": 8762,
      "Further": 8763,
      "tv": 8764,
      "Ġtradem": 8765,
      "post": 8766,
      "Ġrarely": 8767,
      "ĠChang": 8768,
      "Pres": 8769,
      "Ġtower": 8770,
      "Ġmarine": 8771,
      "ĠTowns": 8772,
      "ĠAG": 8773,
      "Ġlady": 8774,
      "comfort": 8775,
      "ĠNur": 8776,
      "áĨ¯": 8777,
      "Ġangle": 8778,
      "ĠUSD": 8779,
      "ĠBird": 8780,
      "ĠTemple": 8781,
      "going": 8782,
      "ĠLane": 8783,
      "ĠCT": 8784,
      "2004": 8785,
      "attan": 8786,
      "cision": 8787,
      "ĠDE": 8788,
      "Ġbeauti": 8789,
      "wall": 8790,
      "ĠBuff": 8791,
      "ducing": 8792,
      "Ġ1973": 8793,
      "áħ¥": 8794,
      "ĠImm": 8795,
      "Ġseam": 8796,
      "Ġdrives": 8797,
      "ĠPolish": 8798,
      "isl": 8799,
      "city": 8800,
      "wick": 8801,
      "Ġleaf": 8802,
      "ĠIM": 8803,
      "Ġ47": 8804,
      "ĠSat": 8805,
      "Ġwake": 8806,
      "arents": 8807,
      "arma": 8808,
      "Ġextr": 8809,
      "Ġcapit": 8810,
      "Ġaimed": 8811,
      "pack": 8812,
      "Ġbold": 8813,
      "riters": 8814,
      "ĠBrow": 8815,
      "cow": 8816,
      "braries": 8817,
      "Ġtoler": 8818,
      "itate": 8819,
      "ĠSnow": 8820,
      "Time": 8821,
      "ev": 8822,
      "ĠCop": 8823,
      "cripts": 8824,
      "ĠSimon": 8825,
      "IVE": 8826,
      "ĠArk": 8827,
      "olesale": 8828,
      "ilty": 8829,
      "bage": 8830,
      "Ġwinds": 8831,
      "orized": 8832,
      "ĠDance": 8833,
      "ĠCell": 8834,
      "ĠCourse": 8835,
      "ĠApr": 8836,
      "casting": 8837,
      "oked": 8838,
      "Ġlau": 8839,
      "Ġinhab": 8840,
      "Ġ00": 8841,
      "ĠPor": 8842,
      "ĠClear": 8843,
      "Day": 8844,
      "Ġaes": 8845,
      "ĠStyle": 8846,
      "ulties": 8847,
      "ĠSO": 8848,
      "Ġtemple": 8849,
      "ĠCorps": 8850,
      "aa": 8851,
      "Ġ1969": 8852,
      "bel": 8853,
      "ĠLyn": 8854,
      "Ġloud": 8855,
      "ĠDue": 8856,
      "Ġblind": 8857,
      "UK": 8858,
      "Ġloop": 8859,
      "ĠLaure": 8860,
      "ITH": 8861,
      "ĠWine": 8862,
      "Ġhiring": 8863,
      "ĠTempl": 8864,
      "acles": 8865,
      "Ġpup": 8866,
      "urisd": 8867,
      "lligent": 8868,
      "Ġhorses": 8869,
      "rical": 8870,
      "Ġbran": 8871,
      "ĠBene": 8872,
      "cos": 8873,
      "pres": 8874,
      "Ġcrack": 8875,
      "ampton": 8876,
      "modate": 8877,
      "ntend": 8878,
      "omed": 8879,
      "ĠBec": 8880,
      "General": 8881,
      "Ġburn": 8882,
      "shot": 8883,
      "ITY": 8884,
      "ĠFive": 8885,
      "Ġta": 8886,
      "ĠHum": 8887,
      "ĠAmong": 8888,
      "Ġconj": 8889,
      "IO": 8890,
      "ĠGreece": 8891,
      "km": 8892,
      "ĠSurvey": 8893,
      "Ġstamp": 8894,
      "Ġpuzz": 8895,
      "bia": 8896,
      "lements": 8897,
      "ticles": 8898,
      "Ġgrid": 8899,
      "ECT": 8900,
      "Ġpopul": 8901,
      "Ġpit": 8902,
      "Ġox": 8903,
      "Ġtennis": 8904,
      "Ġcali": 8905,
      "unct": 8906,
      "ilarly": 8907,
      "Ġbuck": 8908,
      "Ġsurge": 8909,
      "Ġsafely": 8910,
      "ĠBB": 8911,
      "tick": 8912,
      "Ġsuite": 8913,
      "ĠPast": 8914,
      "ĠJuli": 8915,
      "other": 8916,
      "ĠHart": 8917,
      "Ġequity": 8918,
      "Ġweren": 8919,
      "Ġshapes": 8920,
      "tomy": 8921,
      "Ġsynd": 8922,
      "usting": 8923,
      "nez": 8924,
      "ĠQuick": 8925,
      "Ġelder": 8926,
      "apolis": 8927,
      "Ġinvite": 8928,
      "Ġpursue": 8929,
      "Ð²": 8930,
      "Ġ1971": 8931,
      "pot": 8932,
      "ateur": 8933,
      "hai": 8934,
      "cond": 8935,
      "arted": 8936,
      "Ġcushi": 8937,
      "tina": 8938,
      "dated": 8939,
      "ĠFuture": 8940,
      "mical": 8941,
      "jan": 8942,
      "ordon": 8943,
      "Ġcaps": 8944,
      "aws": 8945,
      "iced": 8946,
      "Ġfolk": 8947,
      "ĠSave": 8948,
      "ĠMs": 8949,
      "Ġlegi": 8950,
      "Ġknock": 8951,
      "ĠLess": 8952,
      "ĠPad": 8953,
      "Ġspan": 8954,
      "Ġsoccer": 8955,
      "Ġintr": 8956,
      "ĠThird": 8957,
      "hil": 8958,
      "ĠSac": 8959,
      "Ġwisdom": 8960,
      "mia": 8961,
      "Ġsheets": 8962,
      "olo": 8963,
      "anied": 8964,
      "oche": 8965,
      "Ġhearts": 8966,
      "bot": 8967,
      "ĠDouble": 8968,
      "ĠEC": 8969,
      "Ġtrim": 8970,
      "Ġ1945": 8971,
      "ĠSport": 8972,
      "igenous": 8973,
      "Ġaccum": 8974,
      "ĠTechno": 8975,
      "scale": 8976,
      "ĠPlaces": 8977,
      "ĠTu": 8978,
      "Ġhide": 8979,
      "vet": 8980,
      "ĠBased": 8981,
      "commun": 8982,
      "owners": 8983,
      "gging": 8984,
      "lore": 8985,
      "United": 8986,
      "tones": 8987,
      "ÌĬ": 8988,
      "Ġbreaks": 8989,
      "ĠJava": 8990,
      "ĠCover": 8991,
      "FS": 8992,
      "Ġamen": 8993,
      "ĠPeace": 8994,
      "ĠiPad": 8995,
      "ĠMand": 8996,
      "Ġwider": 8997,
      "fly": 8998,
      "Ġworn": 8999,
      "ĠPL": 9000,
      "Ġ85": 9001,
      "Ġvictim": 9002,
      "ĠNep": 9003,
      "ĠHai": 9004,
      "Career": 9005,
      "Ġcorn": 9006,
      "ired": 9007,
      "Ġswing": 9008,
      "span": 9009,
      "âĢĺ": 9010,
      "Ġ1967": 9011,
      "lee": 9012,
      "Spe": 9013,
      "ĠKy": 9014,
      "erk": 9015,
      "working": 9016,
      "Ġmoon": 9017,
      "odd": 9018,
      "ĠCand": 9019,
      "ĠGuys": 9020,
      "ĠVisit": 9021,
      "strated": 9022,
      "Ġessays": 9023,
      "athon": 9024,
      "ĠEmail": 9025,
      "Ġhired": 9026,
      "Ġacqu": 9027,
      "Ġnovels": 9028,
      "Ġfrust": 9029,
      "ĠSide": 9030,
      "atching": 9031,
      "Ġvibr": 9032,
      "Ġcopper": 9033,
      "agraph": 9034,
      "ĠKelly": 9035,
      "ĠAw": 9036,
      "bles": 9037,
      "Ġblogs": 9038,
      "gate": 9039,
      "ickets": 9040,
      "sers": 9041,
      "ĠiOS": 9042,
      "sight": 9043,
      "amili": 9044,
      "Ġalarm": 9045,
      "Ġcance": 9046,
      "ĠBR": 9047,
      "ĠRoss": 9048,
      "elson": 9049,
      "Ġbuyer": 9050,
      "Ġdial": 9051,
      "Ġshell": 9052,
      "Ġprohib": 9053,
      "ĠNa": 9054,
      "Ġbou": 9055,
      "Ġdeleg": 9056,
      "Ġener": 9057,
      "month": 9058,
      "ĠPhone": 9059,
      "ĠGrant": 9060,
      "ĠShel": 9061,
      "Ġtoys": 9062,
      "Ġgay": 9063,
      "winning": 9064,
      "Ġpione": 9065,
      "LD": 9066,
      "olas": 9067,
      "ĠSingle": 9068,
      "ĠDuke": 9069,
      "Ġvine": 9070,
      "Ġlands": 9071,
      "ĠEmb": 9072,
      "Ġhypo": 9073,
      "ĠGa": 9074,
      "Ġintend": 9075,
      "ĠPut": 9076,
      "ĠMust": 9077,
      "Ġvoted": 9078,
      "Ġuk": 9079,
      "hard": 9080,
      "West": 9081,
      "Ġtwe": 9082,
      "Ġ07": 9083,
      "Ġmild": 9084,
      "Ġsour": 9085,
      "2003": 9086,
      "abling": 9087,
      "ilitate": 9088,
      "ORE": 9089,
      "eror": 9090,
      "Ġaggreg": 9091,
      "Ġtied": 9092,
      "Ġfiber": 9093,
      "lotte": 9094,
      "Ġtrash": 9095,
      "ĠElli": 9096,
      "ĠNar": 9097,
      "lose": 9098,
      "Ġapo": 9099,
      "ĠAgric": 9100,
      "ousing": 9101,
      "Ġmouse": 9102,
      "Ġparish": 9103,
      "BL": 9104,
      "Ġbrick": 9105,
      "Ġpour": 9106,
      "Ġseal": 9107,
      "ĠJosh": 9108,
      "Ġlocks": 9109,
      "ĠPeters": 9110,
      "boy": 9111,
      "Ġprosec": 9112,
      "Ġnose": 9113,
      "ĠWW": 9114,
      "Ġconfid": 9115,
      "ĠGran": 9116,
      "Hz": 9117,
      "erving": 9118,
      "ĠAfghan": 9119,
      "ĠSpeed": 9120,
      "ssues": 9121,
      "Ġwrites": 9122,
      "tility": 9123,
      "Ġdivide": 9124,
      "Intern": 9125,
      "Ori": 9126,
      "bird": 9127,
      "ĠJason": 9128,
      "ĠRand": 9129,
      "ACK": 9130,
      "Ġstruck": 9131,
      ">âĨ": 9132,
      "ĠBureau": 9133,
      "ĠRow": 9134,
      "ceeded": 9135,
      "Ġslots": 9136,
      "Exp": 9137,
      "ĠPa": 9138,
      "ĠBlock": 9139,
      "Ġrepeat": 9140,
      "Ġ72": 9141,
      "'.": 9142,
      "Year": 9143,
      "ĠHallow": 9144,
      "Ġboot": 9145,
      "Ġpa": 9146,
      "screen": 9147,
      "ĠCu": 9148,
      "xygen": 9149,
      "Ġstem": 9150,
      "Ġ03": 9151,
      "ticing": 9152,
      "Ġunp": 9153,
      "fric": 9154,
      "nterest": 9155,
      "Ġsymbol": 9156,
      "ĠHR": 9157,
      "uru": 9158,
      "Ġultra": 9159,
      "than": 9160,
      "Ġcollap": 9161,
      "Ġouter": 9162,
      "jection": 9163,
      "ĠLie": 9164,
      "Ġfoo": 9165,
      "ĠBowl": 9166,
      "Ag": 9167,
      "Ġvirus": 9168,
      "Ġsemin": 9169,
      "losed": 9170,
      "ĠGener": 9171,
      "minute": 9172,
      "],": 9173,
      "ĠOpp": 9174,
      "Ġgover": 9175,
      "ĠThink": 9176,
      "Ġsons": 9177,
      "Ġtwin": 9178,
      "Ġassemb": 9179,
      "Ġmargin": 9180,
      "Ñı": 9181,
      "ĠInves": 9182,
      "Ġvent": 9183,
      "\"|": 9184,
      "tale": 9185,
      "ĠAI": 9186,
      "Ġjurisd": 9187,
      "Ġstops": 9188,
      "idae": 9189,
      "ulus": 9190,
      "osc": 9191,
      "Ġcharts": 9192,
      "Ġbay": 9193,
      "Ġcog": 9194,
      "Inc": 9195,
      "oline": 9196,
      "mg": 9197,
      "Ġmanip": 9198,
      "ĠFine": 9199,
      "Ġjazz": 9200,
      "ĠDoor": 9201,
      "Ġbub": 9202,
      "Ġtrials": 9203,
      "redited": 9204,
      "Ġretro": 9205,
      "ĠVanc": 9206,
      "SM": 9207,
      "Women": 9208,
      "ĠKings": 9209,
      "shop": 9210,
      "prising": 9211,
      "ĠUC": 9212,
      "ĠBag": 9213,
      "Ġfleet": 9214,
      "ĠJoi": 9215,
      "Ġtrib": 9216,
      "Ġ51": 9217,
      "nor": 9218,
      "ĠFalls": 9219,
      "ĠCel": 9220,
      "Ġ54": 9221,
      "El": 9222,
      "ĠNik": 9223,
      "lend": 9224,
      "Ġrehab": 9225,
      "Ġchips": 9226,
      "doors": 9227,
      "ĠLot": 9228,
      "antry": 9229,
      "Ġcomic": 9230,
      "Ġ1964": 9231,
      "Ġreloc": 9232,
      "ĠKind": 9233,
      "Ġsixth": 9234,
      "ĠCele": 9235,
      "ĠChoose": 9236,
      "uli": 9237,
      "ĠFal": 9238,
      "Ġlawn": 9239,
      "Ġglobe": 9240,
      "teenth": 9241,
      "Sports": 9242,
      "UP": 9243,
      "ĠMine": 9244,
      "Ġroutes": 9245,
      "azines": 9246,
      "thal": 9247,
      "ĠURL": 9248,
      "Ġrum": 9249,
      "Ġconvey": 9250,
      "Ġmad": 9251,
      "Ġpets": 9252,
      "Ġadmi": 9253,
      "ĠRain": 9254,
      "Ġbic": 9255,
      "Ġgotten": 9256,
      "David": 9257,
      "Ġwaves": 9258,
      "ĠMovie": 9259,
      "Ret": 9260,
      "Ìģ,": 9261,
      "ĠCash": 9262,
      "ĠCow": 9263,
      "ĠClark": 9264,
      "asters": 9265,
      "Ġbackup": 9266,
      "ounce": 9267,
      "vian": 9268,
      "master": 9269,
      "ĠHarris": 9270,
      "Ġlegacy": 9271,
      "uce": 9272,
      "eman": 9273,
      "vere": 9274,
      "ĠWel": 9275,
      "ĠÙ": 9276,
      "ĠLinux": 9277,
      "Mark": 9278,
      "Ġlease": 9279,
      "mediate": 9280,
      "Ġuncle": 9281,
      "lest": 9282,
      "Ġcats": 9283,
      "aman": 9284,
      "tang": 9285,
      "Ġpreced": 9286,
      "cs": 9287,
      "Ġcultiv": 9288,
      "Ġlyrics": 9289,
      "ĠBrew": 9290,
      "Ġglob": 9291,
      "quet": 9292,
      "ĠGab": 9293,
      "ĠCos": 9294,
      "NE": 9295,
      "Ġintri": 9296,
      "blog": 9297,
      "ĠCzech": 9298,
      "ĠJoin": 9299,
      "juana": 9300,
      "ĠColl": 9301,
      "fa": 9302,
      "ucking": 9303,
      "igs": 9304,
      "cussion": 9305,
      "makers": 9306,
      "ĠImpro": 9307,
      "ĠSoci": 9308,
      "VC": 9309,
      "ĠSud": 9310,
      "loved": 9311,
      "gium": 9312,
      "such": 9313,
      "Ġcrypto": 9314,
      "KE": 9315,
      "Ġtries": 9316,
      "ĠGP": 9317,
      "Ġpix": 9318,
      "Ġtablet": 9319,
      "Ġfitted": 9320,
      "Ġjunior": 9321,
      "Ġwiring": 9322,
      "Ġ1965": 9323,
      "llers": 9324,
      "anka": 9325,
      "casts": 9326,
      "Ġward": 9327,
      "Ġhub": 9328,
      "topher": 9329,
      "ĠDur": 9330,
      "ckets": 9331,
      "istrib": 9332,
      "uced": 9333,
      "Ġpupp": 9334,
      "Ġ(âĢľ": 9335,
      "Ġrus": 9336,
      "igned": 9337,
      "def": 9338,
      "ando": 9339,
      "ricted": 9340,
      "Ġhack": 9341,
      "Ġsimpli": 9342,
      "ĠBab": 9343,
      "Ġfolder": 9344,
      "Ġcooked": 9345,
      "ellows": 9346,
      "rep": 9347,
      "western": 9348,
      "udd": 9349,
      "ĠVin": 9350,
      "North": 9351,
      "lem": 9352,
      "Ġfruits": 9353,
      "ĠMorgan": 9354,
      "nar": 9355,
      "Ġtrains": 9356,
      "!âĢĿ": 9357,
      "ĠAy": 9358,
      "ĠCompe": 9359,
      "ĠFast": 9360,
      "ristmas": 9361,
      "usted": 9362,
      "Ġdanger": 9363,
      "note": 9364,
      "venting": 9365,
      "atches": 9366,
      "bey": 9367,
      "Ġ06": 9368,
      "Dem": 9369,
      "Ġguns": 9370,
      "edral": 9371,
      "Ġcruise": 9372,
      "ĠKhan": 9373,
      "izer": 9374,
      "DI": 9375,
      "ĠPhD": 9376,
      "essed": 9377,
      "ingful": 9378,
      "ĠEaster": 9379,
      "Ġware": 9380,
      ">@": 9381,
      "Ġwidth": 9382,
      "SL": 9383,
      "rim": 9384,
      "Ġmyth": 9385,
      "ĠNear": 9386,
      "ĠPhil": 9387,
      "mining": 9388,
      "Ġburied": 9389,
      "Ġasks": 9390,
      "mach": 9391,
      "plete": 9392,
      "pired": 9393,
      "RP": 9394,
      "uin": 9395,
      "Ġsurely": 9396,
      "ML": 9397,
      "ĠMoore": 9398,
      "Ġoils": 9399,
      "eni": 9400,
      "Ġexecu": 9401,
      "phic": 9402,
      "Ġhandy": 9403,
      "ĠRoute": 9404,
      "Ġ%": 9405,
      "burn": 9406,
      "Ġedges": 9407,
      "irs": 9408,
      "orneys": 9409,
      "ĠIntro": 9410,
      "Ñĸ": 9411,
      "Ġsed": 9412,
      "Ġrecru": 9413,
      "fefe": 9414,
      "áĦĢ": 9415,
      "Ġcoupon": 9416,
      "ĠScreen": 9417,
      "reedom": 9418,
      "ĠPrior": 9419,
      "ĠResort": 9420,
      "Ġshaped": 9421,
      "2002": 9422,
      "voc": 9423,
      "ugg": 9424,
      "CP": 9425,
      "ĠMagic": 9426,
      "Ġmetab": 9427,
      "ĠAPI": 9428,
      "Ġfence": 9429,
      "Ġpip": 9430,
      "Ġacres": 9431,
      ">...": 9432,
      "Ġrobust": 9433,
      "gree": 9434,
      "Ġfoam": 9435,
      "ĠHop": 9436,
      "HD": 9437,
      "Ġrescue": 9438,
      "Ġworker": 9439,
      "Ġaer": 9440,
      "Ġ05": 9441,
      "cticut": 9442,
      "ĠFile": 9443,
      "author": 9444,
      "iscal": 9445,
      "called": 9446,
      "Ġethnic": 9447,
      "Ġlamp": 9448,
      "ĠHoward": 9449,
      "Ġadapt": 9450,
      "etch": 9451,
      "ĠSav": 9452,
      "ĠAqu": 9453,
      "2001": 9454,
      "imen": 9455,
      "Ġroyal": 9456,
      "Ġanch": 9457,
      "liest": 9458,
      "ĠBishop": 9459,
      "ĠPlayer": 9460,
      "Ġbli": 9461,
      "Ġshock": 9462,
      "Ġknee": 9463,
      "och": 9464,
      "Ġ1966": 9465,
      "ĠAutom": 9466,
      "Ġtender": 9467,
      "thy": 9468,
      "ĠCN": 9469,
      "Ġexit": 9470,
      "itt": 9471,
      "Ġchecks": 9472,
      "Ġambi": 9473,
      "aud": 9474,
      "ski": 9475,
      "Ġ110": 9476,
      "Ġmoral": 9477,
      "OB": 9478,
      "ĠTokyo": 9479,
      "ĠPick": 9480,
      "Ġ56": 9481,
      "veland": 9482,
      "Ġdose": 9483,
      "Ġoutfit": 9484,
      "Men": 9485,
      "Ġshade": 9486,
      "Ġexcell": 9487,
      "ĠVA": 9488,
      "retion": 9489,
      "ĠSA": 9490,
      "ĠBos": 9491,
      "Ġcrown": 9492,
      "Ġwrest": 9493,
      "Ġprovin": 9494,
      "Supp": 9495,
      "whe": 9496,
      "Ġought": 9497,
      "Looking": 9498,
      "cill": 9499,
      "ĠArthur": 9500,
      "oes": 9501,
      "Ġscal": 9502,
      "aug": 9503,
      "Ġconfer": 9504,
      "Ġstit": 9505,
      "Ġimmune": 9506,
      "Ġprotes": 9507,
      "ĠCF": 9508,
      "olin": 9509,
      "ĠWire": 9510,
      "izes": 9511,
      "Ġspa": 9512,
      "Ġapple": 9513,
      "ĠDeep": 9514,
      "Ġbull": 9515,
      "wear": 9516,
      "ĠLam": 9517,
      "ĠFresh": 9518,
      "ĠSin": 9519,
      "backs": 9520,
      "Ġmyster": 9521,
      "MI": 9522,
      "ĠTrack": 9523,
      "ĠReli": 9524,
      "ĠAlber": 9525,
      "writing": 9526,
      "Big": 9527,
      "Har": 9528,
      "Ġthinks": 9529,
      "Ġsmell": 9530,
      "issippi": 9531,
      "Ġhabits": 9532,
      "ĠGate": 9533,
      "rish": 9534,
      "ĠMetro": 9535,
      "Ġentity": 9536,
      "ĠRecord": 9537,
      "ĠNorway": 9538,
      "bul": 9539,
      "Ġimpl": 9540,
      "erm": 9541,
      "Ġ!": 9542,
      "lace": 9543,
      "isure": 9544,
      "ĠRab": 9545,
      "Super": 9546,
      "Set": 9547,
      "ĠTower": 9548,
      "Ġframes": 9549,
      "Prof": 9550,
      "ĠFan": 9551,
      "ĠSW": 9552,
      "nowned": 9553,
      "onded": 9554,
      "only": 9555,
      "ĠUtah": 9556,
      "Part": 9557,
      "==": 9558,
      "tem": 9559,
      "ĠDat": 9560,
      "ĠWithi": 9561,
      "erto": 9562,
      "uity": 9563,
      "chain": 9564,
      "Ġparad": 9565,
      "ĠAV": 9566,
      "ĠWithin": 9567,
      "ĠMort": 9568,
      "Ġcig": 9569,
      "lette": 9570,
      "ĠJobs": 9571,
      "offs": 9572,
      "Ġvoting": 9573,
      "Ġhell": 9574,
      "ĠNJ": 9575,
      "ĠEditor": 9576,
      "ĠSeven": 9577,
      "Ġsumm": 9578,
      "Ġwishes": 9579,
      "lash": 9580,
      "Ġpushed": 9581,
      "cellent": 9582,
      "Ġsalad": 9583,
      "itting": 9584,
      "Ġshoc": 9585,
      "also": 9586,
      "Ġplates": 9587,
      "IST": 9588,
      "toon": 9589,
      "BR": 9590,
      "March": 9591,
      "Ġtheore": 9592,
      "alition": 9593,
      "ĠMoscow": 9594,
      "yd": 9595,
      "ieval": 9596,
      "ĠRick": 9597,
      "azed": 9598,
      "ĠGrey": 9599,
      "Pi": 9600,
      "Whether": 9601,
      "erves": 9602,
      "ĠDak": 9603,
      "ĠRent": 9604,
      "Ġfundra": 9605,
      "Ġinhib": 9606,
      "section": 9607,
      "Ġsolely": 9608,
      "Ġign": 9609,
      "party": 9610,
      "Ġshelf": 9611,
      "Ġsalary": 9612,
      "ĠMul": 9613,
      "rell": 9614,
      "Ġlemon": 9615,
      "Ġhybrid": 9616,
      "Ġfurn": 9617,
      "Ġgrocer": 9618,
      "Ġbug": 9619,
[...]
