{
  "version": "1.0",
  "truncation": null,
  "padding": null,
  "added_tokens": [
    {
      "id": 0,
      "content": "<s>",
      "single_word": false,
      "lstrip": false,
      "rstrip": false,
      "normalized": false,
      "special": true
    },
    {
      "id": 1,
      "content": "<pad>",
      "single_word": false,
      "lstrip": false,
      "rstrip": false,
      "normalized": false,
      "special": true
    },
    {
      "id": 2,
      "content": "</s>",
      "single_word": false,
      "lstrip": false,
      "rstrip": false,
      "normalized": false,
      "special": true
    },
    {
      "id": 3,
      "content": "<mask>",
      "single_word": false,
      "lstrip": false,
      "rstrip": false,
      "normalized": false,
      "special": true
    },
    {
      "id": 4,
      "content": "<newline>",
      "single_word": false,
      "lstrip": false,
      "rstrip": false,
      "normalized": false,
      "special": true
    },
    {
      "id": 5,
      "content": "<unk>",
      "single_word": false,
      "lstrip": false,
      "rstrip": false,
      "normalized": false,
      "special": true
    }
  ],
  "normalizer": {
    "type": "Sequence",
    "normalizers": [
      {
        "type": "NFKD"
      },
      {
        "type": "Replace",
        "pattern": {
          "Regex": "\\\\{2,}"
        },
        "content": "\\"
      },
      {
        "type": "Replace",
        "pattern": {
          "String": "\n"
        },
        "content": "\\n"
      },
      {
        "type": "Replace",
        "pattern": {
          "String": "\\n"
        },
        "content": "<newline>"
      },
      {
        "type": "BertNormalizer",
        "clean_text": true,
        "handle_chinese_chars": false,
        "strip_accents": false,
        "lowercase": false
      },
      {
        "type": "Replace",
        "pattern": {
          "Regex": "\\s{2,}"
        },
        "content": " "
      },
      {
        "type": "Strip",
        "strip_left": true,
        "strip_right": true
      }
    ]
  },
  "pre_tokenizer": {
    "type": "ByteLevel",
    "add_prefix_space": true,
    "trim_offsets": true,
    "use_regex": true
  },
  "post_processor": {
    "type": "TemplateProcessing",
    "single": [
      {
        "SpecialToken": {
          "id": "<s>",
          "type_id": 0
        }
      },
      {
        "Sequence": {
          "id": "A",
          "type_id": 0
        }
      },
      {
        "SpecialToken": {
          "id": "</s>",
          "type_id": 0
        }
      }
    ],
    "pair": [
      {
        "SpecialToken": {
          "id": "<s>",
          "type_id": 0
        }
      },
      {
        "Sequence": {
          "id": "A",
          "type_id": 0
        }
      },
      {
        "SpecialToken": {
          "id": "</s>",
          "type_id": 0
        }
      },
      {
        "SpecialToken": {
          "id": "<s>",
          "type_id": 0
        }
      },
      {
        "Sequence": {
          "id": "B",
          "type_id": 0
        }
      },
      {
        "SpecialToken": {
          "id": "</s>",
          "type_id": 0
        }
      }
    ],
    "special_tokens": {
      "</s>": {
        "id": "</s>",
        "ids": [
          2
        ],
        "tokens": [
          "</s>"
        ]
      },
      "<s>": {
        "id": "<s>",
        "ids": [
          0
        ],
        "tokens": [
          "<s>"
        ]
      }
    }
  },
  "decoder": null,
  "model": {
    "type": "BPE",
    "dropout": null,
    "unk_token": "<unk>",
    "continuing_subword_prefix": null,
    "end_of_word_suffix": null,
    "fuse_unk": false,
    "byte_fallback": false,
    "ignore_merges": false,
    "vocab": {
      "<s>": 0,
      "<pad>": 1,
      "</s>": 2,
      "<mask>": 3,
      "<newline>": 4,
      "<unk>": 5,
      "!": 6,
      "\"": 7,
      "#": 8,
      "$": 9,
      "%": 10,
      "&": 11,
      "'": 12,
      "(": 13,
      ")": 14,
      "*": 15,
      "+": 16,
      ",": 17,
      "-": 18,
      ".": 19,
      "/": 20,
      "0": 21,
      "1": 22,
      "2": 23,
      "3": 24,
      "4": 25,
      "5": 26,
      "6": 27,
      "7": 28,
      "8": 29,
      "9": 30,
      ":": 31,
      ";": 32,
      "<": 33,
      "=": 34,
      ">": 35,
      "?": 36,
      "@": 37,
      "A": 38,
      "B": 39,
      "C": 40,
      "D": 41,
      "E": 42,
      "F": 43,
      "G": 44,
      "H": 45,
      "I": 46,
      "J": 47,
      "K": 48,
      "L": 49,
      "M": 50,
      "N": 51,
      "O": 52,
      "P": 53,
      "Q": 54,
      "R": 55,
      "S": 56,
      "T": 57,
      "U": 58,
      "V": 59,
      "W": 60,
      "X": 61,
      "Y": 62,
      "Z": 63,
      "[": 64,
      "\\": 65,
      "]": 66,
      "^": 67,
      "_": 68,
      "`": 69,
      "a": 70,
      "b": 71,
      "c": 72,
      "d": 73,
      "e": 74,
      "f": 75,
      "g": 76,
      "h": 77,
      "i": 78,
      "j": 79,
      "k": 80,
      "l": 81,
      "m": 82,
      "n": 83,
      "o": 84,
      "p": 85,
      "q": 86,
      "r": 87,
      "s": 88,
      "t": 89,
      "u": 90,
      "v": 91,
      "w": 92,
      "x": 93,
      "y": 94,
      "z": 95,
      "{": 96,
      "|": 97,
      "}": 98,
      "~": 99,
      "¡": 100,
      "¢": 101,
      "£": 102,
      "¤": 103,
      "¥": 104,
      "¦": 105,
      "§": 106,
      "¨": 107,
      "©": 108,
      "ª": 109,
      "«": 110,
      "¬": 111,
      "®": 112,
      "¯": 113,
      "°": 114,
      "±": 115,
      "²": 116,
      "³": 117,
      "´": 118,
      "µ": 119,
      "¶": 120,
      "·": 121,
      "¸": 122,
      "¹": 123,
      "º": 124,
      "»": 125,
      "¼": 126,
      "½": 127,
      "¾": 128,
      "¿": 129,
      "À": 130,
      "Á": 131,
      "Â": 132,
      "Ã": 133,
      "Ä": 134,
      "Å": 135,
      "Æ": 136,
      "Ç": 137,
      "È": 138,
      "É": 139,
      "Ê": 140,
      "Ë": 141,
      "Ì": 142,
      "Í": 143,
      "Î": 144,
      "Ï": 145,
      "Ð": 146,
      "Ñ": 147,
      "Ò": 148,
      "Ó": 149,
      "Ô": 150,
      "Õ": 151,
      "Ö": 152,
      "×": 153,
      "Ø": 154,
      "Ù": 155,
      "Ú": 156,
      "Û": 157,
      "Ü": 158,
      "Ý": 159,
      "Þ": 160,
      "ß": 161,
      "à": 162,
      "á": 163,
      "â": 164,
      "ã": 165,
      "ä": 166,
      "å": 167,
      "æ": 168,
      "ç": 169,
      "è": 170,
      "é": 171,
      "ê": 172,
      "ë": 173,
      "ì": 174,
      "í": 175,
      "î": 176,
      "ï": 177,
      "ð": 178,
      "ñ": 179,
      "ò": 180,
      "ó": 181,
      "ô": 182,
      "õ": 183,
      "ö": 184,
      "÷": 185,
      "ø": 186,
      "ù": 187,
      "ú": 188,
      "û": 189,
      "ü": 190,
      "ý": 191,
      "þ": 192,
      "ÿ": 193,
      "Ā": 194,
      "ā": 195,
      "Ă": 196,
      "ă": 197,
      "Ą": 198,
      "ą": 199,
      "Ć": 200,
      "ć": 201,
      "Ĉ": 202,
      "ĉ": 203,
      "Ċ": 204,
      "ċ": 205,
      "Č": 206,
      "č": 207,
      "Ď": 208,
      "ď": 209,
      "Đ": 210,
      "đ": 211,
      "Ē": 212,
      "ē": 213,
      "Ĕ": 214,
      "ĕ": 215,
      "Ė": 216,
      "ė": 217,
      "Ę": 218,
      "ę": 219,
      "Ě": 220,
      "ě": 221,
      "Ĝ": 222,
      "ĝ": 223,
      "Ğ": 224,
      "ğ": 225,
      "Ġ": 226,
      "ġ": 227,
      "Ģ": 228,
      "ģ": 229,
      "Ĥ": 230,
      "ĥ": 231,
      "Ħ": 232,
      "ħ": 233,
      "Ĩ": 234,
      "ĩ": 235,
      "Ī": 236,
      "ī": 237,
      "Ĭ": 238,
      "ĭ": 239,
      "Į": 240,
      "į": 241,
      "İ": 242,
      "ı": 243,
      "Ĳ": 244,
      "ĳ": 245,
      "Ĵ": 246,
      "ĵ": 247,
      "Ķ": 248,
      "ķ": 249,
      "ĸ": 250,
      "Ĺ": 251,
      "ĺ": 252,
      "Ļ": 253,
      "ļ": 254,
      "Ľ": 255,
      "ľ": 256,
      "Ŀ": 257,
      "ŀ": 258,
      "Ł": 259,
      "ł": 260,
      "Ń": 261,
      "Ġa": 262,
      "ne": 263,
      "th": 264,
      "Ġth": 265,
      "er": 266,
      "li": 267,
      "Ġo": 268,
      "re": 269,
      "Ġthe": 270,
      "Ġi": 271,
      "Ġs": 272,
      "nd": 273,
      "ti": 274,
      "on": 275,
      "Ġw": 276,
      "Ġc": 277,
      "or": 278,
      "ng": 279,
      "new": 280,
      "line": 281,
      "es": 282,
      "en": 283,
      "newline": 284,
      "Ġf": 285,
      "ou": 286,
      "Ġb": 287,
      "to": 288,
      "Ġp": 289,
      "ed": 290,
      "an": 291,
      "ar": 292,
      "al": 293,
      "at": 294,
      "Ġm": 295,
      "Ġto": 296,
      "Ġand": 297,
      "Ġof": 298,
      "ing": 299,
      "Ġh": 300,
      "Ġin": 301,
      "Ġd": 302,
      "le": 303,
      "is": 304,
      "as": 305,
      "ro": 306,
      "ic": 307,
      "tion": 308,
      ".<": 309,
      "om": 310,
      "Ġe": 311,
      "ll": 312,
      "Ġre": 313,
      "ent": 314,
      "us": 315,
      "ve": 316,
      "ĠS": 317,
      "it": 318,
      "Ġy": 319,
      "ĠT": 320,
      "ac": 321,
      "ĠI": 322,
      "ly": 323,
      "Ġg": 324,
      "ĠC": 325,
      "Ġwi": 326,
      "Ġbe": 327,
      "ĠA": 328,
      "âĢ": 329,
      "Ġis": 330,
      "Ġyou": 331,
      "ri": 332,
      "Ġfor": 333,
      "lo": 334,
      "he": 335,
      "st": 336,
      "ra": 337,
      "ur": 338,
      "ay": 339,
      "ter": 340,
      "ĠM": 341,
      "ver": 342,
      "Ġn": 343,
      "ec": 344,
      "ai": 345,
      "am": 346,
      "ow": 347,
      "ĠP": 348,
      "ad": 349,
      "ation": 350,
      "ts": 351,
      "Ġon": 352,
      "ce": 353,
      "ch": 354,
      "ĠB": 355,
      "Ġwh": 356,
      "Ġwith": 357,
      "ut": 358,
      "gh": 359,
      "id": 360,
      "ld": 361,
      "Ġthat": 362,
      "et": 363,
      "Ġ1": 364,
      "se": 365,
      "ot": 366,
      "Ġst": 367,
      "ir": 368,
      "Ġas": 369,
      "ĠD": 370,
      "ĠW": 371,
      "Ġ2": 372,
      "Ġpro": 373,
      "ĠH": 374,
      "Ġan": 375,
      "ers": 376,
      "Ġ(": 377,
      "ĠF": 378,
      "ke": 379,
      "ag": 380,
      "ĠR": 381,
      "âĢĻ": 382,
      "em": 383,
      "un": 384,
      "oo": 385,
      "Ġare": 386,
      "ul": 387,
      "ĠL": 388,
      "Ġli": 389,
      "el": 390,
      "Ġit": 391,
      "ere": 392,
      "ate": 393,
      "ab": 394,
      "ting": 395,
      "Ġcom": 396,
      "pp": 397,
      "Ġcon": 398,
      "Ġmo": 399,
      "Ġat": 400,
      "Ġl": 401,
      "Ġha": 402,
      "ĠG": 403,
      "Ġor": 404,
      "um": 405,
      "Ġwas": 406,
      "Ġwe": 407,
      "si": 408,
      "ĠN": 409,
      "ĠThe": 410,
      "ĠE": 411,
      "rom": 412,
      "ol": 413,
      "te": 414,
      "res": 415,
      "qu": 416,
      "Ġex": 417,
      "Ġv": 418,
      "Ġfi": 419,
      "hi": 420,
      "Ġby": 421,
      "ment": 422,
      "and": 423,
      "Ġyour": 424,
      "tr": 425,
      "Ġlo": 426,
      "ther": 427,
      "Ġfrom": 428,
      "Ġ20": 429,
      "est": 430,
      "Ġde": 431,
      "ĠO": 432,
      "uc": 433,
      "Ġthis": 434,
      "ome": 435,
      "Ġsh": 436,
      "nt": 437,
      "Ġal": 438,
      "ort": 439,
      "Ġse": 440,
      "tic": 441,
      "ard": 442,
      "Ġhave": 443,
      "op": 444,
      "ff": 445,
      "Ġus": 446,
      "Ġhe": 447,
      "ud": 448,
      "ĠJ": 449,
      "ure": 450,
      "Ġu": 451,
      "Ġcan": 452,
      "il": 453,
      "ght": 454,
      "ty": 455,
      "our": 456,
      "Ġle": 457,
      "><": 458,
      "ain": 459,
      "ine": 460,
      "all": 461,
      "ess": 462,
      "rou": 463,
      "Ġdo": 464,
      "ĠâĢ": 465,
      "ig": 466,
      "Ġne": 467,
      "ant": 468,
      "me": 469,
      "Ġac": 470,
      "ap": 471,
      "Ġsu": 472,
      "Ġpl": 473,
      "Ġwor": 474,
      "Ġch": 475,
      "Ġnot": 476,
      "Ġwill": 477,
      "Ġsp": 478,
      "ity": 479,
      "ack": 480,
      "Ġab": 481,
      "ĠTh": 482,
      "mp": 483,
      "ally": 484,
      "ak": 485,
      "'s": 486,
      "od": 487,
      "os": 488,
      "ci": 489,
      "ĠU": 490,
      "out": 491,
      "ge": 492,
      "ust": 493,
      "ould": 494,
      "ear": 495,
      "are": 496,
      "Ġso": 497,
      "Ġall": 498,
      "Ġk": 499,
      "00": 500,
      "Ġj": 501,
      "ew": 502,
      "per": 503,
      "Ġcomp": 504,
      "ss": 505,
      "Ġti": 506,
      "ist": 507,
      "ber": 508,
      "art": 509,
      "Ġ201": 510,
      "ich": 511,
      "age": 512,
      "ali": 513,
      "ated": 514,
      "ks": 515,
      "Ġad": 516,
      "ĠIn": 517,
      "ĠK": 518,
      "Ġdi": 519,
      "..": 520,
      "ni": 521,
      "Ġhas": 522,
      "Ġme": 523,
      "so": 524,
      "ner": 525,
      "able": 526,
      "ong": 527,
      "Ġpo": 528,
      "ep": 529,
      "ake": 530,
      "The": 531,
      "tive": 532,
      "for": 533,
      "ast": 534,
      "ide": 535,
      "Ġ19": 536,
      "Ġbut": 537,
      "Ġco": 538,
      "Ġr": 539,
      "ice": 540,
      "vi": 541,
      "ary": 542,
      "tw": 543,
      "Ġman": 544,
      "im": 545,
      "Ġup": 546,
      "ite": 547,
      "ous": 548,
      "ans": 549,
      "ach": 550,
      "ect": 551,
      "ore": 552,
      "ies": 553,
      "ĠV": 554,
      "Ġone": 555,
      "ance": 556,
      "Ġtheir": 557,
      "very": 558,
      "one": 559,
      "ue": 560,
      "ĠY": 561,
      "lic": 562,
      "Ġmore": 563,
      "ub": 564,
      "ven": 565,
      "ence": 566,
      "Ġout": 567,
      "ame": 568,
      "Ġen": 569,
      "Ġour": 570,
      "ace": 571,
      "Ġtr": 572,
      "Ġdes": 573,
      "ood": 574,
      "ct": 575,
      "Ġthey": 576,
      "sion": 577,
      "tions": 578,
      "Ġwhich": 579,
      "Ġno": 580,
      "Ġun": 581,
      "Ġmy": 582,
      "Ġsome": 583,
      "erv": 584,
      "Ġinc": 585,
      "ail": 586,
      "mer": 587,
      "Ġres": 588,
      "Ġhis": 589,
      "ning": 590,
      "Ġapp": 591,
      "Ġabout": 592,
      "ase": 593,
      "Ġ3": 594,
      "Ġdis": 595,
      "ree": 596,
      "Ġalso": 597,
      "ations": 598,
      "ĠSt": 599,
      "king": 600,
      "Ġ\"": 601,
      "Ġgo": 602,
      "Ġoff": 603,
      "Ġwho": 604,
      "gi": 605,
      "ang": 606,
      "Ġper": 607,
      "Ġte": 608,
      "Ġqu": 609,
      "Ġ-": 610,
      "red": 611,
      "form": 612,
      "Ġbec": 613,
      "nder": 614,
      "ili": 615,
      "igh": 616,
      "act": 617,
      "ble": 618,
      "Ġtime": 619,
      "tra": 620,
      "ĠCh": 621,
      "ents": 622,
      "use": 623,
      "ord": 624,
      "ned": 625,
      "ass": 626,
      "Ġar": 627,
      "ĠIt": 628,
      "Ġyear": 629,
      "sh": 630,
      "duc": 631,
      "ays": 632,
      "ling": 633,
      "av": 634,
      "Ġany": 635,
      "Ġnew": 636,
      "now": 637,
      "ors": 638,
      "ia": 639,
      "Ġmi": 640,
      "ns": 641,
      "les": 642,
      "ater": 643,
      "oc": 644,
      "Ġwere": 645,
      "cess": 646,
      "ons": 647,
      "pe": 648,
      "ill": 649,
      "Ġro": 650,
      "de": 651,
      "fe": 652,
      "Ġpe": 653,
      "âĢĿ": 654,
      "ond": 655,
      "ory": 656,
      "Ġlike": 657,
      "als": 658,
      "Ġag": 659,
      "Ġover": 660,
      "iv": 661,
      "ces": 662,
      "Ġother": 663,
      "ry": 664,
      "Ġsi": 665,
      "Ġfe": 666,
      "Ġcont": 667,
      "Ġbeen": 668,
      "Ġimp": 669,
      "ĠWe": 670,
      "Ġinter": 671,
      "Ġhad": 672,
      "irst": 673,
      "Ġra": 674,
      "ause": 675,
      "ĠâĢĵ": 676,
      "mi": 677,
      "Ġwhen": 678,
      "gra": 679,
      "Ġthem": 680,
      "reat": 681,
      "ties": 682,
      "Ġget": 683,
      "ps": 684,
      "ical": 685,
      "Ġpre": 686,
      "Ġrec": 687,
      "Ġthere": 688,
      "Ġits": 689,
      "Ġpar": 690,
      "ph": 691,
      "log": 692,
      "ish": 693,
      "ress": 694,
      "Ġher": 695,
      "Ġwork": 696,
      "Ġtra": 697,
      "fter": 698,
      "Ġneed": 699,
      "ople": 700,
      "Ġwould": 701,
      "Ġif": 702,
      "ari": 703,
      "ĠHe": 704,
      "lud": 705,
      "ount": 706,
      "ound": 707,
      "no": 708,
      "Ġ4": 709,
      "Ġknow": 710,
      "Ġrep": 711,
      "Ġthan": 712,
      "ms": 713,
      "ark": 714,
      "ĠâĢľ": 715,
      "ath": 716,
      "Ġwhat": 717,
      "Ġserv": 718,
      "ual": 719,
      "ates": 720,
      "aw": 721,
      "Ġinto": 722,
      "Ġbo": 723,
      "Ġexp": 724,
      "amp": 725,
      "ook": 726,
      "ten": 727,
      "ool": 728,
      "Ġfirst": 729,
      "Ġtw": 730,
      "round": 731,
      "Ġam": 732,
      "Ġ5": 733,
      "ĠThis": 734,
      "ck": 735,
      "Ġhow": 736,
      "ings": 737,
      "enti": 738,
      "ok": 739,
      "oun": 740,
      "Ġcomm": 741,
      "cri": 742,
      "di": 743,
      "rough": 744,
      "Ġri": 745,
      "Ġ|": 746,
      "ves": 747,
      "Ġbu": 748,
      "row": 749,
      "fi": 750,
      "au": 751,
      "own": 752,
      "Th": 753,
      "Ġpeople": 754,
      "Ġinclud": 755,
      "vers": 756,
      "end": 757,
      "ick": 758,
      "Ġbecause": 759,
      "nal": 760,
      "ft": 761,
      "Ġjust": 762,
      "!<": 763,
      ")<": 764,
      "fer": 765,
      "fic": 766,
      "ost": 767,
      "Ġind": 768,
      "ose": 769,
      "ption": 770,
      "Ġmay": 771,
      "ful": 772,
      "bs": 773,
      "Ġprov": 774,
      "Ġcl": 775,
      "day": 776,
      "ati": 777,
      "Ġhel": 778,
      "ating": 779,
      "ĠRe": 780,
      "com": 781,
      "Ġcons": 782,
      "ult": 783,
      "eci": 784,
      "ade": 785,
      "Ġ200": 786,
      "ving": 787,
      "ru": 788,
      "),": 789,
      "nk": 790,
      "Ġmost": 791,
      "Ġuse": 792,
      "ech": 793,
      "Ġonly": 794,
      "ion": 795,
      "Ġmake": 796,
      "ho": 797,
      "ull": 798,
      "Ġfile": 799,
      "air": 800,
      "Ġthrough": 801,
      "lec": 802,
      "ational": 803,
      "Ġhigh": 804,
      "Ġsec": 805,
      "20": 806,
      "Ġplay": 807,
      "ens": 808,
      "thing": 809,
      "Ġpri": 810,
      "Ġproduc": 811,
      "Ġsc": 812,
      "ough": 813,
      "Ġwell": 814,
      "Ġunder": 815,
      "lish": 816,
      "ments": 817,
      "Ġfo": 818,
      "ric": 819,
      "ys": 820,
      "Ġtwo": 821,
      "vel": 822,
      "19": 823,
      "?<": 824,
      "Ġcol": 825,
      "ĠCom": 826,
      "ile": 827,
      "Ġshe": 828,
      "Ġ&": 829,
      "Ġhelp": 830,
      "Ġsy": 831,
      "any": 832,
      "iz": 833,
      "Ġstud": 834,
      "ight": 835,
      "na": 836,
      "Ġback": 837,
      "ased": 838,
      "tle": 839,
      "arch": 840,
      "der": 841,
      "ĠYou": 842,
      "Ġevery": 843,
      "Ġsupp": 844,
      "Ġafter": 845,
      "aid": 846,
      "Ġdec": 847,
      "ved": 848,
      "ris": 849,
      "ĠWh": 850,
      "ted": 851,
      "ign": 852,
      "land": 853,
      "ward": 854,
      "Ġthese": 855,
      "ited": 856,
      "gan": 857,
      "iness": 858,
      "wn": 859,
      "qui": 860,
      "ures": 861,
      "uring": 862,
      "ive": 863,
      "ffer": 864,
      "Ġcre": 865,
      "ĠPro": 866,
      "Ġ6": 867,
      "Ġsee": 868,
      "ember": 869,
      "fore": 870,
      "Ġyears": 871,
      "Ġgu": 872,
      "ters": 873,
      "erson": 874,
      "Ġexper": 875,
      "ie": 876,
      "ian": 877,
      "Ġvery": 878,
      "In": 879,
      "Ġmany": 880,
      "ell": 881,
      "xt": 882,
      "Ġev": 883,
      "Ġloc": 884,
      "low": 885,
      "Ġwhere": 886,
      "usiness": 887,
      "uch": 888,
      "ular": 889,
      "velo": 890,
      "ind": 891,
      "tin": 892,
      "stem": 893,
      "Ġge": 894,
      "Ġins": 895,
      "nce": 896,
      "chool": 897,
      "ami": 898,
      "'t": 899,
      "hip": 900,
      "Ġshort": 901,
      "Ġop": 902,
      "Ġke": 903,
      "ices": 904,
      "Ġthen": 905,
      "ont": 906,
      "Ġcar": 907,
      "ane": 908,
      "co": 909,
      "Ġgood": 910,
      "aking": 911,
      "ĠNew": 912,
      "up": 913,
      "Ġdescri": 914,
      "its": 915,
      "ĠAr": 916,
      "ob": 917,
      "tur": 918,
      "Ġway": 919,
      "ave": 920,
      "int": 921,
      "Ġsto": 922,
      "Ġwant": 923,
      "ild": 924,
      "...": 925,
      "Ġ<": 926,
      "ise": 927,
      "Ġcould": 928,
      "ale": 929,
      "ren": 930,
      "atch": 931,
      "Ġpart": 932,
      "ement": 933,
      "formation": 934,
      "velop": 935,
      "Ġsuch": 936,
      "ork": 937,
      "Ġdown": 938,
      "ility": 939,
      "try": 940,
      "Ġrem": 941,
      "ative": 942,
      "man": 943,
      "ĠSp": 944,
      "Ġacc": 945,
      ").": 946,
      "Ġsm": 947,
      "az": 948,
      "Ġeven": 949,
      "Ġnow": 950,
      "Ġbest": 951,
      "sel": 952,
      "Ġshould": 953,
      "ial": 954,
      "Ġ7": 955,
      "pt": 956,
      "Ġhome": 957,
      "Ġset": 958,
      "ĠAl": 959,
      "llow": 960,
      "ove": 961,
      "tom": 962,
      "Ġav": 963,
      "ĠLe": 964,
      "und": 965,
      "Ìģ": 966,
      "oy": 967,
      "ax": 968,
      "ĠFor": 969,
      "alth": 970,
      "ced": 971,
      "rect": 972,
      "ality": 973,
      "meric": 974,
      "Ġchi": 975,
      "Ġfind": 976,
      "ouse": 977,
      "Ġeff": 978,
      "Ġadd": 979,
      "Ġ8": 980,
      "Ġgreat": 981,
      "Ġ10": 982,
      "pl": 983,
      "Ġpres": 984,
      "Ġread": 985,
      "Ġshow": 986,
      "cial": 987,
      "Ġday": 988,
      "Ġ18": 989,
      "ton": 990,
      "Ġused": 991,
      "Ġdiffer": 992,
      "Ġed": 993,
      "Ġreg": 994,
      "ash": 995,
      "Ġmade": 996,
      "een": 997,
      "ug": 998,
      "Ġsaid": 999,
      "ze": 1000,
      "ruc": 1001,
      "ran": 1002,
      "Ġbusiness": 1003,
      "Ġinv": 1004,
      "Ġmuch": 1005,
      "ict": 1006,
      "Ġlong": 1007,
      "Ġspeci": 1008,
      "ues": 1009,
      "og": 1010,
      "Ġsur": 1011,
      "take": 1012,
      "led": 1013,
      "way": 1014,
      "Ġ$": 1015,
      "cy": 1016,
      "ee": 1017,
      "tri": 1018,
      "Ġinst": 1019,
      "Ġend": 1020,
      "Ġmon": 1021,
      "Ġexperi": 1022,
      "Ġsystem": 1023,
      "ason": 1024,
      "ĠSh": 1025,
      "Ġagain": 1026,
      "Ġlife": 1027,
      "Ġim": 1028,
      "enter": 1029,
      "Ġperson": 1030,
      "ĠAnd": 1031,
      "ĠIf": 1032,
      "ĠSo": 1033,
      "Ġser": 1034,
      "Ġbeing": 1035,
      "Ġmed": 1036,
      "Ġnum": 1037,
      "ness": 1038,
      "io": 1039,
      "Ġbefore": 1040,
      "Ġdon": 1041,
      "ith": 1042,
      "ower": 1043,
      "Ġtrans": 1044,
      "Ġtake": 1045,
      "Ġinformation": 1046,
      "Ġthi": 1047,
      "ject": 1048,
      "ney": 1049,
      "ences": 1050,
      "Ġdid": 1051,
      "old": 1052,
      "Ġhim": 1053,
      "Ġche": 1054,
      "dition": 1055,
      "Ġpr": 1056,
      "tim": 1057,
      "ages": 1058,
      "Ġdevelop": 1059,
      "ah": 1060,
      "Ġpub": 1061,
      "Ġrel": 1062,
      "ata": 1063,
      "Ġworld": 1064,
      "Ġgra": 1065,
      "ually": 1066,
      "Ġchang": 1067,
      "view": 1068,
      "Ġ9": 1069,
      "Ġvis": 1070,
      "Ġhere": 1071,
      "Ġcomple": 1072,
      "Ġsub": 1073,
      "âĢĵ": 1074,
      "ring": 1075,
      "ki": 1076,
      "rit": 1077,
      "Ġph": 1078,
      "Ġear": 1079,
      "ĠBe": 1080,
      "Ġfin": 1081,
      "logy": 1082,
      "Ġprovid": 1083,
      "ĠDe": 1084,
      "Ġcall": 1085,
      "oli": 1086,
      "Ġhand": 1087,
      "Ġteam": 1088,
      "Ġchar": 1089,
      "ration": 1090,
      "Ġdoes": 1091,
      "Ġthose": 1092,
      "ution": 1093,
      "Ġright": 1094,
      "Ġdescription": 1095,
      "Ġwee": 1096,
      "tain": 1097,
      "ever": 1098,
      "ners": 1099,
      "ailable": 1100,
      "Ġform": 1101,
      "lect": 1102,
      "Ġeach": 1103,
      "illi": 1104,
      "till": 1105,
      "tit": 1106,
      "Ġau": 1107,
      "Ġcare": 1108,
      "Ġwhile": 1109,
      "Ġlead": 1110,
      "Ġstart": 1111,
      "Ġvi": 1112,
      "ank": 1113,
      "tech": 1114,
      "ature": 1115,
      "Ġresp": 1116,
      "ute": 1117,
      "be": 1118,
      "cc": 1119,
      "Ġdri": 1120,
      "ession": 1121,
      "Ġclo": 1122,
      "Ġbetw": 1123,
      "akes": 1124,
      "Ġbetween": 1125,
      "amily": 1126,
      "tern": 1127,
      "ĠAmeric": 1128,
      "Ġadv": 1129,
      "lease": 1130,
      "Ġmar": 1131,
      "con": 1132,
      "000": 1133,
      "ĠLi": 1134,
      "Ġfollow": 1135,
      "Ġcur": 1136,
      "10": 1137,
      "Ġpost": 1138,
      "Ġservice": 1139,
      "Ġchild": 1140,
      "Wh": 1141,
      "ĠAd": 1142,
      "ĠUni": 1143,
      "Ġeas": 1144,
      "ames": 1145,
      "Ġfound": 1146,
      "arm": 1147,
      "Ġtri": 1148,
      "nes": 1149,
      "nge": 1150,
      "Ġcommun": 1151,
      "Ġtech": 1152,
      "ĠAn": 1153,
      "Re": 1154,
      "tal": 1155,
      "ĠUn": 1156,
      "Ġaround": 1157,
      "tter": 1158,
      "ip": 1159,
      "Ġavailable": 1160,
      "Ġlar": 1161,
      "urch": 1162,
      "Ġcus": 1163,
      "ĠJu": 1164,
      "Ġown": 1165,
      "Ġass": 1166,
      "Ġlook": 1167,
      "outh": 1168,
      "ĠPl": 1169,
      "Ġboth": 1170,
      "Ġfree": 1171,
      "Ġlove": 1172,
      "cer": 1173,
      "min": 1174,
      "read": 1175,
      "Ġprogra": 1176,
      "orts": 1177,
      "riend": 1178,
      "ects": 1179,
      "ĠInd": 1180,
      "tiv": 1181,
      "ants": 1182,
      "bers": 1183,
      "Ġsame": 1184,
      "Ġem": 1185,
      "Ġprocess": 1186,
      "ars": 1187,
      "tical": 1188,
      "Ġdifferent": 1189,
      "Ġcle": 1190,
      "Ġbook": 1191,
      "versity": 1192,
      "Ġcour": 1193,
      "sive": 1194,
      "gg": 1195,
      "ĠEx": 1196,
      "oh": 1197,
      "Ġplace": 1198,
      "ple": 1199,
      "Ġ0": 1200,
      "Ġbl": 1201,
      "ety": 1202,
      "Ġduring": 1203,
      "Ġrequi": 1204,
      "ics": 1205,
      "ction": 1206,
      "We": 1207,
      "Ġ*": 1208,
      "Ġ199": 1209,
      "Ġpos": 1210,
      "ross": 1211,
      "Ġcli": 1212,
      "Ġfl": 1213,
      "Ġlast": 1214,
      "ĠQ": 1215,
      "Ġter": 1216,
      "Ġreally": 1217,
      "ĠCon": 1218,
      "Ġtop": 1219,
      "ways": 1220,
      "ision": 1221,
      "Ġfil": 1222,
      "Ġrece": 1223,
      "Ġbuild": 1224,
      "Ġusing": 1225,
      "Ġrun": 1226,
      "Ġoffer": 1227,
      "Ġfull": 1228,
      "Ġthree": 1229,
      "Ġcor": 1230,
      "nts": 1231,
      "This": 1232,
      "hoto": 1233,
      "Ġlist": 1234,
      "ĠZ": 1235,
      "sible": 1236,
      "ĠMar": 1237,
      "Ġprof": 1238,
      "Ġstill": 1239,
      "aj": 1240,
      "Ġschool": 1241,
      "gin": 1242,
      "ĠAs": 1243,
      "ury": 1244,
      "Ġvari": 1245,
      "Ġfun": 1246,
      "Ġtoo": 1247,
      "Ġty": 1248,
      "roup": 1249,
      "Ġmem": 1250,
      "ĠThey": 1251,
      "Ġincluding": 1252,
      "lie": 1253,
      "mit": 1254,
      "aint": 1255,
      "the": 1256,
      "other": 1257,
      "ather": 1258,
      "Ġthink": 1259,
      "ĠCol": 1260,
      "Ġact": 1261,
      "Ġnumber": 1262,
      "ider": 1263,
      "Ġimport": 1264,
      "Ġcompany": 1265,
      "Ġappro": 1266,
      "Ġfamily": 1267,
      "Ġorgan": 1268,
      "Ġ'": 1269,
      "Ġcoun": 1270,
      "Ġcap": 1271,
      "tt": 1272,
      "ital": 1273,
      "Ġide": 1274,
      "ural": 1275,
      "Ġsmall": 1276,
      "rent": 1277,
      "18": 1278,
      "ying": 1279,
      "Ġmus": 1280,
      "vern": 1281,
      "alle": 1282,
      "50": 1283,
      "pri": 1284,
      "ex": 1285,
      "tre": 1286,
      "reen": 1287,
      "Ġfew": 1288,
      "Ġsupport": 1289,
      "Ġlear": 1290,
      "Ġpartic": 1291,
      "iss": 1292,
      "gy": 1293,
      "df": 1294,
      "Ġ||": 1295,
      "ĠHow": 1296,
      "els": 1297,
      "orth": 1298,
      "Ġwater": 1299,
      "que": 1300,
      "ĠShe": 1301,
      "Ġsecond": 1302,
      "Ġgoing": 1303,
      "ĠIs": 1304,
      "Ġmonth": 1305,
      "ĠChi": 1306,
      "Ġob": 1307,
      "Ġ12": 1308,
      "DF": 1309,
      "graph": 1310,
      "Ġhealth": 1311,
      "ĠBut": 1312,
      "Ġ.": 1313,
      "Ġemp": 1314,
      "Ġinf": 1315,
      "bo": 1316,
      "sts": 1317,
      "Ġpi": 1318,
      "Ġ2018": 1319,
      "ective": 1320,
      "Ġdata": 1321,
      "ody": 1322,
      "Ġmin": 1323,
      "less": 1324,
      "ffic": 1325,
      ").<": 1326,
      "eld": 1327,
      "Ġloo": 1328,
      "ĠThere": 1329,
      "mes": 1330,
      "Ġallow": 1331,
      "ush": 1332,
      "Ġperform": 1333,
      "orn": 1334,
      "du": 1335,
      "Ġhapp": 1336,
      "self": 1337,
      "ese": 1338,
      "gn": 1339,
      "Ġline": 1340,
      "Ġsw": 1341,
      "Ġcond": 1342,
      "por": 1343,
      "tem": 1344,
      "ĠMi": 1345,
      "tend": 1346,
      "med": 1347,
      "ĠMan": 1348,
      "Ġstr": 1349,
      "Ġstand": 1350,
      "Ġeng": 1351,
      "Ġkeep": 1352,
      "ma": 1353,
      "cent": 1354,
      "tics": 1355,
      "Ġiss": 1356,
      "ards": 1357,
      "ĠGe": 1358,
      "Ġpdf": 1359,
      "ĠCl": 1360,
      "Ġmanag": 1361,
      "Ġarea": 1362,
      "Ġexperience": 1363,
      "stand": 1364,
      "eb": 1365,
      "ident": 1366,
      "Ġlit": 1367,
      "ared": 1368,
      "rol": 1369,
      "Ġcer": 1370,
      "Ġbre": 1371,
      "Ġservices": 1372,
      "Ġconf": 1373,
      "Ġplan": 1374,
      "ery": 1375,
      "ĠCo": 1376,
      "ĠNo": 1377,
      "Ġoper": 1378,
      "Ġorder": 1379,
      "Ġdesign": 1380,
      "\"<": 1381,
      "itch": 1382,
      "Ġclass": 1383,
      "ĠPDF": 1384,
      "ission": 1385,
      "Ġwithout": 1386,
      "Ġtur": 1387,
      "get": 1388,
      "Ġve": 1389,
      "ball": 1390,
      "Ġdirect": 1391,
      "loy": 1392,
      "ron": 1393,
      "ined": 1394,
      "rand": 1395,
      "ition": 1396,
      "Ġfriend": 1397,
      "Ġmark": 1398,
      "ĠOn": 1399,
      "ER": 1400,
      "Ġdisc": 1401,
      "Ġpoli": 1402,
      "Ġpop": 1403,
      "Ġsuc": 1404,
      "Ġthings": 1405,
      "Ġpower": 1406,
      "Ġalways": 1407,
      "ĠRo": 1408,
      "omen": 1409,
      "Ġsimp": 1410,
      "Ġlittle": 1411,
      "ĠCan": 1412,
      "ator": 1413,
      "Ġcontin": 1414,
      "Ġgi": 1415,
      "Ġdet": 1416,
      "load": 1417,
      "ĠAll": 1418,
      "Ġpay": 1419,
      "Ġsay": 1420,
      "Ġonline": 1421,
      "ries": 1422,
      "atter": 1423,
      "Ġhead": 1424,
      "Ġmust": 1425,
      "Ġwebs": 1426,
      "til": 1427,
      "Ġprogram": 1428,
      "12": 1429,
      "by": 1430,
      "fied": 1431,
      "Ġuni": 1432,
      "ats": 1433,
      "Ġsit": 1434,
      "Ġval": 1435,
      "iti": 1436,
      "Ġgrow": 1437,
      "ĠRes": 1438,
      "Ġlow": 1439,
      "ately": 1440,
      "Ġfac": 1441,
      "Ġcent": 1442,
      "ĠEng": 1443,
      "ential": 1444,
      "tice": 1445,
      "Ġlevel": 1446,
      "Ġprovide": 1447,
      "ird": 1448,
      "ode": 1449,
      "ĠUniversity": 1450,
      "lection": 1451,
      "Ġes": 1452,
      "ities": 1453,
      "Ġjo": 1454,
      "ĠTo": 1455,
      "Ġbetter": 1456,
      "Ġcome": 1457,
      "uro": 1458,
      "Ġproper": 1459,
      "Ġdra": 1460,
      "Ġimportant": 1461,
      "pi": 1462,
      "Ġold": 1463,
      "Ġsig": 1464,
      "Ġwithi": 1465,
      "Ġwithin": 1466,
      "lished": 1467,
      "Ġsince": 1468,
      "It": 1469,
      "Ġnext": 1470,
      "Ġsure": 1471,
      "Ġsol": 1472,
      "Ġanother": 1473,
      "Ġsing": 1474,
      "Ġproble": 1475,
      "Ġdeli": 1476,
      "rid": 1477,
      "Ġopp": 1478,
      "ĠPar": 1479,
      "ours": 1480,
      "Ġincre": 1481,
      "Ġques": 1482,
      "Ġopen": 1483,
      "ently": 1484,
      "ĠSe": 1485,
      "Ġgame": 1486,
      "Ġrest": 1487,
      "Ġpublic": 1488,
      "ĠUS": 1489,
      "Ġfact": 1490,
      "ĠBl": 1491,
      "br": 1492,
      "Ġhist": 1493,
      "Ġdoc": 1494,
      "elf": 1495,
      "Ġref": 1496,
      "Ġdep": 1497,
      ">|": 1498,
      "zed": 1499,
      "ister": 1500,
      ">âĢ": 1501,
      "Ġsite": 1502,
      "ĠDi": 1503,
      "Ġlaw": 1504,
      "Ġver": 1505,
      "ency": 1506,
      "Ġgener": 1507,
      "30": 1508,
      ":<": 1509,
      "Ġrese": 1510,
      "Ġwin": 1511,
      "Ġphoto": 1512,
      "Ġcurrent": 1513,
      "Ġ15": 1514,
      "Ġhard": 1515,
      "Ġable": 1516,
      "Ġbig": 1517,
      "ĠMay": 1518,
      "ales": 1519,
      "ote": 1520,
      "ump": 1521,
      "ww": 1522,
      "ny": 1523,
      "uck": 1524,
      "af": 1525,
      "ĠAmerican": 1526,
      "aster": 1527,
      "ense": 1528,
      "room": 1529,
      "Ġbas": 1530,
      "Ġdays": 1531,
      "...<": 1532,
      "rib": 1533,
      "Ġspe": 1534,
      "Ġsomething": 1535,
      "Ġgive": 1536,
      "ĠWor": 1537,
      "Ġair": 1538,
      "Ġroom": 1539,
      "Ġname": 1540,
      "Ġbro": 1541,
      "sing": 1542,
      "Ġrecord": 1543,
      "ĠCar": 1544,
      "ining": 1545,
      "ferences": 1546,
      "uts": 1547,
      "Ġview": 1548,
      "ories": 1549,
      "Ġprac": 1550,
      "Ġest": 1551,
      "Ġconsider": 1552,
      "ions": 1553,
      "Ġsk": 1554,
      "ior": 1555,
      "ains": 1556,
      "Ġaddition": 1557,
      "Ġless": 1558,
      "Ġagainst": 1559,
      "Ġmanual": 1560,
      "Ġsever": 1561,
      "ope": 1562,
      "Ġnever": 1563,
      "Ġlarge": 1564,
      "Ġlot": 1565,
      "Ġput": 1566,
      "Ġweek": 1567,
      "Ġmight": 1568,
      "Ġmod": 1569,
      "Ġdesig": 1570,
      "thers": 1571,
      "15": 1572,
      "ases": 1573,
      "Ġfour": 1574,
      "Ġposi": 1575,
      "ĠOr": 1576,
      "Ġtal": 1577,
      "ĠPri": 1578,
      "Ġuntil": 1579,
      "IN": 1580,
      "ought": 1581,
      "Ġresearch": 1582,
      "Ġhouse": 1583,
      "ĠUnited": 1584,
      "ger": 1585,
      "ding": 1586,
      "ged": 1587,
      "ici": 1588,
      "ĠTr": 1589,
      "ĠFi": 1590,
      "Ġstate": 1591,
      "ems": 1592,
      "pping": 1593,
      "If": 1594,
      "tes": 1595,
      "Ġworking": 1596,
      "Ġori": 1597,
      "Ġ198": 1598,
      "Ġaff": 1599,
      "Ġwebsite": 1600,
      "vernment": 1601,
      "ĠÂ": 1602,
      "par": 1603,
      "ĠWith": 1604,
      "Ġfur": 1605,
      "Ġ/": 1606,
      "ins": 1607,
      "Ġlocal": 1608,
      "ĠDec": 1609,
      "Ġchildren": 1610,
      "Ġapplic": 1611,
      "ection": 1612,
      "Ġquality": 1613,
      "ley": 1614,
      "ĠâĢĺ": 1615,
      "aper": 1616,
      "ĠâĢĶ": 1617,
      "11": 1618,
      "Ġevent": 1619,
      "ghts": 1620,
      "ĠBo": 1621,
      "yle": 1622,
      "ortun": 1623,
      "Ġgot": 1624,
      "illion": 1625,
      "thor": 1626,
      "mb": 1627,
      "ĠSu": 1628,
      "Ġdem": 1629,
      "Ġprofession": 1630,
      "Ġfood": 1631,
      "ĠAt": 1632,
      "Ġbased": 1633,
      "orm": 1634,
      "joy": 1635,
      "ĠPe": 1636,
      "Ġcover": 1637,
      "Ġmaking": 1638,
      "gether": 1639,
      "Ġstre": 1640,
      "port": 1641,
      "wh": 1642,
      "ls": 1643,
      "Ġalong": 1644,
      "ults": 1645,
      "ĠDis": 1646,
      "Ġpresent": 1647,
      "ĠSc": 1648,
      "Ġstudents": 1649,
      "Ġnear": 1650,
      "ideo": 1651,
      "ivid": 1652,
      "Ġtoday": 1653,
      ".,": 1654,
      "val": 1655,
      "Ġ2017": 1656,
      "net": 1657,
      "Ġgroup": 1658,
      "Ġhum": 1659,
      "Ġsuccess": 1660,
      ">\"": 1661,
      "16": 1662,
      "Ġaccess": 1663,
      "Ġcomplete": 1664,
      "Ġint": 1665,
      "Ġmet": 1666,
      "Ġprom": 1667,
      "ample": 1668,
      "Ġ16": 1669,
      "fect": 1670,
      "ajor": 1671,
      "17": 1672,
      "Ġworks": 1673,
      "Ġ17": 1674,
      "aces": 1675,
      "Ġ30": 1676,
      "Ġmen": 1677,
      "ĠComm": 1678,
      "ĠJoh": 1679,
      "Ġseason": 1680,
      "Ġproducts": 1681,
      "po": 1682,
      "Ġlooking": 1683,
      "Ġchange": 1684,
      "Ġexce": 1685,
      "lectr": 1686,
      "go": 1687,
      "pped": 1688,
      "ked": 1689,
      "unch": 1690,
      "ained": 1691,
      "nks": 1692,
      "Ġblo": 1693,
      "Ġcase": 1694,
      "ĠGu": 1695,
      "Ġimpro": 1696,
      "Ġbelie": 1697,
      "Ġow": 1698,
      "Ġproject": 1699,
      "Ġmarket": 1700,
      "ĠRep": 1701,
      "ids": 1702,
      "Ġwhe": 1703,
      "vious": 1704,
      "Ġorganiz": 1705,
      "Ġann": 1706,
      "of": 1707,
      "nology": 1708,
      "ounty": 1709,
      "Ġunderstand": 1710,
      "ected": 1711,
      "ability": 1712,
      "wards": 1713,
      "Ġ[": 1714,
      "sp": 1715,
      "Ġconne": 1716,
      "ha": 1717,
      "Ġpoint": 1718,
      "ably": 1719,
      "Ġoften": 1720,
      "Ġland": 1721,
      "Ġboo": 1722,
      "mend": 1723,
      "You": 1724,
      "ateg": 1725,
      "Ġfeel": 1726,
      "vir": 1727,
      "Ġretur": 1728,
      "Ġseries": 1729,
      "lor": 1730,
      "Ġpass": 1731,
      "Ġ11": 1732,
      "ocus": 1733,
      "lin": 1734,
      "Ġmoney": 1735,
      "ills": 1736,
      "Ġprot": 1737,
      "rali": 1738,
      "Ġ2019": 1739,
      "Ġleg": 1740,
      "Ġinclude": 1741,
      "ON": 1742,
      "ĠMe": 1743,
      "ĠJan": 1744,
      "Ġaway": 1745,
      "Ġreal": 1746,
      "Ġcourse": 1747,
      "urs": 1748,
      "Ġmusic": 1749,
      "Ġmembers": 1750,
      "acy": 1751,
      "Ġknown": 1752,
      "my": 1753,
      "aff": 1754,
      "ĠSchool": 1755,
      "Ġseveral": 1756,
      "Ġmater": 1757,
      "Ġcontrol": 1758,
      "ĠWhen": 1759,
      "utes": 1760,
      "ĠSy": 1761,
      "Ġwrit": 1762,
      "ulti": 1763,
      "Ġocc": 1764,
      "200": 1765,
      "ral": 1766,
      "ES": 1767,
      "Ġlater": 1768,
      "ler": 1769,
      "Ġreview": 1770,
      "Ġconst": 1771,
      "Ġneeds": 1772,
      "Ġtogether": 1773,
      "Ġrespon": 1774,
      "ĠDo": 1775,
      "Ġtimes": 1776,
      "Ex": 1777,
      "Ġstar": 1778,
      "Ġeduc": 1779,
      "References": 1780,
      "gion": 1781,
      "iving": 1782,
      "treat": 1783,
      "Ġhaving": 1784,
      "AT": 1785,
      "14": 1786,
      "Ġ2016": 1787,
      "Ġdev": 1788,
      "Ġcri": 1789,
      "ĠMy": 1790,
      "ĠTra": 1791,
      "Ġcommunity": 1792,
      "Ġlight": 1793,
      "ails": 1794,
      "Ġrele": 1795,
      "Ġtre": 1796,
      "Ġ14": 1797,
      "lege": 1798,
      "Ġcustom": 1799,
      "ĠX": 1800,
      "Ġthough": 1801,
      "ĠMed": 1802,
      "Ġeasy": 1803,
      "light": 1804,
      "Ġside": 1805,
      "ances": 1806,
      "atures": 1807,
      "Ġatt": 1808,
      "conom": 1809,
      "ured": 1810,
      "Ġvisit": 1811,
      "viron": 1812,
      "ĠSouth": 1813,
      "ĠComp": 1814,
      "Ġindivid": 1815,
      "Ġcity": 1816,
      "Ġenjoy": 1817,
      "AR": 1818,
      "ape": 1819,
      "Ġfoot": 1820,
      "Ġcou": 1821,
      "ulation": 1822,
      "rop": 1823,
      "Ġemploy": 1824,
      "ĠAc": 1825,
      "ists": 1826,
      "right": 1827,
      "ĠServ": 1828,
      "ĠSi": 1829,
      "Ġgl": 1830,
      "bi": 1831,
      "ĠPo": 1832,
      "Ġmain": 1833,
      "Ġcalled": 1834,
      "Ġlet": 1835,
      "Ġmove": 1836,
      "Ġleft": 1837,
      "cl": 1838,
      "ept": 1839,
      "Ġteach": 1840,
      "Ġword": 1841,
      "ĠSte": 1842,
      "Ġdevelopment": 1843,
      "áĦ": 1844,
      "áħ": 1845,
      "ested": 1846,
      "Ġreport": 1847,
      "Ġ197": 1848,
      "thod": 1849,
      "Ġtem": 1850,
      "Ġpossible": 1851,
      "achi": 1852,
      "Ġenter": 1853,
      "ĠDes": 1854,
      "Ġbene": 1855,
      "Ġbecome": 1856,
      "AN": 1857,
      "ĠGod": 1858,
      "ony": 1859,
      "ism": 1860,
      "omes": 1861,
      "ams": 1862,
      "ĠApp": 1863,
      "Ġ#": 1864,
      "Ġnon": 1865,
      "uary": 1866,
      "13": 1867,
      "ĠStates": 1868,
      "time": 1869,
      "Ġmajor": 1870,
      "//": 1871,
      "Ġflo": 1872,
      "ĠThat": 1873,
      "ĠEn": 1874,
      "ĠNe": 1875,
      "oice": 1876,
      "Ġwhy": 1877,
      "ĠWorld": 1878,
      "Ġfilm": 1879,
      "ĠTe": 1880,
      "ront": 1881,
      "Ġid": 1882,
      "Ġfollowing": 1883,
      "Ġwar": 1884,
      "Ġ,": 1885,
      "Ġcreate": 1886,
      "Ġ2015": 1887,
      "ically": 1888,
      "nam": 1889,
      "ĠEuro": 1890,
      "fy": 1891,
      "Ġcost": 1892,
      "alf": 1893,
      "ĠWhat": 1894,
      "Ġfocus": 1895,
      "Ġbody": 1896,
      "Ġtreat": 1897,
      "ges": 1898,
      "ung": 1899,
      "ows": 1900,
      "utions": 1901,
      "Ġpage": 1902,
      "Ġlive": 1903,
      "Ġ13": 1904,
      "roduc": 1905,
      "Ġwon": 1906,
      "Ġkind": 1907,
      "acks": 1908,
      "we": 1909,
      "Ġfore": 1910,
      "ording": 1911,
      "ilt": 1912,
      "urity": 1913,
      "Ġpast": 1914,
      "Ġvol": 1915,
      "ÌĪ": 1916,
      "ef": 1917,
      "As": 1918,
      "Ġcharac": 1919,
      ",âĢĿ": 1920,
      "ised": 1921,
      "ire": 1922,
      "âĢĶ": 1923,
      "ĠCity": 1924,
      "erm": 1925,
      "uture": 1926,
      "aring": 1927,
      "ray": 1928,
      "Ġpot": 1929,
      "rew": 1930,
      "ustry": 1931,
      "://": 1932,
      "mber": 1933,
      "hile": 1934,
      "auti": 1935,
      "ĠOur": 1936,
      "ĠGo": 1937,
      "Ġstory": 1938,
      "ier": 1939,
      "ĠAss": 1940,
      "Ġhot": 1941,
      "tract": 1942,
      "Ġearly": 1943,
      "ock": 1944,
      "ĠNational": 1945,
      "ster": 1946,
      "Ġdist": 1947,
      "nia": 1948,
      "anies": 1949,
      "Ġothers": 1950,
      "ming": 1951,
      "ret": 1952,
      "pril": 1953,
      ">âĢľ": 1954,
      "rist": 1955,
      "ived": 1956,
      "nds": 1957,
      "vironment": 1958,
      "ĠThese": 1959,
      "Ġwomen": 1960,
      "Ġspecific": 1961,
      "Ġanal": 1962,
      "anks": 1963,
      "artment": 1964,
      "Ġpati": 1965,
      "book": 1966,
      "resent": 1967,
      "Ġdone": 1968,
      "ument": 1969,
      "Ġmeans": 1970,
      "Ġmakes": 1971,
      "Ġfar": 1972,
      "Ġproduct": 1973,
      "ĠBar": 1974,
      "bal": 1975,
      "irth": 1976,
      "ference": 1977,
      "Ġthing": 1978,
      "lick": 1979,
      "ĠNot": 1980,
      "Ġcountry": 1981,
      "nergy": 1982,
      "Ġperfect": 1983,
      ",\"": 1984,
      "ready": 1985,
      "OC": 1986,
      "ĠFeb": 1987,
      "ead": 1988,
      "pes": 1989,
      "Ġfund": 1990,
      "bility": 1991,
      "riting": 1992,
      "lement": 1993,
      "Ġengine": 1994,
      "Ġcheck": 1995,
      "!!": 1996,
      "OR": 1997,
      "Ġsocial": 1998,
      "Ġet": 1999,
      "Ġdef": 2000,
      "pos": 2001,
      "cto": 2002,
      "app": 2003,
      "Ġever": 2004,
      "irc": 2005,
      "alk": 2006,
      "Ġkey": 2007,
      "Ġhold": 2008,
      "Ġfav": 2009,
      "Ġacross": 2010,
      "Ġgovernment": 2011,
      "ĠAug": 2012,
      "sed": 2013,
      "Ġvideo": 2014,
      "iod": 2015,
      "Ġplayers": 2016,
      "sc": 2017,
      "idd": 2018,
      "sw": 2019,
      ".âĢĿ": 2020,
      "jects": 2021,
      "Ġmean": 2022,
      "Ġrequire": 2023,
      "tire": 2024,
      "Ġsim": 2025,
      "ĠAust": 2026,
      "kin": 2027,
      "ĠYork": 2028,
      "ĠCounty": 2029,
      "Ġquick": 2030,
      "ĠInter": 2031,
      "Ġfam": 2032,
      "ering": 2033,
      "Ġestab": 2034,
      "Ġopportun": 2035,
      "Ġ2014": 2036,
      "ĠNorth": 2037,
      "Ġprice": 2038,
      "Ġinvol": 2039,
      "Ġcal": 2040,
      "ource": 2041,
      "aus": 2042,
      "ĠMarch": 2043,
      "Ġshi": 2044,
      "Ġcamp": 2045,
      "Ġent": 2046,
      "St": 2047,
      "Ġenough": 2048,
      "ĠHowever": 2049,
      "ngth": 2050,
      "ither": 2051,
      "Ġcontact": 2052,
      "Ġsingle": 2053,
      "oring": 2054,
      "Ġstarted": 2055,
      "bed": 2056,
      "ctober": 2057,
      "Ġ24": 2058,
      "'re": 2059,
      "ĠOne": 2060,
      "Ġnight": 2061,
      "Ġcertain": 2062,
      "ana": 2063,
      "Ġjob": 2064,
      "Ġris": 2065,
      "Ġmulti": 2066,
      "Ġbuilding": 2067,
      "ublic": 2068,
      "Ġalready": 2069,
      "Ġappear": 2070,
      "Ġfield": 2071,
      "ume": 2072,
      "For": 2073,
      "Ġpersonal": 2074,
      "ĠBri": 2075,
      "eptember": 2076,
      "Ġtook": 2077,
      "Ġ196": 2078,
      "ĠJohn": 2079,
      "Ġbuy": 2080,
      "Ġpurch": 2081,
      "Ġhistory": 2082,
      "Ġcomes": 2083,
      "Ġ100": 2084,
      "Ġspecial": 2085,
      "Ġguide": 2086,
      "ious": 2087,
      "Ġexample": 2088,
      "Ġz": 2089,
      "Ġbed": 2090,
      "Ġparticular": 2091,
      "ible": 2092,
      "Ġspace": 2093,
      "oned": 2094,
      "Ġbelow": 2095,
      "angu": 2096,
      "Ġcr": 2097,
      "ources": 2098,
      "Ġsum": 2099,
      "vent": 2100,
      "ĠEurope": 2101,
      "Ġel": 2102,
      "ĠWar": 2103,
      "uf": 2104,
      "Ġstudy": 2105,
      "ĠApril": 2106,
      "Ġyoung": 2107,
      "Ġcusto": 2108,
      "Ġbit": 2109,
      "ruct": 2110,
      "Ġ25": 2111,
      "Ġdue": 2112,
      "ched": 2113,
      "Ġpain": 2114,
      "ided": 2115,
      "ĠYour": 2116,
      "ried": 2117,
      "Ġgetting": 2118,
      "Ġens": 2119,
      "ĠQu": 2120,
      "ests": 2121,
      "'m": 2122,
      "Ġbar": 2123,
      "Ch": 2124,
      "Ġarti": 2125,
      "Ġsci": 2126,
      "25": 2127,
      "Ġaw": 2128,
      "oman": 2129,
      "uff": 2130,
      "ully": 2131,
      "ille": 2132,
      "Ġrange": 2133,
      "Ġfuture": 2134,
      "Ġtool": 2135,
      "atic": 2136,
      "Ġtry": 2137,
      "ruary": 2138,
      "Ġage": 2139,
      "ĠJanuary": 2140,
      "What": 2141,
      "ĠState": 2142,
      "not": 2143,
      "anc": 2144,
      "ued": 2145,
      "Ġartic": 2146,
      "Ġwr": 2147,
      "Ġleast": 2148,
      "ĠJune": 2149,
      "Ġ2013": 2150,
      "Ġstep": 2151,
      "Ġauthor": 2152,
      "Ġshare": 2153,
      "urance": 2154,
      "ĠVi": 2155,
      "Ġonce": 2156,
      "ĠAfter": 2157,
      "ints": 2158,
      "Ġcompanies": 2159,
      "Ġenc": 2160,
      "Ġblog": 2161,
      "Ġclear": 2162,
      "Ġess": 2163,
      "Ġindustry": 2164,
      "atural": 2165,
      "Ġhours": 2166,
      "Ġcame": 2167,
      "afe": 2168,
      "most": 2169,
      "Ġsuper": 2170,
      "oose": 2171,
      "ovember": 2172,
      "Ġsays": 2173,
      "Ġfinish": 2174,
      "uter": 2175,
      "Ġsearch": 2176,
      "ĠHigh": 2177,
      "abor": 2178,
      "Ġbi": 2179,
      "ĠIns": 2180,
      "ada": 2181,
      "cept": 2182,
      "lex": 2183,
      "ommend": 2184,
      "nation": 2185,
      "Ġmillion": 2186,
      "lected": 2187,
      "Ġclose": 2188,
      "Ġgiven": 2189,
      "tings": 2190,
      "ium": 2191,
      "Ġsong": 2192,
      "Ġstat": 2193,
      "ĠAm": 2194,
      "tas": 2195,
      "Ġbegin": 2196,
      "Ġversion": 2197,
      "ĠPer": 2198,
      "ĠChe": 2199,
      "table": 2200,
      "Ġdoing": 2201,
      "Ġlinks": 2202,
      ".\"<": 2203,
      "Ġeconom": 2204,
      "Ġconcer": 2205,
      "Ġmonths": 2206,
      "ĠSeptember": 2207,
      "AS": 2208,
      "Ġreach": 2209,
      "Ġsho": 2210,
      "Ġperiod": 2211,
      "ĠOctober": 2212,
      "Ġidenti": 2213,
      "Ġmaint": 2214,
      "att": 2215,
      "lled": 2216,
      "tware": 2217,
      "autiful": 2218,
      "Ġfeatures": 2219,
      "Ġmethod": 2220,
      "kets": 2221,
      "Ġla": 2222,
      "tour": 2223,
      "Ġresult": 2224,
      "ilit": 2225,
      "ternal": 2226,
      "aps": 2227,
      "EN": 2228,
      "Ġfre": 2229,
      "Ġer": 2230,
      "Ġpriv": 2231,
      "Ġfriends": 2232,
      "Ġpack": 2233,
      "Ġdeb": 2234,
      "bum": 2235,
      "Ġmag": 2236,
      "Ġbring": 2237,
      "tax": 2238,
      "Ġ2012": 2239,
      "Ġsof": 2240,
      "aken": 2241,
      "ĠSec": 2242,
      "ague": 2243,
      "How": 2244,
      "Ġgames": 2245,
      "ĠHer": 2246,
      "Ġbenef": 2247,
      "Ġelectr": 2248,
      "Ġstrong": 2249,
      "Ġprofessional": 2250,
      "Ġaddress": 2251,
      "ĠJuly": 2252,
      "Ġresults": 2253,
      "ilities": 2254,
      "Ġpict": 2255,
      "ĠAb": 2256,
      "Ġste": 2257,
      "tish": 2258,
      "Ġoffers": 2259,
      "yc": 2260,
      "Ġabove": 2261,
      "Ġactually": 2262,
      "ule": 2263,
      "umb": 2264,
      "ĠCor": 2265,
      "Ġvalue": 2266,
      "action": 2267,
      "taking": 2268,
      "nific": 2269,
      "ginal": 2270,
      "Ġtour": 2271,
      "Ġdownload": 2272,
      "ele": 2273,
      "Ġ*<": 2274,
      "term": 2275,
      "--": 2276,
      "fully": 2277,
      "Ġtraining": 2278,
      "onder": 2279,
      "duce": 2280,
      "osp": 2281,
      "He": 2282,
      "Ġwind": 2283,
      "Ġcommon": 2284,
      "40": 2285,
      "Ġinstall": 2286,
      "Ġsound": 2287,
      "peci": 2288,
      "Ġfive": 2289,
      "Ġvarious": 2290,
      "AL": 2291,
      "though": 2292,
      "nc": 2293,
      "ines": 2294,
      "elling": 2295,
      "do": 2296,
      "omi": 2297,
      "Ġreason": 2298,
      "'ve": 2299,
      "Ġmanagement": 2300,
      "Ġtype": 2301,
      "nel": 2302,
      "Ġtechnology": 2303,
      "Ġdiscus": 2304,
      "Ġdeath": 2305,
      "Ġliving": 2306,
      "Ġnetw": 2307,
      "Ġhuman": 2308,
      "Ġcult": 2309,
      "Ġrecommend": 2310,
      "Ġtax": 2311,
      "ruction": 2312,
      "ancial": 2313,
      "vision": 2314,
      "trict": 2315,
      "Ġbirth": 2316,
      "ledge": 2317,
      "ĠAf": 2318,
      "Ġthought": 2319,
      "ece": 2320,
      "Ġproblem": 2321,
      "idence": 2322,
      "Ġmom": 2323,
      "ĠAustrali": 2324,
      "back": 2325,
      "Ġstra": 2326,
      "Ġpress": 2327,
      "Ġstyle": 2328,
      "Ġfra": 2329,
      "lu": 2330,
      "Ġbrand": 2331,
      "ĠNovember": 2332,
      "ED": 2333,
      "Ġamong": 2334,
      "ĠFebruary": 2335,
      "Ġchalle": 2336,
      "ĠHar": 2337,
      "IS": 2338,
      "ĠAugust": 2339,
      "Ġwent": 2340,
      "Ġenvironment": 2341,
      "Ġminutes": 2342,
      "On": 2343,
      "Ġdidn": 2344,
      "pper": 2345,
      "ĠPre": 2346,
      "ĠDecember": 2347,
      "ĠCent": 2348,
      "ĠChris": 2349,
      "ives": 2350,
      "play": 2351,
      "Ġcontent": 2352,
      "IT": 2353,
      "Ġrelations": 2354,
      "Ġ:": 2355,
      "Ġtas": 2356,
      "Ġweb": 2357,
      "test": 2358,
      "Ġplease": 2359,
      "Ġbecame": 2360,
      "ators": 2361,
      "Ġaccount": 2362,
      "Ġmind": 2363,
      "Ġey": 2364,
      "21": 2365,
      "Ġareas": 2366,
      "There": 2367,
      "ufact": 2368,
      "ĠPark": 2369,
      "chie": 2370,
      "aced": 2371,
      "Ġinvest": 2372,
      "ches": 2373,
      "Ġcred": 2374,
      "ĠMo": 2375,
      "Ġsize": 2376,
      "ĠSw": 2377,
      "Ġquestions": 2378,
      "ĠHis": 2379,
      "Ġlearn": 2380,
      "Ġgene": 2381,
      "astic": 2382,
      "Ġmee": 2383,
      "Ġthird": 2384,
      "ides": 2385,
      "Ġstay": 2386,
      "Ġcount": 2387,
      "Ġansw": 2388,
      "Ġclai": 2389,
      "fication": 2390,
      "ilar": 2391,
      "ĠMin": 2392,
      "Ġproperty": 2393,
      "Ġwatch": 2394,
      "....": 2395,
      "Ġcompe": 2396,
      "Ġdeal": 2397,
      "sia": 2398,
      "Ġpur": 2399,
      "tig": 2400,
      "resh": 2401,
      "'ll": 2402,
      "Ġissues": 2403,
      "Ġbreak": 2404,
      "Ġcard": 2405,
      "Ġmoder": 2406,
      "atis": 2407,
      "Ġbr": 2408,
      "Ġmatch": 2409,
      "Ġlocated": 2410,
      "IC": 2411,
      "Ġtravel": 2412,
      "aving": 2413,
      "Ġmedia": 2414,
      "ky": 2415,
      "Ġoffice": 2416,
      "ka": 2417,
      "Ġ50": 2418,
      "graphy": 2419,
      "Ġyet": 2420,
      "Ġmember": 2421,
      "Ġclean": 2422,
      "Ġparticip": 2423,
      "pris": 2424,
      "Ġeverything": 2425,
      "Ġtable": 2426,
      "ream": 2427,
      "ily": 2428,
      "Ġperformance": 2429,
      "Ġx": 2430,
      "augh": 2431,
      "Ġgr": 2432,
      "Ġwall": 2433,
      "Ġwriting": 2434,
      "ĠSome": 2435,
      "des": 2436,
      "asing": 2437,
      "22": 2438,
      "keting": 2439,
      "Ġaud": 2440,
      "eder": 2441,
      "Ġfurther": 2442,
      "amb": 2443,
      "ĠRi": 2444,
      "ĠAir": 2445,
      "fort": 2446,
      "ression": 2447,
      "Ġtell": 2448,
      "cover": 2449,
      "ging": 2450,
      "licy": 2451,
      "Ġoffic": 2452,
      "fin": 2453,
      "ĠDep": 2454,
      "ĠBy": 2455,
      "Ġart": 2456,
      "ta": 2457,
      "Ġdoesn": 2458,
      "nding": 2459,
      "ĠMc": 2460,
      "Ġfit": 2461,
      "Ġprovides": 2462,
      "ĠWest": 2463,
      "Ġdig": 2464,
      "ĠRec": 2465,
      "Ġcustomers": 2466,
      "oint": 2467,
      "Ġblack": 2468,
      "ĠCoun": 2469,
      "Ġupd": 2470,
      "uri": 2471,
      "Ġ2011": 2472,
      "ciation": 2473,
      "ĠStud": 2474,
      "ands": 2475,
      "Ġrequ": 2476,
      "Ġeffective": 2477,
      "icro": 2478,
      "pro": 2479,
      "ani": 2480,
      "ange": 2481,
      "Ġheld": 2482,
      "Ġimprove": 2483,
      "ĠPres": 2484,
      "tivity": 2485,
      "Ġreli": 2486,
      "Ġrequired": 2487,
      "AC": 2488,
      "work": 2489,
      "ĠAg": 2490,
      "Ġseen": 2491,
      "ites": 2492,
      "ĠCont": 2493,
      "Ġapproach": 2494,
      "Ġsimple": 2495,
      "Ġ2010": 2496,
      "Ġglo": 2497,
      "Ġwhole": 2498,
      "ternational": 2499,
      "ĠPh": 2500,
      "iles": 2501,
      "thern": 2502,
      "ov": 2503,
      "Ġphys": 2504,
      "irt": 2505,
      "hic": 2506,
      "ĠTw": 2507,
      "Ġhy": 2508,
      "mm": 2509,
      "olution": 2510,
      "Ġevents": 2511,
      "Ġouts": 2512,
      "Ġten": 2513,
      "ror": 2514,
      "ham": 2515,
      "Ġtaking": 2516,
      "Ġwhite": 2517,
      "sm": 2518,
      "Ġele": 2519,
      "Ġphone": 2520,
      "ĠChrist": 2521,
      "ĠWi": 2522,
      "Ġenergy": 2523,
      "Al": 2524,
      "ĠInc": 2525,
      "Ġmeas": 2526,
      "Ġpaper": 2527,
      "tee": 2528,
      "Ġreceived": 2529,
      "ensive": 2530,
      "adem": 2531,
      "Ġalbum": 2532,
      "Ġiniti": 2533,
      "Ġhalf": 2534,
      "opy": 2535,
      "Ġprob": 2536,
      "ĠFran": 2537,
      "Ġflow": 2538,
      "Ġbeautiful": 2539,
      "Ġfront": 2540,
      "ĠDOC": 2541,
      "cies": 2542,
      "ĠBu": 2543,
      "urg": 2544,
      "Ġbuilt": 2545,
      "Ġeither": 2546,
      "Ġsix": 2547,
      "sy": 2548,
      "ĠTi": 2549,
      "Ġcut": 2550,
      "Ġdesigned": 2551,
      "lot": 2552,
      "Ġcreated": 2553,
      "nov": 2554,
      "Ġrepl": 2555,
      "ĠSto": 2556,
      "Ġmess": 2557,
      "Ġwide": 2558,
      "ening": 2559,
      "ials": 2560,
      "pecially": 2561,
      "Ġdam": 2562,
      "Ġmor": 2563,
      "Ġsugg": 2564,
      "taken": 2565,
      "Ġfee": 2566,
      "Ġidea": 2567,
      "cil": 2568,
      "Ġsomeone": 2569,
      "Ġoriginal": 2570,
      "Ġemail": 2571,
      "Ġentire": 2572,
      "Ġunique": 2573,
      "Ġpopular": 2574,
      "ĠHome": 2575,
      "Ġprovided": 2576,
      "rai": 2577,
      "Ġincludes": 2578,
      "ĠSer": 2579,
      "Ġequ": 2580,
      "Ġwhether": 2581,
      "ĠMon": 2582,
      "Ġcra": 2583,
      "Ġhope": 2584,
      "ental": 2585,
      "Ġintern": 2586,
      "Ġsystems": 2587,
      "\",": 2588,
      "ĠEd": 2589,
      "Ġideas": 2590,
      "lli": 2591,
      "Ġheart": 2592,
      "Ġsignific": 2593,
      "60": 2594,
      "Ġprevious": 2595,
      "Ġequi": 2596,
      "Ġwonder": 2597,
      "hips": 2598,
      "Ġnews": 2599,
      "ĠHouse": 2600,
      "uation": 2601,
      "So": 2602,
      "Ġroad": 2603,
      "ĠChar": 2604,
      "ables": 2605,
      "Ġfeature": 2606,
      "lig": 2607,
      "Ġjour": 2608,
      "Ġface": 2609,
      "anguage": 2610,
      "Ġcirc": 2611,
      "Ġcell": 2612,
      "RE": 2613,
      "gest": 2614,
      "Ġstaff": 2615,
      "che": 2616,
      "los": 2617,
      "ĠKe": 2618,
      "Ġmachi": 2619,
      "irm": 2620,
      "Ġassist": 2621,
      "cip": 2622,
      "Ġcareer": 2623,
      "Ġcharacter": 2624,
      "aur": 2625,
      "Ġasso": 2626,
      "itions": 2627,
      "ground": 2628,
      "Ġpare": 2629,
      "aining": 2630,
      "24": 2631,
      "ĠMus": 2632,
      "earch": 2633,
      "Ġhowever": 2634,
      "Ġself": 2635,
      "rown": 2636,
      "Ġfootball": 2637,
      "ondon": 2638,
      "When": 2639,
      "Ġcommit": 2640,
      "face": 2641,
      "ology": 2642,
      "Ġago": 2643,
      "Ġfunction": 2644,
      "Ġparty": 2645,
      "selves": 2646,
      "ridge": 2647,
      "Ġeducation": 2648,
      "Ġdou": 2649,
      "nking": 2650,
      "uct": 2651,
      "ae": 2652,
      "ford": 2653,
      ".\"": 2654,
      "Ġrepair": 2655,
      "uty": 2656,
      "Ġrepresent": 2657,
      "men": 2658,
      "Ġoil": 2659,
      "Ġprin": 2660,
      "Ġport": 2661,
      "Ġachie": 2662,
      "tar": 2663,
      "itchen": 2664,
      "itor": 2665,
      "Ġannoun": 2666,
      "ux": 2667,
      "anced": 2668,
      "Com": 2669,
      "tended": 2670,
      "ĠKing": 2671,
      "vities": 2672,
      "Ġformer": 2673,
      "Ġrole": 2674,
      "verage": 2675,
      "Ġtest": 2676,
      "Ġespecially": 2677,
      "Ġbelieve": 2678,
      "Ġfinal": 2679,
      "nit": 2680,
      "Ġtrack": 2681,
      "come": 2682,
      "ouch": 2683,
      "Ġincluded": 2684,
      "let": 2685,
      "ĠCenter": 2686,
      "Ġsoftware": 2687,
      "bor": 2688,
      "times": 2689,
      "Ġpercent": 2690,
      "23": 2691,
      "Ġbooks": 2692,
      "Ġamount": 2693,
      "Ġ...": 2694,
      "Ġtaken": 2695,
      "ĠAfric": 2696,
      "uge": 2697,
      "ĠEnglish": 2698,
      "ules": 2699,
      "Ġneeded": 2700,
      "gle": 2701,
      "ttp": 2702,
      "Ġadded": 2703,
      "Ġregion": 2704,
      "Ġspec": 2705,
      "ara": 2706,
      "reg": 2707,
      "tivities": 2708,
      "Ġfavor": 2709,
      "Ġsign": 2710,
      "hold": 2711,
      "Ġalmost": 2712,
      "ĠBro": 2713,
      "Ġnatural": 2714,
      "rench": 2715,
      "ĠSan": 2716,
      "Ġfiles": 2717,
      "Ġposition": 2718,
      "ser": 2719,
      "atur": 2720,
      "amed": 2721,
      "Ġnecess": 2722,
      "Ġarch": 2723,
      "epend": 2724,
      "80": 2725,
      "gs": 2726,
      "Ġcolor": 2727,
      "Ġproblems": 2728,
      "Ġmini": 2729,
      "Ġbox": 2730,
      "tili": 2731,
      "Ġcommunic": 2732,
      "mas": 2733,
      "osed": 2734,
      "tional": 2735,
      "ĠDay": 2736,
      "Ġsimilar": 2737,
      "amer": 2738,
      "Ġquestion": 2739,
      "Ġinternational": 2740,
      "Ġmodel": 2741,
      "Ġquite": 2742,
      "Ġ21": 2743,
      "Ġaccom": 2744,
      "Ġreleased": 2745,
      "Ġuser": 2746,
      "asi": 2747,
      "esting": 2748,
      "Ġgeneral": 2749,
      "Ġreading": 2750,
      "Ġtradition": 2751,
      "ciety": 2752,
      "Ġdiffic": 2753,
      "hind": 2754,
      "ĠInternational": 2755,
      "Ġabs": 2756,
      "logical": 2757,
      "ĠManag": 2758,
      "Ġregard": 2759,
      "ĠLondon": 2760,
      "Ġsimply": 2761,
      "Ġmiss": 2762,
      "Ġwood": 2763,
      "Ġvehic": 2764,
      "azing": 2765,
      "head": 2766,
      "ĠRus": 2767,
      "Ġpoints": 2768,
      "Ġtotal": 2769,
      "Ġmanufact": 2770,
      "aling": 2771,
      "Ġred": 2772,
      "Ġgir": 2773,
      "Ġplayed": 2774,
      "Ġetc": 2775,
      "Ġturn": 2776,
      "Ġchoose": 2777,
      "Ġknowledge": 2778,
      "Ġpas": 2779,
      "Ġeveryone": 2780,
      "ĠFin": 2781,
      "Ġlink": 2782,
      "Ġsignificant": 2783,
      "Ġanything": 2784,
      "ville": 2785,
      "Ġthroughout": 2786,
      "vis": 2787,
      "Ġrou": 2788,
      "oph": 2789,
      "mission": 2790,
      "To": 2791,
      "Ġsecurity": 2792,
      "Ġfinancial": 2793,
      "Ġpractice": 2794,
      "tine": 2795,
      "Ġanim": 2796,
      "ĠOf": 2797,
      "Ġmeet": 2798,
      "nical": 2799,
      "oid": 2800,
      "Ġcaus": 2801,
      "neral": 2802,
      "ĠGra": 2803,
      "ĠTH": 2804,
      "Ġsent": 2805,
      "ĠHo": 2806,
      "ama": 2807,
      "ĠTech": 2808,
      "Ġways": 2809,
      "Ġensure": 2810,
      "Ġissue": 2811,
      "Ġcustomer": 2812,
      "Ġmodern": 2813,
      "sian": 2814,
      "Ġrecog": 2815,
      "Ġbad": 2816,
      "Ġtext": 2817,
      "Ġproduction": 2818,
      "medi": 2819,
      "Ġoptions": 2820,
      "top": 2821,
      "ĠFo": 2822,
      "Ġtes": 2823,
      "Ġ194": 2824,
      "99": 2825,
      "US": 2826,
      "Ġspend": 2827,
      "Ġapplication": 2828,
      "Ġpric": 2829,
      "bert": 2830,
      "Ġbegan": 2831,
      "son": 2832,
      "Ġautom": 2833,
      "And": 2834,
      "ĠPhi": 2835,
      "Ġchanges": 2836,
      "Ġbal": 2837,
      "Ġinterest": 2838,
      "Ġtown": 2839,
      "Ġyourself": 2840,
      "Ġdate": 2841,
      "reet": 2842,
      "takes": 2843,
      "Ġsal": 2844,
      "Ġdetails": 2845,
      "ĠJo": 2846,
      "eds": 2847,
      "Ġstruct": 2848,
      "Ġtele": 2849,
      "Ġvia": 2850,
      "lies": 2851,
      "Ġbot": 2852,
      "tention": 2853,
      "Ġrather": 2854,
      "Ġcomb": 2855,
      "iddle": 2856,
      "afety": 2857,
      "ized": 2858,
      "pment": 2859,
      "ĠII": 2860,
      "aily": 2861,
      "avy": 2862,
      "Ġregular": 2863,
      "where": 2864,
      "Ġground": 2865,
      "Ġseem": 2866,
      "ĠDon": 2867,
      "Ġlearning": 2868,
      "wood": 2869,
      "Ġpick": 2870,
      "Ġ2009": 2871,
      "Ġexpl": 2872,
      "Ġfamili": 2873,
      "Ġextra": 2874,
      "ĠJap": 2875,
      "Ġtru": 2876,
      "Ġprivate": 2877,
      "Ġdeliver": 2878,
      "Ġlikely": 2879,
      "ĠOff": 2880,
      "ĠCons": 2881,
      "Ġlim": 2882,
      "key": 2883,
      "oud": 2884,
      "cep": 2885,
      "ysis": 2886,
      "aker": 2887,
      "uals": 2888,
      "Ġaction": 2889,
      "ashi": 2890,
      "Ġsoon": 2891,
      "atory": 2892,
      "mon": 2893,
      "ĠCali": 2894,
      "ĠDr": 2895,
      "over": 2896,
      "Ġfire": 2897,
      "hib": 2898,
      "ude": 2899,
      "Ġusually": 2900,
      "Ġtakes": 2901,
      "Ġround": 2902,
      "Ġreceive": 2903,
      "mary": 2904,
      "Ġinj": 2905,
      "ĠPi": 2906,
      "ĠHealth": 2907,
      "Ġpublished": 2908,
      "orge": 2909,
      "Ġcurrently": 2910,
      "Ġlay": 2911,
      "Be": 2912,
      "Ġforward": 2913,
      "str": 2914,
      "ĠAmerica": 2915,
      "Ġ23": 2916,
      "ones": 2917,
      "Ġoutside": 2918,
      "Ġclub": 2919,
      "ĠUK": 2920,
      "Ġshows": 2921,
      "Ġdu": 2922,
      "ĠMore": 2923,
      "ops": 2924,
      "ĠAu": 2925,
      "la": 2926,
      "Ġtreatment": 2927,
      "ĠNor": 2928,
      "istration": 2929,
      "ĠBlack": 2930,
      "Ġcoll": 2931,
      "Ġ22": 2932,
      "Ġworked": 2933,
      "Ġindividual": 2934,
      "Ġill": 2935,
      "Ġnational": 2936,
      "tian": 2937,
      "oogle": 2938,
      "Ġcontrib": 2939,
      "atest": 2940,
      "like": 2941,
      "enced": 2942,
      "erc": 2943,
      "zation": 2944,
      "ĠAsso": 2945,
      "Ġfall": 2946,
      "aul": 2947,
      "Ġanti": 2948,
      "Ġreali": 2949,
      "ĠCollege": 2950,
      "atform": 2951,
      "Ġincrease": 2952,
      "Ġconsum": 2953,
      "Ġcompeti": 2954,
      "ĠDav": 2955,
      "Ġcomfort": 2956,
      "Ġ40": 2957,
      "Ġinsurance": 2958,
      "Ġwritten": 2959,
      "Ġadmin": 2960,
      "ĠSci": 2961,
      "Ġ2008": 2962,
      "Ġloss": 2963,
      "Ġactivities": 2964,
      "lied": 2965,
      "ĠIndia": 2966,
      "Ġstri": 2967,
      "Ġcoming": 2968,
      "ampions": 2969,
      "Ġsen": 2970,
      "ĠBer": 2971,
      "gr": 2972,
      "aby": 2973,
      "Ġhigher": 2974,
      "ights": 2975,
      "Ġwanted": 2976,
      "ker": 2977,
      "Ġrate": 2978,
      "Ġarticle": 2979,
      "ket": 2980,
      "fornia": 2981,
      "External": 2982,
      "Ġbase": 2983,
      "ĠÐ": 2984,
      "Ġlate": 2985,
      "Ġsales": 2986,
      "isting": 2987,
      "Ġdepe": 2988,
      "Ġupon": 2989,
      "ailed": 2990,
      "oura": 2991,
      "AM": 2992,
      "Ġep": 2993,
      "verse": 2994,
      "lier": 2995,
      "Ġprobably": 2996,
      "Ġadditional": 2997,
      "col": 2998,
      "Ġbehind": 2999,
      "Ġelse": 3000,
      "ses": 3001,
      "Ġsafe": 3002,
      "Ġparts": 3003,
      "OS": 3004,
      "Ġmatter": 3005,
      "\".": 3006,
      "Ġready": 3007,
      "Ġrunning": 3008,
      "erman": 3009,
      "Ġstore": 3010,
      "ĠBritish": 3011,
      "Ġhost": 3012,
      "ĠOp": 3013,
      "ecu": 3014,
      "airs": 3015,
      "ĠFrom": 3016,
      "ald": 3017,
      "Ġwords": 3018,
      "Ġ195": 3019,
      "Ġimage": 3020,
      "ĠAre": 3021,
      "Ġpers": 3022,
      "elt": 3023,
      "Ġinte": 3024,
      "roups": 3025,
      "Ġtrying": 3026,
      "attle": 3027,
      "Ġdeg": 3028,
      "Ġexc": 3029,
      "Ġsle": 3030,
      "Ġtar": 3031,
      "Ġoption": 3032,
      "ini": 3033,
      "Ġreturn": 3034,
      "trac": 3035,
      "Ġtrue": 3036,
      "Ġmix": 3037,
      "ĠSch": 3038,
      "Ad": 3039,
      "Ġappe": 3040,
      "Ġclients": 3041,
      "Ġcontinue": 3042,
      "Ġkids": 3043,
      "uel": 3044,
      "Ġskin": 3045,
      "Ġsqu": 3046,
      "Ġstandard": 3047,
      "Ġopportunity": 3048,
      "Ġinside": 3049,
      "ait": 3050,
      "sition": 3051,
      "Ġresid": 3052,
      "Ġskills": 3053,
      "field": 3054,
      "ĠBra": 3055,
      "Ġaccording": 3056,
      "une": 3057,
      "ctor": 3058,
      "Ġusers": 3059,
      "cious": 3060,
      "Ġlonger": 3061,
      "ags": 3062,
      "Ġnetwork": 3063,
      "Ġarri": 3064,
      "Ġtold": 3065,
      "Ġap": 3066,
      "Ġmovi": 3067,
      "Ġpret": 3068,
      "Ġdraw": 3069,
      "www": 3070,
      "Ġhappy": 3071,
      "Ġrisk": 3072,
      "ience": 3073,
      "OT": 3074,
      "Ġfast": 3075,
      "Ġcomputer": 3076,
      "ctions": 3077,
      "Ġrelated": 3078,
      "ĠCour": 3079,
      "Ġprojects": 3080,
      "year": 3081,
      "Ġpolicy": 3082,
      "uted": 3083,
      "irit": 3084,
      "Ġintroduc": 3085,
      "Ġnice": 3086,
      "Ġmedical": 3087,
      "Ġweeks": 3088,
      "ĠRed": 3089,
      "Ġprior": 3090,
      "Sh": 3091,
      "Ġboard": 3092,
      "zing": 3093,
      "board": 3094,
      "aves": 3095,
      "ĠReg": 3096,
      "Ġitems": 3097,
      "Ġleaders": 3098,
      "Ġreduc": 3099,
      "70": 3100,
      "Ġassoci": 3101,
      "Ġprep": 3102,
      "Ġcannot": 3103,
      "Ġsubs": 3104,
      "Ġcele": 3105,
      "vin": 3106,
      "Ġdrive": 3107,
      "Ġbri": 3108,
      "ĠAng": 3109,
      "Ġlives": 3110,
      "Ġscreen": 3111,
      "Ġexplo": 3112,
      "rain": 3113,
      "asons": 3114,
      "Ġgre": 3115,
      "Ġsold": 3116,
      "Ġagre": 3117,
      "Ġborn": 3118,
      "Ġgrowth": 3119,
      "lying": 3120,
      "ĠMark": 3121,
      "Ġpotential": 3122,
      "lid": 3123,
      "alist": 3124,
      "Ġleave": 3125,
      "aries": 3126,
      "Ġbath": 3127,
      "ashing": 3128,
      "ĠNow": 3129,
      "Ġmaterial": 3130,
      "uk": 3131,
      "ĠLa": 3132,
      "mercial": 3133,
      "Ġpretty": 3134,
      "cks": 3135,
      "199": 3136,
      "Ġfig": 3137,
      "zz": 3138,
      "Ġlocation": 3139,
      "ords": 3140,
      "based": 3141,
      "Ġband": 3142,
      "Ġvill": 3143,
      "titute": 3144,
      "Ġcollection": 3145,
      "Ġcode": 3146,
      "Ġlaunch": 3147,
      "Ġcredit": 3148,
      "Ġ28": 3149,
      "orage": 3150,
      "Ġindic": 3151,
      "Ġcenter": 3152,
      "iction": 3153,
      "ĠLaw": 3154,
      "35": 3155,
      "ĠWilli": 3156,
      "ĠUp": 3157,
      "Ġstudent": 3158,
      "Ġpat": 3159,
      "Ġsepar": 3160,
      "estern": 3161,
      "clus": 3162,
      "ĠCalifornia": 3163,
      "Pro": 3164,
      "rance": 3165,
      "ras": 3166,
      "nter": 3167,
      "Ġlost": 3168,
      "Ġmob": 3169,
      "orting": 3170,
      "Ġmarketing": 3171,
      "Ġask": 3172,
      "aging": 3173,
      "ĠCommun": 3174,
      "emi": 3175,
      "Ġvariety": 3176,
      "ram": 3177,
      "ĠMr": 3178,
      "Ġterms": 3179,
      "arden": 3180,
      "ĠChina": 3181,
      "ees": 3182,
      "26": 3183,
      "ĠService": 3184,
      "llent": 3185,
      "An": 3186,
      "hood": 3187,
      "Ġstop": 3188,
      "Ġwish": 3189,
      "Ġrecent": 3190,
      "Ġinves": 3191,
      "pre": 3192,
      "Ġ26": 3193,
      "ient": 3194,
      "Ġinspi": 3195,
      "Ġchurch": 3196,
      "ĠStreet": 3197,
      "ĠTV": 3198,
      "Ġsale": 3199,
      "Ġcross": 3200,
      "ĠAcc": 3201,
      "Ġrights": 3202,
      "Ġcand": 3203,
      "ising": 3204,
      "Ġisn": 3205,
      "Ġleading": 3206,
      "Ġsched": 3207,
      "pose": 3208,
      "OU": 3209,
      "Ġchoice": 3210,
      "Ġhair": 3211,
      "Ġsun": 3212,
      "Ġcontract": 3213,
      "ilitary": 3214,
      "ller": 3215,
      "Ġsummer": 3216,
      "lls": 3217,
      "28": 3218,
      "yl": 3219,
      "ĠWind": 3220,
      "Ġexpect": 3221,
      "Ġeasily": 3222,
      "Ġestablished": 3223,
      "Ġhit": 3224,
      "Ġbus": 3225,
      "EC": 3226,
      "Ġgoal": 3227,
      "acing": 3228,
      "Ġrefer": 3229,
      "Ġworth": 3230,
      "lands": 3231,
      "ĠEast": 3232,
      "Ġlower": 3233,
      "Ġhear": 3234,
      "Ġconditions": 3235,
      "OM": 3236,
      "Ġrecogni": 3237,
      "useum": 3238,
      "Ġ2007": 3239,
      "onic": 3240,
      "Ġimpact": 3241,
      "Ġamazing": 3242,
      "Ġobs": 3243,
      "ott": 3244,
      "27": 3245,
      "Ġhistor": 3246,
      "Ġcouple": 3247,
      "Ġ+": 3248,
      "Ġled": 3249,
      "Ġprograms": 3250,
      "ades": 3251,
      "Ġquickly": 3252,
      "Ġ27": 3253,
      "raft": 3254,
      "Ġgroups": 3255,
      "Ġnorm": 3256,
      "Ġradi": 3257,
      "Our": 3258,
      "Ġali": 3259,
      "Ġexact": 3260,
      "Ġdisplay": 3261,
      "Ġanswer": 3262,
      "Ġdefe": 3263,
      "Ġcook": 3264,
      "Ġmaterials": 3265,
      "Ġlatest": 3266,
      "ĠGroup": 3267,
      "All": 3268,
      "Ġlanguage": 3269,
      "Ġreci": 3270,
      "Ġlab": 3271,
      "ĠPresident": 3272,
      "Ġplatform": 3273,
      "ID": 3274,
      "Ġdeep": 3275,
      "Ġallows": 3276,
      "ib": 3277,
      "ĠWhile": 3278,
      "atives": 3279,
      "ico": 3280,
      "Ġimm": 3281,
      "Ġinvolved": 3282,
      "Ġsave": 3283,
      "Ġplayer": 3284,
      "Ġfine": 3285,
      "My": 3286,
      "Ġasked": 3287,
      "edding": 3288,
      "ET": 3289,
      "Ġquali": 3290,
      "Ġcause": 3291,
      "ored": 3292,
      "Ġconnect": 3293,
      "ĠIndian": 3294,
      "ĠFe": 3295,
      "ĠPost": 3296,
      "Ġnothing": 3297,
      "omin": 3298,
      "Ġequipment": 3299,
      "ĠVe": 3300,
      "Ġweight": 3301,
      "Ġsolution": 3302,
      "Ġdoor": 3303,
      "Ġnamed": 3304,
      "Ġsubject": 3305,
      "den": 3306,
      "ĠInst": 3307,
      "Ġrelease": 3308,
      "Ġedition": 3309,
      "Ġcountries": 3310,
      "ĠPlease": 3311,
      "Ġple": 3312,
      "Ġaverage": 3313,
      "Ġsaw": 3314,
      "uments": 3315,
      "lines": 3316,
      "Ġserved": 3317,
      "Ġpolitical": 3318,
      "ING": 3319,
      "Ġplaying": 3320,
      "Ġdeterm": 3321,
      "Ġproviding": 3322,
      "ĠFirst": 3323,
      "Ġfish": 3324,
      "Ġpatients": 3325,
      "arter": 3326,
      "Ġmeeting": 3327,
      "mo": 3328,
      "Ġplans": 3329,
      "But": 3330,
      "Ġinstead": 3331,
      "Ġanyone": 3332,
      "Ġson": 3333,
      "zes": 3334,
      "Ġbur": 3335,
      "ĠDirect": 3336,
      "kes": 3337,
      "At": 3338,
      "Ġrecently": 3339,
      "Ġkitchen": 3340,
      "Ġcases": 3341,
      "Ġattem": 3342,
      "ooks": 3343,
      "Ġseems": 3344,
      "ĠFrench": 3345,
      "vey": 3346,
      "Ġability": 3347,
      "tail": 3348,
      "Ġcentury": 3349,
      "29": 3350,
      "Ġitself": 3351,
      "Ġfresh": 3352,
      "Ġaward": 3353,
      "ĠServices": 3354,
      "ĠAustralia": 3355,
      "brary": 3356,
      "áĨ": 3357,
      "rest": 3358,
      "finite": 3359,
      "ĠTur": 3360,
      "aran": 3361,
      "Ġgold": 3362,
      "ÌĤ": 3363,
      "ĠBest": 3364,
      "Ġnecessary": 3365,
      "Ġpurchase": 3366,
      "Ġtypes": 3367,
      "Ġmid": 3368,
      "45": 3369,
      "Ġplant": 3370,
      "Ġprint": 3371,
      "ĠEar": 3372,
      "Ġtalk": 3373,
      "dy": 3374,
      "ĠCanada": 3375,
      "Ġlooks": 3376,
      "aly": 3377,
      "ĠMor": 3378,
      "ĠCompany": 3379,
      "dom": 3380,
      "Ġsection": 3381,
      "Ġdiscover": 3382,
      "Ġsource": 3383,
      "Ġdecision": 3384,
      "Ġhor": 3385,
      "illed": 3386,
      "Ġinflu": 3387,
      "Ġmultiple": 3388,
      "ĠFree": 3389,
      "Ġbud": 3390,
      "Ġdeveloped": 3391,
      "With": 3392,
      "Ġchalleng": 3393,
      "Ġadj": 3394,
      "Ar": 3395,
      "ida": 3396,
      "Ġdise": 3397,
      "ban": 3398,
      "Ġdigital": 3399,
      "ounts": 3400,
      "Ġlevels": 3401,
      "Ġeffici": 3402,
      "Ġcosts": 3403,
      "Ġactive": 3404,
      "istory": 3405,
      "estiv": 3406,
      "hel": 3407,
      "Ġsou": 3408,
      "erous": 3409,
      "Ġimmedi": 3410,
      "aged": 3411,
      "Ġmorning": 3412,
      "ĠBusiness": 3413,
      "Ġremember": 3414,
      "ĠMag": 3415,
      "ĠGl": 3416,
      "otor": 3417,
      "her": 3418,
      "Ġdifficult": 3419,
      "Ġdocument": 3420,
      "Ġsolutions": 3421,
      "Ġremo": 3422,
      "touch": 3423,
      "band": 3424,
      "ĠTrans": 3425,
      "edic": 3426,
      "anti": 3427,
      "Ġextre": 3428,
      "Ġconsidered": 3429,
      "Ġdecided": 3430,
      "off": 3431,
      "EL": 3432,
      "iting": 3433,
      "ato": 3434,
      "ressed": 3435,
      "Ġhighly": 3436,
      "ques": 3437,
      "Ġcoach": 3438,
      "Ġpopulation": 3439,
      "Ġwrite": 3440,
      "Ġwal": 3441,
      "ĠPort": 3442,
      "Ġeli": 3443,
      "ĠChurch": 3444,
      "Ġtools": 3445,
      "Ġund": 3446,
      "Ġmobile": 3447,
      "ĠTer": 3448,
      "ĠSystem": 3449,
      "Ġemer": 3450,
      "lly": 3451,
      "erve": 3452,
      "ĠHere": 3453,
      "Ġmount": 3454,
      "Ġmoment": 3455,
      "Ġsense": 3456,
      "gen": 3457,
      "wi": 3458,
      "ĠLeague": 3459,
      "rang": 3460,
      "sions": 3461,
      "AP": 3462,
      "oming": 3463,
      "Ġpath": 3464,
      "Ġthemselves": 3465,
      "ĠTri": 3466,
      "Ġsouth": 3467,
      "born": 3468,
      "Ġhous": 3469,
      "Ġterm": 3470,
      "Ġcampai": 3471,
      "ĠDepartment": 3472,
      "ube": 3473,
      "IL": 3474,
      "Ġ2006": 3475,
      "Ġplaces": 3476,
      "ael": 3477,
      "Ġfloor": 3478,
      "gram": 3479,
      "Ġshall": 3480,
      "ĠNews": 3481,
      "sych": 3482,
      "Ġfeeling": 3483,
      "ederal": 3484,
      "Ġ=": 3485,
      "Ġorganization": 3486,
      "otes": 3487,
      "33": 3488,
      "Ġ--": 3489,
      "olf": 3490,
      "Ġlic": 3491,
      "erved": 3492,
      "itect": 3493,
      "town": 3494,
      "gu": 3495,
      "merican": 3496,
      "sequ": 3497,
      "verti": 3498,
      "eth": 3499,
      "Ġbroad": 3500,
      "Ġdire": 3501,
      "After": 3502,
      "ĠRoad": 3503,
      "ĠMod": 3504,
      "ises": 3505,
      "ox": 3506,
      "Ðµ": 3507,
      "Ġconstruction": 3508,
      "ester": 3509,
      "Ġcomplex": 3510,
      "ector": 3511,
      "if": 3512,
      "Ġresources": 3513,
      "Ġdistrib": 3514,
      "Ġparents": 3515,
      "ĠLo": 3516,
      "Ġimages": 3517,
      "Ġsil": 3518,
      "rought": 3519,
      "Ġ.<": 3520,
      "ware": 3521,
      "Ġsafety": 3522,
      "Ġdevice": 3523,
      "Ġgiving": 3524,
      "ago": 3525,
      "niture": 3526,
      "Ġlegal": 3527,
      "ĠEuropean": 3528,
      "ĠFri": 3529,
      "ĠAct": 3530,
      "Ġclick": 3531,
      "Ġfavorite": 3532,
      "ament": 3533,
      "Ġgreen": 3534,
      "Ġdirectly": 3535,
      "Ġwalk": 3536,
      "Ġtouch": 3537,
      "gar": 3538,
      "Ġ29": 3539,
      "ston": 3540,
      "Ġfix": 3541,
      "Ġowners": 3542,
      "Ġencoura": 3543,
      "Ġgives": 3544,
      "ĠRiver": 3545,
      "Ġchance": 3546,
      "Ġfeed": 3547,
      "Ġdaily": 3548,
      "Ġgen": 3549,
      "ares": 3550,
      "ĠEl": 3551,
      "Ġswe": 3552,
      "=\"": 3553,
      "New": 3554,
      "orks": 3555,
      "van": 3556,
      "__": 3557,
      "ert": 3558,
      "ĠPat": 3559,
      "ĠGreat": 3560,
      "Ġtraditional": 3561,
      "Ġbenefits": 3562,
      "Ġpred": 3563,
      "Ġsites": 3564,
      "Ð¾": 3565,
      "cast": 3566,
      "ĠSen": 3567,
      "See": 3568,
      "ecutive": 3569,
      "Ġsuccessful": 3570,
      "havi": 3571,
      "Ġpen": 3572,
      "ĠIN": 3573,
      "Ġones": 3574,
      "Ġconven": 3575,
      "echan": 3576,
      "Ġappoint": 3577,
      "ĠHot": 3578,
      "ĠFace": 3579,
      "lam": 3580,
      "Ġanalysis": 3581,
      "ĠWhite": 3582,
      "ĠGold": 3583,
      "Ġhands": 3584,
      "ĠCle": 3585,
      "ĠCouncil": 3586,
      "ĠRead": 3587,
      "Ġattend": 3588,
      "Ġtitle": 3589,
      "Ġtyp": 3590,
      "enty": 3591,
      "timate": 3592,
      "Ġstation": 3593,
      "Ġglobal": 3594,
      "??": 3595,
      "Ġcomment": 3596,
      "ĠCap": 3597,
      "zer": 3598,
      "Ġattention": 3599,
      "ĠJe": 3600,
      "36": 3601,
      "Ġeffect": 3602,
      "Ġexcellent": 3603,
      "elcome": 3604,
      "75": 3605,
      "istry": 3606,
      "Ġregister": 3607,
      "Ġpiece": 3608,
      "Ġsli": 3609,
      "Ġliter": 3610,
      "titution": 3611,
      "Con": 3612,
      "sibility": 3613,
      "Ġsend": 3614,
      "ĠGoogle": 3615,
      "ĠYear": 3616,
      "Ġtechni": 3617,
      "aughter": 3618,
      "know": 3619,
      "Ġsession": 3620,
      "BC": 3621,
      "ĠTim": 3622,
      "ek": 3623,
      "Ġdecor": 3624,
      "Ġmachine": 3625,
      "ĠAN": 3626,
      "rac": 3627,
      "Ġcerti": 3628,
      "Ġutili": 3629,
      "ĠÂ£": 3630,
      "Ġsex": 3631,
      "Ġcool": 3632,
      "ied": 3633,
      "ians": 3634,
      "Ġgar": 3635,
      "ĠArch": 3636,
      "Ġjud": 3637,
      "Ġglass": 3638,
      "Ġ60": 3639,
      "uit": 3640,
      "yond": 3641,
      "Ġspeak": 3642,
      "ĠOut": 3643,
      "Ġtowards": 3644,
      "Ġslow": 3645,
      "Ġmother": 3646,
      "Ġmoved": 3647,
      "ĠChristmas": 3648,
      "Ġhuge": 3649,
      "lation": 3650,
      "ĠAssociation": 3651,
      "Ġpositive": 3652,
      "Ġlimited": 3653,
      "ĠGreen": 3654,
      "Ġdru": 3655,
      "Ġsus": 3656,
      "Ġexten": 3657,
      "Ġplanning": 3658,
      "Post": 3659,
      "Ġgoes": 3660,
      "Ġcoo": 3661,
      "Ġrestaur": 3662,
      "sib": 3663,
      "No": 3664,
      "Ġnor": 3665,
      "Ġapplications": 3666,
      "mark": 3667,
      "Ġul": 3668,
      "Ġinvestig": 3669,
      "AD": 3670,
      "ordi": 3671,
      "Ġfully": 3672,
      "Ġindepend": 3673,
      "Ġnature": 3674,
      "mith": 3675,
      "va": 3676,
      "Ġschools": 3677,
      "Sp": 3678,
      "zy": 3679,
      "tone": 3680,
      "39": 3681,
      "ST": 3682,
      "Ġextreme": 3683,
      "Ġâ": 3684,
      "ĠClub": 3685,
      "Ġscience": 3686,
      "wise": 3687,
      "rote": 3688,
      "iring": 3689,
      "ĠSm": 3690,
      "Ġfilms": 3691,
      "ĠJer": 3692,
      "lling": 3693,
      "ospital": 3694,
      "ander": 3695,
      "Ġculture": 3696,
      "Ġmer": 3697,
      "Ġgri": 3698,
      "ault": 3699,
      "put": 3700,
      "Ġsometimes": 3701,
      "Ġmis": 3702,
      "Ġcompletely": 3703,
      "cing": 3704,
      "Ġspeed": 3705,
      "ĠPen": 3706,
      "Ġgave": 3707,
      "ĠDistrict": 3708,
      "Ġang": 3709,
      "ĠArt": 3710,
      "ruit": 3711,
      "Ġholi": 3712,
      "Ġinnov": 3713,
      "org": 3714,
      "Ġfather": 3715,
      "ders": 3716,
      "order": 3717,
      "88": 3718,
      "Ġserious": 3719,
      "Ġmax": 3720,
      "ded": 3721,
      "Ġdiv": 3722,
      "tis": 3723,
      "Ġconc": 3724,
      "Ġtrip": 3725,
      "Ġachieve": 3726,
      "Ġhelps": 3727,
      "ison": 3728,
      "ĠSuper": 3729,
      "Ġreported": 3730,
      "Li": 3731,
      "Ġsuit": 3732,
      "Ġannounced": 3733,
      "ĠNet": 3734,
      "Ġstage": 3735,
      "ĠDavid": 3736,
      "ĠMost": 3737,
      "odes": 3738,
      "ĠProduc": 3739,
      "Ġinteresting": 3740,
      "Ġorigin": 3741,
      "Ġmyself": 3742,
      "ashington": 3743,
      "cle": 3744,
      "Ġphotos": 3745,
      "Ġrelationship": 3746,
      "Ġcondition": 3747,
      "porary": 3748,
      "avi": 3749,
      "Ġestablish": 3750,
      "arily": 3751,
      "ĠProf": 3752,
      "One": 3753,
      "Ġprices": 3754,
      "Ġpicture": 3755,
      "ulations": 3756,
      "ĠJes": 3757,
      "OL": 3758,
      "mod": 3759,
      "ĠDem": 3760,
      "pite": 3761,
      "ĠSund": 3762,
      "Ġneigh": 3763,
      "ĠGeneral": 3764,
      "Ġgradu": 3765,
      "Ġprog": 3766,
      "Ġstorage": 3767,
      "leg": 3768,
      "anese": 3769,
      "ots": 3770,
      "Ġsurpris": 3771,
      "nos": 3772,
      "Ġpropos": 3773,
      "Ġtransfer": 3774,
      "haps": 3775,
      "Ġinform": 3776,
      "ĠNi": 3777,
      "Ġnation": 3778,
      "Ġrequirements": 3779,
      "Ġrent": 3780,
      "ĠTex": 3781,
      "ken": 3782,
      "nic": 3783,
      "assi": 3784,
      "Ġpartners": 3785,
      "nese": 3786,
      "Ġstudies": 3787,
      "ĠMac": 3788,
      "Ġattack": 3789,
      "ulated": 3790,
      "ichael": 3791,
      "Ġcompleted": 3792,
      "fts": 3793,
      "Ġcollege": 3794,
      "Ġstrength": 3795,
      "Ġstarting": 3796,
      "ancy": 3797,
      "Ġdro": 3798,
      "ĠEngland": 3799,
      "Ġdel": 3800,
      "rial": 3801,
      "hire": 3802,
      "iner": 3803,
      "Ġdark": 3804,
      "Ġreve": 3805,
      "ĠSum": 3806,
      "bu": 3807,
      "ĠPlay": 3808,
      "34": 3809,
      "ressive": 3810,
      "Ġstock": 3811,
      "oke": 3812,
      "ota": 3813,
      "Ġteams": 3814,
      "Ġcreating": 3815,
      "Ð°": 3816,
      "Ġmas": 3817,
      "finitely": 3818,
      "Ġuses": 3819,
      "Ġphysical": 3820,
      "ION": 3821,
      ">(": 3822,
      "Ġdescribed": 3823,
      "90": 3824,
      "oles": 3825,
      "Ġbank": 3826,
      "Pe": 3827,
      "PS": 3828,
      "Ġnorth": 3829,
      "aught": 3830,
      "Ġindividuals": 3831,
      "Ġtow": 3832,
      "ĠJames": 3833,
      "Ġstories": 3834,
      "Ġgoals": 3835,
      "lymp": 3836,
      "Ġvac": 3837,
      "estival": 3838,
      "Ġapply": 3839,
      "Do": 3840,
      "Ġdied": 3841,
      "Ġcat": 3842,
      "Ġfrequ": 3843,
      "ĠEduc": 3844,
      "sey": 3845,
      "Ġpractic": 3846,
      "used": 3847,
      "xim": 3848,
      "Ġtic": 3849,
      "house": 3850,
      "Ġconver": 3851,
      "Ġcommercial": 3852,
      "Ġ2005": 3853,
      "Ġfirm": 3854,
      "Ġcarry": 3855,
      "Ġbeginning": 3856,
      "za": 3857,
      "Pl": 3858,
      "Ġinterview": 3859,
      "anish": 3860,
      "ĠLet": 3861,
      "ãģ": 3862,
      "Ġfamilies": 3863,
      "ements": 3864,
      "ffee": 3865,
      "Ġviol": 3866,
      "ĠBre": 3867,
      "lone": 3868,
      "Ġhi": 3869,
      "Ġfai": 3870,
      "ern": 3871,
      "Ġthinking": 3872,
      "Ġgets": 3873,
      "Ġtemper": 3874,
      "Ġasp": 3875,
      "mar": 3876,
      "Ġgas": 3877,
      "Ġproduced": 3878,
      "ĠEvery": 3879,
      "Ġspecies": 3880,
      "Ġalter": 3881,
      "Ġinterested": 3882,
      "Ġaware": 3883,
      "Ġcorrect": 3884,
      "Ġresponse": 3885,
      "ĠRepublic": 3886,
      "Ġdry": 3887,
      "set": 3888,
      "Ġpromo": 3889,
      "yn": 3890,
      "change": 3891,
      "Ġsce": 3892,
      "Ġblood": 3893,
      "Ġactivity": 3894,
      "ĠImp": 3895,
      "Ġcourt": 3896,
      "Ġvehicle": 3897,
      "ĠGerman": 3898,
      "Le": 3899,
      "ĠMount": 3900,
      "lit": 3901,
      "Ġload": 3902,
      "Ġblock": 3903,
      "Ġseven": 3904,
      "Ġstrateg": 3905,
      "Ġpor": 3906,
      "By": 3907,
      ">|-": 3908,
      "bra": 3909,
      "Ġwarm": 3910,
      "ĠJust": 3911,
      "ĠLife": 3912,
      "EO": 3913,
      "ĠGet": 3914,
      "mate": 3915,
      "ĠThen": 3916,
      ">-": 3917,
      "ĠCourt": 3918,
      "38": 3919,
      "vant": 3920,
      "ĠSing": 3921,
      "thes": 3922,
      "Ġcab": 3923,
      "Ġrock": 3924,
      "omb": 3925,
      "Ġball": 3926,
      "Ġcateg": 3927,
      "cription": 3928,
      "Ġhon": 3929,
      "more": 3930,
      "Ġavoid": 3931,
      "Ġcamer": 3932,
      "alley": 3933,
      "iling": 3934,
      "ĠFlor": 3935,
      "ĠSal": 3936,
      "Ġmoving": 3937,
      "Ġ2000": 3938,
      "Ġwrote": 3939,
      "ĠOver": 3940,
      "Ġwrong": 3941,
      "kend": 3942,
      "ĠResearch": 3943,
      "Ġrequest": 3944,
      "ashion": 3945,
      "nary": 3946,
      "Ġpurpose": 3947,
      "Ġstates": 3948,
      "amples": 3949,
      "ĠRoy": 3950,
      "mail": 3951,
      "ĠDesign": 3952,
      "Ġunit": 3953,
      "à¤": 3954,
      "Ġimplement": 3955,
      "Ġsn": 3956,
      "venue": 3957,
      "Ġ>": 3958,
      "Ġwoman": 3959,
      "Ġmessage": 3960,
      "Ġtrust": 3961,
      "bon": 3962,
      "Ġoccur": 3963,
      "Ġaim": 3964,
      "Ġsports": 3965,
      "Ġrace": 3966,
      "Ġdegree": 3967,
      "Ġshop": 3968,
      "Ġexpected": 3969,
      "Ġwife": 3970,
      "Ġasse": 3971,
      "TM": 3972,
      "Ġassess": 3973,
      "ãĤ": 3974,
      "Ġunderstanding": 3975,
      "Ġhour": 3976,
      "Ġmedic": 3977,
      "ĠWashington": 3978,
      "tives": 3979,
      "Ġtrade": 3980,
      "ĠGood": 3981,
      "Ġlargest": 3982,
      "ÌĦ": 3983,
      "37": 3984,
      "ura": 3985,
      "mitted": 3986,
      "ĠSupp": 3987,
      "Ġgrowing": 3988,
      "lock": 3989,
      "ĠMet": 3990,
      "Ġclient": 3991,
      "ĠLou": 3992,
      ",<": 3993,
      "ĠRich": 3994,
      "Ġcopy": 3995,
      "Ġbehavi": 3996,
      "Ġofficial": 3997,
      "ĠMal": 3998,
      "body": 3999,
      "ize": 4000,
      "itation": 4001,
      "rd": 4002,
      "reek": 4003,
      "ĠMem": 4004,
      "Ġhar": 4005,
      "Ġbrought": 4006,
      "Ġemployees": 4007,
      "Ġconsist": 4008,
      "Ġposted": 4009,
      "ĠPM": 4010,
      "Ġspent": 4011,
      "Ġheat": 4012,
      "Ġframe": 4013,
      "100": 4014,
      "aturday": 4015,
      "Ġfelt": 4016,
      "ategy": 4017,
      "Ġsl": 4018,
      "door": 4019,
      "ĠFacebook": 4020,
      "Ġfarm": 4021,
      "eless": 4022,
      "lections": 4023,
      "wide": 4024,
      "Ġadvant": 4025,
      "porate": 4026,
      "ĠPaul": 4027,
      "Ġbusinesses": 4028,
      "Ġfab": 4029,
      "bur": 4030,
      "Ġsurround": 4031,
      "Ġexerc": 4032,
      "ĠStar": 4033,
      "ĠChampions": 4034,
      "unt": 4035,
      "):": 4036,
      "Ġope": 4037,
      "ĠAM": 4038,
      "oss": 4039,
      "ĠClass": 4040,
      "65": 4041,
      "ĠFriday": 4042,
      "Ġsituation": 4043,
      "32": 4044,
      "oday": 4045,
      "ceed": 4046,
      "Ġneg": 4047,
      "Ġaccomp": 4048,
      "ĠBoard": 4049,
      "Ġentry": 4050,
      "Ġmilitary": 4051,
      "Ġsell": 4052,
      "American": 4053,
      "ĠAlso": 4054,
      "ĠTHE": 4055,
      "ously": 4056,
      "oted": 4057,
      "erap": 4058,
      "ado": 4059,
      "Ġphotograph": 4060,
      "ona": 4061,
      "Ġpictures": 4062,
      "Ġsleep": 4063,
      "Ġmovie": 4064,
      "range": 4065,
      "ghting": 4066,
      "vention": 4067,
      "pm": 4068,
      "Ġ31": 4069,
      "Ġlog": 4070,
      "Ġeconomic": 4071,
      "olute": 4072,
      "Fi": 4073,
      "Ġhttp": 4074,
      "ĠBook": 4075,
      "Ġdiag": 4076,
      "Ġblue": 4077,
      "ĠDiv": 4078,
      "native": 4079,
      "nner": 4080,
      "Ġdamage": 4081,
      "Ġhimself": 4082,
      "gins": 4083,
      "eces": 4084,
      "Ġtarget": 4085,
      "ĠBay": 4086,
      "Ġassociated": 4087,
      "Ġexam": 4088,
      "Ġeffects": 4089,
      "alized": 4090,
      "ĠCal": 4091,
      "ĠBec": 4092,
      "arian": 4093,
      "Ġnovel": 4094,
      "ĠMusic": 4095,
      "ĠMic": 4096,
      "antly": 4097,
      "ĠPhoto": 4098,
      "ĠQue": 4099,
      "ĠBur": 4100,
      "ield": 4101,
      "Ġpages": 4102,
      "Ġpolice": 4103,
      "ya": 4104,
      "Ġdifference": 4105,
      "Ġmission": 4106,
      "ĠSub": 4107,
      "ĠMary": 4108,
      "Ġhealthy": 4109,
      "ĠShi": 4110,
      "ĠVol": 4111,
      "Ġwonderful": 4112,
      "Ġanaly": 4113,
      "Ġalthough": 4114,
      "]<": 4115,
      "Ġmiles": 4116,
      "Ġdead": 4117,
      "asting": 4118,
      "Ġ@": 4119,
      "Ġminim": 4120,
      "ooth": 4121,
      "Ġeffort": 4122,
      "Ġhotel": 4123,
      "rel": 4124,
      "Ġspot": 4125,
      "raw": 4126,
      "Ġcandid": 4127,
      "Ġstructure": 4128,
      "Ġshown": 4129,
      "inc": 4130,
      "44": 4131,
      "Ġpressure": 4132,
      "Ġdedic": 4133,
      "De": 4134,
      "ĠParty": 4135,
      "Is": 4136,
      "asino": 4137,
      "Ġspirit": 4138,
      "Ġoffered": 4139,
      "Ġgift": 4140,
      "ĠDevelop": 4141,
      "Ġrev": 4142,
      "Ġfair": 4143,
      "Ġindust": 4144,
      "ĠThom": 4145,
      "Ġserve": 4146,
      "ĠEmp": 4147,
      "ĠRem": 4148,
      "ttps": 4149,
      "Ġinvestment": 4150,
      "stic": 4151,
      "ĠOffice": 4152,
      "ĠFore": 4153,
      "Ġtransport": 4154,
      "Ġpaid": 4155,
      "ĠBen": 4156,
      "Ġopportunities": 4157,
      "ĠIsland": 4158,
      "list": 4159,
      "file": 4160,
      "Ġmat": 4161,
      "Ġstuff": 4162,
      "Ġsurvi": 4163,
      "Ġban": 4164,
      "Ġsurface": 4165,
      "ĠManagement": 4166,
      "ĠDri": 4167,
      "Ġaccept": 4168,
      "Ġappropri": 4169,
      "Ġdog": 4170,
      "Ġpane": 4171,
      "Ġvo": 4172,
      "ĠWeb": 4173,
      "Ġeye": 4174,
      "unk": 4175,
      "ĠSpeci": 4176,
      "ala": 4177,
      "long": 4178,
      "itter": 4179,
      "ĠLake": 4180,
      "Ġlength": 4181,
      "ĠInstitute": 4182,
      "Ġchanged": 4183,
      "Ne": 4184,
      "Ġinternet": 4185,
      "Ġbasis": 4186,
      "Ġcompone": 4187,
      "Ġnote": 4188,
      "Ġmeaning": 4189,
      "Ìĥ": 4190,
      "ĠGerm": 4191,
      "Ġfinished": 4192,
      "EM": 4193,
      "55": 4194,
      "Ġoverall": 4195,
      "Ġmass": 4196,
      "ula": 4197,
      "ĠLove": 4198,
      "ĠSur": 4199,
      "Ġcharge": 4200,
      "Ġhighest": 4201,
      "Ġexactly": 4202,
      "ered": 4203,
      "Ġchem": 4204,
      "Ġdouble": 4205,
      "ĠThanks": 4206,
      "ĠSunday": 4207,
      "Ġprevent": 4208,
      "ĠStr": 4209,
      "ĠTexas": 4210,
      "Ġscienti": 4211,
      "Ġincreased": 4212,
      "Ð¸": 4213,
      "Ġ2004": 4214,
      "Ġbenefit": 4215,
      "Ġexist": 4216,
      "elp": 4217,
      "ano": 4218,
      "Ġbasic": 4219,
      "rab": 4220,
      "'d": 4221,
      "Ġbrow": 4222,
      "Ġenh": 4223,
      "ĠCup": 4224,
      "ĠCli": 4225,
      "asion": 4226,
      "Ġwait": 4227,
      "Ġran": 4228,
      "ĠFl": 4229,
      "essor": 4230,
      "ĠTy": 4231,
      "Ġdefinitely": 4232,
      "Ġfinally": 4233,
      "IP": 4234,
      "ĠAfrica": 4235,
      "Ġmaster": 4236,
      "Ġbeyond": 4237,
      "Ġfeet": 4238,
      "IG": 4239,
      "Ġdirector": 4240,
      "ĠDown": 4241,
      "ga": 4242,
      "Ġappre": 4243,
      "Ġhomes": 4244,
      "Ġresponsible": 4245,
      "ero": 4246,
      "Ġpremi": 4247,
      "ĠGi": 4248,
      "Ġtelevision": 4249,
      "fying": 4250,
      "Ġtried": 4251,
      "Ġlines": 4252,
      "ĠLoc": 4253,
      "Ġeat": 4254,
      "Ġepis": 4255,
      "Ġproced": 4256,
      "Ġarg": 4257,
      "Ġgirl": 4258,
      "liance": 4259,
      "Ġdemon": 4260,
      "Ġfem": 4261,
      "unic": 4262,
      "Ġho": 4263,
      "aled": 4264,
      "thle": 4265,
      "auty": 4266,
      "ancing": 4267,
      "see": 4268,
      "adian": 4269,
      "ĠPower": 4270,
      "Ġadverti": 4271,
      "Ġcyc": 4272,
      "isions": 4273,
      "Ġdemand": 4274,
      "Ġeyes": 4275,
      "Ġmaxim": 4276,
      "ĠProgram": 4277,
      "Ġsupply": 4278,
      "Ġadvice": 4279,
      "oma": 4280,
      "Ġimag": 4281,
      "ĠIS": 4282,
      "phone": 4283,
      "Ġjoi": 4284,
      "Ġbaby": 4285,
      "Ġden": 4286,
      "Ġheard": 4287,
      "Ġsty": 4288,
      "ĠReview": 4289,
      "fo": 4290,
      "Ġrates": 4291,
      "tor": 4292,
      "ĠTop": 4293,
      "ĠBi": 4294,
      "Ġmechan": 4295,
      "Ġchan": 4296,
      "Ġfollowed": 4297,
      "ĠInternet": 4298,
      "Ġjoin": 4299,
      "ĠFrance": 4300,
      "Ġmodels": 4301,
      "fit": 4302,
      "Ġsatis": 4303,
      "Ġparticularly": 4304,
      "Ġcash": 4305,
      "Ġsuffer": 4306,
      "Ġincreasing": 4307,
      "Ġcollabor": 4308,
      "ĠBr": 4309,
      "Ġdelivery": 4310,
      "CC": 4311,
      "ĠFound": 4312,
      "Ġemo": 4313,
      "ĠGeorge": 4314,
      "ĠAward": 4315,
      "Ġlack": 4316,
      "ets": 4317,
      "Ġpool": 4318,
      "ĠChristian": 4319,
      "ĠMany": 4320,
      "Ġoffering": 4321,
      "Ġcontro": 4322,
      "Ġfail": 4323,
      "Ġdisease": 4324,
      "ils": 4325,
      "place": 4326,
      "Ġprefer": 4327,
      "anta": 4328,
      "Ġnumbers": 4329,
      "ĠGre": 4330,
      "Ġannual": 4331,
      "Ġvillage": 4332,
      "Ġfurniture": 4333,
      "ĠCare": 4334,
      "ĠCong": 4335,
      "ĠSun": 4336,
      "Ġdevices": 4337,
      "31": 4338,
      "Ġemb": 4339,
      "ĠMer": 4340,
      "Ġbirths": 4341,
      "Ġpush": 4342,
      "Ġsmart": 4343,
      "ĠPart": 4344,
      "azine": 4345,
      "ĠPal": 4346,
      "Ġwasn": 4347,
      "Ġallowed": 4348,
      "Ġsav": 4349,
      "ĠJew": 4350,
      "logies": 4351,
      "Ġwedding": 4352,
      "Ġsaying": 4353,
      "enance": 4354,
      "ca": 4355,
      "ological": 4356,
      "ĠEngine": 4357,
      "ĠCre": 4358,
      "Ġturned": 4359,
      "ĠJesus": 4360,
      "Ġregarding": 4361,
      "Ġhop": 4362,
      "ĠEven": 4363,
      "Ġcampaign": 4364,
      "rie": 4365,
      "Ġgrand": 4366,
      "Ġreviews": 4367,
      "undred": 4368,
      "allery": 4369,
      "ĠÂ»": 4370,
      "aming": 4371,
      "ĠWater": 4372,
      "Ġsch": 4373,
      "Ġincome": 4374,
      "Ġopened": 4375,
      "cript": 4376,
      "Ġsetting": 4377,
      "Ġmeasure": 4378,
      "Ġmiddle": 4379,
      "Ġmetal": 4380,
      "ĠWindows": 4381,
      "Ġevidence": 4382,
      "ĠPublic": 4383,
      "ĠBlue": 4384,
      "alog": 4385,
      "asts": 4386,
      "Ġpaint": 4387,
      "force": 4388,
      "lla": 4389,
      "Ġder": 4390,
      "Ġmicro": 4391,
      "ulf": 4392,
      "Ġloved": 4393,
      "ĠSaturday": 4394,
      "Ġintel": 4395,
      "TS": 4396,
      "ivil": 4397,
      "Â®": 4398,
      "Ġimmediately": 4399,
      "hop": 4400,
      "Ġconsult": 4401,
      "bour": 4402,
      "acement": 4403,
      "isc": 4404,
      "Ġrules": 4405,
      "alid": 4406,
      "ĠIm": 4407,
      "Ġbio": 4408,
      "Ġhappen": 4409,
      "asy": 4410,
      "ĠCur": 4411,
      "Ġthous": 4412,
      "ĠPoli": 4413,
      "Ġreduce": 4414,
      "ĠDel": 4415,
      "Ġcontinued": 4416,
      "ĠCamp": 4417,
      "Ġrespond": 4418,
      "Ġexperienced": 4419,
      "ache": 4420,
      "ĠMex": 4421,
      "Ġexisting": 4422,
      "care": 4423,
      "ĠOb": 4424,
      "ĠEducation": 4425,
      "Ġmethods": 4426,
      "ĠHall": 4427,
      "Ġbackground": 4428,
      "Ġarchitect": 4429,
      "ÌĢ": 4430,
      "Ġbudget": 4431,
      "ideos": 4432,
      "LE": 4433,
      "uman": 4434,
      "apter": 4435,
      "IM": 4436,
      "Ġur": 4437,
      "Ġproduce": 4438,
      "Ġweather": 4439,
      "amin": 4440,
      "Ġbedroom": 4441,
      "Ġelectric": 4442,
      "ĠChinese": 4443,
      "acity": 4444,
      "hy": 4445,
      "Ġprimary": 4446,
      "Ġdistrict": 4447,
      "Ġcreative": 4448,
      "Ġbeach": 4449,
      "ĠFlorida": 4450,
      "Ġforce": 4451,
      "ĠWhe": 4452,
      "alists": 4453,
      "apers": 4454,
      "Ġestate": 4455,
      "nother": 4456,
      "ĠScience": 4457,
      "Ġexpand": 4458,
      "Ġdress": 4459,
      "198": 4460,
      "Ġship": 4461,
      "ĠPress": 4462,
      "Ġwild": 4463,
      "Ġafford": 4464,
      "ĠVir": 4465,
      "ĠAcadem": 4466,
      "Ġstress": 4467,
      "onday": 4468,
      "Ge": 4469,
      "ĠVal": 4470,
      "ĠSee": 4471,
      "ened": 4472,
      "Ġlisted": 4473,
      "yer": 4474,
      "ĠMad": 4475,
      "Ġhus": 4476,
      "Ġprotection": 4477,
      "ounds": 4478,
      "ĠHy": 4479,
      "berg": 4480,
      "Ġeasier": 4481,
      "ĠMichael": 4482,
      "ĠBank": 4483,
      "Ġcapt": 4484,
      "Ġnearly": 4485,
      "Ġhelped": 4486,
      "ĠInt": 4487,
      "ĠOther": 4488,
      "Ġble": 4489,
      "ĠLit": 4490,
      "Ġauth": 4491,
      "Ġessential": 4492,
      "01": 4493,
      "text": 4494,
      "95": 4495,
      "ĠWood": 4496,
      "Ġletter": 4497,
      "Ġcertainly": 4498,
      "ĠCentral": 4499,
      "arent": 4500,
      "Ġmovement": 4501,
      "Ġplus": 4502,
      "illing": 4503,
      "ix": 4504,
      "tro": 4505,
      "Ġuseful": 4506,
      "Ġcards": 4507,
      "istic": 4508,
      "Ġcontinu": 4509,
      "Ġhone": 4510,
      "Ġacadem": 4511,
      "Ġwhose": 4512,
      "48": 4513,
      "ĠEv": 4514,
      "century": 4515,
      "Ġjoined": 4516,
      "Ġweekend": 4517,
      "ĠGrand": 4518,
      "ĠIsra": 4519,
      "Ġlots": 4520,
      "encies": 4521,
      "aci": 4522,
      "Ġguaran": 4523,
      "That": 4524,
      "Ġtruly": 4525,
      "Ġfant": 4526,
      "ĠHam": 4527,
      "utri": 4528,
      "tree": 4529,
      "Ġearlier": 4530,
      "Ġaccur": 4531,
      "Ġreasons": 4532,
      "ĠBig": 4533,
      "Ġstraight": 4534,
      "bit": 4535,
      "Ġassi": 4536,
      "Ġcold": 4537,
      "Ġ2003": 4538,
      "alian": 4539,
      "Ġdaughter": 4540,
      "ĠAny": 4541,
      "ica": 4542,
      "Ġnar": 4543,
      "side": 4544,
      "ario": 4545,
      "ellow": 4546,
      "ĠSociety": 4547,
      "Ġlarger": 4548,
      "ped": 4549,
      "Ġintegr": 4550,
      "Ġwindow": 4551,
      "clusive": 4552,
      "ĠáĦ": 4553,
      "ranch": 4554,
      "Ġthanks": 4555,
      "ustice": 4556,
      "Ġperm": 4557,
      "ĠTour": 4558,
      "Ġsongs": 4559,
      "Ġpsych": 4560,
      "ĠGermany": 4561,
      "ums": 4562,
      "Ġselection": 4563,
      "ecting": 4564,
      "Ġpeace": 4565,
      "ĠTom": 4566,
      "Ġclaim": 4567,
      ">âĢ¢": 4568,
      "ĠChild": 4569,
      "Ph": 4570,
      "Ġgenerally": 4571,
      "ervation": 4572,
      "Ġgraph": 4573,
      "IV": 4574,
      "ads": 4575,
      "Ġpowerful": 4576,
      "Ġprotect": 4577,
      "ĠBas": 4578,
      "itiz": 4579,
      "ĠPlan": 4580,
      "Ġalone": 4581,
      "Ġing": 4582,
      "UR": 4583,
      "unte": 4584,
      "ĠTime": 4585,
      "usion": 4586,
      "77": 4587,
      "Ġopening": 4588,
      "Ġbathroom": 4589,
      "Ġstrategy": 4590,
      "Ġautomatic": 4591,
      "Ġsust": 4592,
      "ulty": 4593,
      "**": 4594,
      "Ġplane": 4595,
      "olar": 4596,
      "ĠUSA": 4597,
      "ĠJapan": 4598,
      "ĠUnder": 4599,
      "ĠIT": 4600,
      "well": 4601,
      "Ġplaced": 4602,
      "Ġkm": 4603,
      "Ġreports": 4604,
      "Ġpayment": 4605,
      "ĠKen": 4606,
      "ĠSam": 4607,
      "ĠCer": 4608,
      "Ġknew": 4609,
      "olic": 4610,
      "eles": 4611,
      "Ġlimit": 4612,
      ".âĢĿ<": 4613,
      "Ġabsolute": 4614,
      "Ġtraffic": 4615,
      "Ġartist": 4616,
      "Ġrich": 4617,
      "Ġbatter": 4618,
      "ĠPC": 4619,
      "Ġshot": 4620,
      "Ġsens": 4621,
      "state": 4622,
      "66": 4623,
      "ĠTor": 4624,
      "Ġcharacters": 4625,
      "Ġcancer": 4626,
      "Ġcontains": 4627,
      "Ġpm": 4628,
      "Ġviews": 4629,
      "Ġpull": 4630,
      "ĠUnion": 4631,
      "Ġgreater": 4632,
      "Ġbottom": 4633,
      "Ġnames": 4634,
      "Ġoffici": 4635,
      "Ġchallenge": 4636,
      "Ġcho": 4637,
      "ĠMicro": 4638,
      "ĠFil": 4639,
      "rugg": 4640,
      "umi": 4641,
      "ĠAlex": 4642,
      "bre": 4643,
      "Ġowner": 4644,
      "Ġcompetition": 4645,
      "Ġeval": 4646,
      "down": 4647,
      "Ġselect": 4648,
      "ĠSince": 4649,
      "Ġ80": 4650,
      ">Â": 4651,
      "Ġspread": 4652,
      "burg": 4653,
      "eal": 4654,
      "ĠWomen": 4655,
      "Ġhelping": 4656,
      "Ġorganizations": 4657,
      "standing": 4658,
      "Ġnotice": 4659,
      "Ġswitch": 4660,
      "ĠBel": 4661,
      "nded": 4662,
      "Ġsoft": 4663,
      "Ġmotor": 4664,
      "Ġcompared": 4665,
      ");": 4666,
      "Ġcoffee": 4667,
      "Ġagree": 4668,
      "Ġrepe": 4669,
      "Ġpoor": 4670,
      "Ġadop": 4671,
      "Ġselected": 4672,
      "ĠST": 4673,
      "Ġpresident": 4674,
      "ĠWal": 4675,
      "Ġappropriate": 4676,
      "esome": 4677,
      "ola": 4678,
      "Ġpark": 4679,
      "Ġpublish": 4680,
      "ĠDuring": 4681,
      "tag": 4682,
      "ĠBill": 4683,
      "Ġpatient": 4684,
      "ĠCath": 4685,
      "lan": 4686,
      "ady": 4687,
      "Ġtips": 4688,
      "Ġcomfortable": 4689,
      "OW": 4690,
      "Tr": 4691,
      "Ġextremely": 4692,
      "Ġpieces": 4693,
      "roid": 4694,
      "Ġreturned": 4695,
      "orial": 4696,
      "ĠSou": 4697,
      "ĠGlo": 4698,
      "ĠFranc": 4699,
      "Ġdat": 4700,
      "ĠDen": 4701,
      "box": 4702,
      "ĠRet": 4703,
      "ĠRock": 4704,
      "Ġjourney": 4705,
      "craft": 4706,
      "Ġcreat": 4707,
      "Ġcovered": 4708,
      "ĠMiss": 4709,
      "Ġnormal": 4710,
      "Ġconcept": 4711,
      "istor": 4712,
      "Ġvoice": 4713,
      "Ġsteps": 4714,
      "atin": 4715,
      "Ġgarden": 4716,
      "Ġoperations": 4717,
      "ulate": 4718,
      "Posted": 4719,
      "49": 4720,
      "Ġcomments": 4721,
      "Ġstic": 4722,
      "500": 4723,
      "ished": 4724,
      "rative": 4725,
      "Can": 4726,
      "ictor": 4727,
      "bes": 4728,
      "minal": 4729,
      "ĠOnline": 4730,
      "Se": 4731,
      "ĠRad": 4732,
      "Ġcapital": 4733,
      "alism": 4734,
      "ĠAp": 4735,
      "Ġhundred": 4736,
      "ĠJour": 4737,
      "emporary": 4738,
      "ĠDevelopment": 4739,
      "ĠOF": 4740,
      "Ġwine": 4741,
      "Ġjobs": 4742,
      "ĠSim": 4743,
      "Ġcelebr": 4744,
      "icians": 4745,
      "Ġlaws": 4746,
      "ĠTre": 4747,
      "Ġdoub": 4748,
      "akers": 4749,
      "Ġelements": 4750,
      "ĠRob": 4751,
      "Ġheavy": 4752,
      "ĠCus": 4753,
      "Ġmarried": 4754,
      "ste": 4755,
      "Ġconnection": 4756,
      "Ġcommunication": 4757,
      "entioned": 4758,
      "Ġsociety": 4759,
      "Some": 4760,
      "ĠWell": 4761,
      "Ġleader": 4762,
      "Ġmaybe": 4763,
      "Ġcritical": 4764,
      "ĠDirector": 4765,
      "Ġcry": 4766,
      "gious": 4767,
      "alls": 4768,
      "Ġitem": 4769,
      "rations": 4770,
      "Ġradio": 4771,
      "ĠOpen": 4772,
      "atever": 4773,
      "Ġmale": 4774,
      "Ġparties": 4775,
      "ĠEli": 4776,
      "ĠWed": 4777,
      "Ġhusband": 4778,
      "05": 4779,
      "Ġstatus": 4780,
      ".)": 4781,
      "itar": 4782,
      "night": 4783,
      "Ġstrugg": 4784,
      "AA": 4785,
      "Ġwants": 4786,
      "Ġeight": 4787,
      "Ġartists": 4788,
      "Ġpartner": 4789,
      "ĠCommit": 4790,
      "ĠVis": 4791,
      "47": 4792,
      "Ġforms": 4793,
      "Ġcast": 4794,
      "Ġinten": 4795,
      "matic": 4796,
      "Ġwear": 4797,
      "Ġperformed": 4798,
      "ĠEach": 4799,
      "Ġcombi": 4800,
      "Ġwai": 4801,
      "Ġteaching": 4802,
      "Ġbow": 4803,
      "Ġtechnical": 4804,
      "icago": 4805,
      "orrow": 4806,
      "lim": 4807,
      "Des": 4808,
      "ĠScot": 4809,
      "ĠWilliam": 4810,
      "Ġsteel": 4811,
      "issi": 4812,
      "ĠPeople": 4813,
      "Ġonto": 4814,
      "ĠDu": 4815,
      "Ġopini": 4816,
      "azon": 4817,
      "Ġunits": 4818,
      "ĠHill": 4819,
      "ĠOlymp": 4820,
      "Ġahead": 4821,
      "umber": 4822,
      "arge": 4823,
      "Ġ2002": 4824,
      "ĠMuseum": 4825,
      "Ġcounter": 4826,
      "Ġincor": 4827,
      "ĠGar": 4828,
      "Ġefforts": 4829,
      "Ġpresented": 4830,
      "Ġapproxim": 4831,
      "ĠMonday": 4832,
      "Ġtechno": 4833,
      "upp": 4834,
      "ograph": 4835,
      "Ġexhib": 4836,
      "\".<": 4837,
      "lip": 4838,
      "Ġtree": 4839,
      "ynam": 4840,
      "coming": 4841,
      "Ġmap": 4842,
      "MS": 4843,
      "Ġarrang": 4844,
      "erry": 4845,
      "Ġroof": 4846,
      "Ġadvanced": 4847,
      "sin": 4848,
      "iding": 4849,
      "Ġolder": 4850,
      "ĠLu": 4851,
      "Ġrelative": 4852,
      "ĠRoyal": 4853,
      "Ġdoll": 4854,
      "Ġsharing": 4855,
      "dd": 4856,
      "Ġ90": 4857,
      "Ġvolume": 4858,
      "Un": 4859,
      "Ġsort": 4860,
      "Ġsubst": 4861,
      "Ġcamera": 4862,
      "Ġrespect": 4863,
      "urt": 4864,
      "Ġcentral": 4865,
      "Ġadjust": 4866,
      "ena": 4867,
      "resp": 4868,
      "hol": 4869,
      "Ġelection": 4870,
      "Ġsecure": 4871,
      "roll": 4872,
      "ĠPR": 4873,
      "CH": 4874,
      "46": 4875,
      "Ġice": 4876,
      "ĠCr": 4877,
      "Ġideal": 4878,
      "Ġauto": 4879,
      "ulting": 4880,
      "Ġquarter": 4881,
      "Ġtherap": 4882,
      "ria": 4883,
      "Ġcommunities": 4884,
      "obile": 4885,
      "Ġslight": 4886,
      "acts": 4887,
      "ĠWork": 4888,
      "Ġ2001": 4889,
      "Ġpan": 4890,
      "ĠRoman": 4891,
      "Ġbillion": 4892,
      "osph": 4893,
      "Ġshared": 4894,
      "Ġthank": 4895,
      "ik": 4896,
      "Ġdriving": 4897,
      "Ġlif": 4898,
      "Ġconduc": 4899,
      "Ġchair": 4900,
      "ĠSil": 4901,
      "ĠAnn": 4902,
      "ye": 4903,
      "ĠAustralian": 4904,
      "Ġdedicated": 4905,
      "Ġune": 4906,
      "Ġcars": 4907,
      "Ġfear": 4908,
      "Ġsusp": 4909,
      "Ġrelax": 4910,
      "ulture": 4911,
      "Ġmemory": 4912,
      "ĠFur": 4913,
      "Ġstandards": 4914,
      "2018": 4915,
      "ĠList": 4916,
      "aven": 4917,
      "ented": 4918,
      "Ġmanufactur": 4919,
      "Ġcells": 4920,
      "cel": 4921,
      "Ġprincip": 4922,
      "Ġsweet": 4923,
      "lights": 4924,
      "nis": 4925,
      "She": 4926,
      "ouble": 4927,
      "ĠWill": 4928,
      "Ġrequires": 4929,
      "Ġtherefore": 4930,
      "Ġadvantage": 4931,
      "Ġlooked": 4932,
      "ĠAP": 4933,
      "ÌĮ": 4934,
      "ĠLord": 4935,
      "Ġsymp": 4936,
      "Ġ70": 4937,
      "Ġspring": 4938,
      "Ġeth": 4939,
      "Ġmanager": 4940,
      "Ġsigned": 4941,
      "Ġindependent": 4942,
      "ĠFre": 4943,
      "Ġdish": 4944,
      "Ġfat": 4945,
      "Ġvirt": 4946,
      "tainment": 4947,
      "ĠSpe": 4948,
      "ĠExp": 4949,
      "Ġalign": 4950,
      "Don": 4951,
      "ĠLand": 4952,
      "rag": 4953,
      "nger": 4954,
      "rant": 4955,
      "Pre": 4956,
      "Ġwinter": 4957,
      "Ġremain": 4958,
      "BA": 4959,
      "active": 4960,
      "ĠJose": 4961,
      "ĠAfrican": 4962,
      "Ġplants": 4963,
      "roy": 4964,
      "enture": 4965,
      "ĠWhy": 4966,
      "Cl": 4967,
      "Ġ...<": 4968,
      "teen": 4969,
      "Ġsolid": 4970,
      "ĠVer": 4971,
      "Ġ35": 4972,
      "Ġesc": 4973,
      "Ġvalues": 4974,
      "BS": 4975,
      "ĠSet": 4976,
      "Ġpassed": 4977,
      "Ġvan": 4978,
      "Ġbrain": 4979,
      "enting": 4980,
      "Ġmanage": 4981,
      "ros": 4982,
      "ĠCommunity": 4983,
      "Ġtechniques": 4984,
      "riter": 4985,
      "ĠBeach": 4986,
      "ui": 4987,
      "Ġpossib": 4988,
      "Ġcrush": 4989,
      "Ġexperiences": 4990,
      "Si": 4991,
      "soft": 4992,
      "ĠThank": 4993,
      "ĠMake": 4994,
      "with": 4995,
      "Ġsitu": 4996,
      "NA": 4997,
      "Ġformat": 4998,
      "Ġbutton": 4999,
      "Ġfacilities": 5000,
      "Ġfaith": 5001,
      "ĠOnce": 5002,
      "Ġaccep": 5003,
      "ĠTeam": 5004,
      "Ġcompet": 5005,
      "ĠBuild": 5006,
      "ĠGovernment": 5007,
      "Ġscore": 5008,
      "ĠReal": 5009,
      "Ġbecoming": 5010,
      "Ġfamous": 5011,
      "Ġresist": 5012,
      "oth": 5013,
      "ĠAdd": 5014,
      "Ġruns": 5015,
      "inger": 5016,
      "ĠJapanese": 5017,
      "RA": 5018,
      "Ġnumerous": 5019,
      "Ġfinding": 5020,
      "Ġincred": 5021,
      "Ġbag": 5022,
      "ĠIts": 5023,
      "Ġappreci": 5024,
      "enses": 5025,
      "Ġprepar": 5026,
      "Ġharm": 5027,
      "isco": 5028,
      "Ġdeveloping": 5029,
      "Ġdirection": 5030,
      "Ġearth": 5031,
      "Ġflex": 5032,
      "win": 5033,
      "These": 5034,
      "Ġrail": 5035,
      "Ġconference": 5036,
      "Ġupdate": 5037,
      "Ġmaintain": 5038,
      "ĠValley": 5039,
      "free": 5040,
      "Ġsand": 5041,
      "DA": 5042,
      "SS": 5043,
      "atre": 5044,
      "gency": 5045,
      "Ġseparate": 5046,
      "Ġattach": 5047,
      "hab": 5048,
      "cking": 5049,
      "Mar": 5050,
      "unning": 5051,
      "ĠCommittee": 5052,
      "Ġcheap": 5053,
      "unction": 5054,
      "ĠInformation": 5055,
      "Ġstatement": 5056,
      "Ġbra": 5057,
      "Ġdream": 5058,
      "ĠLear": 5059,
      "ĠWestern": 5060,
      "ups": 5061,
      "Ġphi": 5062,
      "ĠKore": 5063,
      "ĠMen": 5064,
      "78": 5065,
      "Ġloan": 5066,
      "actions": 5067,
      "Ġcapacity": 5068,
      "Ġremove": 5069,
      "ĠShow": 5070,
      "Ġretail": 5071,
      "Ġfriendly": 5072,
      "Ġmaintenance": 5073,
      "Ġbul": 5074,
      "tio": 5075,
      "Ġshopping": 5076,
      "Ġsyn": 5077,
      "Ġfigure": 5078,
      "Ġproperties": 5079,
      "Ġthus": 5080,
      "Ġclosed": 5081,
      "Ġadap": 5082,
      "Ġvoc": 5083,
      "Ġstreet": 5084,
      "ĠPr": 5085,
      "Res": 5086,
      "Ġfabric": 5087,
      "Please": 5088,
      "Ġsea": 5089,
      "friend": 5090,
      "ĠTwo": 5091,
      "http": 5092,
      "Ġoperating": 5093,
      "ĠCD": 5094,
      "Ġfashion": 5095,
      "Ġkept": 5096,
      "Ġserver": 5097,
      "Ġflav": 5098,
      "ĠHen": 5099,
      "ucky": 5100,
      "ĠRobert": 5101,
      "Ġtalking": 5102,
      "Ġvideos": 5103,
      "Ġshape": 5104,
      "ĠSmith": 5105,
      "08": 5106,
      "Ġperhaps": 5107,
      "td": 5108,
      "ĠAlthough": 5109,
      "Ġcolors": 5110,
      "Ġmine": 5111,
      "ĠArmy": 5112,
      "Ġorganis": 5113,
      "Ġdang": 5114,
      "ĠBal": 5115,
      "Ġhom": 5116,
      "Ġfan": 5117,
      "Ġir": 5118,
      "Ġclasses": 5119,
      "Ġholiday": 5120,
      "Ġactual": 5121,
      "Ġcaused": 5122,
      "Ġworkers": 5123,
      "Ġprec": 5124,
      "Ġremi": 5125,
      "Ġschedule": 5126,
      "osition": 5127,
      "Ġprote": 5128,
      "ĠCard": 5129,
      "ita": 5130,
      "Ġbuildings": 5131,
      "icks": 5132,
      "Ġactiv": 5133,
      "Now": 5134,
      "Ġinsp": 5135,
      "Ġdr": 5136,
      "istan": 5137,
      "II": 5138,
      "Ġmodi": 5139,
      "Ġcalc": 5140,
      "Ġoperation": 5141,
      "ĠTem": 5142,
      "Ġbecomes": 5143,
      "Ġrai": 5144,
      "Ġvs": 5145,
      "Ġchallenges": 5146,
      "OP": 5147,
      "Ġfederal": 5148,
      "edom": 5149,
      "ĠOffic": 5150,
      "Ġdesigns": 5151,
      "ĠSeries": 5152,
      "While": 5153,
      "Ġdetermine": 5154,
      "âĢĿ,": 5155,
      "Ġgun": 5156,
      "ĠIr": 5157,
      "ĠOld": 5158,
      "Ġinstr": 5159,
      "Ind": 5160,
      "Ġcatch": 5161,
      "ĠUse": 5162,
      "uled": 5163,
      "Ġrecords": 5164,
      "Ġmath": 5165,
      "rison": 5166,
      "Ġaudience": 5167,
      "ursday": 5168,
      "riage": 5169,
      "Ġthreat": 5170,
      "Ġprofessionals": 5171,
      "Ġpreviously": 5172,
      "Ġdrop": 5173,
      "Ġdriver": 5174,
      "Ġaren": 5175,
      "Ġpet": 5176,
      "Ġ2020": 5177,
      "Ġposts": 5178,
      "ĠDemoc": 5179,
      "Ġgirls": 5180,
      "People": 5181,
      "Ġtesting": 5182,
      "Ġlearned": 5183,
      "Ġclassic": 5184,
      "fast": 5185,
      "ordin": 5186,
      "ĠArts": 5187,
      "ĠFoundation": 5188,
      "Ġsets": 5189,
      "life": 5190,
      "Ġfactors": 5191,
      "Ġhandle": 5192,
      "ĠPan": 5193,
      "Ġexperts": 5194,
      "LC": 5195,
      "word": 5196,
      "Ġeconomy": 5197,
      "Ġfr": 5198,
      "ĠAcademy": 5199,
      "Ġrooms": 5200,
      "Me": 5201,
      "ĠGames": 5202,
      "Ġbalance": 5203,
      "ĠPeter": 5204,
      "ĠThomas": 5205,
      "west": 5206,
      "etry": 5207,
      "ĠTrump": 5208,
      "Ġdisp": 5209,
      "Ġremains": 5210,
      "Ġfans": 5211,
      "ĠTen": 5212,
      "Ġprogress": 5213,
      "Ġtit": 5214,
      "gia": 5215,
      "Ġfight": 5216,
      "02": 5217,
      "Ġmode": 5218,
      "04": 5219,
      "Ġseeing": 5220,
      "ĠLos": 5221,
      "Ġestim": 5222,
      "fini": 5223,
      "han": 5224,
      "ym": 5225,
      "ĠBack": 5226,
      "Ġessay": 5227,
      "ĠFood": 5228,
      "IA": 5229,
      "Ġpassion": 5230,
      "ĠLouis": 5231,
      "vest": 5232,
      "pid": 5233,
      "Ġsmaller": 5234,
      "cin": 5235,
      "Ġfal": 5236,
      "TH": 5237,
      "They": 5238,
      "da": 5239,
      "ĠCanadian": 5240,
      "Ġmajority": 5241,
      "ĠMill": 5242,
      "Ġmentioned": 5243,
      "Ġrecorded": 5244,
      "ĠTechnology": 5245,
      "09": 5246,
      "jo": 5247,
      "nton": 5248,
      "days": 5249,
      "ĠChicago": 5250,
      "Ġwinning": 5251,
      "olate": 5252,
      "Ġwww": 5253,
      "Ġseat": 5254,
      "Ġgather": 5255,
      "elli": 5256,
      "ĠMari": 5257,
      "Ġbreath": 5258,
      "ĠWall": 5259,
      "ĠBet": 5260,
      "Ġreality": 5261,
      "Ġsecret": 5262,
      "Ġtend": 5263,
      "64": 5264,
      "uesday": 5265,
      "roud": 5266,
      "Ġsources": 5267,
      "Ġrare": 5268,
      "ĠMat": 5269,
      "Ġobtain": 5270,
      "ãĥ": 5271,
      "From": 5272,
      "Ġtruth": 5273,
      "Ġtrai": 5274,
      "Ġteacher": 5275,
      "Ġconvers": 5276,
      "Ġcleaning": 5277,
      "Ġmissing": 5278,
      "road": 5279,
      "Ġsmooth": 5280,
      "ĠUs": 5281,
      "ĠCentre": 5282,
      "vince": 5283,
      "ĠSocial": 5284,
      "versi": 5285,
      "Ġgovern": 5286,
      "Ġappeared": 5287,
      "ĠProject": 5288,
      "ĠWil": 5289,
      "Ġwash": 5290,
      "Ġadvance": 5291,
      "Ġpractices": 5292,
      "Ġtrain": 5293,
      "ization": 5294,
      "ĠMass": 5295,
      "iled": 5296,
      "ĠAli": 5297,
      "Ġgone": 5298,
      "Ġresidents": 5299,
      "Ġpurs": 5300,
      ">*": 5301,
      "osen": 5302,
      "Ġtheme": 5303,
      "Ġpow": 5304,
      "Ġprepared": 5305,
      "Ġisland": 5306,
      "Ġsnow": 5307,
      "ĠLong": 5308,
      "Ġevening": 5309,
      "Ġeventually": 5310,
      "Ġregi": 5311,
      "ĠFamily": 5312,
      "IR": 5313,
      "Ġattrac": 5314,
      "can": 5315,
      "ligence": 5316,
      "kins": 5317,
      "reh": 5318,
      "Ġcoup": 5319,
      "ĠDivision": 5320,
      "uction": 5321,
      "Ġcrow": 5322,
      "ĠColor": 5323,
      "ĠHistory": 5324,
      "Ġfemale": 5325,
      "losoph": 5326,
      "ĠLim": 5327,
      "Ġapproximately": 5328,
      "Ġsenior": 5329,
      "Ġdisapp": 5330,
      "Ġdoctor": 5331,
      "asure": 5332,
      "07": 5333,
      "Ġcore": 5334,
      "icken": 5335,
      "Ġended": 5336,
      "reland": 5337,
      "Ġexpert": 5338,
      "mbly": 5339,
      "06": 5340,
      "aters": 5341,
      "Ġcy": 5342,
      "Ġtask": 5343,
      "Ġapplied": 5344,
      "Ġvote": 5345,
      "Ġwelcome": 5346,
      "Ġbird": 5347,
      "Ġcommand": 5348,
      "Ġce": 5349,
      "pet": 5350,
      "Ġdrug": 5351,
      "toms": 5352,
      "nesday": 5353,
      "Ġaccommod": 5354,
      "Ġreached": 5355,
      "Ġpolitic": 5356,
      "ĠSa": 5357,
      "uting": 5358,
      "rian": 5359,
      "Ġfunds": 5360,
      "ĠDet": 5361,
      "Ġdiscuss": 5362,
      "Ġconnected": 5363,
      "Ġcitiz": 5364,
      "ĠNY": 5365,
      "cean": 5366,
      "Ġgrant": 5367,
      "ba": 5368,
      "rable": 5369,
      "ĠMa": 5370,
      "Ġagreement": 5371,
      "Ġlandsc": 5372,
      "Ġintroduced": 5373,
      "itness": 5374,
      "ji": 5375,
      "Ġoutdoor": 5376,
      "gment": 5377,
      "Ġdepartment": 5378,
      "Ġcentre": 5379,
      "Ġcouldn": 5380,
      "Ġobj": 5381,
      "Ġreference": 5382,
      "ĠMont": 5383,
      "Ġleaving": 5384,
      "Ġalternative": 5385,
      "Ġtemperature": 5386,
      "Ġattemp": 5387,
      "Ġrelevant": 5388,
      "Ġbiggest": 5389,
      "ĠData": 5390,
      "Ġleadership": 5391,
      "Ġgain": 5392,
      "Ġhaven": 5393,
      "ĠToday": 5394,
      "Ġsurg": 5395,
      "ko": 5396,
      "ĠRussian": 5397,
      "Ġkeeping": 5398,
      "Ġwaste": 5399,
      "Ġbeauty": 5400,
      "ĠEnter": 5401,
      "Ġmedium": 5402,
      "ustr": 5403,
      "Ġotherwise": 5404,
      "oral": 5405,
      "Ġflat": 5406,
      "ÑĢ": 5407,
      "rete": 5408,
      "Ġbrother": 5409,
      "abase": 5410,
      "Ġexercise": 5411,
      "Ġoccup": 5412,
      "Ġsector": 5413,
      "Ġ45": 5414,
      "68": 5415,
      "Ġarticles": 5416,
      "unicip": 5417,
      "ĠMedia": 5418,
      "PA": 5419,
      "Ġstone": 5420,
      "Ġcalls": 5421,
      "Ġforeign": 5422,
      "olk": 5423,
      "OD": 5424,
      "Ġcities": 5425,
      "Ġ500": 5426,
      "Ġhappened": 5427,
      "bb": 5428,
      "Ġinstallation": 5429,
      "tu": 5430,
      "Ġmanaged": 5431,
      "Ġappears": 5432,
      "ĠElectr": 5433,
      "IF": 5434,
      "ooking": 5435,
      "Ġwriter": 5436,
      "lear": 5437,
      "Ġfill": 5438,
      "known": 5439,
      "âĢĿ.": 5440,
      "Ġoccasion": 5441,
      "ĠOper": 5442,
      "Ġdiet": 5443,
      "Ġwire": 5444,
      "Ġpackage": 5445,
      "ĠItalian": 5446,
      "ĠWho": 5447,
      "03": 5448,
      "Ġdistance": 5449,
      "ĠApple": 5450,
      "Ġadding": 5451,
      "Ġvision": 5452,
      "ĠAND": 5453,
      "uries": 5454,
      "nament": 5455,
      "ĠStand": 5456,
      "ĠMinister": 5457,
      "rier": 5458,
      "Ġshel": 5459,
      "color": 5460,
      "Ġinitial": 5461,
      "ĠMaster": 5462,
      "ette": 5463,
      "Ġprocessing": 5464,
      "Ġhab": 5465,
      "Ġingred": 5466,
      "Ġarm": 5467,
      "Ġformed": 5468,
      "Ġvolunte": 5469,
      "ĠPay": 5470,
      "lder": 5471,
      "Ġserving": 5472,
      "Ġchanging": 5473,
      "asc": 5474,
      "ENT": 5475,
      "ĠTheir": 5476,
      "Here": 5477,
      "Ġrestaurant": 5478,
      "ĠBecause": 5479,
      "but": 5480,
      "Ġanimals": 5481,
      "Ġraised": 5482,
      "ĠCheck": 5483,
      "mination": 5484,
      "Ġcloud": 5485,
      "Ġtheory": 5486,
      "ĠAv": 5487,
      "ultural": 5488,
      "ĠDig": 5489,
      "Your": 5490,
      "Ġwest": 5491,
      "allow": 5492,
      "ginia": 5493,
      "Ġcombination": 5494,
      "umn": 5495,
      "rap": 5496,
      "Ġpray": 5497,
      "ĠParis": 5498,
      "mond": 5499,
      "Ġbought": 5500,
      "Ġsquare": 5501,
      "Ġcompar": 5502,
      "ÑĤ": 5503,
      "Ġbuying": 5504,
      "ĠSqu": 5505,
      "Ġinfo": 5506,
      "Ġdepend": 5507,
      "Ġmostly": 5508,
      "Ġdocuments": 5509,
      "Ġtrail": 5510,
      "ĠLight": 5511,
      "cient": 5512,
      "how": 5513,
      "Ġcoverage": 5514,
      "Ġclaims": 5515,
      "has": 5516,
      "Ġrain": 5517,
      "ĠKingdom": 5518,
      "ĠFestival": 5519,
      "Ġdating": 5520,
      "aine": 5521,
      "ĠSummer": 5522,
      "Ġguests": 5523,
      "PR": 5524,
      "ĠHead": 5525,
      "Ġlabor": 5526,
      "Ð½": 5527,
      "eed": 5528,
      "Ġtran": 5529,
      "Ġwaiting": 5530,
      "Ġscene": 5531,
      "entially": 5532,
      "ĠSecurity": 5533,
      "Ġpresence": 5534,
      "..<": 5535,
      "Ġcris": 5536,
      "Ġleaves": 5537,
      "ĠAC": 5538,
      "olars": 5539,
      "Ġsustain": 5540,
      "Ġ1999": 5541,
      "sec": 5542,
      "Ġpair": 5543,
      "ĠFlo": 5544,
      "ĠMedic": 5545,
      "Ġvers": 5546,
      "Ñģ": 5547,
      "Ġforces": 5548,
      "tained": 5549,
      "plate": 5550,
      "ĠFind": 5551,
      "Ġprocesses": 5552,
      "Ġspi": 5553,
      "Sc": 5554,
      "Ġvisitors": 5555,
      "Ġmaximum": 5556,
      "Ġexclusive": 5557,
      "ĠFire": 5558,
      "ĠFrank": 5559,
      "aked": 5560,
      "azz": 5561,
      "ortunately": 5562,
      "Ġmist": 5563,
      "Ġteachers": 5564,
      "Ġregistered": 5565,
      "anda": 5566,
      "ĠWord": 5567,
      "vity": 5568,
      "Ġnotes": 5569,
      "Ġdie": 5570,
      "ĠTO": 5571,
      "Ġpersp": 5572,
      "ĠView": 5573,
      "Ġrepres": 5574,
      "Ġdesk": 5575,
      "ĠID": 5576,
      "Ġking": 5577,
      "quis": 5578,
      "ann": 5579,
      "Ġcultural": 5580,
      "Ġexplore": 5581,
      "Ġcontinues": 5582,
      "Ġlibrary": 5583,
      "Ġconfig": 5584,
      "utch": 5585,
      "Ġgrade": 5586,
      "Ġdom": 5587,
      "ĠEm": 5588,
      "ĠLike": 5589,
      "Ġshowing": 5590,
      "Ġnine": 5591,
      "Ġsoci": 5592,
      "ĠMarket": 5593,
      "ĠVictor": 5594,
      "âĢ²": 5595,
      "Ġforget": 5596,
      "ĠLead": 5597,
      "Ġpal": 5598,
      "ĠWin": 5599,
      "ucture": 5600,
      "ĠBud": 5601,
      "Ġbright": 5602,
      "ua": 5603,
      "Ġlux": 5604,
      "Ġconcent": 5605,
      "Ġfocused": 5606,
      "Ġsemi": 5607,
      "Ġextensive": 5608,
      "ĠGri": 5609,
      "tos": 5610,
      "ĠOrgan": 5611,
      "Ġcolour": 5612,
      "Ġplenty": 5613,
      "Ġjourn": 5614,
      "Ġcoast": 5615,
      "Ġselling": 5616,
      "owns": 5617,
      "Ġobvious": 5618,
      "Ġkilled": 5619,
      "ema": 5620,
      "Ġminute": 5621,
      "Ġtoward": 5622,
      "ĠThursday": 5623,
      "Ġnegative": 5624,
      "Ġhelpful": 5625,
      "Ġdest": 5626,
      "ficial": 5627,
      "Ġattempt": 5628,
      "yal": 5629,
      "Ġdining": 5630,
      "ailing": 5631,
      "Ġegg": 5632,
      "Ġcasino": 5633,
      "Ġcup": 5634,
      "Ġveget": 5635,
      "ratic": 5636,
      "58": 5637,
      "Ġengineering": 5638,
      "Ġexception": 5639,
      "Ġboy": 5640,
      "Ġthousands": 5641,
      "vo": 5642,
      "citing": 5643,
      "69": 5644,
      "Ġbrief": 5645,
      "ketball": 5646,
      "Ġguitar": 5647,
      "Ġcourses": 5648,
      "Ġ1990": 5649,
      "edy": 5650,
      "Ġlis": 5651,
      "Ġtot": 5652,
      "ĠZeal": 5653,
      "79": 5654,
      "onus": 5655,
      "OV": 5656,
      "rome": 5657,
      "Pri": 5658,
      "App": 5659,
      "Ġinjury": 5660,
      "Ġepisode": 5661,
      "Ġthrow": 5662,
      "Ġdistin": 5663,
      "42": 5664,
      "Ġmir": 5665,
      "59": 5666,
      "Ġtag": 5667,
      "ĠConference": 5668,
      "Ġwindows": 5669,
      "Ġhousehold": 5670,
      "ora": 5671,
      "aturing": 5672,
      "Bl": 5673,
      "Ġvalid": 5674,
      "Ġdecide": 5675,
      "Ġyouth": 5676,
      "Why": 5677,
      "Ġgeneration": 5678,
      "xi": 5679,
      "Ġpoly": 5680,
      "Ġfeatured": 5681,
      "titude": 5682,
      "Ġhyd": 5683,
      "Ġfacility": 5684,
      "nting": 5685,
      "ĠGir": 5686,
      "Ġflu": 5687,
      "ĠSol": 5688,
      "Ġlegis": 5689,
      "Ġine": 5690,
      "Living": 5691,
      "Ġelement": 5692,
      "Ġcop": 5693,
      "Ġcompl": 5694,
      "Ġhang": 5695,
      "ĠSecond": 5696,
      "water": 5697,
      "Ġlose": 5698,
      "lad": 5699,
      "ĠAL": 5700,
      "ĠFoot": 5701,
      "Ġminor": 5702,
      "Ġcream": 5703,
      "Ġfif": 5704,
      "ĠCall": 5705,
      "Ġsupported": 5706,
      "osting": 5707,
      "ilk": 5708,
      "olina": 5709,
      "avig": 5710,
      "iet": 5711,
      "ĠMedical": 5712,
      "Ġunf": 5713,
      "Ġfounded": 5714,
      "Ġidentify": 5715,
      "Ġrestric": 5716,
      "Ġinsi": 5717,
      "ĠCommission": 5718,
      "ĠEarth": 5719,
      "ĠSand": 5720,
      "Ġacqui": 5721,
      "ĠZealand": 5722,
      "Ġupgra": 5723,
      "ĠMexico": 5724,
      "Ġprofile": 5725,
      "Ġdestin": 5726,
      "illa": 5727,
      "ĠLab": 5728,
      "onom": 5729,
      "Ġeast": 5730,
      "Ġscale": 5731,
      "inet": 5732,
      "Ġthoughts": 5733,
      "AG": 5734,
      "Ġhospital": 5735,
      "Ġbattle": 5736,
      "Ġstated": 5737,
      "ĠTuesday": 5738,
      "Ġwhom": 5739,
      "Ġhappens": 5740,
      "Ġplays": 5741,
      "Ġuniversity": 5742,
      "Ġdeaths": 5743,
      "Ġvehicles": 5744,
      "Ġtrees": 5745,
      "Ġcorner": 5746,
      "Ġacademic": 5747,
      "ĭáħ": 5748,
      "Ġstarts": 5749,
      "astern": 5750,
      "Ġproud": 5751,
      "Ġbound": 5752,
      "nie": 5753,
      "Ġlocations": 5754,
      "Ġplastic": 5755,
      "loc": 5756,
      "Ġactions": 5757,
      "Ġswim": 5758,
      "lective": 5759,
      "rants": 5760,
      "Ġexchange": 5761,
      "Ġpolicies": 5762,
      "Ġtypically": 5763,
      "Ġdecisions": 5764,
      "Ġcritic": 5765,
      "Ġmarkets": 5766,
      "Ġsounds": 5767,
      "Ġbill": 5768,
      "iger": 5769,
      "Ġtopic": 5770,
      "eli": 5771,
      "Ġnutri": 5772,
      "Ġinfluence": 5773,
      "arp": 5774,
      "ĠAccording": 5775,
      "Ġrelationships": 5776,
      "Ġrule": 5777,
      "overy": 5778,
      "ĠExper": 5779,
      "Ġfourth": 5780,
      "Ġexpensive": 5781,
      "Ġcontr": 5782,
      "bec": 5783,
      "ients": 5784,
      "rey": 5785,
      "ocolate": 5786,
      "\":": 5787,
      "ĠAbout": 5788,
      "Ġneighbor": 5789,
      "oi": 5790,
      "Ġwhatever": 5791,
      "liament": 5792,
      "Ġtaste": 5793,
      "Ġowned": 5794,
      "Ġwebsites": 5795,
      "Ġshowed": 5796,
      "ĠJack": 5797,
      "Ġrespective": 5798,
      "Ġallowing": 5799,
      "Ġexec": 5800,
      "poration": 5801,
      "ĠUN": 5802,
      "Ġupdated": 5803,
      "Ġawesome": 5804,
      "Ġci": 5805,
      "Ġdemonstr": 5806,
      "Ġsequ": 5807,
      "Ġstudio": 5808,
      "FL": 5809,
      "acter": 5810,
      "ĠWednesday": 5811,
      "Ġcombined": 5812,
      "Ġrom": 5813,
      "ĠRoom": 5814,
      "ĠIreland": 5815,
      "ounting": 5816,
      "2019": 5817,
      "umni": 5818,
      "Ġcompreh": 5819,
      "ĠBrit": 5820,
      "tise": 5821,
      "Ġmort": 5822,
      "Ġinstalled": 5823,
      "ĠClick": 5824,
      "Ġlaunched": 5825,
      "poses": 5826,
      "Ġsat": 5827,
      "Ġcolle": 5828,
      "orter": 5829,
      "ja": 5830,
      "aks": 5831,
      "ĠPet": 5832,
      "Ġedge": 5833,
      "abilities": 5834,
      "orney": 5835,
      "Ġagency": 5836,
      "tified": 5837,
      "ĠSpanish": 5838,
      "ĠIde": 5839,
      "Ġroute": 5840,
      "Ġanswers": 5841,
      "Ġenvironmental": 5842,
      "67": 5843,
      "ĠCatholic": 5844,
      "ĠVirginia": 5845,
      "orough": 5846,
      "ĠSpring": 5847,
      "nson": 5848,
      "Ġinterior": 5849,
      "Ġcorporate": 5850,
      "Ġassistance": 5851,
      "Acc": 5852,
      "SP": 5853,
      "Ste": 5854,
      "ĠLtd": 5855,
      "Ġappearance": 5856,
      "Ġknows": 5857,
      "Ġthri": 5858,
      "outs": 5859,
      "prise": 5860,
      "Ġdespite": 5861,
      "Ġlived": 5862,
      "ĠHand": 5863,
      "ĠHotel": 5864,
      "Ġapart": 5865,
      "oney": 5866,
      "Ġriver": 5867,
      "zen": 5868,
      "ĠOri": 5869,
      "ĠCongress": 5870,
      "Ġsti": 5871,
      "gage": 5872,
      "Ġtransform": 5873,
      "ĠForm": 5874,
      "Ġcollect": 5875,
      "Ġguys": 5876,
      "Ġenjoyed": 5877,
      "ĠGuide": 5878,
      "ĠAngeles": 5879,
      "ersonal": 5880,
      "ĠGeor": 5881,
      "Ab": 5882,
      "Ġstores": 5883,
      "ĠAmazon": 5884,
      "ĠTown": 5885,
      "gned": 5886,
      "Ġdinner": 5887,
      "cons": 5888,
      "ĠâĢ¢": 5889,
      "Ġfees": 5890,
      "Ġski": 5891,
      "anent": 5892,
      "Ġfantastic": 5893,
      "Ġven": 5894,
      "Ġ1998": 5895,
      "cus": 5896,
      "Chi": 5897,
      "Ġhttps": 5898,
      "Ġstatis": 5899,
      "ĠHor": 5900,
      "Ġdetail": 5901,
      "Ġdesi": 5902,
      "Ġrecipe": 5903,
      "ticip": 5904,
      "Ġfuel": 5905,
      "Ġrecommended": 5906,
      "41": 5907,
      "ĠCharles": 5908,
      "Ġtransl": 5909,
      "Ġstrategies": 5910,
      "ĠRussia": 5911,
      "umin": 5912,
      "Ġexcited": 5913,
      "ĠTwitter": 5914,
      "ĠDan": 5915,
      "Ġdirected": 5916,
      "Thanks": 5917,
      ">[": 5918,
      "Ġguess": 5919,
      "uable": 5920,
      "ĠSecret": 5921,
      "fications": 5922,
      "43": 5923,
      "SA": 5924,
      "ĠPriv": 5925,
      "Ġefficient": 5926,
      "Ġaccident": 5927,
      "Ġride": 5928,
      "Ġinstruc": 5929,
      "Ġminimum": 5930,
      "Ġdeter": 5931,
      "Ġdynam": 5932,
      "amps": 5933,
      "ĠBrown": 5934,
      "Or": 5935,
      "ĠAsia": 5936,
      "Ġremoved": 5937,
      "Ġflight": 5938,
      "Man": 5939,
      "Ġamp": 5940,
      "idential": 5941,
      "ĠKar": 5942,
      "ĠIsrael": 5943,
      "Ġclimate": 5944,
      "Ġkid": 5945,
      "Ġcategory": 5946,
      "ĠCross": 5947,
      "orking": 5948,
      "Ġdetailed": 5949,
      "ĠLeg": 5950,
      "Ġju": 5951,
      "Ġfunding": 5952,
      "Get": 5953,
      "ĠMel": 5954,
      "Ġfilled": 5955,
      "Ġslightly": 5956,
      "Ġmur": 5957,
      "TC": 5958,
      "Ġwalking": 5959,
      "ĠBlog": 5960,
      "Ġworkshop": 5961,
      "comp": 5962,
      "tent": 5963,
      "rastr": 5964,
      "ohn": 5965,
      "istics": 5966,
      "orld": 5967,
      "Ġdump": 5968,
      "Ġspending": 5969,
      "alization": 5970,
      "Ġuns": 5971,
      "agement": 5972,
      "Ġpractical": 5973,
      "ĠLibrary": 5974,
      "Ac": 5975,
      "Ġsugar": 5976,
      "Ġsche": 5977,
      "rick": 5978,
      "Ġconcerns": 5979,
      "Ġtrial": 5980,
      "ĠWay": 5981,
      "ĠJud": 5982,
      "ĠAdmin": 5983,
      "Ġexplor": 5984,
      "Ġpurposes": 5985,
      "acific": 5986,
      "Ġcomponents": 5987,
      "Ġresponsibility": 5988,
      "Ġhonest": 5989,
      "ĠBlo": 5990,
      "ĠAnal": 5991,
      "ĠItaly": 5992,
      "Ġmental": 5993,
      "bsite": 5994,
      "ava": 5995,
      "Ġaudio": 5996,
      "estyle": 5997,
      "omestic": 5998,
      "apes": 5999,
      "alis": 6000,
      "ĠTimes": 6001,
      "Ġabsolutely": 6002,
      "Ġbrings": 6003,
      "Ġsettle": 6004,
      "57": 6005,
      "ĠCA": 6006,
      "stal": 6007,
      "Ġerror": 6008,
      "Vi": 6009,
      "encing": 6010,
      "Ġinternal": 6011,
      "Car": 6012,
      "Ġconflic": 6013,
      "ĠHave": 6014,
      "UN": 6015,
      "Ġfavour": 6016,
      "Ġpattern": 6017,
      "Ġfunctions": 6018,
      "Ġexciting": 6019,
      "Ġ32": 6020,
      "ager": 6021,
      "Ġshipping": 6022,
      "Ġinstit": 6023,
      "Ġclearly": 6024,
      "auce": 6025,
      "ĠHaw": 6026,
      "itors": 6027,
      "Ġjump": 6028,
      "Ġdance": 6029,
      "ĠSk": 6030,
      "las": 6031,
      "Ġelect": 6032,
      "Ġeating": 6033,
      "Not": 6034,
      "Ġtrading": 6035,
      "ĠJournal": 6036,
      "Ġhousing": 6037,
      "enni": 6038,
      "ĠAud": 6039,
      "eries": 6040,
      "ĠHear": 6041,
      "Ġbeat": 6042,
      "Ġhistorical": 6043,
      "Ġleads": 6044,
      "Ġwouldn": 6045,
      "Ġimportance": 6046,
      "hio": 6047,
      "Ġinspired": 6048,
      "Ġintended": 6049,
      "Ġdiscussion": 6050,
      "xy": 6051,
      "ĠConne": 6052,
      "ĠJun": 6053,
      "ounder": 6054,
      "Ġrub": 6055,
      "Ġcovers": 6056,
      "TV": 6057,
      "Bu": 6058,
      "Ġmenu": 6059,
      "ĠDownload": 6060,
      "SC": 6061,
      "aped": 6062,
      "Ġdiscovered": 6063,
      "Ġposs": 6064,
      "ĠFar": 6065,
      "Ġfle": 6066,
      "amond": 6067,
      "ĠCond": 6068,
      "Ġaspects": 6069,
      "Ġexpress": 6070,
      "Ġpanel": 6071,
      "Ġathle": 6072,
      "ĠRE": 6073,
      "Ġcontemporary": 6074,
      "Ġindustrial": 6075,
      "Ġshoo": 6076,
      "Ġoriginally": 6077,
      "Che": 6078,
      "which": 6079,
      "Qu": 6080,
      "LA": 6081,
      "ography": 6082,
      "ĠMiddle": 6083,
      "Ġmanner": 6084,
      "Ġton": 6085,
      "Co": 6086,
      "Ġleague": 6087,
      "Ġwilling": 6088,
      "Ġadministration": 6089,
      "Ġlock": 6090,
      "Ġproperly": 6091,
      "ĠPub": 6092,
      "ĠSar": 6093,
      "ĠMP": 6094,
      "56": 6095,
      "Ġworry": 6096,
      "Ġlovely": 6097,
      "what": 6098,
      "Ġhouses": 6099,
      "rup": 6100,
      "Ġspecifically": 6101,
      "Ġdoors": 6102,
      "ĠEconom": 6103,
      "ey": 6104,
      "rich": 6105,
      "rs": 6106,
      "ols": 6107,
      "Ġmeant": 6108,
      "Ġvic": 6109,
      "lecting": 6110,
      "aser": 6111,
      "dis": 6112,
      "olog": 6113,
      "Ġcircum": 6114,
      "ĠGal": 6115,
      "ĠFund": 6116,
      "rees": 6117,
      "Ġrelie": 6118,
      "Ġbelong": 6119,
      "Ġseconds": 6120,
      "lots": 6121,
      "ĠCarolina": 6122,
      "nels": 6123,
      "ao": 6124,
      "Ġiron": 6125,
      "met": 6126,
      "Ġeditor": 6127,
      "Ġsurvey": 6128,
      "Ġopinion": 6129,
      "Ġfellow": 6130,
      "ĠIP": 6131,
      "Ġrise": 6132,
      "idden": 6133,
      "luding": 6134,
      "Ġunless": 6135,
      "nings": 6136,
      "Ġseek": 6137,
      "ensus": 6138,
      "ĠCat": 6139,
      "ucks": 6140,
      "timi": 6141,
      "Rec": 6142,
      "agra": 6143,
      "Ġnet": 6144,
      "ĠRev": 6145,
      "ĠHuman": 6146,
      "Ġsuitable": 6147,
      "Ġgoods": 6148,
      "rating": 6149,
      "Ġpromote": 6150,
      "ĠGame": 6151,
      "tore": 6152,
      "yan": 6153,
      "Ġcarried": 6154,
      "Ġdebut": 6155,
      "!!<": 6156,
      "ĠNetwork": 6157,
      "rastructure": 6158,
      "Col": 6159,
      "ĠSof": 6160,
      "nim": 6161,
      "llo": 6162,
      "ml": 6163,
      "Ġsuggest": 6164,
      "Ġprop": 6165,
      "Ġtechnologies": 6166,
      "Ġring": 6167,
      "Ġdecl": 6168,
      "eri": 6169,
      "ĠArab": 6170,
      "Ġben": 6171,
      "ĠPack": 6172,
      "tons": 6173,
      "Ġnoted": 6174,
      "ĠAdv": 6175,
      "Ġdrink": 6176,
      "via": 6177,
      "ĠWild": 6178,
      "respond": 6179,
      "ĠMid": 6180,
      "ĠOrder": 6181,
      "lyn": 6182,
      "Cont": 6183,
      "Ì§": 6184,
      "Ġ1980": 6185,
      "istr": 6186,
      "Ġaffordable": 6187,
      "Ġfruit": 6188,
      "Ġautomatically": 6189,
      "ĠRegion": 6190,
      "Ġbattery": 6191,
      "Ġwatching": 6192,
      "ĠBoth": 6193,
      "Ġanimal": 6194,
      "ĠAff": 6195,
      "Ġcommitted": 6196,
      "ĠHistor": 6197,
      "Ġprovider": 6198,
      "ĠRichard": 6199,
      "Ġtro": 6200,
      "Ġthick": 6201,
      "Ġextend": 6202,
      "flow": 6203,
      "Ġpurchased": 6204,
      "ĠGlobal": 6205,
      "add": 6206,
      "Ġlunch": 6207,
      "Ġagent": 6208,
      "Ġcompetitive": 6209,
      "ustin": 6210,
      "----": 6211,
      "car": 6212,
      "ĠNE": 6213,
      "Ġlap": 6214,
      "higan": 6215,
      "ĠSpecial": 6216,
      "cont": 6217,
      "Ġbusy": 6218,
      "Ġsilver": 6219,
      "ension": 6220,
      "ĠEnd": 6221,
      "goti": 6222,
      "Ġpitch": 6223,
      "essional": 6224,
      "ĠBed": 6225,
      "Ġeducational": 6226,
      "ictory": 6227,
      "98": 6228,
      "oston": 6229,
      "Ġapproved": 6230,
      "ibility": 6231,
      "Ġdelivered": 6232,
      "ĠFort": 6233,
      "fficient": 6234,
      "Ġwriters": 6235,
      "Ġdebt": 6236,
      "agram": 6237,
      "idents": 6238,
      "Ġcontain": 6239,
      "utter": 6240,
      "TA": 6241,
      "Ġputting": 6242,
      "Ġexcept": 6243,
      "rics": 6244,
      "chester": 6245,
      "ĠMicrosoft": 6246,
      "Ġcomprehensive": 6247,
      "ĠLine": 6248,
      "itable": 6249,
      "Fo": 6250,
      "ĠInf": 6251,
      "Ġappointed": 6252,
      "ĠOnly": 6253,
      "ĠOR": 6254,
      "gor": 6255,
      "Ġdepending": 6256,
      "ĠMax": 6257,
      "point": 6258,
      "tan": 6259,
      "ĠJim": 6260,
      "Ġrid": 6261,
      "Phone": 6262,
      "MA": 6263,
      "ĠYes": 6264,
      "Ġlights": 6265,
      "Ġsubsequ": 6266,
      "Ġmeasures": 6267,
      "Ġdistribution": 6268,
      "Ġ1997": 6269,
      "EE": 6270,
      "Ġmotiv": 6271,
      "lia": 6272,
      "ĠChampionship": 6273,
      "History": 6274,
      "Ġproposed": 6275,
      "Ġrow": 6276,
      "Ġrapid": 6277,
      "ĠTake": 6278,
      "Ĥ¬": 6279,
      "Ġremaining": 6280,
      "entic": 6281,
      "FC": 6282,
      "Ġawarded": 6283,
      "tial": 6284,
      "ĠLuc": 6285,
      "oub": 6286,
      "Ġingredients": 6287,
      "Ġarrived": 6288,
      "Ġcreation": 6289,
      "Di": 6290,
      "ĠWeek": 6291,
      "Ġpainting": 6292,
      "merce": 6293,
      "Ġ300": 6294,
      "ĠMil": 6295,
      "76": 6296,
      "Ġreplaced": 6297,
      "Ġenhance": 6298,
      "Ġexamples": 6299,
      "2017": 6300,
      "ĠON": 6301,
      "UT": 6302,
      "ĠCri": 6303,
      "prene": 6304,
      "Ġadvertising": 6305,
      "ĠHD": 6306,
      "oner": 6307,
      "ĠMartin": 6308,
      "Ġissued": 6309,
      "Ġvir": 6310,
      "Ġfailed": 6311,
      "Ġsister": 6312,
      "bing": 6313,
      "ican": 6314,
      "ĠDev": 6315,
      "Ġmagazine": 6316,
      "utor": 6317,
      "crip": 6318,
      "Ġconnec": 6319,
      "Ġcontext": 6320,
      "Ġacces": 6321,
      "Ġ1996": 6322,
      "Ø§": 6323,
      "Ġbond": 6324,
      "Ġinspiration": 6325,
      "onto": 6326,
      "Ġaccounts": 6327,
      "ĠSports": 6328,
      "Ġsides": 6329,
      "pher": 6330,
      "oking": 6331,
      "utation": 6332,
      "ĠFull": 6333,
      "Eng": 6334,
      "umes": 6335,
      "Ġelectronic": 6336,
      "Ġdecre": 6337,
      "struction": 6338,
      "nch": 6339,
      "gas": 6340,
      "ĠCra": 6341,
      "ĠMos": 6342,
      "lipp": 6343,
      "ĠEr": 6344,
      "Ġsubmit": 6345,
      "ĠBow": 6346,
      "Ġtherapy": 6347,
      "Ġadults": 6348,
      "ĠHu": 6349,
      "Ġflowers": 6350,
      "Ġcrew": 6351,
      "Ġagg": 6352,
      "aniel": 6353,
      "May": 6354,
      "ĠLast": 6355,
      "Ġfields": 6356,
      "ĠCoast": 6357,
      "weight": 6358,
      "Ġdatabase": 6359,
      "Ġrank": 6360,
      "Ġjoint": 6361,
      "anna": 6362,
      "Ġguy": 6363,
      "fted": 6364,
      "ĠColumb": 6365,
      "ĠUl": 6366,
      "Ġexpression": 6367,
      "Ġreduced": 6368,
      "itage": 6369,
      "tough": 6370,
      ">>": 6371,
      "ections": 6372,
      "foli": 6373,
      "osite": 6374,
      "edi": 6375,
      "Ġreaders": 6376,
      "ĠYOU": 6377,
      "Ġvisiting": 6378,
      "Ġelected": 6379,
      "ĠMur": 6380,
      "vy": 6381,
      "Ġemergency": 6382,
      "Ġpossibly": 6383,
      "Ġresource": 6384,
      "ronic": 6385,
      "ĠMachi": 6386,
      "Ġkill": 6387,
      "Ġreb": 6388,
      "ĠChief": 6389,
      "Ġobject": 6390,
      "Ġdeals": 6391,
      "ĠRail": 6392,
      "Ġroll": 6393,
      "Ġkit": 6394,
      "Ġfixed": 6395,
      "Ġinstance": 6396,
      "Ġprepare": 6397,
      "reprene": 6398,
      "ĠLive": 6399,
      "Ġexpertise": 6400,
      "Ġsample": 6401,
      "Ġevalu": 6402,
      "oga": 6403,
      "ĠHi": 6404,
      "odies": 6405,
      "CA": 6406,
      "quid": 6407,
      "Ġprim": 6408,
      "sitive": 6409,
      "áħ¡": 6410,
      "lined": 6411,
      "ectives": 6412,
      "ĠSho": 6413,
      "Ġboat": 6414,
      "Ġalle": 6415,
      "Ġreligious": 6416,
      "hand": 6417,
      "ĠControl": 6418,
      "Ġelimin": 6419,
      "ĠAwards": 6420,
      "ĠEs": 6421,
      "Ġchannel": 6422,
      "gets": 6423,
      "Ġresol": 6424,
      "Ġdefini": 6425,
      "osit": 6426,
      "din": 6427,
      "Ġshower": 6428,
      "Ġinterests": 6429,
      "ansas": 6430,
      "ĠLee": 6431,
      "Ġadult": 6432,
      "under": 6433,
      "Ġphilosoph": 6434,
      "tery": 6435,
      "ĠSimp": 6436,
      "Ġparking": 6437,
      "ĠManager": 6438,
      "Ġbehavior": 6439,
      "Ġcalling": 6440,
      "tub": 6441,
      "Ġaffect": 6442,
      "mile": 6443,
      "gers": 6444,
      "Ġcitizens": 6445,
      "Ġsurrounding": 6446,
      "eper": 6447,
      "Thank": 6448,
      "fs": 6449,
      "bl": 6450,
      "ospit": 6451,
      "Ġtough": 6452,
      "Ġbrands": 6453,
      "gie": 6454,
      "Ġclinical": 6455,
      "Ġguest": 6456,
      "ðŁ": 6457,
      "Ġorders": 6458,
      "Ġdelicious": 6459,
      "Ġinnovative": 6460,
      "Ġmention": 6461,
      "ĠCab": 6462,
      "alities": 6463,
      "Ġreliable": 6464,
      "Ġcas": 6465,
      "Ġtests": 6466,
      "ina": 6467,
      "First": 6468,
      "Ġtea": 6469,
      "Ġparticipants": 6470,
      "atterns": 6471,
      "ishing": 6472,
      "ĠDie": 6473,
      "Ġbegins": 6474,
      "bury": 6475,
      "Ġstars": 6476,
      "igration": 6477,
      "Ġfeedback": 6478,
      "Ġholding": 6479,
      "tist": 6480,
      "ĠCost": 6481,
      "Ġstret": 6482,
      "uses": 6483,
      "Ġaccepted": 6484,
      "ĠCy": 6485,
      "Ġfactor": 6486,
      "xp": 6487,
      "lication": 6488,
      "Ġstations": 6489,
      "ĠLittle": 6490,
      "Ġweap": 6491,
      "Ġupdates": 6492,
      "Ġhearing": 6493,
      "ĠPremi": 6494,
      "54": 6495,
      "Ġsurgery": 6496,
      "ĠMas": 6497,
      "ĠJersey": 6498,
      "Ġimproved": 6499,
      "Ġgreatest": 6500,
      "Ġfailure": 6501,
      "Ġchosen": 6502,
      "ĠFer": 6503,
      "bar": 6504,
      "related": 6505,
      "ĠYoung": 6506,
      "Ġconfir": 6507,
      "isters": 6508,
      "52": 6509,
      "CE": 6510,
      "abled": 6511,
      "Ġmusical": 6512,
      "ime": 6513,
      "Ġconstruc": 6514,
      "Ġlabel": 6515,
      "Ġourselves": 6516,
      "Ġupper": 6517,
      "Ġtotally": 6518,
      "Ġchoices": 6519,
      "ĠFilm": 6520,
      "Ġofficer": 6521,
      "Ġ48": 6522,
      "Ġentered": 6523,
      "Ġdepart": 6524,
      "Ġmouth": 6525,
      "opyright": 6526,
      "Ġwalls": 6527,
      "Up": 6528,
      "lind": 6529,
      "Ġaid": 6530,
      "Ġlicense": 6531,
      "Ġvary": 6532,
      "Ġexecutive": 6533,
      "Ġencourage": 6534,
      "ĠAndroid": 6535,
      "thi": 6536,
      "tun": 6537,
      "Ġregional": 6538,
      "oor": 6539,
      "ĠKnow": 6540,
      "Ġfly": 6541,
      "Go": 6542,
      "Ġmuseum": 6543,
      "Ġrear": 6544,
      "Ġscientific": 6545,
      "ĠNight": 6546,
      "Ġcauses": 6547,
      "rors": 6548,
      "unting": 6549,
      "ĠKi": 6550,
      "ĠBob": 6551,
      "Ġremote": 6552,
      "Ġ188": 6553,
      "rin": 6554,
      "noon": 6555,
      "Ġnotic": 6556,
      "Ġattended": 6557,
      "Ġasking": 6558,
      "endar": 6559,
      "Ġsport": 6560,
      "Ġsupporting": 6561,
      "ths": 6562,
      "Ġdetermined": 6563,
      "Ġfeaturing": 6564,
      "telling": 6565,
      "Ġfaster": 6566,
      "Ġpermanent": 6567,
      "Ġnative": 6568,
      "SE": 6569,
      "rings": 6570,
      "Ġpump": 6571,
      "Ġexperiment": 6572,
      "Ġanywhere": 6573,
      "Ġtu": 6574,
      "ĠAsh": 6575,
      "Ġsigns": 6576,
      "ĠRights": 6577,
      "53": 6578,
      "Ġchampions": 6579,
      "ĠAuthor": 6580,
      "away": 6581,
      "Ġannounce": 6582,
      "51": 6583,
      "Ġconfidence": 6584,
      "lications": 6585,
      "Ġrang": 6586,
      "Ġmarriage": 6587,
      "ĠCH": 6588,
      "ĠContact": 6589,
      "ĠPolicy": 6590,
      "mosph": 6591,
      "Ġsymb": 6592,
      "Ġtickets": 6593,
      "ĠTable": 6594,
      "Ġaircraft": 6595,
      "Ġspeech": 6596,
      "ĠWilliams": 6597,
      "ĠChair": 6598,
      "Ġextended": 6599,
      "More": 6600,
      "Ġcounty": 6601,
      "fra": 6602,
      "lis": 6603,
      "Ġrot": 6604,
      "timately": 6605,
      "ĠChildren": 6606,
      "Ġmountain": 6607,
      "ulous": 6608,
      "Ġfreedom": 6609,
      "ĠSite": 6610,
      "Ġvisual": 6611,
      "ole": 6612,
      "aching": 6613,
      "eding": 6614,
      "Ġadvis": 6615,
      "ĠNorthern": 6616,
      "Ġneighborhood": 6617,
      "Ġdiscount": 6618,
      "Ġplanned": 6619,
      "gend": 6620,
      "Ġdesire": 6621,
      "Ġraise": 6622,
      "Ġidentified": 6623,
      "ds": 6624,
      "taught": 6625,
      "Ġchief": 6626,
      "Ġchain": 6627,
      "Uni": 6628,
      "ĠBraz": 6629,
      "Ġnewsp": 6630,
      "Ġwheel": 6631,
      "ĠOk": 6632,
      "acle": 6633,
      "Ġtopics": 6634,
      ";<": 6635,
      "ĠForce": 6636,
      "ĠMichigan": 6637,
      "Ġemployee": 6638,
      "Ġresolution": 6639,
      "Ġaffili": 6640,
      "ĠSouthern": 6641,
      "Ġcharges": 6642,
      "align": 6643,
      "Ġancient": 6644,
      "ĠVideo": 6645,
      "Ġmanufacturing": 6646,
      "Ġsettings": 6647,
      "GB": 6648,
      "cur": 6649,
      "Med": 6650,
      "Ġlighting": 6651,
      "Ġportion": 6652,
      "tric": 6653,
      "Ġreplacement": 6654,
      "bration": 6655,
      "Ġ1970": 6656,
      "Ġnone": 6657,
      "ĠSwed": 6658,
      "osh": 6659,
      "Ġ36": 6660,
      "Ġbringing": 6661,
      "ĠMu": 6662,
      "Ġ1995": 6663,
      "ĠAD": 6664,
      "Ġforced": 6665,
      "ĠDub": 6666,
      "Ġign": 6667,
      "llowing": 6668,
      "Ġprotei": 6669,
      "Ġtrave": 6670,
      "Ġdogs": 6671,
      "Ġofficials": 6672,
      "ĠVan": 6673,
      "Ġproviders": 6674,
      "urn": 6675,
      "Ġconsequ": 6676,
      "Ġprotein": 6677,
      "Ġpra": 6678,
      "VD": 6679,
      "oni": 6680,
      "ĠHard": 6681,
      "rence": 6682,
      "ĠRecords": 6683,
      "aire": 6684,
      "Ġseeking": 6685,
      "ĠHospital": 6686,
      "Ġmonthly": 6687,
      "orry": 6688,
      "ĠEnergy": 6689,
      "Ġbroken": 6690,
      "Ġcivil": 6691,
      "ĠAirport": 6692,
      "Ġinstitutions": 6693,
      "Ġoptim": 6694,
      "Ġcorrespond": 6695,
      "Ġexplain": 6696,
      "ĠAri": 6697,
      "Ġconducted": 6698,
      "Ġdrivers": 6699,
      "ackson": 6700,
      "never": 6701,
      "ores": 6702,
      "Ġfilter": 6703,
      "ĠRel": 6704,
      "Ġneck": 6705,
      "Ġregularly": 6706,
      "Ġsole": 6707,
      "ĠNOT": 6708,
      "ĠNC": 6709,
      ">â": 6710,
      "72": 6711,
      "Ġguarantee": 6712,
      "trib": 6713,
      "reme": 6714,
      "Ġdefined": 6715,
      "Ġpul": 6716,
      "Ġtwice": 6717,
      "Ġborder": 6718,
      "ĠAR": 6719,
      "Ġseemed": 6720,
      "iano": 6721,
      "ĠIran": 6722,
      "Ġrob": 6723,
      "Ġconduct": 6724,
      "oul": 6725,
      "lets": 6726,
      "Ġenable": 6727,
      "Ġfeels": 6728,
      "aning": 6729,
      "Ġcircumst": 6730,
      "Ġeffectively": 6731,
      "ĠThi": 6732,
      "ĠBoston": 6733,
      "Ġstick": 6734,
      "Ġcru": 6735,
      "orders": 6736,
      "Ġconsumer": 6737,
      "ival": 6738,
      "Ġpic": 6739,
      "Ġstructures": 6740,
      "Ġmedicine": 6741,
      "ĠEp": 6742,
      "Ġscored": 6743,
      "Ġwid": 6744,
      "Ġwinner": 6745,
      "ĠCast": 6746,
      "Ġfu": 6747,
      "Ġfamiliar": 6748,
      "Ġarchitecture": 6749,
      "Ġrestaurants": 6750,
      "Par": 6751,
      "vania": 6752,
      "ĠHenry": 6753,
      "Ġdecades": 6754,
      "Ġsitting": 6755,
      "ĠFootball": 6756,
      "Ġil": 6757,
      "Ġdomain": 6758,
      "ĠArea": 6759,
      "Loc": 6760,
      "ĠClo": 6761,
      "ĠTraining": 6762,
      "Ġbutter": 6763,
      "tables": 6764,
      "Ġperspective": 6765,
      "à¸": 6766,
      "Ġends": 6767,
      "Ġconsumers": 6768,
      "Ġvaluable": 6769,
      "Ġholds": 6770,
      "Ġreceiving": 6771,
      "oration": 6772,
      "ĠSea": 6773,
      "Â°": 6774,
      "alled": 6775,
      "ĠSaint": 6776,
      "Ġsurf": 6777,
      "Ġbonus": 6778,
      "ĠPlus": 6779,
      "Ġarts": 6780,
      "Tra": 6781,
      "Ġreplace": 6782,
      "Ġdestroy": 6783,
      "war": 6784,
      "PC": 6785,
      "Ġamb": 6786,
      "74": 6787,
      "Ġtaught": 6788,
      "Ġpositions": 6789,
      "Ġstanding": 6790,
      "ctic": 6791,
      "irty": 6792,
      "Ġsac": 6793,
      "fting": 6794,
      "nery": 6795,
      "Ð¾Ð": 6796,
      "ĠThrough": 6797,
      "Ear": 6798,
      "Ġdoubt": 6799,
      "ĠVill": 6800,
      "ĠAccess": 6801,
      "Ġinstructions": 6802,
      "Ġnearby": 6803,
      "ĠDigital": 6804,
      "ĠGene": 6805,
      "ĠWhether": 6806,
      "Ġsignal": 6807,
      "date": 6808,
      "ĠWorks": 6809,
      "Ġmeal": 6810,
      "Ġworldwide": 6811,
      "Ġbike": 6812,
      "Ġparticipate": 6813,
      "Ġparent": 6814,
      "Ġexpos": 6815,
      "Ġplate": 6816,
      "Ġmixed": 6817,
      "Are": 6818,
      "Ġteen": 6819,
      "lers": 6820,
      "ĠRadio": 6821,
      "ĠLy": 6822,
      "nois": 6823,
      "ĠAtt": 6824,
      "2016": 6825,
      "gcolor": 6826,
      "reams": 6827,
      "Ġproceed": 6828,
      "Ġcro": 6829,
      "ĠOhio": 6830,
      "Ġbeh": 6831,
      "hia": 6832,
      "Ġremained": 6833,
      "Ġbirthday": 6834,
      "Ġdomestic": 6835,
      "Every": 6836,
      "tition": 6837,
      "Ġlisten": 6838,
      "ĠPacific": 6839,
      "ori": 6840,
      "Ġthread": 6841,
      "Ġjew": 6842,
      "ounter": 6843,
      "ĠEngineering": 6844,
      "cell": 6845,
      "Ġhundreds": 6846,
      "ĠDef": 6847,
      "dem": 6848,
      "yard": 6849,
      "ĠSale": 6850,
      "Ġyellow": 6851,
      "ĠCode": 6852,
      "oe": 6853,
      "Ġglad": 6854,
      "Ġpure": 6855,
      "uclear": 6856,
      "Ġsuccessfully": 6857,
      "Ġquiet": 6858,
      "Ġcustomi": 6859,
      "ĠCEO": 6860,
      "Ġnegoti": 6861,
      "Ġappointment": 6862,
      "Ġpasse": 6863,
      "Ġmainly": 6864,
      "usi": 6865,
      "Ġrental": 6866,
      "Ġrecovery": 6867,
      "uten": 6868,
      "Ġfoods": 6869,
      "name": 6870,
      "Ġidentity": 6871,
      "ĠPrice": 6872,
      "Ġcompris": 6873,
      "you": 6874,
      "Ġshut": 6875,
      "Ġsupplies": 6876,
      "Ġrecording": 6877,
      "Ġalco": 6878,
      "Ġagreed": 6879,
      "Ġtables": 6880,
      "Ġsignificantly": 6881,
      "TR": 6882,
      "63": 6883,
      "ĠWhere": 6884,
      "Ġmul": 6885,
      "ĠSpain": 6886,
      "Ġrug": 6887,
      "Ġmovies": 6888,
      "Ġearned": 6889,
      "Tw": 6890,
      "Ġhorse": 6891,
      "ĠSP": 6892,
      "Ġbrown": 6893,
      "Ġcooking": 6894,
      "Ġlicens": 6895,
      "Ġapps": 6896,
      "Ġchat": 6897,
      "ĠBrand": 6898,
      "emp": 6899,
      "ĠJones": 6900,
      "Let": 6901,
      "ĠIslam": 6902,
      "Ġ1994": 6903,
      "Ġdivision": 6904,
      "Ġtells": 6905,
      "ylvania": 6906,
      "law": 6907,
      "According": 6908,
      "aren": 6909,
      "Ġtight": 6910,
      "itoring": 6911,
      "Ġlayer": 6912,
      "Ġrenew": 6913,
      "ĠFair": 6914,
      "ĠWatch": 6915,
      "ingly": 6916,
      "Ġappreciate": 6917,
      "ĠDesig": 6918,
      "aste": 6919,
      "2015": 6920,
      "61": 6921,
      "udden": 6922,
      "Ġtor": 6923,
      "Ġemphas": 6924,
      "ĠPak": 6925,
      "Ġacid": 6926,
      "ficate": 6927,
      "Ġserves": 6928,
      "Ġpaying": 6929,
      "Ġbes": 6930,
      "ĠBang": 6931,
      "Ġsymptoms": 6932,
      "ĠFrancisco": 6933,
      "Ġpatterns": 6934,
      "rate": 6935,
      "Ġshoes": 6936,
      "ĠConf": 6937,
      "Ġfrequently": 6938,
      "Ġgear": 6939,
      "appy": 6940,
      "ockey": 6941,
      "However": 6942,
      "ĠPolice": 6943,
      "Ġaffected": 6944,
      "Ġtruck": 6945,
      "Ġrelatively": 6946,
      "noc": 6947,
      "Ġsa": 6948,
      "Ġassessment": 6949,
      "ĠNov": 6950,
      "Ġcutting": 6951,
      "Ġrecognized": 6952,
      "Ġalumni": 6953,
      "62": 6954,
      "Just": 6955,
      "Ġinfrastructure": 6956,
      "lored": 6957,
      "Ġreti": 6958,
      "ĠBath": 6959,
      "ctors": 6960,
      "ĠKey": 6961,
      "Ġsolar": 6962,
      "oured": 6963,
      "Ġprocedure": 6964,
      "xture": 6965,
      "Ġrough": 6966,
      "Ġproto": 6967,
      "Ġassets": 6968,
      "uters": 6969,
      "Ġcandidates": 6970,
      "ĠÎ": 6971,
      "Ġurban": 6972,
      "Ġrevealed": 6973,
      "Ġtrained": 6974,
      "Ġnavig": 6975,
      "tification": 6976,
      "ĠSystems": 6977,
      "iter": 6978,
      "har": 6979,
      "Ġrealize": 6980,
      "73": 6981,
      "Ġmail": 6982,
      "ĠDar": 6983,
      "Inter": 6984,
      "Ġprivacy": 6985,
      "ĠSteph": 6986,
      "ĠWebsite": 6987,
      "Ġpresentation": 6988,
      "phy": 6989,
      "asp": 6990,
      "Ġaccurate": 6991,
      "Ġpolitics": 6992,
      "tol": 6993,
      "aha": 6994,
      "ĠTest": 6995,
      "itt": 6996,
      "Ġatmosph": 6997,
      "Ġkinds": 6998,
      "During": 6999,
      "Ġreferred": 7000,
      "Ġdiscip": 7001,
      "class": 7002,
      "Ġprosp": 7003,
      "ĠTele": 7004,
      "ĠMA": 7005,
      "Ġleather": 7006,
      "Ġalbums": 7007,
      "ĠBox": 7008,
      "Ġorganic": 7009,
      "Ġwealth": 7010,
      "atri": 7011,
      "Ġcommitment": 7012,
      "Ġmatters": 7013,
      "ĠAsian": 7014,
      "urious": 7015,
      "Ġconversation": 7016,
      "ĠReport": 7017,
      "ĠMike": 7018,
      "adium": 7019,
      "bro": 7020,
      "Ġcandidate": 7021,
      "ĠiPhone": 7022,
      "oosing": 7023,
      "Ġfulf": 7024,
      "ĠFederal": 7025,
      "____": 7026,
      "Ġbreakfast": 7027,
      "Ġefficiency": 7028,
      "Ġshares": 7029,
      "ĠAnother": 7030,
      "Am": 7031,
      "ception": 7032,
      "Ġregistration": 7033,
      "udi": 7034,
      "áĦĭáħ": 7035,
      "Ġbgcolor": 7036,
      "Ġcycle": 7037,
      "Ġtreated": 7038,
      "tab": 7039,
      "amber": 7040,
      "ĠJohnson": 7041,
      "71": 7042,
      "Ġofficers": 7043,
      "Ġhonor": 7044,
      "ditional": 7045,
      "Ġmassive": 7046,
      "Ġinvolve": 7047,
      "Ġsevere": 7048,
      "ĠPu": 7049,
      "rupt": 7050,
      "ĠJeff": 7051,
      "Ġsizes": 7052,
      "ubs": 7053,
      "Last": 7054,
      "yo": 7055,
      "Ġrevenue": 7056,
      "illions": 7057,
      "Ġretire": 7058,
      "mers": 7059,
      "REE": 7060,
      "ĠScott": 7061,
      "Ġgrew": 7062,
      "ĠMarketing": 7063,
      "Ġkick": 7064,
      "ĠAmericans": 7065,
      "Ġmilk": 7066,
      "rove": 7067,
      "Ġru": 7068,
      "Ġsugges": 7069,
      "Ġrei": 7070,
      "itz": 7071,
      "Ġturns": 7072,
      "ĠJac": 7073,
      "berry": 7074,
      "Ġafternoon": 7075,
      "Ġyes": 7076,
      "ĠEU": 7077,
      "Ġintroduction": 7078,
      "Ġpregn": 7079,
      "Ġarrest": 7080,
      "Ġspeciali": 7081,
      "ais": 7082,
      "while": 7083,
      "Ġmeat": 7084,
      "Ġstruc": 7085,
      "En": 7086,
      "thetic": 7087,
      "ht": 7088,
      "eck": 7089,
      "ĠKeep": 7090,
      "Ġteeth": 7091,
      "ading": 7092,
      "versal": 7093,
      "ju": 7094,
      "ĠPage": 7095,
      "ĠRos": 7096,
      "UL": 7097,
      "Over": 7098,
      "mato": 7099,
      "Ġgod": 7100,
      "Ġauthority": 7101,
      "ngers": 7102,
      "Ġrand": 7103,
      "east": 7104,
      "Ġimpos": 7105,
      "Ro": 7106,
      "ĠRest": 7107,
      "Ġscholars": 7108,
      "Ġmachines": 7109,
      "ssue": 7110,
      "Ġoutput": 7111,
      "ĠProt": 7112,
      "Ġicon": 7113,
      "esterday": 7114,
      "Ġdomin": 7115,
      "Yes": 7116,
      "Ġnur": 7117,
      "Ġphase": 7118,
      "Ġfer": 7119,
      "Ġadvoc": 7120,
      "Ġdrugs": 7121,
      "Ġheight": 7122,
      "Ġpremium": 7123,
      "ĠAuto": 7124,
      "ĠIrish": 7125,
      "Ġorganized": 7126,
      "Ġfell": 7127,
      "Home": 7128,
      "worth": 7129,
      "luded": 7130,
      "Au": 7131,
      "Ġprotected": 7132,
      "ĠSupport": 7133,
      "ĠSanta": 7134,
      "ĠTravel": 7135,
      "Other": 7136,
      "Ġfoundation": 7137,
      "Ġ38": 7138,
      "Ġresi": 7139,
      "Ġec": 7140,
      "ĠBell": 7141,
      "Ġspaces": 7142,
      "case": 7143,
      "nity": 7144,
      "Ġexpan": 7145,
      "uster": 7146,
      "ĠSmall": 7147,
      ">|-<": 7148,
      "Ġbet": 7149,
      "Ġobjects": 7150,
      "ĠLow": 7151,
      "yers": 7152,
      "gian": 7153,
      "Te": 7154,
      "gene": 7155,
      "awa": 7156,
      "ĠGeorgia": 7157,
      "nsylvania": 7158,
      "?âĢĿ": 7159,
      "apore": 7160,
      "uration": 7161,
      "ppers": 7162,
      "aki": 7163,
      "inent": 7164,
      "Ġprocedures": 7165,
      "Ġexternal": 7166,
      "acking": 7167,
      "Ġcaught": 7168,
      "adow": 7169,
      "Ġjoy": 7170,
      "Ġ1992": 7171,
      "ĠPop": 7172,
      "ticle": 7173,
      "ĠOw": 7174,
      "Ġstream": 7175,
      "Ġconcrete": 7176,
      "ĠPrin": 7177,
      "intage": 7178,
      "ĠJoseph": 7179,
      "Ġsessions": 7180,
      "Ġinstrument": 7181,
      "Ġresidential": 7182,
      "Ġdefense": 7183,
      "Ġterrit": 7184,
      "arks": 7185,
      "cket": 7186,
      "Ġmunicip": 7187,
      "Ġperfectly": 7188,
      "ĠQueen": 7189,
      "taining": 7190,
      "Ġchocolate": 7191,
      "Ġqualified": 7192,
      "Ġincredible": 7193,
      "ĠFour": 7194,
      "ĠJewish": 7195,
      "Ġregul": 7196,
      "aka": 7197,
      "oing": 7198,
      "ĠKh": 7199,
      "Ġmatches": 7200,
      "Ġpapers": 7201,
      "Since": 7202,
      "Ġene": 7203,
      "oug": 7204,
      "plete": 7205,
      "Ġsalt": 7206,
      "ATION": 7207,
      "Ġcheese": 7208,
      "FF": 7209,
      "chang": 7210,
      "apos": 7211,
      "reets": 7212,
      "ĠSky": 7213,
      "Ġtex": 7214,
      "Ġairport": 7215,
      "Ġmurder": 7216,
      "anguages": 7217,
      "Ġpun": 7218,
      "Ġagencies": 7219,
      "eek": 7220,
      "ampion": 7221,
      "gible": 7222,
      "Ġvictory": 7223,
      "ĠBefore": 7224,
      "ĠRose": 7225,
      "Ġcrime": 7226,
      "Ġdiagnos": 7227,
      "Ġcollected": 7228,
      "Ġbridge": 7229,
      "Ġapparent": 7230,
      "Ġhardware": 7231,
      "era": 7232,
      "DS": 7233,
      "llinois": 7234,
      "Ġbread": 7235,
      "ĠCamb": 7236,
      "Ġboys": 7237,
      "Ġpromp": 7238,
      "Per": 7239,
      "build": 7240,
      "ship": 7241,
      "Ġliterature": 7242,
      "Ġsheet": 7243,
      "ĠSus": 7244,
      "ĠAssist": 7245,
      "Ġintegra": 7246,
      "ĠFOR": 7247,
      "oon": 7248,
      "Ġrecover": 7249,
      "Ġdollars": 7250,
      "Ġmessages": 7251,
      "loyment": 7252,
      "Ġemployment": 7253,
      "Ġentertainment": 7254,
      "ĠPol": 7255,
      "Ġlandscape": 7256,
      "Ġbrowser": 7257,
      "........": 7258,
      "Ġweak": 7259,
      "Ġconsidering": 7260,
      "Mi": 7261,
      "otton": 7262,
      "Ġtasks": 7263,
      "ĠInsurance": 7264,
      "host": 7265,
      "Ġchicken": 7266,
      "ĠDC": 7267,
      "ios": 7268,
      "Ġbelieved": 7269,
      "nar": 7270,
      "una": 7271,
      "Ġsaving": 7272,
      "Ġobtained": 7273,
      "Ġcontai": 7274,
      "Ġelev": 7275,
      "rated": 7276,
      "Ġimprovement": 7277,
      "Most": 7278,
      "Ġfold": 7279,
      "roduction": 7280,
      "ishop": 7281,
      "Ġner": 7282,
      "Ġspeaking": 7283,
      "rency": 7284,
      "wan": 7285,
      "Ġawards": 7286,
      "ĠHon": 7287,
      "Ġsupports": 7288,
      "Ġentirely": 7289,
      "MP": 7290,
      "burgh": 7291,
      "Ġ189": 7292,
      "Ġdegrees": 7293,
      "ĠField": 7294,
      "Ġclassi": 7295,
      "Ġvit": 7296,
      "Ġpoll": 7297,
      "Ġmotion": 7298,
      "Hi": 7299,
      "Ġconcerned": 7300,
      "iana": 7301,
      "Ġchart": 7302,
      "ĠCirc": 7303,
      "wing": 7304,
      "Ġsett": 7305,
      "Ġscheduled": 7306,
      "Ġhero": 7307,
      "Ġrac": 7308,
      "istrative": 7309,
      "Ġ1960": 7310,
      "ĠBuilding": 7311,
      "Ġluxury": 7312,
      "Ġcooper": 7313,
      "Any": 7314,
      "Ġprogramming": 7315,
      "Ġ1993": 7316,
      "ĠAndrew": 7317,
      "Ġordered": 7318,
      "icted": 7319,
      "Ġhistoric": 7320,
      "Ġphotography": 7321,
      "Ġcampus": 7322,
      "Ġreturns": 7323,
      "Ġversions": 7324,
      "Ġgrown": 7325,
      "Ġhire": 7326,
      "wich": 7327,
      "Ġhall": 7328,
      "versary": 7329,
      "xford": 7330,
      "Ġtrend": 7331,
      "ĠFarm": 7332,
      "Ġdates": 7333,
      "ĠLiber": 7334,
      "abeth": 7335,
      "Ġletters": 7336,
      "Ġapartment": 7337,
      "race": 7338,
      "Ġgolf": 7339,
      "ĠSC": 7340,
      "Ġtracks": 7341,
      "Ġscen": 7342,
      "ĠGarden": 7343,
      "Comp": 7344,
      "ĠJon": 7345,
      "ador": 7346,
      "Ġ150": 7347,
      "ĠKent": 7348,
      "cia": 7349,
      "Ġfactory": 7350,
      "Ġtypical": 7351,
      "ĠJackson": 7352,
      "Ġspect": 7353,
      "ĠNext": 7354,
      ">Â©": 7355,
      "ĠGreek": 7356,
      "Ġintegrated": 7357,
      "Ġwitness": 7358,
      "aya": 7359,
      "Ġsouthern": 7360,
      "quality": 7361,
      "umps": 7362,
      "Ġrandom": 7363,
      "Ġsoul": 7364,
      "ĠHim": 7365,
      "Ġstyles": 7366,
      "Ġdesigner": 7367,
      "Ġloves": 7368,
      "Ġprogramme": 7369,
      "ĠCro": 7370,
      "Ġknowing": 7371,
      "Ġ2021": 7372,
      "ĠÂ©": 7373,
      "Ġstands": 7374,
      "Ġbigger": 7375,
      "look": 7376,
      "âĢľ": 7377,
      "Ġresulting": 7378,
      "Ġconsists": 7379,
      "Ġrepresented": 7380,
      "FA": 7381,
      "Ġforest": 7382,
      "ĠSearch": 7383,
      "Ġnetworks": 7384,
      "rat": 7385,
      "lay": 7386,
      "Ġprimarily": 7387,
      "Ġpharm": 7388,
      "Rep": 7389,
      "ĠPrince": 7390,
      "idance": 7391,
      "ĠJoe": 7392,
      "tank": 7393,
      "ĠCO": 7394,
      "Ġagents": 7395,
      "ĠGovern": 7396,
      "Ġreasonable": 7397,
      "ĠHel": 7398,
      "Ġveter": 7399,
      "rus": 7400,
      "ĠCreek": 7401,
      "Ġgarage": 7402,
      "Ġfacilit": 7403,
      "Ġcircumstances": 7404,
      "odi": 7405,
      "ĠStation": 7406,
      "icket": 7407,
      "Ġment": 7408,
      "ĠBritain": 7409,
      "Ġsupposed": 7410,
      "2014": 7411,
      "ĠPA": 7412,
      "Ġunable": 7413,
      "Ġpayments": 7414,
      "Ġbear": 7415,
      "Ġseasons": 7416,
      "Ġcu": 7417,
      "Ġbasketball": 7418,
      "Ġloans": 7419,
      "Ġtournament": 7420,
      "Ġsplit": 7421,
      "Ġoperate": 7422,
      "Ġfollows": 7423,
      "Ġrein": 7424,
      "ĠFriend": 7425,
      "Ġstopped": 7426,
      "tall": 7427,
      "ĠMain": 7428,
      "Ġemotional": 7429,
      "dney": 7430,
      "HS": 7431,
      "Ġinput": 7432,
      "Ġbless": 7433,
      "Ġupload": 7434,
      "oop": 7435,
      "ĠAS": 7436,
      "Ġclic": 7437,
      "Ġenth": 7438,
      "Ġcake": 7439,
      "Ġawareness": 7440,
      "Ġauthentic": 7441,
      "chi": 7442,
      "tile": 7443,
      "made": 7444,
      "ĠÂ·": 7445,
      "stei": 7446,
      "TER": 7447,
      "Ġrad": 7448,
      "Ġliber": 7449,
      "Ġlessons": 7450,
      "Ġinstitution": 7451,
      "Ġsuggested": 7452,
      "Ġcoordin": 7453,
      "Ġmill": 7454,
      "ĠEgy": 7455,
      "âĢĿ.<": 7456,
      "Ġassign": 7457,
      "ĠStudies": 7458,
      "cher": 7459,
      "Ġmeetings": 7460,
      "sters": 7461,
      "Ġflood": 7462,
      "ĠLiving": 7463,
      "center": 7464,
      "ĠGallery": 7465,
      "ĠAsse": 7466,
      "Ġconcern": 7467,
      "Ġ33": 7468,
      "stein": 7469,
      "Ġves": 7470,
      "ĠPass": 7471,
      "ĠRou": 7472,
      "Fin": 7473,
      "Ġcarbon": 7474,
      "Ġprinciples": 7475,
      "Next": 7476,
      "Ġclosely": 7477,
      "ĠSilver": 7478,
      "Ġsinger": 7479,
      "ĠExecutive": 7480,
      "Once": 7481,
      "2013": 7482,
      "ĠSup": 7483,
      "nders": 7484,
      "ĠFred": 7485,
      "ĠPennsylvania": 7486,
      "amination": 7487,
      "eme": 7488,
      "ĠBio": 7489,
      "Ġagric": 7490,
      "Ġtrouble": 7491,
      "Ġconfirm": 7492,
      "Ġskill": 7493,
      "áĨ«": 7494,
      "ĠThree": 7495,
      "Ġsituations": 7496,
      "Ġreform": 7497,
      "vie": 7498,
      "liers": 7499,
      "Ġhur": 7500,
      "ĠBan": 7501,
      "ĠCook": 7502,
      "ĠPlace": 7503,
      "Ġcharged": 7504,
      "Ġcable": 7505,
      "erves": 7506,
      "Ġviolence": 7507,
      "Ġgro": 7508,
      "Ġcarefully": 7509,
      "elly": 7510,
      "arters": 7511,
      "ĠMS": 7512,
      "ĠPhilipp": 7513,
      "Ġconstantly": 7514,
      "Ġelectrical": 7515,
      "Ġfir": 7516,
      "aval": 7517,
      "Ġcruc": 7518,
      "cepts": 7519,
      "Ġtechnique": 7520,
      "Ġwet": 7521,
      "pret": 7522,
      "Ġcloser": 7523,
      "ĠTag": 7524,
      "Ġscan": 7525,
      "Ġkeeps": 7526,
      "Dis": 7527,
      "Ġequal": 7528,
      "ĠProper": 7529,
      "Ġdiverse": 7530,
      "tested": 7531,
      "Ġindex": 7532,
      "Ġenti": 7533,
      "Ġinvestigation": 7534,
      "Ġcommittee": 7535,
      "ĠTit": 7536,
      "Ġ400": 7537,
      "Ġincorpor": 7538,
      "onics": 7539,
      "Ġcollaboration": 7540,
      "AB": 7541,
      "Ġlosing": 7542,
      "ĠNavy": 7543,
      "Ġquanti": 7544,
      "Ġeveryday": 7545,
      "theless": 7546,
      "Ġcompens": 7547,
      "ĠTax": 7548,
      "ĠAvenue": 7549,
      "abet": 7550,
      "Ġinnovation": 7551,
      "ĠBul": 7552,
      "ĠRef": 7553,
      "atus": 7554,
      "Well": 7555,
      "Ġsucceed": 7556,
      "ardens": 7557,
      "comes": 7558,
      "Ġ1991": 7559,
      "alt": 7560,
      "Best": 7561,
      "Ġfaculty": 7562,
      "Ġwithd": 7563,
      "Ġprofit": 7564,
      "Ġcerem": 7565,
      "stery": 7566,
      "Ġwidely": 7567,
      "ĠBooks": 7568,
      "Ġachieved": 7569,
      "Ġinvestors": 7570,
      "Ġinterface": 7571,
      "aylor": 7572,
      "onym": 7573,
      "Ġarms": 7574,
      "Ġscr": 7575,
      "ĠAssoci": 7576,
      "Ġattacks": 7577,
      "duate": 7578,
      "Ġoutstanding": 7579,
      "ĠFra": 7580,
      "Fil": 7581,
      "ĠCommunic": 7582,
      "Ġpartnership": 7583,
      "ĠSon": 7584,
      "Ġperforming": 7585,
      "ĠEnvironment": 7586,
      "Ġoptimi": 7587,
      "ĠRegister": 7588,
      "Another": 7589,
      "Ġtab": 7590,
      "Ġsad": 7591,
      "Ġaccessible": 7592,
      "Ġdimen": 7593,
      "Ġfigures": 7594,
      "ĠBible": 7595,
      "Ġadventure": 7596,
      "ĠKo": 7597,
      "Ġfro": 7598,
      "niversary": 7599,
      "Ġattached": 7600,
      "Ġcapable": 7601,
      "Ġ75": 7602,
      "Press": 7603,
      "Ġillustr": 7604,
      "CD": 7605,
      "Ġavail": 7606,
      "Ġentreprene": 7607,
      "2010": 7608,
      "ĠRam": 7609,
      "Ġmm": 7610,
      "Ġcouncil": 7611,
      "Ġdelay": 7612,
      "Ġimpressive": 7613,
      "Ġcrisis": 7614,
      "Ġaltern": 7615,
      "ĠSpirit": 7616,
      "nian": 7617,
      "ĠMah": 7618,
      "ĠDog": 7619,
      "ĠRay": 7620,
      "Ġlifestyle": 7621,
      "Ġsky": 7622,
      "Ġnorthern": 7623,
      "rous": 7624,
      "ĠGen": 7625,
      "ĠOlympics": 7626,
      "phi": 7627,
      "Ġworse": 7628,
      "ĠSpace": 7629,
      "Ġhosting": 7630,
      "Ġvisited": 7631,
      "ĠIII": 7632,
      "gun": 7633,
      "Ġsubstanti": 7634,
      "ĠWales": 7635,
      "Ġimplementation": 7636,
      "speci": 7637,
      "Ġmissed": 7638,
      "uan": 7639,
      "level": 7640,
      "Ġresistance": 7641,
      "ĠWis": 7642,
      "Ġconfirmed": 7643,
      "ĠMountain": 7644,
      "ĠIllinois": 7645,
      "orgeous": 7646,
      "Ġguard": 7647,
      "ĠMobile": 7648,
      "Ġeleg": 7649,
      "ĠPrac": 7650,
      "Ġspiritual": 7651,
      "Ġusual": 7652,
      "ĠShop": 7653,
      "Ġbanks": 7654,
      "ĠIntel": 7655,
      "ĠKorea": 7656,
      "star": 7657,
      "Ġacknow": 7658,
      "aints": 7659,
      "ĠSty": 7660,
      "Ġlisting": 7661,
      "ĠBase": 7662,
      "Ġsudden": 7663,
      "Ġearn": 7664,
      "ĠProfessor": 7665,
      "ģĦ": 7666,
      "Ġseats": 7667,
      "cu": 7668,
      "Dec": 7669,
      "vili": 7670,
      "Ġregulations": 7671,
      "Ġwearing": 7672,
      "Gu": 7673,
      "ĠSales": 7674,
      "Ġveri": 7675,
      "cho": 7676,
      "Ġdelight": 7677,
      "urb": 7678,
      "lings": 7679,
      "Ġroles": 7680,
      "Ġalongside": 7681,
      "ila": 7682,
      "View": 7683,
      "Ġast": 7684,
      "Ġzone": 7685,
      "got": 7686,
      "Ġtom": 7687,
      "profit": 7688,
      "Ġauthors": 7689,
      "Ġclimb": 7690,
      "ÌĨ": 7691,
      "stream": 7692,
      "ĠAT": 7693,
      "ĠWalk": 7694,
      "Ġfestival": 7695,
      "LS": 7696,
      "Ġthorough": 7697,
      "Ġmanufacturer": 7698,
      "Ġpersonally": 7699,
      "Ġdele": 7700,
      "Ġfishing": 7701,
      "âģĦ": 7702,
      "Ġhospit": 7703,
      "ĠProv": 7704,
      "ĠHope": 7705,
      "redit": 7706,
      "ĠKong": 7707,
      "Ġdangerous": 7708,
      "Many": 7709,
      "Ġrecipes": 7710,
      "Ġfacing": 7711,
      "Ġconflict": 7712,
      "Ġtall": 7713,
      "ĠFurther": 7714,
      "Ġtub": 7715,
      "ĠScotland": 7716,
      "ĠSong": 7717,
      "Find": 7718,
      "ĠInstead": 7719,
      "llywood": 7720,
      "Ġestimated": 7721,
      "Ġsearching": 7722,
      "ĠCountry": 7723,
      "ĠOct": 7724,
      "viet": 7725,
      "Ġcul": 7726,
      "Ġcookies": 7727,
      "Ġupcoming": 7728,
      "Ġcrash": 7729,
      "Ġpros": 7730,
      "ĠChan": 7731,
      "Ġceiling": 7732,
      "Ġliquid": 7733,
      "Ġterror": 7734,
      "Ġnarrow": 7735,
      "Ġexpectations": 7736,
      "Ġmining": 7737,
      "Ġhealthcare": 7738,
      "ĠColorado": 7739,
      "Ġticket": 7740,
      "onda": 7741,
      "Ġsatisf": 7742,
      "ĠKim": 7743,
      "Ġbowl": 7744,
      "ĠUk": 7745,
      "Ġyounger": 7746,
      "ĠSoftware": 7747,
      "Ġstudied": 7748,
      "Ġattrib": 7749,
      "Ġimagine": 7750,
      "cribe": 7751,
      "ĠCR": 7752,
      "Ġbrush": 7753,
      "formance": 7754,
      "Ġchapter": 7755,
      "Tube": 7756,
      "Ġclassroom": 7757,
      "ngoing": 7758,
      "Ġprinted": 7759,
      "ĠStart": 7760,
      "Ġdestination": 7761,
      "Ġmagic": 7762,
      "titled": 7763,
      "Ġster": 7764,
      "ĠTrust": 7765,
      "Ġodd": 7766,
      "Dr": 7767,
      "Ġgallery": 7768,
      "orable": 7769,
      "MC": 7770,
      "olks": 7771,
      "Ed": 7772,
      "Ġgifts": 7773,
      "Ġages": 7774,
      "ĠSteve": 7775,
      "Ġmoments": 7776,
      "Ġtank": 7777,
      "ĠCorporation": 7778,
      "Ġspok": 7779,
      "Ġcommonly": 7780,
      "ĠTheatre": 7781,
      "aver": 7782,
      "ditionally": 7783,
      "Bri": 7784,
      "List": 7785,
      "ii": 7786,
      "Ġconso": 7787,
      "Ġcompos": 7788,
      "folio": 7789,
      "Ġpicked": 7790,
      "Ġunlike": 7791,
      "Ġly": 7792,
      "Ġmac": 7793,
      "Click": 7794,
      "ĠMath": 7795,
      "ĠFinancial": 7796,
      "mann": 7797,
      "LY": 7798,
      "ĠFord": 7799,
      "ĠEss": 7800,
      "Ġrecon": 7801,
      "ĠBoy": 7802,
      "Ġdisco": 7803,
      "Ġattract": 7804,
      "ĠTherefore": 7805,
      "live": 7806,
      "nee": 7807,
      "ĠThose": 7808,
      "Ġbel": 7809,
      "Ġresearchers": 7810,
      "tioned": 7811,
      "Ġactor": 7812,
      "ĠEastern": 7813,
      "Ġfavourite": 7814,
      "Ġtemplate": 7815,
      "rink": 7816,
      "inter": 7817,
      "Ass": 7818,
      "Ġgraduate": 7819,
      ">#": 7820,
      "300": 7821,
      "Ġhabit": 7822,
      "Ġhighlight": 7823,
      "agues": 7824,
      "John": 7825,
      "iers": 7826,
      "ĠJustice": 7827,
      "ĠSecretary": 7828,
      "Ġoffices": 7829,
      "ĠIdeas": 7830,
      "Ġclothes": 7831,
      "2012": 7832,
      "Ġauthorities": 7833,
      "ĠBroad": 7834,
      "Ġchallenging": 7835,
      "Ġturning": 7836,
      "Ġflash": 7837,
      "Ġtowns": 7838,
      "uine": 7839,
      "tock": 7840,
      "ghter": 7841,
      "ĠLin": 7842,
      "ĠHelp": 7843,
      "Ġinformed": 7844,
      "zabeth": 7845,
      "ĠStan": 7846,
      "Ġexplained": 7847,
      "rine": 7848,
      "Ġwestern": 7849,
      "EST": 7850,
      "Ġarmy": 7851,
      "ĠLog": 7852,
      "Ġoblig": 7853,
      "pon": 7854,
      "Ġbodies": 7855,
      "Ġmembership": 7856,
      "Ġcomponent": 7857,
      "Ġcapture": 7858,
      "Ġtrends": 7859,
      "Ġextension": 7860,
      "Read": 7861,
      "Ġaspect": 7862,
      "ĠUsing": 7863,
      "ĠPot": 7864,
      "Ġcos": 7865,
      "Ġ65": 7866,
      "sen": 7867,
      "Ġdifferences": 7868,
      "Ġspons": 7869,
      "Ġvast": 7870,
      "books": 7871,
      "Ġengagement": 7872,
      "ĠFac": 7873,
      "Ġjustice": 7874,
      "aired": 7875,
      "tees": 7876,
      "Ġmanaging": 7877,
      "ĠKitchen": 7878,
      "Ġincreases": 7879,
      "idi": 7880,
      "Ġoperated": 7881,
      "Ġroutine": 7882,
      "tingu": 7883,
      "Ġdeck": 7884,
      "Ġproducer": 7885,
      "Ġinches": 7886,
      "Ġscript": 7887,
      "Ġsurprise": 7888,
      "lass": 7889,
      "ĠPrime": 7890,
      "Ġregions": 7891,
      "Ġstunning": 7892,
      "allet": 7893,
      "ĠStock": 7894,
      "Ġcertified": 7895,
      "Ġgrass": 7896,
      "alo": 7897,
      "Ġera": 7898,
      "Ġplanet": 7899,
      "ĠBand": 7900,
      "Ġlect": 7901,
      "ainless": 7902,
      "Ġdealing": 7903,
      "Ke": 7904,
      "front": 7905,
      "Ġ34": 7906,
      "xic": 7907,
      "Ġcart": 7908,
      "asant": 7909,
      "Ġsoil": 7910,
      "Ġrural": 7911,
      "Ġdevelo": 7912,
      "Ġencounter": 7913,
      "fl": 7914,
      "Ġok": 7915,
      "Ġinitially": 7916,
      "Ġlinked": 7917,
      "abe": 7918,
      "Ġnormally": 7919,
      "ĠPoint": 7920,
      "Ġreflect": 7921,
      "Ġpod": 7922,
      "Ġrisks": 7923,
      "Ġmut": 7924,
      "Ġcriminal": 7925,
      "Ġchemical": 7926,
      "clusion": 7927,
      "Ġcommunications": 7928,
      "ĠSH": 7929,
      "ĠStudents": 7930,
      "Ġassociation": 7931,
      "weet": 7932,
      "ĠSenate": 7933,
      "Ġsem": 7934,
      "ĠDaniel": 7935,
      "EA": 7936,
      "Ġstrategic": 7937,
      "antic": 7938,
      "ativity": 7939,
      "page": 7940,
      "Ġsin": 7941,
      "https": 7942,
      "Ġlogo": 7943,
      "ĠEstate": 7944,
      "tify": 7945,
      "Ġmere": 7946,
      "Ġduty": 7947,
      "licated": 7948,
      "bourne": 7949,
      "ĠParliament": 7950,
      "style": 7951,
      "Ġtransportation": 7952,
      "Ġwel": 7953,
      "Sec": 7954,
      "ears": 7955,
      "Ġinvited": 7956,
      "Ġproof": 7957,
      "Ġtalent": 7958,
      "lar": 7959,
      "uma": 7960,
      "Ġherself": 7961,
      "Ġcute": 7962,
      "agon": 7963,
      "Ġalcohol": 7964,
      "zona": 7965,
      "Ġ1989": 7966,
      "BI": 7967,
      "ĠCi": 7968,
      "Ġmand": 7969,
      "igure": 7970,
      "tomer": 7971,
      "Ġremoval": 7972,
      "Ġlaugh": 7973,
      "Ġmanagers": 7974,
      "ĠJr": 7975,
      "ĠHoly": 7976,
      "ĠViet": 7977,
      "Add": 7978,
      "Ġreporting": 7979,
      "Ġfighting": 7980,
      "using": 7981,
      "Ġflexible": 7982,
      "Ġenthusi": 7983,
      "ĠBuy": 7984,
      "etts": 7985,
      "achus": 7986,
      "CT": 7987,
      "ameter": 7988,
      "Ġatmosphere": 7989,
      "Ġcelebrate": 7990,
      "ĠSingapore": 7991,
      "Ġpill": 7992,
      "Ġbeer": 7993,
      "ĠRun": 7994,
      "Ġtested": 7995,
      "ĠDrive": 7996,
      "Ġwave": 7997,
      "ĠObama": 7998,
      "ĠCas": 7999,
      "Ġvital": 8000,
      "Ġcreates": 8001,
      "terior": 8002,
      "Ġpersonnel": 8003,
      "esh": 8004,
      "Ġmile": 8005,
      "Ġdiscussed": 8006,
      "Ġdrama": 8007,
      "ĠProducts": 8008,
      "ĠBru": 8009,
      "ĠIndust": 8010,
      "Ġnewly": 8011,
      "Ġreward": 8012,
      "Mus": 8013,
      "ãĢ": 8014,
      "!!!": 8015,
      "Ġrepresents": 8016,
      "ĠStore": 8017,
      "89": 8018,
      "bio": 8019,
      "fortunately": 8020,
      "here": 8021,
      "tac": 8022,
      "Ġfinance": 8023,
      "Ġpassing": 8024,
      "Ġmonitoring": 8025,
      "ĠUr": 8026,
      "ERS": 8027,
      "Ġguidance": 8028,
      "ĠOil": 8029,
      "Ġabsor": 8030,
      "Ġweekly": 8031,
      "Ġunders": 8032,
      "aturally": 8033,
      "ela": 8034,
      "Ġtelling": 8035,
      "ĠToronto": 8036,
      "Ġclaimed": 8037,
      "Ġlies": 8038,
      "Ġequipped": 8039,
      "vas": 8040,
      "Ġongoing": 8041,
      "Ġultimately": 8042,
      "aping": 8043,
      "Ġnoticed": 8044,
      "pur": 8045,
      "tinent": 8046,
      "Ġrose": 8047,
      "Ġtransition": 8048,
      "RS": 8049,
      "Ġterri": 8050,
      "Ġfiled": 8051,
      "anes": 8052,
      "Ġpoker": 8053,
      "ĠCam": 8054,
      "tracts": 8055,
      "Ġham": 8056,
      "that": 8057,
      "PM": 8058,
      "ĠStone": 8059,
      "ĠAnti": 8060,
      "ĠSydney": 8061,
      "Ġengage": 8062,
      "ĠCommon": 8063,
      "ĠBridge": 8064,
      "Ġchoosing": 8065,
      "Ġtrigg": 8066,
      "Ġpin": 8067,
      "Ġmanufacturers": 8068,
      "ĠColumbia": 8069,
      "Ġpermission": 8070,
      "Ġlanguages": 8071,
      "ĠSS": 8072,
      "ĠSteel": 8073,
      "forcement": 8074,
      "ĠDoes": 8075,
      "Ġcock": 8076,
      "Ġconsistent": 8077,
      "ĠFL": 8078,
      "ĠProm": 8079,
      "Ġmonitor": 8080,
      "Ġforth": 8081,
      "Ġplain": 8082,
      "Ġinner": 8083,
      "enn": 8084,
      "Ġcrusher": 8085,
      "ĠLocal": 8086,
      "ĠCivil": 8087,
      "ĠMember": 8088,
      "Ġdental": 8089,
      "Ġdispl": 8090,
      "uper": 8091,
      "raq": 8092,
      "zi": 8093,
      "acked": 8094,
      "Ġtransmission": 8095,
      "real": 8096,
      "ĠSU": 8097,
      "Ġdrawing": 8098,
      "Ġvirtual": 8099,
      "ĠâĨ": 8100,
      "AY": 8101,
      "Ġblow": 8102,
      "actor": 8103,
      "Ġfitness": 8104,
      "Care": 8105,
      "Ġmerch": 8106,
      "ĠMulti": 8107,
      "ĠBad": 8108,
      "ĠHou": 8109,
      "just": 8110,
      "Ġmoist": 8111,
      "agen": 8112,
      "clo": 8113,
      "Ġhosted": 8114,
      "ĠRight": 8115,
      "ĠMedicine": 8116,
      "Ġquote": 8117,
      "Ġappeal": 8118,
      "Ġconstant": 8119,
      "olis": 8120,
      "ĠModern": 8121,
      "Ġunion": 8122,
      "arry": 8123,
      "entle": 8124,
      "Ġhappening": 8125,
      "Free": 8126,
      "ĠMaybe": 8127,
      "rec": 8128,
      "celer": 8129,
      "Ġattorney": 8130,
      "Ġped": 8131,
      "athan": 8132,
      "wer": 8133,
      "ĠCoo": 8134,
      "Ġdefault": 8135,
      "reate": 8136,
      "Ġdepth": 8137,
      "Ġreputation": 8138,
      "ĠChristi": 8139,
      "Ġ)": 8140,
      "iders": 8141,
      "athy": 8142,
      "Ġslot": 8143,
      "ĠRod": 8144,
      "Ġpreparation": 8145,
      "uccess": 8146,
      "ĠLLC": 8147,
      "Ġhidden": 8148,
      "Ġni": 8149,
      "Ġbottle": 8150,
      "Ġcontest": 8151,
      "Ġbass": 8152,
      "Ġease": 8153,
      "Ġpipe": 8154,
      "awn": 8155,
      "ycle": 8156,
      "ĠPas": 8157,
      "Ġindeed": 8158,
      "Ġtherm": 8159,
      "Ġprofessor": 8160,
      "ĠIce": 8161,
      "Ġacquired": 8162,
      "Ġassum": 8163,
      "Ġimproving": 8164,
      "Ġrating": 8165,
      "ĠHong": 8166,
      "bri": 8167,
      "ulpt": 8168,
      "achusetts": 8169,
      "Of": 8170,
      "irts": 8171,
      "ilton": 8172,
      "85": 8173,
      "netic": 8174,
      "Ġexhibition": 8175,
      "Ġthin": 8176,
      "Ġclea": 8177,
      "=#": 8178,
      "Ġmari": 8179,
      "Ġ1988": 8180,
      "Ġevol": 8181,
      "aze": 8182,
      "from": 8183,
      "Also": 8184,
      "pto": 8185,
      "Ġclothing": 8186,
      "ĠHol": 8187,
      "Ġ39": 8188,
      "Ġ[...": 8189,
      "ĠOs": 8190,
      "2011": 8191,
      "bell": 8192,
      "Ġrelief": 8193,
      "Ġclubs": 8194,
      "Ġpersons": 8195,
      "Ġultimate": 8196,
      "Ġconv": 8197,
      "Ġpossibility": 8198,
      "Ġintelligence": 8199,
      "ĠBall": 8200,
      "Ġstretch": 8201,
      "Ġshooting": 8202,
      "Ġimpossible": 8203,
      "Ġstim": 8204,
      "Ġpp": 8205,
      "Ġexposure": 8206,
      "ĠProfessional": 8207,
      "ESS": 8208,
      "Ġvul": 8209,
      "Ġtiny": 8210,
      "Ġinvent": 8211,
      "Ġtaxes": 8212,
      "neys": 8213,
      "Ġplatforms": 8214,
      "ership": 8215,
      "Ġvend": 8216,
      "oir": 8217,
      "ĠWinter": 8218,
      "eping": 8219,
      "Ġwa": 8220,
      "iler": 8221,
      "ĠiP": 8222,
      "dri": 8223,
      "pan": 8224,
      "Ġchose": 8225,
      "Ġsavings": 8226,
      "ĠFish": 8227,
      "omet": 8228,
      "Ġaccord": 8229,
      "vard": 8230,
      "tack": 8231,
      "Ġboost": 8232,
      "rage": 8233,
      "Ġshops": 8234,
      "bet": 8235,
      "Ġprecise": 8236,
      "ĠDVD": 8237,
      "ĠBC": 8238,
      "ĠForest": 8239,
      "zo": 8240,
      "ulating": 8241,
      "Ġoven": 8242,
      "Ġgenerate": 8243,
      "Ġacts": 8244,
      "ibly": 8245,
      "Ġbooking": 8246,
      "regon": 8247,
      "Ġwooden": 8248,
      "Ġsustainable": 8249,
      "osi": 8250,
      "Ġphen": 8251,
      "Ġheavi": 8252,
      "Ġimmediate": 8253,
      "Ġinch": 8254,
      "Ġspin": 8255,
      "ĠHeart": 8256,
      "adi": 8257,
      "ĠCou": 8258,
      "orters": 8259,
      "Ġfacts": 8260,
      "ĠStory": 8261,
      "lantic": 8262,
      "Ġdescribe": 8263,
      "Ġcontrast": 8264,
      "Ġdynamic": 8265,
      "ĠHas": 8266,
      "ĠSl": 8267,
      "Ġrecognition": 8268,
      "ĠAgain": 8269,
      "Great": 8270,
      "Ġstatistics": 8271,
      "Ġlatter": 8272,
      "Ġcommission": 8273,
      "Ġpowder": 8274,
      "ntario": 8275,
      "oster": 8276,
      "acket": 8277,
      "Ġproducing": 8278,
      "uzz": 8279,
      "EP": 8280,
      "ĠTool": 8281,
      "otal": 8282,
      "ĠInstagram": 8283,
      "ĠMcC": 8284,
      "Ġtwenty": 8285,
      "Ġinjuries": 8286,
      "traction": 8287,
      "sels": 8288,
      "ulum": 8289,
      "Ġrevolution": 8290,
      "ĠLink": 8291,
      "ev": 8292,
      "Ġsexual": 8293,
      "Ġengaged": 8294,
      "Ġsauce": 8295,
      "ĠðŁ": 8296,
      "Ġpleased": 8297,
      "About": 8298,
      "ĠSenior": 8299,
      "izing": 8300,
      "gni": 8301,
      "ĠCollection": 8302,
      "Ġaccessories": 8303,
      "Ġconstit": 8304,
      "Ġdecade": 8305,
      "including": 8306,
      "tube": 8307,
      "rad": 8308,
      "ditions": 8309,
      "cm": 8310,
      "ĠDisney": 8311,
      "Ġvacation": 8312,
      "Ġacting": 8313,
      "Ġstreets": 8314,
      "erial": 8315,
      "Ġillness": 8316,
      "Ġlad": 8317,
      "Ġrespectively": 8318,
      "ĠMap": 8319,
      "Ġscheme": 8320,
      "Ġsharp": 8321,
      "Ġjudge": 8322,
      "ĠAnth": 8323,
      "Ġpublication": 8324,
      "Ġintro": 8325,
      "Ġincident": 8326,
      "type": 8327,
      "Ġfas": 8328,
      "ĠMinistry": 8329,
      "ĠPict": 8330,
      "ĠAssembly": 8331,
      "Ġcausing": 8332,
      "Ġrecognize": 8333,
      "Ġbirds": 8334,
      "ĠPhys": 8335,
      "ordan": 8336,
      "ĠSir": 8337,
      "Ġmarked": 8338,
      "Ġfairly": 8339,
      "ĠComments": 8340,
      "ĠMalay": 8341,
      "len": 8342,
      "ĠIslands": 8343,
      "ĠLind": 8344,
      "ĠNiger": 8345,
      "Ġoccurred": 8346,
      "Ġexpenses": 8347,
      "Ġhumans": 8348,
      "Ġdropped": 8349,
      "Ġbranch": 8350,
      "ĠVictoria": 8351,
      "Ġaccomplish": 8352,
      "Ġlistening": 8353,
      "Ġ(\"": 8354,
      "fici": 8355,
      "Ġcontrolled": 8356,
      "Although": 8357,
      "Ġexpansion": 8358,
      "ĠMachine": 8359,
      "Ġclos": 8360,
      "Ġsecondary": 8361,
      "Ġforum": 8362,
      "Ġelections": 8363,
      "Ġyard": 8364,
      "Ġwra": 8365,
      "char": 8366,
      "ounded": 8367,
      "ĠYouTube": 8368,
      "Ġsolo": 8369,
      "ĠSep": 8370,
      "ĠSig": 8371,
      "Ġtack": 8372,
      "ĠLED": 8373,
      "ĠRog": 8374,
      "Ġ;": 8375,
      "ĠMatt": 8376,
      "Ġcontaining": 8377,
      "ĠGuard": 8378,
      "ĠTar": 8379,
      "Ġyesterday": 8380,
      "Ġprinting": 8381,
      "ĠLabor": 8382,
      "sell": 8383,
      "ĠDemocratic": 8384,
      "pool": 8385,
      "fies": 8386,
      "Ġabuse": 8387,
      "Ġlawyer": 8388,
      "Ġreader": 8389,
      "Top": 8390,
      "rig": 8391,
      "Ġcategories": 8392,
      "holders": 8393,
      "Ġarrive": 8394,
      "Ġlegs": 8395,
      "Ġnuclear": 8396,
      "thew": 8397,
      "Ġrecei": 8398,
      "Ġwarran": 8399,
      "ĠGolden": 8400,
      "Ġformal": 8401,
      "Ġstring": 8402,
      "Ġdiss": 8403,
      "Ġhealing": 8404,
      "Ġsick": 8405,
      "Ġsaved": 8406,
      "ĠJane": 8407,
      "Ġtac": 8408,
      "Ġyards": 8409,
      "fall": 8410,
      "Ġconvenient": 8411,
      "Ġmal": 8412,
      "ĠSn": 8413,
      "ĠChalle": 8414,
      "urer": 8415,
      "Ġreligion": 8416,
      "ĠClin": 8417,
      "ĠBattle": 8418,
      "High": 8419,
      "Ġlargely": 8420,
      "Ġlake": 8421,
      "ĠTreat": 8422,
      "shi": 8423,
      "Ġassigned": 8424,
      "uing": 8425,
      "Ġcontribute": 8426,
      "ĠKit": 8427,
      "ĠRom": 8428,
      "xiety": 8429,
      "aph": 8430,
      "Ġjoining": 8431,
      "Ġdramatic": 8432,
      "',": 8433,
      "Ġcrucial": 8434,
      "Ġconcepts": 8435,
      "Ġretirement": 8436,
      "Ġadapt": 8437,
      "Ġreduction": 8438,
      "Ġbench": 8439,
      "Ġchannels": 8440,
      "Ġmuscle": 8441,
      "ĠLatin": 8442,
      "Ġproven": 8443,
      "tum": 8444,
      "Ġreserved": 8445,
      "Ġshift": 8446,
      "Ðº": 8447,
      "ystem": 8448,
      "acious": 8449,
      "Ġfiction": 8450,
      "Ġ1950": 8451,
      "nesota": 8452,
      "Ġcalendar": 8453,
      "CO": 8454,
      "Ġstored": 8455,
      "Ġunknown": 8456,
      "Ġliked": 8457,
      "alling": 8458,
      "ĠLew": 8459,
      "Ġhydro": 8460,
      "Ġhung": 8461,
      "Ġilleg": 8462,
      "Ġnomin": 8463,
      "Ġattractive": 8464,
      "Ġapproval": 8465,
      "ĠTai": 8466,
      "Ġlists": 8467,
      "BM": 8468,
      "power": 8469,
      "Ġplu": 8470,
      "rite": 8471,
      "Ġdemoc": 8472,
      "ĠDra": 8473,
      "RI": 8474,
      "Ġcabinet": 8475,
      "Ġbags": 8476,
      "2000": 8477,
      "ĠAnim": 8478,
      "ĠType": 8479,
      "ĠLook": 8480,
      "AV": 8481,
      "versities": 8482,
      "ĠHa": 8483,
      "Ġfifth": 8484,
      "ask": 8485,
      "Ġspecialist": 8486,
      "pass": 8487,
      "ĠLimited": 8488,
      "âĢĿ<": 8489,
      "Ġsolve": 8490,
      "she": 8491,
      "ĠDutch": 8492,
      "nda": 8493,
      "Ġactress": 8494,
      "Ġsuperior": 8495,
      "sa": 8496,
      "ĠArg": 8497,
      "Ġ?": 8498,
      "Ġdesired": 8499,
      "Ġassistant": 8500,
      "icals": 8501,
      "Ġfinds": 8502,
      "Ġ37": 8503,
      "Ġgran": 8504,
      "Ġextent": 8505,
      "English": 8506,
      "Ġdumpster": 8507,
      "ĠThus": 8508,
      "Ġdism": 8509,
      "Ġinstruction": 8510,
      "Ġseriously": 8511,
      "isa": 8512,
      "Oh": 8513,
      "ĠPra": 8514,
      "ĠSafety": 8515,
      "Ġgained": 8516,
      "Ġdefinition": 8517,
      "Ġcodes": 8518,
      "Op": 8519,
      "Ġsending": 8520,
      "elphia": 8521,
      "entist": 8522,
      "ĠEvent": 8523,
      "Ġprove": 8524,
      "Ġtail": 8525,
      "heim": 8526,
      "ĠOak": 8527,
      "Ġpresents": 8528,
      "Ġstorm": 8529,
      "Ġindustries": 8530,
      "EG": 8531,
      "otic": 8532,
      "Ġequival": 8533,
      "illy": 8534,
      "Back": 8535,
      "cles": 8536,
      "ĠProcess": 8537,
      "Ġpink": 8538,
      "ĠShould": 8539,
      "kh": 8540,
      "Ġlie": 8541,
      "ĠMassachusetts": 8542,
      "ĠDer": 8543,
      "iors": 8544,
      "Ġremark": 8545,
      "Ġcontained": 8546,
      "Ġhotels": 8547,
      "Ġsubmitted": 8548,
      "Ġgranted": 8549,
      "kel": 8550,
      "ĠPakistan": 8551,
      "letter": 8552,
      "otive": 8553,
      "ĠEmpire": 8554,
      "Ġ42": 8555,
      "ĠArm": 8556,
      "ĠInvest": 8557,
      "Ġtitles": 8558,
      "ĠTal": 8559,
      "rank": 8560,
      "ategory": 8561,
      "ĠOntario": 8562,
      "ĠNeed": 8563,
      "ĠStaff": 8564,
      "reement": 8565,
      "ĠTam": 8566,
      "Ġrush": 8567,
      "ensity": 8568,
      "Ñĥ": 8569,
      "ĠDam": 8570,
      "nish": 8571,
      "ĠSquare": 8572,
      "onso": 8573,
      "Ġships": 8574,
      "Ġrealized": 8575,
      "ĠTro": 8576,
      "Ġfolks": 8577,
      "Ġswimming": 8578,
      "Ġadds": 8579,
      "losure": 8580,
      "Ġconfident": 8581,
      "airy": 8582,
      "Ġ':": 8583,
      "ĠCru": 8584,
      "ĠSmart": 8585,
      "ghan": 8586,
      "Ġsme": 8587,
      "ladelphia": 8588,
      "ĠBaby": 8589,
      "Ġstruggle": 8590,
      "Ġmoves": 8591,
      "Ġ64": 8592,
      "ĠRu": 8593,
      "RC": 8594,
      "making": 8595,
      "ĠNon": 8596,
      "Ġnewspaper": 8597,
      "ĠShort": 8598,
      "part": 8599,
      "Ġ800": 8600,
      "ĠFREE": 8601,
      "Ġ1987": 8602,
      "elry": 8603,
      "tically": 8604,
      "ĠAutom": 8605,
      "AND": 8606,
      "Ġrice": 8607,
      "ĠMD": 8608,
      "Ġseed": 8609,
      "ĠFu": 8610,
      "Ġfootballers": 8611,
      "ĠOS": 8612,
      "isk": 8613,
      "lai": 8614,
      "alize": 8615,
      "Ġgorgeous": 8616,
      "Ġincreasingly": 8617,
      "Ġinterpret": 8618,
      "Mo": 8619,
      "Ġheads": 8620,
      "ĠMagazine": 8621,
      "cor": 8622,
      "Ġ55": 8623,
      "Where": 8624,
      "Ġdefend": 8625,
      "ĠTaylor": 8626,
      "Ġrenov": 8627,
      "ĠPortug": 8628,
      "Ġslowly": 8629,
      "ouses": 8630,
      "Ġconnections": 8631,
      "Ġcong": 8632,
      "ĠMembers": 8633,
      "Ġcraft": 8634,
      "ĠIraq": 8635,
      "Ġsuffering": 8636,
      "Ġcompli": 8637,
      "sex": 8638,
      "spe": 8639,
      "ĠLearn": 8640,
      "ĠDun": 8641,
      "Ġfirms": 8642,
      "racy": 8643,
      "Ġhandling": 8644,
      "Ġmel": 8645,
      "Ġamounts": 8646,
      "Ġeligible": 8647,
      "ĠCP": 8648,
      "Ġobserved": 8649,
      "ĠAdministration": 8650,
      "ographic": 8651,
      "comm": 8652,
      "Ð»": 8653,
      "Ġsuggests": 8654,
      "ĠOfficer": 8655,
      "UM": 8656,
      "Ġpercentage": 8657,
      "86": 8658,
      "Ġexpressed": 8659,
      "Ġanticip": 8660,
      "ĠId": 8661,
      "Ġcomparison": 8662,
      "Ju": 8663,
      "Ġamend": 8664,
      "Ġcrowd": 8665,
      "Ġtreatments": 8666,
      "ĠNote": 8667,
      "Ġapplicable": 8668,
      "Ġusage": 8669,
      "Ġroot": 8670,
      "800": 8671,
      "ĠVillage": 8672,
      "tha": 8673,
      "Ġdisplayed": 8674,
      "mble": 8675,
      "ĠElizabeth": 8676,
      "fits": 8677,
      "Ġworst": 8678,
      "aret": 8679,
      "Ġbrilli": 8680,
      "Ġadopted": 8681,
      "Ġnoise": 8682,
      "Jan": 8683,
      "Play": 8684,
      "Ġoccurs": 8685,
      "cue": 8686,
      "ĠSupreme": 8687,
      "Ġplot": 8688,
      "Ġma": 8689,
      "entine": 8690,
      "Ġbehalf": 8691,
      "wa": 8692,
      "Ġ1986": 8693,
      "ĠStudio": 8694,
      "ĠSection": 8695,
      "Ġcovering": 8696,
      "Ġblocks": 8697,
      "Ġmixture": 8698,
      "Ġmeals": 8699,
      "ĠOxford": 8700,
      "Ġavailability": 8701,
      "stan": 8702,
      "pedia": 8703,
      "andy": 8704,
      "Ġsingles": 8705,
      "ĠArizona": 8706,
      "Ġentrance": 8707,
      "Ġwhenever": 8708,
      "Ġtrick": 8709,
      "Ġadvent": 8710,
      "Ġopposite": 8711,
      "people": 8712,
      "ĠCase": 8713,
      "ĠThough": 8714,
      "Ġcontrols": 8715,
      "ĠMee": 8716,
      "Ġgenuine": 8717,
      "paper": 8718,
      "Ġbreast": 8719,
      "ropical": 8720,
      "ĠDark": 8721,
      "ĠNever": 8722,
      "ĠAgency": 8723,
      "Ġcompare": 8724,
      "ĠVery": 8725,
      "tored": 8726,
      "ĠRan": 8727,
      "Ġenterprise": 8728,
      "Ġframework": 8729,
      "âĢĻ,": 8730,
      "Ġstatements": 8731,
      "rets": 8732,
      "organ": 8733,
      "Ġcontinuing": 8734,
      "ĠSeason": 8735,
      "Ġluck": 8736,
      "ĠCON": 8737,
      "ĠLas": 8738,
      "embers": 8739,
      "rug": 8740,
      "Ġfalse": 8741,
      "Ġgenerated": 8742,
      "ĠFox": 8743,
      "ependent": 8744,
      "don": 8745,
      "Ġguidelines": 8746,
      "ĠMes": 8747,
      "Ġinvolves": 8748,
      "consin": 8749,
      "Today": 8750,
      "Ġdevelopers": 8751,
      "words": 8752,
      "ĠMom": 8753,
      "aux": 8754,
      "Ġlikes": 8755,
      "ĠEdward": 8756,
      "Ġconcerning": 8757,
      "iche": 8758,
      "ĠRepublican": 8759,
      "Ġmillions": 8760,
      "Ġresume": 8761,
      "ĠHung": 8762,
      "ĠNatural": 8763,
      "ilst": 8764,
      "Ġinvolving": 8765,
      "Ġsmile": 8766,
      "ĠCamer": 8767,
      "ĠLearning": 8768,
      "rint": 8769,
      "ĠHold": 8770,
      "alogue": 8771,
      "Ġstric": 8772,
      "Ġadministrative": 8773,
      "ician": 8774,
      "Ġphilosophy": 8775,
      "anting": 8776,
      "aza": 8777,
      "ĠSciences": 8778,
      "Ġreaction": 8779,
      "erts": 8780,
      "400": 8781,
      "gorith": 8782,
      "Ġpatch": 8783,
      "ĠBrook": 8784,
      "ĠSometimes": 8785,
      "Ġsections": 8786,
      "equ": 8787,
      "Ġsamples": 8788,
      "Ġpenal": 8789,
      "ppy": 8790,
      "Ġreducing": 8791,
      "pa": 8792,
      "Ġraw": 8793,
      "Ġcriter": 8794,
      "Ġfeelings": 8795,
      "Ġmemories": 8796,
      "ĠBa": 8797,
      "brid": 8798,
      "Ġsurprised": 8799,
      "ĠPsych": 8800,
      "aches": 8801,
      "Ġvisible": 8802,
      "Ġpleasure": 8803,
      "Ġtun": 8804,
      "edge": 8805,
      "Ġactors": 8806,
      "Ġsomewhat": 8807,
      "Ġgate": 8808,
      "Have": 8809,
      "licit": 8810,
      "Ġdreams": 8811,
      "Ġ1984": 8812,
      "Ġoverw": 8813,
      "Ġcolumn": 8814,
      "tia": 8815,
      "nell": 8816,
      "Ġpromise": 8817,
      "Ġplug": 8818,
      "Ġwhilst": 8819,
      "Ġwireless": 8820,
      "Ġyield": 8821,
      "Ġgender": 8822,
      "ĠHoli": 8823,
      "ĠLes": 8824,
      "ectors": 8825,
      "Ġmortgage": 8826,
      "ween": 8827,
      "Ġtransp": 8828,
      "Ġneuro": 8829,
      "Ġcolon": 8830,
      "2009": 8831,
      "Ġrepresentative": 8832,
      "Ġconstructed": 8833,
      "AF": 8834,
      "Ġexistence": 8835,
      "Ġentitled": 8836,
      "hu": 8837,
      "ĠGer": 8838,
      "Ġ49": 8839,
      "Stud": 8840,
      "ĠFun": 8841,
      "ĠContin": 8842,
      "mont": 8843,
      "Ġdepends": 8844,
      "gns": 8845,
      "ouri": 8846,
      "Ġfunny": 8847,
      "Ġbars": 8848,
      "Ġviewed": 8849,
      "Ġending": 8850,
      "ĠSoviet": 8851,
      "rection": 8852,
      "Trans": 8853,
      "ĠCa": 8854,
      "Ins": 8855,
      "licate": 8856,
      "Ġtip": 8857,
      "Ġpromotion": 8858,
      "Ġretired": 8859,
      "Ġofficially": 8860,
      "Ġconscious": 8861,
      "Ġsubjects": 8862,
      "Ġengines": 8863,
      "Char": 8864,
      "Reg": 8865,
      "Star": 8866,
      "ĠMade": 8867,
      "educ": 8868,
      "acher": 8869,
      "Ġtalks": 8870,
      "Ġfinger": 8871,
      "Ġ1985": 8872,
      "ĠOregon": 8873,
      "Ġincl": 8874,
      "oin": 8875,
      "plates": 8876,
      "Ġracing": 8877,
      "ĠMajor": 8878,
      "ĠCry": 8879,
      "Ġfounder": 8880,
      "Ġwins": 8881,
      "Love": 8882,
      "ĠJean": 8883,
      "ĠFall": 8884,
      "Ġdriven": 8885,
      "teed": 8886,
      "Ġje": 8887,
      "ĠFlow": 8888,
      "ĠRepresent": 8889,
      "Ġdebate": 8890,
      "Ġtracking": 8891,
      "ĠEmer": 8892,
      "Ġconcert": 8893,
      "Ġvulne": 8894,
      "mouth": 8895,
      "Ġmaintained": 8896,
      "Ġtomorrow": 8897,
      "umer": 8898,
      "Ġflour": 8899,
      "OK": 8900,
      "ĠChampionships": 8901,
      "Ġboxes": 8902,
      "Ġunus": 8903,
      "ustrali": 8904,
      "Ġcrazy": 8905,
      "Ġhole": 8906,
      "Ġlegislation": 8907,
      "Ġphr": 8908,
      "2008": 8909,
      "Ġmarks": 8910,
      "lins": 8911,
      "ĠDoc": 8912,
      "ĠWH": 8913,
      "ĠSound": 8914,
      "Ġ250": 8915,
      "Ġbacter": 8916,
      "ruption": 8917,
      "orses": 8918,
      "onses": 8919,
      "acting": 8920,
      "Ġdiseases": 8921,
      "Ġchronic": 8922,
      "ĠSEO": 8923,
      "asm": 8924,
      "Ġfunctional": 8925,
      "Ġrequests": 8926,
      "Ġ120": 8927,
      "nst": 8928,
      "Ġprominent": 8929,
      "riers": 8930,
      "ĠQuality": 8931,
      "ĠOcean": 8932,
      "Ġbaseball": 8933,
      "dale": 8934,
      "ĠVo": 8935,
      "ĠDid": 8936,
      "link": 8937,
      "ervative": 8938,
      "mad": 8939,
      "Ġlimits": 8940,
      "nect": 8941,
      "Ġdivided": 8942,
      "Ġcapabilities": 8943,
      "eve": 8944,
      "Ġportfolio": 8945,
      "Ġsoph": 8946,
      "elle": 8947,
      "Ġhate": 8948,
      "kers": 8949,
      "Ġcommunicate": 8950,
      "Ġpersonality": 8951,
      "Ġstro": 8952,
      "Ġcompliance": 8953,
      "oper": 8954,
      "Good": 8955,
      "Ġshoot": 8956,
      "Ġpreferred": 8957,
      "hops": 8958,
      "Ġenables": 8959,
      "Ġscientists": 8960,
      "Ġcarrying": 8961,
      "Ġinher": 8962,
      "Ġinsight": 8963,
      "owa": 8964,
      "ĠBir": 8965,
      "Ġaband": 8966,
      "Ġflavor": 8967,
      "Ġstake": 8968,
      "Ġjun": 8969,
      "Ġpassword": 8970,
      "ĠLady": 8971,
      "orted": 8972,
      "Ġmathema": 8973,
      "ĠKids": 8974,
      "ĠRon": 8975,
      "nyl": 8976,
      "Ġki": 8977,
      "ĠPublish": 8978,
      "ĠSign": 8979,
      "ĠHay": 8980,
      "Ġcivili": 8981,
      "Ġdies": 8982,
      "ĠBrazil": 8983,
      "eah": 8984,
      "Ġwinners": 8985,
      "Ġpricing": 8986,
      "ĠRome": 8987,
      "Ġevolution": 8988,
      "irl": 8989,
      "Ġpris": 8990,
      "ĠPur": 8991,
      "eties": 8992,
      "Ġspoke": 8993,
      "ĠWars": 8994,
      "Ġempty": 8995,
      "amic": 8996,
      "Ġdrawn": 8997,
      "Ġeggs": 8998,
      "lah": 8999,
      "onia": 9000,
      "ĠTransport": 9001,
      "Ġreturning": 9002,
      "Ġtransaction": 9003,
      "Ġperformances": 9004,
      "Ġintellect": 9005,
      "Ġgraphics": 9006,
      "Ġconsumption": 9007,
      "Ġstages": 9008,
      "emed": 9009,
      "Ġque": 9010,
      "Ġroads": 9011,
      "Ġminister": 9012,
      "Ġmeets": 9013,
      "Ġforever": 9014,
      "Ġsan": 9015,
      "Ġgrab": 9016,
      "Ġjournal": 9017,
      "abetes": 9018,
      "Ġlicensed": 9019,
      "Ġmic": 9020,
      "Ġtooth": 9021,
      "!!!<": 9022,
      "ĠBon": 9023,
      "Ġsomewhere": 9024,
      "atible": 9025,
      "ĠVen": 9026,
      "Ġprison": 9027,
      "Ġconsideration": 9028,
      "RL": 9029,
      "Ġdamaged": 9030,
      "/<": 9031,
      "titio": 9032,
      "Ġarray": 9033,
      "Ġbare": 9034,
      "Copyright": 9035,
      "DP": 9036,
      "vit": 9037,
      "hem": 9038,
      "Ġgym": 9039,
      "ĠMater": 9040,
      "ĠEdition": 9041,
      "proof": 9042,
      "Ġ44": 9043,
      "ĠDaily": 9044,
      "ĠCurrent": 9045,
      "Ġlucky": 9046,
      "tood": 9047,
      "Note": 9048,
      "aded": 9049,
      "Ġchairs": 9050,
      "Ġproposal": 9051,
      "press": 9052,
      "Ġchap": 9053,
      "Ġpossess": 9054,
      "Ġcm": 9055,
      "Ġbone": 9056,
      "ĠCustom": 9057,
      "Ġpiano": 9058,
      "friendly": 9059,
      "Ġapproaches": 9060,
      "Ġads": 9061,
      "His": 9062,
      "atric": 9063,
      "cut": 9064,
      "ĠMinnesota": 9065,
      "ĠBarb": 9066,
      "Ġflying": 9067,
      "Ġintegration": 9068,
      "ĠLau": 9069,
      "ĠMotor": 9070,
      "ncol": 9071,
      "Bec": 9072,
      "vol": 9073,
      "works": 9074,
      "Ġexpanded": 9075,
      "ĠSat": 9076,
      "tut": 9077,
      "inson": 9078,
      "Ġsupplement": 9079,
      "Ġescape": 9080,
      "phones": 9081,
      "Ġheating": 9082,
      "ĠHouston": 9083,
      "Rem": 9084,
      "Ġcomedy": 9085,
      "acon": 9086,
      "Ġacquis": 9087,
      "Ġindicate": 9088,
      "Ġdrinking": 9089,
      "unter": 9090,
      "Ġorganisation": 9091,
      "ĠOh": 9092,
      "Who": 9093,
      "linary": 9094,
      "ĠTry": 9095,
      "Ġrepeated": 9096,
      "Book": 9097,
      "tie": 9098,
      "rats": 9099,
      "Ġobjective": 9100,
      "Ġdoctors": 9101,
      "Ġhoping": 9102,
      "tural": 9103,
      "ervice": 9104,
      "Ġsuffered": 9105,
      "Ġrequirement": 9106,
      "ĠRen": 9107,
      "Ġocean": 9108,
      "Ġcenters": 9109,
      "ĠRaj": 9110,
      "Po": 9111,
      "Ġbid": 9112,
      "Sub": 9113,
      "Ġdeposit": 9114,
      "agi": 9115,
      "Bar": 9116,
      "INE": 9117,
      "Ġweapons": 9118,
      "Ġminds": 9119,
      "wear": 9120,
      "iser": 9121,
      "Ġceremony": 9122,
      "lects": 9123,
      "ciple": 9124,
      "achelor": 9125,
      "Ġ',": 9126,
      "Ġprem": 9127,
      "Ġaside": 9128,
      "GA": 9129,
      "Ġmolec": 9130,
      "Ġcircuit": 9131,
      "ĠAnnual": 9132,
      "xx": 9133,
      "ĠVegas": 9134,
      "ĠAh": 9135,
      "viation": 9136,
      "ĠStandard": 9137,
      "riger": 9138,
      "Ġpriority": 9139,
      "Ġpocket": 9140,
      "Ġ1000": 9141,
      "Ġneighb": 9142,
      "ĠLevel": 9143,
      "ĠSuch": 9144,
      "Ġvenue": 9145,
      "Ġparticipation": 9146,
      "Ġportra": 9147,
      "ĠDespite": 9148,
      "Then": 9149,
      "ĠPers": 9150,
      "ĠEqui": 9151,
      "Ġillust": 9152,
      "Ġrailway": 9153,
      "ino": 9154,
      "ĠBrad": 9155,
      "Ġevaluation": 9156,
      "ĠEff": 9157,
      "Early": 9158,
      "Ġsettlement": 9159,
      "ĠEver": 9160,
      "ighting": 9161,
      "\")": 9162,
      "ĠEric": 9163,
      "twork": 9164,
      "inets": 9165,
      "ĠSoc": 9166,
      "emin": 9167,
      "ĠWilson": 9168,
      "Ġlaid": 9169,
      "Ġcompetit": 9170,
      "ĠAge": 9171,
      "Ġlegisl": 9172,
      "Ġzero": 9173,
      "bow": 9174,
      "ĠBerlin": 9175,
      "ĠPrivate": 9176,
      "Ġbrid": 9177,
      "Ġmold": 9178,
      "Ġrefresh": 9179,
      "Ġstable": 9180,
      "je": 9181,
      "allas": 9182,
      "left": 9183,
      "Ġsensitive": 9184,
      "raine": 9185,
      "Ġeco": 9186,
      "Ġaut": 9187,
      "aga": 9188,
      "Ġpurchasing": 9189,
      "ĠRub": 9190,
      "amsung": 9191,
      "oners": 9192,
      "Ġmaintaining": 9193,
      "ĠJen": 9194,
      "apy": 9195,
      "tly": 9196,
      "ronze": 9197,
      "ĠLA": 9198,
      "Ġposting": 9199,
      "ĠHind": 9200,
      "Ġgraduated": 9201,
      "Chris": 9202,
      "Cons": 9203,
      "96": 9204,
      "chest": 9205,
      "Ġargument": 9206,
      "Ġ01": 9207,
      "ending": 9208,
      "sis": 9209,
      "erving": 9210,
      "Ġpotentially": 9211,
      "ĠHistoric": 9212,
      "Ġrequested": 9213,
      "Ġranking": 9214,
      "die": 9215,
      "ĠGovernor": 9216,
      "Tech": 9217,
      "ĠCasino": 9218,
      "ĠTurkey": 9219,
      "this": 9220,
      "Ġdraft": 9221,
      "Ġelectricity": 9222,
      "nde": 9223,
      "Mon": 9224,
      "Ġenjoying": 9225,
      "Ġfaced": 9226,
      "Ġ~": 9227,
      "Ġhits": 9228,
      "ĠSab": 9229,
      "Cur": 9230,
      "Ġpackages": 9231,
      "ĠProduct": 9232,
      "ĠMrs": 9233,
      "ĠName": 9234,
      "ĠâĨĴ": 9235,
      "97": 9236,
      "ĠQues": 9237,
      "foot": 9238,
      "ĠKorean": 9239,
      "ellite": 9240,
      "tune": 9241,
      "tims": 9242,
      "elve": 9243,
      "PL": 9244,
      "Down": 9245,
      "Ġprovision": 9246,
      "asted": 9247,
      "NC": 9248,
      "Ġinstruct": 9249,
      "ludes": 9250,
      "Ġembr": 9251,
      "tier": 9252,
      "therlands": 9253,
      "ĠDavis": 9254,
      "pend": 9255,
      "Ġlesson": 9256,
      "Ġclock": 9257,
      "Ġsatisfaction": 9258,
      "Ġerrors": 9259,
      "à¥": 9260,
      "Ġformation": 9261,
      "Ġtill": 9262,
      "ĠPS": 9263,
[...]
