{"<s>":0,"<pad>":1,"</s>":2,"<mask>":3,"<newline>":4,"<unk>":5,"!":6,"\"":7,"#":8,"$":9,"%":10,"&":11,"'":12,"(":13,")":14,"*":15,"+":16,",":17,"-":18,".":19,"/":20,"0":21,"1":22,"2":23,"3":24,"4":25,"5":26,"6":27,"7":28,"8":29,"9":30,":":31,";":32,"<":33,"=":34,">":35,"?":36,"@":37,"A":38,"B":39,"C":40,"D":41,"E":42,"F":43,"G":44,"H":45,"I":46,"J":47,"K":48,"L":49,"M":50,"N":51,"O":52,"P":53,"Q":54,"R":55,"S":56,"T":57,"U":58,"V":59,"W":60,"X":61,"Y":62,"Z":63,"[":64,"\\":65,"]":66,"^":67,"_":68,"`":69,"a":70,"b":71,"c":72,"d":73,"e":74,"f":75,"g":76,"h":77,"i":78,"j":79,"k":80,"l":81,"m":82,"n":83,"o":84,"p":85,"q":86,"r":87,"s":88,"t":89,"u":90,"v":91,"w":92,"x":93,"y":94,"z":95,"{":96,"|":97,"}":98,"~":99,"¡":100,"¢":101,"£":102,"¤":103,"¥":104,"¦":105,"§":106,"¨":107,"©":108,"ª":109,"«":110,"¬":111,"®":112,"¯":113,"°":114,"±":115,"²":116,"³":117,"´":118,"µ":119,"¶":120,"·":121,"¸":122,"¹":123,"º":124,"»":125,"¼":126,"½":127,"¾":128,"¿":129,"À":130,"Á":131,"Â":132,"Ã":133,"Ä":134,"Å":135,"Æ":136,"Ç":137,"È":138,"É":139,"Ê":140,"Ë":141,"Ì":142,"Í":143,"Î":144,"Ï":145,"Ð":146,"Ñ":147,"Ò":148,"Ó":149,"Ô":150,"Õ":151,"Ö":152,"×":153,"Ø":154,"Ù":155,"Ú":156,"Û":157,"Ü":158,"Ý":159,"Þ":160,"ß":161,"à":162,"á":163,"â":164,"ã":165,"ä":166,"å":167,"æ":168,"ç":169,"è":170,"é":171,"ê":172,"ë":173,"ì":174,"í":175,"î":176,"ï":177,"ð":178,"ñ":179,"ò":180,"ó":181,"ô":182,"õ":183,"ö":184,"÷":185,"ø":186,"ù":187,"ú":188,"û":189,"ü":190,"ý":191,"þ":192,"ÿ":193,"Ā":194,"ā":195,"Ă":196,"ă":197,"Ą":198,"ą":199,"Ć":200,"ć":201,"Ĉ":202,"ĉ":203,"Ċ":204,"ċ":205,"Č":206,"č":207,"Ď":208,"ď":209,"Đ":210,"đ":211,"Ē":212,"ē":213,"Ĕ":214,"ĕ":215,"Ė":216,"ė":217,"Ę":218,"ę":219,"Ě":220,"ě":221,"Ĝ":222,"ĝ":223,"Ğ":224,"ğ":225,"Ġ":226,"ġ":227,"Ģ":228,"ģ":229,"Ĥ":230,"ĥ":231,"Ħ":232,"ħ":233,"Ĩ":234,"ĩ":235,"Ī":236,"ī":237,"Ĭ":238,"ĭ":239,"Į":240,"į":241,"İ":242,"ı":243,"Ĳ":244,"ĳ":245,"Ĵ":246,"ĵ":247,"Ķ":248,"ķ":249,"ĸ":250,"Ĺ":251,"ĺ":252,"Ļ":253,"ļ":254,"Ľ":255,"ľ":256,"Ŀ":257,"ŀ":258,"Ł":259,"ł":260,"Ń":261,"ne":262,"Ġd":263,"es":264,"Ìģ":265,"re":266,"on":267,"Ġl":268,"en":269,"Ġp":270,"Ġa":271,"li":272,"Ġde":273,"ou":274,"te":275,"Ġc":276,"Ġs":277,"an":278,"ti":279,"line":280,"er":281,"new":282,"newline":283,"le":284,"is":285,"Ġe":286,"qu":287,"ÌĢ":288,"ar":289,"in":290,"Ġm":291,"ent":292,"ur":293,"ai":294,"or":295,"tion":296,"Ġla":297,"Ġv":298,"âĢ":299,"Ġf":300,"Ġet":301,"Ġt":302,"our":303,"om":304,"Ġle":305,"âĢĻ":306,"que":307,"ri":308,"ra":309,"Ġu":310,"il":311,"ce":312,"ĠC":313,"se":314,"ro":315,"Ġen":316,"me":317,"Ġre":318,"ment":319,"ie":320,"ve":321,"au":322,"ch":323,"Ġb":324,"as":325,"Ġn":326,"Ġdes":327,"ĠL":328,"al":329,"Ġles":330,"ge":331,"de":332,"ĠP":333,"ĠS":334,"Ġ1":335,"us":336,".<":337,"it":338,"ÌĤ":339,"ant":340,"Ġ2":341,"est":342,"ĠM":343,"ation":344,"ĠA":345,"ous":346,"tre":347,"res":348,"Ġqu":349,"si":350,"Ġdu":351,"Ġau":352,"oi":353,"Ġpour":354,"Ġj":355,"ans":356,"Ġpar":357,"ĠD":358,"Ġ(":359,"Ġun":360,"at":361,"Ġcon":362,"..":363,"pe":364,"ci":365,"ĠB":366,"ais":367,"Ġ:":368,"Ġg":369,"os":370,"ter":371,"eu":372,"di":373,"lle":374,"ĠE":375,"Ġch":376,"ont":377,"et":378,"Ġque":379,"Ġcom":380,"ĠT":381,"Ġsur":382,"Ġpl":383,"01":384,"Ġ-":385,"ol":386,"ĠR":387,"Ġse":388,"mp":389,"Ġin":390,"ĠF":391,"00":392,"Ġpro":393,"ac":394,"Ġune":395,"Ġest":396,"ue":397,"ab":398,"Ġdans":399,"les":400,"age":401,"ait":402,"ff":403,"ag":404,"ite":405,"Ġh":406,"am":407,"un":408,"Ġpas":409,"ran":410,"che":411,"ers":412,"Ġqui":413,"ure":414,"ot":415,"ĠG":416,"ĠI":417,"Ġpre":418,"ĠV":419,"Ġme":420,"ĠN":421,"Ġou":422,"ons":423,"aire":424,"Ġce":425,"ic":426,"ĠÂ":427,"vec":428,"onne":429,"ir":430,"oc":431,"tes":432,"ig":433,"ali":434,"ul":435,"urs":436,"ĠJ":437,"he":438,"Ġplus":439,"ale":440,"Ġan":441,"pp":442,"Ġavec":443,"Ġne":444,"Ġ201":445,"ine":446,"ain":447,"ĠH":448,"ort":449,"Ġvous":450,"Ġsu":451,"ille":452,"im":453,"ois":454,"iv":455,"Ġ3":456,"ces":457,"ren":458,"Ġo":459,"oir":460,"ques":461,"ux":462,"ction":463,"ien":464,"Ġte":465,"la":466,"Ġtou":467,"du":468,"ier":469,"rou":470,"ct":471,"Ġvo":472,"Ġil":473,"og":474,"Ġav":475,"ate":476,"bre":477,"Ġex":478,"ris":479,"ble":480,"ap":481,"ique":482,"Ġmo":483,"ad":484,"ts":485,"el":486,"ĠO":487,"ver":488,"ĠLe":489,"and":490,"aux":491,"ance":492,"ati":493,"ten":494,"av":495,"op":496,"um":497,"nes":498,"Ġ0":499,"ss":500,"Ġcomp":501,"Ì§":502,"ĠCh":503,"tu":504,"Ġdi":505,"rie":506,"Ġsont":507,"ĠDe":508,"...":509,"Ġ|":510,"orm":511,"entre":512,"ui":513,"Ġ4":514,"uis":515,"une":516,"able":517,"Ġra":518,"><":519,"Ġi":520,"ut":521,"Ġpeu":522,"st":523,"ĠÂ»":524,"ub":525,"Ġson":526,"Ġ5":527,"ser":528,"Ġpe":529,"dre":530,"Ġmais":531,"Ġser":532,"ette":533,"ard":534,"ay":535,"Ġ19":536,"Ġje":537,"ĠLa":538,"ili":539,"ĠRe":540,"ations":541,"ing":542,"mes":543,"ĠU":544,"ion":545,"ouve":546,")<":547,"ours":548,"con":549,"ls":550,"ore":551,"ist":552,"Ġ!":553,"Ġvotre":554,"Ġaux":555,"Ġmar":556,"ĠW":557,"oin":558,"Ġac":559,"lo":560,"Ġmon":561,"Ġtra":562,"Ġco":563,"Ġar":564,"ĠÂ«":565,"pre":566,"ors":567,"ants":568,"Ġbe":569,"em":570,"Ġno":571,"Ġcomm":572,"ru":573,"Ġnous":574,"teur":575,"com":576,"ence":577,"tique":578,"aires":579,"ll":580,"vi":581,"Ġper":582,"ace":583,"end":584,"sion":585,"Ġparti":586,"ments":587,"Ġ6":588,"Ġsa":589,"tt":590,"rai":591,"ose":592,"tif":593,"Ġ,":594,"Ġsi":595,"Ġ\"":596,"ĠEn":597,"ĠâĢ":598,"ise":599,"be":600,"ord":601,"Ġren":602,"ĠK":603,"ph":604,"aut":605,"ĠLes":606,"ens":607,"Ġy":608,"ures":609,"Ġdis":610,"tions":611,"ente":612,"ins":613,"Ġst":614,"Ġ?":615,"par":616,"Ġbien":617,"oire":618,"Ġ7":619,"Ġcou":620,"Le":621,"Ġtout":622,"ante":623,"cou":624,"oli":625,"201":626,"des":627,"Ġw":628,"Ġcette":629,"cri":630,"Ġfait":631,"Ġcar":632,"Ġr":633,"ert":634,"20":635,"Ġentre":636,"Ġsou":637,"lles":638,"Ġcomme":639,"Ġapp":640,"ide":641,"ang":642,"fe":643,"jet":644,"Ġaut":645,"Ġon":646,"ĠMar":647,"ĠPar":648,"cher":649,"tin":650,"ussi":651,"ex":652,"Ġpers":653,"Ġ/":654,"Ġ8":655,"ner":656,"ven":657,"...<":658,"ill":659,"cu":660,"Ġtre":661,"Ġres":662,"orte":663,"id":664,"ĠIn":665,"ob":666,"Ġ<":667,"ĠIl":668,"ubli":669,"ture":670,"Ġ9":671,"aine":672,"Ġfaire":673,"Ġk":674,"ond":675,"ĠFran":676,"),":677,"Ġses":678,"alite":679,"Ìģ,":680,"Ġso":681,"sse":682,"all":683,"Ġ200":684,"ages":685,"Ġgra":686,"Ġâ":687,"tic":688,"ni":689,"out":690,"ES":691,"oy":692,"Ġont":693,"Ġpri":694,"tement":695,"ire":696,"are":697,"Ġfil":698,"Ġthe":699,"nt":700,"tili":701,"Ġpr":702,"ffe":703,"Ġ10":704,"10":705,"its":706,"eux":707,"Ġnouve":708,"Ġge":709,"Ġma":710,"Ĥ¬":711,"Ġaussi":712,"ail":713,"form":714,"ric":715,"Ġgran":716,"Ġprop":717,"vent":718,"ass":719,"Ġal":720,"ON":721,"ande":722,"Ġtrav":723,"ER":724,"ÌĪ":725,"Ġnom":726,"ess":727,"ole":728,"ĠCom":729,"tat":730,"Ġpeut":731,"igne":732,"ĠJe":733,"Ġdeux":734,"Ġfor":735,"Ġpos":736,"La":737,"Ġ20":738,"mps":739,"ho":740,"Ġcont":741,"Ġfin":742,"ĠQ":743,"ste":744,"19":745,"tiv":746,"iste":747,"ong":748,"Ġph":749,"Ġter":750,"per":751,"ib":752,"Ġad":753,"Ġleur":754,"Ġinter":755,"alement":756,"onc":757,"mbre":758,"Ġprodu":759,"use":760,"tte":761,"Ġimp":762,"Ġconc":763,"Ġche":764,"lan":765,"Ġprem":766,"Ġsans":767,"tie":768,"Ġor":769,"Ġcre":770,"Ġ18":771,"mb":772,"50":773,"ĠAn":774,"ales":775,"asse":776,"Les":777,"Ġtrou":778,"Ġpersonne":779,"Ġces":780,"Ġprof":781,"oo":782,"ĠâĢĵ":783,"Ġmin":784,"12":785,"rise":786,"ption":787,"osi":788,"Ġjour":789,"fin":790,"pon":791,"AN":792,"olog":793,"tit":794,"Ġtous":795,"Ġca":796,"Ġcons":797,"....":798,").":799,"Ġcl":800,"lement":801,"one":802,"omme":803,"sent":804,"tel":805,"ense":806,"30":807,"En":808,"Ġve":809,"enne":810,"aille":811,"Ġ;":812,"rans":813,"Ġ12":814,"ĠSe":815,"Ġans":816,"ron":817,"mer":818,"Re":819,"ile":820,"Ġju":821,"Ġman":822,"Ġdonne":823,"EN":824,"aint":825,"ches":826,"vez":827,"ign":828,"ĠFrance":829,"Ġquel":830,"Ġob":831,"11":832,"ke":833,"Ġtro":834,"UR":835,"th":836,"mis":837,"ode":838,"ari":839,"Ġfran":840,"ww":841,"emp":842,"Ġjus":843,"--":844,"tait":845,"alle":846,"Ġdire":847,"Ġvos":848,"Ġnotre":849,"Ġ15":850,"cl":851,"Ġ[":852,"Ġsy":853,"Ġpubli":854,"ome":855,"Ġim":856,"ration":857,"cip":858,"__":859,"Ġfe":860,"qui":861,"ger":862,"Ġti":863,"Ġder":864,"ĠCe":865,"ies":866,"IN":867,"vis":868,"enti":869,"Ġjeu":870,"ame":871,"Ġro":872,"agne":873,"De":874,"lin":875,"Ġri":876,"Ġoff":877,"olu":878,"Ġelle":879,"AR":880,"Ġconf":881,"onn":882,"core":883,"ĠPour":884,"sation":885,"puis":886,"\":":887,"ps":888,"ma":889,"Ġass":890,"ĠUn":891,"min":892,"iques":893,"der":894,"port":895,"Ġes":896,"rique":897,"ĠMe":898,"lie":899,"000":900,"ĠSt":901,"Ġcha":902,"Ġsite":903,"ow":904,"Ġtemps":905,"Ġret":906,"Ġvie":907,"ves":908,"Ġvis":909,"jour":910,"ents":911,"arge":912,"ateur":913,"ĠAr":914,"ains":915,"Ġutili":916,"app":917,"Ġ14":918,"Ġ17":919,"ĠâĤ¬":920,"18":921,"Ġperme":922,"aient":923,"nie":924,"\",":925,"je":926,"vre":927,"Ġsous":928,"Ġlui":929,"ds":930,"iss":931,"Ġ16":932,"aci":933,"Ġpuis":934,"mi":935,"aute":936,"Ġcli":937,"Ìģ.":938,"ppe":939,"ope":940,"ils":941,"ade":942,"Ġver":943,"rit":944,"tiques":945,"insi":946,"mar":947,"oit":948,"Ġ.":949,"emme":950,"tive":951,"15":952,"ivre":953,"ler":954,"14":955,"cre":956,"Ġfon":957,"Ġcas":958,"Ġ*":959,"Un":960,"Ġ13":961,"ĠPro":962,"uer":963,"Ġsit":964,"Ġprix":965,"ays":966,"ances":967,"gre":968,"Ġ!<":969,"//":970,"erci":971,"ues":972,"isse":973,"elle":974,"teurs":975,"to":976,"Ġinte":977,"ieux":978,"Ġform":979,"mble":980,"Ġspe":981,"rait":982,"Ġdev":983,"Ġdou":984,"Ġbon":985,"ouv":986,"Ch":987,"Ġat":988,"ume":989,"gra":990,"16":991,"Ġcor":992,"ia":993,"Ġrou":994,"IS":995,"co":996,"Ġth":997,"17":998,"ĠY":999,"ive":1000,"13":1001,"Ġtrans":1002,"rent":1003,"Ġavant":1004,"LE":1005,"ilite":1006,"Ġmes":1007,"://":1008,"Ġof":1009,"Ġexp":1010,"dent":1011,"lus":1012,"!!":1013,"lect":1014,"illi":1015,"Ġeff":1016,"22":1017,"Ġseu":1018,"Ġcour":1019,"Ġencore":1020,"Ġfranc":1021,"Ġnombre":1022,"Ġpart":1023,"Ġdem":1024,"ĠEt":1025,"Ġfois":1026,"Ġkm":1027,"TI":1028,"lic":1029,"galement":1030,"ĠSaint":1031,"contre":1032,"ici":1033,"ange":1034,"vri":1035,"gan":1036,"RE":1037,"Ġmet":1038,"resse":1039,"cue":1040,"Ġdonc":1041,"tra":1042,"Ġnos":1043,"Ġanne":1044,"Ġlors":1045,"aison":1046,"Ġnon":1047,"Ġ&":1048,"Ġdro":1049,"az":1050,"ature":1051,"Â°":1052,"Ġcan":1053,"fr":1054,"Ġ:<":1055,"TE":1056,"Ġven":1057,"Ġis":1058,"Ġainsi":1059,"ĠAl":1060,"Ġmode":1061,"Ġmal":1062,"ak":1063,"Ġab":1064,"Ġdepuis":1065,"In":1066,"ĠParis":1067,"rais":1068,"vel":1069,"ane":1070,"Ġ#":1071,"Ġ11":1072,"Ġhe":1073,"ov":1074,"antes":1075,"cess":1076,"40":1077,"eure":1078,"ack":1079,"ocie":1080,"Ġand":1081,"inte":1082,"Ġenv":1083,"Ġgratu":1084,"ase":1085,"Ġcontre":1086,"dition":1087,"Ġtu":1088,"Ġapre":1089,"Ġphot":1090,"ĠAu":1091,"ieu":1092,"ry":1093,"Ġdont":1094,"ges":1095,"ctions":1096,"Ġmoins":1097,"non":1098,"Ġconn":1099,"Ġpie":1100,"oul":1101,"quipe":1102,"cteur":1103,"ables":1104,"Ġbeau":1105,"ĠX":1106,"ĠBe":1107,"uelle":1108,"Ġplace":1109,"Ġmai":1110,"lier":1111,"Ġchau":1112,"art":1113,"uel":1114,"endant":1115,"rence":1116,"amb":1117,"Ġoc":1118,"dic":1119,"Ġrep":1120,"avoir":1121,"Ġpren":1122,"fic":1123,"Ġmonde":1124,"Ġpoin":1125,"ĠCon":1126,"ach":1127,"aines":1128,"Ġ2018":1129,"lig":1130,"ix":1131,"tez":1132,"Ġmeille":1133,"nement":1134,"aise":1135,"Ġdiffe":1136,"25":1137,"jours":1138,"alise":1139,"Ġenf":1140,"Ġ2017":1141,"sp":1142,"Ġloc":1143,"Ġ?<":1144,"estion":1145,"anne":1146,"Ġto":1147,"oste":1148,"titu":1149,"ĠSu":1150,").<":1151,"rib":1152,"Ġcert":1153,"Ġcv":1154,"tis":1155,"ich":1156,"Ġconse":1157,"Ġtour":1158,"Ġrec":1159,"Ġligne":1160,"ommes":1161,"cien":1162,"Ġprofes":1163,"ĠZ":1164,"sionne":1165,"Ġcomment":1166,"24":1167,"ats":1168,"Ġsuis":1169,"Ġlong":1170,"Ġ...":1171,"tivite":1172,"Ġrecher":1173,"Je":1174,"200":1175,"rer":1176,"Ġcap":1177,"aur":1178,"Ġtoute":1179,"Ġleurs":1180,"ĠDE":1181,"cription":1182,"60":1183,"ogra":1184,"amp":1185,"Ġtoutes":1186,"osition":1187,"Ġcol":1188,"ook":1189,"Ġcommun":1190,"pte":1191,"Ġcher":1192,"cur":1193,"ja":1194,"ĠPe":1195,">-":1196,"cle":1197,"net":1198,"vice":1199,"99":1200,"Ġbou":1201,"Ġpeti":1202,"Ġpoli":1203,"ath":1204,"Ġ30":1205,"Ġavoir":1206,"ticle":1207,"Ġmain":1208,"Åĵ":1209,"ĠDes":1210,"iver":1211,"ber":1212,"Ġsoit":1213,"let":1214,"Ġvi":1215,"ly":1216,"Ġgar":1217,"pport":1218,"Ġjou":1219,"Ġ>":1220,"ĠThe":1221,"eur":1222,"rez":1223,"23":1224,"ĠTe":1225,"lu":1226,"Ġpays":1227,"Ar":1228,"ta":1229,"80":1230,"su":1231,"ieurs":1232,"Ġfonction":1233,"iel":1234,"rieur":1235,"Ġtech":1236,"Ġ+":1237,"ĠCar":1238,"imp":1239,"Ġtoujours":1240,"Ġrencontre":1241,"Ġalors":1242,"od":1243,"illes":1244,"Ġconst":1245,"Ġfer":1246,"Ġmaison":1247,"Ġprin":1248,"ann":1249,"27":1250,"pes":1251,"jou":1252,"quer":1253,"Ġautres":1254,"Ġsera":1255,"for":1256,"Ġcro":1257,"cer":1258,"prise":1259,"Ġ%":1260,"leur":1261,"coup":1262,"lon":1263,"aiss":1264,"tant":1265,"Ġmois":1266,"sible":1267,"urope":1268,"Ġchez":1269,"90":1270,"Pour":1271,"ites":1272,"ĠCo":1273,"ĠGe":1274,"Ġquelques":1275,"Ġsoci":1276,"Ġpouv":1277,"Ġdisp":1278,"tats":1279,"oix":1280,"ros":1281,"vier":1282,"ress":1283,"Ġdom":1284,"rom":1285,"Ġag":1286,"Ġfac":1287,"gie":1288,"Ġfiles":1289,"ĠNe":1290,"Ġva":1291,"Ġ2016":1292,"ĠMon":1293,"Il":1294,"ral":1295,"ause":1296,"OU":1297,"Ġpremie":1298,"ote":1299,"Ġvers":1300,"ions":1301,"Ġprojet":1302,"Ġsimp":1303,"Ġ=":1304,"ze":1305,"ĠPre":1306,"ust":1307,"Ġtravail":1308,"oci":1309,"26":1310,"Ġtrouve":1311,"Ġ24":1312,"33":1313,"tier":1314,"atique":1315,"ivers":1316,"Ġcolle":1317,"Ġgrand":1318,"ype":1319,"lique":1320,"Ġ2019":1321,"Ġfam":1322,"eb":1323,"Ġsuiv":1324,"roupe":1325,"Ġpermet":1326,"ateurs":1327,"Ġfaut":1328,"ĠOn":1329,"Ġvrai":1330,"ĠVous":1331,"Ġpersonnes":1332,"iens":1333,"**":1334,"ĠUne":1335,"bles":1336,"site":1337,"AL":1338,"28":1339,"ograph":1340,"if":1341,"cis":1342,"Su":1343,"ĠChau":1344,"Ġcela":1345,"Ġpasse":1346,"Ġame":1347,"ht":1348,"ttes":1349,"Ġjours":1350,"conom":1351,"Â»":1352,"lace":1353,"Ġ21":1354,"velop":1355,"log":1356,"âĤ¬":1357,"Ġ25":1358,"Ġmoi":1359,"ah":1360,"ime":1361,"pt":1362,"Ġtrois":1363,"Ġporte":1364,"Ġx":1365,"45":1366,"lanc":1367,"die":1368,"ĠEx":1369,"ĠNous":1370,"OR":1371,"ices":1372,"alis":1373,"Ġam":1374,"tro":1375,"Ġmis":1376,"eau":1377,"istoire":1378,"DF":1379,"Ġsal":1380,"ax":1381,"tine":1382,"Ġpremier":1383,"hui":1384,"Ġli":1385,"uisine":1386,"ck":1387,"fs":1388,"vie":1389,"Ġprom":1390,"Ġplusieurs":1391,"emple":1392,"Ġville":1393,"Ġsp":1394,"29":1395,"Ġinst":1396,"70":1397,"Com":1398,"Ġbeaucoup":1399,"Ġils":1400,"iche":1401,"Ġbonne":1402,"Ġrecherche":1403,"\",\"":1404,"ĠMais":1405,"cul":1406,"Ġnot":1407,"Ġqualite":1408,"Ġavait":1409,"An":1410,"ller":1411,"veloppe":1412,"ock":1413,"Ġmus":1414,"Ġ23":1415,"oe":1416,"gion":1417,"ĠPh":1418,"ox":1419,"gne":1420,"vous":1421,"Ġ22":1422,"rement":1423,"ourn":1424,"ager":1425,"Ġbi":1426,"Ġpartie":1427,"Ġz":1428,"val":1429,"Par":1430,"ctif":1431,"emmes":1432,"abit":1433,"Ġprofessionne":1434,"Ġreste":1435,"sul":1436,"rive":1437,"Ġautre":1438,"Ġpetit":1439,"Ġjusqu":1440,"Ġpublic":1441,"Ġvoir":1442,"Ġvoy":1443,"cor":1444,"lex":1445,"cueil":1446,"ttp":1447,"oires":1448,"ĠCl":1449,"olution":1450,"tres":1451,"Ġ2015":1452,"ouver":1453,"uses":1454,"ambre":1455,"Ġparf":1456,"cas":1457,"sions":1458,"rand":1459,"Ġmoy":1460,"ĠTh":1461,"ression":1462,"gn":1463,"sente":1464,"ĠQu":1465,"Ġaff":1466,"Ġcours":1467,"Ġdit":1468,"ssures":1469,"man":1470,"esoin":1471,"air":1472,"gram":1473,"cont":1474,"AS":1475,"Ġindi":1476,"mon":1477,"35":1478,"!<":1479,"iles":1480,"nier":1481,"Ġcet":1482,"Ġquand":1483,"Ġemp":1484,"anger":1485,"cte":1486,"Ġserv":1487,"Ġent":1488,"Ġsyste":1489,"illet":1490,"autres":1491,"istre":1492,"ĠSi":1493,"IL":1494,"Ġmom":1495,"Ġavis":1496,"tab":1497,"comp":1498,"Ġservice":1499,"Ġsh":1500,"Ġmag":1501,"Ġnouveau":1502,"ouvez":1503,"75":1504,"ĠÂ»,":1505,"ute":1506,"Ġmarche":1507,"Ġ$":1508,"CH":1509,"uit":1510,"col":1511,"ganis":1512,"Ġsuite":1513,"Ġinform":1514,"ori":1515,"nation":1516,"Ġchaque":1517,"78":1518,"Ġdiff":1519,"Ġ2014":1520,"05":1521,"ible":1522,"Ġparticu":1523,"pons":1524,"Ġten":1525,"Ġbesoin":1526,"Ġpouvez":1527,"Ġnive":1528,"ye":1529,"Ġrest":1530,"Ġpartir":1531,"rents":1532,"elles":1533,"Ġgrande":1534,"ĠJu":1535,"Ġvol":1536,"tien":1537,"Ġport":1538,"ĠElle":1539,"Ġeffet":1540,"Ġsor":1541,"Ġcompte":1542,"rix":1543,"ĠCan":1544,"df":1545,"Ġnature":1546,"Ġdemande":1547,"06":1548,"Ġproble":1549,"Ġnation":1550,"Ġmer":1551,"ting":1552,"ind":1553,"Ġdoit":1554,"Ġ2013":1555,"Ġtrop":1556,"rises":1557,"ines":1558,"act":1559,"Ġpropose":1560,"Ġsol":1561,"www":1562,"Ġproduits":1563,"ots":1564,"Ġreg":1565,"ulture":1566,"21":1567,"part":1568,"46":1569,"Ġrap":1570,"Ġide":1571,"03":1572,"iers":1573,"assi":1574,"Ġnouvelle":1575,"Ġtrai":1576,"Au":1577,"ologie":1578,"int":1579,"amment":1580,"duction":1581,"jourd":1582,"ule":1583,"Ġprincip":1584,"ok":1585,"Ġsavoir":1586,"Ġpra":1587,"cture":1588,"Ġ2012":1589,"loi":1590,"ton":1591,"Â«":1592,"48":1593,"ik":1594,"alisation":1595,"utili":1596,"Ġimport":1597,"Ġsem":1598,"fie":1599,"____":1600,"Ġmilli":1601,"ice":1602,"ĠJean":1603,"acte":1604,"ril":1605,"Ġpeuvent":1606,"EL":1607,"Ġas":1608,"ierre":1609,"Ġess":1610,"Ġaur":1611,"Ġ100":1612,"95":1613,"mine":1614,"dit":1615,"04":1616,"ĠAc":1617,"Ġfre":1618,"........":1619,"ern":1620,"US":1621,"OM":1622,"Ġenfants":1623,"sh":1624,"Ġvoit":1625,"Ġvide":1626,"07":1627,"rice":1628,"Ce":1629,"anc":1630,"Ġprote":1631,"Ġafin":1632,"Ġfilm":1633,"Ġins":1634,"Ġfaci":1635,"\":\"":1636,"36":1637,"38":1638,"Ġmise":1639,"otre":1640,"Ġfemme":1641,"ses":1642,"ĠPDF":1643,"AC":1644,"venir":1645,"Ġsocie":1646,"Ìģ.<":1647,"Ġexemple":1648,"02":1649,"08":1650,"Poste":1651,"ĠDans":1652,"anvier":1653,"gl":1654,"Ġmoment":1655,"adi":1656,"Ġremp":1657,"Ġpa":1658,"Ġfond":1659,"gor":1660,"Ġcal":1661,"Ġpropos":1662,"Ġappe":1663,"cite":1664,"Ġthis":1665,"inter":1666,"lui":1667,"AT":1668,"crit":1669,"ception":1670,"Ġcoup":1671,"Ġple":1672,"ditions":1673,"ĠFemme":1674,"aul":1675,"Ġdispon":1676,"Al":1677,"ith":1678,"yle":1679,"rage":1680,"Ġmettre":1681,"Ġavons":1682,"ardin":1683,"Ġ'":1684,"Ġjuin":1685,"isme":1686,"ĠCou":1687,"Ac":1688,"gu":1689,"ville":1690,"Ġgroupe":1691,"den":1692,"Ġmars":1693,"Ġlieu":1694,"exp":1695,"ĠSer":1696,"09":1697,"Ġtechn":1698,"Ġproduit":1699,"tudi":1700,"Ġmati":1701,"car":1702,"Ġatt":1703,"44":1704,"ĠHo":1705,"Ġatten":1706,"Ġavez":1707,"Ġappar":1708,"omm":1709,"ienne":1710,"aly":1711,"Ġniveau":1712,"Ġbase":1713,"Ìģ<":1714,"iti":1715,"55":1716,"ptembre":1717,"anti":1718,"Mar":1719,"Ġsouh":1720,"vient":1721,"curite":1722,"comm":1723,"ĠDu":1724,"Ġsupp":1725,"Ġho":1726,"uation":1727,"rale":1728,"Ġutilise":1729,"Ġ28":1730,"39":1731,"nonce":1732,"ĠMan":1733,"Ġmont":1734,"ud":1735,"IC":1736,"AU":1737,"ĠFranc":1738,"vo":1739,",\"":1740,"aissance":1741,"Ġforme":1742,"tenir":1743,">âĢ":1744,"opul":1745,"mo":1746,"Ġ26":1747,"Ġprogram":1748,"Ġbas":1749,"ocu":1750,"Ġ06":1751,"76":1752,"Ġgratuit":1753,"agn":1754,"rat":1755,"Ġfut":1756,"]<":1757,"Ġrais":1758,"riel":1759,"Ġdernie":1760,"âĢĿ":1761,"aff":1762,"Ġlivre":1763,"34":1764,"tabli":1765,"vrier":1766,"tenant":1767,"rain":1768,"Ġcomple":1769,"cembre":1770,"Ġrapide":1771,"Ġrapport":1772,"omb":1773,"po":1774,"vembre":1775,"imite":1776,"ĠPas":1777,"AM":1778,"Ġselon":1779,"Ġbois":1780,"Ġesp":1781,"Ġici":1782,");":1783,"Pro":1784,"Ġpoint":1785,"Ġacce":1786,"ars":1787,"lection":1788,"Ġpendant":1789,"Ġservices":1790,"Ġplan":1791,"ug":1792,"ĠChe":1793,"IT":1794,"Ġtrouver":1795,"char":1796,"Ġtable":1797,"ĠSh":1798,"Ġ50":1799,"Vous":1800,"oris":1801,"IE":1802,"Ġrien":1803,"OS":1804,"voir":1805,"Ġcuisine":1806,"ĠFe":1807,"Ġprendre":1808,"ĠBl":1809,"ssement":1810,"Ġcharge":1811,"ative":1812,"phone":1813,"Ġcad":1814,"ĠInter":1815,"Ġsalle":1816,"cheter":1817,"Ġnume":1818,"Ġpense":1819,"Ġ2011":1820,"Ġdim":1821,"Ġchois":1822,"but":1823,"onnement":1824,"Ġlog":1825,"Ġjanvier":1826,"Ġsie":1827,"Ġjam":1828,"ets":1829,"rim":1830,"UE":1831,"Ġ27":1832,"did":1833,"Ġquestion":1834,"ences":1835,"Ġlit":1836,"enter":1837,"aisse":1838,"Ġdroit":1839,"Ġ01":1840,"DE":1841,"49":1842,"Ġ...<":1843,"Ġdur":1844,"Ġdernier":1845,"we":1846,"gent":1847,"Ġpermett":1848,"TION":1849,"ffre":1850,"Ġcent":1851,"tels":1852,"Ġfile":1853,"Ġop":1854,"37":1855,"Ġact":1856,"Ġsour":1857,"ave":1858,"Ġfais":1859,"Ġrepre":1860,"Ġsitue":1861,"ttps":1862,"Ġcompren":1863,"Ġmieux":1864,"ĠQue":1865,"inst":1866,"Ġcentre":1867,"leurs":1868,"Ġpouvoir":1869,"ĠCette":1870,"Ġenvir":1871,"tout":1872,"ĠGra":1873,"son":1874,"bat":1875,"Ġpossible":1876,">Â«":1877,"obili":1878,"Une":1879,"tobre":1880,"Ġdescription":1881,"Sujet":1882,",<":1883,"gement":1884,"yn":1885,"Ġsau":1886,"las":1887,"rite":1888,"Ġcelui":1889,"ape":1890,"ront":1891,"sident":1892,"Ġpdf":1893,"Ġmili":1894,"Ġpersonn":1895,"Ġ199":1896,"Ġrece":1897,"rant":1898,"erm":1899,"Ġchoix":1900,"ouse":1901,"anche":1902,"Ġcm":1903,"cine":1904,"NE":1905,"dro":1906,"Ġmess":1907,"Ġconstru":1908,"ĠMont":1909,"Ġ.<":1910,"atch":1911,"Ġauc":1912,"Ġliv":1913,"bilite":1914,"af":1915,"Ġjamais":1916,"ĠMo":1917,"ĠSur":1918,"aite":1919,"Ġhum":1920,"rig":1921,"Ġ2010":1922,"Ġfamille":1923,"veloppement":1924,"Ġseptembre":1925,"ulte":1926,"56":1927,"taire":1928,"ĠAd":1929,"Ġmen":1930,"Ġceux":1931,"Ġeu":1932,"llement":1933,"idi":1934,"ĠVe":1935,"phe":1936,"47":1937,"pro":1938,"ĠChaussures":1939,"Ġchar":1940,"serv":1941,"Ġsub":1942,"Ġinf":1943,"Ìĥ":1944,"ae":1945,"side":1946,"Ġhabit":1947,"----":1948,"Ġ29":1949,"Ho":1950,"Ġsecon":1951,"Ġ000":1952,"Ġnotamment":1953,"land":1954,"pect":1955,"Ġretrou":1956,"Ġpromo":1957,"Ġvraiment":1958,"aud":1959,"Ġavril":1960,"Ġjuillet":1961,"ras":1962,"Ġchange":1963,"pare":1964,"Ġimm":1965,"ost":1966,"Se":1967,"Ġpopul":1968,"ĠPlus":1969,"Ġoctobre":1970,"cent":1971,"Ġbar":1972,"Ġpage":1973,"Ġsuper":1974,"Ġtot":1975,"Ġnovembre":1976,"Ġense":1977,"forme":1978,"duc":1979,"Ġtype":1980,"orter":1981,"Ġcompe":1982,"sur":1983,"rences":1984,"leu":1985,"mm":1986,"oule":1987,"ribu":1988,"Ġmate":1989,"rin":1990,"ĠBar":1991,"Ġref":1992,"ENT":1993,"uto":1994,"Ġsouvent":1995,"aces":1996,"ographie":1997,"agement":1998,"cole":1999,"pond":2000,"io":2001,"vrir":2002,"aie":2003,"Ġris":2004,"dia":2005,"otes":2006,"ĠÂ»<":2007,"action":2008,"sie":2009,"conn":2010,"Ġvoyage":2011,"oto":2012,"RO":2013,"Ġmarque":2014,"32":2015,"Ġfemmes":2016,"Ġface":2017,"Ġpolitique":2018,"prises":2019,"quoi":2020,"ĠComment":2021,"sy":2022,"serve":2023,"rime":2024,"31":2025,"ĠOr":2026,"Ġbec":2027,"Ġtoi":2028,"dis":2029,"casion":2030,"cord":2031,"Ġshort":2032,"mpe":2033,"esp":2034,"Ġvendre":2035,"vention":2036,"58":2037,"Ġdist":2038,"Ġtant":2039,"chat":2040,"tifs":2041,"Ġsoi":2042,"iter":2043,"Ġvit":2044,"ĠRen":2045,"gli":2046,"2017":2047,"Ġsais":2048,"minist":2049,"ulti":2050,"?<":2051,"utes":2052,"Ġall":2053,"ourg":2054,"tal":2055,"Ġpetite":2056,"II":2057,"ication":2058,"Ġ09":2059,"ticles":2060,"CE":2061,"illage":2062,"ada":2063,"Ġactivite":2064,"oins":2065,"ĠNoir":2066,"ousse":2067,"ĠMer":2068,"Ġtex":2069,"Ġ*<":2070,"oph":2071,"cie":2072,"tements":2073,"ĠCol":2074,"Ġcode":2075,"59":2076,"Åĵu":2077,"of":2078,"Ġsens":2079,"ast":2080,"Ġcontin":2081,"Ġvente":2082,"ĠLE":2083,"Ġinternation":2084,"orite":2085,"oot":2086,"Ġexpe":2087,"ctive":2088,"Ġformation":2089,"Ġfourn":2090,"ache":2091,"Ġphotos":2092,"OL":2093,"cs":2094,"77":2095,"ĠâĢľ":2096,"Ġasse":2097,"Ġalle":2098,"Ġbecause":2099,"ĠApp":2100,"Des":2101,"lab":2102,"Ġveu":2103,"Ġclasse":2104,"Nous":2105,"AG":2106,"cier":2107,"Ġ08":2108,"charger":2109,"Ġcarte":2110,"ĠAvec":2111,"ĠGu":2112,"lant":2113,"ira":2114,"Ġgouver":2115,"Ġsimple":2116,"Ġvac":2117,"aleur":2118,"Ġorig":2119,"Ġaujourd":2120,"nez":2121,"rance":2122,"tives":2123,"Ġton":2124,"Ġretour":2125,"Ġpass":2126,"gue":2127,"ork":2128,"Ġcelle":2129,"ĠHe":2130,"Ġjeunes":2131,"Ġrel":2132,"Ġdos":2133,"Ġchambre":2134,"Ġeffe":2135,"Ġouver":2136,"Ġpris":2137,"ĠRo":2138,"ip":2139,"can":2140,"Ġbat":2141,"lay":2142,"Ġconne":2143,"Ġvue":2144,"Ġmeilleur":2145,"Si":2146,"Ġsante":2147,"Ġ198":2148,"Ġhomme":2149,"Ġsujet":2150,"Ġcertains":2151,"Ġcadre":2152,"lication":2153,"Dans":2154,"atis":2155,"ĠOu":2156,"cro":2157,"ĠCre":2158,"ĠCor":2159,"Ġni":2160,"este":2161,"Ġrespons":2162,"Ġann":2163,"autre":2164,"Ġcer":2165,"Ġ2009":2166,"erie":2167,"vite":2168,"acite":2169,"Ġserr":2170,"aque":2171,"Ġby":2172,"ini":2173,"istor":2174,"43":2175,"Ġmob":2176,"Ġsurtout":2177,"ards":2178,"inform":2179,"dez":2180,"book":2181,"Ġfab":2182,"nel":2183,">#":2184,"Ġmort":2185,"ity":2186,"abilite":2187,"66":2188,"oh":2189,"ĠFor":2190,"sus":2191,"Ġseulement":2192,"Ġmodi":2193,"icile":2194,"ple":2195,"Ġcontro":2196,"Ġmesure":2197,"suite":2198,"Ġaou":2199,"Ġphoto":2200,"iz":2201,"jectif":2202,"ret":2203,"SE":2204,"arie":2205,"atif":2206,"lis":2207,"sultats":2208,"IR":2209,"sid":2210,"=\"":2211,"arch":2212,"fication":2213,"pondre":2214,"tern":2215,"Ex":2216,"ki":2217,"yant":2218,"Ġsommes":2219,"Ġnoir":2220,"istes":2221,"onde":2222,"oles":2223,"Ġta":2224,"Ġpres":2225,"Ġsce":2226,"iller":2227,"Ġeurope":2228,"ĠChar":2229,"ambres":2230,"Ġtravaux":2231,"oly":2232,"Ġtitre":2233,"aliser":2234,"ĠLA":2235,"Ġheures":2236,"Ġcir":2237,"Ġetc":2238,"iversite":2239,"Ġcamp":2240,"ĠBas":2241,"Ġ40":2242,"uir":2243,"atre":2244,"ty":2245,":<":2246,"Ġjoue":2247,"ĠNew":2248,"Ġchose":2249,"reg":2250,"Ġfl":2251,"ĠSp":2252,"oint":2253,"Te":2254,"Ġsemaine":2255,"Ġpu":2256,"cour":2257,"itation":2258,"fier":2259,"Ġculture":2260,"Ġjourne":2261,"Ġdocu":2262,"AP":2263,"mission":2264,"57":2265,"Ġlo":2266,"appe":2267,"Ġblanc":2268,"Ġ2020":2269,"ĠBou":2270,"Ġunique":2271,"ĠCH":2272,"Ġnombreux":2273,"Ġminutes":2274,"env":2275,"ult":2276,"Me":2277,"inf":2278,"aye":2279,"teau":2280,"ĠNouve":2281,"ĠTra":2282,"rir":2283,"uni":2284,"Ġsuc":2285,"Ġ07":2286,"Ġmontre":2287,"pend":2288,"erre":2289,"mie":2290,"cours":2291,"ttre":2292,"42":2293,"mentation":2294,"aller":2295,"alon":2296,"tenu":2297,"Ġautom":2298,"Et":2299,"cla":2300,"tir":2301,"ĠRou":2302,"seau":2303,"ordin":2304,"Ġgestion":2305,"uerre":2306,"ociation":2307,"ĠPl":2308,"Ġfont":2309,"Ġ;<":2310,"ull":2311,"ME":2312,"duit":2313,"rience":2314,"OUR":2315,"Ġclients":2316,"http":2317,"Ġhaut":2318,"68":2319,"mand":2320,"Ġ2008":2321,"ĠâĢ¢":2322,"Ġmanie":2323,"org":2324,"uellement":2325,"Ġrela":2326,"Ġbelle":2327,"pendant":2328,"Ġgratuite":2329,"ĠIls":2330,"Ad":2331,"gle":2332,"paration":2333,"Ġlang":2334,"aliste":2335,"Ġseul":2336,"oti":2337,"taient":2338,"ige":2339,"range":2340,"iciel":2341,"Ġoffre":2342,"54":2343,"aill":2344,"urg":2345,"Ġsaison":2346,"Ġproch":2347,"oise":2348,"ĠDi":2349,"Ġproprie":2350,"Ġpat":2351,"pl":2352,"ureau":2353,"Ġjuste":2354,"Pre":2355,"raison":2356,"vid":2357,"ĠCV":2358,"Ġpasser":2359,"Ġarticle":2360,"sibilite":2361,"Ġress":2362,"cell":2363,"Ġinformations":2364,"oser":2365,"nelle":2366,"Ġrue":2367,"Ġanim":2368,"Ġeur":2369,"Ġrom":2370,"Ġprogramme":2371,"ĠSy":2372,"rate":2373,"vant":2374,"Ġhy":2375,"entes":2376,"rieure":2377,"Ġrev":2378,"Ġparce":2379,"Ġanti":2380,"Ġnouvelles":2381,"Ġai":2382,"yon":2383,"Ġseront":2384,"Ġmeu":2385,"Ġcaracte":2386,"Ġcorps":2387,"Ġcommune":2388,"Ġjardin":2389,"Ġassure":2390,"ict":2391,"ider":2392,"Ġfrais":2393,"Ġassez":2394,"Ġhttp":2395,"nent":2396,"couver":2397,"Ġchamp":2398,"ĠPrix":2399,"ublie":2400,"On":2401,"41":2402,"Ġorganis":2403,"auteur":2404,"ĠBel":2405,"mentaire":2406,"Ġci":2407,"Ġlum":2408,"get":2409,"rentes":2410,"othe":2411,"Ġpoints":2412,"ponse":2413,"Ġliste":2414,"mment":2415,"Ġquoi":2416,"ocation":2417,"arde":2418,"Ġvisite":2419,"Ġnu":2420,"Ġpoi":2421,"OT":2422,"\"<":2423,"2018":2424,"volution":2425,"Ġ31":2426,"leve":2427,"ition":2428,"tim":2429,"ee":2430,"cy":2431,"Ġutilis":2432,"article":2433,"Ġvoiture":2434,"mati":2435,"ĠHomme":2436,"2019":2437,"tude":2438,"raire":2439,"Ġpratique":2440,"ca":2441,"Ġdemand":2442,"RI":2443,"lectrique":2444,"Ġmemb":2445,"ibles":2446,"ata":2447,"icie":2448,"98":2449,"Ġvu":2450,"St":2451,"Ġfra":2452,"2016":2453,"cteurs":2454,"lite":2455,"own":2456,"Ġconside":2457,"ende":2458,"Ġope":2459,"ĠCas":2460,"DI":2461,"Ġlarge":2462,"Ġrestaur":2463,"ĠFre":2464,"oici":2465,"Ġtaille":2466,"ĠVer":2467,"Ġproce":2468,"nov":2469,"dust":2470,"Ġprive":2471,"ET":2472,"Ġloi":2473,"ĠGo":2474,"avant":2475,"niques":2476,"Ġparten":2477,"ital":2478,"histoire":2479,"Ġlib":2480,"uil":2481,"Ġcommerci":2482,"oll":2483,"ĠPer":2484,"rier":2485,"couvrir":2486,"Voir":2487,"Ġali":2488,"oud":2489,"face":2490,"Ġvacances":2491,"uve":2492,"Ġ||":2493,"Ġartis":2494,"53":2495,"Ġfeu":2496,"Ġpo":2497,"iance":2498,"Ġinde":2499,"vin":2500,"partement":2501,"Ġ{":2502,"Ġcade":2503,"rige":2504,"Ġdoi":2505,"run":2506,"oun":2507,"Ġeng":2508,"Ġrecomm":2509,"ĠAut":2510,"Ġpropre":2511,"Ġdevant":2512,"ates":2513,"Ġjeune":2514,"endre":2515,"dite":2516,"Ġtravers":2517,"Ġarrive":2518,"oration":2519,"publi":2520,"Ġserait":2521,"orer":2522,"Ġsuff":2523,"'s":2524,"arder":2525,"Ġraison":2526,"Ġautour":2527,"Ġmaintenant":2528,"ick":2529,"time":2530,"ries":2531,"ila":2532,"Ġhommes":2533,"alog":2534,"ĠTou":2535,"Ġmm":2536,"Ġsac":2537,"Ġmari":2538,"oses":2539,"agit":2540,"fique":2541,"Ġblog":2542,"Ġpublie":2543,"ĠCour":2544,"Ġmot":2545,"entreprise":2546,"RA":2547,"Ġlie":2548,"Ġorigin":2549,"Ġannonce":2550,"tex":2551,"ana":2552,"ĠÂ».":2553,"ĠÐ":2554,"allation":2555,"Ġbro":2556,"ĠChris":2557,"ĠCons":2558,"ones":2559,"Ġwith":2560,"oyer":2561,"Ġposte":2562,"Ġconcer":2563,">(":2564,"obilier":2565,"ĠAb":2566,"Ġentreprises":2567,"88":2568,"Ġstyle":2569,"Ġadap":2570,"ysi":2571,"Ġmoyen":2572,"69":2573,"Qu":2574,"uide":2575,"Ġaccomp":2576,"Ġnuit":2577,"67":2578,"ood":2579,"da":2580,"Ġpor":2581,"ka":2582,"sence":2583,"Ġgen":2584,"Ġreconn":2585,"Ġmillions":2586,"Ġbut":2587,"orig":2588,"do":2589,"Ġcri":2590,"Ġpap":2591,"ĠUS":2592,"auv":2593,"ball":2594,"up":2595,"Ġweb":2596,"nergie":2597,"cra":2598,"hic":2599,"Ġpou":2600,"Ġnorm":2601,"contres":2602,"oure":2603,"urb":2604,"Ġmatie":2605,"Ġdate":2606,"Ġferme":2607,"clus":2608,"Ġchem":2609,"Ġgouvernement":2610,"Ġforce":2611,"Ġcomb":2612,"ĠSam":2613,"ĠSte":2614,"tile":2615,"cide":2616,"tient":2617,"Ġplu":2618,"orde":2619,"51":2620,"Ġbout":2621,"ĠComp":2622,"enf":2623,"rendre":2624,"Ġdonner":2625,"Ġmembres":2626,"Ġmessage":2627,"Ġsituation":2628,"Ġplais":2629,"',":2630,"ĠMode":2631,"52":2632,"eng":2633,"ulaire":2634,"Ġba":2635,"Ġcle":2636,"acce":2637,"Ġconditions":2638,"uf":2639,"rop":2640,"Ġsig":2641,"undi":2642,"Ġentreprise":2643,"ails":2644,"ensemble":2645,"Ġmondi":2646,"ĠLou":2647,"ologique":2648,"inture":2649,"ctu":2650,"Ġsus":2651,"Ġeux":2652,"Ġmulti":2653,"Ġvoul":2654,"cipe":2655,"liers":2656,"Åĵur":2657,"Ġterrit":2658,"Ġpuiss":2659,"Ġelles":2660,"bou":2661,"alie":2662,"cal":2663,"79":2664,"atoire":2665,"ĠSon":2666,"Ġlance":2667,"Ġversion":2668,"cin":2669,"Ġcause":2670,"ed":2671,"Ġbl":2672,"Ġsites":2673,"aw":2674,"ĠCes":2675,"ports":2676,"Ġmax":2677,"Ġ)":2678,"ayer":2679,"ĠDis":2680,"Ġpetits":2681,"ailleurs":2682,"Cl":2683,"ogle":2684,">\"":2685,"ĠJeu":2686,"ash":2687,"Or":2688,"Ġ2007":2689,"Ġcy":2690,"Ġjeux":2691,"Ġcouleur":2692,"Con":2693,"ĠSac":2694,"bec":2695,"tiers":2696,"quel":2697,"auche":2698,"ĠMai":2699,"vers":2700,"bum":2701,"Ġgros":2702,"lacement":2703,"jouter":2704,"tention":2705,"issement":2706,"Ġ60":2707,"Unis":2708,"dio":2709,"Ġfort":2710,"ĠMaison":2711,"ĠÂ·":2712,"couvre":2713,"Ġchambres":2714,"ĠVal":2715,"charge":2716,"Ġheure":2717,"arre":2718,"registre":2719,"Ġban":2720,"urance":2721,"vesti":2722,"Ġayant":2723,"Ġmach":2724,"\\/":2725,"Ġparticip":2726,"ension":2727,"ike":2728,"ight":2729,"tho":2730,"ĠConse":2731,"lectri":2732,"100":2733,"ĠET":2734,"Ġtraitement":2735,"ĠGre":2736,"entiel":2737,"Ġcommande":2738,"glais":2739,"Ġ00":2740,"cupe":2741,"verse":2742,"65":2743,"Ġbal":2744,"Ġquatre":2745,"Ġcherche":2746,"oine":2747,"Ġdure":2748,"Ġ}":2749,"Ġatte":2750,"Ġeffic":2751,"ram":2752,"xe":2753,"itaire":2754,"CI":2755,"oile":2756,"ama":2757,"ĠPierre":2758,"Ġpourrait":2759,"riode":2760,"Ġmusique":2761,"ĠGrand":2762,"Ġprise":2763,"Ġmoder":2764,"dien":2765,"Ġcommence":2766,"Ġcin":2767,"Ġfille":2768,"ules":2769,"Cette":2770,"ctement":2771,"duire":2772,"ĠIs":2773,"tudes":2774,"Ġ04":2775,"arm":2776,"ung":2777,"aide":2778,"heure":2779,"Ġquelque":2780,"Ġit":2781,"ĠâĢĶ":2782,"fi":2783,"ĠVoir":2784,"Ġscien":2785,".,":2786,"utilisation":2787,"ĠEUR":2788,"rimer":2789,"Ġnouveaux":2790,"Ġproduction":2791,"Ġlongue":2792,"gique":2793,"ĠPort":2794,"ĠCont":2795,"pis":2796,"ml":2797,"amme":2798,"Ġgens":2799,"osse":2800,"ĠCher":2801,"Ġaller":2802,"erte":2803,"ms":2804,"att":2805,"Ġques":2806,"Ġagre":2807,"Ġquar":2808,"Ġru":2809,"ref":2810,"Ġimportant":2811,"Ġus":2812,"Ġbain":2813,"ĠAss":2814,"Ġouti":2815,"Ġmor":2816,"Ġtom":2817,"Ġlorsque":2818,"occasion":2819,"Ġquestions":2820,"Ġpluto":2821,"Ġconfort":2822,"Ġprend":2823,"Ġdouble":2824,">â":2825,"gm":2826,"ĠComm":2827,"Ġcit":2828,"ara":2829,"sier":2830,"no":2831,"istance":2832,"bes":2833,"aume":2834,"Ġfai":2835,"Ġfix":2836,"Ġparticulie":2837,"ĠHotel":2838,"Ġpose":2839,"orme":2840,"na":2841,"rid":2842,"quent":2843,"ano":2844,"Ġrappe":2845,"Ġclub":2846,"ĠNo":2847,"quis":2848,"ĠLu":2849,"sentation":2850,"Bon":2851,"eff":2852,"Ġjourn":2853,"tail":2854,"uels":2855,"ĠAir":2856,"ibli":2857,"Ġ05":2858,"Ġchoses":2859,"alyse":2860,"ernant":2861,"Ġplein":2862,"Ġtechnique":2863,"ĠÅĵu":2864,"load":2865,"view":2866,"rons":2867,"Ġcandid":2868,"mentaires":2869,"ombre":2870,"ys":2871,"Ġeuros":2872,"74":2873,"Ġgrands":2874,"Ġyou":2875,"mont":2876,"Ġnav":2877,"Ġaucun":2878,"zz":2879,"The":2880,"Car":2881,"imum":2882,"ĠPoste":2883,"Ġlire":2884,"rature":2885,"ATION":2886,"cran":2887,"64":2888,"Ġpati":2889,"oye":2890,"Ġcommer":2891,"Ou":2892,"Ġorgan":2893,"Ġgre":2894,"Ġdesign":2895,"Ġdisponible":2896,"ĠMa":2897,"Ġespe":2898,"crire":2899,"Ġlocation":2900,"ling":2901,"ĠSa":2902,"Ġdroits":2903,"****":2904,">|":2905,"ĠEurope":2906,"Ġensuite":2907,"Ġnombreuses":2908,"lage":2909,"ross":2910,"jeu":2911,"Ġsemble":2912,"ĠRob":2913,"respond":2914,"cision":2915,"nage":2916,"Accueil":2917,"ĠBer":2918,"lent":2919,"iscine":2920,"Ġreven":2921,"Ġrapidement":2922,"Ġpourquoi":2923,"Ġplaisir":2924,"mise":2925,"Ġbu":2926,"Ġ[...":2927,"oue":2928,"Ġveut":2929,"??":2930,"lam":2931,"AB":2932,"yp":2933,"off":2934,"sych":2935,"veux":2936,"sous":2937,"________":2938,"Ġsim":2939,"Ġprotection":2940,"medi":2941,"ĠCap":2942,"otte":2943,"olutions":2944,"Ġdiv":2945,"Ġsein":2946,"Ġlaisse":2947,"Ġhaute":2948,"Ġgaz":2949,"Ġexter":2950,"ĠMal":2951,"Ġutiliser":2952,"Ġsymp":2953,"ina":2954,"Ġfour":2955,"PE":2956,"Ġeffect":2957,"zon":2958,"Ġsoir":2959,"Ġsupe":2960,"ĠRE":2961,"rations":2962,"pa":2963,"ablement":2964,"Ġchac":2965,"Ġ!!!":2966,"Cont":2967,"avais":2968,"ĠEN":2969,"Ġperform":2970,"Ġfrom":2971,"quie":2972,"aime":2973,"AD":2974,"Ġquoti":2975,"ĠÎ":2976,"ĠGar":2977,"nements":2978,"apon":2979,"ĠSch":2980,"[]":2981,"ld":2982,"Ġtend":2983,"ositions":2984,">[":2985,"Ġfich":2986,"ino":2987,"Ġseule":2988,"fort":2989,"credi":2990,"irt":2991,"Ġguerre":2992,"Ġ03":2993,"Ġmatch":2994,"Ġsoli":2995,"pper":2996,"Ġaider":2997,"Ġvaleur":2998,"Ġprofessionnel":2999,"vision":3000,"ĠTre":3001,"Ġconsomm":3002,"acer":3003,"Ġcate":3004,"Ġdeuxie":3005,"seur":3006,"conomie":3007,"Ġdomaine":3008,"Ġchi":3009,"Ġinternet":3010,"tru":3011,"Ġfacile":3012,"Ġhistor":3013,"ĠEntre":3014,"cons":3015,"89":3016,"rasse":3017,"nis":3018,"Ġvient":3019,"Ġprox":3020,"conomique":3021,"Â©":3022,"Ġtes":3023,"cessaire":3024,"ĠMag":3025,"ĠAg":3026,"Ġrisque":3027,"usement":3028,"QUE":3029,"agner":3030,"ows":3031,"Ġlaque":3032,"ĠBon":3033,"ulation":3034,"Ġfav":3035,"Ġdivers":3036,"hone":3037,"niers":3038,"Ġconv":3039,"VE":3040,"Ġ02":3041,"ault":3042,"Ġloin":3043,"image":3044,"Ġsecteur":3045,"IG":3046,"Ġconnai":3047,"Ġnationale":3048,"Ġparticulier":3049,"https":3050,"moi":3051,"ĠBlanc":3052,"ðŁ":3053,"Ġstru":3054,"itre":3055,"PS":3056,"origine":3057,"Ġterre":3058,"icro":3059,"tent":3060,"Ġhttps":3061,"Ġparfois":3062,"tage":3063,"her":3064,"Ġval":3065,"73":3066,"ĠâĤ¬<":3067,"by":3068,"\".":3069,"Ġacheter":3070,"Ġrouge":3071,"Ġroute":3072,"Ġfi":3073,"Ġplate":3074,"Ġmaj":3075,"fois":3076,"cience":3077,"Ġviv":3078,"Ġenviron":3079,"illeurs":3080,"Ġcorrespond":3081,"Ġmy":3082,"Ġconcours":3083,"ĠGran":3084,"Ġministre":3085,"Ġdoivent":3086,"Ġprofessionnels":3087,"ĠVille":3088,"Pe":3089,"Ġforum":3090,"Ġsign":3091,"Ġ35":3092,"ĠCanada":3093,"euse":3094,"Ġindust":3095,"ennes":3096,"king":3097,"roche":3098,"quant":3099,"Ġmerci":3100,"Ġprojets":3101,"venue":3102,"bourg":3103,"Ġrendre":3104,"ng":3105,"Ġcontra":3106,"fait":3107,"ricain":3108,"ource":3109,"Ġenfant":3110,"Ġmouve":3111,"tails":3112,"Ġbord":3113,"ÌĢ,":3114,"Ġsenti":3115,"glise":3116,"bl":3117,"Plus":3118,"Ġconcerne":3119,"ĠRes":3120,"Ġclassi":3121,"ĠLau":3122,"aises":3123,"organis":3124,"jets":3125,"ources":3126,"ĠTer":3127,"Ġlien":3128,"Ġpersonnel":3129,"ary":3130,"Ġsolution":3131,"Ġphysi":3132,"72":3133,"Ġproximite":3134,"Ġtaux":3135,"sultat":3136,"RAN":3137,"Ġterme":3138,"IM":3139,"va":3140,"Ġconstruction":3141,"ĠBre":3142,"indre":3143,"ĠApre":3144,"titue":3145,"ĠFemmes":3146,"ĠDU":3147,"tice":3148,"2015":3149,"ronique":3150,"cule":3151,"oie":3152,"lor":3153,"Ġpossibilite":3154,"Ġaupre":3155,"Ġimage":3156,"ĠTour":3157,"IER":3158,"Ġvillage":3159,"Ġparle":3160,"Ġexte":3161,"Ġchauff":3162,"Ġdimanche":3163,"ga":3164,"Ġmas":3165,"Publie":3166,"apre":3167,"Ġtari":3168,"Ġlibre":3169,"mat":3170,"Ġchef":3171,"igue":3172,"the":3173,"Ġ|--":3174,"Ġarticles":3175,"homme":3176,"Ġensemble":3177,"cep":3178,"envir":3179,"uy":3180,"vres":3181,"Ġtard":3182,"pi":3183,"ĠTout":3184,"illa":3185,"ell":3186,"naire":3187,"irme":3188,"ĠMin":3189,"Ġtran":3190,"Ġcontac":3191,"oyage":3192,"mage":3193,"Ġsecond":3194,"joute":3195,"Mais":3196,"Merci":3197,"dra":3198,"Ġsortie":3199,"App":3200,"Ġ39":3201,"Ġbureau":3202,"Ġvite":3203,"Ġaccue":3204,"asses":3205,"uelles":3206,"Ne":3207,"Ġpan":3208,"activite":3209,"go":3210,"Ġcertaines":3211,"Ġcop":3212,"ducation":3213,"Ġlaquelle":3214,"ĠPage":3215,"Ġchoisir":3216,"ĠIN":3217,"ĠDim":3218,"ames":3219,"Ġobjectif":3220,"ĠNord":3221,"63":3222,"85":3223,"Ġclient":3224,"Ġsen":3225,"ĠCha":3226,"Ġconcernant":3227,"Ġcompose":3228,"Ġdirect":3229,"ichel":3230,"Ġgrandes":3231,"Ġlimite":3232,"Ġadminist":3233,"Ph":3234,"bon":3235,"gorie":3236,"Ġnational":3237,"old":3238,"fici":3239,"ket":3240,"Ġpot":3241,"Ġviol":3242,"cessoires":3243,"moire":3244,"ĠFin":3245,"cus":3246,"Saint":3247,"ĠDou":3248,"abord":3249,"Ġposse":3250,"Ġvais":3251,"Ġ80":3252,"Ġmeilleurs":3253,"Ġtradition":3254,"Ġcouleurs":3255,"titution":3256,"cm":3257,"tienne":3258,"Ġrencontres":3259,"ĠLi":3260,"ĠMarie":3261,"isser":3262,"ĠConseil":3263,"Ġtri":3264,"Ġaide":3265,"Ġstrate":3266,"Ġquali":3267,"tablissement":3268,"Ġsecre":3269,"Ġforte":3270,"Ġarre":3271,"Ġconseils":3272,"ĠCentre":3273,"Ġsucce":3274,"server":3275,"ĠSud":3276,"igh":3277,"pg":3278,"à¸":3279,"rs":3280,"top":3281,"temps":3282,"Ġcommentaire":3283,"lob":3284,"Ġsud":3285,"Ġfabric":3286,"low":3287,"Ġpost":3288,"LA":3289,"usion":3290,"Ġcompris":3291,"Ìģ-":3292,"Ġciv":3293,"ailler":3294,"Ġpeux":3295,"itter":3296,"tation":3297,"hum":3298,"Ġpied":3299,"Ġanglais":3300,"ks":3301,"Ġsamedi":3302,"''":3303,"Ġdirection":3304,"ades":3305,"Ġlivres":3306,"ID":3307,"ouss":3308,"ribution":3309,"gles":3310,"neur":3311,"frique":3312,"Ġcadeau":3313,"62":3314,"ĠBr":3315,"Ġsalon":3316,"Ġstock":3317,"issant":3318,"ky":3319,"nat":3320,"ĠPat":3321,"IB":3322,"Ġgenre":3323,"Ġhistoire":3324,"Ġsole":3325,"gal":3326,"Ġexiste":3327,"Ġdisponibles":3328,"Ġtit":3329,"Co":3330,"information":3331,"UN":3332,"ĠColle":3333,"plo":3334,"Ġparmi":3335,"OP":3336,"Ġsource":3337,"emploi":3338,"Ġcat":3339,"ST":3340,"Ġcouver":3341,"ĠSal":3342,"Ġ45":3343,"pour":3344,"Ġsimplement":3345,"ĠRoy":3346,"Ø§":3347,"iner":3348,"Ġspect":3349,"ainte":3350,"ciens":3351,"Ġvois":3352,"Ġbesoins":3353,"cident":3354,"Ġbru":3355,"Ġterrain":3356,"Ġcommen":3357,"ĠMerci":3358,"Ġposition":3359,"mail":3360,"Ġ2006":3361,"Ġcine":3362,"ĠEsp":3363,"Ġproche":3364,"mpor":3365,"tifie":3366,"Ġboi":3367,"viter":3368,"ives":3369,"ilm":3370,"Ġmatin":3371,"Ġvendredi":3372,"cienne":3373,"Ġcapacite":3374,"onner":3375,"Ġaura":3376,"areil":3377,"sine":3378,"Ġparler":3379,"ĠInternet":3380,"Ġimages":3381,"Ġtechniques":3382,"ĠEs":3383,"Ġ75":3384,"Ġfig":3385,"uire":3386,"apos":3387,"Ġcompag":3388,"71":3389,"Ġaurait":3390,"tr":3391,">>":3392,"Ġprocess":3393,"estre":3394,"ĠcÅĵur":3395,"Ġsupple":3396,"MENT":3397,"Ġbel":3398,"ĠImp":3399,"Ġautant":3400,"2014":3401,"tival":3402,"sive":3403,"Ġsav":3404,"2013":3405,"OC":3406,"Chau":3407,"poque":3408,"Ġcollab":3409,"coration":3410,"Ġretrouve":3411,"Ġadapte":3412,"andes":3413,"Ð¾":3414,"ĠDieu":3415,"expe":3416,"Aut":3417,"Ġsoleil":3418,"Ġaime":3419,"unes":3420,"publique":3421,"2012":3422,"ohn":3423,"Ġfils":3424,"86":3425,"Ġache":3426,"INE":3427,"change":3428,"Ġaucune":3429,"Ġmi":3430,"Ġorganise":3431,"Ġdirectement":3432,"raient":3433,"ĠAm":3434,"cter":3435,"Ġvia":3436,"ĠWeb":3437,"ĠIt":3438,"Ġsocial":3439,"rente":3440,"Comment":3441,"tor":3442,"Ġoffres":3443,"Ġtest":3444,"artement":3445,"matique":3446,"ĠGal":3447,"Ġmariage":3448,"Ġpartage":3449,"iennent":3450,"MA":3451,"indows":3452,"ĠBlack":3453,"ĠSE":3454,"Ð¸":3455,"Ġ90":3456,"irs":3457,"nonces":3458,"ĠJac":3459,"Ġrend":3460,"urer":3461,"Ġvont":3462,"Ġlundi":3463,"ft":3464,"Ġzone":3465,"tend":3466,"cise":3467,"ĠFer":3468,"ony":3469,"Ġjur":3470,"Ġmagas":3471,"ĠAv":3472,"('":3473,"Ġ500":3474,"ĠNotre":3475,"Ġsomme":3476,"ĠBra":3477,"ĠÂ».<":3478,"bar":3479,"Ġsigni":3480,"ĠCa":3481,"Ġconseil":3482,"Ġjoli":3483,"Ġmoyenne":3484,"eek":3485,"estival":3486,"Sur":3487,"Ġpeau":3488,"ÌĢ-":3489,"Ġpoids":3490,"Ġtop":3491,"Ġsigne":3492,"anie":3493,"Ġdurant":3494,"Ġmanque":3495,"Ġtexte":3496,"ĠBen":3497,"titude":3498,"Ġmots":3499,"Ġdevient":3500,"Ġdiffic":3501,"umes":3502,"quet":3503,"tiss":3504,"orise":3505,"pens":3506,"Ġpresse":3507,"ancer":3508,"Ġserrure":3509,"za":3510,"Ġsuivant":3511,"nd":3512,"Ġimme":3513,"Ð°":3514,"esse":3515,"Ġcommunication":3516,"velo":3517,"jpg":3518,"ĠCela":3519,"ĠDES":3520,"couvrez":3521,"Ġtempe":3522,"ĠBro":3523,"ITE":3524,"arite":3525,"itte":3526,"Ġlu":3527,"Ġlivraison":3528,"tran":3529,"ĠVente":3530,"urier":3531,"Ġprest":3532,"Ge":3533,"cial":3534,"Ġcapit":3535,"Ġmur":3536,"achat":3537,"Ġsport":3538,"ague":3539,"Ġobtenir":3540,">âĢ¢":3541,"Ġappre":3542,"novation":3543,"Ġyeux":3544,"Ġconfe":3545,"Ġparis":3546,"aune":3547,"ĠVen":3548,"Ġjouer":3549,"unicip":3550,"onte":3551,"Ġsociale":3552,"Ġindivid":3553,"Ġbre":3554,"glement":3555,"Ġmilieu":3556,"Ġoui":3557,"Ġpopulation":3558,"Ġpages":3559,"pann":3560,"96":3561,"Ġcontrat":3562,"ags":3563,"asseur":3564,"{\"":3565,"93":3566,"dy":3567,"Ġmeilleure":3568,"ĠTous":3569,"Ġamis":3570,"Ġemb":3571,"hy":3572,"ĠCal":3573,"Ġgauche":3574,"Ġ38":3575,"Ġdisposition":3576,"elon":3577,"ĠBois":3578,"kets":3579,"Ġcra":3580,"aude":3581,"inde":3582,"Ġefficace":3583,"lications":3584,"Ġpsych":3585,"Ġgou":3586,"Ġlou":3587,"ĠLong":3588,"Ġeau":3589,"Ġcommentaires":3590,"Ġsouhaite":3591,"Ġlim":3592,"hen":3593,"ters":3594,"Ġ70":3595,"Ġdoute":3596,"oft":3597,"Notes":3598,"tences":3599,"Ġindique":3600,"ĠCro":3601,"unis":3602,"Ġcommunaute":3603,"France":3604,"94":3605,"Ġpen":3606,"arme":3607,"Ġvoix":3608,"IRE":3609,"espe":3610,"Europe":3611,"tition":3612,"ĠTV":3613,"Ġmine":3614,"Ġarri":3615,"Ðµ":3616,"Ġpermis":3617,"pen":3618,"oux":3619,"gh":3620,"ĠTri":3621,"Ġlumie":3622,"Ġpremiers":3623,"ĠBleu":3624,"Ġdirige":3625,"bert":3626,"argent":3627,"Ġvivre":3628,"Ġcontact":3629,"Ġdevrait":3630,"TS":3631,"how":3632,"ĠLo":3633,"illon":3634,"Ġlut":3635,"tiste":3636,"Ġgamme":3637,"Ġmoteur":3638,"ĠLiv":3639,"liss":3640,"ourse":3641,"Apre":3642,"Ġsex":3643,"bres":3644,"Ġchacun":3645,"ĠCode":3646,"Ġhau":3647,"Ġamb":3648,"Ġoblig":3649,"ormais":3650,"oss":3651,"Ġmat":3652,"Ġtermine":3653,"nous":3654,"cialise":3655,"atives":3656,"tream":3657,"Ġenfin":3658,"ĠMontre":3659,"Ġcinq":3660,"Ġrespe":3661,"FF":3662,"ĠMus":3663,"Ġmeuble":3664,"ude":3665,"lit":3666,"Ġsemaines":3667,"ypes":3668,"Ġpiscine":3669,"habit":3670,"Ġchanger":3671,"ĠSand":3672,"parer":3673,"ĠBien":3674,"Ġnote":3675,"Ġplupart":3676,"ĠCam":3677,"ottes":3678,"Ġdispose":3679,"sormais":3680,"vide":3681,"ĠChamp":3682,"ĠChambre":3683,"aste":3684,"cles":3685,"SS":3686,"mart":3687,"ĠComme":3688,"ailles":3689,"Ġailleurs":3690,"riques":3691,"Ġpil":3692,"liquer":3693,"ĠTrans":3694,"92":3695,"ĠChine":3696,"ĠProf":3697,"Ġemplo":3698,"Ġpublique":3699,"Ġdifficile":3700,"ĠEl":3701,"ĠSA":3702,"84":3703,"Ġprocessus":3704,"Ġlettre":3705,"Ġgrou":3706,"alien":3707,"ura":3708,"Ġrej":3709,"ii":3710,"Ġnord":3711,"ĠPhili":3712,"sibles":3713,"obile":3714,"pannage":3715,"Ġmauv":3716,"Ġspor":3717,"ĠForm":3718,"Ġparents":3719,"Ġfro":3720,"Ġsoire":3721,"era":3722,"taires":3723,"ĠTaille":3724,"terie":3725,"ĠBeau":3726,"rap":3727,"ĠDom":3728,"ĠDire":3729,"RES":3730,"ĠVie":3731,"ĠMad":3732,"Ġsouhai":3733,"uxe":3734,"ĠII":3735,"ynam":3736,"83":3737,"ual":3738,"ignes":3739,"97":3740,"Ġcollection":3741,"áĦ":3742,"ĠMac":3743,"ĠPie":3744,"servation":3745,"onge":3746,"hi":3747,"Ġfru":3748,"ĠFace":3749,"my":3750,"Ġrelation":3751,"Ġconsul":3752,"Ġae":3753,"vit":3754,"Ġ32":3755,"Ġconte":3756,"Ġtel":3757,"ties":3758,"Ġmanif":3759,"Ġexternes":3760,"bo":3761,"61":3762,"ĠAU":3763,"Ġappele":3764,"Ġpoursu":3765,"ray":3766,"Ġsatis":3767,"Ġscol":3768,"Ġordin":3769,"ube":3770,"Ġcarre":3771,"seille":3772,"ĠRet":3773,"Ġsc":3774,"Ġpoe":3775,"Ġgarde":3776,"GE":3777,"Ġexcell":3778,"áħ":3779,"Ġsuivre":3780,"Ġpetites":3781,"Ġappartement":3782,"ĠLyon":3783,"ĠAnt":3784,"Ġcontenu":3785,"ĠOct":3786,"dire":3787,"Ġlaisser":3788,"Ġprog":3789,"ĠBal":3790,"ĠEst":3791,"Ġdroite":3792,"Ġscientif":3793,"Ġremar":3794,"rateur":3795,"Ġpermettre":3796,"Ġcomprendre":3797,"87":3798,"pose":3799,"fense":3800,"Ġpi":3801,"Ġconfiance":3802,"Mon":3803,"Ġenregistre":3804,"Ġabs":3805,"ko":3806,"ritable":3807,"Ġsort":3808,"Ġarch":3809,"ĠCuisine":3810,"Ġaccompagne":3811,"Ġ2000":3812,"ĠAt":3813,"Ġsan":3814,"timent":3815,"ĠMor":3816,"ĠBi":3817,"Ġlecture":3818,"magne":3819,"Ġhors":3820,"ĠTable":3821,"ĠBu":3822,"union":3823,"ny":3824,"Ġappel":3825,"alogue":3826,"Ġran":3827,"Ġcorre":3828,"ĠRom":3829,"Ġfene":3830,"Ġcomplet":3831,"alistes":3832,"ĠPal":3833,"bi":3834,"ignement":3835,"ning":3836,"Ġ2005":3837,"nom":3838,"gis":3839,"seaux":3840,"Ġtrain":3841,"lien":3842,"Ġcheveux":3843,"toiles":3844,"Ġrelig":3845,"oute":3846,"ssure":3847,"Ġ36":3848,"Ġroman":3849,"venu":3850,"Ġâĺ":3851,"Ġentrai":3852,"ibilite":3853,"estaur":3854,"Ġouv":3855,"Ġwww":3856,"QU":3857,"ĠHar":3858,"late":3859,"--------":3860,"ical":3861,"Ġjeudi":3862,"Ġcelles":3863,"icol":3864,"ĠSite":3865,"Ġlequel":3866,"Ġtravaille":3867,"Ġvenir":3868,"\\\"":3869,"rine":3870,"Ġvari":3871,"km":3872,"ha":3873,"Ġancien":3874,"ĠConc":3875,"Ġcompar":3876,"Ġentie":3877,"ĨĴ":3878,"Ġassocie":3879,"Ġsociaux":3880,"Ġsin":3881,"pas":3882,"Liens":3883,"Ġmagni":3884,"rome":3885,"ament":3886,"usine":3887,"lais":3888,"lim":3889,"Ġexplique":3890,"Ġmachine":3891,"Ġiniti":3892,"hor":3893,"ownload":3894,"Ġconnex":3895,"nant":3896,"ney":3897,"Ġrespect":3898,"Ġlangue":3899,"Ġlibe":3900,"Ġcoupe":3901,"Ġsouff":3902,"Ġimmobilier":3903,"Ġmercredi":3904,"Ġneuf":3905,"cup":3906,"Ġoub":3907,"vage":3908,"Ġfacilement":3909,"Ġsupport":3910,"Ġautomatique":3911,"alier":3912,"ouverture":3913,"diere":3914,"ONT":3915,"Ġir":3916,"amour":3917,"pisode":3918,"ĠOb":3919,"91":3920,"Ġcondu":3921,"fini":3922,"Avec":3923,"Ġcrois":3924,"2020":3925,"Ġregard":3926,"ssements":3927,"Ġpresque":3928,"Ġcab":3929,"ricaine":3930,"clare":3931,"html":3932,"vol":3933,"ĠAff":3934,"Ġcuir":3935,"astique":3936,"Ġpolitiques":3937,"ordre":3938,"rus":3939,"cherche":3940,"Ġmardi":3941,"Ġbleu":3942,"ory":3943,"iki":3944,"andis":3945,"Ass":3946,"Ġsuivi":3947,"Ġfoot":3948,"ĠPC":3949,"Ġbud":3950,"men":3951,"issance":3952,"ralement":3953,"0000":3954,"(\"":3955,"als":3956,"Ġchangement":3957,"Ġinvite":3958,"aler":3959,"2011":3960,"ker":3961,"ĠSalle":3962,"Ġcoeur":3963,"ĠOff":3964,"Ġderniers":3965,"raite":3966,"accord":3967,"ares":3968,"oub":3969,"tence":3970,"Ġvarie":3971,"Ġblan":3972,"gulie":3973,"TER":3974,"FR":3975,"ieur":3976,"ĠPo":3977,"Ġadresse":3978,"ĠTro":3979,"uration":3980,"ĠSocie":3981,"Ġmembre":3982,"Ġvin":3983,"ĠNation":3984,"Ġmoyens":3985,"rouvez":3986,"iez":3987,"ring":3988,"LES":3989,"SI":3990,"Ġ@":3991,"gi":3992,"Ġendro":3993,"Ġpuissance":3994,"Ġlongtemps":3995,"gy":3996,"Ġhabitants":3997,"ĠNike":3998,"ĠMax":3999,"Ġcombat":4000,"chet":4001,"ader":4002,"Ġmouvement":4003,"Ġfamili":4004,"Ġmobile":4005,"pit":4006,"ĠVol":4007,"ĠGratu":4008,"sidence":4009,"ĠJan":4010,"arrive":4011,"ilos":4012,"moc":4013,"Ġgraph":4014,"ĠðŁ":4015,"ami":4016,"ĠLire":4017,"Ġnett":4018,"Ġpleine":4019,"Ġcampagne":4020,"Ġformat":4021,"Ġterritoire":4022,"orie":4023,"Ag":4024,"Ġsolutions":4025,"Ġpermettant":4026,"icher":4027,"Cou":4028,"ĠTech":4029,"ĠPAR":4030,"atifs":4031,"Ġnew":4032,"mier":4033,"gime":4034,"IV":4035,"yeur":4036,"adie":4037,"Du":4038,"ĠMas":4039,"ĠDav":4040,"Ġexper":4041,"Ġstand":4042,"ĠDer":4043,"antie":4044,"+[]":4045,"Ġcertaine":4046,"Ġinvesti":4047,"sin":4048,"itesse":4049,"Ġstructure":4050,"orld":4051,"ley":4052,"texte":4053,"Ġtotal":4054,"Ġdispar":4055,"Ġwas":4056,"Ġcur":4057,"CO":4058,"Ġly":4059,"Ġiden":4060,"Ġfaites":4061,"ĠAlle":4062,"Ġ33":4063,"didas":4064,"ĠWe":4065,"Ġresponsable":4066,"Ġmunicip":4067,"ĠVis":4068,"espace":4069,"Ġguide":4070,"ĠJohn":4071,"Ġretrouver":4072,"Ġsang":4073,"Ġul":4074,"yth":4075,"pute":4076,"otos":4077,"Ġcomporte":4078,"chi":4079,"Ġpaie":4080,"Ġfu":4081,"Ġattend":4082,"ĠSuper":4083,"],":4084,"ilan":4085,"Ġchoc":4086,"ĠMeu":4087,"Ġaugm":4088,"Ġajoute":4089,"Ġtravailler":4090,"fer":4091,"AF":4092,"ctures":4093,"ĠInst":4094,"bit":4095,"Ġnavig":4096,"Ġconstitue":4097,"tape":4098,"Ġstat":4099,"Etat":4100,"Ġmoderne":4101,"ĠHer":4102,"Ġsoient":4103,"Prix":4104,"Ġmicro":4105,"ĠPorte":4106,"dam":4107,"ĠTu":4108,"Ġchance":4109,"He":4110,"ater":4111,"Ġquartier":4112,"82":4113,"ĠMA":4114,"ĠST":4115,"Ġinternational":4116,"Ġpoly":4117,"ples":4118,"ordeaux":4119,"onnes":4120,"ĠScra":4121,"Cre":4122,"Ġadministra":4123,"omie":4124,">âĢĵ":4125,"assage":4126,"2010":4127,"Ġmission":4128,"Bonjour":4129,"tente":4130,"ĠÅĵuvre":4131,"Ġavaient":4132,"uler":4133,"istant":4134,"ĠLouis":4135,"Ġpapier":4136,"Ġlieux":4137,"Ġquotidien":4138,"Ġsait":4139,"Ġrecommande":4140,"Ġspectac":4141,"uisse":4142,"ĠNoe":4143,"Ġrele":4144,"Ġcommerce":4145,"ĠPays":4146,"Ġsix":4147,"Ġare":4148,"Ġtypes":4149,"Ġtransport":4150,"nies":4151,"ĠAN":4152,"Ġdomicile":4153,"accueil":4154,"ĠPaul":4155,"mazon":4156,"Ġfinance":4157,"ĠGene":4158,"!!!!":4159,"Ġquelle":4160,"Ġpassage":4161,"Ġeffectue":4162,"ĠAnne":4163,"urant":4164,"ĠBo":4165,"Ġlogiciel":4166,"aix":4167,"ristiques":4168,"Ġpierre":4169,"oton":4170,"Ġconnu":4171,"Ġrenfor":4172,"Ġweek":4173,"Ġgri":4174,"mettre":4175,"ba":4176,"Ġvert":4177,"Ġord":4178,"senter":4179,"rend":4180,"Ġchemin":4181,"avec":4182,"Ġlorsqu":4183,"couverte":4184,"Ġvar":4185,"Ġespace":4186,"ĠLun":4187,"ĠLib":4188,"ĠSan":4189,"UL":4190,"Ġtouche":4191,"jeuner":4192,"Ġhor":4193,"gers":4194,"ĠAlors":4195,"cit":4196,"Ġcertain":4197,"Ġpratiques":4198,"Ġrendez":4199,"Ġq":4200,"Ġpol":4201,"ĠÎĶ":4202,"Ġvic":4203,"bu":4204,"Ġsouhait":4205,"UM":4206,"Ġdestin":4207,"EUR":4208,"matiques":4209,"ĠNon":4210,"Ġlogement":4211,"alse":4212,"Ġ48":4213,"ribue":4214,"Ġrentre":4215,"inet":4216,"Ġdevez":4217,"rag":4218,"ĠFab":4219,"mor":4220,"Ġgaranti":4221,"ibliothe":4222,"Ġdevenir":4223,"Ġair":4224,"Ġvilles":4225,"Ġcontinue":4226,"isc":4227,"odi":4228,"Ġcalme":4229,"ĠGoogle":4230,"ĠMichel":4231,"Ġap":4232,"ĠMet":4233,"Ġmanger":4234,"Ġdevis":4235,"Ġressources":4236,"flex":4237,"Ġlab":4238,"Ġlois":4239,"ĠAme":4240,"stitu":4241,"Ġagric":4242,"Ġjoueurs":4243,"Ġachat":4244,"vue":4245,"uste":4246,"ĠÎĶE":4247,"Ġparfait":4248,"Ġenvironnement":4249,"Ġpourrez":4250,"Ġsoutien":4251,"hicule":4252,"tivement":4253,"ancie":4254,"clar":4255,"ĠDan":4256,"acie":4257,"ologiques":4258,"Ġouvert":4259,"lections":4260,"Ġcourse":4261,"Ġlitte":4262,"Ġtroisie":4263,"Ġlist":4264,"ariat":4265,"ĠMes":4266,"ĠLors":4267,"003":4268,"Ġalbum":4269,"ĠLond":4270,"Ġ34":4271,"Ġoutils":4272,"Ġine":4273,"ĠSport":4274,"||":4275,"ĠPers":4276,"Ġaccord":4277,"Ġauto":4278,"bble":4279,"voque":4280,"Esp":4281,"Ġdirecteur":4282,"Ġsyn":4283,"entie":4284,"itaires":4285,"ister":4286,"chant":4287,"ĠBan":4288,"Ġcam":4289,"Ġcafe":4290,"Ġdossier":4291,"ILLE":4292,"Ġprofiter":4293,"veur":4294,"veille":4295,"pin":4296,"unite":4297,"exe":4298,"termine":4299,"ĠDesign":4300,"Ġbra":4301,"Ġ300":4302,"ĠWindows":4303,"Ġactuellement":4304,"Ġveux":4305,"Ġmesures":4306,"ento":4307,"Ser":4308,"Ġfore":4309,"Ġenvie":4310,"chau":4311,"Ġsouhaitez":4312,"unettes":4313,"nagement":4314,"TC":4315,"Ġinfe":4316,"ĠSans":4317,"rales":4318,"treaming":4319,"agra":4320,"Ġofficie":4321,"\"-":4322,"Ġprob":4323,"ustra":4324,"ANT":4325,"ju":4326,"tudio":4327,"Ġ2004":4328,"Ġsoins":4329,"cap":4330,"px":4331,"Ġrapp":4332,"Ġfrance":4333,"ĠHaute":4334,"ĠVin":4335,"Ġfixe":4336,"ĠDel":4337,"pel":4338,"Be":4339,"ĠSol":4340,"Ġtoit":4341,"terre":4342,"liorer":4343,"Ġcarrie":4344,"Ġsemb":4345,"oth":4346,"tification":4347,"ĠAnd":4348,";<":4349,"ĠRue":4350,"olet":4351,"...)":4352,"Ġbook":4353,"Ġphysique":4354,"Ġrense":4355,"ĠScrabble":4356,"ott":4357,"Ġmou":4358,"ĠRus":4359,"Ġcu":4360,"trait":4361,"ĠCuir":4362,"abe":4363,"zy":4364,"Ġmondiale":4365,"ico":4366,"tise":4367,"ositif":4368,"tite":4369,"anim":4370,"acre":4371,"ĠPlan":4372,"TM":4373,"Ġdifficulte":4374,"Ġrestaurant":4375,"atrice":4376,"ander":4377,"ssemble":4378,"formation":4379,"Ġengage":4380,"Article":4381,"Ġami":4382,"Ġfournisse":4383,"Ġliberte":4384,"Ġchauffage":4385,"gories":4386,"iversaire":4387,"Ġsorte":4388,"Â»,":4389,"Ġverre":4390,"ding":4391,"Ġgratuitement":4392,"Ġpom":4393,"Ġtels":4394,"Ġvict":4395,"vaux":4396,"Ġgo":4397,"Ġconce":4398,"ciers":4399,"Ġfilms":4400,"ĠAccueil":4401,"ĠCli":4402,"Naissance":4403,"ĠSpe":4404,"Ġrepas":4405,"ĠWh":4406,"ĠLES":4407,"rich":4408,"lation":4409,"Ġcomplex":4410,"ĠClub":4411,"Ġchampion":4412,"Ġemploi":4413,"ĠAinsi":4414,"Hotel":4415,"Ġmalgre":4416,"ÌĥÂ©":4417,"national":4418,"keting":4419,"Ġtiss":4420,"ĠGrande":4421,"ING":4422,"AGE":4423,"Fran":4424,"cel":4425,"Ġpermettent":4426,"ĠAR":4427,"quipes":4428,"Ġiss":4429,"Ġbons":4430,"ĠPRO":4431,"Ġperma":4432,"olf":4433,"Ġuniquement":4434,"ĠToul":4435,"ministration":4436,"ologies":4437,"Ġconnaiss":4438,"quili":4439,"quence":4440,"Tre":4441,"EU":4442,"Ġpeinture":4443,"Ġchans":4444,"oulez":4445,"vu":4446,"don":4447,"ĠSou":4448,"lande":4449,"ĠVi":4450,"ĠRose":4451,"Ġdemander":4452,"Ġmeilleures":4453,"Ġcommunes":4454,"avantage":4455,"Ġdestine":4456,"ĠâĨĴ":4457,"Ve":4458,"velopper":4459,"Ġ44":4460,"alisme":4461,"ola":4462,"Ġtourne":4463,"ĠTop":4464,"count":4465,"Ġresponsabilite":4466,"valuation":4467,"ctualite":4468,"duits":4469,"icolas":4470,"Ġrecru":4471,"Elle":4472,"Ġaltern":4473,"Ġchat":4474,"ĠNouvelle":4475,"ateau":4476,"ĠJuin":4477,"Ġgroupes":4478,"OG":4479,"tivation":4480,"Ġnour":4481,"veill":4482,"iction":4483,"Ġsurface":4484,"Ġchai":4485,"81":4486,"aitement":4487,"2009":4488,"Ġparc":4489,"Ġpourra":4490,"nen":4491,"Mess":4492,"installation":4493,"lange":4494,"Ġamp":4495,"Ġnomme":4496,"Ġparties":4497,"gies":4498,"Ġment":4499,"ĠMartin":4500,"inge":4501,"orts":4502,"Ġwe":4503,"tudiants":4504,"moins":4505,"Ġincl":4506,"application":4507,"ĠMAR":4508,"Ġstation":4509,"Ġactions":4510,"duct":4511,"ĠArch":4512,"Ġdouce":4513,"Ġmobili":4514,"mocra":4515,"Ġrester":4516,"dias":4517,"Ġdocument":4518,"Che":4519,"ĠPubli":4520,"euille":4521,"ÑĤ":4522,"ols":4523,"ĠMou":4524,"Ġaction":4525,"ario":4526,"aure":4527,"Ġcouple":4528,"Ġportes":4529,"Inter":4530,"Ġcroissance":4531,"Der":4532,"ĠPoli":4533,"Est":4534,"iser":4535,"Ġtraite":4536,"rimoine":4537,"Ġgagner":4538,"unction":4539,"gen":4540,"Ġtax":4541,"Ġsalarie":4542,"Ġillus":4543,"Ġparcours":4544,"Ġterrasse":4545,"Ġacces":4546,"ĠPeu":4547,"Ġcourt":4548,"Ġvitesse":4549,"Ġcomprend":4550,"Ġseconde":4551,"Ġtal":4552,"Ġ42":4553,"met":4554,"aj":4555,"Ġhistorique":4556,"Th":4557,"ĠNov":4558,"Ġcrise":4559,"Ġ37":4560,"Ġinternationale":4561,"Ġpeine":4562,"Ġfaisant":4563,"Ġcartes":4564,"Ġmonte":4565,"Ġplage":4566,"Ġ150":4567,"tiles":4568,"atta":4569,"ĠFacebook":4570,"atiques":4571,"olume":4572,"ination":4573,"Ġfaud":4574,"Ġcompagnie":4575,"OB":4576,"ĠKe":4577,"tais":4578,"ĠRouge":4579,"CT":4580,"Ġdix":4581,"dure":4582,"ĠCOM":4583,"ĠAll":4584,"UB":4585,"Ġnaturel":4586,"ciper":4587,"Ġpourtant":4588,"Ġbonnes":4589,"Ġdistance":4590,"ya":4591,"Ġproches":4592,"ĠQuel":4593,"Ġpal":4594,"tific":4595,"offre":4596,"sons":4597,"Ġtr":4598,"Ġaf":4599,"ĠÂ°":4600,"ponses":4601,"roport":4602,"Ġexemp":4603,"Entre":4604,"Ġclassique":4605,"ÙĦ":4606,"Ġvali":4607,"Ġmarques":4608,"Ġpartager":4609,"Ġhauteur":4610,"ĠGi":4611,"Ġcircul":4612,"Ġ43":4613,"inois":4614,"urn":4615,"ĠPla":4616,"ĠEm":4617,"Ġcontacter":4618,"ociations":4619,"Ġrob":4620,"issent":4621,"ĠMuse":4622,"Ġconsommation":4623,"place":4624,"thode":4625,"ĠCommentaires":4626,"avait":4627,"Ġcontraire":4628,"SA":4629,"rable":4630,"Ġanimaux":4631,"Ġfonde":4632,"urgence":4633,"ĠAM":4634,"otels":4635,"Ġmuse":4636,"Â®":4637,"Ġhas":4638,"Ġlesque":4639,"Ġinstalle":4640,"Ġglob":4641,"Ġchaussures":4642,"ani":4643,"urent":4644,"lectronique":4645,"ĠCet":4646,"anges":4647,"marche":4648,"ĠYork":4649,"enir":4650,"ings":4651,"Ġinsp":4652,"abili":4653,"aus":4654,"Ġconcur":4655,"ARD":4656,"rape":4657,"ctivement":4658,"EM":4659,"Ġpuisque":4660,"ĠAlex":4661,"Ġmagasin":4662,"crip":4663,"ams":4664,"Ġsimil":4665,"ĠVotre":4666,"bas":4667,"Ġimportante":4668,"cat":4669,"Ġvoie":4670,"fle":4671,"ĠSar":4672,"Ġprochaine":4673,"Ġexception":4674,"Jean":4675,"ĠCamp":4676,"Ġavance":4677,"Ġprincipal":4678,"Ġpublics":4679,"ĠGris":4680,"Ġprochain":4681,"objet":4682,"Ġfonctionnement":4683,"ctivite":4684,"Ġobjets":4685,"==":4686,"dou":4687,"ĠMy":4688,"orisation":4689,"Ġdemi":4690,"ologue":4691,"Ġfaible":4692,"lectricite":4693,"vices":4694,"ĠiP":4695,"chage":4696,"onsieur":4697,"Ġdan":4698,"Ġurb":4699,"Ġfinan":4700,"ink":4701,"dessus":4702,"environnement":4703,"Ġrus":4704,"ish":4705,"Ġmaladie":4706,"Ġtombe":4707,"Ġwh":4708,"ĠQui":4709,"tellig":4710,"ĠNos":4711,"INT":4712,"ather":4713,"heur":4714,"Ġrisques":4715,"Ġcitoy":4716,"Ġadop":4717,"Ġextre":4718,"Ġmains":4719,"Ġeaux":4720,"Ġ--":4721,"ĠGeor":4722,"Ġcommencer":4723,"php":4724,"Ġdynam":4725,"Ġdocuments":4726,"irus":4727,"Ġpanne":4728,"ĠIde":4729,"endu":4730,"ĠCommun":4731,"roit":4732,"ĠBaskets":4733,"less":4734,"ĠEtats":4735,"Ġtoile":4736,"Ġsept":4737,"Ġemploye":4738,"Ġpression":4739,"Ġfinancie":4740,"ica":4741,"Ġvoulez":4742,"gues":4743,"Ġ55":4744,"ient":4745,"ĠCD":4746,"ĠCy":4747,"Ġpromotion":4748,"ĠMi":4749,"Ġutilisateurs":4750,"actez":4751,"Ġid":4752,"aleurs":4753,"els":4754,"Is":4755,"vise":4756,"affaires":4757,"import":4758,"Ġroulant":4759,"ĠCer":4760,"Ġmention":4761,"Ġchan":4762,"Ġjuridi":4763,"dessous":4764,"ĠBelgique":4765,"Ġapplication":4766,"Ġclair":4767,"faire":4768,"Tout":4769,"mn":4770,"Ġunivers":4771,"Ġ//":4772,"ĠTw":4773,"Ġcell":4774,"Ġrecevoir":4775,"Ġfonds":4776,"ogne":4777,"once":4778,"Ġpartenaires":4779,"ĠAs":4780,"Ġrose":4781,"Ġfonctionne":4782,"Ġconnaissance":4783,"main":4784,"isation":4785,"ÌĮ":4786,"Ġremb":4787,"Ġarme":4788,"decin":4789,"ptique":4790,"Ġproposer":4791,"Ġpieds":4792,"Ġfichier":4793,"Ġconception":4794,"day":4795,"IP":4796,"Ġpolice":4797,"ĠInte":4798,"Ġtherm":4799,"ĠCoupe":4800,"ĠLigne":4801,"rae":4802,"telier":4803,"Ġcependant":4804,"Ġroy":4805,"Ġjuge":4806,"quipements":4807,"Ġmagnifique":4808,"Ġdoc":4809,"exte":4810,"Que":4811,"IA":4812,"ophie":4813,"Ġbande":4814,"imm":4815,"Ð½":4816,"Ġsil":4817,"Ġinstru":4818,"antite":4819,"association":4820,"intemps":4821,"ÑĢ":4822,"organisation":4823,"ower":4824,"ĠJardin":4825,"ĠAli":4826,"Ġmontant":4827,"Ġsuffit":4828,"mande":4829,"rill":4830,"coles":4831,"Ġparticipe":4832,"ĠHommes":4833,"quipement":4834,"Ġrelations":4835,"ĠPhilippe":4836,"ĠPetit":4837,"roir":4838,"chement":4839,"Ġpeur":4840,"Ġvoi":4841,"sume":4842,"ĠNeu":4843,"ĠJeux":4844,"ham":4845,"Ġer":4846,"ĠPr":4847,"Nouve":4848,"^^":4849,"....<":4850,"ĠYou":4851,"Ġserrurier":4852,"ĠMen":4853,"user":4854,"Ġapporte":4855,"Ġthat":4856,"2008":4857,"umer":4858,"Ġannonces":4859,"CA":4860,"ĠVide":4861,"Ġexclus":4862,"esprit":4863,"deur":4864,"lir":4865,"Ġ[...]<":4866,"Ġfilles":4867,"Ġred":4868,"FA":4869,"ĠJacques":4870,"uss":4871,"dans":4872,"Ġtendance":4873,"dom":4874,"Ġtableau":4875,"ĠJose":4876,"coute":4877,"indi":4878,"Ġfou":4879,"Ġcite":4880,"adap":4881,"ĠDavid":4882,"Ġprofonde":4883,"Ġoeu":4884,"ĠEnf":4885,"HE":4886,"onction":4887,"ĠService":4888,"Ġcommis":4889,"ĠAndre":4890,"Ġlocaux":4891,"ĠMain":4892,"ĠÂ©":4893,"Ġdessus":4894,"raine":4895,"Ġgris":4896,"ĠBy":4897,"Ġbran":4898,"ĠTo":4899,"Ġpois":4900,"Ġsuffis":4901,"Ġ2003":4902,"Ġgal":4903,"estation":4904,"enfant":4905,"explo":4906,"Ìģ:":4907,"Ġcontempor":4908,"\".<":4909,"allon":4910,"Ġlic":4911,"ĠPS":4912,"tian":4913,"Ġvent":4914,"Ġministe":4915,"Ġmaximum":4916,"tenus":4917,"Pas":4918,"rien":4919,"ĠSim":4920,"ĠExp":4921,"TA":4922,"adresse":4923,"Ñģ":4924,"Ġoccasion":4925,"Ġcondition":4926,"cend":4927,"ĠEmp":4928,"mas":4929,"ĠBern":4930,"ĠCharles":4931,"fiques":4932,"ĠSalon":4933,"ban":4934,"ĠDen":4935,"Ġclo":4936,"Bien":4937,"Ġste":4938,"rages":4939,"Ġperte":4940,"ĠHen":4941,"Ġextra":4942,"amen":4943,"ĠMarseille":4944,"chelle":4945,"Ġbanc":4946,"corde":4947,"fre":4948,"lets":4949,"Ġoriginal":4950,"ĠArt":4951,"tire":4952,"quilibre":4953,"ĠTur":4954,"Ġ)<":4955,"Ġprovin":4956,"Ġbelles":4957,"Ġeffets":4958,"rench":4959,"page":4960,"ĠQuand":4961,"Ġsortir":4962,"play":4963,"ĠHD":4964,"Comme":4965,"cid":4966,"ographique":4967,"lines":4968,"Ġgagne":4969,"actu":4970,"Ġgross":4971,"mation":4972,"entite":4973,"illy":4974,"ora":4975,"Ġnet":4976,"Ġhab":4977,"Ġvote":4978,"ĠAL":4979,"Ġparfaitement":4980,"Pierre":4981,"Ġbr":4982,"igner":4983,"resser":4984,"Ġbeaute":4985,"ĠCle":4986,"ĠNet":4987,"ĠSainte":4988,"No":4989,"ĠAou":4990,"ĠCO":4991,"Ġdoll":4992,"Ġfinale":4993,"gin":4994,"%<":4995,"Ġmarch":4996,"Ġprincipale":4997,"ores":4998,"diate":4999,"lai":5000,"Dis":5001,"aa":5002,"Ġcalcul":5003,"hicules":5004,"cessite":5005,"Ġaim":5006,"ĠSuisse":5007,"cure":5008,"Ġfant":5009,"Ġ[...]":5010,"ffres":5011,"Ġtemp":5012,"aman":5013,"IX":5014,"autes":5015,"Ġtelle":5016,"ark":5017,"Union":5018,"Ġcourant":5019,"CC":5020,"ics":5021,"vence":5022,"Ġconver":5023,"Ab":5024,"Ġimpos":5025,"tap":5026,"Ġrenouve":5027,"licite":5028,"oom":5029,"VD":5030,"ĠMeille":5031,"At":5032,"Ġderrie":5033,"ĠFond":5034,"Ġpropres":5035,"Ġattention":5036,"Ġremise":5037,"ligne":5038,"Ġpros":5039,"nelles":5040,"ĠBordeaux":5041,"Ġnaissance":5042,"usiness":5043,"Ġopp":5044,"ild":5045,"ĠAnn":5046,"utilis":5047,"ĠMonde":5048,"Ġchien":5049,"Ġvoyageurs":5050,"onneur":5051,"Ġaffe":5052,"Ġtente":5053,"Ġmod":5054,"ĠAcheter":5055,"Ġmini":5056,"ommage":5057,"Ġcoin":5058,"Ġroi":5059,"raux":5060,"ĠLivre":5061,"Ob":5062,"ressant":5063,"Ġchaleur":5064,"gner":5065,"ourne":5066,"Ġgro":5067,"ercice":5068,"retagne":5069,"yre":5070,"Ġkil":5071,"ultes":5072,"Ġvoila":5073,"Ġvolet":5074,"Ġsucre":5075,"ĠJus":5076,"Ġperdre":5077,"oindre":5078,"Ġpeuple":5079,"issez":5080,"Ġoutre":5081,"importe":5082,"Ġlocal":5083,"},":5084,"taille":5085,"athe":5086,"cad":5087,"ĠForum":5088,"euros":5089,"Ġif":5090,"AND":5091,"ĠPL":5092,"tifier":5093,"Ġhar":5094,"Ġpens":5095,"Ġimmobili":5096,"ĠCON":5097,"Ġmodele":5098,"cessaires":5099,"ĠHy":5100,"images":5101,"cret":5102,"ĠLet":5103,"Ġconstitu":5104,"Ġindis":5105,"agnos":5106,"Ġcompos":5107,"icros":5108,"Sh":5109,"berg":5110,"Ġzones":5111,"ĠIm":5112,"Ġacteurs":5113,"rick":5114,"Ġfamilles":5115,"gar":5116,"riaux":5117,"ILL":5118,"CHE":5119,"Ġmaisons":5120,"Ġappro":5121,"Ġappare":5122,"SP":5123,"Ġjoueur":5124,"cia":5125,"fications":5126,"olo":5127,"box":5128,"assin":5129,"Notre":5130,"Ġquelqu":5131,"Ġtrouverez":5132,"omas":5133,"reur":5134,"Ġprot":5135,"ĠAvis":5136,"Ġbudget":5137,"AY":5138,"ensions":5139,"Ġ~":5140,"sif":5141,"Ġfall":5142,"assurance":5143,"Ġ2002":5144,"nels":5145,"ness":5146,"âĢĿ<":5147,">*":5148,"ĠJapon":5149,"Ġpartout":5150,"ji":5151,"appel":5152,"Ġtechnologie":5153,"Ġdeme":5154,"ĠEd":5155,"gements":5156,"Id":5157,"ĠOf":5158,"cun":5159,"trange":5160,"Ġventes":5161,"ĠPra":5162,"Tra":5163,"ĠEur":5164,"Ġbiento":5165,"Ġplaces":5166,"ĠRobert":5167,"aign":5168,"dule":5169,"Ġprincipe":5170,"naires":5171,"Ġsurp":5172,"signe":5173,"Ġ49":5174,"Oui":5175,"Ġfaite":5176,"Lors":5177,"Ġ46":5178,"agog":5179,"ws":5180,"ĠNouveau":5181,"ject":5182,"Ġerre":5183,"Ġgarantie":5184,"ĠDepuis":5185,"ĠSante":5186,"Ġplat":5187,"Ġcommercial":5188,"zer":5189,"ĠSujet":5190,"ilie":5191,"sitez":5192,"Ġfinalement":5193,"Ġvaleurs":5194,"Ġposer":5195,"semble":5196,"Ġrub":5197,"Ġpaiement":5198,"formations":5199,"olique":5200,"ĠDeux":5201,"oxy":5202,"Ġfaute":5203,"ĠGR":5204,"Ġboutique":5205,"Ġplane":5206,"Ġjustice":5207,"ĠPhoto":5208,"Ġretraite":5209,"ĠRencontre":5210,"Ġconseille":5211,"PL":5212,"rielle":5213,"Ġbains":5214,"joux":5215,"opp":5216,"ĠÌģ":5217,"yez":5218,"Date":5219,"Ġallemand":5220,"rieux":5221,"Ġperdu":5222,"apis":5223,"ĠMeuble":5224,"Ġraisons":5225,"Ġ120":5226,"indust":5227,"rali":5228,"Ġporter":5229,"rouver":5230,"Ġbis":5231,"Ġcontinu":5232,"Ġendroit":5233,"Ġmessages":5234,"informations":5235,"times":5236,"ael":5237,"aug":5238,"ingt":5239,"sentant":5240,"TT":5241,"Message":5242,"Ġtru":5243,"hiver":5244,"Ġtermes":5245,"yl":5246,"300":5247,"asi":5248,"ated":5249,"Ġconcasseur":5250,"Ġmajorite":5251,"uxelles":5252,"OD":5253,"Ġaccessoires":5254,"avis":5255,"Ġchauffe":5256,"ĠVan":5257,"finition":5258,"itecture":5259,"til":5260,"lia":5261,"huile":5262,"Ġcache":5263,"Ġdig":5264,"uations":5265,"Ġchoisi":5266,"istique":5267,"Ġsorti":5268,"Ġ41":5269,"ĠPap":5270,"Alle":5271,"Ġrecherches":5272,"AV":5273,"Ġ65":5274,"Ġparticiper":5275,"Ġtrib":5276,"ĠCE":5277,"Ġnouvel":5278,"Ces":5279,"Ġmg":5280,"atte":5281,"Histoire":5282,"Ġinten":5283,"ctives":5284,"Ġmilliards":5285,"ĠLit":5286,"Ġfruits":5287,"entrai":5288,"Ġlutte":5289,"Ġconfirme":5290,"Ġpayer":5291,"Ġarrie":5292,"ĠInf":5293,"Ġlour":5294,"Ġtotalement":5295,"Ġvisage":5296,"rass":5297,"Ġ400":5298,"ourt":5299,"Ġaffaires":5300,"ĠCependant":5301,"ĠParti":5302,"nthe":5303,"tisme":5304,"roi":5305,"onnant":5306,"tible":5307,"Ġend":5308,"odes":5309,"Ġcritique":5310,"Col":5311,"olat":5312,"Ġestime":5313,"Universite":5314,"ala":5315,"Ġdo":5316,"Ġvoici":5317,"Ġcos":5318,"Ġutile":5319,"ĠRed":5320,"Ġtent":5321,"Ġpenser":5322,"utiliser":5323,"Ġlett":5324,"ĠPrin":5325,"Ġminimum":5326,"Ġdouche":5327,"Ġclaire":5328,"ficie":5329,"Ġfera":5330,"ĠNicolas":5331,"Ġyour":5332,"phon":5333,"Ġpersonnages":5334,"Ġmises":5335,"orth":5336,"null":5337,"Ġenvoye":5338,"Ġrecette":5339,"Ġcuis":5340,"Ġsymb":5341,"Ġliens":5342,"Mer":5343,"onal":5344,"ignon":5345,"dical":5346,"ĠEss":5347,"Ġfosse":5348,"olation":5349,".)":5350,"ÌĦ":5351,"ĠME":5352,"Ġlait":5353,"Ġlignes":5354,"mais":5355,"kin":5356,"Ġordinateur":5357,"crits":5358,"ĠMc":5359,"Ġrepro":5360,"atur":5361,"Ġsaint":5362,"2007":5363,"Depuis":5364,"Ġmu":5365,"Ġmand":5366,"Ġportable":5367,"Ġsouvenir":5368,"vir":5369,"ĠClassi":5370,"luence":5371,"Ġpersonnalise":5372,"ĠStar":5373,"ricains":5374,"back":5375,"Ġformes":5376,"Ġmul":5377,"vement":5378,"cen":5379,"Ġgarder":5380,"Ġconstr":5381,"Ġ!!":5382,"gation":5383,"impression":5384,"erme":5385,"avez":5386,"Ġart":5387,"PR":5388,"lige":5389,"table":5390,"Ġbouche":5391,"pping":5392,"lois":5393,"Tous":5394,"mber":5395,"Ġtarifs":5396,"ĠFl":5397,"Ġbac":5398,"truction":5399,"itez":5400,"url":5401,"OUS":5402,"hors":5403,"ĠAnti":5404,"ĠPuis":5405,"Ġimag":5406,"Ġregarder":5407,"Ġvend":5408,"diteur":5409,"rifier":5410,"Ġsection":5411,"azine":5412,"Ġfavoris":5413,"Bi":5414,"armacie":5415,"Ġfree":5416,"Ġâľ":5417,"ĠElles":5418,"tection":5419,"Ġ2001":5420,"Ġvan":5421,"eth":5422,"vile":5423,"].":5424,"Ġallez":5425,"Ġcontinuer":5426,"aissent":5427,"tiens":5428,"ĠCL":5429,"Ġsoin":5430,"ror":5431,"Ġ64":5432,"Ġcompter":5433,"Ġprofil":5434,"Ġfleurs":5435,"ĠRestaur":5436,"Ġmeubles":5437,"ionne":5438,"Alors":5439,"Ġscientifique":5440,"Ġexe":5441,"Ġexplo":5442,"ĠEdition":5443,"lateur":5444,"cuit":5445,"Ġquantite":5446,"intage":5447,"Ġvolonte":5448,"ĠRobe":5449,"Ġrendu":5450,"rieurs":5451,"ĠToulouse":5452,"ĠLondres":5453,"gions":5454,"actions":5455,"court":5456,">âĨ":5457,"Ġobjectifs":5458,"Aff":5459,"ĠCent":5460,"osite":5461,"andre":5462,"ignements":5463,"Ġtellement":5464,"Ġinformation":5465,"pos":5466,"nique":5467,"):":5468,"ĠWal":5469,"Lire":5470,"ĠPant":5471,"Ġvision":5472,"stru":5473,"quences":5474,"ĠSau":5475,"monie":5476,"Ġbaisse":5477,"uile":5478,"amine":5479,"sistance":5480,"Ġconsacre":5481,"ĠLab":5482,"Emp":5483,"iciels":5484,"cha":5485,"andic":5486,"ãĤ":5487,"info":5488,"Quel":5489,"Ġmilitaire":5490,"Ġparticipation":5491,"Ġtandis":5492,"Ġconcert":5493,"ĠVoici":5494,"Ġdimin":5495,"Ġprogrammes":5496,"Ġpublication":5497,"div":5498,"Ame":5499,"rouve":5500,"Ġfonctions":5501,"br":5502,"administration":5503,"nalite":5504,"ancien":5505,"Ġsuivante":5506,"Ġcompare":5507,"Ġbus":5508,"/<":5509,"ÙĬ":5510,"Ġofficiel":5511,"Ġbasse":5512,"Ġquant":5513,"illir":5514,"uaire":5515,"MS":5516,"clai":5517,"way":5518,"Ġdollars":5519,"Ġentier":5520,"stitut":5521,"Ġautorite":5522,"ĠMaur":5523,"ĠToute":5524,"oirs":5525,"wn":5526,"und":5527,"cho":5528,"Ġperd":5529,"Ġden":5530,"Ġjapon":5531,"ĠMur":5532,".-":5533,"tension":5534,"Ġremer":5535,"ĠActualite":5536,"ĠMaroc":5537,"ivi":5538,"Ġpersonnage":5539,"Ġ^^":5540,"ĠLang":5541,"ĠLog":5542,"();":5543,"ĠOli":5544,"rentiss":5545,"Ġ47":5546,"trop":5547,"ĠMay":5548,"ĠSc":5549,"index":5550,"Ġlettres":5551,"ataire":5552,"Bas":5553,"reux":5554,"Ġperformance":5555,"Ġconsult":5556,"Ġbonheur":5557,"Ġouverte":5558,"oureux":5559,"Ġdurable":5560,"Articles":5561,"Ġmac":5562,"enture":5563,"oleil":5564,"dienne":5565,"ator":5566,"couvert":5567,"set":5568,"Ġanaly":5569,"loque":5570,"ides":5571,"Ġprincipaux":5572,"Type":5573,"ĠAnge":5574,"Ġ59":5575,"ware":5576,"Ġfichiers":5577,"ĠMari":5578,"analyse":5579,"\").":5580,"Ġvise":5581,"Ġpassion":5582,"Ġlac":5583,"ĠUN":5584,"ĠAdidas":5585,"Ġpouvons":5586,"fu":5587,"agram":5588,"ĠSor":5589,"PA":5590,"Ġvictoire":5591,"Ġphilos":5592,"cialiste":5593,"Ġinstallation":5594,"Ġindustriel":5595,"Ġconj":5596,"Mode":5597,"entretien":5598,"Ġel":5599,"ĠSyste":5600,"empe":5601,"').":5602,"ĠLoire":5603,"ĠLocation":5604,"Ġinformatique":5605,"dique":5606,"URE":5607,"Ret":5608,"chent":5609,"ĠToutes":5610,"Ġlyce":5611,"dagog":5612,"right":5613,"ĠListe":5614,"inium":5615,"siden":5616,"Ġmodifier":5617,"Ġplans":5618,"Anne":5619,"Ġtarif":5620,"ERS":5621,"Cons":5622,"uble":5623,"Ġforces":5624,"Ġcrite":5625,"Di":5626,"Ġryth":5627,"ĠBlog":5628,"Ġmusic":5629,"Ġcontexte":5630,"ĠBonne":5631,"Tou":5632,"Ġpatrimoine":5633,"tenance":5634,"ĠAchat":5635,"Ġfabrication":5636,"ĠSelon":5637,"ĠOui":5638,"lash":5639,"Ġvoitures":5640,"Ġkg":5641,"Ġsug":5642,"Ġfutur":5643,"Ġdiverses":5644,"Fi":5645,"dela":5646,"Ġassurer":5647,"Ġble":5648,"esti":5649,"vet":5650,"claration":5651,"room":5652,"Ġparticuliers":5653,"work":5654,"Ġmene":5655,"ĠLin":5656,"ĠEr":5657,"ceau":5658,"oncer":5659,"key":5660,"Ġcook":5661,"Ġstreaming":5662,"Ġbanque":5663,"ally":5664,"chargement":5665,"Ġstage":5666,"rices":5667,"Ġcul":5668,"visor":5669,"Ġoutil":5670,"atrie":5671,"Ġpermettra":5672,"din":5673,"Ġcho":5674,"Ġfournir":5675,"Ġ250":5676,"Ġutilisation":5677,"500":5678,"ombier":5679,"Ġpron":5680,"itch":5681,"Ġprincipalement":5682,"ventions":5683,"dir":5684,"pert":5685,"ĠFil":5686,"Ġ-<":5687,"ĠFR":5688,"Ġait":5689,"till":5690,"Ġfide":5691,"Ġray":5692,"IF":5693,"ciale":5694,"ĠVict":5695,"Ġuse":5696,"Ġchaud":5697,"conomiques":5698,"Location":5699,"avance":5700,"Ġtelles":5701,"dium":5702,"andonne":5703,"Ġbrit":5704,"Tu":5705,"Ġfootball":5706,"Pers":5707,"ĠKar":5708,"Ġdiplo":5709,"rane":5710,"Ġmix":5711,"Can":5712,"Ġaj":5713,"lettes":5714,"Ġtele":5715,"criture":5716,"ĠMich":5717,"ĠCab":5718,"nerge":5719,"Ġconcept":5720,"Ġgare":5721,"Ġsent":5722,"Ġcentrale":5723,"Ġaccepte":5724,"vain":5725,"Ġsolid":5726,"ibe":5727,"anmoins":5728,"ĠLac":5729,"ĠSw":5730,"dits":5731,"rond":5732,"pers":5733,"ORT":5734,"ĠTerre":5735,"Ġpaix":5736,"]+":5737,"ĠCouleur":5738,"ĠTor":5739,"Ġdel":5740,"omber":5741,"ival":5742,"Ġradio":5743,"volu":5744,"illets":5745,"chets":5746,"uminium":5747,"Ġchercher":5748,"ĠInternational":5749,"ĠTrai":5750,"Ġsauve":5751,"Mont":5752,"ĠJack":5753,"ĠMis":5754,"ãģ":5755,"ĠHome":5756,"ĠMars":5757,"Afrique":5758,"Ġenque":5759,"atten":5760,"Ġtab":5761,"roprie":5762,"cussion":5763,"âĢĵ":5764,"Ġkilome":5765,"ographe":5766,"agnes":5767,"Ġscolaire":5768,"cc":5769,"ĠHaut":5770,"vail":5771,"Ġreduction":5772,"Ġbatterie":5773,"aby":5774,"Ġchale":5775,"Ġmarie":5776,"ĠXX":5777,"Ġbloc":5778,"Ġapparai":5779,"Ġanalyse":5780,"Ġcandidat":5781,"Contactez":5782,"objectif":5783,"Ġmotivation":5784,"pital":5785,"Franc":5786,"ĠPa":5787,"faut":5788,"Ġvoire":5789,"Ġbras":5790,"Ġfaits":5791,"Ġfroid":5792,"Ġrand":5793,"ĠBain":5794,"ita":5795,"cli":5796,"Ġ..":5797,"chon":5798,"âĤ¬<":5799,">âĢľ":5800,"It":5801,"Ġpatients":5802,"ĠAmazon":5803,"ĠCos":5804,"accomp":5805,"Ġfinal":5806,"Ġconsulter":5807,"ĠCert":5808,"tou":5809,"ISE":5810,"Ġindispens":5811,"Ġcanadi":5812,"tirer":5813,"merce":5814,"ĠBat":5815,"Ġrencontrer":5816,"ĠSil":5817,"Ġracon":5818,"Ġchim":5819,"Ġdavantage":5820,"CL":5821,"Ġpuisse":5822,"Ġsyndic":5823,"illers":5824,"aro":5825,"Ġapplications":5826,"Ġcouverture":5827,"Ġaug":5828,"...)<":5829,"oiff":5830,"annique":5831,"ĠBri":5832,"Ġtextes":5833,"icrosoft":5834,"Ġaugmente":5835,"enseignement":5836,"ĠXV":5837,"ĠMate":5838,"oila":5839,"arg":5840,"ĠAf":5841,"Ġtire":5842,"ĠSep":5843,"Ġmens":5844,"pr":5845,"olie":5846,"pie":5847,"romo":5848,"Ġsmart":5849,"Voici":5850,"industrie":5851,"lot":5852,"Es":5853,"Ġchaudiere":5854,"-<":5855,"Ġaspect":5856,"Ġvisiter":5857,"Ġqualifie":5858,"Ġvaut":5859,"ĠGroupe":5860,"Ġseptique":5861,"Ġga":5862,"Ġparking":5863,"Ġluxe":5864,"Form":5865,"gant":5866,"ision":5867,"Ġmodifie":5868,"agers":5869,"Ġimpression":5870,"ĠPan":5871,"Ġbio":5872,"veillance":5873,"2006":5874,"ĠAfrique":5875,"Ġgarc":5876,"Ġsujets":5877,"Ġbiens":5878,"Paris":5879,"Ġradi":5880,"Ġdon":5881,"Ġconseiller":5882,"Ġspectacle":5883,"decine":5884,"Description":5885,"ĠCity":5886,"ĠSU":5887,"ouest":5888,"Ġphase":5889,"Ġexist":5890,"áĨ":5891,"Ġ77":5892,"tur":5893,"Ġprivile":5894,"ĠLum":5895,"Ġcla":5896,"Ġfisc":5897,"Ġ54":5898,"Ġonline":5899,"siers":5900,"ĠRome":5901,"Lou":5902,"Ġ95":5903,"quez":5904,"Ġfron":5905,"Ġprestations":5906,"nome":5907,"oyen":5908,"Ġpopulaire":5909,"exploitation":5910,"Ġconnecte":5911,"EST":5912,"tines":5913,"Ġplantes":5914,"ĠLoc":5915,"Ġher":5916,"BN":5917,"Gra":5918,"Ġfini":5919,"ĠSeine":5920,"Ġcame":5921,"Ġblanche":5922,"ĠSes":5923,"Ġsociales":5924,"oni":5925,"Ġchaude":5926,"Ġcollectif":5927,"Ġinterpre":5928,"Ġ56":5929,"Ġoptions":5930,"Ġassurance":5931,"videmment":5932,"ĠProfes":5933,"Ġpont":5934,"cd":5935,"ĠBottes":5936,"Ġdevenu":5937,"tan":5938,"Ġvolume":5939,"van":5940,"Ġtitres":5941,"diter":5942,"annonce":5943,"Ġgratuits":5944,"Ġposi":5945,"ield":5946,"ĠBruxelles":5947,"Ġfiche":5948,"ĠIS":5949,"Ġdanse":5950,"Loc":5951,"Ġclassement":5952,"occup":5953,"~~":5954,"Ġaffiche":5955,"quin":5956,"ĠMarc":5957,"Ġciel":5958,"adio":5959,"ordonne":5960,"rentissage":5961,"Ġprofit":5962,"tudiant":5963,"Ġoffrir":5964,"unal":5965,"mos":5966,"Ġpreuve":5967,"Ġ1999":5968,"Ġentendu":5969,"Ġtenu":5970,"Ġvas":5971,"Ġsignifie":5972,"Ġancienne":5973,"Ġindic":5974,"uc":5975,"tranger":5976,"value":5977,"Ġrig":5978,"Ġmassi":5979,"ext":5980,"Ġvieux":5981,"Ġsauf":5982,"riez":5983,"cifique":5984,"Ġfleur":5985,"Ġbeaux":5986,"tons":5987,"Ren":5988,"ĠVers":5989,"apitre":5990,"ĠAujourd":5991,"cession":5992,"ualite":5993,"EC":5994,"ĠRoyaume":5995,"bien":5996,"Maison":5997,"Ġbibliothe":5998,"Bl":5999,"Ġsciences":6000,"Ġpouvait":6001,"Ġrempl":6002,"tielle":6003,"ĠGir":6004,"ĠSUR":6005,"ĠPou":6006,"Ġtue":6007,"Ġexcellent":6008,"ĠSandales":6009,"ficier":6010,"&#":6011,"ĠCat":6012,"tablissements":6013,"\":{\"":6014,"heim":6015,"auts":6016,"Ġconstruire":6017,"Ġmondial":6018,"treet":6019,"bergement":6020,"Ġsatisf":6021,"Ð¾Ð":6022,"ĠBur":6023,"Ġrobe":6024,"esses":6025,"universite":6026,"Ġmoitie":6027,"Ġanniversaire":6028,"Ġempe":6029,"Ġriche":6030,"Ġchinois":6031,"Ġabsolu":6032,"cop":6033,"IQUE":6034,"false":6035,"ĠLav":6036,"Ġdessin":6037,"investi":6038,"Ġniveaux":6039,"Ġavantages":6040,"For":6041,"ao":6042,"Ġtar":6043,"Ġ57":6044,"Ġmodification":6045,"Ġservir":6046,"adore":6047,"thodes":6048,"ĠReg":6049,"Ġjaune":6050,"ĠOrig":6051,"Comp":6052,"product":6053,"norme":6054,"ĠPremier":6055,"Ġlancer":6056,"crite":6057,"ily":6058,"Ġunite":6059,"ĠSign":6060,"Ġesc":6061,"Ġfestival":6062,"Ġinv":6063,"sou":6064,"Ġessentie":6065,"formes":6066,"Ġara":6067,"clairage":6068,"Avis":6069,"Ġcote":6070,"Ġarriver":6071,"Ġcoope":6072,"ĠIII":6073,"atie":6074,"chette":6075,"sor":6076,"olis":6077,"ating":6078,"igneur":6079,"Ġhom":6080,"ĠPOUR":6081,"Ġcontient":6082,"name":6083,"400":6084,"Ġ600":6085,"ĠGuide":6086,"Votre":6087,"sentent":6088,"ĠPlay":6089,"ĠNational":6090,"Ġmaje":6091,"ĠGratuit":6092,"ĠCommission":6093,"ĠLy":6094,"Ġrecettes":6095,"dation":6096,"Marie":6097,"Ġvingt":6098,"Ġrestaurants":6099,"Ġphe":6100,"Ġ1000":6101,"ĠTrip":6102,"Ġ52":6103,"ĠMme":6104,"Ġconfig":6105,"Ġcarb":6106,"Ġsuivantes":6107,"Ġtenue":6108,"ĠPor":6109,"Ġdistribution":6110,"ĠRos":6111,"mique":6112,"Ġbo":6113,"Ġexer":6114,"Ġcondam":6115,"Ġtoutefois":6116,"Ġachete":6117,"ĠNice":6118,"estes":6119,"Ġdiffuse":6120,"Ġplastique":6121,"oints":6122,"Ġconfortable":6123,"sel":6124,"Ġ85":6125,"ciences":6126,"ĠRussie":6127,"ctes":6128,"gny":6129,"Ġutilisant":6130,"Ġanciens":6131,"mination":6132,"Ġtotale":6133,"Ġremporte":6134,"environ":6135,"lectionne":6136,"sert":6137,"chir":6138,"endrier":6139,"Ġâĸ":6140,"mme":6141,"uma":6142,"DA":6143,"MP":6144,"ĠMess":6145,"inal":6146,"text":6147,"Ġajouter":6148,"Ġappareil":6149,"Advisor":6150,"ĠVeste":6151,"Ġ69":6152,"intes":6153,"Ġmarketing":6154,"Ġsources":6155,"ĠRich":6156,"Ġpur":6157,"Ġimpe":6158,"cript":6159,">+":6160,"atel":6161,"yer":6162,"</":6163,"ffect":6164,"Ġsuivants":6165,"ago":6166,"Ġviens":6167,"Ġmail":6168,"Ġ::":6169,"zo":6170,"Ġjournal":6171,"uk":6172,"sole":6173,"Ġpartenaire":6174,"Ġsimilaires":6175,"ĠDr":6176,"entin":6177,"autom":6178,"Ġcommunique":6179,"agnostic":6180,"inaire":6181,"Ġrac":6182,"ĠFC":6183,"moign":6184,"ĠNorm":6185,"lectriques":6186,"Ġtient":6187,"Ġlocale":6188,"Ġconscience":6189,"ody":6190,"Ġnuits":6191,"Åĵuvre":6192,"Ġpau":6193,"nit":6194,"ĠiPhone":6195,"han":6196,"obe":6197,"Ġexig":6198,"ĠRecherche":6199,"cemment":6200,"Ġboule":6201,"venant":6202,"riculture":6203,"daction":6204,"Ġoption":6205,"Ġchasse":6206,"Ġprofesseur":6207,"ĠBook":6208,"row":6209,"ĠâĢĺ":6210,"ĠBelle":6211,"liquez":6212,"Ġchiffre":6213,"Ġlongueur":6214,"option":6215,"Ġpanier":6216,"Ġimprime":6217,"Ġrecommand":6218,"DS":6219,"bie":6220,"heureusement":6221,"Ġgue":6222,"Ġhandic":6223,"III":6224,"ocat":6225,"Ġtravaill":6226,"Ġcollabor":6227,"img":6228,"Ġ78":6229,"ĠBlan":6230,"()":6231,"droid":6232,"Ġapprendre":6233,"ĠFestival":6234,"Code":6235,"Ġgrave":6236,"ĠCN":6237,"cente":6238,"cisions":6239,"ĠOne":6240,"Ġentretien":6241,"ĠChaussure":6242,"rieures":6243,"AA":6244,"lieu":6245,"round":6246,"Ġconnaissances":6247,"Ġpous":6248,"len":6249,"Ġautorise":6250,"Ġartistes":6251,"Ġcollaboration":6252,"ĠBour":6253,"resses":6254,">...":6255,"ep":6256,"ĠPourquoi":6257,"Ġjeunesse":6258,"Ġespagn":6259,"utri":6260,"Ġpousse":6261,"tinent":6262,"avenir":6263,"Ġcompati":6264,"Ġappareils":6265,"Jeu":6266,"ĠType":6267,"Ġdispositif":6268,"Ġcapable":6269,"Ġtraduction":6270,"itations":6271,"ĠSous":6272,"Ġparame":6273,"Ġcomptes":6274,"Ġdois":6275,"Ġtenir":6276,"roniques":6277,"cieux":6278,"Ġprises":6279,"vac":6280,"Ġinclus":6281,"ANS":6282,"ĠSav":6283,"Ġcau":6284,"ĠServices":6285,"Ġdiver":6286,"Am":6287,"croy":6288,"ĠEnfin":6289,"asy":6290,"ĠHistoire":6291,"Ġperformances":6292,"Ġfinancement":6293,"Ġmut":6294,"fection":6295,"101":6296,"Ġchanson":6297,"toile":6298,"Ġstandard":6299,"ãĥ":6300,"Autres":6301,"ĠAvr":6302,"sis":6303,"gramme":6304,"Ġcapitale":6305,"PP":6306,"Ġespaces":6307,"Ġint":6308,"Ġsalles":6309,"ayant":6310,"roge":6311,"galite":6312,"timis":6313,"Ġgene":6314,"onnance":6315,"ainissement":6316,"istence":6317,"ĠLaurent":6318,"cuse":6319,"Ġinspire":6320,"emb":6321,"Ġup":6322,"..<":6323,"ĠFilm":6324,"roule":6325,"Ġgui":6326,"Ġrevenir":6327,"Ġanime":6328,"Ġdisque":6329,"ellement":6330,"Ġorganisation":6331,"Ġfaudra":6332,"mente":6333,"Ġneu":6334,"Ġminim":6335,"Uni":6336,"sents":6337,"sol":6338,"Ġlis":6339,"Cet":6340,"Ġtiers":6341,"ĠTE":6342,"Ġfaisait":6343,"ĠCong":6344,"Ġgarage":6345,"rient":6346,"Ġlouer":6347,"lou":6348,"Ġfar":6349,"fert":6350,"Ġplai":6351,"Ġinterne":6352,"nb":6353,"ĠSource":6354,"ester":6355,"mann":6356,"Ġoptim":6357,"xx":6358,"ĠSm":6359,"amer":6360,"Ġsert":6361,"Ġmontagne":6362,"ĠLED":6363,"Ġpassant":6364,"ury":6365,"prix":6366,"ĠBlue":6367,"Ġdemain":6368,"ĠFoot":6369,"riences":6370,"Ġriches":6371,"ivement":6372,"mond":6373,"Ġplaque":6374,"rifie":6375,"ĠEX":6376,"Ġaurez":6377,"Ġcant":6378,"BA":6379,"Jou":6380,"Ġcru":6381,"ĠPhotos":6382,"content":6383,"Home":6384,"Ġtissu":6385,"Tags":6386,"ĠSP":6387,"Ġremplace":6388,"ĠRay":6389,"Ġ58":6390,"any":6391,"Ġauton":6392,"alons":6393,"ĠLigue":6394,"tophe":6395,"lone":6396,"Ġhier":6397,"ez":6398,"gale":6399,"Nos":6400,"Ġcapital":6401,"Ġ53":6402,"Ġplateforme":6403,"ĠâĢº":6404,"Ġargent":6405,"Ġconfir":6406,"DC":6407,"ĠGuerre":6408,"Ġchocolat":6409,"ĠHu":6410,"inscription":6411,"Ġrembourse":6412,"Ġatteint":6413,"bus":6414,"aimer":6415,"aper":6416,"Ġactuelle":6417,"Ġobligatoire":6418,"ĠPont":6419,"quit":6420,"Ġcircons":6421,"Ġmontrer":6422,"Ġconvient":6423,"trise":6424,"mement":6425,"ikipe":6426,"ĠBureau":6427,"ĠGab":6428,"Ġfournit":6429,"amedi":6430,"ĠPi":6431,"ctor":6432,"Ġber":6433,"roup":6434,"Ġski":6435,"Quand":6436,"ĠBernard":6437,"bonne":6438,"public":6439,"Ġagence":6440,"Ġadhe":6441,"fa":6442,"ĠAV":6443,"Ġprison":6444,"Ġtechnologies":6445,"Ġstatut":6446,"ĠPic":6447,"Ġpotentiel":6448,"ĠInde":6449,"Ġcontribu":6450,"ONS":6451,"ena":6452,"honneur":6453,"Ġcome":6454,"OIR":6455,"Ġlargement":6456,"Ġobjet":6457,"Ġ51":6458,"IST":6459,"ĠOp":6460,"ĠPu":6461,"Ġstars":6462,"ĠAllemagne":6463,"del":6464,"ĠFam":6465,"Ġsing":6466,"ĠSeu":6467,"Ġpne":6468,"agent":6469,"ĠAp":6470,"ĠMat":6471,"Ġtransp":6472,"ĠJourn":6473,"Ġdomaines":6474,"Ġnoter":6475,"Ġride":6476,"trer":6477,"Ġoccupe":6478,"Ġfit":6479,"fil":6480,"Ġnaturelle":6481,"sa":6482,"doc":6483,"Ġcadeaux":6484,"ĠItalie":6485,"Ġcookies":6486,"ERT":6487,"ĠThomas":6488,"dd":6489,",,":6490,"Ġrepe":6491,"Ġfigure":6492,"libat":6493,"Ġfrontie":6494,"Ġquitte":6495,"Ġveulent":6496,"Ġprim":6497,"Ġquasi":6498,"Ġhos":6499,"span":6500,"Ġmoments":6501,"gumes":6502,"ĠPublie":6503,"type":6504,"pellier":6505,"solution":6506,"dier":6507,"atoires":6508,"Ġrevient":6509,"ĠJuil":6510,"blog":6511,"ek":6512,"diatement":6513,"Ġtrait":6514,"ĠAnim":6515,"Ġfabrique":6516,"put":6517,"OW":6518,"Ġapproche":6519,"OY":6520,"onie":6521,"Ġcentral":6522,"this":6523,"Dernie":6524,"Ġchre":6525,"gional":6526,"Ġcoffre":6527,"Ġspi":6528,"kea":6529,"ĠAvant":6530,"ĠFRAN":6531,"Ġrenforce":6532,"Mal":6533,"Ġtourn":6534,"yme":6535,"Ġpersonnalite":6536,"Ġusage":6537,"ĠBay":6538,"ceaux":6539,"tapes":6540,"Ġdra":6541,"ĠFont":6542,"Ġsable":6543,"rapie":6544,"Ġpin":6545,"ĠUSB":6546,"Ġcoton":6547,"ĠPoi":6548,"Ġacc":6549,"></":6550,"Ġinstitu":6551,"Ġcasse":6552,"Ġveille":6553,"tar":6554,"ĠSho":6555,"canique":6556,"AUX":6557,"tures":6558,"melle":6559,"Ġtourisme":6560,"Ġpermanen":6561,"Ġgu":6562,"ĠFree":6563,"Selon":6564,"'t":6565,"Ġadultes":6566,"ifi":6567,"dec":6568,"Ġconnexion":6569,"ĠPol":6570,"Ġfr":6571,"Ġnettoyage":6572,"Ġmauvais":6573,"gard":6574,"dici":6575,"Ġdiz":6576,"ĠLam":6577,"Ġinstall":6578,"teliers":6579,"UC":6580,"Man":6581,"quette":6582,"aments":6583,"ĠPen":6584,"pau":6585,"ĠChrist":6586,"ĠBrun":6587,"ĠSoleil":6588,"ĠQU":6589,"Ġboul":6590,"wid":6591,"Ġprobablement":6592,"Ġintervention":6593,"ĠCel":6594,"angle":6595,"Ġconvain":6596,"Ġconstate":6597,"Â·":6598,"iend":6599,"ĠLivraison":6600,"Ġnoire":6601,"Ġpouvant":6602,"Ġdynamique":6603,"onor":6604,"ĠWorld":6605,"ĠTar":6606,"Ġnormes":6607,"Ġbarre":6608,"cuter":6609,"ĠTru":6610,"Ġabord":6611,"CD":6612,"Ġaudio":6613,"omberie":6614,"alisations":6615,"Ġmilliers":6616,"orama":6617,"Ġ1990":6618,"Ġexpose":6619,"ĠMot":6620,"pan":6621,"Ġenseign":6622,"Ġprintemps":6623,"ĠDate":6624,"Ġpourront":6625,"univers":6626,">.":6627,"ĠWar":6628,"Ġessayer":6629,"ĠVert":6630,"IDE":6631,"Ġsurprise":6632,"Ġcandidats":6633,"azz":6634,"Ġdiscours":6635,"ĠOnline":6636,"gleterre":6637,"ĠNi":6638,"iden":6639,"Ġallons":6640,"Ġ1998":6641,"pendance":6642,"ĠAppartement":6643,"Ġfournisseurs":6644,"dige":6645,"Ġhiver":6646,"illages":6647,"Ġacier":6648,"neurs":6649,"Ġintro":6650,"actualite":6651,"Ġenvis":6652,"timents":6653,"ĠMini":6654,"ĠMore":6655,"Ġfacili":6656,"Ġchangements":6657,"Ver":6658,"los":6659,"ĠUnivers":6660,"ĠDVD":6661,"Ġvoud":6662,"Ġchiffres":6663,"urt":6664,"aisser":6665,"Ġaccueil":6666,"ĠCulture":6667,"Ġprati":6668,"agu":6669,"ĠBourg":6670,"Ġdiscip":6671,"Ġenj":6672,"ĠCA":6673,"MI":6674,"atistiques":6675,"itue":6676,"ota":6677,"Ġgenti":6678,"Ġpourraient":6679,"Ġliqu":6680,"ĠPom":6681,"ĠUl":6682,"ĠFour":6683,"Ġultra":6684,"aissez":6685,"Ġconforme":6686,"Ġattendre":6687,"Ġformule":6688,"ĠNature":6689,"Ìģ)":6690,"ASS":6691,"idite":6692,"Ġmachines":6693,"ĠTim":6694,"Ġessaye":6695,"UT":6696,"har":6697,"Ġapplique":6698,"ĠPark":6699,"agence":6700,"OK":6701,"Ġconsiste":6702,"Ġprincipales":6703,"Ġviennent":6704,"Ġsimples":6705,"Ju":6706,"Ġdehors":6707,"Ġheureux":6708,"aques":6709,"duite":6710,"ĠAutom":6711,"Ġlogiciels":6712,"Ġmaire":6713,"gration":6714,"ĠClaude":6715,"ns":6716,"Ġsympa":6717,"Ġpubliques":6718,"Ġessentiel":6719,"Ġeffectuer":6720,"ĠUtili":6721,"ĠMul":6722,"glish":6723,"Ġorient":6724,"Ġbouton":6725,"Ġlumine":6726,"Ġsynthe":6727,"passe":6728,"Ġprovince":6729,"Ġchape":6730,"Ġtranspa":6731,"ieuse":6732,"ĠAC":6733,"ductions":6734,"ĠVit":6735,"Fe":6736,"red":6737,"VA":6738,"estations":6739,"aco":6740,"Ġlangues":6741,"Ġapporter":6742,"ED":6743,"Art":6744,"ĠSant":6745,"ĠHor":6746,"Ġdegre":6747,"Ġmig":6748,"ÌĢ.":6749,"Ġ978":6750,"ĠCore":6751,"date":6752,"Ġtrom":6753,"Ġdemandes":6754,"Ġutiles":6755,"rue":6756,"Ġnotes":6757,"Ġfau":6758,"Ġfront":6759,"Ġhumaine":6760,"Ġinnov":6761,"Ġdestination":6762,"Ġrythme":6763,"Ġcomite":6764,"ĠJo":6765,"Dim":6766,"ELLE":6767,"Ġund":6768,"ĠDie":6769,"ĠØ§":6770,"ĠWilli":6771,"dine":6772,"Ġpaye":6773,"Ġcertainement":6774,"Ġrivie":6775,"pture":6776,"ĠSk":6777,"Ļ¥":6778,"Ġgl":6779,"Ġprofession":6780,"anteau":6781,"fond":6782,"ĠCarte":6783,"ĠMarine":6784,"Ġmonu":6785,"ĠSoci":6786,"ĠMach":6787,"ulaires":6788,"Ġoriginale":6789,"Ġproje":6790,"aites":6791,"tenue":6792,"BC":6793,"Ġ101":6794,"ĠLux":6795,"tablir":6796,"ĠChaque":6797,"Ġdisponibilite":6798,"Vente":6799,"Ġsuperbe":6800,"changes":6801,"monte":6802,"lah":6803,"oeu":6804,"Ġsho":6805,"lever":6806,"Ġ68":6807,"Ġpuisqu":6808,"ĠHam":6809,"Ġatteindre":6810,"ĠImm":6811,"))":6812,"ĠAjouter":6813,"acheter":6814,"Ġartisan":6815,"Ġdote":6816,"Ġimpossible":6817,"ĠNav":6818,"Ġhausse":6819,"chou":6820,"Ġsel":6821,"BO":6822,"SC":6823,"ĠFlo":6824,"Chris":6825,"Ġoublie":6826,"Ġgoogle":6827,"apport":6828,"Ġaccessible":6829,"Page":6830,"ĠBL":6831,"lat":6832,"mune":6833,"Liv":6834,"flexion":6835,"Ġpein":6836,"neak":6837,"Ġamour":6838,"ther":6839,"Ġ66":6840,"Ġpartenariat":6841,"Ġcentres":6842,"Sy":6843,"allen":6844,"Ġstudio":6845,"Ġglace":6846,"uche":6847,"now":6848,"erv":6849,"Ġout":6850,"ĠLunettes":6851,"ĠBretagne":6852,"ĠNantes":6853,"Ġrevenus":6854,"Ġsuit":6855,"\"]":6856,"Per":6857,"adies":6858,"Ġbox":6859,"Ġâĺİ":6860,"Ġassociations":6861,"Conc":6862,"ĠPau":6863,"ologne":6864,"Ġtres":6865,"Ġmenace":6866,"ĠDoc":6867,"ĠManches":6868,"ART":6869,"Ġmoto":6870,"Cal":6871,"Ġmultiples":6872,"Ġdevait":6873,"Ġroule":6874,"tiennent":6875,"Ġacquis":6876,"ĠBa":6877,"Ġpartis":6878,"Ġbilan":6879,"Ġnormal":6880,"Ġmultip":6881,"Ġportant":6882,"}}":6883,"anda":6884,"Ġmeme":6885,"Ġrejoindre":6886,"Ġintellig":6887,"PH":6888,"Ġsoumis":6889,"rienne":6890,"ĠØ":6891,"tle":6892,"Ùħ":6893,"Ġconvention":6894,"Ġ62":6895,"bili":6896,"Ġplaf":6897,"Ġconnexes":6898,"Ġfonctionnalite":6899,"Ġvisiteurs":6900,"Ġparticipants":6901,"Gar":6902,"ĠHum":6903,"Ġcomplexe":6904,"adis":6905,"Ġfondament":6906,"Ġmenu":6907,"Go":6908,"Ġsinon":6909,"ĠOc":6910,"ĠPlace":6911,"fice":6912,"chez":6913,"ivant":6914,"Ġreconnai":6915,"raction":6916,"PC":6917,"ises":6918,"Ġmusul":6919,"lioration":6920,"visions":6921,"ueur":6922,"Site":6923,"Ġpublicite":6924,"gon":6925,"ĠDonc":6926,"outh":6927,"tour":6928,"cution":6929,"112":6930,"Ġmaxim":6931,"Ġtechni":6932,"Ġbritannique":6933,"Ġpompe":6934,"ĠCarre":6935,"Off":6936,"Inf":6937,"ĠIns":6938,"lins":6939,"Ġaccep":6940,"Ġadopte":6941,"Ġone":6942,"Ġvictimes":6943,"Ġmille":6944,"Ġdisting":6945,"Ġchampionnat":6946,"dicaments":6947,"ĠCollection":6948,"Ġrandonne":6949,"Ġsympath":6950,"ĠAD":6951,"iger":6952,"ĠLim":6953,"roid":6954,"rict":6955,"Ġrusse":6956,"Ġtranqu":6957,"Ġcommission":6958,"jo":6959,"Ġrede":6960,"Ġbroyeur":6961,"usage":6962,"rac":6963,"utilisateur":6964,"rables":6965,"Super":6966,"Ġjolie":6967,"Ġcivile":6968,"ush":6969,"vait":6970,"Sal":6971,"Ma":6972,"Imp":6973,"sw":6974,"Ġfrai":6975,"Ġmerveille":6976,"oco":6977,"motion":6978,"diction":6979,"ĠTrois":6980,"vas":6981,"Film":6982,"Ġmasse":6983,"landais":6984,"Part":6985,"Ġ800":6986,"ombe":6987,"Ġgraphique":6988,"initi":6989,"âĸ":6990,"Ġalimentaire":6991,"igu":6992,"Ġparai":6993,"Ġlogements":6994,"Ġsexe":6995,"ĠMarche":6996,"amin":6997,"ĠOut":6998,"ĠAndroid":6999,"Ġcroire":7000,"Ġimmobilie":7001,"lesse":7002,"Ġlongues":7003,"Ġactive":7004,"former":7005,"Ġlook":7006,"oui":7007,"ĠSex":7008,"celet":7009,"ĠCR":7010,"OI":7011,"Ġstar":7012,"ĠGren":7013,"Ġauteurs":7014,"Ġperspe":7015,"Ġoublier":7016,"teaux":7017,"plus":7018,">âĤ¬":7019,"Ġaffirme":7020,"ado":7021,"Adresse":7022,"rasbourg":7023,"Ġrecours":7024,"Ġprogres":7025,"Ġneige":7026,"Ġ!!!<":7027,"ĠWhite":7028,"Cate":7029,"Ġpure":7030,"aveur":7031,"Ġ72":7032,"Ġmorts":7033,"Ġclimat":7034,"ĠMath":7035,"Ġcomportement":7036,"********":7037,"ĠMeilleur":7038,"Ġhumain":7039,"ĠInn":7040,"Ġimportants":7041,"ĠLivres":7042,"Ġencour":7043,"igny":7044,"Ġsouligne":7045,"manuel":7046,"gt":7047,"UX":7048,"ĠVictor":7049,"ĠMonsieur":7050,"Ġcesse":7051,"rure":7052,"Ġvoyages":7053,"Ġjuridique":7054,"Mo":7055,"midi":7056,"Ġremplacement":7057,"bouchage":7058,"ĠBot":7059,"ĠSun":7060,"Ġobtenu":7061,"Ġformations":7062,"150":7063,"ussite":7064,"rc":7065,"Ġdange":7066,"TR":7067,"ĠThis":7068,"\">":7069,"Ġrelie":7070,"aga":7071,"Ġcharme":7072,"Ġitali":7073,"meric":7074,"rol":7075,"Ġlot":7076,"ĠDos":7077,"Ġsecondes":7078,"importance":7079,"ĠGeorges":7080,"Ġrevanche":7081,"ĠDownload":7082,"tech":7083,"ĠRun":7084,"album":7085,"Ġbour":7086,"bel":7087,"Ġdemeure":7088,"Ġpointe":7089,"Inte":7090,"Ġassociation":7091,"Ġconserve":7092,"oble":7093,"ria":7094,"Ġrepos":7095,"Ġcourage":7096,"Â»<":7097,"ĠTunis":7098,"ĠGuy":7099,"ardins":7100,"ĠJou":7101,"Ġrevenu":7102,"Ġoblige":7103,"Ġcanalisation":7104,"Non":7105,"tube":7106,"gs":7107,"Val":7108,"Ġscience":7109,"gales":7110,"ĠLille":7111,"ÌĨ":7112,"Ġphra":7113,"exposition":7114,"vrez":7115,"cade":7116,"Cor":7117,"Ġplonge":7118,"ponible":7119,"Ġcath":7120,"ĠHenri":7121,"ĠCate":7122,"Ġceci":7123,"riture":7124,"acances":7125,"lait":7126,")[":7127,"Ġfuite":7128,"Ġ=>":7129,"ION":7130,"ires":7131,"ĠAlain":7132,"lector":7133,"Ġ67":7134,"BE":7135,"avons":7136,"quival":7137,"ĠChampion":7138,"Ġnoms":7139,"Ġpel":7140,"Ġfrag":7141,"Ġcharges":7142,"arif":7143,"Ġauteur":7144,"ĠPerm":7145,"Ġinc":7146,"Ġinstant":7147,"pportunite":7148,"long":7149,"acute":7150,"irst":7151,"xes":7152,"Ġdata":7153,"Ġ....":7154,"Ġexac":7155,"andie":7156,"autant":7157,"sidentielle":7158,"Ġvues":7159,"ĠMu":7160,"ĠBos":7161,"Ġserez":7162,"iendra":7163,"gus":7164,"Ġrare":7165,"Ð»":7166,"Ġchante":7167,"atin":7168,"Ġhave":7169,"Ġdispos":7170,"Ġmonn":7171,"ium":7172,"font":7173,"rants":7174,"Ġresponsables":7175,"ĠDro":7176,"affaire":7177,"Ġlesquels":7178,"Ġaccro":7179,"Ġcombien":7180,"Ġsty":7181,"olymp":7182,"ĠBru":7183,"assurer":7184,"Ġfeuilles":7185,"ĠFOR":7186,"Ġcycle":7187,"mons":7188,"cents":7189,"Ġdoux":7190,"Ġlogique":7191,"preuve":7192,"ĠWi":7193,"ĠBE":7194,"ĠPE":7195,"Ġ99":7196,"Ġconduite":7197,"Ġpersonnelles":7198,"ĠPH":7199,"Ġfine":7200,"Ġabsolument":7201,"ierres":7202,"Ġlocales":7203,"ĠTwitter":7204,"astro":7205,"hr":7206,"ffage":7207,"cute":7208,"Ġhuit":7209,"Ġ76":7210,"inc":7211,"pouse":7212,"Ġvisites":7213,"Ġexemples":7214,"Ġdie":7215,"imag":7216,"Ġexperts":7217,"eroy":7218,"Ġrapports":7219,"Ġmissions":7220,"Ġparfaite":7221,"cheur":7222,"tinen":7223,"Allemagne":7224,"Ġmurs":7225,"clo":7226,"Ġ63":7227,"Ġproduire":7228,"Ġhome":7229,"ĠJoseph":7230,"fl":7231,"ology":7232,"fran":7233,"Ġ!!<":7234,"tume":7235,"Ġtor":7236,"Ġnov":7237,"Ġrappelle":7238,"Ġvain":7239,"sil":7240,"otal":7241,"Ġdispositions":7242,"mium":7243,"cifiques":7244,"phones":7245,"Ġfortement":7246,"citer":7247,"Ġlabor":7248,"ĠPri":7249,"Ġrevue":7250,"Ġmodes":7251,"ĠNor":7252,"ĠAuto":7253,"Bou":7254,"ĠÃ":7255,"Ġcirculation":7256,"jus":7257,"ĠFaire":7258,"Ġprofite":7259,"ford":7260,"Homme":7261,"Ġlecteur":7262,"bri":7263,"ĠCur":7264,"Ġbateau":7265,"curise":7266,"limine":7267,"ĠGen":7268,"Ġusine":7269,"uves":7270,"tisan":7271,"ĠPM":7272,"Ġpeint":7273,"titule":7274,"ribuer":7275,"ĠVos":7276,"rip":7277,"ural":7278,"120":7279,"ĠDomin":7280,"Ġ110":7281,"Ġirre":7282,"DR":7283,"ancy":7284,"ureaux":7285,"perc":7286,"tration":7287,"Ġcamping":7288,"lip":7289,"anes":7290,"chats":7291,"cesse":7292,"Char":7293,"Ġâĩ":7294,"Ġverse":7295,"ĠMos":7296,"dicale":7297,"aies":7298,"Ġcroise":7299,"tn":7300,"!+[]":7301,"ataires":7302,"Ġelectrique":7303,"aki":7304,"tical":7305,"Ġmontage":7306,"ctifs":7307,"Chaussures":7308,"nite":7309,"lick":7310,"istoires":7311,"âĢ²":7312,"Ġsolaire":7313,"piration":7314,"ĠJournal":7315,"illaume":7316,"ĠFi":7317,"Ġtoiture":7318,"Ġ1997":7319,"ĠChristian":7320,"urre":7321,"Cap":7322,"ĠBac":7323,"Ġreve":7324,"Ġmore":7325,"!!!":7326,"aph":7327,"ISS":7328,"Chambre":7329,"liance":7330,"Ġfaveur":7331,"Ġsuisse":7332,"Ġnavigation":7333,"jon":7334,"ALE":7335,"Ġtermin":7336,"Ġrestauration":7337,"wood":7338,"atherine":7339,"aider":7340,"ĠMoi":7341,"Ah":7342,"ÙĪ":7343,"Ìģ(":7344,"ĠShe":7345,"umb":7346,"intervention":7347,"Ġloisirs":7348,"IEN":7349,"Ġdisc":7350,"ĠCra":7351,"isant":7352,"Ġchir":7353,"Ġcliquez":7354,"Ġdiffusion":7355,"missions":7356,"Exp":7357,"Ġconcentre":7358,"Ġreque":7359,"ĠNE":7360,"couter":7361,"Ġcible":7362,"Ġgour":7363,"tics":7364,"absence":7365,"Ġinforme":7366,"Ġdevoir":7367,"ÙĨ":7368,"Ġfri":7369,"lix":7370,"rup":7371,"Ġincont":7372,"CS":7373,"Ġconge":7374,"ĠTom":7375,"ĠRock":7376,"Ġchute":7377,"ĠPremie":7378,"Ġolymp":7379,"commun":7380,"Ġconstruit":7381,"liques":7382,"Ġbaign":7383,"Ġpain":7384,"ĠNews":7385,"Institut":7386,"Ġservi":7387,"Price":7388,"Ðº":7389,"Ouest":7390,"Ġ_":7391,"Ġconfid":7392,"ĠAub":7393,"Ġcoordonne":7394,"Ġterritori":7395,"Ġmauvaise":7396,"Ġraconte":7397,"Ġserveur":7398,"ĠRho":7399,"Ġregre":7400,"ĠDaniel":7401,"Ġcitoyens":7402,"ĠEU":7403,"Ġlar":7404,"ĠArticle":7405,"tils":7406,"Ġfunction":7407,"Ġsentiment":7408,"ĠHol":7409,"Ġconsulte":7410,"160":7411,"Ġfan":7412,"igueur":7413,"ian":7414,"Ġcouche":7415,"Ġfoi":7416,"orable":7417,"orge":7418,"hier":7419,"ĠParc":7420,"dies":7421,"Ġparole":7422,"Ġreb":7423,"Ġartistique":7424,"criptions":7425,"oyez":7426,"tissement":7427,"inon":7428,"Ġalternative":7429,">Â»":7430,"Ġsecret":7431,"Ġbrill":7432,"Ġover":7433,"ĠCop":7434,"ĠSwe":7435,"âĢ¢":7436,"hab":7437,"ĠSue":7438,"Ils":7439,"istan":7440,"Trans":7441,"Ġscientifiques":7442,"Ġrecord":7443,"mant":7444,"chen":7445,"Ġrefuse":7446,"Ġback":7447,"Ġkit":7448,"Ġ140":7449,"Ġcoups":7450,"Ġrenseignements":7451,"obtenir":7452,"penses":7453,"Ġindispensable":7454,"ĠProvence":7455,"servations":7456,"2005":7457,"ercices":7458,"Ġpossibles":7459,"Ġinstaller":7460,"Ġread":7461,"Ġremplacer":7462,"Ġavantage":7463,"ĠSAINT":7464,"TEUR":7465,"ĠTechn":7466,"Ġregarde":7467,"Ġvirt":7468,"trage":7469,"voit":7470,"Ġcollectivite":7471,"rieuse":7472,"Ġhyp":7473,"Ġimplique":7474,"cos":7475,"ĠMicrosoft":7476,"Ġfaux":7477,"Ġclass":7478,"renti":7479,"ĠRetour":7480,"Ġfus":7481,"Ġquotidienne":7482,"Ġze":7483,"Ġfinir":7484,"exper":7485,"ĠTripAdvisor":7486,"tige":7487,"ANCE":7488,"aliers":7489,"Ġchaleure":7490,"IGN":7491,"uise":7492,"ank":7493,"alimentation":7494,"ĠLorsque":7495,"As":7496,"ington":7497,"vert":7498,"fes":7499,"Ġpilote":7500,"oiffure":7501,"Ġactuel":7502,"ĠSyl":7503,"ĠEspagne":7504,"ĠMel":7505,"Ġcomte":7506,"ĠUr":7507,"ĠApple":7508,"Ġcircuit":7509,"Ġpluie":7510,"vr":7511,"iler":7512,"Ġaffaire":7513,"Ġimpose":7514,"atures":7515,"rondissement":7516,"aya":7517,"Ġmaladies":7518,"ICE":7519,"Ġsubst":7520,"Ġdownload":7521,"ople":7522,"Ġintern":7523,"instant":7524,"pondu":7525,"gend":7526,"Ġboute":7527,"Ġproposons":7528,"ĠBeach":7529,"Ġbataille":7530,"ALL":7531,"entielles":7532,"sim":7533,"250":7534,"Ġplante":7535,"Ġarchite":7536,"Ġsale":7537,"pdf":7538,"Ġpharmacie":7539,"ym":7540,"diterrane":7541,"Ġclimati":7542,"Ins":7543,"Ġnucle":7544,"umeur":7545,"Ġha":7546,"ĠLot":7547,"oce":7548,"ĠPoly":7549,"ĠLis":7550,"Ġword":7551,"Ġconcre":7552,"Ġchaudie":7553,"CF":7554,"Ġml":7555,"Ġminute":7556,"ĠPle":7557,"Ca":7558,"Ġteste":7559,"Ġwc":7560,"Ġtrouvent":7561,".\"":7562,"ĠSams":7563,"Fin":7564,"ted":7565,"nac":7566,"cune":7567,"ĠAux":7568,"Ġreprise":7569,"Ant":7570,"aisons":7571,"Ġvigueur":7572,"var":7573,"ĠVendre":7574,"ragon":7575,"ĠMonte":7576,"ĠStrasbourg":7577,"Ġfermeture":7578,"ichage":7579,"Ġmyste":7580,"daille":7581,"ĠPos":7582,"Ġmaroc":7583,"Ġinstallations":7584,"Ġscul":7585,"axy":7586,"Ġpopulaires":7587,"ories":7588,"rois":7589,"ĠConne":7590,"ĠÅĵuvres":7591,"ĠWord":7592,"dients":7593,"contra":7594,"zi":7595,"ĠBlu":7596,"ese":7597,"llect":7598,"Ġpatron":7599,"lise":7600,"ĠPermalien":7601,"aigne":7602,"omen":7603,"rastru":7604,"Ġreme":7605,"},{\"":7606,"Ġattaque":7607,"Wh":7608,"Association":7609,"ĠJames":7610,"Ġguit":7611,"gisla":7612,"effet":7613,"Table":7614,"Ġinquie":7615,"Ġserrurerie":7616,"ĠSports":7617,"Ġ1996":7618,"ussions":7619,"140":7620,"OUT":7621,"vc":7622,"orient":7623,"Ġtraiter":7624,"ĠLoi":7625,"liore":7626,"ĠPR":7627,"ĠLie":7628,"Ġblack":7629,"Ġgard":7630,"Ġordre":7631,"thique":7632,"Ġvoulu":7633,"Ġvotes":7634,"Ġoeuvre":7635,"paisse":7636,"Ġrespecter":7637,"por":7638,"Ġcabinet":7639,"Ġour":7640,"vidu":7641,"inten":7642,"Ġstade":7643,"ero":7644,"Ġvolont":7645,"Ġjudici":7646,"ĠAS":7647,"Ġcliente":7648,"][":7649,"hu":7650,"Ġfacture":7651,"Toutes":7652,"Ġrai":7653,"Ġmonter":7654,"ĠNombre":7655,"Ġouvrage":7656,"ĠðŁĺ":7657,"ĠStyle":7658,"Ġregroupe":7659,"Ġappelle":7660,"Bar":7661,"Ġinse":7662,"Ġ\\":7663,"Ġvitre":7664,"Ġtransfert":7665,"Ġpassionne":7666,"Ġ1995":7667,"Ġremarque":7668,"ĠMontpellier":7669,"Assemble":7670,"600":7671,"ĠHel":7672,"Vis":7673,"Ġblesse":7674,"appre":7675,"Lo":7676,"ĠGestion":7677,"ĠTele":7678,"Ġtome":7679,"Ġexige":7680,"cool":7681,"Auteur":7682,"Ġfame":7683,"veau":7684,"Ġvraie":7685,"wa":7686,"Ġerreur":7687,"INS":7688,"Î±":7689,"ands":7690,"Ġhumains":7691,"ĠRichard":7692,"ĠBR":7693,"Ġesprit":7694,"ĠPost":7695,"].<":7696,"ound":7697,"placement":7698,"Ġaccorde":7699,"190":7700,"nario":7701,"Ġrestent":7702,"Enfin":7703,"Ġagents":7704,"ouvoir":7705,"ĠProduits":7706,"enue":7707,"enque":7708,"ĠZe":7709,"Ġnews":7710,"utilise":7711,"Ġvivant":7712,"ashion":7713,"agas":7714,"add":7715,"Ġautomobile":7716,"Ġfacilite":7717,"Port":7718,"Ġouvre":7719,"ĠGer":7720,"mit":7721,"tudie":7722,"ners":7723,"Ur":7724,"ĠSamsung":7725,"Ġtests":7726,"ĠArchives":7727,"Ġconstitution":7728,"ĠSN":7729,"Ġgout":7730,"Ġtransforme":7731,"ESS":7732,"Ġattra":7733,"Ġcris":7734,"Ġtraverse":7735,"ĠGau":7736,"udes":7737,"ĠPatrick":7738,"ressions":7739,"rateurs":7740,"shirt":7741,"Ġcheval":7742,"Ġviolence":7743,"Ġmoindre":7744,"Ġmange":7745,"hou":7746,"Pourquoi":7747,"Ġade":7748,"endemain":7749,"ancienne":7750,"appro":7751,"Ġouvrir":7752,"vril":7753,"Ġvols":7754,"ĠDouble":7755,"Ġavions":7756,"Ġcancer":7757,"tendre":7758,"js":7759,"obre":7760,"Ġconcurrence":7761,"Ġcourte":7762,"Book":7763,"decins":7764,"Ġincroy":7765,"Ġ74":7766,"Ġstress":7767,"PI":7768,"Ġtyp":7769,"itime":7770,"Ġformulaire":7771,"Ġentend":7772,"Ġclairement":7773,"Ġastu":7774,".\"<":7775,"PER":7776,"Ġconduit":7777,"iant":7778,"Ġtomber":7779,"cart":7780,"bis":7781,"Ġcommandes":7782,"isez":7783,"sir":7784,"ustralie":7785,"alin":7786,"vard":7787,"cts":7788,"OST":7789,"Ġ[#":7790,"Ġsold":7791,"ĠKit":7792,"Ġconnais":7793,"Ġnul":7794,"Ġpiste":7795,"poser":7796,"fig":7797,"Ġmentionne":7798,"ĠModer":7799,"Ġperc":7800,"Ġparfum":7801,"ĠOpen":7802,"ĠOs":7803,"Ġsituations":7804,"110":7805,"Ġenvoyer":7806,"Ðĵ":7807,"ution":7808,"Ġcanape":7809,"Ġretrait":7810,"attention":7811,"Ġdevra":7812,"Top":7813,"Ġtransports":7814,"taux":7815,"Ġ(+":7816,"Ġtrim":7817,"bin":7818,"Ġ180":7819,"âĢĿ,":7820,"Ġ92":7821,"ĠFA":7822,"},\"":7823,"ĠSie":7824,"Alpes":7825,"ĠGreen":7826,"Ġcry":7827,"livre":7828,"ĠMichael":7829,"nieur":7830,"Ġpriorite":7831,"agir":7832,"Ġdates":7833,"Ġvendeur":7834,"terminer":7835,"Ġeffectivement":7836,"exercice":7837,"Ġmaman":7838,"ĠTest":7839,"boucher":7840,"ĠRadio":7841,"Ġuniver":7842,"Ġdistin":7843,"ĠKo":7844,"Ġfinancier":7845,"Biographie":7846,"Ġ88":7847,"uge":7848,"Ġrangement":7849,"ĠFormation":7850,"agiste":7851,"antill":7852,"TV":7853,"enregistre":7854,"ĠMem":7855,"ato":7856,"Ġouverture":7857,"Ġchant":7858,"GER":7859,"IO":7860,"Â¬":7861,"isses":7862,"Ġmit":7863,"diens":7864,"lants":7865,"Ġsec":7866,"Ġgood":7867,"Ġtenter":7868,"Ġur":7869,"rains":7870,"ĠCine":7871,"xt":7872,"Paul":7873,"bute":7874,"ĠPart":7875,"Ġsusp":7876,"function":7877,"Ġdanger":7878,"istorique":7879,"END":7880,"Ġdiagnostic":7881,"ĠMoyen":7882,"Ġplafond":7883,"Ġseuls":7884,"auf":7885,"ĠPres":7886,"Ġinge":7887,"Ġparent":7888,"ĠComite":7889,"Ġ130":7890,"ĠCit":7891,"sition":7892,"Ġrecons":7893,"Ġcr":7894,"Ġquin":7895,"Ġcatalogue":7896,"ĠPin":7897,"Ġmaintenir":7898,"guer":7899,"ĠOrange":7900,"Ġjob":7901,"ked":7902,"Ġbag":7903,"tibles":7904,"Cha":7905,"Ġvalle":7906,"Ġexterne":7907,"Ġreprendre":7908,"acteur":7909,"MO":7910,"ĠKing":7911,"Ġmanip":7912,"Ġrecue":7913,"Ġattentes":7914,"uant":7915,"finir":7916,"ĠManual":7917,"yo":7918,"color":7919,"Ġshow":7920,"agre":7921,"garde":7922,"Ġlicence":7923,"Italie":7924,"veurs":7925,"Ġsure":7926,"faits":7927,"tui":7928,"Ġvaste":7929,"cines":7930,"anite":7931,"Nom":7932,"ĠâĩĮ":7933,"Ġos":7934,"Ġplomberie":7935,"MB":7936,"Ġstockage":7937,"ĠSC":7938,"Ġcompre":7939,"Ġlesquelles":7940,"auto":7941,"Ġpack":7942,"GB":7943,"ĠEp":7944,"Ġplats":7945,"Trouvez":7946,"Ġhumaines":7947,"nager":7948,"ĠRoyal":7949,"Son":7950,"Ġcroy":7951,"ĠFrancis":7952,"Ġplac":7953,"ĠVincent":7954,"jan":7955,"Ġtac":7956,"Ġrassemble":7957,"QUES":7958,"ternelle":7959,"Ġlendemain":7960,"installer":7961,"Ġexpl":7962,"Ġtur":7963,"Ġcommerciale":7964,"appar":7965,"Ġremettre":7966,"Ġhistoriques":7967,"Ġproposition":7968,"cologique":7969,"Ġvisible":7970,"interest":7971,"Ġphotograph":7972,"Ġsavez":7973,"ĠLas":7974,"tiver":7975,"Ġtapis":7976,"Ġitalien":7977,"Ġatelier":7978,"bor":7979,"data":7980,"Ġsurveillance":7981,"diaire":7982,"TEL":7983,"ĠHal":7984,"Ġconclus":7985,"venus":7986,"Ġwill":7987,"Ġence":7988,"Ġchaise":7989,"voile":7990,"euillez":7991,"Ġclin":7992,"ĠHigh":7993,"ĠTome":7994,"Ġimportantes":7995,"ĠSciences":7996,"ĠPetite":7997,"Â».":7998,"Ìģ...":7999,"Ġpriv":8000,"Ġhuile":8001,"aid":8002,"illons":8003,"icacite":8004,"trangers":8005,"Ġsk":8006,"ĠBerlin":8007,"Ġcomplique":8008,"grer":8009,"Ġast":8010,"Ġrubrique":8011,"ady":8012,"Ġexactement":8013,"VER":8014,"Ġmouvements":8015,"volue":8016,"Ġpic":8017,"Ġleader":8018,"ĠBarce":8019,"Ġlave":8020,"Ġplateau":8021,"NA":8022,"Louis":8023,"identite":8024,"Ġbillets":8025,"COM":8026,"RS":8027,"irer":8028,"Ġfinanciers":8029,"Ġrenforcer":8030,"ĠChaise":8031,"Espagne":8032,"ool":8033,"ĠBig":8034,"Deux":8035,"cope":8036,"crivez":8037,"Ø±":8038,"ĠCir":8039,"mode":8040,"Ġbijoux":8041,"ĠNume":8042,"Mes":8043,"Ġfournisseur":8044,"Ġgraisse":8045,"ken":8046,"ĠUniversite":8047,"riger":8048,"Appartement":8049,"ricol":8050,"Ġbillet":8051,"alette":8052,"Ġsecteurs":8053,"lante":8054,"Ġfati":8055,"Ġextrait":8056,"ĠWest":8057,"Ġ89":8058,"ĠOU":8059,"ĠMO":8060,"ĠBanque":8061,"Ġfins":8062,"ĠRece":8063,"mois":8064,"ibliographie":8065,"ussir":8066,"anga":8067,"Ġ83":8068,"Ġetre":8069,">âĨĳ":8070,"list":8071,"Ġtester":8072,"Ġfurent":8073,"ĠQualite":8074,"cler":8075,"rog":8076,"ĠBert":8077,"ĠHotels":8078,"ĠMP":8079,"Ġcollecte":8080,"Ġlav":8081,"other":8082,"Ġefforts":8083,"chons":8084,"Ġprestation":8085,"Ġaugmenter":8086,"Ġ61":8087,"Ġfabricant":8088,"ierry":8089,"Ġpierres":8090,"800":8091,"Ġmanches":8092,"title":8093,"Ġpauvre":8094,"ĠChois":8095,"Ġadulte":8096,"Ġdessine":8097,"hed":8098,"expression":8099,"Ġdomin":8100,"Ġgrosse":8101,"Ġdevraient":8102,"Ġronde":8103,"orce":8104,"dage":8105,"def":8106,"Ġsoutenir":8107,"quisition":8108,"oga":8109,"Ġmagasins":8110,"ĠSo":8111,"Ġpermanent":8112,"Ġ79":8113,"phane":8114,"rante":8115,"Ġmidi":8116,"Ġ93":8117,"Ġpoudre":8118,"Ġ$('":8119,"Ġdouleur":8120,"apprentissage":8121,"montre":8122,"Ġbruit":8123,"clen":8124,"ĠRog":8125,"Ġhoraires":8126,"FOR":8127,"ĠDon":8128,"servez":8129,"Ġemprun":8130,"ĠBest":8131,"Publi":8132,"Ġfaciliter":8133,"ondes":8134,"ĠAuteur":8135,"sen":8136,"assement":8137,"ĠSneak":8138,"Ġfaibles":8139,"ĠOlivier":8140,"HA":8141,"onel":8142,"investissement":8143,"Ġinscrit":8144,"Ġremplir":8145,"mans":8146,"],[":8147,"ĠDur":8148,"FP":8149,"ĠAfficher":8150,"Ġ1994":8151,"Ġactes":8152,"very":8153,"Ġretard":8154,"Ġexprime":8155,"Ġbest":8156,"enda":8157,"ĠPortug":8158,"ĠFit":8159,"Ġfeuille":8160,"ĠPolitique":8161,"Ġvilla":8162,"cuper":8163,"sibili":8164,"Ġke":8165,"ĠFrench":8166,"Ġ94":8167,"Ġvendu":8168,"Ġprime":8169,"enfants":8170,"Qui":8171,"Ġsuscep":8172,"peur":8173,"Avant":8174,"aurais":8175,"appartement":8176,"Ġsolide":8177,"Aujourd":8178,"Ġconfie":8179,"ĠCAR":8180,"alisateur":8181,"asp":8182,"ĠVilla":8183,"Ġjaponais":8184,"ANC":8185,"Ġya":8186,"wards":8187,"ĠConfe":8188,"Ġmaintenance":8189,"ĠAG":8190,"Ġbron":8191,"Ġcritiques":8192,"ĠMulti":8193,"ĠAB":8194,"ĠLan":8195,"Ġprie":8196,"seud":8197,"ava":8198,"Ġmagazine":8199,"Ġline":8200,"ĠSignaler":8201,"ĠFlor":8202,"iro":8203,"Ġmairie":8204,"Ġdessous":8205,"Ġcommuni":8206,"tins":8207,"Ġratt":8208,"ĠIP":8209,"Ġoffert":8210,"Ġdimension":8211,"Ġ84":8212,"ĠCertains":8213,"Source":8214,"Ġvouloir":8215,"enn":8216,"existence":8217,"Ġesthe":8218,"Ġgagn":8219,"Ġ1980":8220,"Ġsports":8221,"appareil":8222,"Ġcomposition":8223,"Ġdirigeants":8224,"feuille":8225,"Photo":8226,"raires":8227,"tache":8228,"ĠConsul":8229,"Ġpaysage":8230,"++":8231,"ĠValle":8232,"EE":8233,"attend":8234,"Ġâĺı":8235,"ĠVoyage":8236,"MC":8237,"andou":8238,"bro":8239,"Ġjui":8240,"Ġcombin":8241,"ĠVI":8242,"Ġlecteurs":8243,"mosphe":8244,"Ġjoie":8245,"EAN":8246,"Ġpm":8247,"mite":8248,"Ġcolor":8249,"td":8250,"Ġrond":8251,"ĠMarque":8252,"mark":8253,"iennes":8254,"Ġorganisations":8255,"voquer":8256,"ications":8257,"Ġcondamne":8258,"ouf":8259,"Ġremis":8260,"ĠRi":8261,"Ġ160":8262,"Ġaluminium":8263,"Ġportrait":8264,"true":8265,"Ġinconn":8266,"ĠDI":8267,"tain":8268,"utrition":8269,"Ġfas":8270,"solu":8271,"Ġ>>":8272,"Femme":8273,"ĠChat":8274,"oge":8275,"mocratie":8276,"max":8277,"Ville":8278,"pins":8279,"Mari":8280,">âĸ":8281,"ĠPhot":8282,"ĠDra":8283,"agi":8284,"Ġlancement":8285,"Carte":8286,"ĠDiv":8287,"gence":8288,"ĠUSA":8289,"Ġrefus":8290,"Ġ|<":8291,"Ġsmartphone":8292,"Ġemail":8293,"conomies":8294,"ĠMaster":8295,"sivement":8296,"Ġfacteurs":8297,"arition":8298,"Ġnaturels":8299,"Ġmilitaires":8300,"Arch":8301,"Ġcontrats":8302,"ĠKh":8303,"ĠAlpes":8304,"astron":8305,"ĠVir":8306,"Ġseraient":8307,"Ġnouveaute":8308,"tants":8309,"longe":8310,"Ġinscription":8311,"Ġprincipes":8312,"ĠBasket":8313,"chan":8314,"ĠCours":8315,"ĠExte":8316,"lectro":8317,"eme":8318,"ciales":8319,"ĠMex":8320,"Ġverte":8321,"FC":8322,"Ġappa":8323,"ĠCali":8324,"Ġagricole":8325,"ĠSacs":8326,"Ġpire":8327,"comme":8328,"*<":8329,"LT":8330,"ias":8331,"By":8332,"antit":8333,"Ġbrut":8334,"Ġacte":8335,"wp":8336,"Ġchers":8337,"oiture":8338,"sac":8339,"anglais":8340,"excell":8341,"Ġenvirons":8342,"Ġobserve":8343,"ĠPremium":8344,"ĠAccessoires":8345,"ĠRennes":8346,"thle":8347,"Ġcuisson":8348,"ĠGard":8349,"Ġateliers":8350,"Ġtravailleurs":8351,"Ġoccident":8352,"riels":8353,"ito":8354,"Ġarmes":8355,"Ġtoilette":8356,"Ġchemine":8357,"Ġconcent":8358,"web":8359,"rard":8360,"pisodes":8361,"Ġrapporte":8362,"âĢĶ":8363,"ĠNu":8364,"embourg":8365,"Ġtort":8366,"pot":8367,"lectionner":8368,"Ġdonnent":8369,"Ġsoigne":8370,"ĠChape":8371,"Ġ73":8372,"Ġmobilite":8373,"Ġtransformation":8374,"ĠRep":8375,"%,":8376,"Modi":8377,"riment":8378,"Den":8379,"ĠAh":8380,"ĠMaurice":8381,"ĠBout":8382,"Ġ86":8383,"ĠMusique":8384,"Ġpensez":8385,"ffet":8386,"Ġadj":8387,"Av":8388,"Ġofficielle":8389,"hension":8390,"ĠIV":8391,"ĠFort":8392,"claire":8393,"fiant":8394,"crivain":8395,"Ġgrille":8396,"Ġchercheurs":8397,"unk":8398,"Ġpostes":8399,"Ġgrossesse":8400,"Ġsugge":8401,"Ñĥ":8402,"Ġ87":8403,"Ġarts":8404,"ĠNom":8405,"Ġvenu":8406,"oureuse":8407,"Ġlogo":8408,"effect":8409,"culaire":8410,"Ġben":8411,"cf":8412,"Ġsommet":8413,"ĠCG":8414,"lez":8415,"ĠPeut":8416,"ĠFig":8417,"Ġdiscussion":8418,"Ġpoche":8419,"Åĵil":8420,"abelle":8421,"Ġ1992":8422,"Ġengagement":8423,"istres":8424,"isent":8425,"Ġstructures":8426,"ground":8427,"gler":8428,"Gu":8429,"2000":8430,"ĠFore":8431,"Ġballon":8432,"Ġcorrespondant":8433,"Ġrelative":8434,"Ġtrafic":8435,"ĠTH":8436,"enses":8437,"Ġcommerces":8438,"tesse":8439,"Ġoct":8440,"Ġhyper":8441,"Ġintitule":8442,"quare":8443,"chercher":8444,"Ġmasque":8445,"Ġdore":8446,"Ġstu":8447,"ĠAra":8448,"Ġchantier":8449,"ward":8450,"Ġflux":8451,"ĠDo":8452,"Ġenvers":8453,"Ġvirus":8454,"Ġbri":8455,">|-<":8456,"artiste":8457,"tig":8458,"clair":8459,"Ġjournaliste":8460,"ĠMise":8461,"Pl":8462,"Ġterr":8463,"Ġfume":8464,"dente":8465,"hib":8466,"Ġpouces":8467,"Ġexigences":8468,"Ġchou":8469,"Ġtw":8470,"accompagne":8471,"Ġlimites":8472,"eacute":8473,"Ġprennent":8474,"uu":8475,"Ġmatchs":8476,"aou":8477,"Ġparlement":8478,"ded":8479,"Ġchacune":8480,"ĠMali":8481,"cam":8482,"Ġvoc":8483,"Ġdonnant":8484,"Ġconsommateurs":8485,"ĠBoi":8486,"Ġvaisse":8487,"Ġintellect":8488,"ĠâľĨ":8489,"Ġdivision":8490,"Ġdossiers":8491,"ĠSem":8492,"xy":8493,"Ġpatient":8494,"Ġtris":8495,"Tech":8496,"Ġpare":8497,"Ġfamiliale":8498,"Ġvice":8499,"Ġdess":8500,"Ġcav":8501,"vestir":8502,"Ġjan":8503,"gust":8504,"Ġprofondeur":8505,"ĠUp":8506,"ĠTTC":8507,"ĠCC":8508,"Ġparalle":8509,"Ġfranch":8510,"Ġfallait":8511,"Ġbranche":8512,"gul":8513,"Ġ(...)<":8514,"Ġinfos":8515,"riser":8516,"ĠSab":8517,"Joueur":8518,"Ġreconnaissance":8519,"Ġconserver":8520,"Ġrecrutement":8521,"Sac":8522,"allery":8523,"cted":8524,"ridge":8525,"Ġtraduit":8526,"Ġexposition":8527,"chauffe":8528,"Ġrame":8529,"awa":8530,"Ġclasses":8531,"Ġsportif":8532,"oriz":8533,"Ġaudi":8534,"ointe":8535,"ophone":8536,"lisse":8537,"ĠChristophe":8538,"appelle":8539,"Ġculturel":8540,"UIT":8541,"oline":8542,"Inde":8543,"Ġnourriture":8544,"2004":8545,"Ġvictime":8546,"ronte":8547,"TH":8548,"Ġsentir":8549,"001":8550,"cides":8551,"Ġcentaines":8552,"Cas":8553,"Ġsacre":8554,"Ġbet":8555,"Ġrejoint":8556,"EP":8557,"Ġsurf":8558,"Ġchiens":8559,"Ġblin":8560,"Ġordonnance":8561,"Ġdommage":8562,"semb":8563,"ĠTravail":8564,"ĠSoli":8565,"Ġrock":8566,"Ġremarqu":8567,"Ġenvisage":8568,"rairie":8569,"Ġore":8570,"Michel":8571,"Ġsouci":8572,"ful":8573,"Ġ});":8574,"Utili":8575,"sign":8576,"Ġenjeux":8577,"burg":8578,"Ġfalse":8579,"Ġreconnu":8580,"cale":8581,"lantique":8582,"eries":8583,"rr":8584,"Ġallant":8585,"Ġterritoires":8586,"Ġmonnaie":8587,"inage":8588,"ĠCi":8589,"rum":8590,"inion":8591,"Ġbelge":8592,"Ġamoureux":8593,"Ġattribue":8594,"ĠArts":8595,"Ġbancaire":8596,"Ġpersonnels":8597,"Ġcertific":8598,">@":8599,"Ġcomprenant":8600,"Ġmiroir":8601,"ONNE":8602,"Ġinternautes":8603,"Ġling":8604,"Ġconserv":8605,"ĠPromo":8606,"viennent":8607,"Ġislam":8608,"Ġvery":8609,"BL":8610,"Ġasp":8611,"Ġsupprimer":8612,"Ð²":8613,"Ġ98":8614,"quier":8615,"cialistes":8616,"ĠStreet":8617,"Bay":8618,"ĠBusiness":8619,"ĠNap":8620,"ĠEle":8621,"Ġset":8622,"Ġcellules":8623,"Ġpersonnelle":8624,"Ġ125":8625,"oyant":8626,"omique":8627,"vidence":8628,"KE":8629,"lire":8630,"Ġdat":8631,"tisse":8632,"Ġsourire":8633,"Ġcalendrier":8634,"ĠMarron":8635,"ĠStock":8636,"ĠPublic":8637,"sentes":8638,"ĠEnfant":8639,"Ġtrace":8640,"ĠHong":8641,"ĠFra":8642,"show":8643,"ĠQues":8644,"Ġmusici":8645,"ĠAutres":8646,"Ġconnue":8647,"joutez":8648,"discount":8649,"ruption":8650,"bal":8651,"urgie":8652,"ĠMil":8653,"ĠLar":8654,"onnier":8655,"ĠDirecteur":8656,"Liste":8657,"ĠHouse":8658,"Ġdialogue":8659,"Ġbanques":8660,"ĠLos":8661,"ĠGratuite":8662,"Ġactif":8663,"Ġprimaire":8664,"minin":8665,"ĠIndust":8666,"à¹":8667,"Ġtension":8668,"agerie":8669,"Ġscore":8670,"Ġclassiques":8671,"soudre":8672,"gionale":8673,"Ġtribunal":8674,"coupe":8675,"istiques":8676,"');":8677,"Ġcolore":8678,"animation":8679,"Ġliquide":8680,"ĠCad":8681,"Ġbases":8682,"Ġstim":8683,"Ġcodes":8684,"Ġentrer":8685,"ason":8686,"ĠMade":8687,"vente":8688,"ĠToutefois":8689,"Ġenne":8690,"ida":8691,"Ġapport":8692,"ocument":8693,"Ġtuy":8694,"Ġvins":8695,"123":8696,"ĠTex":8697,"entine":8698,"Class":8699,"ACE":8700,"Ġ1993":8701,"trie":8702,"kg":8703,"ciation":8704,"ĠSO":8705,"Nombre":8706,"Ġimporte":8707,"Ġflu":8708,"mages":8709,"ender":8710,"hin":8711,"Ġabus":8712,"Ġillustre":8713,"Ġtempor":8714,"oriser":8715,"MW":8716,"Ġfrappe":8717,"Ste":8718,"Ġcandidature":8719,"gas":8720,"ilic":8721,"Ġtalent":8722,"Ġcohe":8723,"zen":8724,"Ġpant":8725,"aujourd":8726,"entelle":8727,"ENCE":8728,"Ġauront":8729,"Ġhotel":8730,"Ġadore":8731,"TO":8732,"MM":8733,"hal":8734,"ĠFant":8735,"impo":8736,"lisme":8737,"sentants":8738,"ĠGro":8739,"ĠPower":8740,"Ġurgence":8741,"erts":8742,"uro":8743,"ĠDig":8744,"preneur":8745,"ĠMariage":8746,"ĠRab":8747,"Ġcond":8748,"Ġlangage":8749,"cuits":8750,"ĠFrank":8751,"ouille":8752,"Ġquatrie":8753,"Vide":8754,"Ġapplic":8755,"code":8756,"shop":8757,"Ġdipl":8758,"hel":8759,"ĠMagas":8760,"ĠChic":8761,"âĢº":8762,"ĠFu":8763,"Ġchefs":8764,"Em":8765,"Comm":8766,"Ġdiame":8767,"tenez":8768,"acle":8769,"Ġtours":8770,"rolog":8771,"Ġfans":8772,"Ġ1970":8773,"ovation":8774,"Ġcherchez":8775,"assade":8776,"Ġflex":8777,"nal":8778,"Ġsoucis":8779,"Ġjet":8780,"Ġsche":8781,"chec":8782,"Ġidentifie":8783,"Ġthermique":8784,"bs":8785,"nale":8786,"Ter":8787,"agon":8788,"mai":8789,"Agence":8790,"ĠNote":8791,"onnie":8792,"ĠEric":8793,"ĠGh":8794,"Ġfle":8795,"Beau":8796,"Ġcontribue":8797,"TP":8798,"dant":8799,"ĠDar":8800,"ĠAvril":8801,"ĠGouver":8802,"ĠExemple":8803,"house":8804,"Ġcontenus":8805,"Ġpon":8806,"merci":8807,"ooth":8808,"wan":8809,"ĠFar":8810,"Ġrues":8811,"!!<":8812,"ĠBO":8813,"Ġchapitre":8814,"ĠON":8815,"arte":8816,"Ġexcellente":8817,"Ġremercie":8818,"ouge":8819,"Ġviande":8820,"sey":8821,"Ġvisant":8822,"Ġgarantir":8823,"Ġ1991":8824,"Orient":8825,"ĠAlbert":8826,"ake":8827,"ĠLettre":8828,"ial":8829,"version":8830,"Ġaccueillir":8831,"Met":8832,"Ġformer":8833,"ĠJanvier":8834,"itant":8835,"pc":8836,"ĠBet":8837,"dial":8838,"Ġdir":8839,"Ġfiltre":8840,"rible":8841,"raines":8842,"vues":8843,"ustom":8844,"istante":8845,"Ġpole":8846,"Ġ</":8847,"ĠBonjour":8848,"file":8849,"ĠRencontres":8850,"Chaudiere":8851,"Ġmobiles":8852,"Voila":8853,"\");":8854,"Ġlits":8855,"cient":8856,"Ġportail":8857,"riers":8858,"Ġchansons":8859,"voi":8860,"ĠPARIS":8861,"Ġ97":8862,"uent":8863,"atine":8864,"Ġboite":8865,"ĠFleur":8866,"ĠSecon":8867,"ĠDam":8868,"ĠCanape":8869,"ĠGeorge":8870,"Ġaugmentation":8871,"ĠPoint":8872,"ĠGros":8873,"Ġsorties":8874,"Ġauxque":8875,"olitique":8876,"ĠSER":8877,"Cela":8878,"Ġquels":8879,"Ġsimpli":8880,"Ġrares":8881,"ternite":8882,"tisation":8883,"Ġreport":8884,"Ġmandat":8885,"Ġaliments":8886,"Ġdimensions":8887,"Ġviagra":8888,"entialite":8889,"Ġbuts":8890,"ĠParlement":8891,"ĠDroit":8892,"Ġpay":8893,"Ġinstitutions":8894,"Ġapproprie":8895,"=\\\"":8896,"ited":8897,"illiers":8898,"not":8899,"Ġalent":8900,"Ġfol":8901,"tw":8902,"Ġlin":8903,"Ġattendant":8904,"\")":8905,"ĠGuillaume":8906,"Ġpul":8907,"tistes":8908,"Ġtirer":8909,"Ġtourner":8910,"ĠMON":8911,"Vie":8912,"tv":8913,"Ġquitter":8914,"Ġcouvre":8915,"Ġdorm":8916,"Ġ71":8917,"onyme":8918,"TIC":8919,"Ġcourrier":8920,"rak":8921,"Ġ91":8922,"Ġconcep":8923,"Ġattache":8924,"ĠMicro":8925,"+!+[]":8926,"ĠStu":8927,"Ġplombier":8928,"arrie":8929,"aris":8930,"assins":8931,"Ġcanton":8932,"ĠBasse":8933,"ĠAntoine":8934,"Ġsols":8935,"Ġ82":8936,"Ġprovoque":8937,".....":8938,"ELL":8939,"ĠRiv":8940,"ibex":8941,"commande":8942,"illard":8943,"Jac":8944,"teste":8945,"Nume":8946,"ĠRol":8947,"ensation":8948,"ando":8949,"Ġbloque":8950,"ĠDisney":8951,"Ġchamps":8952,"Hotels":8953,"Vol":8954,"ĠMiche":8955,"Ġterres":8956,"Ġmascu":8957,"Ġaimer":8958,"ĠBoul":8959,"oublie":8960,"ermain":8961,"Ġintera":8962,"riau":8963,"ultures":8964,"colle":8965,"Ġrelatives":8966,"Ġpistes":8967,"ween":8968,"cht":8969,"quillage":8970,"????":8971,"Ġrelativement":8972,"tits":8973,"tudier":8974,"','":8975,"Ġproposent":8976,"Ġmathe":8977,"Ġlive":8978,"Ġmarine":8979,"Ġjamb":8980,"Ġoffrant":8981,"partition":8982,"andoulie":8983,"Î¹":8984,"iration":8985,"Posted":8986,"Ġscolaires":8987,"Ġals":8988,"El":8989,"ĠHug":8990,"omes":8991,"quot":8992,"acter":8993,"Ġmagne":8994,"ĠGaz":8995,"Ġrouges":8996,"Ġbref":8997,"Ġphotographie":8998,"arts":8999,"price":9000,"Ġpopulations":9001,"light":9002,"lits":9003,"VC":9004,"ictionnaire":9005,"Ġgrec":9006,"loc":9007,"veil":9008,"Ġassoci":9009,"ĠTVA":9010,"Ġretourne":9011,"Res":9012,"Ġaccueille":9013,"Ġceinture":9014,"Ġsession":9015,"ĠOR":9016,"PG":9017,"urances":9018,"Ġtransmission":9019,"Ġpeintre":9020,"Personn":9021,"ĠØ§ÙĦ":9022,"Sou":9023,"monter":9024,"EX":9025,"Ġconflit":9026,"Ġnar":9027,"\":[":9028,"Ġ700":9029,"argeur":9030,"Ġclubs":9031,"bra":9032,"ĠâĶ":9033,"ĠLuxe":9034,"Ġcourses":9035,"liant":9036,"ĠDirection":9037,"Ġreligion":9038,"Ġpoigne":9039,"ĠPRE":9040,"queur":9041,"Ġoccas":9042,"infos":9043,"ĠChi":9044,"Ġpropositions":9045,"700":9046,"lastique":9047,"ĠTen":9048,"Ġpuissant":9049,"ĠRam":9050,"Ġcopie":9051,"Ġsouvenirs":9052,"exemple":9053,"Ġinfluence":9054,"Ġvoulais":9055,"agen":9056,"ĠPack":9057,"neuve":9058,"Ġmour":9059,"llerie":9060,"pression":9061,"ĠDominique":9062,"architecture":9063,"graph":9064,"Ġconduire":9065,"Ġvon":9066,"gage":9067,"PDF":9068,"Ġbureaux":9069,"Ġpop":9070,"rong":9071,"ĠJulien":9072,"dicament":9073,"sifs":9074,"sage":9075,"angement":9076,"Ben":9077,"axe":9078,"ĠCroix":9079,"deurs":9080,"Ġcontenant":9081,"ponsable":9082,"Ġhydro":9083,"ĠArgent":9084,"Ġagent":9085,"DES":9086,"troduction":9087,"Ġphilosophie":9088,"ĠStand":9089,"ĠQuelle":9090,"TRE":9091,"ĠRestaurant":9092,"Ġdessins":9093,"chestre":9094,"Ġartif":9095,"vies":9096,"alth":9097,"Ġlunettes":9098,"Ġalimentaires":9099,"Ġmassif":9100,"Ġbie":9101,"habitude":9102,"Ġrespecte":9103,"ĠRap":9104,"dents":9105,"Ġlabel":9106,"uri":9107,"ĠTi":9108,"Ġsignific":9109,"Ġhel":9110,"Ġaccueill":9111,"Ġsignature":9112,"SD":9113,"ĠMacron":9114,"oman":9115,"Ġmaill":9116,"ĠJuillet":9117,"Ġtime":9118,"emplo":9119,"Seine":9120,"cesseur":9121,"Taille":9122,"ĠAe":9123,"Ġbap":9124,"Ġallie":9125,"impact":9126,"Ġachats":9127,"truire":9128,"efficacite":9129,"Ajouter":9130,"ĠDernie":9131,"Ġsanitaire":9132,"enu":9133,"ĠSky":9134,"ends":9135,"ĠGT":9136,"ĠChez":9137,"Ġindustrielle":9138,"Ġparois":9139,"Ġarbres":9140,"ĠPersonne":9141,"oritaire":9142,"Ġtelecharger":9143,"gg":9144,"Ġinsu":9145,"Ġmodernes":9146,"sez":9147,"Ġhospit":9148,"exception":9149,"avre":9150,"Ġbeurre":9151,"agriculture":9152,"ĠProtection":9153,"cialite":9154,"placer":9155,"Ġendroits":9156,"ĠBoutique":9157,"allateur":9158,"ĠBob":9159,"irant":9160,"amel":9161,"Fre":9162,"Ġcollective":9163,"ĠLois":9164,"rone":9165,"pic":9166,"Ġaid":9167,"Ġexpliquer":9168,"ISBN":9169,"avion":9170,"ĠMiss":9171,"ĠHauts":9172,"ĠRene":9173,"Puis":9174,"Ġoffici":9175,"New":9176,"aim":9177,"Ġexpert":9178,"ĠFille":9179,"merican":9180,"valuer":9181,"innovation":9182,"Ġstatistiques":9183,"Ġmodifications":9184,"Ġpollu":9185,"aders":9186,"ĠPeter":9187,"MAN":9188,"130":9189,"Ġ(...)":9190,"Ġaccompagner":9191,"Ġexempl":9192,"Ġcoucher":9193,"Ġsensible":9194,"Ġsolidarite":9195,"nav":9196,"endar":9197,"inel":9198,"Ġcoach":9199,"Ġvalide":9200,"ĠMusic":9201,"oker":9202,"ĠSaison":9203,"':":9204,"Ġauquel":9205,"Situe":9206,"Ġ360":9207,"onique":9208,"GR":9209,"fis":9210,"Ġactifs":9211,"Ġvul":9212,"ĠVintage":9213,"Ġappris":9214,"belle":9215,"Ġmotif":9216,"pore":9217,"Moi":9218,"Ġ$(":9219,"cialement":9220,"Ġrecon":9221,"chers":9222,"Ġinstitution":9223,"ĠProfessionne":9224,"opposition":9225,"Ġhasard":9226,"gypte":9227,"Ġral":9228,"Ġwork":9229,"ĠGalaxy":9230,"ĠFerme":9231,"Ġdiscre":9232,"Ġvideo":9233,"Ġconsultation":9234,"ÌĬ":9235,"gory":9236,"oriage":9237,"ĠAz":9238,"Ġrecy":9239,"Ġambiance":9240,"){":9241,"Inst":9242,"Ġannuel":9243,"Ġisole":9244,"Ġsuffisamment":9245,"ĠMadrid":9246,"Ġtroubles":9247,"lons":9248,"mus":9249,"instru":9250,"issait":9251,"ĠPendant":9252,"france":9253,"ãĢ":9254,"ĠSeptembre":9255,"ĠWilliam":9256,"Ġ^^<":9257,"Ġnow":9258,"All":9259,"ĠWikipe":9260,"ould":9261,"Ġversions":9262,"ona":9263,"Ġallait":9264,"ĠVacances":9265,"tallique":9266,"Ġblancs":9267,"Ġtransition":9268,"Ġjustement":9269,"ĠOctobre":9270,"Ġeuro":9271,"Plan":9272,"Ġfourni":9273,"Ġsympto":9274,"Lau":9275,"fum":9276,"Ġreprises":9277,"Ġspirit":9278,"grid":9279,"entreprises":9280,"hyp":9281,"ĠChev":9282,"illez":9283,"Alex":9284,"Ġcorrectement":9285,"Ñı":9286,"ĠWC":9287,"ĠCamb":9288,"Dem":9289,"Ġmousse":9290,"Ġcontent":9291,"ĠSet":9292,"cules":9293,"Ġcord":9294,"ĠEnfants":9295,"seurs":9296,"SU":9297,"Colle":9298,"ĠIsrae":9299,"ĠPot":9300,"Ġcommunaut":9301,"ĠModi":9302,"Ġ]":9303,"pargne":9304,"FL":9305,"Ġinverse":9306,"Ġquelles":9307,"Livraison":9308,"berge":9309,"Ġmaintien":9310,"ĠRoche":9311,"Ġnotion":9312,"river":9313,"ĠEntreprise":9314,"tanche":9315,"bastien":9316,"ĠAcce":9317,"ĠRel":9318,"To":9319,"amant":9320,"ĠTR":9321,"ĠDub":9322,"ĠAsi":9323,"ganisation":9324,"Bra":9325,"abo":9326,"aisie":9327,"Restaur":9328,"Ġorange":9329,"vironnement":9330,"GA":9331,"Ġcommuniquer":9332,"Ġremboursement":9333,"Ġ96":9334,"125":9335,"sans":9336,"Ġmener":9337,"ĠBus":9338,"Ġglobale":9339,"oiseaux":9340,"Ġdevenue":9341,"ĠNovembre":9342,"imes":9343,"ĠCAN":9344,"Ġadoles":9345,"Ġabandonne":9346,"ĠSen":9347,"Ġdiversite":9348,"ĠSimp":9349,"ĠAucun":9350,"ĠAutre":9351,"lymp":9352,"Ġsemi":9353,"ĠLove":9354,"ĠJeunes":9355,"Ġplas":9356,"ize":9357,"aventure":9358,"chappe":9359,"Ġabonne":9360,"nergies":9361,"abeth":9362,"dures":9363,"ĠAtt":9364,"Ġinfo":9365,"Fer":9366,"ordinaire":9367,"Ġsoyez":9368,"Åĵurs":9369,"ben":9370,"yne":9371,"Ġvoies":9372,"Ġbassin":9373,"Ġcertifie":9374,"Ġsignes":9375,"EB":9376,"ouche":9377,"Ġimpact":9378,"Ġmajeur":9379,"Ġabout":9380,"Ġpertinen":9381,"ĠAlge":9382,"ĠNationale":9383,"ĠLor":9384,"Ġphrase":9385,"Ġventi":9386,"ĠCM":9387,"cendie":9388,"Ġom":9389,"ĠSus":9390,"Ġfaudrait":9391,"Pal":9392,"Ġaspects":9393,"Ġcylin":9394,"Lu":9395,"Ġsalaire":9396,"XX":9397,"Ġserre":9398,"Ġscand":9399,"Ġcontinent":9400,"board":9401,"Ġpoursuivre":9402,"attaque":9403,"Ġ[#]<":9404,"Ġtraditionnelle":9405,"ĠSmart":9406,"riv":9407,"Ġgras":9408,"ettes":9409,"tonne":9410,"Ġtoucher":9411,"umule":9412,"mare":9413,"Ġfatigue":9414,"ĠCade":9415,"pal":9416,"Marne":9417,"ĠBir":9418,"Ġpouvoirs":9419,"170":9420,"Ġsaur":9421,"indle":9422,"unique":9423,"Ġalentours":9424,"cru":9425,"ĠDenis":9426,"Ġcasino":9427,"Ġmoteurs":9428,"iente":9429,"ĠHT":9430,"Ġ1989":9431,"ims":9432,"marches":9433,"fices":9434,"Ġparcour":9435,"Ġlai":9436,"Conse":9437,"ĠScience":9438,"Ġacteur":9439,"Ġpc":9440,"rose":9441,"Ġ900":9442,"ismes":9443,"ĠMid":9444,"Ġvitrage":9445,"ĠDist":9446,"ĠDre":9447,"Ġoffrent":9448,"via":9449,"Ġvolets":9450,"Ġpoursuit":9451,"Ġjudiciaire":9452,"ĠLeur":9453,"ĠEsc":9454,"ĠGold":9455,"arma":9456,"Ġaffir":9457,"OUL":9458,"Ġrappeler":9459,"ricaines":9460,"uts":9461,"inscrire":9462,"ĠStudio":9463,"Ġ:)<":9464,"Ġappartient":9465,"png":9466,"Ġimprimer":9467,"Ġcontemporain":9468,"Ġincontourn":9469,"Dire":9470,"ĠParmi":9471,"ĠHP":9472,"ĠBut":9473,"ification":9474,"Ġangl":9475,"Grand":9476,"]+(":9477,"motions":9478,"Ġcouliss":9479,"occupation":9480,"lectroniques":9481,"ĠCafe":9482,"ordan":9483,"Ġchev":9484,"Ġartisans":9485,"oeuvre":9486,"ĠðŁĻ":9487,"oussin":9488,"umber":9489,"allenge":9490,"onald":9491,"ĠCelui":9492,"Ġmorte":9493,"Ġhistoires":9494,"ĠHil":9495,"Ġsouris":9496,"Image":9497,"pide":9498,"ĠNations":9499,"Sa":9500,"Ġtruc":9501,"ĠAnglais":9502,"ffer":9503,"ENS":9504,"Ġfili":9505,">Â©":9506,"ĠCenter":9507,"oxyd":9508,"Air":9509,"arc":9510,"Spe":9511,"tnam":9512,"lette":9513,"field":9514,"ĠBarcelone":9515,"cessoire":9516,"voire":9517,"Ġnaturelles":9518,"ĠGol":9519,"cio":9520,"endroit":9521,"aimerais":9522,"orne":9523,"Ġnai":9524,"Ġenseignants":9525,"Ġtv":9526,".)<":9527,"Ġquart":9528,"Ġave":9529,"ĠEmploi":9530,"Ġvel":9531,"âĢĺ":9532,"ĠBla":9533,"ollande":9534,"Ġdents":9535,"Ġrupture":9536,"Ġlast":9537,"ĠLive":9538,"alet":9539,"Ġcompatible":9540,"media":9541,"paravant":9542,"Ġmeurt":9543,"ertes":9544,"SM":9545,"eroun":9546,"ĠSH":9547,"gou":9548,"Ġ1960":9549,"ĠColomb":9550,"TIF":9551,"Ġconvivi":9552,"Ġpropor":9553,"ĠSing":9554,"Ġtransfe":9555,"Petit":9556,"Ġanimal":9557,"Ġmorceaux":9558,"ĠBlanche":9559,"ĠCeci":9560,"cence":9561,"chantill":9562,"alph":9563,"Achat":9564,"Az":9565,"TIQUE":9566,"Ġmass":9567,"Ġign":9568,"over":9569,"ĠEnsuite":9570,"dor":9571,"Ġconcl":9572,"Ġbless":9573,"rico":9574,"Ġadmin":9575,"GO":9576,"ĠImmobilier":9577,"ĠFL":9578,"ĠEP":9579,"Ġ**":9580,"glementation":9581,"mg":9582,"Ġfur":9583,"ĠTunisie":9584,"Ġhref":9585,"hol":9586,"etooth":9587,"Ġremonte":9588,"trique":9589,"Ġmettant":9590,"ĠOffice":9591,"Ġner":9592,"Ġ81":9593,"ashington":9594,"Ġamateurs":9595,"ĠTab":9596,"ĠJour":9597,"Loire":9598,"avier":9599,"Ġcombine":9600,"Ġuns":9601,"ĠGue":9602,"ĠImage":9603,"Ġfie":9604,"Ġfabricants":9605,"ĠNath":9606,"ratures":9607,"hh":9608,"Ġespagnol":9609,"Ġjau":9610,"Ġtablette":9611,"yright":9612,"Andre":9613,"ĠPantalon":9614,"Hz":9615,"Ġaqu":9616,"Ġlinge":9617,"Ġdent":9618,"jac":9619,"Ġpoit":9620,"nial":9621,"Ġpoisson":9622,"ĠBis":9623,"ĠExpe":9624,"ĠTrib":9625,"ĠBox":9626,"Ġamie":9627,"ĠUltra":9628,"asser":9629,"UP":9630,"Activite":9631,"ĠCatherine":9632,"Ġreprend":9633,"chal":9634,"Ġemplois":9635,"Ġmettent":9636,"Bel":9637,"ĠCu":9638,"engage":9639,"Ġlocations":9640,"oubli":9641,"atic":9642,"ĠPlusieurs":9643,"ĠSecre":9644,"ĠCP":9645,"!!!<":9646,"Ġflui":9647,"manie":9648,"Ġoccup":9649,"Bonne":9650,"oigne":9651,"CON":9652,"tabilite":9653,"cidents":9654,"220":9655,"ticol":9656,"ignan":9657,"Ġnavigateur":9658,"Ġrange":9659,"mal":9660,"CR":9661,"Ġrende":9662,"tia":9663,"ĠMachine":9664,"ordinateur":9665,"entement":9666,"faite":9667,"Ġguer":9668,"Champ":9669,"encie":9670,"Ġcomparer":9671,"Titre":9672,"raintes":9673,"ĠMix":9674,"sidente":9675,"Ġvillages":9676,"atri":9677,"existe":9678,"rot":9679,"Ġindividuel":9680,"ĠHi":9681,"Ġmassage":9682,"Ġlaboratoire":9683,"riche":9684,"ouvrir":9685,"ĠQuelques":9686,"otage":9687,"marrage":9688,"hand":9689,"Ġconten":9690,"Ġsurv":9691,"Bibliographie":9692,"Informations":9693,"aha":9694,"ĠDure":9695,"Ġestim":9696,"Ġ***":9697,"omo":9698,"baye":9699,"Ġdomes":9700,"Ġsatisfaction":9701,"Ġbaignoire":9702,"Ġadministratif":9703,"Ġlibres":9704,"ĠFaites":9705,"ducteur":9706,"SH":9707,"iveau":9708,"Ġprogre":9709,"ĠDun":9710,"ĠLight":9711,"ĠSyn":9712,"Ġvs":9713,"Ġcivil":9714,"Ġchronique":9715,"ģĦ":9716,"Ġhommage":9717,"zie":9718,"oign":9719,"Ġtendances":9720,"Ġglu":9721,"Ġcollections":9722,"Supp":9723,"Gre":9724,"Ġingre":9725,"ĠLuxembourg":9726,"Ġpub":9727,"order":9728,"Ann":9729,"SION":9730,"ĠMadame":9731,"Ġsommeil":9732,"Ġbudge":9733,"Ġtub":9734,"Ġvoulait":9735,"Ġ%<":9736,"Ġcirconst":9737,"ographiques":9738,"avi":9739,"Ġaventure":9740,"Ġorganismes":9741,"Ġbulle":9742,"Ġpositif":9743,"Ġdirecte":9744,"ĠEnsemble":9745,"Ġsympathique":9746,"ĠBag":9747,"vergne":9748,"Ġfabri":9749,"biz":9750,"ĠAmb":9751,"hop":9752,"ĠRoi":9753,"iat":9754,"orges":9755,"Ġconnecter":9756,"Enf":9757,"Ġfier":9758,"ĠSpa":9759,"pres":9760,"Ġcoque":9761,"ĠFRANCE":9762,"ĠPascal":9763,"Ġdisent":9764,"ĠGU":9765,"ĠSeigneur":9766,"cker":9767,"Ġaffecte":9768,"Ġante":9769,"Ġcase":9770,"ĠGare":9771,"atelier":9772,"ainer":9773,"Ġdonn":9774,"Ġsacs":9775,"Ġpleinement":9776,"Ġhandicape":9777,"photo":9778,"Er":9779,"home":9780,"Ġfonce":9781,"hentique":9782,"Ġinternationaux":9783,"db":9784,"Martin":9785,"Ġrapides":9786,"ssons":9787,"size":9788,"Ġreligieux":9789,"Ġcole":9790,"miers":9791,"Ġcarrelage":9792,"Ġvou":9793,"sses":9794,"pad":9795,"sar":9796,"cate":9797,"ĠGri":9798,"upload":9799,"ONE":9800,"PAR":9801,"âģĦ":9802,"onnez":9803,"Ġalimentation":9804,"iteur":9805,"Ġaccuse":9806,"Ġbiais":9807,"ogo":9808,"Ġrevoir":9809,"Ġsecondaire":9810,"Ġ350":9811,"MAR":9812,"Ġmanagement":9813,"Ġhuman":9814,"ĠJon":9815,"paisseur":9816,"Ġphysiques":9817,"Peu":9818,"issue":9819,"2003":9820,"cologie":9821,"Ġbalcon":9822,"has":9823,"rock":9824,"ĠJourne":9825,"Ġtrimestre":9826,"BR":9827,"Ġgren":9828,"alable":9829,"Ġmunicipalite":9830,"sidents":9831,"Ġda":9832,"Ġinfir":9833,"renant":9834,"ulations":9835,"Ġentoure":9836,"ista":9837,"Oc":9838,"geot":9839,"Ġconfiguration":9840,"minaire":9841,"ĠFootball":9842,"Ġcous":9843,"Ġtaxe":9844,"Nouvelle":9845,"Ġentendre":9846,"ĠEmmanuel":9847,"ĠFabric":9848,"ĠMoh":9849,"ĠAct":9850,"Ġvoile":9851,"Ġmotifs":9852,"Dom":9853,"ĠMark":9854,"chy":9855,"lice":9856,"MER":9857,"Ġrang":9858,"mag":9859,"Ġagricoles":9860,"gende":9861,"Ġrepose":9862,"ku":9863,"ĠMass":9864,"ĠNeuf":9865,"sant":9866,"lsace":9867,"Ġbonus":9868,"extre":9869,"Ġallemande":9870,"Ġsilence":9871,"Ġtranquille":9872,"orn":9873,"Ġplages":9874,"Ġauraient":9875,"ĠFondation":9876,"ĠManagement":9877,"Ġdiscuter":9878,"SL":9879,"Ġuniversite":9880,"frige":9881,"Ìģ/":9882,"automne":9883,"ĠImages":9884,"Ġtrouvez":9885,"Ġobtient":9886,"ĠProgramme":9887,"Ġquartiers":9888,"Ġdistribu":9889,"ĠBle":9890,"ald":9891,"ĠBA":9892,"Ġculturelle":9893,"ARL":9894,"ĠWin":9895,"Ġgi":9896,"Internet":9897,"Att":9898,"paule":9899,"Ġaccessibles":9900,"Ġhu":9901,"issante":9902,"Ġmam":9903,"Ġsupprime":9904,"Ġpiano":9905,"bats":9906,"ĠAssociation":9907,"Ġsemblent":9908,"Note":9909,"gel":9910,"ĠMaisons":9911,"Recherche":9912,"Ġpanneaux":9913,"atou":9914,"Ġnez":9915,"ĠBud":9916,"oz":9917,"oma":9918,"dicaux":9919,"ĠBase":9920,"Ess":9921,"trole":9922,"ĠRac":9923,"inquie":9924,"arque":9925,"Ġ()":9926,"Ġang":9927,"Ġnaturellement":9928,"Ġparoles":9929,"veiller":9930,"otique":9931,"Ġbusiness":9932,"Ġprenant":9933,"Ġchevaux":9934,"Ġaxe":9935,"ience":9936,"ĠBottines":9937,"Ġlune":9938,"GU":9939,"Ġanciennes":9940,"Ġdouceur":9941,"ĠKen":9942,"Ġjanv":9943,"Ġastuces":9944,"ĠAffaires":9945,"views":9946,"Ġ1988":9947,"hotel":9948,"ĠSuite":9949,"Ġexercices":9950,"Lorsque":9951,"fendre":9952,"Ġassiste":9953,"Ġsecours":9954,"ĠArn":9955,"ĠSexe":9956,"Ġnorme":9957,"ĠDj":9958,"ova":9959,"ĠPiscine":9960,"NES":9961,"ĠðŁĻĤ":9962,"Ġretourner":9963,"Ġaise":9964,"ĠCOL":9965,"Ġexce":9966,"nbsp":9967,"Ġgalerie":9968,"ĠCler":9969,"Ġlate":9970,"Ġgon":9971,"iP":9972,"Ġdifficiles":9973,"unior":9974,"Ġressenti":9975,"pu":9976,"Ġbarbe":9977,"Ġtrompe":9978,"Ġps":9979,"ĠGame":9980,"LC":9981,"Ġjardins":9982,"Centre":9983,"Ġlol":9984,"Ġcerveau":9985,"xion":9986,"ateaux":9987,"ĠBD":9988,"ĠChambres":9989,"Ġlutter":9990,"(\"#":9991,"Ġfavoriser":9992,"Ġcommenc":9993,"mper":9994,"Ġdiabe":9995,"ĠBio":9996,"fore":9997,"prie":9998,"ĠSel":9999,"ĠPourtant":10000,"rial":10001,"riennes":10002,"gts":10003,"ĠInformations":10004,"Ġfruit":10005,"Ġsatel":10006,"oche":10007,"Ġcolis":10008,"Ġmagique":10009,"ĠDC":10010,"Ġaccueilli":10011,"Ġrecense":10012,"Ġpseud":10013,"ĠGrenoble":10014,"lli":10015,"Ġventre":10016,"ĠPalais":10017,"Nouveau":10018,"laboration":10019,"Ġsince":10020,"Ġsaisons":10021,"ĠAst":10022,"ĠAP":10023,"Ġ115":10024,"Ġcharbon":10025,"Ġcommander":10026,"Ġappartements":10027,"ĠIci":10028,"Ġdescend":10029,"Sp":10030,"orial":10031,"tiquettes":10032,"sili":10033,"Ġtitulaire":10034,"Ġraf":10035,"ĠThierry":10036,"Ġerreurs":10037,"Ġboucle":10038,"Ġissus":10039,"Ġvrais":10040,"1000":10041,"Ġutilisateur":10042,"ĠMobile":10043,"Donc":10044,"ĠForce":10045,"inement":10046,"ĠFront":10047,"pendante":10048,"Ġtransformer":10049,"mocratique":10050,"---":10051,"Ġvapeur":10052,"ĠTemps":10053,"Ġrire":10054,"Ġtraitements":10055,"Ġsauver":10056,"fect":10057,"aka":10058,"Ġsportifs":10059,"Ġroutes":10060,"ovie":10061,"Ġopportunite":10062,"Ġplacer":10063,"dues":10064,"Main":10065,"ĠRa":10066,"Ġchances":10067,"ĠVar":10068,"osa":10069,"ids":10070,"Ġarche":10071,"Ġproven":10072,"ĠNO":10073,"Denis":10074,"ĠLand":10075,"Ġmanuel":10076,"Ġmodalite":10077,"Ġmusical":10078,"Ġfoule":10079,"limite":10080,"ĠResort":10081,"Ġtouristique":10082,"Salle":10083,"ula":10084,"ĠBad":10085,"here":10086,"hs":10087,"Ġmillion":10088,"ĠMr":10089,"riens":10090,"ĠTal":10091,"Her":10092,"cedes":10093,"ntry":10094,"Acade":10095,"Ġmunicipal":10096,"Ġattire":10097,"ĠCommand":10098,"ĠCast":10099,"Ġtournoi":10100,"Localisation":10101,"meuble":10102,"ĠManteau":10103,"Ġraisonn":10104,"ĠAlexandre":10105,"ĠBruno":10106,"ĠStore":10107,"lt":10108,"Ġadvers":10109,"hip":10110,"Ġdocumentaire":10111,"Ġorigine":10112,"Ġdangereux":10113,"Ġressemb":10114,"vident":10115,"onda":10116,"ĠIr":10117,"Ġvid":10118,"ĠBeige":10119,"Claude":10120,"dan":10121,"Ġoppose":10122,"Ġartiste":10123,"Ġprocure":10124,"formatique":10125,"olin":10126,"Ġtoilettes":10127,"comment":10128,"ases":10129,"ĠChef":10130,"Ã·":10131,"Ġincon":10132,"ĠRu":10133,"ima":10134,"letter":10135,"rete":10136,"voy":10137,"aker":10138,"ĠJeans":10139,"ĠPortugal":10140,"ĠTit":10141,"Ġdiplom":10142,"Jacques":10143,"Ġautrement":10144,"Ġnat":10145,"uie":10146,"ĠCris":10147,"anna":10148,"engagement":10149,"ĠTrump":10150,"nove":10151,"nats":10152,"putation":10153,"Ġsw":10154,"you":10155,"ĠGui":10156,"ouvrage":10157,"Ġmetal":10158,"tz":10159,"Ġcatholique":10160,"ĠVoy":10161,"ĠTurquie":10162,"rande":10163,"rud":10164,"ĠVende":10165,"news":10166,"arth":10167,"230":10168,"Ġcommerciaux":10169,"ĠFac":10170,"Ġindividuelle":10171,"Ġtennis":10172,"Ġcompagnies":10173,"gr":10174,"quivalent":10175,"Ġcollaborateurs":10176,"Ġlimiter":10177,"ĠEau":10178,"opath":10179,"Long":10180,"Rob":10181,"Ġrecherchez":10182,"ERE":10183,"Ġench":10184,"ĠAvenue":10185,"moignage":10186,"Ġincroyable":10187,"PT":10188,"ĠXIX":10189,"Ġsch":10190,"ierge":10191,"ĠLune":10192,"Ġ:)":10193,"cider":10194,"Ġcasque":10195,"Ġemplacement":10196,"Ġforfait":10197,"Ġsouhaitent":10198,"Ġmodule":10199,"interpre":10200,"obs":10201,"quip":10202,"Ġsouffle":10203,"010":10204,"ricolage":10205,"orizon":10206,"ĠLondon":10207,"Ġmobilier":10208,"Ġtrajet":10209,"Ġsoldes":10210,"Ġefficaces":10211,"ĠMah":10212,"itent":10213,"Ġmusicale":10214,"sire":10215,"caire":10216,"win":10217,"Ġsoldats":10218,"onnerie":10219,"Ġconstat":10220,"telligence":10221,"dict":10222,"LET":10223,"kh":10224,"quitaine":10225,"ĠJoe":10226,"ositifs":10227,"Ġconstructeur":10228,"Ġhal":10229,"voluer":10230,"ij":10231,"Ġgliss":10232,"sance":10233,"ĠAussi":10234,"Ġfiable":10235,"ĠWil":10236,"Ġinterdit":10237,"ĠSM":10238,"ĠSneakers":10239,"ĠMaz":10240,"Ġexploi":10241,"'<":10242,"FI":10243,"grade":10244,"Sous":10245,"dules":10246,"Ġressemble":10247,"ilippe":10248,"Ġcarbone":10249,"Ġarabe":10250,"Ġcertes":10251,"ĠRemp":10252,"velopp":10253,"Ġlumineux":10254,"Ġadministrative":10255,"DV":10256,"ouvre":10257,"rior":10258,"Mus":10259,"Ġencourage":10260,"libataires":10261,"Ġ(Â«":10262,"ĠNormandie":10263,"Ġgourmand":10264,"Ġrepris":10265,"ĠTa":10266,"ĠDirect":10267,"Min":10268,"Ġtox":10269,"ĠDay":10270,"AIRE":10271,"240":10272,"Ġcig":10273,"Service":10274,"passer":10275,"Ġinvit":10276,"ACK":10277,"Ġincar":10278,"ĠAche":10279,"ativite":10280,"idier":10281,"Ġbisous":10282,"ĠCla":10283,"Ġmaximale":10284,"Ġchron":10285,"ĠWork":10286,"ĠBibliothe":10287,"oler":10288,"ueux":10289,"ĠInstallation":10290,"bout":10291,"loge":10292,"cellent":10293,"Ġouvrages":10294,"Ġcontribution":10295,"Ġfortes":10296,"odge":10297,"Cher":10298,"sentations":10299,"YS":10300,"Ġdevons":10301,"ciser":10302,"Ġye":10303,"AK":10304,"Ġperspective":10305,"270":10306,"tropole":10307,"Ġflor":10308,"Ġmatelas":10309,"acquisition":10310,"cois":10311,"Ġitalienne":10312,"nar":10313,"Ġjuil":10314,"Ġ233":10315,"dagogique":10316,"Ġmanifestations":10317,"lla":10318,"ĠRenault":10319,"Ġjournalistes":10320,"Ġpaysages":10321,"Î¿":10322,"cile":10323,"Ġlec":10324,"terdam":10325,"Ġpoissons":10326,"lang":10327,"enay":10328,"ĠGas":10329,"Ġshopping":10330,"Ġclinique":10331,"tick":10332,"ĠLumie":10333,"yes":10334,"voie":10335,">âĢĶ":10336,"ĠHollande":10337,"ĠSupp":10338,"pus":10339,"lobal":10340,"Ġcouper":10341,"Ġsupporter":10342,"Ġaver":10343,"Pub":10344,"Ġressort":10345,"Ġinu":10346,"Ġconstituent":10347,"Ġavent":10348,"quite":10349,"Ġconcassage":10350,"Ġpoitrine":10351,"gionales":10352,"ĠMarcel":10353,"rob":10354,"conne":10355,"Ġcliquant":10356,"ĠJam":10357,"ĠVeuillez":10358,"Ġprononce":10359,"Ġlux":10360,"ĠWashington":10361,"ĠCommerce":10362,"parent":10363,"Ġforts":10364,"changer":10365,"ĠSimon":10366,"riphe":10367,"och":10368,"rimente":10369,"cense":10370,"ĠMER":10371,"ĠRead":10372,"Ġajout":10373,"onomie":10374,"ABLE":10375,"oyers":10376,"ĠVel":10377,"ĠâĶĤ":10378,"quise":10379,"oms":10380,"Ġnormale":10381,"qw":10382,"Ġreleve":10383,"ĠDisponible":10384,"Ġopen":10385,"ĠCasual":10386,"Ġlampe":10387,"ĠPyre":10388,"ockey":10389,"ĠMaria":10390,"kozy":10391,"Ġ1986":10392,"Ġlaine":10393,"ĠFrais":10394,"ĠâĨĴ<":10395,"vey":10396,"Ġhauts":10397,"ĠLangue":10398,"accro":10399,"ĠNorth":10400,"ambiance":10401,"Ġpli":10402,"ĠOuest":10403,"Ġtraditionnel":10404,"Ġprogrammation":10405,"Ġarg":10406,"Ġgratuites":10407,"igration":10408,"rd":10409,"Chaque":10410,"vy":10411,"acts":10412,"ĠHa":10413,"Ġdose":10414,"fugie":10415,"Ġinvestissement":10416,"Ġcommerciales":10417,"Ġmagie":10418,"aps":10419,"arn":10420,".),":10421,"Ġpommes":10422,"Ġargu":10423,"Ġretirer":10424,"Ġneur":10425,"Ġsuppose":10426,"ĠNic":10427,"Ġrelax":10428,"Mag":10429,"ĠFord":10430,"Noir":10431,"compense":10432,"Ke":10433,"icale":10434,"Ġsavent":10435,"ĠPAS":10436,"TIONS":10437,"ĠTourisme":10438,"Ġuni":10439,"Toute":10440,"immobilier":10441,"Ġguitare":10442,"Ġpp":10443,"Ġblinde":10444,"Ġleve":10445,"ĠMalgre":10446,"ĠAgence":10447,"pass":10448,"Mai":10449,"210":10450,"Acheter":10451,"Porte":10452,"Ġconsultez":10453,"urie":10454,"ĠSub":10455,"Ġorganiser":10456,"ĠColor":10457,"ĠCoton":10458,"Ġcanal":10459,"Ġsensibili":10460,"mane":10461,"ador":10462,"Ġspati":10463,"Ġretire":10464,"oys":10465,"Ġglobal":10466,"Ġtuer":10467,"=>":10468,"fet":10469,"nu":10470,"ĠVa":10471,"Ġcultures":10472,"PO":10473,"ĠParce":10474,"irts":10475,"ĠYe":10476,"Ainsi":10477,"blanc":10478,"ĠPologne":10479,"ĠeBay":10480,"Ġtouristiques":10481,"ĠGouvernement":10482,"Dame":10483,"ĠRub":10484,"ĠLien":10485,"Conne":10486,"articles":10487,"Ġprotoc":10488,"Ġcontemporaine":10489,"Ġmonuments":10490,"Ġactualite":10491,"RAND":10492,"irl":10493,"Ġ220":10494,"ĠJer":10495,"Ġmanifestation":10496,"ĠJune":10497,"cies":10498,"clin":10499,"tem":10500,"tille":10501,"Ġdommages":10502,"Ġpalais":10503,"Ġagences":10504,"session":10505,"Pa":10506,"ĠMun":10507,"Ġinterventions":10508,"ĠTok":10509,"Ġmets":10510,"Ġvieille":10511,"ĠCalifor":10512,"Ġimpo":10513,"ĠLed":10514,"ĠHan":10515,"style":10516,"ĠÌĪ":10517,"centes":10518,"Ġikea":10519,"CES":10520,"Ġvib":10521,"Ġsm":10522,"Ġmons":10523,"Ġutilisez":10524,"ĠConfort":10525,"Ġidentite":10526,"Ġroyaume":10527,"Ġrideau":10528,"bn":10529,"drale":10530,"ĠMarne":10531,"gnes":10532,"Alge":10533,"Cert":10534,"ĠPA":10535,"ĠStation":10536,"Ġaccident":10537,"Ide":10538,"Ġnationales":10539,"organisme":10540,"ĠJusqu":10541,"Retour":10542,"Ġcommand":10543,"led":10544,"lable":10545,"Ġaperc":10546,"rest":10547,"ĠâĻ¥":10548,"Afficher":10549,"rigue":10550,"mph":10551,"\";":10552,"Ġdoigts":10553,"Lien":10554,"Ġencad":10555,"Rem":10556,"cline":10557,"Ġsecondaires":10558,"456":10559,"âĢľ":10560,"pection":10561,"Cour":10562,"Ġisolation":10563,"ĠCannes":10564,"Ġcroix":10565,"haus":10566,"ouer":10567,"ĠUnique":10568,"lotte":10569,"ĠVoila":10570,"Ġjean":10571,"Ġannuelle":10572,"Ġrect":10573,"Ġoffice":10574,"ĠUs":10575,"INI":10576,"ĠáĦ":10577,"Ġraff":10578,"attente":10579,"ads":10580,"Ġtables":10581,"PN":10582,"Ġiphone":10583,"ĠFou":10584,"aria":10585,"Ġrepar":10586,"ĠAide":10587,"ĠUR":10588,"Ġsombre":10589,"ĠPil":10590,"ĠEL":10591,"rouille":10592,"Ġterrains":10593,"tale":10594,"ĠPopul":10595,"oda":10596,"Ġvoisins":10597,"ilet":10598,"ĠCri":10599,"ĠFire":10600,"gislatives":10601,"ressante":10602,"ĠLuc":10603,"OUV":10604,"Ġemme":10605,"Ġconvers":10606,"lem":10607,"ĠHiver":10608,"ĠBang":10609,"ĠIndi":10610,"Ġcoiffure":10611,"itale":10612,"ĠKer":10613,"Ġpis":10614,"Ġ750":10615,"Mots":10616,"auteuil":10617,"Ġcatastro":10618,"Net":10619,"moires":10620,"Ġfilie":10621,"ĠQuant":10622,"Ġfauteuil":10623,"ĠMary":10624,"Ġ1987":10625,"Ġindustriels":10626,"Ġlike":10627,"ricul":10628,"Ġ->":10629,"ĠCAP":10630,"glome":10631,"estern":10632,"SK":10633,"ĠBarb":10634,"cir":10635,"ĠStreaming":10636,"ĠArg":10637,"Ġvenue":10638,"Ġfoyer":10639,"ĠRide":10640,"carpins":10641,"Ġfuture":10642,"ĠMilan":10643,"Ġem":10644,"ĠTel":10645,"Ġroulants":10646,"Ġjugement":10647,"ĠPlage":10648,"panne":10649,"ĠGalerie":10650,"ĠMiniste":10651,"Entreprise":10652,"ffis":10653,"ĠSyrie":10654,"zu":10655,"Ġdistingue":10656,"adapter":10657,"ĠCanadi":10658,"umul":10659,"envoi":10660,"pine":10661,"ĠPet":10662,"Ġvivent":10663,"ĠGel":10664,"atar":10665,"sia":10666,"Ġ1984":10667,"visible":10668,"Ġtroupes":10669,"Ġ:-":10670,"euf":10671,"Ġroues":10672,"$[":10673,"tites":10674,"oke":10675,"Ġcomposants":10676,"ĠDescription":10677,"moignages":10678,"ĠFormat":10679,"ĠCommunaute":10680,"essentiel":10681,"autorite":10682,"Ġrentrer":10683,"point":10684,"Ġperce":10685,"geois":10686,"Ġprofond":10687,"Face":10688,"valuations":10689,"Ġballe":10690,"ĠTF":10691,"beau":10692,"hous":10693,"ilicone":10694,"ĠConcours":10695,"ĠArticles":10696,"Mise":10697,"hai":10698,"Ġcauses":10699,"voyer":10700,"Ġtonnes":10701,"trans":10702,"Ġprince":10703,"chapp":10704,"Ġclimatisation":10705,"ĠUniversity":10706,"dont":10707,"ĠDess":10708,"Ie":10709,"ĠGPS":10710,"Ġessais":10711,"Ġ1985":10712,"Ġtraces":10713,"wq":10714,"fecture":10715,"Ġoptimis":10716,"Ġcontacts":10717,"ĠEspace":10718,"Ġtomb":10719,"ieuses":10720,"ĠFourn":10721,"Ġ075":10722,"position":10723,"maison":10724,"ĠGilles":10725,"]+$[":10726,"conque":10727,"udi":10728,"ĠNot":10729,"Ġautonome":10730,"ĠPO":10731,"ĠGRAT":10732,"ignons":10733,"Ġpaire":10734,"Ġpvc":10735,"Ġavenue":10736,"arium":10737,"ĠEnglish":10738,"Ġinterme":10739,"ĠContact":10740,"humanite":10741,"Ġ),":10742,"itecte":10743,"Ġtube":10744,"Ġfes":10745,"Ġcadres":10746,"ricot":10747,"Ġexceptionnel":10748,"yste":10749,"Ġbrun":10750,"ĠReal":10751,"approche":10752,"Ġsignal":10753,"Ġprenez":10754,"Ġplay":10755,"effectuer":10756,"Ġfromage":10757,"RC":10758,"Ġabou":10759,"Ġ1978":10760,"Ġitine":10761,"goci":10762,"couv":10763,"ĠFal":10764,"lectricien":10765,"ĠLampe":10766,"tiful":10767,"Ġcapture":10768,"Ġsauce":10769,"Ġrecul":10770,"inoise":10771,"ĠTan":10772,"Ġalge":10773,"Ġinvestisse":10774,"TF":10775,"Ġbasket":10776,"Ġsignale":10777,"uriers":10778,"ĠYves":10779,"bul":10780,"Quelle":10781,"ĠIle":10782,"Ġavion":10783,"HD":10784,"bd":10785,"vons":10786,"anisme":10787,"Ġrachat":10788,"quait":10789,"ÆĴ":10790,"Ġwhich":10791,"Ġsportive":10792,"Ġsensation":10793,"oeil":10794,"Ġ2021":10795,"mate":10796,"ĠPrintemps":10797,"Ġconnus":10798,"ĠMau":10799,"Ġgel":10800,"ĠAngeles":10801,"Ġuniversitaire":10802,"Ġindividus":10803,"ĠVau":10804,"Ġcaisse":10805,"Ġfinances":10806,"Ġrequis":10807,"diger":10808,"ĠClasse":10809,"porte":10810,"ĠMarch":10811,"loigne":10812,"Ġlun":10813,"ĠVoiture":10814,"ĠWith":10815,"Ġutilisent":10816,"couvertes":10817,"ĠTours":10818,"css":10819,"Ġchaleureux":10820,"levage":10821,"Ġparquet":10822,"Ġproducteurs":10823,"Ġenseigne":10824,"ĠAnth":10825,"ANG":10826,"Ġcolonne":10827,"Ġbouteille":10828,"[/":10829,"Ġpy":10830,"chargez":10831,"Ġdizaine":10832,"ĠFonds":10833,"Ġmette":10834,"Ġdizaines":10835,"Ġtissus":10836,"onnais":10837,"Ġavocat":10838,"miss":10839,"Ġsoulig":10840,"ĠPlat":10841,"quettes":10842,"ĠFiche":10843,"ĠTalon":10844,"clame":10845,"ĠTr":10846,"Ġ,<":10847,"Ġdisparai":10848,"ĠTags":10849,"ĠToile":10850,"ĠXL":10851,"ved":10852,"uyer":10853,"enregistrement":10854,"viers":10855,"roe":10856,"OO":10857,"Ġfib":10858,"ĠREN":10859,"Ġmanquer":10860,"ĠPay":10861,"ĠRien":10862,"Ġcitron":10863,"ĠVill":10864,"outchou":10865,"Ġrapproche":10866,"ÑĮ":10867,"Ġclimatique":10868,"ĠBes":10869,"Ġvintage":10870,"lac":10871,"ĠVolet":10872,"placements":10873,"ĠVersion":10874,"ommer":10875,"ĠClassic":10876,"opte":10877,"ĠCasino":10878,"AI":10879,"ĠBourgogne":10880,"Ġboutons":10881,"Autre":10882,"assemble":10883,"Ġobligations":10884,"trai":10885,"rastructures":10886,"Ġfroide":10887,"omp":10888,"Ġpromen":10889,"ĠRef":10890,"Ġpath":10891,"Ġdivise":10892,"Ġurbaine":10893,"Ġdette":10894,"pertoire":10895,"AZ":10896,"itz":10897,"abri":10898,"Meu":10899,"ĠRevue":10900,"Ġterror":10901,"ĠCelle":10902,"ght":10903,"Ġexceptionnelle":10904,"tina":10905,"Ìģ...<":10906,"rits":10907,"Ġfinition":10908,"ordination":10909,"ĠHard":10910,"iane":10911,"Ġcool":10912,"sertion":10913,"lar":10914,"Ġ(-":10915,"ĠCham":10916,"ĠCorse":10917,"Name":10918,"vages":10919,"oper":10920,"Ġlaissez":10921,"ologues":10922,"Ġmarron":10923,"Ġrelatif":10924,"ĠMans":10925,"212":10926,"thur":10927,"ĠMaj":10928,"Ġdesser":10929,"Ġavenir":10930,"2001":10931,"forum":10932,"Ġatta":10933,"ĠCase":10934,"oune":10935,"ĠMONT":10936,"Ġrab":10937,"Ġrestant":10938,"ĠBasses":10939,"Ġsouver":10940,"Ġrayon":10941,"lisation":10942,"Ġofficiellement":10943,"Ġhigh":10944,"ĠkmHo":10945,"Jus":10946,"cut":10947,"osearch":10948,"partment":10949,"ORD":10950,"ĠManuel":10951,"Ġsuperficie":10952,"Ġenfance":10953,"AMP":10954,"Ġfibre":10955,"Ġriz":10956,"ĠHousse":10957,"anel":10958,"moigne":10959,"ĠSophie":10960,"ĠLife":10961,"Ġmoulin":10962,"DT":10963,"ciaux":10964,"ĠIsland":10965,"ÌĤâĤ¬":10966,"Ġlargeur":10967,"Ġexerce":10968,"ĠRoger":10969,"nomme":10970,"ĠVienne":10971,"Ġchic":10972,"lio":10973,"Ġchausse":10974,"initiative":10975,"Ġpneus":10976,"dal":10977,"andises":10978,"Ġpatri":10979,"Ġhypothe":10980,"ĠMaintenant":10981,"Cours":10982,"Ġ1981":10983,"NO":10984,"Ġrichesse":10985,"sist":10986,"Ġsugges":10987,"ĠCourse":10988,"Ġcontente":10989,"Ġrur":10990,"ĠPsych":10991,"arthe":10992,"ĠSupport":10993,"Ġveuillez":10994,">âĨĲ":10995,"itor":10996,"Mate":10997,"Hy":10998,"rison":10999,"ĠBeaucoup":11000,"ducteurs":11001,"Ġtableaux":11002,"Ġpromouvoir":11003,"rencement":11004,"igosearch":11005,"refour":11006,"Rho":11007,"ĠTeam":11008,"alcool":11009,"CP":11010,"phine":11011,"Ġbad":11012,"Ġconducteur":11013,"fon":11014,"ĠTrain":11015,"Ġsupports":11016,",...":11017,"Ġrappel":11018,"Ġsand":11019,"Ġnormalement":11020,"Ġvesti":11021,"Ġgolf":11022,"qua":11023,"Tour":11024,"Marc":11025,"Ġpublier":11026,"ĠNat":11027,"ĠMetal":11028,"Ġauthor":11029,"Ġcontribuer":11030,"ĠInsp":11031,"pendants":11032,"ventuellement":11033,"ĠMaill":11034,"105":11035,"Ġurbain":11036,"ralise":11037,"Sans":11038,"Ġplomb":11039,"ĠTam":11040,"parez":11041,"Ġrechercher":11042,"Ġprochaines":11043,"ĠElect":11044,"Ġfonctionner":11045,"phes":11046,"ternel":11047,"omi":11048,"ĠDark":11049,"Ġpes":11050,"ĠExpress":11051,"linaire":11052,"Ġauparavant":11053,"ĠPER":11054,"Ġconsole":11055,"DG":11056,"Ġcanadien":11057,"ĠRod":11058,"ĠAngleterre":11059,"Ġservie":11060,"Sau":11061,"wear":11062,"Ġassainissement":11063,"Ġessai":11064,"Ġexercice":11065,"ĠEv":11066,"Ġangle":11067,"FE":11068,"feu":11069,"Ġenceinte":11070,"buts":11071,"ĠArrive":11072,"aba":11073,"Angleterre":11074,"Ġpanneau":11075,"outchouc":11076,"lissement":11077,"ĠMB":11078,"plan":11079,"Jeux":11080,"ÅĴ":11081,"ĠPuma":11082,"Ġmira":11083,"ĠRunning":11084,"Ġamene":11085,"see":11086,"contracte":11087,"ifie":11088,"Ġinflu":11089,"utique":11090,"labore":11091,"preuves":11092,"Ġbronze":11093,"Ġasi":11094,"Ġdite":11095,"Ġfis":11096,"ISON":11097,"ĠKi":11098,"ĠPU":11099,"Bois":11100,"ĠTalons":11101,"Ġconseillers":11102,"formite":11103,"Acce":11104,"Ġhydra":11105,"Ġnettoyer":11106,"Ġvoudrais":11107,"Ġmos":11108,"Ġhoriz":11109,"examen":11110,"ulg":11111,"Ġmaternelle":11112,"Ð¼":11113,"titions":11114,"Faire":11115,"Ġproducteur":11116,"Rencontre":11117,"Quelques":11118,"diat":11119,"Ġlaver":11120,"Ñĭ":11121,"Ġdispositifs":11122,"Anti":11123,"Ġsuspen":11124,"ICH":11125,"Ġcomprends":11126,"Ġsolde":11127,"ĠRy":11128,"ĠPeinture":11129,"Ġtranche":11130,"nil":11131,"oxydable":11132,"Ġseni":11133,"ĠLibre":11134,"Ġfameux":11135,"Ġvertu":11136,"giques":11137,"ĠParfum":11138,"Ġexpli":11139,"ĠFontaine":11140,"Ġmixte":11141,"cette":11142,"PRO":11143,"ĠGrey":11144,"alem":11145,"978":11146,"Ġcomparaison":11147,"ĠViv":11148,"ĠMagasin":11149,"ĠStat":11150,"titudes":11151,"grand":11152,"Ġefficacite":11153,"Ġsaisir":11154,"crites":11155,"Ġcialis":11156,"Ġnoel":11157,"ĠDomaine":11158,"rimante":11159,"Ġprogression":11160,"Ġgain":11161,"Ġreturn":11162,"inaires":11163,"ĠCHF":11164,"acles":11165,"Ġoptique":11166,"ondre":11167,"Ġapprend":11168,"Ġolympiques":11169,"Ġexclusivement":11170,"occupe":11171,"Ġcost":11172,"quente":11173,"Ġna":11174,"ĠMoto":11175,"Canada":11176,"Pie":11177,"endra":11178,"ĠNancy":11179,"Ġvenus":11180,"ĠSmith":11181,"ĠCamping":11182,"ĠSony":11183,"Ġsecrets":11184,"alestin":11185,"Ġ450":11186,"LL":11187,"350":11188,"tter":11189,"Ġcali":11190,"fit":11191,"Ġnationaux":11192,"Ġlourd":11193,"essayer":11194,"lers":11195,"ajouter":11196,"We":11197,"MT":11198,"ality":11199,"traction":11200,"Photos":11201,"Ġfarine":11202,"[]+[]":11203,"Ġcoupon":11204,"Ġconcerts":11205,"ĠTRA":11206,"OURS":11207,"ĠBMW":11208,"Ġsimilaire":11209,"Ġisrae":11210,"Ġger":11211,"ĠMand":11212,"amed":11213,"affiche":11214,"icielle":11215,"clope":11216,"ĠAk":11217,"Ġmontagnes":11218,"Fiche":11219,"Ġstric":11220,"Ġoiseaux":11221,"review":11222,"onoraires":11223,"Ġaborde":11224,"Caracte":11225,"ĠES":11226,"adaire":11227,"Ġadmis":11228,"ĠConditions":11229,"Ġconservation":11230,"analy":11231,"aspect":11232,"Ġvig":11233,"influence":11234,"ploie":11235,"idth":11236,"assistance":11237,"Ġcalcule":11238,"Luc":11239,"ĠGolf":11240,"Ġflash":11241,"ĠAix":11242,"Ġtunis":11243,"Ġintervient":11244,"Ġcoc":11245,"ĠMons":11246,"ĠSupe":11247,"ĠLO":11248,"Ġmous":11249,"unir":11250,"asseurs":11251,"Ġtemporaire":11252,"%)":11253,"ĠXIXe":11254,"ĠDeco":11255,"Ġproportion":11256,"display":11257,"Ġcommiss":11258,"Ġplant":11259,":\\":11260,"ĠIll":11261,"Ġdites":11262,"Ġfinit":11263,"Ġindividu":11264,"Pat":11265,"Ġcomplexes":11266,"books":11267,"ocats":11268,"Bre":11269,"jection":11270,"Ġ).<":11271,"Ġpape":11272,"ulsion":11273,"Ġ\"<":11274,"Ġtrente":11275,"Ġinterven":11276,"Ġtailles":11277,"appa":11278,"ĠModerne":11279,"hones":11280,"nouve":11281,"abel":11282,"Ġarchives":11283,"Ġreine":11284,"paris":11285,"ĠHot":11286,"Ġprolonge":11287,"Ġcouronne":11288,"Op":11289,"Øª":11290,"liste":11291,"Ġchirurg":11292,"mpes":11293,"accompagnement":11294,"Ġgame":11295,"servoir":11296,"emplacement":11297,"Ġ1982":11298,"ift":11299,"tai":11300,"ĠTerrasse":11301,"Cy":11302,">/":11303,"180":11304,"aptiste":11305,"cept":11306,"ramique":11307,"Ġhouse":11308,"Ġpassent":11309,"Ġphotographe":11310,"Ġstations":11311,"ĠPhil":11312,"sives":11313,"Ġmajeure":11314,"Ġille":11315,"!!!!!!!!":11316,"ĠJaune":11317,"Ġessentielles":11318,"liminer":11319,"ardo":11320,"ardi":11321,"norm":11322,"fam":11323,"Ġaccepter":11324,"Ġprovenant":11325,"ĠClo":11326,"adhe":11327,"oubliez":11328,"Ġparticul":11329,"233":11330,"::":11331,"icon":11332,"ĠCommunication":11333,"Ġmurale":11334,"Modifie":11335,"Ġimagine":11336,"ĠDa":11337,"ĠPop":11338,"Ġpositive":11339,"Ġarbre":11340,"done":11341,"ĠLap":11342,"Ġproposant":11343,"Element":11344,"Ġrecevez":11345,"Ġsoupe":11346,"cets":11347,"ĠLongue":11348,"ÃĹ":11349,"issu":11350,"Ġrenovation":11351,"Ġpause":11352,"tendue":11353,"ĠHow":11354,"Ġsouple":11355,"Ġconstater":11356,"oblig":11357,"Ġplain":11358,"ĠMexique":11359,"encer":11360,"Ġtaxes":11361,"ĠLag":11362,"ĠSarkozy":11363,"canisme":11364,"ĠGl":11365,"nonyme":11366,"hommes":11367,"uploads":11368,"Ġagir":11369,"ĠNik":11370,"ĠData":11371,"Ġperfection":11372,"Ġjambes":11373,"Ġlaissant":11374,"aurait":11375,"width":11376,"Ġcomprennent":11377,"Mas":11378,"áħ®":11379,"Ġcarton":11380,"nia":11381,"ĠSouth":11382,"vus":11383,"Ġvag":11384,"reau":11385,"Ġcourtes":11386,"Mem":11387,"ĠCav":11388,"partements":11389,"Ġinscrits":11390,"inn":11391,"ĠBrown":11392,"outil":11393,"Ġmade":11394,"Ġlever":11395,"Ġhandicap":11396,"CM":11397,"Ġfrancais":11398,"FO":11399,"ressing":11400,"quante":11401,"Ġdeviennent":11402,"Ġtiens":11403,"libe":11404,"rica":11405,"rist":11406,"finitivement":11407,"preneurs":11408,"ĠCliquez":11409,"cors":11410,"ĠDor":11411,"sistant":11412,"Ġfasse":11413,"Ġmorceau":11414,"ĠCoffre":11415,"lables":11416,"auvres":11417,"Ġacade":11418,"Ġrem":11419,"ĠGroup":11420,"Ġinternes":11421,"Ġnutrition":11422,"ĠGE":11423,"neau":11424,"ĠEli":11425,"Ùĩ":11426,"essai":11427,"Ġdisposer":11428,"Ġcontraintes":11429,"dr":11430,"Ġessentielle":11431,"Li":11432,"Meille":11433,"Ġexam":11434,"zac":11435,"Ġcuivre":11436,"ATIONS":11437,"nay":11438,"Ġcongre":11439,"Ġcercle":11440,"Ġconcentration":11441,"Ġpuissent":11442,"tiquette":11443,"riodes":11444,"rasser":11445,"Ġsuspension":11446,"formance":11447,"ĠAy":11448,"ssemb":11449,"wed":11450,"\":\"\",\"":11451,"wer":11452,"Ġ1950":11453,"Ġcontactez":11454,"hod":11455,"Ref":11456,"Ġpilotes":11457,"ĠInc":11458,"Ġbiz":11459,"Ġvague":11460,"ĠAVE":11461,"ĠRoman":11462,"Ġlaser":11463,"Ġâĸ·":11464,"Ġconfronte":11465,"Ġsortes":11466,"parateur":11467,"lectionnez":11468,"ĠVenez":11469,"Ġrarement":11470,"ĠUK":11471,"TL":11472,"Ġtechnicien":11473,"Cop":11474,"parations":11475,"sm":11476,"Ġdun":11477,"vious":11478,"vale":11479,"war":11480,"ĠTarif":11481,"oids":11482,"2002":11483,"Ġ1975":11484,"Hor":11485,"Ġrelais":11486,"word":11487,"cords":11488,"Ġcapitaine":11489,"Ġexamen":11490,"Ġappren":11491,"ĠAnton":11492,"Ġrefle":11493,"nellement":11494,"vure":11495,"%.":11496,",...<":11497,"ĠVale":11498,"Ġboulot":11499,"Ġboire":11500,"pais":11501,"Ġnoc":11502,"rification":11503,"Ġfun":11504,"ositeur":11505,"ĠVue":11506,"ĠCB":11507,"ĠXXe":11508,"outs":11509,"Ġexten":11510,"minine":11511,"Ġfondateur":11512,"ĠEntretien":11513,"ĠAfin":11514,"Up":11515,"Ġlongs":11516,"avirus":11517,"ĠCart":11518,"ĠAudi":11519,"Ġcommerc":11520,"enser":11521,"Ġchoisissez":11522,"onder":11523,"ĠSum":11524,"Ġnoirs":11525,"Ġfoc":11526,"VILLE":11527,"ĠActivite":11528,"Ġ*****":11529,"ÌĢ<":11530,"Ġvolontaire":11531,"Ġprends":11532,"jamin":11533,"cr":11534,"icien":11535,"Ġentrep":11536,"Ġjoint":11537,"Ġgraphiques":11538,"Ġlistes":11539,"320":11540,"ĠPass":11541,"ĠTHE":11542,"Ġ1983":11543,"unions":11544,"Ġappels":11545,"ĠBref":11546,"WE":11547,"900":11548,"Ġvenez":11549,"ĠOrigin":11550,"ĠNett":11551,"Ġcivili":11552,"XL":11553,"Ivoire":11554,"Ġleaders":11555,"lies":11556,"ĠDol":11557,"Ġcertificat":11558,"Ġgr":11559,"Ġimportance":11560,"Ġsexy":11561,"Ġmare":11562,"Ġintervenir":11563,"Ġfavorable":11564,"Ġavr":11565,"ĠUSD":11566,"llation":11567,"Ġsatisfaire":11568,"champ":11569,"Public":11570,"ĠHos":11571,"Ber":11572,"Fil":11573,"ĠSamedi":11574,"Ġmp":11575,"Ġassemble":11576,"trations":11577,"Ġ7501":11578,"link":11579,"Max":11580,"ĠAnnonce":11581,"ailable":11582,"ĠUNE":11583,"pla":11584,"agnie":11585,"Af":11586,"douard":11587,"Ġtut":11588,"Ġvieilli":11589,"ĠCONT":11590,"Ġpomme":11591,"ATE":11592,"Ġduo":11593,"Ġprovis":11594,"Ġmince":11595,"Ġcasser":11596,"ĠJoh":11597,"rurier":11598,"Ġpique":11599,"Office":11600,"Hel":11601,"uba":11602,"Ġfacebook":11603,"Ġtaches":11604,"Ġmagnifiques":11605,"appui":11606,"ĠRES":11607,"ĠÏ":11608,"ronter":11609,"truit":11610,"ĠSD":11611,"ĠSanta":11612,"Ġbot":11613,"inse":11614,"ILE":11615,"Ġdevront":11616,"offrir":11617,"ĠClaire":11618,"Ġsentiments":11619,"Ġvoyager":11620,"mou":11621,"Ġsue":11622,"alia":11623,"Oli":11624,"ĠTrouver":11625,"ĠDR":11626,"ĠPME":11627,"commerce":11628,"quage":11629,"ango":11630,"libataire":11631,"Ġtotalite":11632,"Ġexpertise":11633,"vd":11634,"$$":11635,"enc":11636,"Ġtravaillent":11637,"Ġgraines":11638,"CN":11639,"ĠEuro":11640,"Ġmonument":11641,"Ġboissons":11642,"ĠCameroun":11643,"Bu":11644,"Ġsuppression":11645,"Ġvivement":11646,"Ġdram":11647,"clerc":11648,"Ġcombinaison":11649,"Ġintense":11650,"ĠJeanne":11651,"ĠAction":11652,"umine":11653,"Ġdesc":11654,"ĠIkea":11655,"issements":11656,"ĠCommande":11657,"Ġrez":11658,"ĠCant":11659,"ĠVillage":11660,"Ġdistrict":11661,"ĠHistor":11662,"Ġconclu":11663,"ĠJul":11664,"Ġcirconstances":11665,"Ġinstrument":11666,"ĠActu":11667,"ĠWomen":11668,"Ġbit":11669,"Ġneuve":11670,"Ġpromet":11671,"Ġaccept":11672,"ĠCite":11673,"ĠPVC":11674,"Ġsymbole":11675,"Ġ105":11676,"Point":11677,"Ġdiscussions":11678,"Ġneufs":11679,"Ġnor":11680,"Ġarrondissement":11681,"ĠCAS":11682,"Ġcouvert":11683,"Ġdormir":11684,"ĠPRI":11685,"ĠMonaco":11686,"Ġmiel":11687,"Ġproc":11688,"ĠEtat":11689,"Mis":11690,"ĠCourt":11691,"ĠPlate":11692,"Ġmarge":11693,"ĠRA":11694,"yd":11695,"ĠLoisirs":11696,"ĠCongre":11697,"âĺ":11698,"ĠContro":11699,"Ġdomine":11700,"Ìģ\"":11701,"ĠChapelle":11702,"cau":11703,"ĠðŁĺī":11704,"marre":11705,"come":11706,"Ġadidas":11707,"ĠWater":11708,"Ġsab":11709,"Laurent":11710,"Sign":11711,"Ġacque":11712,"Ġmusulmans":11713,"ĠVF":11714,"ĠCommer":11715,"Ġ??":11716,"rencontre":11717,"Anim":11718,"Ġcouples":11719,"Ġfacteur":11720,"mett":11721,"Afin":11722,"ĠFlorence":11723,"ĠPersonn":11724,"Ġmalade":11725,"Ġparu":11726,"eurs":11727,"gociations":11728,"cyclope":11729,"ĠStan":11730,"Ġfamilial":11731,"pol":11732,"Ġ240":11733,"ĠCah":11734,"atise":11735,"Ġparvenir":11736,"Ġimpre":11737,"Ġterrible":11738,"Ġfuturs":11739,"Ġchanteur":11740,"Ġtentative":11741,"ĠProm":11742,"Nike":11743,"ĠUk":11744,"Ġcabine":11745,"ĠsÅĵur":11746,"Ġpolyval":11747,"una":11748,"applique":11749,"pense":11750,"clat":11751,"phonique":11752,"Bro":11753,"aze":11754,"balle":11755,"gres":11756,"uter":11757,"Ġblo":11758,"Ġterminer":11759,"ĠRO":11760,"ARE":11761,"ĠNouvelles":11762,"VAL":11763,"ussie":11764,"asis":11765,"Ġcontrairement":11766,"Ġchap":11767,"enden":11768,"Ġlatin":11769,"ĠCv":11770,"Ġcrimine":11771,"audi":11772,"Ġverts":11773,"pil":11774,"ĠEST":11775,"ratoire":11776,"Ġchaussure":11777,"Ġspa":11778,"ĠEmb":11779,"Ġlitres":11780,"CHAR":11781,"ĠCin":11782,"ticolore":11783,"Actualite":11784,"ĠSK":11785,"Ġeut":11786,"Ġfranchise":11787,"siste":11788,"Ġuk":11789,"atrices":11790,"ĠVideo":11791,"ĠVu":11792,"espoir":11793,"oster":11794,"ĠDJ":11795,"Ġdisparu":11796,"Personnalite":11797,"clam":11798,"Pla":11799,"ĠSortie":11800,"ISSE":11801,"Ġabsor":11802,"ĠAmerican":11803,"DD":11804,"Ġdensite":11805,"maz":11806,"ovo":11807,"Ġculturelles":11808,"verture":11809,"Ġinaug":11810,"dient":11811,"OME":11812,"MES":11813,"yage":11814,"crans":11815,"pto":11816,"ĠFly":11817,"ĠâĤ¬/":11818,"ĠGil":11819,"ĠCongo":11820,"Ġchemins":11821,"carte":11822,"Ġdiscipline":11823,"Ġfa":11824,"IZ":11825,"ĠMoc":11826,"itions":11827,"garder":11828,"oliques":11829,"Ġarb":11830,"Ġcomprom":11831,"Ġdue":11832,"ĠBill":11833,"ĠLeroy":11834,"Tube":11835,"ĠMidi":11836,"ä¸":11837,"AUD":11838,"strong":11839,"ENE":11840,"Ġcomport":11841,"shed":11842,"Ġado":11843,"Ġsocialiste":11844,"ĠOce":11845,"Ġpoursuiv":11846,"Ġafficher":11847,"ĠPress":11848,"Syste":11849,"Ġefficacement":11850,"Fl":11851,"Ġsolo":11852,"ysique":11853,"Ġbacte":11854,"450":11855,"ĠCRE":11856,"Ġquasiment":11857,"ĠShow":11858,"Â».<":11859,"izza":11860,"Ġconnaitre":11861,"Ġtole":11862,"Ġturb":11863,"arche":11864,"Ġcommente":11865,"Camp":11866,"Ġsauvage":11867,"ĠJustice":11868,"ĠVersailles":11869,"Ġcomprime":11870,"onavirus":11871,"Ġsatisfait":11872,"Ġulte":11873,"appy":11874,"Ġcosme":11875,"Couleur":11876,"FT":11877,"imetie":11878,"VO":11879,"Retrouvez":11880,"ĠDidier":11881,"Ġbaie":11882,"Ġanglaise":11883,"occuper":11884,"ĠConf":11885,"uns":11886,"ĠPresse":11887,"Aub":11888,"Ġenrich":11889,"360":11890,"Ġ×":11891,"pent":11892,"\\/\\/":11893,"ĠSoft":11894,"Ġuniverse":11895,"Ġhonne":11896,"ĠMAN":11897,"Ġrendement":11898,"active":11899,"ned":11900,"Ġconque":11901,"BB":11902,"Ġtransmis":11903,">Â·":11904,"Ġciter":11905,"ĠFau":11906,"Ġeth":11907,"Ġbiologique":11908,"amor":11909,"ĠTitre":11910,"bb":11911,"Ġmontrent":11912,"ĠRestaurants":11913,"habitation":11914,"Ġvariable":11915,"Ġfusion":11916,"deux":11917,"Ġappeler":11918,"ĠClermont":11919,"ĠFeu":11920,"coin":11921,"ĠMoscou":11922,"Ġsain":11923,"Ġgaranties":11924,"Ġbelgique":11925,"##":11926,"Sor":11927,"Â¢":11928,"Ġpira":11929,"Ġcuille":11930,"visi":11931,"Ġlinguis":11932,"ĠDevis":11933,"Ġ1968":11934,"ĠProte":11935,"gby":11936,"ctez":11937,"Ġsubli":11938,"ĠJuli":11939,"tages":11940,"Ġdisant":11941,"Ġbomb":11942,"Blanc":11943,"orique":11944,"Ġgouvern":11945,"Ġale":11946,"Ġpauvres":11947,"ĠIsabelle":11948,"installe":11949,"ĠVER":11950,"Ġki":11951,"ĠHeure":11952,"ĠKim":11953,"ĠOffre":11954,"ĠNar":11955,"Oise":11956,"Ġinstantane":11957,"orientation":11958,"colte":11959,"oney":11960,"Ġbasses":11961,"Ġregistre":11962,"Ġbleue":11963,"nik":11964,"ĠPois":11965,"ĠRouen":11966,"Ġjume":11967,"opa":11968,"260":11969,"leine":11970,"ĠProjet":11971,"Ġgeste":11972,"VI":11973,"Ġappliquer":11974,"loe":11975,"Ġcock":11976,"Ġclic":11977,"Ġadresses":11978,"Ġpromotions":11979,"ĠFonction":11980,"ĠBack":11981,"ĠRess":11982,"ĠFlash":11983,"Ġattaques":11984,"Ġsanitaires":11985,"Ġtransmettre":11986,"arti":11987,"bois":11988,"Ġcigare":11989,"zan":11990,"Ġoriente":11991,"ĠToy":11992,"ONG":11993,"Ġmotive":11994,"weet":11995,"ĠJen":11996,"ĠFamille":11997,"Ġorganisme":11998,"thod":11999,"Chois":12000,"asso":12001,"ratif":12002,"OSS":12003,"ĠGou":12004,"Ġstyles":12005,"gislation":12006,"lyse":12007,"Ð´":12008,"pous":12009,"actif":12010,"ĠStandard":12011,"esc":12012,"bach":12013,"Ġvir":12014,"ĠDimanche":12015,"Ġmole":12016,"Ġimmense":12017,"Ġconstituer":12018,"augmentation":12019,"Ġposted":12020,"aura":12021,"Gal":12022,"cp":12023,"Ġits":12024,"Empire":12025,"Ġmn":12026,"Ġbienvenue":12027,"adaptation":12028,"Ġdiminue":12029,"Ġidentifier":12030,"Ġcomptable":12031,"ĠRoute":12032,"ĠBaby":12033,"gine":12034,"unt":12035,"cutif":12036,"Ġpharm":12037,"ĠFashion":12038,"Ġaides":12039,"Ġbandes":12040,"Ġclip":12041,"Ġcolon":12042,"ĠFull":12043,"marrer":12044,"Ġmarcher":12045,"Black":12046,"Plusieurs":12047,"world":12048,"ĠCS":12049,"Ġpoussie":12050,"Ġsoc":12051,"Ġchats":12052,"Provence":12053,"ĠSerge":12054,"agnol":12055,"ĠLamb":12056,"Services":12057,"AFP":12058,"ĠAttention":12059,"Ġgraves":12060,"Ġconnaissent":12061,"termination":12062,"ubles":12063,"Ø©":12064,"Ġ1979":12065,"ĠShoes":12066,"erreur":12067,"ĠCiv":12068,"Ġshirt":12069,"obiles":12070,"oter":12071,"Ġpeuples":12072,"ĠUnion":12073,"Ġvisu":12074,"Ġsoul":12075,"Ġdic":12076,"Orig":12077,"abi":12078,"Ġdame":12079,"Ġministres":12080,"isolation":12081,"fra":12082,"Ġsuivent":12083,"Ġroom":12084,"chim":12085,"Ġconflits":12086,"ĠAdulte":12087,"ĠJules":12088,"ĠUnited":12089,"ĠSexy":12090,"ĠSuites":12091,"Ġmorale":12092,"Ġmaquillage":12093,"ĠConseils":12094,"Ġ[\"":12095,"Ġportent":12096,"ĠÂ¤":12097,"irateur":12098,"note":12099,"âĢļ":12100,"ĠContin":12101,"Ġobst":12102,"Ġvole":12103,"inverse":12104,"ĠMarketing":12105,"Ġpositions":12106,"Ġspectacles":12107,"AE":12108,"Ġlisse":12109,"Ġprovient":12110,"ĠAustralie":12111,"Ġnatur":12112,"ĠBlo":12113,"gout":12114,"ĠBor":12115,"Ġparas":12116,"Ġdisait":12117,"Ġdistribue":12118,"gate":12119,"Ġdouleurs":12120,"Ġrelatifs":12121,"ĠAng":12122,"ĠClassique":12123,"ĠInstagram":12124,"star":12125,"fonction":12126,"ĠLic":12127,"Ġtir":12128,"Ġ$('#":12129,"roirs":12130,"ĠHand":12131,"Bo":12132,"rielles":12133,"ĠBall":12134,"tings":12135,"ORE":12136,"Ġdeco":12137,"tateur":12138,"gmenter":12139,"Ġbrise":12140,"ĠGa":12141,"Ġboutiques":12142,"Îµ":12143,"Cliquez":12144,"Ġflam":12145,"item":12146,"Ġrayons":12147,"Ġcathe":12148,"Ġextension":12149,"Ġsucces":12150,"roy":12151,"Ġconclusion":12152,"ĠKy":12153,"Ġvolumes":12154,"Ġrideaux":12155,"envoyer":12156,"ĠChampagne":12157,"igre":12158,"msterdam":12159,"erty":12160,"Ġresp":12161,"Ġsonore":12162,"Ġrefaire":12163,"arbre":12164,"oram":12165,"Forum":12166,"lecteurs":12167,"Ġjustifie":12168,"Ġattendu":12169,"ventaire":12170,"Chambres":12171,"Ġcouches":12172,"Ġplaques":12173,"Ġmanche":12174,"apprendre":12175,"Consul":12176,"Ġcoi":12177,"love":12178,"Ġvalable":12179,"Ġprofitez":12180,"impos":12181,"ĠCross":12182,"iture":12183,"left":12184,"ĠCDI":12185,"Ġstable":12186,"kt":12187,"Ġconnaissez":12188,"more":12189,"Ġgastron":12190,"ĠGL":12191,"lobe":12192,"demment":12193,"Ġcompteur":12194,"stes":12195,"Ġcave":12196,"ĠSce":12197,"TML":12198,"ĠJordan":12199,"test":12200,"rad":12201,"ĠSeconde":12202,"Ġstabilite":12203,"Ġchaises":12204,"Ġcanada":12205,"Ġtrue":12206,"ĠÐ²":12207,"Men":12208,"Ġinstruments":12209,"Ġorigines":12210,"Ġouvertes":12211,"Ġ1945":12212,"Fab":12213,"Ġveste":12214,"ONU":12215,"Ġpension":12216,"Ġmay":12217,"fend":12218,"Emploi":12219,"wh":12220,"ĠRH":12221,"ĠExpl":12222,"Ġcoloris":12223,"intendo":12224,"ĠPose":12225,"ĠTime":12226,"Ġmanifeste":12227,"Samedi":12228,"Ġrobot":12229,"Ġget":12230,"Pendant":12231,"alors":12232,"ĠPolo":12233,"ĠSeries":12234,"OND":12235,"pha":12236,"ĠTapis":12237,"Ġjusque":12238,"quement":12239,"Ġaigu":12240,"104":12241,"Ġcardia":12242,"ĠNam":12243,"arl":12244,"Ġpertes":12245,"ĠOx":12246,"telle":12247,"ĠReims":12248,"ĠCoque":12249,"ĠPul":12250,"Ġ112":12251,"angers":12252,"cking":12253,"Ġ1976":12254,"Ġportefeuille":12255,"106":12256,"Ed":12257,"arget":12258,"Ġcoul":12259,"ĠSher":12260,"ĠMinistre":12261,"Ġdisparition":12262,"Ġreproduction":12263,"ĠTemp":12264,"Ġ111":12265,"Ġgardien":12266,"Ġmusiciens":12267,"niste":12268,"ancourt":12269,"Ġinformatiques":12270,"htm":12271,"hos":12272,"versite":12273,"Ġcourriel":12274,"ĠCOMP":12275,"rovi":12276,"Ġjaunes":12277,"...),":12278,"sub":12279,"ÅĤ":12280,"lee":12281,"...).":12282,"ĠPoe":12283,"DM":12284,"ĠLee":12285,"Ġjoindre":12286,"ĠVendredi":12287,"unit":12288,"ĠOlymp":12289,"ĠAVEC":12290,"chard":12291,"ĠBluetooth":12292,"zzi":12293,"Ġexcl":12294,"Ġfabriquer":12295,"langer":12296,"find":12297,"fel":12298,"ĠClient":12299,"butant":12300,"Ġsurpris":12301,"onto":12302,"Ġseigneur":12303,"olit":12304,"tip":12305,"ights":12306,"ocol":12307,"ĠRetrouvez":12308,"Ġimmeuble":12309,"listes":12310,"Ġextraordinaire":12311,"Ø¯":12312,"Ġcourts":12313,"Ġbattre":12314,"move":12315,"ĠImprimer":12316,"ĠHenry":12317,"IIIe":12318,"nisation":12319,"Hen":12320,"rative":12321,"ĠTER":12322,"ular":12323,"Ġclavier":12324,"ĠAppe":12325,"Philippe":12326,"Ġsauvegarde":12327,"Ġcroit":12328,"optimis":12329,"ĠAmp":12330,"====":12331,"AME":12332,"Ġmerlin":12333,"148":12334,"mad":12335,"ĠINTER":12336,"ĠPrince":12337,"ĠVilleneuve":12338,"termin":12339,"Î½":12340,"Ġcoco":12341,"Ġconnait":12342,"Ġsurfaces":12343,"007":12344,"ovic":12345,"Ġincor":12346,"Ġcapables":12347,"viens":12348,"fast":12349,"Ġleroy":12350,"avid":12351,"Ses":12352,"iterie":12353,"Ġbalade":12354,"ĠKey":12355,"Ġpoliciers":12356,"Bretagne":12357,"Ġhi":12358,"tto":12359,"ĠLitte":12360,"ĠMod":12361,"erson":12362,"Har":12363,"Ġferont":12364,"ĠJim":12365,"Vendre":12366,"servatoire":12367,"ĠLen":12368,"Ġblanches":12369,"Ġreje":12370,"Ġgla":12371,"quants":12372,"bio":12373,"Groupe":12374,"ĠConte":12375,"Ġissu":12376,"ustration":12377,"Ġfiscale":12378,"ymn":12379,"Ġprofils":12380,"Ġsusceptibles":12381,"tudios":12382,"ĠEncore":12383,".:":12384,"ĠManager":12385,"ĠTraitement":12386,"ĠGraph":12387,"reuse":12388,"Ali":12389,"ĠBah":12390,"bdom":12391,"Ecole":12392,"ĠFrom":12393,"Ġmodel":12394,"Ġchapelle":12395,"OX":12396,"xim":12397,"Ġconstante":12398,"ĠBourse":12399,"Ġcouture":12400,"Parti":12401,"ĠMili":12402,"vince":12403,"quine":12404,"flexions":12405,"mante":12406,"Ġlame":12407,"ĠAutomne":12408,"Cro":12409,"nages":12410,"vacuation":12411,"Vin":12412,"Ġrit":12413,"Ġdrape":12414,"ASSE":12415,"Ġmad":12416,"volutions":12417,"Ġtouristes":12418,"hes":12419,"obi":12420,"Ġcamion":12421,"kes":12422,"ĠCry":12423,"ĠJui":12424,"ĠChauffage":12425,"Ġprospe":12426,"TU":12427,"autonomie":12428,"Ġcanalisations":12429,"Ġalso":12430,"ĠLibe":12431,"oyenne":12432,"agny":12433,"wi":12434,"ĠBoule":12435,"ĠRoad":12436,"Ġtext":12437,"ombres":12438,"Ġbol":12439,"inspiration":12440,"ancement":12441,"ĠJane":12442,"intention":12443,"film":12444,"108":12445,"ĠEu":12446,"ĠLeague":12447,"ĠConvention":12448,"velines":12449,"Ġcristal":12450,"rault":12451,"Ġtenant":12452,"AIR":12453,"UG":12454,"rake":12455,"Ġbourse":12456,"Ġsep":12457,"Ġatmosphe":12458,"mire":12459,"SUR":12460,"oxe":12461,"extension":12462,"ĠChampionnat":12463,"Dist":12464,"CTION":12465,"oung":12466,"Ġfavorise":12467,"ĠSoire":12468,"Ġremarquable":12469,"Ġprochains":12470,"ophones":12471,"Ġvenant":12472,"ĠMare":12473,"ĠVirgin":12474,"Ġ''":12475,"Ġnoix":12476,"Ġjoy":12477,"tens":12478,"Lang":12479,"ĠVent":12480,"ovi":12481,"affichage":12482,"Ġrace":12483,"osh":12484,"Ġvocation":12485,"ĠDame":12486,"Ġ046":12487,"Ġhoraire":12488,"Ġaugment":12489,"ĠRio":12490,"Ġdin":12491,"Ø¨":12492,"Ġrass":12493,"ĠMagazine":12494,"Ġrecrute":12495,"Ġled":12496,"ua":12497,"Eglise":12498,"franc":12499,"spe":12500,"Ġcass":12501,"Ġoce":12502,"Ġfaisons":12503,"ĠAcade":12504,"Google":12505,"Ġlocalite":12506,"ĠFI":12507,"licieux":12508,"well":12509,"BI":12510,"Ġfantastique":12511,"Ġdisques":12512,"ĠKm":12513,"mel":12514,"ĠDocteur":12515,"Ġtienne":12516,"Ġ1977":12517,"Ġissue":12518,"Ġinvestisseurs":12519,"Ġliaison":12520,"Devis":12521,"Ġdesigner":12522,"leuve":12523,"Ġconfirmer":12524,"9999":12525,"Ġcombats":12526,"Ġmarchandises":12527,"ĠTravaux":12528,"ops":12529,"cisme":12530,"Cuisine":12531,"Ġchimiques":12532,"NI":12533,"Formation":12534,"HT":12535,"Ġapprouve":12536,"lade":12537,"UNE":12538,"Ġouvri":12539,"ĠMuseum":12540,"ÃŁ":12541,"Ġtechniciens":12542,"ĠWars":12543,"HP":12544,"acifique":12545,"ski":12546,"ĠMetz":12547,"ĠOriginal":12548,"Ġchinoise":12549,"Vos":12550,"ĠCame":12551,"ĠSoldes":12552,"oises":12553,"rt":12554,"Ġpaquet":12555,"ditation":12556,"Ġpublications":12557,"Ġtheir":12558,"ĠKa":12559,"ĠCanal":12560,"ĠBau":12561,"atible":12562,"ĠKn":12563,"elly":12564,"watch":12565,"Ġ114":12566,"Ġprofesseurs":12567,"Ġfermer":12568,"Ġsrc":12569,"giti":12570,"ĠTag":12571,"earch":12572,"diff":12573,"resh":12574,"Ġconfirmation":12575,"onds":12576,"Ġpermanente":12577,"quest":12578,"ĠInformatique":12579,"pse":12580,"Dou":12581,"center":12582,"ĠROU":12583,"ĠSimple":12584,"bay":12585,"enfance":12586,"Ġindiquer":12587,"GP":12588,"Ġ1973":12589,"Ġ1971":12590,"ĠRis":12591,"Espace":12592,"223":12593,"office":12594,"Ġtypique":12595,"ĠNuit":12596,"culation":12597,"Ġphilosoph":12598,"ĠDijon":12599,"cris":12600,"Ġpourrais":12601,"ingue":12602,"Ġressor":12603,"orteur":12604,"cipation":12605,"Ġtap":12606,"Ġmaillot":12607,"guise":12608,"pra":12609,"Ġalbums":12610,"Ġdisposent":12611,"Ġsensibles":12612,"Ġrendent":12613,"gerie":12614,"ĠTran":12615,"gulier":12616,"uck":12617,"ĠPull":12618,"Ġ116":12619,"Ġfail":12620,"ĠDeu":12621,"Ġjouets":12622,"Ġfiction":12623,"llent":12624,"Ġmang":12625,"ĠVenise":12626,"ĠMS":12627,"Ġavais":12628,"ĠCaroline":12629,"Ġdispute":12630,"ĠCF":12631,"hau":12632,"ĠUni":12633,"Ġpousser":12634,"ĠBijoux":12635,"ĠAnnonces":12636,"Ġgrosses":12637,"oiseau":12638,"Ġincontournable":12639,"ĠDANS":12640,"Ġhautes":12641,"Ġeffort":12642,"partemental":12643,"uret":12644,"Ġ).":12645,"Ġmerveilleux":12646,"oroute":12647,"Ġalig":12648,"Ġponct":12649,"lera":12650,"Dernier":12651,"Ġ1972":12652,"áħ¡":12653,"ocuments":12654,"Ġaddition":12655,"alk":12656,"LM":12657,"Ġdiversi":12658,"ĠAnsw":12659,"Ġconformite":12660,"Ġfigur":12661,"ĠMoulin":12662,",.":12663,"Ġsportives":12664,"Ġlicencie":12665,"Ġhabite":12666,"issan":12667,"Ġgam":12668,"artier":12669,"terne":12670,"tination":12671,"Ġcinquie":12672,"Ġcorrect":12673,"Ġdocteur":12674,"ĠMam":12675,"ĠMerlin":12676,"Ġparadis":12677,"ĠBOU":12678,"Sport":12679,"olles":12680,"ĠNa":12681,"nette":12682,"ĠDonne":12683,"Ġmilieux":12684,"AIS":12685,"ĠCeux":12686,"Ġillimite":12687,"ĠLaval":12688,"Ġcontract":12689,"odie":12690,"ĠVid":12691,"Ġaiment":12692,"Ġtalents":12693,"archie":12694,"ĠTransport":12695,"kins":12696,"My":12697,"ĠOK":12698,"vasion":12699,"ouvement":12700,"Ġauthentique":12701,"glable":12702,"iiii":12703,"ĠCook":12704,"Ġdestruction":12705,"Ġconsomme":12706,"Ġmarchand":12707,"Ġvisibilite":12708,"door":12709,"Jose":12710,"autique":12711,"conc":12712,"Ġminerai":12713,"Ze":12714,"Ġfrancs":12715,"tenues":12716,"ĠTai":12717,"Salut":12718,"Ġms":12719,"Ġparagra":12720,"Oh":12721,"Ġromans":12722,"Ġfondation":12723,"ĠId":12724,"Ġsupporte":12725,"larg":12726,"Trois":12727,"Ġralenti":12728,"Ġviolences":12729,"Ġpollution":12730,"nieurs":12731,"Ġroyal":12732,"ĠHai":12733,"ĠCOR":12734,"ĠSocial":12735,"Ġprolong":12736,"ficiez":12737,"ĠLine":12738,"ĠNEU":12739,"Ġdoctor":12740,"Ġdedans":12741,"onais":12742,"ĠBalance":12743,"ĠJun":12744,"ĠAle":12745,"Ġappu":12746,"anniversaire":12747,"ĠAsie":12748,"Ġrestera":12749,"grale":12750,"ĠPoids":12751,"Azur":12752,"ĠPuy":12753,"Ġstore":12754,"Prin":12755,"Ġgreat":12756,"ampe":12757,"ĠConstitution":12758,"Ġ118":12759,"ocke":12760,"ĠManger":12761,"Ġrun":12762,"fen":12763,"Ġscru":12764,"Ġconven":12765,"115":12766,"Asie":12767,"Ġvoter":12768,"ĠNoire":12769,"med":12770,"ĠSchool":12771,"ged":12772,"ĠGood":12773,">,":12774,"ĠConver":12775,"ĠGour":12776,"Ġcampagnes":12777,"Ġtirage":12778,"Ġanalyses":12779,"Ĺı":12780,"ĠOP":12781,"neuf":12782,"zed":12783,"Ġamoureuse":12784,"Ġvolant":12785,"antiers":12786,"stan":12787,"Ġfournis":12788,"ĠMercedes":12789,"ĠPrincip":12790,"lav":12791,"humidite":12792,"Ġsuici":12793,"emples":12794,"illac":12795,"Ġfenetre":12796,"Ġmanifest":12797,"ĠÂ£":12798,"Ġhad":12799,"toi":12800,"313":12801,"Ġactu":12802,"ough":12803,"ĠStade":12804,"ssant":12805,"Ġsn":12806,"xie":12807,"Cli":12808,"avril":12809,"entier":12810,"ĠCru":12811,"location":12812,"GL":12813,"dim":12814,"mnite":12815,"Supprimer":12816,"ML":12817,"Ġfaciles":12818,"}<":12819,"ouson":12820,"),<":12821,"liv":12822,"ĠWel":12823,"rentiel":12824,"iette":12825,"Ġarte":12826,"expl":12827,"ĠTokyo":12828,"Annonce":12829,"humour":12830,"had":12831,"Ġviole":12832,"ĠDigital":12833,"mars":12834,"Ġlaure":12835,"Ġvertic":12836,"Aux":12837,"Ġsexuelle":12838,"Ġfiches":12839,"Ġarrivent":12840,"HO":12841,"ambou":12842,"Ġmone":12843,"Ġwere":12844,"Ġaimez":12845,"Ġexistent":12846,"áħ®áĨ":12847,"116":12848,"rendu":12849,"Ġrembour":12850,"Ġrate":12851,"Ġquad":12852,"Ġpermanence":12853,"Ġtemplate":12854,"allage":12855,"olite":12856,"Ġ1974":12857,"ĠFilms":12858,"Ġmonsieur":12859,"Ġcanadienne":12860,"Ġaustra":12861,"cili":12862,"glage":12863,"Ġday":12864,"AUT":12865,"Ġinterroge":12866,"rection":12867,"Ġsatellite":12868,"Ġprouve":12869,"ĠVolume":12870,"Ġanth":12871,"Ġmourir":12872,"Ġfixer":12873,"ĠFene":12874,"Ġsimplicite":12875,"âĢĿ.":12876,"Ġpassagers":12877,"islam":12878,"apparition":12879,"ingle":12880,"Ġ1500":12881,"Politique":12882,"ĠDemande":12883,"rats":12884,"Ġ113":12885,"Ġ3000":12886,"Ġcouv":12887,"Ġsoeur":12888,"âĻ¥":12889,"Ġheureuse":12890,"pm":12891,"Chez":12892,"align":12893,"ĠIT":12894,"tica":12895,"Ġcore":12896,"Room":12897,"Ġjournaux":12898,"Ġofferts":12899,"Ġcog":12900,"Ġhall":12901,"\":[\"":12902,"serves":12903,"adou":12904,"glises":12905,"Ġlots":12906,"akar":12907,"stock":12908,"Ġsavons":12909,"ength":12910,"áĦĤ":12911,"ĠOS":12912,"merie":12913,"ĠContactez":12914,"Ġfinancer":12915,"ĠThai":12916,"ĠSomme":12917,"Ġbur":12918,"ĠFri":12919,"ĠHarry":12920,"bour":12921,"autorisation":12922,"ĠÂ»)":12923,"aily":12924,"Ġlogistique":12925,"Ġpareil":12926,"ĠConstruction":12927,"Ġjac":12928,"rairement":12929,"andra":12930,"Ġsoutient":12931,"tri":12932,"clusion":12933,"uivez":12934,"dac":12935,"opinion":12936,"301":12937,"Ġgentil":12938,"ENTRE":12939,"sal":12940,"Ġroue":12941,"Ġmaster":12942,"abs":12943,"ĠBrig":12944,"Web":12945,"Ġtransporte":12946,"itie":12947,"ĠFas":12948,"iber":12949,"Ġmesurer":12950,"Ġconcession":12951,"Ġcommunautaire":12952,"Suite":12953,"indow":12954,"Ġnavire":12955,"ados":12956,"sidentiel":12957,"riculum":12958,"Ġgarantit":12959,"ĠPel":12960,"zaine":12961,"Ġenvies":12962,"Ġcitoyen":12963,"Ġ1940":12964,"Ġpaille":12965,"Commentaires":12966,"onsoir":12967,"anniques":12968,"Ġbracelet":12969,"rakech":12970,"Ġjury":12971,"VEN":12972,"Ġsachant":12973,"rough":12974,"ĠFut":12975,"ooter":12976,"ried":12977,"Ġ170":12978,"ĠWeek":12979,"ĠSilver":12980,"vance":12981,"Ġobligation":12982,"AULT":12983,"Ġpseudo":12984,"Ġhabituellement":12985,"his":12986,"AMB":12987,"Ġaventures":12988,"ĠTourn":12989,"ĠArc":12990,"ĠEast":12991,"ntario":12992,"Ġcombles":12993,"Classement":12994,"Roy":12995,"Ġmauvaises":12996,"Ġdiminuer":12997,"Ġflot":12998,"Ġconjug":12999,"Cer":13000,"Ġpav":13001,"Ġ230":13002,"YL":13003,"ĠMedia":13004,"bf":13005,"avaient":13006,"video":13007,"Ġdigital":13008,"Ġspacie":13009,"ĠLauren":13010,"Ġpoulet":13011,"ĠVietnam":13012,"Ġmout":13013,"entiste":13014,"Log":13015,"Ġhabitation":13016,"entend":13017,"Ġsangu":13018,"Ġouverts":13019,"ĠExterieur":13020,"ĠHugo":13021,"ctrice":13022,"rablement":13023,"Lot":13024,"Ġfirst":13025,"ĠSix":13026,"Ġrugby":13027,"gociation":13028,"nig":13029,"dication":13030,"114":13031,"dos":13032,"Ġsalut":13033,"Ġinterview":13034,"ĠEff":13035,"Ġdouze":13036,"ĠâĢĿ":13037,"Ġtrains":13038,"offres":13039,"ĠVieux":13040,"ĠTay":13041,"ĠTy":13042,"Ġviews":13043,"Bienvenue":13044,"uage":13045,"Ġdonnera":13046,"Ġmaritime":13047,"Ġdirectrice":13048,"~~~~":13049,"Ġcliquer":13050,"document":13051,"Ġgale":13052,"Organisation":13053,"Ġtabac":13054,"ĠAnaly":13055,"Ġtrouv":13056,"rari":13057,"FORM":13058,"armes":13059,"ĠHub":13060,"Prof":13061,"QL":13062,"ĠMount":13063,"ĠNan":13064,"mmes":13065,"ĠGuer":13066,"WS":13067,"Ġimmobiliers":13068,"ĠEscarpins":13069,"ĠHall":13070,"Guide":13071,"ĠLongueur":13072,"Ġperspectives":13073,"Ġpapa":13074,"gol":13075,"ĠSteph":13076,"puise":13077,"ĠNy":13078,"aisses":13079,"amsung":13080,"Sinon":13081,"gyp":13082,"Ġ119":13083,"Ġcondensation":13084,"arise":13085,"ĠCass":13086,"ĠTableau":13087,"Ġfaim":13088,"gare":13089,"Ġsingle":13090,"Ġserrures":13091,"tifiant":13092,"ĠZone":13093,"entiques":13094,"tein":13095,"Ġparts":13096,"Ok":13097,"ĠSolid":13098,"lib":13099,"Ġmobilisation":13100,"Ġferrovi":13101,"Ġinscrire":13102,"Ġhis":13103,"isseur":13104,"Ġstages":13105,"Ġcommencent":13106,"Ġprovoquer":13107,"issons":13108,"Ġnoires":13109,"Ġdiscri":13110,"ayez":13111,"emball":13112,"meurs":13113,"Ġroyale":13114,"yt":13115,"Ġpun":13116,"Ġbourg":13117,"Ġassurances":13118,"Ġenvah":13119,"lantation":13120,"Ġlectures":13121,"ĠSn":13122,"Ġfiscal":13123,"Ġinoxydable":13124,"Ġmilliard":13125,"Ġetudi":13126,"Ġfixation":13127,"ĠDivers":13128,"acc":13129,"mw":13130,"ĠKong":13131,"Ġparcs":13132,"Ġany":13133,"berry":13134,"ifier":13135,"reurs":13136,"Ġculte":13137,"Ġlove":13138,"Ġvendus":13139,"arb":13140,"Ġ},":13141,"ĠAre":13142,"ĠGuine":13143,"Ġvoisin":13144,"002":13145,"......":13146,"source":13147,"Ġtag":13148,"Ġcoproprie":13149,"rudence":13150,"ĠOh":13151,"anth":13152,"Ġtransparence":13153,"Ġsons":13154,"ĠBrit":13155,"lein":13156,"arifs":13157,"ober":13158,"Ġtriste":13159,"inscrit":13160,"Ìģ)<":13161,"ticien":13162,"109":13163,"306":13164,"press":13165,"pices":13166,"Ġprovisoire":13167,"Ġpratiquer":13168,"ĠBrest":13169,"Ġauxquels":13170,"ativement":13171,"Ġdating":13172,"103":13173,"Ġconstruite":13174,"Ġbroyage":13175,"teries":13176,"Ġraccorde":13177,"clarations":13178,"Ġfores":13179,"rille":13180,"ĠNathalie":13181,"onna":13182,"ĠâĪ":13183,"Ġexpositions":13184,"Ġrespectivement":13185,"quets":13186,"ĠSpor":13187,"ĠÃĹ":13188,"ĠRUE":13189,"Ġwifi":13190,"ĠJO":13191,"ĠCalifornie":13192,"Ġcorrige":13193,"censeur":13194,"Vi":13195,"insp":13196,"parole":13197,"pente":13198,"ĠLut":13199,"ĠCorps":13200,"Ġfantas":13201,"amis":13202,"ĠJava":13203,"loween":13204,"Ġcommuns":13205,"Ġago":13206,"Ġhousse":13207,"Ġ???":13208,"agascar":13209,"dentes":13210,"altitude":13211,"sche":13212,"Ġrenomme":13213,"Ġjuridiques":13214,"Ġamende":13215,"IERS":13216,"ĠLimite":13217,"Ġciment":13218,"Ache":13219,"ĠðŁĻĤ<":13220,"gral":13221,"Ġcombus":13222,"leste":13223,"Ġrafrai":13224,"GV":13225,"Ġstart":13226,"tele":13227,"hoo":13228,"Ġfranco":13229,"Ġmuscles":13230,"Livre":13231,"Ġprofessionn":13232,"Stock":13233,"adapte":13234,"loupe":13235,"ĠInstitut":13236,"Ġtrous":13237,"Ġarchitecture":13238,"Ġformid":13239,"Ġdies":13240,"ĠDonald":13241,"assure":13242,"ulteurs":13243,"jax":13244,"Ġbreak":13245,"ĠFern":13246,"ĠFait":13247,"Ġlanc":13248,"wiki":13249,"Ġ1920":13250,"sit":13251,"Ġcompt":13252,"Ġpourcent":13253,"ĠComple":13254,"iga":13255,"ÑģÑĤ":13256,"Ġannule":13257,"Ġcure":13258,"Ġcompetences":13259,"ultane":13260,"ĠRandonne":13261,"Amazon":13262,"Ġperpe":13263,"ĠImprime":13264,"Ġassistant":13265,"Ġanimations":13266,"Ġplur":13267,"Ques":13268,"hom":13269,"Ġ128":13270,"Â§":13271,"ĠRot":13272,"ĠMort":13273,"rio":13274,"ĠSty":13275,"ĠEditions":13276,"ĠChanger":13277,"Ġhie":13278,"ĠFr":13279,"Ġfeux":13280,"ĠBatterie":13281,"ERN":13282,"Ġserais":13283,"ĠConn":13284,"ĠCm":13285,"Ġamus":13286,"\\'":13287,"Ġsalaires":13288,"Ġraisonnable":13289,"Ġcorrespondent":13290,"Ġhabitudes":13291,"ĠLow":13292,"Ġperso":13293,"bet":13294,"Ġmeur":13295,"Ġ1967":13296,"lites":13297,"IES":13298,"ommaire":13299,"Ġneut":13300,"andon":13301,"Ġcorpore":13302,"Ġdys":13303,"ĠPSG":13304,"Ġpropag":13305,"OUVE":13306,"ference":13307,"ĠSlim":13308,"das":13309,"Ġinvestir":13310,"nin":13311,"ĠSolutions":13312,"Ġpublicitaire":13313,"ĠQuestions":13314,"ĠMit":13315,"ĠPinterest":13316,"Ġball":13317,"ĠChamb":13318,"Ġdiscount":13319,"cast":13320,"Ġexpress":13321,"nierie":13322,"Ġhuiles":13323,"Ġroche":13324,"ĠSweat":13325,"ido":13326,"tico":13327,"ĠBran":13328,"ĠCertaines":13329,"ĠPompe":13330,"organiser":13331,"inette":13332,"Ġathle":13333,"Url":13334,"Ġseules":13335,"oliday":13336,"ĠCul":13337,"ĠQUE":13338,"Ġadministration":13339,"149":13340,"lag":13341,"Ġgrise":13342,"290":13343,"Ġ117":13344,"Ġgendar":13345,"Ġnuis":13346,"intelligence":13347,"ĠConception":13348,"ulf":13349,"ĠUV":13350,"*,":13351,"Ġperles":13352,"Ġverra":13353,"bride":13354,"avie":13355,"ĠChemise":13356,"PU":13357,"oko":13358,"Ġchris":13359,"criptif":13360,"andy":13361,"gulation":13362,"Ġtemple":13363,"ĠInformation":13364,"voles":13365,"chausse":13366,"ĠRC":13367,"ĠSavoie":13368,"Ġregrette":13369,"Dimensions":13370,"Ġprotocole":13371,"Parmi":13372,"ĠJE":13373,"Ġseg":13374,"Ġnourris":13375,"Ġaccords":13376,"robe":13377,"tresse":13378,"ĠAND":13379,"ĠAudio":13380,"immer":13381,"Israe":13382,"Ġassor":13383,"Ġmural":13384,"Ġampli":13385,"Accessoires":13386,"tta":13387,"Ġpote":13388,"Ġration":13389,"Ġjazz":13390,"athan":13391,"avoue":13392,"ĠTend":13393,"ĠFun":13394,"Ġinitiative":13395,"Ġnull":13396,"Ġinox":13397,"135":13398,"ĠChoisir":13399,"Ġdune":13400,"Ġhorm":13401,"Ġbarrie":13402,"Ġcimetie":13403,"cheurs":13404,"ĠDH":13405,"Ġstabili":13406,"Ġabonnement":13407,"ĠCau":13408,"parti":13409,"Ġpsychologique":13410,"container":13411,"moin":13412,"119":13413,"ĠDS":13414,"ĠBoots":13415,"itude":13416,"ĠTerrain":13417,"FM":13418,"onore":13419,"nos":13420,"ĠBeaute":13421,"ĠTrouvez":13422,"ĠLongues":13423,"licate":13424,"wagen":13425,"Album":13426,"ĠLorraine":13427,"Ġreligieuse":13428,"Ġduc":13429,"ĠCaracte":13430,"Ġmutuelle":13431,"ĠJones":13432,"menter":13433,"Tit":13434,"ranger":13435,"Vendredi":13436,"Ġchargement":13437,"Ġconcurrents":13438,"ĠPLUS":13439,"Ġadjoint":13440,"Proble":13441,"ĠBand":13442,"Ġvingtaine":13443,"ĠVerre":13444,"Ġ1969":13445,"dette":13446,"Ġvoient":13447,"ĠBol":13448,"Tw":13449,"Ġouest":13450,"Comte":13451,"opro":13452,"ĠMoins":13453,"Ġconvaincre":13454,"Ġmalades":13455,"lior":13456,"107":13457,"soci":13458,"Ġdivorce":13459,"sines":13460,"Bat":13461,"128":13462,"derie":13463,"ĠSof":13464,"Ġcontributions":13465,"Ġactuelles":13466,"miques":13467,"ĠSL":13468,"Ġinformer":13469,"ĠBAR":13470,"102":13471,"Ope":13472,"ĠOrient":13473,"envie":13474,"Ġmanager":13475,"sec":13476,"omon":13477,"Ġny":13478,"Ġrall":13479,"ĠSpring":13480,"Ġcredit":13481,"Ġformats":13482,"ĠFrancisco":13483,"Belle":13484,"ĠCup":13485,"Ġvoyant":13486,"vitation":13487,"ardie":13488,"ĠSNCF":13489,"Ġpig":13490,"mu":13491,"troite":13492,"ĠCaen":13493,"gets":13494,"Ġrecharge":13495,"GN":13496,"osses":13497,"Ġexperience":13498,"Ġabsence":13499,"Ġvenait":13500,"Ġincap":13501,"Ġbooks":13502,"Ġ048":13503,"ANE":13504,"ãĤĻ":13505,"impose":13506,"ĠTennis":13507,"Ġnage":13508,"fred":13509,"annuaire":13510,"News":13511,"Ġbail":13512,"Ġaccus":13513,"Ġincom":13514,"ĠNiveau":13515,"ĠCharge":13516,"Ġplanification":13517,"Ġlourde":13518,"Ġsoutenu":13519,"Ġpist":13520,"ĠDiff":13521,"Ġtic":13522,"Ġplainte":13523,"Ġenlever":13524,"rions":13525,"Ġinex":13526,"adeloupe":13527,"Ġmenuis":13528,"Ġiv":13529,"Ġsovie":13530,"ĠQuels":13531,"bergements":13532,"Ġfaculte":13533,"Ġvulne":13534,"ĠForme":13535,"INES":13536,"ĠChicago":13537,"Ġfavor":13538,"coule":13539,"ĠMak":13540,"Ġcomportements":13541,"Ġbrillant":13542,"ĠASS":13543,"ĠPy":13544,"Cependant":13545,"ĠBit":13546,"atistique":13547,"Ġinstructions":13548,"Ġpreuves":13549,"Ġcyc":13550,"Ġother":13551,"AX":13552,"DU":13553,"uster":13554,"rint":13555,"anique":13556,"124":13557,"expertise":13558,"Ġintellectuelle":13559,"Ġhect":13560,"Ġclos":13561,"IK":13562,"obligation":13563,"Ġcuire":13564,"Ir":13565,"ĠDin":13566,"ĠAFP":13567,"ildren":13568,"opie":13569,"ricole":13570,"ULT":13571,"OTRE":13572,"onnaie":13573,"ĠPeugeot":13574,"ĠER":13575,"Ġtechnologique":13576,"Ġchampions":13577,"006":13578,"Ġmait":13579,"Ġordinaire":13580,"ĠChrome":13581,"ignant":13582,"ĠBenjamin":13583,"Partager":13584,"Ġrempli":13585,"Ġgay":13586,"BS":13587,"ĠLundi":13588,"Ġposter":13589,"Station":13590,"ĠGarde":13591,"ĠFN":13592,"acile":13593,"Ġsyndicats":13594,"Ġchirurgie":13595,"ĠVo":13596,"ĠPur":13597,"340":13598,"ĠStrate":13599,"Ġhorizont":13600,"Ġrassemb":13601,"tio":13602,"Ġjeter":13603,"Ġds":13604,"post":13605,"Ġbateaux":13606,"ficateur":13607,"Ġteinte":13608,"ĠGarage":13609,"Atelier":13610,"ĠEDF":13611,"Ġapparaissent":13612,"Ġpauvrete":13613,"ikipedia":13614,"brer":13615,"Ġconsoli":13616,"ĠAug":13617,"ĠProduction":13618,"ĠEnvironnement":13619,"Ġamazon":13620,"Ġcart":13621,"Ġpix":13622,"clage":13623,"Ġaient":13624,"Ġcitation":13625,"venture":13626,"grir":13627,"Ġexterieur":13628,"gance":13629,"pice":13630,"Ùİ":13631,"Ġmyth":13632,"ĠMartine":13633,"Ġparticularite":13634,"onnage":13635,"dice":13636,"ĠBande":13637,"quemment":13638,"ird":13639,"ĠProble":13640,"tigny":13641,"Cle":13642,"hl":13643,"ĠJulie":13644,"ĠRomain":13645,"Ġbottes":13646,"ĠRechercher":13647,"Ġentour":13648,"ĠEc":13649,"Ġworld":13650,"signer":13651,"Ġtrucs":13652,"ming":13653,"creen":13654,"Ġserveurs":13655,"DH":13656,"ĠWall":13657,"Ġsensibilite":13658,"sch":13659,"outils":13660,"octobre":13661,"onen":13662,"Ġintra":13663,"Ġexploite":13664,"Ġserai":13665,"Cat":13666,"Ġsome":13667,"Ġ$(\"#":13668,"Meuble":13669,"136":13670,"Ġcarburant":13671,"Ġapres":13672,"Ġvive":13673,"ĠYour":13674,"ĠIM":13675,"Ġgagnant":13676,"Ġrelever":13677,"Ġobserv":13678,"ĠTotal":13679,"chine":13680,"gnon":13681,"Ġpeople":13682,"barrasser":13683,"Ġjouent":13684,"Faites":13685,"ritage":13686,"ĠDragon":13687,"club":13688,"informatique":13689,"opsis":13690,"Ġdessert":13691,"origin":13692,"Ġnice":13693,"ristique":13694,"ĠNie":13695,"Ġmoral":13696,"Ġconsac":13697,"Ġsanction":13698,"ĠJeudi":13699,"ĠNiger":13700,"ĠBertrand":13701,"Ġ........":13702,"ĠRiver":13703,"008":13704,"iosite":13705,"ĠGabriel":13706,"ĠCot":13707,"oselle":13708,"750":13709,"ĠInternation":13710,";&":13711,"ĠRapport":13712,"dar":13713,"ĠLaisser":13714,"118":13715,"ĠIss":13716,"Ġtrouble":13717,"accent":13718,"Ġ;-":13719,"ĠXavier":13720,"Ġlyon":13721,"ĠFred":13722,"culaires":13723,"YN":13724,"Ġprincesse":13725,"gralite":13726,"Gene":13727,"accept":13728,"Ġexclusif":13729,"tariat":13730,"Ġvoyez":13731,"Ġexpression":13732,"ĠStra":13733,"Ġ190":13734,"finie":13735,"mac":13736,"ÌĢ.<":13737,"ĠCome":13738,"ĠRaymond":13739,"lisabeth":13740,"Ġportug":13741,"ĠBoy":13742,"Sav":13743,"Ø³":13744,"UBL":13745,"modi":13746,"Ġtun":13747,"Ġenregistrer":13748,"Ġpermettront":13749,"Ġofficiels":13750,"ĠMairie":13751,"glige":13752,"330":13753,"Attention":13754,"Ġcamb":13755,"ĭáħ":13756,"ĠBienvenue":13757,"ĠWik":13758,"Ġpantalon":13759,"\"},\"":13760,"Ġprostitue":13761,"Ġconsommateur":13762,"Ġsages":13763,"ĠAge":13764,"lv":13765,"options":13766,"Press":13767,"Ġvernis":13768,"280":13769,"Ġchimique":13770,"nais":13771,"oges":13772,"alogues":13773,"ĠRS":13774,"Info":13775,"orange":13776,"ronic":13777,"Rue":13778,"Norm":13779,"ĠLyce":13780,"Ġcommunications":13781,"Ġcliche":13782,"ĠPoser":13783,"anny":13784,"Ġgestes":13785,"aurer":13786,"oque":13787,"Syn":13788,"Ġpapiers":13789,"LO":13790,"ĠSinon":13791,"ĠAur":13792,"XT":13793,"ĠResponsable":13794,"ĠRobes":13795,"acier":13796,"Imm":13797,"Ġbalance":13798,"Ġvoyageur":13799,"Ġfausse":13800,"ĠExper":13801,"oristes":13802,"attendre":13803,"organ":13804,"hem":13805,"Ġtraditionnels":13806,"Ġcoordination":13807,"lienne":13808,"Ġrattache":13809,"ĠAdap":13810,"sidences":13811,"aisant":13812,"Ġromantique":13813,"quat":13814,"Ġescalier":13815,"Ùģ":13816,"life":13817,"ĠOpe":13818,"Ġdevrez":13819,"Ġfrein":13820,"Ġrecueilli":13821,"ghan":13822,"Ġdigne":13823,"ĠRic":13824,"Ġrecueil":13825,"housias":13826,"ĠLui":13827,"ĠCadeau":13828,"Ġcircuits":13829,"Ġalu":13830,"ĠAllemand":13831,"Ġindire":13832,"roulement":13833,"ĠGirl":13834,"AGES":13835,"ĠCr":13836,"rieurement":13837,"ĠAucune":13838,"ĠSaf":13839,"Ġhere":13840,"ĠFeb":13841,"Ġretenir":13842,"Ġexplications":13843,"phy":13844,"ANTE":13845,"Ġconversion":13846,"Ġissues":13847,"journe":13848,"Ġtexture":13849,"RY":13850,"sulte":13851,"ĠBie":13852,"olive":13853,"Ġvies":13854,"Ġremor":13855,"Ġloue":13856,"Ġpensent":13857,"ĠVAL":13858,"Bal":13859,"âĢł":13860,"search":13861,"risation":13862,"ressants":13863,"ï¸":13864,"astre":13865,"Ġparisienne":13866,"ĠDepannage":13867,"Ġmee":13868,"Ġcaoutchouc":13869,"fault":13870,"ĠID":13871,"grave":13872,"dl":13873,"ĠChristine":13874,"Amb":13875,"attle":13876,"AGNE":13877,"ĠMoteur":13878,"ĠEve":13879,"criv":13880,"ĠSin":13881,"Ġremarquer":13882,"ĠParking":13883,"ĠISO":13884,"Ìģ!":13885,"({":13886,"kswagen":13887,"ging":13888,"Ġremonter":13889,"afil":13890,"Ġquelconque":13891,"ĠJet":13892,"ssent":13893,"RET":13894,"Ġlocataire":13895,"Ġpositifs":13896,"chapper":13897,"Historique":13898,"ustre":13899,"aillon":13900,"Ġpayant":13901,"Contact":13902,"nab":13903,"Antoine":13904,"caniques":13905,"***":13906,"ĠGod":13907,"Ġexport":13908,"ĠLeon":13909,"Ġlocalisation":13910,"ree":13911,"encre":13912,"ĠCOU":13913,"free":13914,"usse":13915,"Ġindispensables":13916,"ika":13917,"Rom":13918,"ĠCompagnie":13919,"lax":13920,"ĠMathieu":13921,"Ġinitial":13922,"Ġoriginaux":13923,"ploiement":13924,"ĠePub":13925,"ĠHabit":13926,"Ġmarquer":13927,"cennies":13928,"ĠAuvergne":13929,"Ġok":13930,"Ġparlent":13931,"wei":13932,"ģİ":13933,"ĠiPad":13934,"ĠManche":13935,"Ġpratiquement":13936,"Temps":13937,"Ġautonomie":13938,"ĠDecoration":13939,"ceptions":13940,"ĠÐ¿":13941,"teux":13942,"Ġprovenance":13943,"ĠLieu":13944,"Dimanche":13945,"Ġrive":13946,"Ġbranches":13947,"Ġcellule":13948,"UST":13949,"ĠChemin":13950,"interme":13951,"Ġchair":13952,"erlandais":13953,"ĠDev":13954,"Socie":13955,"Int":13956,"adoption":13957,"ĠSat":13958,"Ġnettement":13959,"ĠPasse":13960,"oooo":13961,"ĠEC":13962,"Ġrappele":13963,"ĠFauteuil":13964,"Ġstationnement":13965,"Ġsize":13966,"Aide":13967,"Item":13968,"temp":13969,"Ġattente":13970,"ĠYouTube":13971,"Ġphotographies":13972,"ĠPerformance":13973,"ontane":13974,"Ġoreilles":13975,"ĠBulle":13976,"oivent":13977,"Ġjaponaise":13978,"Ġoptimale":13979,"Ġdiffuser":13980,"cks":13981,"Ġenc":13982,"ĠSOL":13983,"Ġcanon":13984,"merica":13985,"acun":13986,"ĠMessages":13987,"Ġassistance":13988,"appliquer":13989,"default":13990,"Ġ()<":13991,"Apple":13992,"emballage":13993,"uilding":13994,"nature":13995,"mod":13996,"ĠVictoria":13997,"ĠHill":13998,"Aucun":13999,"ument":14000,"angerie":14001,"Ġagit":14002,"alt":14003,"Ġsuivie":14004,"ĠMardi":14005,"avas":14006,"ictures":14007,"voye":14008,"MENTS":14009,"Rapport":14010,"tendu":14011,"Ġcrime":14012,"relle":14013,"ĠAsics":14014,"Ġvainqueur":14015,"PM":14016,"hre":14017,"ĠArtisan":14018,"canismes":14019,"ĠTribunal":14020,"ĠYann":14021,"ĠEcole":14022,"amitie":14023,"ĠVrai":14024,"onnements":14025,"Ġmiss":14026,"Ġbrou":14027,".Â»<":14028,"ĠProfitez":14029,"Pays":14030,"Ġpharma":14031,"Ġassister":14032,"widget":14033,"Ġ1930":14034,"ÑĢÐ°":14035,"lec":14036,"Ġkms":14037,"monde":14038,"gnant":14039,"partie":14040,"Ġaccompagnement":14041,"Ġvaccin":14042,"ĠYa":14043,"Ġarmoire":14044,"ĠPortable":14045,"sta":14046,"Ġsimultane":14047,"Ġalli":14048,"Ġengagements":14049,"ĠToronto":14050,"Arc":14051,"kina":14052,"Ġculturels":14053,"Ġ135":14054,"ĠTon":14055,"anneau":14056,"Ġflo":14057,"Ġappartenant":14058,"Ġtournage":14059,"aisselle":14060,"\"],\"":14061,"Ġ1914":14062,"fox":14063,"crutement":14064,"Ġchanteuse":14065,"Ġill":14066,"Ġhyd":14067,"cutive":14068,"Mac":14069,"Ġexemplaires":14070,"master":14071,"Ġinitiale":14072,"Ġadopter":14073,"ĠIntroduction":14074,"Ġqualification":14075,"ĠHautes":14076,"rends":14077,"Ġafricaine":14078,"ĠPartie":14079,"ĠOutre":14080,"ĠProduit":14081,"pat":14082,"Ġbravo":14083,"rouge":14084,"ĠNorve":14085,"Jeudi":14086,"Club":14087,"ĠInfo":14088,"Ġhui":14089,"126":14090,"Ġhebdom":14091,"Mad":14092,"Ġâģİ":14093,"ĠPatri":14094,"yons":14095,"Ġrecommander":14096,"tudiante":14097,"Ġ%),":14098,"ĠCloud":14099,"Robe":14100,"IND":14101,"apin":14102,"ĠMots":14103,"race":14104,"Ġcoffret":14105,"Ġbrosse":14106,"ressent":14107,"You":14108,">\\":14109,"...]":14110,"1999":14111,"hydro":14112,"ĠBible":14113,"ĠView":14114,"005":14115,"ĠGAR":14116,"cherches":14117,"Ġange":14118,"111":14119,"Ġfleuve":14120,"onger":14121,"Ġemble":14122,"Ġuniques":14123,"Ġpeintures":14124,"ĠChinois":14125,"sea":14126,"Muse":14127,"Ġshe":14128,"Ġpromis":14129,"ellow":14130,"OSE":14131,"Ġstring":14132,"Ġfoie":14133,"ĠHonda":14134,"athon":14135,"ĠMoz":14136,"Ġbancaires":14137,"Ġrenforcement":14138,"Ġsigner":14139,"Ġdentelle":14140,"Ġcorrection":14141,"Ġane":14142,"artisan":14143,"Ġ(@":14144,"ĠBenoi":14145,"Ġsom":14146,"Ġuniversel":14147,"Ġsaura":14148,"CHER":14149,"Ġbig":14150,"Ġcoule":14151,"Ġdevriez":14152,"ĠHab":14153,"ĠConcasseur":14154,"gorith":14155,"Ġinitiatives":14156,"Ġfrancophone":14157,"ĠTrail":14158,"Ġcourir":14159,"ansion":14160,"Arg":14161,"ĠCentral":14162,"Ġessentiels":14163,"Ġcostume":14164,"Ġmasculin":14165,"LECT":14166,"Ġgars":14167,"âĢĻâĢĻ":14168,"Ġrappro":14169,"ĠFosse":14170,"aven":14171,"Ġracines":14172,"420":14173,"127":14174,"ĠAnimaux":14175,"ĠCastel":14176,"RON":14177,"adow":14178,"rena":14179,"ĠDau":14180,"quation":14181,"ĠHauteur":14182,"Ġactuels":14183,"ĠYam":14184,"Ġ!)":14185,"ĠDum":14186,"pou":14187,"ĠLady":14188,"riller":14189,"Ġhockey":14190,"ebok":14191,"Ġentite":14192,"chel":14193,"Ġconversation":14194,"appli":14195,"Ġchantiers":14196,"ĠBreak":14197,"siter":14198,"finit":14199,"Ġpoupe":14200,"Ġbackground":14201,"Ġpourriez":14202,"Ġext":14203,"NS":14204,"AH":14205,"avocat":14206,"ĠBrand":14207,"Ġusages":14208,"ĠXbox":14209,"donne":14210,"Ġprice":14211,"lated":14212,"Ġtactile":14213,"ĠAcier":14214,"gro":14215,"sk":14216,"ĠCosta":14217,"nifique":14218,"lley":14219,"ĠRalph":14220,"alo":14221,"Ġsoupc":14222,"ĠRacing":14223,"Ġcouvrir":14224,"Ġdramatique":14225,"Ġaidera":14226,"rel":14227,"Ġnuage":14228,"arin":14229,"\"><":14230,"sanne":14231,"Ġ==":14232,"Ġmentale":14233,"Poser":14234,"ĠMira":14235,"Ġ1962":14236,"tish":14237,"Ġpalette":14238,"chettes":14239,"Ġvalidation":14240,"ĠShort":14241,"Ġsubi":14242,"Ġcub":14243,"Ġlex":14244,"exprimer":14245,"Ġvire":14246,"Ġfibres":14247,"dagogiques":14248,"gatif":14249,"Ġdocumentation":14250,"blure":14251,"tonnant":14252,"ĠTissu":14253,"ponibilite":14254,"Maintenant":14255,"Ġmines":14256,"ĠNight":14257,"Ġhand":14258,"CV":14259,"OBIL":14260,"Ġmagist":14261,"ĠMaire":14262,"Ġoriginaire":14263,"Ġlavage":14264,"Atlantique":14265,"Gen":14266,"CB":14267,"panneur":14268,"NT":14269,"ĠRDV":14270,"Ġsoie":14271,"URS":14272,"cb":14273,"tuit":14274,"dicales":14275,"ĠSerrure":14276,"ĠDet":14277,"ilets":14278,"allet":14279,"ĠGet":14280,"Ġcartou":14281,"Ġcroisie":14282,"Ġuniversitaires":14283,"estres":14284,"ĠAure":14285,"Ġpomp":14286,"bite":14287,"inger":14288,"Ġplume":14289,"Ġdoigt":14290,"Pyre":14291,"Ġcourants":14292,"ĠBow":14293,"Ġvoulons":14294,"Ġvarier":14295,"ĠSig":14296,"tus":14297,"pap":14298,"Ġ1944":14299,"illette":14300,"cot":14301,"visionnement":14302,"kel":14303,"Ġnationalite":14304,"ĠBracelet":14305,"oustique":14306,"IIe":14307,"Ġwell":14308,"Ġsemblait":14309,"Suivant":14310,"auty":14311,"ĠPRES":14312,"Esprit":14313,"ajout":14314,"Ġexamine":14315,"Ġcylindre":14316,"Ġthere":14317,"angulaire":14318,"ĠHors":14319,"ĠVO":14320,"Ġmunicipales":14321,"ĠCdiscount":14322,"Ġsouples":14323,"Ġstay":14324,"Ø¹":14325,">âĸ·":14326,"Ġrobes":14327,"ĠChaud":14328,"giment":14329,"ĠMario":14330,"ĠKu":14331,"Ġqueue":14332,"DL":14333,"habitants":14334,"Ġcertification":14335,"Ġ049":14336,"Ġquinze":14337,"Ġabsol":14338,"gionaux":14339,"Ġsurvie":14340,"Ġannonc":14341,"Ġteam":14342,"Ġvariables":14343,"Ġincluant":14344,"ĠJeunesse":14345,"Ġsignaler":14346,"invite":14347,"ĠWestern":14348,"Ġpair":14349,"ĠImpression":14350,"ĠQuelles":14351,"Ġcuisin":14352,"Ġavancer":14353,"reinte":14354,"cq":14355,"Ġolympique":14356,"ZE":14357,"Ġpoursuite":14358,"Ġnations":14359,"ĠVisite":14360,"duisant":14361,"URL":14362,"Ġdieu":14363,"Ġyoga":14364,"ĠAPP":14365,"owe":14366,"Let":14367,"inite":14368,"Blog":14369,"ĠToujours":14370,"Ġsurprises":14371,"pool":14372,"det":14373,"licitations":14374,"crivant":14375,"hide":14376,"ĠRecettes":14377,"otype":14378,"GC":14379,"dres":14380,"Ġplanche":14381,"Expe":14382,"&&":14383,"ĠPier":14384,"Ġbob":14385,"ĠFai":14386,"pter":14387,"ĠKat":14388,"Ġseuil":14389,"Ġ1965":14390,"Mercredi":14391,")[+!+[]":14392,"401":14393,"ĠAuthor":14394,"ĠMeilleures":14395,"nw":14396,"Chauffage":14397,"ĠItali":14398,"Ġsam":14399,"Ġvaisselle":14400,"ĠMohamed":14401,"sement":14402,"Ġrenseigner":14403,"Appe":14404,"Ġtroupe":14405,"ĠChant":14406,"ĠMET":14407,"Ġennemis":14408,"ĠSale":14409,"Trouver":14410,"ĠFranck":14411,"ĠCare":14412,"117":14413,"ĠLettres":14414,"Ġcacher":14415,"international":14416,"Dan":14417,"113":14418,"ĠAmsterdam":14419,"mol":14420,"ï¸ı":14421,"Ġcoloni":14422,"Montre":14423,"ĠDimensions":14424,"Ġdemandent":14425,"Ġfranchement":14426,"Ġmarbre":14427,"Ġabrite":14428,"Ġcenti":14429,"ĠConsultez":14430,"Ġdiminution":14431,"acces":14432,"ĠArthur":14433,"culture":14434,"ĠRadi":14435,"Ġbonjour":14436,"cember":14437,"Mou":14438,"kan":14439,",'":14440,"agissait":14441,"Ġquit":14442,"anteaux":14443,"ĠAtelier":14444,"Ġforex":14445,"Ġalerte":14446,"ĠPlein":14447,"fy":14448,"sante":14449,"tilite":14450,"oussillon":14451,"gante":14452,"ĠTherm":14453,"diteurs":14454,"Hum":14455,"ĠRousse":14456,"fb":14457,"lands":14458,"Ġnoctur":14459,"ĠAT":14460,"artements":14461,"Ġetudiant":14462,"Seu":14463,"')":14464,"limination":14465,"Ġrenseigne":14466,"ove":14467,"landaise":14468,"gene":14469,"animal":14470,"ĠCanon":14471,"Ġservent":14472,"ĠRivie":14473,"Ġsimplifie":14474,"Ġage":14475,"ĠPlombier":14476,"adj":14477,"Ġnoy":14478,"ĠLittle":14479,"Ġanimation":14480,"augmenter":14481,"Ġhol":14482,"Ġoe":14483,"Ġvictoires":14484,"arning":14485,"anas":14486,"Ġgorge":14487,"Ġguider":14488,"480":14489,"ĠToulon":14490,"Arme":14491,"ĠCadre":14492,"460":14493,"Ġsuccession":14494,"Ġvirtuelle":14495,"ints":14496,"Ġfallu":14497,"Ġlibrement":14498,"Ġnavires":14499,"Ġpossession":14500,"Ġ123":14501,"Ġremercier":14502,"Ġtronc":14503,"ĠFich":14504,"tide":14505,"ĠContre":14506,"nn":14507,"Australie":14508,"ĠCompt":14509,"acque":14510,"Ġpsychologie":14511,"ĠHun":14512,"Ġmoule":14513,"Ġtriple":14514,"Ġjolies":14515,"so":14516,"ĠLaw":14517,"Ġongles":14518,"Ġrassure":14519,"Lundi":14520,"Ġpouvaient":14521,"ĠISBN":14522,"Encore":14523,"ĠCheveux":14524,"Ġprobable":14525,"vents":14526,"Foot":14527,"Ġabond":14528,"luie":14529,"ĠRewards":14530,"ĠRond":14531,"Ġrempliss":14532,"Ġbug":14533,"ĠWood":14534,"ĠShop":14535,"Sch":14536,"Iran":14537,"ĠPOL":14538,"Ġthan":14539,"225":14540,"ĠTv":14541,"Ġ1964":14542,"Ġboulevard":14543,"otice":14544,"ders":14545,"ablanc":14546,"Ġimplante":14547,"engager":14548,"Ġenseignement":14549,"Ensuite":14550,"ĠGB":14551,"List":14552,"ĠVas":14553,"objets":14554,"Ġattent":14555,"ĠMercredi":14556,"chron":14557,"Ġautorisation":14558,"diation":14559,"Ġsolidaire":14560,"Ġ1966":14561,"facebook":14562,"Ġroses":14563,"Ġnotice":14564,"Ġcontacte":14565,"Ġmontres":14566,"ĠVS":14567,"Ġtardi":14568,"inez":14569,"ĠProfessionnel":14570,"Ġsaut":14571,"Ġparvient":14572,"Ġlavabo":14573,"Ġlumineuse":14574,"atisation":14575,"stein":14576,"380":14577,"Ġcentaine":14578,"dc":14579,"design":14580,"Ġincendie":14581,"balleur":14582,"Ġprophe":14583,"gimes":14584,"Nicolas":14585,"raliste":14586,"Ġcardiaque":14587,"Ġcurieux":14588,"height":14589,"Mardi":14590,"NET":14591,"Ġidentique":14592,"Ġfune":14593,"Ara":14594,"Ġconcepts":14595,"ĠTrop":14596,"ĠOver":14597,"ĠAlsace":14598,"ĠMission":14599,"Ġordres":14600,"Ġdoul":14601,"mur":14602,"Commentaire":14603,"mens":14604,"FS":14605,"310":14606,"ĠMatt":14607,"Ġaccessoire":14608,"ulse":14609,"Ġbarbecue":14610,"Ġonly":14611,"Ġpoches":14612,"maj":14613,"Ġaffich":14614,"Ġforment":14615,"Ġroutie":14616,"255":14617,"ĠAchetez":14618,"zel":14619,
[...]
