#version: 0.2
n e
c h
d e
t e
e i
i e
Ì Ī
l i
u n
g e
a n
i n
li ne
Ġ d
ne w
new line
Ġ de
Ġ s
b e
r e
Ġ S
a u
s t
l e
o n
s e
s ch
Ġ w
Ġ un
a l
a r
Ġ A
o r
Ġ m
te n
a s
Ġ B
i t
Ġ v
Ġun d
i ch
Ġd ie
Ġ D
a t
Ġ ei
Ġ e
m e
un g
ge n
Ġde r
Ġ M
te r
Ġ i
u r
Ġ z
Ġ au
Ġ f
r a
Ġ K
Ġ F
Ġ in
Ġ G
Ġ E
Ġ P
ch e
Ġ n
Ġ h
de r
Ġ W
ne n
Ġ k
r o
Ġ T
Ġ H
de n
be r
Ġ 1
t i
. <
h e
Ġ b
f e
re n
Ġ ge
h r
Ġ R
o l
Ġz u
Ġ L
c k
i l
Ġ 2
Ġ I
n t
i r
e l
a m
Ġ V
i s
ei t
a ch
sch e
Ġ (
o m
u s
Ġei ne
â Ģ
u t
Ġ be
Ġd as
r ei
l a
Ġv on
Ġ an
Ġ N
Ġm it
Ġ g
Ġei n
z e
v e
ie r
u m
s te
Ġde n
Ġf u
be n
Ġe r
Ġ C
se n
ich t
le n
an d
Ġ U
Ġ o
Ã Ł
Ġi st
ĠB e
Ġau f
che n
0 0
Ġ a
i g
li ch
me n
Ġ al
r u
Ġv e
p e
0 1
k e
Ġi m
a h
w e
Ġ Z
Ġ J
ĠG e
Ġve r
t a
Ġ -
ei n
Ġw e
f t
l o
r i
an n
ĠS ch
Ġ O
. .
s p
at i
ne r
k t
ĠV e
Ġ t
l l
Ġ âĢ
Ġs ch
Ġs ich
Ġn icht
Ġ p
Ġde s
Ġau s
le r
l ei
ĠD e
sche n
in g
t z
Ġw ir
ĠVe r
ĠS t
ĠI n
o ch
ge r
Ġb ei
un gen
in d
se r
ĠA n
Ġau ch
ve r
me r
Ġde m
ie n
ĠS ie
Ġe s
s ten
o t
u e
Ġ u
ĠR e
ĠD ie
Ġ j
fe n
s s
m a
ie l
h o
w ei
Ġh a
Ġs o
n d
ch t
ÃŁ e
Ġ 3
r t
te l
or t
Ġal s
a g
Ġ2 01
l ie
sch a
e hr
ck e
ĠS p
Ġw ie
r au
he n
Ġ ich
Ġwe r
ung s
Ġ um
a b
un d
Ġo der
ati on
ĠA u
i m
a d
ĠE r
c e
ĠW e
n n
ei ne
s i
r ie
h re
Ġs ind
Ġh at
r an
Ġwer den
Ġn ach
h t
Ġv or
Ġ c
o p
ĠP ro
h a
ze n
a hr
i k
ĠM e
f u
h al
Ġk o
g t
Ġ1 9
z u
o h
li n
l u
ur ch
Ġs ie
Ġj e
ar t
l t
pe r
li che
Ġ am
d i
ol l
o s
ĠE in
Ġ 4
k ti
ĠM a
an g
al l
ĠU n
Ġ ne
au s
f f
Ġdas s
ĠS e
w a
Ġwir d
) <
ĠL e
Ġd a
Ġzu m
u ch
o nen
Ġ 5
te t
s ter
ier t
Ġa b
ĠT e
> <
Ġ |
Ġei nen
ĠâĢ ĵ
we r
ti g
âĢ ľ
r n
Ġw ei
f or
Ġm an
i ne
Ġeine r
ge b
Ġk ann
l as
d u
ke n
Ġ "
Ġw ur
i schen
Ġ re
ĠH e
2 01
Ġz ur
o g
ĠA r
i sche
Ġdie se
Ġw ar
s a
Ġs t
Ġe nt
Ġn och
Ġeine m
f fe
b t
ĠA us
ĠâĢ ŀ
Ġs p
D ie
Ġ 0
Ġun ter
ĠN e
Ġd urch
l au
me nt
scha ft
he r
n nen
ĠH o
ie ren
Ġb is
u l
ar b
Ġn ur
t t
p p
de s
re s
f a
ei ten
ĠD a
ĠF e
Ġa ber
ĠA l
li chen
o k
l an
.. .
g a
Ġha ben
h ren
ĠM it
st a
m p
ge l
Ġh e
t ra
a li
at z
ste ll
ĠM o
i ge
Ġal le
t s
tz t
fe r
us s
ah l
Ġ 6
ĠD as
ĠA b
z ei
Ġm o
i st
n de
Ġ le
m o
l and
au f
i on
Ġ &
Ġwur de
s am
ne h
2 0
Ġm ehr
ĠV or
u te
Ġ /
k eit
an z
ĠDe r
b a
i c
il d
a p
ie le
i gen
cke n
s on
D e
re r
der n
ut sch
Ġs e
ĠP e
om men
che r
ĠZ u
b o
h eit
at t
d a
se l
Ġw a
r it
ĠUn ter
te s
h n
ach t
ĠS ta
Ġ 7
r ich
Ġ Â
r und
un den
ter n
al t
o w
Ġ 8
1 0
r in
s sen
Ġan de
ÃŁe n
Ġ2 00
ch n
el t
b ur
Ġ 9
l le
Ġg ro
g lich
ei te
rei s
a ge
de m
ĠAu f
i a
ne t
ĠJ ah
for m
k a
s o
Ġs te
ĠS o
ĠK o
Ġd u
m al
b ar
om m
â Ĥ
) ,
1 9
âĤ ¬
ut z
Ġw as
ĠM ar
w ar
Ġwe nn
n is
i sch
Ġ1 0
an t
Ġne ue
Ì ģ
ke r
te il
au e
s u
Ġs ei
ĠK on
Ġs ehr
m it
Ġi hre
ĠHe r
i d
Ġun se
Ġo f
Ġd ann
Ġs ein
Ġ1 8
Ġf in
b st
ĠT he
Ġ <
i ck
w ie
kti on
Ġt he
st u
lei ch
ĠF u
Ġ ber
Ġs oll
de l
k te
i bt
pe n
rei ch
Ġwie der
i o
Ġun s
B e
Ġh ier
G e
ti k
Ġv om
1 2
Ġm a
Ġ2 0
n g
Ġd ar
Ġe t
h ne
z eit
Ġ lie
oh n
ĠP o
sch ie
or d
p t
m m
n a
Ġ la
Ġh o
w w
ĠK u
ĠH a
ĠZ eit
Ġ on
Ġsch on
ĠB o
g s
l len
c o
Ġ gen
ĠL a
ar d
in der
j e
Ġim mer
ĠS u
om p
ĠBe r
eit s
in o
l ung
1 1
neh men
Ġg ibt
.. .<
5 0
ĠW ir
ĠU m
k o
u el
ie len
ue r
m ber
im mer
ĠN ach
f ol
ti on
v i
as s
I n
ier ung
ich e
ĠI hre
te i
ĠB a
ĠK a
ĠR o
Ġz wei
le s
il l
u g
be l
S t
st o
bur g
it a
Ġh in
! <
un de
v or
ĠS a
lo s
ĠC h
Ġ #
re m
ei m
Ġp ro
Ġs eine
Ġha be
ĠB u
ar ten
W e
a st
l d
z i
f fen
Ġ âĤ¬
Ġ1 2
Ġan ge
ĠJ ahr
V e
k s
? <
Ġs el
Ġ Q
au t
Ġm ir
3 0
m ein
Ġk on
ĠN a
o b
Ġm e
S ch
ze r
ei l
li g
ve n
ĠE nt
E R
ĠU hr
ĠJ u
ĠE s
k u
de t
d t
w as
i z
ati onen
Ġf e
ĠF or
hal ten
sp iel
ĠD u
h l
ĠB ei
ĠMe n
f ach
gen d
: <
Ġge gen
sch u
n o
Ġo hne
ĠR ei
we rt
b le
ch te
ĠW ei
ĠC o
Ġ1 5
ti ge
ĠE ur
1 8
re ss
Ġk eine
ĠR u
r k
ĠAr b
ĠS te
ar k
De r
ol le
ĠPe r
Ġdie ser
ĠW a
is sen
D as
at ur
ra g
n der
p f
ĠSt u
wei se
Ġ per
d ing
Ġ [
r z
00 0
st and
t te
i ger
an k
rei n
Ġm al
Ġ1 6
q u
h nen
ĠT a
ti gen
1 5
Ġaus ge
y e
i re
r at
ĠI m
ran k
ĠM on
Ġm ich
Ġ1 4
Ġn a
Ġ1 7
m in
ĠM u
Ġg ut
Ġan d
im m
ĠT o
g an
sch ei
s atz
f ahr
d ien
Ġm ei
p s
ier te
ĠL u
ĠG ro
y ste
ĠA ut
d it
las sen
iche r
ĠSch u
b au
r icht
s se
Ġeine s
ĠI ch
w ischen
R e
ber g
m an
ĠPro du
au fen
Ġs u
utsch land
z el
Ġon line
a le
Ġge w
f ten
as ino
ĠSp iel
ĠHo tel
Ġso wie
) .
Ġm u
ĠW as
n st
p ro
Ġbe k
2 2
1 6
ne s
Ġbei m
f all
w ick
Ġt o
t o
1 4
Ġv iel
ĠF a
n ah
g ra
Ġ :
Ġi hr
it z
h len
i li
t zen
r on
ĠN o
/ /
Ġj a
f in
E in
ol len
s ser
oh l
la ge
ĠJ e
a ten
t ten
se tz
am it
1 7
m ann
Ġ1 3
2 00
ĠL ei
l atz
b li
1 3
in n
ĠW o
j a
Ġs on
p a
i de
s k
t re
ah n
ĠO n
h an
ĠLe ben
as sen
ra gen
re e
U R
si on
t ro
ÃŁe r
at u
: //
b u
" ,
c om
E N
u f
I N
m b
a te
ĠG ru
g u
Ġwe n
ĠL o
A n
ah ren
ĠS on
l ler
c t
Ġw el
Ġ l
ol og
Ġf or
tik el
i al
ge sch
Ġw u
me l
ab ei
Ġm uss
u ten
ĠL ie
Ġwei ter
ver s
b s
ich te
t rie
ĠK inder
- -
ĠT ra
Ġde ut
cke r
Ġein fach
la g
Ġfin den
der s
stell t
Ġhe r
i te
ĠM in
Ġdiese m
se s
Ġwei te
Ġ ,
rau e
ĠO r
Ġhat te
g ung
z o
Ve r
Ġk lei
ĠSta dt
Ġg anz
st ra
t h
ĠH and
d ie
2 4
ze nt
un der
Ġ lei
Ġsel bst
ĠW ie
ĠM an
au m
sche r
s icht
ĠL and
Ġin s
k on
l uss
st ag
ĠE x
ĠL i
2 5
" :
un ter
m u
ĠRe g
ĠQ u
z immer
ĠÂ »
9 9
ĠU nd
hr t
Ġande ren
Ġje tzt
a me
p pe
g ru
ĠOn line
ĠDe utschland
ru ck
0 5
f o
ĠK e
ffe nt
0 7
hal t
ig n
Ġet was
0 3
Ġb ie
Ġ te
i v
Ġko sten
h au
omm t
Ġ1 1
h aus
o d
ĠWe r
b ild
0 6
ĠDa ten
Ġo b
ĠR a
z ie
n den
I ch
al d
yste m
ĠH au
0 4
Ġge ht
Ġwur den
M a
se hen
Ġbe ste
Ġein ge
am il
Ġ lo
eit ung
p h
ĠJah re
f te
t ter
Ġe x
Ġ Y
fe l
ar te
l us
Ġv iele
ĠIn ter
Ġ x
in ter
ra ge
b il
ĠJah ren
w or
liche r
o u
ĠGe sch
v on
or f
0 8
ĠP a
ei ster
ĠT eil
hal b
ĠW elt
w ir
g ang
ot o
Ġ =
0 2
k eiten
Ġm eine
Ġma chen
stell ung
ĠMen schen
A N
Ġs eit
i an
Ġd amit
in nen
Ġz wischen
ĠG rund
aue r
raue n
ĠT i
un des
Ġsch ne
0 9
il li
ische r
Ġsch o
ĠM us
n it
w o
Ġ201 8
Ġd och
re chen
ĠP f
ĠK om
te g
ĠEur o
C H
mit tel
ĠB ild
S e
N e
an der
Ġ .
el d
ge ben
Ġ r
P ro
ĠW ohn
h eim
ĠSt ra
nd ig
Ġ ...
âĢ ĵ
art ner
g leich
an nt
d o
.. ..
Ġ ro
kti v
re cht
ĠU S
Ġwa ren
ali ta
Ġbe g
o li
k la
lich t
Ġ +
o ur
q ue
h m
ge nen
ll t
in a
k ommen
u re
la gen
Ġw o
Ġalle s
arb ei
geb o
ie ler
t schaft
ta g
Ġer st
ro m
ĠIn form
ch ten
ĠA p
ĠA m
ĠVer s
c a
T e
z ahl
Ġ2 5
ĠF lu
ck t
rei chen
p pen
ge s
ĠP reis
Ġ X
b ru
Ġ3 0
Ġf ol
am p
2 3
lin g
ĠB au
kt uel
Ġsoll te
t ze
ĠZ e
Ġ2 4
st imm
Ġ201 7
b ie
r de
ĠP ar
ol z
r lich
Ġk m
sch utz
ali s
n ger
ĠJ a
war z
Ġden n
Ġsich e
m ar
ĠH aus
Ġwel che
S p
b ung
ĠI hnen
Ġer sten
i nen
ĠA nt
ier ten
Ġber eits
Ġw ill
n ge
al s
l s
k un
Ġdiese s
i ner
Ġz ei
ĠGe w
2 6
ĠUnter nehmen
vi ce
Ġn un
hr ung
Ġ li
a re
ĠF rei
Ġe ben
r ing
r y
f ahren
m us
i le
ra d
w ort
ĠS ti
r il
wer k
k ten
Ġ201 9
Ġ rich
Ġsei ner
d ig
ĠF ahr
an ce
or den
ho p
Ġd rei
Ġw ich
d ung
h and
Ġande re
ĠF re
Ġb in
2 8
Ġd abei
7 8
schie de
gen t
U n
se nt
ĠDe s
Ġle tz
Ġk u
l y
it y
Ġn ie
un ktion
Ġsp a
Ġzur u
il m
ste llen
Ġc m
g ar
ow n
Ġal ler
un kt
n te
ĠP ra
l ein
4 5
g lie
z in
ck s
res se
ww w
Ġ1 00
M it
H o
2 7
rei se
rau s
Ġson dern
ĠT ag
Ġ lassen
d s
hren d
Ġ2 1
rau m
ĠT h
y s
ĠNe u
Ġ19 9
op a
r um
i um
l at
as se
Ġi s
L e
Ġ201 6
an s
g ie
u p
Ġ ta
Ġge sch
Ġs a
sam men
i p
ig keit
y p
h lt
Ġ2 3
ĠB il
ĠP la
E r
Ġals o
st ad
Ġhe ute
Ġzu sammen
_ _
ĠArb eit
ĠWas ser
2 9
k el
ĠL in
an ge
ĠG a
r and
al ten
M e
ĠI hr
le x
d och
ol d
f ang
le kt
ĠSe r
re ch
Ġ lan
ur z
Ġneue n
Ġk aufen
W ir
ze u
p te
Ġbe son
ation s
ĠS eite
fol g
tel len
kun ft
H e
x t
b rau
f rei
Ġ2 2
ĠBer lin
os it
s ung
ar a
ĠF in
ĠU r
z a
ĠTe st
ĠAr tikel
Ġk ommt
ze ug
ĠG o
i ve
Ġk ommen
ĠJ un
Ġge f
Ġs ag
sch rei
n ung
sp ra
ĠZ us
4 9
ĠA d
ati ve
ĠPo li
rit t
Ġ y
ĠK unden
nis se
2 1
nah me
ĠJ an
s st
ĠB uch
Ġunse re
og ra
b all
un st
ĠWe nn
Ġwir k
ar m
nde t
ĠE ine
we nd
Ġ or
rin gen
Ġs ta
ie s
4 0
z w
st alt
h in
ĠSp ort
n f
Ġg u
Ġda zu
is ten
sch lie
Ġver b
v a
sch luss
ra de
p la
ĠB undes
sp ru
Ġje doch
ĠF amil
it te
se tzt
ga be
stad t
sam t
kt o
u ren
ch s
am men
il fe
Ġge ho
aue n
Ġk ein
ĠT age
ĠDie se
3 5
ĠO rt
ĠRe cht
v o
ht t
Ġ5 0
Ġh och
Ġ ch
ĠA ll
g ri
scha ften
Ġdie sen
el l
Ġwei l
w s
f s
3 6
se ll
fall s
ĠC on
ĠBe wert
Ġste ht
g rund
ĠH och
Ġsp ielen
Ġ *
Ġd ire
in de
Ġver schiede
ĠK ar
le gen
ĠAu ch
ĠPro ble
S T
a len
om mer
Ġ201 5
i x
3 8
Ġbe sten
k auf
ĠA rt
zu g
f on
p ti
ĠG ra
al le
âĢľ ,
for der
A r
omm un
an de
al len
Ġg leich
Ġk e
wa re
Ġz e
ei nen
sp ro
ter s
n ach
Ġp a
ĠK re
Ġauf ge
ĠG u
je kt
ste ller
s h
ren z
Ġab ge
ĠC hr
âĢ Ŀ
gra mm
st au
op f
or g
Ġn atu
Ġ ra
s sel
! !
utsch ein
Ġihre r
ĠP h
as st
ber ei
I m
in gen
c on
S ie
A R
zei gen
um mer
de e
lo ad
ĠF o
tra g
f ort
ĠMa i
Ġg ute
ĠB eit
ri k
st ung
fe ld
ĠDa men
Ġc a
8 0
sp rechen
ĠO ber
F u
am m
di a
Ġl ang
an del
ra ft
Ġlie gt
d orf
ĠF all
ĠE nde
Ġge m
t on
Ġ %
s onen
Ġ at
Ġb lei
ĠD urch
6 0
Ġalle m
ĠSt and
ĠInform ationen
ie ll
O N
Ġc asino
or gen
ie t
ti gt
ĠJu li
w alt
Ġm us
ur t
Ġunse rer
Ġi hn
E L
chn ik
Ġ â
Ġsei nen
Ġgro ÃŁe
ĠC asino
) .<
lo g
ĠGe mein
Ġd ort
Ġh ei
ach ten
ge ne
Ġg ar
ta kt
Ġer ste
st ru
Ġf a
ter ial
ste in
3 3
mb H
Ġp ra
Ġein mal
Ġf re
ĠUn i
Ġkosten los
r ne
is s
ĠM ann
ve nt
ding s
Ġf rei
b ach
Ġd ir
Ġschne ll
Ġi hren
ÃŁ t
r ger
ĠWe b
Ġweite re
Ġwirk lich
ĠA ber
ke hr
9 5
Ġse hen
ĠH ier
we g
li gen
ĠH ei
b ei
r eit
geb ot
, <
gebo te
arb eiten
ti sch
or n
ho f
li ck
ĠF ar
Ġje der
u ar
ĠG eld
Ġt ra
Ġe mp
ĠT u
Ġein ige
ĠE l
E s
9 0
ke t
Ġdie s
Ġm acht
icher heit
Ġ >
b uch
ri v
ĠAut o
ĠG mbH
r ig
ga ben
ri ft
Ġfol gen
A us
i der
l ar
hre r
Ġbie tet
ĠA pp
201 7
s uch
Ġs ol
Ġb zw
Ġt h
Ġ lau
3 4
tern ation
Ġ201 4
las si
ah len
ar i
ĠSt o
schie d
n u
Ġver we
Ġal l
M o
I T
c tion
Ġa ktuel
nit t
r ien
ĠM ehr
de re
> âĢ
ie re
zei ch
ĠJun i
7 5
ol f
Ġfe st
ĠE UR
wick lung
ĠThe ma
t al
Ġge s
Ġer halten
ĠK ir
ĠLeben s
Ġb o
gu st
ĠV ide
ch st
u bli
fe rn
arb eit
ĠSch ul
Ġ2 8
ĠF rauen
ĠArb eits
lau b
p el
las se
Ġ201 3
ĠDe ut
w ahl
is ter
Ġ2 6
âĢ Ļ
ĠF rank
at s
p o
Ġre cht
ĠK unst
E S
4 8
ut ter
Ġnicht s
Ġk omp
A T
Ġh tt
olog ie
Ġ '
ĠProdu kt
t he
ĠAu gust
" <
ĠVer b
ĠM al
h ler
le ge
", "
ri st
is k
s pe
r per
ĠGe scha
re g
Ġkon nte
lau f
at h
ĠTe r
201 6
neh mer
ĠPer son
ĠH u
pte mber
ur s
S o
Ġge st
Ġste hen
sell schaft
Ġm ein
3 7
n ig
3 9
a ter
ye r
sp ort
ĠKo sten
ei e
ĠS el
5 5
Ġal len
ĠSch w
F e
ĠV ol
Ġ2 7
kto ber
it zen
4 6
Ġst att
kti onen
Ġ ru
Ġ 01
ot or
r ung
ster reich
ĠP latz
ĠF ru
201 9
an des
O R
ĠD ien
own load
f re
h ei
Ġi hm
Ġet wa
w and
Ġdire kt
at or
tei le
x e
Ġletz ten
rei che
Ġt ro
ĠO b
sch ein
ĠD i
l att
ĠS y
it al
ĠâĢ ľ
ĠF ol
Ġn o
E D
f lu
Ġg an
ĠN ie
Ġ rund
ĠInter net
f la
. ,
ĠS pe
sten s
te ress
n s
p unkt
Ġ19 8
w u
D a
ti sche
ĠBil der
N ach
ĠSe ptember
Ġ201 2
l ang
ĠSch a
ben d
ut zen
it h
ĠH al
Ġs pe
ve mber
Ġf ru
Ġb rau
Ġge rade
ati v
Ġw ohl
ei cht
ĠJ o
u ter
ĠJan uar
ĠZus ammen
ch sel
ber t
w ohl
lt ur
ner gie
Ġver fu
ĠH am
liche s
it u
ĠM illi
ĠAp ril
bild ung
Ġje den
ĠO ktober
A L
ĠB ro
le g
Ġv oll
Ġda fu
Ġsiche r
201 8
s ol
al a
ste hen
ĠHau pt
ĠB on
ĠZ immer
Â »
ta il
le gt
Ġklei ne
sto ff
ĠB ru
ĠWo che
kt ur
ich ten
h men
nn te
U S
Ġseine m
el le
b i
A S
ĠMo de
lich keit
trie b
iel t
Ġbei den
' s
ĠS am
Ġge ben
ĠAn d
Ġm m
4 4
ge stellt
ĠSch wei
ĠF ach
h ol
b in
ĠF ran
ĠKom ment
gan is
w eit
or ie
u se
r der
ĠF rage
ĠSp a
sp iele
Ġc o
z on
ĠFu ÃŁ
Ġd i
Ġ2 9
tz lich
n chen
ĠC he
ĠV on
ĠNo vember
Ġw ollen
Ġo ft
bru ar
Ġwen ig
au ft
w elt
un t
ĠS k
ĠWe g
] <
ĠG arten
Ġb y
ĠMit glie
le fon
Ġ teil
n ner
ar s
ĠFor m
iell eicht
p latz
W ie
u de
ze pt
ĠRei se
e s
Ġ ...<
I S
7 0
ot he
v ie
d ruck
p ar
f an
ĠMit tel
ĠMus ik
Ġne u
Ġsch a
ge m
Ġv ielen
s y
Ġde nen
ĠE n
ĠTe am
3 1
ĠN atur
Ġge rne
me s
Ġd ich
ĠPro zent
A uf
ze mber
la f
lo se
men te
ĠHer ren
B ei
ĠW or
ĠAl le
w ach
p ra
al ter
6 6
Ġ4 0
bo ok
ue n
Ġwich tig
z t
u st
ĠF ilm
i b
z ig
ot t
T he
den t
ĠVers and
st att
Ġi r
Ġge hen
B a
V or
an a
ft s
B o
ĠFe bruar
ĠD ar
ig ung
ng li
ĠVe rein
issen schaft
su cht
p lan
Ġk om
4 7
Ġp o
ah men
Ġun be
s ie
ĠAl s
Ġ Ð
g ro
ĠR ad
schu he
> -
P e
fe st
Â «
tig keit
mal s
arbei ter
ĠS eiten
ĠGe gen
ĠFlu g
Ġv ier
ĠBe ru
k or
ge ra
le ben
A l
Ġlan ge
me ld
h u
un a
ĠDe zember
d ar
Ġdar auf
k re
ĠB i
di o
r s
ĠI I
ge gen
> #
Ġgem acht
Ġwei ÃŁ
ĠP artner
m eister
ĠD o
setz ung
ĠW ind
ĠUni vers
ĠBei spiel
ĠB ad
Ġgen au
ĠGro ÃŁ
Ġ rei
ĠEr fahr
ĠChr ist
Ġge mein
ta ge
ge mein
3 2
in s
ĠB ar
is on
ĠK at
ĠB l
ĠWe rk
Ġgro ÃŁen
âĢľ <
lin ks
h le
il t
6 5
an den
ĠDe n
ver b
se e
g o
ĠSp iele
ĠF ir
chn ung
we sen
a k
= "
ĠI dee
rie d
glich keit
ĠGe s
le sen
ĠQu alita
Ġso gar
ĠK lei
ĠF rau
Ġbe stimm
l n
Ġ201 1
ge ber
ff iz
Ġbeson ders
f iz
ĠF ot
Ġbe sser
u d
ste t
Ġbe fin
m on
v el
la den
ri gen
in ner
eite re
Ġbie ten
zie h
ĠBe reich
Ġge b
ĠDes ign
ĠJu gend
ĠK ap
und heit
ra m
ĠS icherheit
ĠH in
lie b
an ken
ĠC ar
. :
ĠPer sonen
ĠGesch ichte
We nn
ĠW u
ĠT ran
ĠEur opa
ĠRe gel
ho ne
A b
ab le
Ġei genen
nah men
rei ben
ĠSch o
an ke
Ġau ÃŁer
ĠÂ ·
Ġme hre
Ġei gent
ÃŁ lich
ĠF oto
Ġda von
ĠP at
n dern
ei g
sch t
sch nitt
, "
Ġer folg
k lei
ĠT re
f ik
p ort
ĠFe st
ĠT op
kt or
ĠK auf
Ġde ine
o ne
pp s
v oll
te m
ĠI S
lo ssen
W as
ch sten
ĠMar kt
A lle
f il
la ck
e d
ut zer
rie ben
Ġf ast
Ġg ab
ĠS ommer
rich ten
ĠI hren
stra ÃŁe
Ġ ar
> (
p tion
Ġin teress
ĠB as
h eiten
Ġkann st
un k
ĠS al
ing s
ĠS h
dit ion
ĠH olz
ft ware
ĠSe e
su chen
at a
zi al
5 8
Ma il
) ;
ĠM ein
se tzen
berei ch
ĠM ag
Ġ201 0
Ġ qu
ĠBewert ungen
Ġbe sch
M ar
ĠEr geb
Ġz ie
ĠSch warz
ĠBe n
glich keiten
ĠVer fu
6 8
Z u
be ho
ge hen
ri sche
Ġe uch
Ġk am
ann te
Ġsoll ten
ĠF ragen
h ein
7 7
s eite
Ġaller dings
ba re
rei fen
wor ten
Ġh el
ur n
A d
U N
": "
ĠK omp
ĠProble m
h under
r is
ind ung
an stalt
-- --
ig h
ko sten
schu le
Ġje wei
ĠD r
las s
i onen
ĠSt art
si te
ber n
nd lich
ĠSer vice
) :
ĠC e
Ġent sprechen
Ġe n
ir t
Ġge l
tz ung
f ft
meld ung
K o
Ġent wick
sp ieler
Ġs ti
l am
ĠIhre r
s or
ĠB el
sch o
5 9
Ġunse ren
Ġz war
4 3
Ġrich tig
wa gen
Ġfin det
ĠE igen
d ru
ĠS an
ĠB and
ĠW inter
ĠHotel s
ĠZ ahl
ist or
ann ten
ĠGe r
Ġc on
c m
n ster
5 6
A m
w in
oll te
Ġan zeigen
Ġau t
age ment
ĠEin satz
st r
ĠSch ne
l or
Ġper so
ĠZ iel
m lich
wei s
B N
ĠR ahmen
Ġver m
ĠT ro
ffe r
om aten
o re
v ol
su che
Ġ0 9
il le
ĠA ma
Ġhe raus
un kte
N r
ĠMin uten
om ati
bli ck
ma sch
* *
z iel
Ġhat ten
t ho
um s
m and
Ġt un
stau ran
ĠNe tz
al y
Ġw orden
ĠAr ch
Ġw ith
ei st
htt p
st it
ĠGe ra
ĠS c
Ġg ilt
icher ung
E T
ĠG lu
Ġpa ar
da ten
ĠWir tschaft
ĠSp ieler
Ġ $
Ġunter schied
ĠV o
ĠG r
st ie
1 00
sp a
f urt
J a
ĠN ord
v is
i ke
ĠVide o
Ġhin ter
sch lag
ut t
n nt
ĠZ wei
S u
tel s
Ġn ot
J e
5 7
ing le
Ġ0 8
ĠB us
ĠAn gebot
tig ung
ie gel
dien st
Ġbe de
io ne
ĠProdu kte
ti ger
ste lle
ĠC a
o o
ge fu
am pf
teil ung
ffent licht
ĠM as
fe ss
ĠG ast
k ra
ĠJahr hunder
> "
Ġeben falls
Ġunse rem
ze ss
Ġg lei
Ġ6 0
9 8
D F
r te
f ung
ĠSp ra
Ġde ren
>âĢ ŀ
r den
ĠC omp
Ġk a
ĠG ar
lie gen
ĠBeit rag
i ce
n ten
og le
Ġer kla
ren t
Ġb a
arbei tet
it ze
Ġmei ner
y n
Ġwen iger
Ì ĥ
ĠE nergie
ĠZ um
K on
Ġbek ommen
ĠSel bst
tra gen
ster n
ĠW ar
Ġ20 20
ĠS ystem
Ġper fe
Ġihre m
Ġwe gen
Ġne ben
ĠW ahl
ri ka
uel le
E UR
ow s
gen ommen
in al
i ma
ĠA t
ĠL andes
hand lung
Ġsa gen
o ut
I D
ĠB re
han del
an nen
4 2
Ġk urz
Ġt re
te te
A M
wend ung
it ter
u z
y m
L a
ler nen
mo bil
Ġklei nen
ĠC as
ð Ł
Ì Ģ
gri ff
Ġst ar
ti c
Ġsag t
in k
schei den
Ġy ou
Ġk einen
s an
ĠBe g
ach sen
Ġeigent lich
ĠTe chn
O S
ĠT ri
ĠFamil ie
op pel
ran ken
4 1
me ter
t y
ĠFe rn
Ġp assen
ti schen
Ġent fer
We b
Ġin ner
ĠKon takt
le b
ĠDe nn
Ġfin de
ge t
Ġ3 1
n ummer
h nt
E ine
hal te
Ġre g
ĠâĢ ¢
Ġne hmen
G B
ation al
Ġbek annt
Ġber u
Ġ( *
Ġo pti
ei nt
l eitung
Ġg utschein
ame s
Ġw eit
b y
nst ig
m art
at sa
7 6
Ġunter stu
st ungen
be sser
Ġ200 9
Ġha st
icht ung
om it
k reis
ĠS hop
ĠB lick
Ġle ben
l te
ĠP ol
ĠD is
ant wort
ische s
ili ta
Ġk ur
ge w
sch ung
ra p
ĠR aum
Ġverschiede nen
ĠK li
on d
ĠSt unden
ĠWo chen
ĠN r
is te
g lichen
b ahn
ĠJah res
de ut
le tt
Ġzu sa
am a
Ġha b
Ġw ww
Ġsie ht
Ġzei gt
Ġlei cht
ĠB lu
ment s
Ġb il
201 5
ge samt
j ahr
ĠG el
Ġver sch
ĠH ilfe
Ġgro ÃŁ
i ker
ĠNa men
ĠE lekt
ĠK ra
he l
ĠN or
ĠW el
on g
Ġe her
ĠDie s
ig ht
H a
Ġin di
k ung
n z
7 9
Ġsch warz
ĠPro jekt
Ġw issen
u ser
ĠEin zel
ĠLu ft
ch ste
op h
R o
ra ten
Ð ¾
ĠVer gleich
ot s
Ġun ser
ok u
ĠM otor
lu b
ab y
ĠSchu he
Ġver k
p ru
ĠN icht
di zin
O L
che s
8 8
ra cht
s weise
arb eitung
ar ch
ei ner
Ġda her
ĠM ich
ĠC or
f rage
tei len
ĠNe ue
ĠReg ion
ogra f
Ġs tellen
ĠMa terial
r as
Ġsag te
ige s
ĠNe w
ĠAn gebote
schrei bung
Ġg ru
ĠS P
ĠE U
Ġp la
b ank
vi du
Ġge sam
t u
d as
stell ungen
li ge
ĠFor um
lin gen
be nen
ĠF il
ĠS ol
zeich net
utz t
tre ten
ĠGemein de
Ġein zel
Ġso fort
Ġdeut schen
hau pt
m me
rie den
Ġh il
Ġn or
Ġtro tz
Ġf unktion
m l
ĠGe n
ne ss
ra un
s be
ri c
u me
te d
ĠWe rt
ba ren
ĠB ur
nt ag
Ġir gend
6 9
ter atur
kti ve
ĠS il
ĠP au
ĠD och
ĠAn ge
ĠFamil ien
ag t
ĠMit arbeiter
Ġv ielleicht
ĠÂ «
ah rer
5 4
. -
Ð µ
ĠH el
Ġ as
? ?
ĠPro gramm
Ġs ollen
ri schen
k om
mar kt
ĠAma zon
le tzt
Ġz ahl
rik an
ĠR om
Ġwer de
mit t
tail s
ÃŁ ig
ĠDien st
R E
ĠP ark
ĠL age
ah re
hau sen
u fer
n ter
du z
st re
Ġsch le
c i
h i
in t
ĠNie der
I C
is mus
Ġhtt p
m ie
ur opa
ĠAu ft
d y
Ð °
on a
ĠL icht
sch la
ĠIhre m
Ġmei sten
un ge
Ġ200 8
f i
ĠB al
ĠK lein
di um
ĠHam burg
ĠâĢ Ķ
ĠMilli onen
l lig
Ġi hnen
ten t
se re
Ġ= >
ĠH andel
ubli k
ĠE mp
Ġf ree
ĠS lo
richt ung
ĠN acht
I L
Ġsu chen
Ġb itte
ĠEnt wicklung
neh m
Ġinner halb
ĠGes undheit
htt ps
osit ion
ĠKu ltur
ĠIn f
ĠI s
U nd
ĠK opf
z ia
ĠS ter
W ei
ĠK ur
be ne
an te
ha ft
fahr t
at ten
ti v
Ġke nnen
Ġbeste ht
uf ig
ĠT ei
ĠNe ws
r al
ĠHer z
wir tschaft
ding ungen
imm t
ffent lich
ĠLie fer
u ft
Ġlei der
201 4
Ġge wa
ĠIn nen
Ġbe s
Ġer ho
ĠSu che
fe hlen
ĠÂ §
Ġdeut lich
ĠD on
ĠIn te
ande lt
ĠTo ur
ĠK ind
ye rn
6 4
__ __
Ġsch lie
Ġgan ze
sy ch
201 3
utz ung
Ð ¸
P o
ĠSch laf
ĠPo st
l ungs
bie ter
an ten
Ġin k
an ne
ĠP ort
ch lich
son dere
f ter
c y
pro du
Un ter
Ġof fen
ĠD abei
i ff
ĠS ho
Ġblei bt
h ig
rit te
Ġ0 7
Ġw under
Ġv o
ĠD ann
5 1
Ġb u
Â °
on s
sch rift
ĠK ri
U m
u le
si onen
ĠBer g
Ġ lu
. )
w ohn
Ġ ;
ĠH eim
a el
ĠAu gen
ĠI mp
20 20
ĠHo me
Ġin ternation
6 7
ĠW il
ĠE i
5 3
g lei
ĠSch utz
ĠA ir
k ur
ĠLie be
ch ter
zeu ge
ĠFin anz
gan gen
ĠT or
zi p
ĠK in
ĠKa teg
201 2
O M
ol a
x is
5 2
Ġmei nen
ĠF la
f ar
ĠA c
e t
le t
il o
r un
geb ung
p reis
Ġhel fen
ĠEnt schei
O T
ich tet
ĠAus wahl
at ing
Ġn utzen
Ġm in
ĠZ ei
an ach
Pro du
Ġlie gen
ie f
A ut
Ġbe st
Ġh al
at te
ach te
Ġsch w
ĠSu per
Ġblei ben
Ġ8 0
Ġei gene
h y
ĠUS A
Ġweite ren
Ġg ing
F or
ĠThe men
ier ungs
Ġw ahr
ĠH inter
ul ti
g bar
ik a
z us
re t
tz te
ĠA G
lo ss
Ġve ro
ĠAn fang
m s
ĠBo den
ĠD ank
ĠWeb site
ĠWei ter
S a
z eiten
wei ter
ĠK n
ĠBe ste
ĠFar be
riv at
Ġson st
ĠS and
V on
Ġer war
ĠS itz
ĠP reise
ĠN u
ĠIS BN
Ġdar f
sch ul
f asst
gel d
ĠTi tel
ĠRe stauran
w oh
g te
Ar tikel
ĠâĢ ķ
ik o
Ġab sol
Ġo ben
A P
tel le
Ġan zu
wei sen
ĠP art
d chen
ĠG old
g al
ri sch
L i
Ġge fa
ma le
Ġste llt
ĠNe ben
ĠZe nt
du st
rie b
ĠBo ok
wer b
ra b
Ġ )
u cht
te st
ĠJ oh
in ne
ĠW and
L o
Ġje dem
I E
C o
Ġ {
r m
ĠD ir
ĠWei hn
h ard
Ġein fa
ĠZu kunft
ĠFe rien
Ġverschiede ne
Ġsch u
Ġ us
Ġbe tra
ĠL au
ĠUnivers ita
E U
Ġp oli
ĠPoli zei
ring t
Ġgef unden
w ig
He r
l ungen
ĠHer steller
Ġer ha
Ġmo der
Ġin form
we hr
ĠVer anstalt
in ge
was ser
Ġda ÃŁ
A G
ol o
Ġbe no
st ungs
we gen
ĠD ownload
ic ro
ogra ph
B u
S ta
nd ung
Ġsu per
ĠP ap
ommun ik
co de
zo gen
lo ck
Ġbe n
n sch
Ġdes sen
ĠGe sellschaft
D u
zahl ung
A C
b us
ĠK rie
ĠAb s
rat is
ĠA lt
Ġin ter
ĠB ahn
ĠSo ftware
ass ung
st all
Ġbe vor
We r
Ġmehre re
ĠD ort
y le
lo w
Ġbo ok
h ilfe
ĠW ien
ĠMe dien
am t
ĠP lan
Ġg o
g l
it i
Ġ ti
al k
Ġdar u
rei cht
Ġ9 0
ĠBa de
Ì Į
ĠH ar
in ing
ad urch
n gen
vie w
ĠR ein
de ck
ĠEl tern
Ġmeine m
on nen
ĠSe x
ĠP ri
Ġ0 6
ĠFre und
r d
ĠGe bur
Ġzei gen
in os
rit ten
Ġsp iel
Ġg uten
Ġ 00
Ġhin aus
se t
S te
ro w
at ung
ĠA k
ĠGe ner
schie den
zie hen
Ġge eig
.... ....
Ġ200 7
Ġw ollte
or k
ce book
Ġverwe ndet
or y
D E
ree n
ĠFot os
ĠP rin
or ien
ĠR ot
L ie
kt u
k ter
ĠSa ison
st i
ĠSe n
Ġun ge
ĠC D
Ġdeut sche
rei sen
Ġbefin det
ati ven
ion s
sa ge
Ġte chn
ĠFe uer
trie bs
gru ppe
Ġle sen
p g
âĢľ .
- ,
Ġ3 5
Ġk lar
fol ge
ĠD ruck
o ren
8 9
Ġho he
r st
> [
ĠE le
Ġ ur
ĠGew inn
ĠVer kehr
ĠTa gen
Ġh alten
ĠTe lefon
Ġa d
c u
ĠH igh
si schen
Ġbe t
ĠWohn ung
Ġm ag
ne te
gel n
st ik
ĠA bend
ĠGe ba
bur ger
Ġm on
Ġgegen u
om as
ĠBewert ung
pe ri
T i
reit ag
Ġw elt
ĠSon nen
an o
ĠâĤ¬ <
L E
Ġwe g
ĠStra ÃŁe
teg r
u men
ĠZ ur
eie r
D R
Ġb ringen
ĠM at
ktiv ita
ig t
ĠR ab
ĠMa ÃŁ
Ġentfer nt
ĠT V
Web links
ĠO ut
7 4
zei tig
min ister
p lat
ĠL auf
ĠPf lege
ĠIdee n
ĠW ein
n ne
Ġzwei ten
un sch
sch au
k ir
st at
rap ie
Ġe he
Ein zel
si v
ĠMa x
fol gt
ri d
si dent
dar f
ord nung
N a
ĠMe rk
Ġj u
ĠR at
Ì Ĥ
I G
m men
Ġindi vidu
ien ten
ĠV iel
no v
re a
nder t
ĠS mart
nd ler
ger n
is se
Ġer mo
W a
s ei
Ġk re
a c
ĠK la
mer k
A uch
mobil ien
f it
ĠPla y
ĠK raft
c ial
ĠI st
Ġbei spiel
Ġz eit
as ten
ĠP C
ĠG utschein
woh ner
is sion
ngli sch
hal ts
Ġher vor
r f
ĠGo ogle
ĠOr ig
à ¸
el n
ĠE ssen
k arte
ĠJ ob
Ġein z
Ġh andelt
ei che
s c
Ġje de
Ġ Î
ĠL og
aue rn
ĠK reis
Ġk aum
C h
rie ren
lie ren
he nd
ik i
ger icht
au ber
ĠB ank
li ga
ĠH y
li s
ĠF ried
z ir
pla y
lin gs
ce ss
ĠN ot
m i
Ġi P
ĠW ald
ft ung
ĠSte uer
Ġent scheiden
r fen
O P
ĠBon us
me t
ti ve
K u
re h
ĠF unktion
Ġd am
Ġvor han
Ġsch wer
sch lu
Ġ3 8
st al
Ġk la
ĠWind ows
ĠSt re
Ġso wohl
ĠK or
Ġande rem
ei cher
statt ung
E nt
ĠKomment are
7 2
201 1
rei te
u tet
mo de
Ġf rom
E x
ĠWei ÃŁ
Ġemp fehlen
Ġbe lieb
ĠP re
ĠDeut schen
ĠDeut sche
fe nt
ĠR olle
ĠD ig
w us
ĠSt ar
" .
Ġkon nten
ein ander
ali st
am mer
ru fen
b and
hr ige
m mer
ve rein
ĠGru ppe
Ġan ders
si sche
teil t
i ser
ĠG las
j pg
res sen
f assen
hr te
ĠLe der
Ġz a
ĠSch we
h ang
k i
ss ig
ĠV oll
ĠM art
an lage
ffe e
ĠJe tzt
ĠH aut
Ġst ark
Ġge fu
ach ts
Ġge t
Die se
M an
zent rum
it t
ĠGe d
ĠB log
ĠMode ll
x y
ĠT ier
ĠIn dust
ĠWe st
ĠKir che
m at
ĠK urz
je kte
ren zen
T E
ĠFuÃŁ ball
Ġ it
ĠJahrhunder t
ine ss
sch rank
ĠB aum
li ste
M ehr
G ro
ĠRecht s
Ġ arbeiten
Ġer ne
T ra
7 1
ur m
au ch
ĠEr folg
ĠR ich
Ġre gel
Ġst and
st or
7 3
Ġhtt ps
bo x
ĠMa in
ĠB ran
yste me
in ger
Ġma x
lig ht
ber sicht
Ġsp iele
Ġst u
hr lich
8 5
P a
ĠFrank furt
Ġan sehen
ne ten
at um
Ġg lau
Ġth is
rie f
ĠMe e
k unden
ĠIn ternation
h lung
ĠBeit ra
Ġ7 0
Ġmus ste
r tig
ĠN ational
am in
lt nis
Be r
Ġs omit
ĠPe ter
Ġ rein
Ġvor ge
Ġbis her
Ġf al
ver sta
6 3
z ahlen
g art
ha fen
Ġ ðŁ
Â ®
ĠTage s
Ġ5 00
n k
H al
Ġli st
ĠProble me
i se
v in
d f
m ati
ĠB lack
Ġe lekt
R A
A ls
te chnik
Ġsch we
Ġins gesamt
f allen
bo ren
ĠT isch
Ġ200 6
w ald
ĠVer kauf
spru ch
ĠSchwei z
ungs be
nst ler
ar ian
ĠAl ter
ĠSon ntag
lan zen
ĠTe xt
Ġz una
ĠM utter
ĠMich ael
ktion s
p ress
H ier
ĠD ach
ÃŁer dem
b ile
ist r
ĠHer r
t w
Ġge sp
d ro
W eitere
ĠGe samt
I M
ĠC om
p fer
ĠWe tt
ber haupt
ĠWei se
pe ten
Ġ4 5
Ġer reichen
Ġ0 5
geb iet
ĠBe st
K e
Ġa ktiv
ĠT ren
Ġal t
ĠN ur
le uch
ĠUnter stu
ĠSch au
ĠU p
ĠS eit
A u
se ne
Ġf o
ĠDie ser
Ġhei ÃŁt
ke nn
as h
Ġal ten
6 1
ĠBe tt
be sondere
Ġ9 78
o ver
Ġbeispiel sweise
ĠStand ard
y a
g arten
re cher
ĠErgeb nis
201 0
Ġge scha
ĠLe ute
Ġauf grund
ĠR hein
ze s
ĠK ranken
Ġi de
Ġdar an
p oli
w ind
lu g
Ġ0 4
Ñ Ĥ
ĠDe utsch
ĠM il
P reis
l ker
ĠTe x
forder ungen
Ġver s
nach weise
da te
ĠCh ance
ĠWe tter
ze rn
r se
Ġent sp
a ler
ĠE nd
in nt
ĠH il
ĠSp ie
Ġp osit
> â
v al
zei chen
ĠB is
me ra
me hr
Ġp ar
ĠBa yern
Ġhin zu
ĠAnt wort
Ġm el
ĠSchu le
frei e
Ġ3 9
ri ften
ĠMitglie d
ĠC H
ken nt
hn lich
Ġber eit
w el
utt gart
ie ÃŁen
f al
Ġmei st
ĠFol ge
Ġje des
ĠP resse
halt ung
da y
ff net
ffe l
ĠHau se
re d
Ġer forder
Ġdes halb
u b
ĠSt ie
A B
Pe r
tige s
Ġgemein sam
ĠD amit
p or
gebo ten
be s
# #
ĠKli ma
Ġp ass
ĠAn ti
ĠF ort
m per
tei lig
ĠL ang
ĠSte in
ĠFar ben
Ġs lo
ab ha
ket ing
Ġm ar
ĠV i
o f
wert ung
Ġaktuel len
ĠK an
ĠGebur t
R ei
ie nt
ĠWa ren
Ġzu ge
g liche
ĠR ichtung
Ġm inde
se um
8 6
ĠWe bs
lo sen
ĠP ru
stalt ung
R O
uel len
ser vice
Ġ3 6
Ġsol che
ĠFe nster
ĠAut or
ba ck
a se
h ung
Ġ3 2
ĠK olle
Ġbe scha
Einzel nachweise
Ġjewei ls
k annt
ĠOr ganis
. âĢľ
il la
ri ge
ol ler
ste uer
ĠA me
f ig
ĠBe handlung
Ġ0 2
Ġneue s
om a
we gs
c el
ÃŁe nd
fol gen
ge ner
Ġt atsa
rie re
Ġc an
b al
ĠLa ger
ĠBe trieb
ĠVol ks
ut h
n schen
ĠAu ÃŁen
f rist
schen k
Ġe ro
Ġna he
brau ch
ĠW issen
ĠRe gen
n gt
ĠMe t
9 6
P S
ne y
ĠMar k
ul ar
ĠR und
Ġwelche s
ĠR is
ĠW h
Ġbe wer
Ġfolgen den
tt o
st anden
ĠO st
ĠP or
la ger
B eit
ĠH or
ĠDe m
ĠPerson al
ier ter
ĠAnt worten
. âĢľ<
ĠSe rie
Ġje mand
ĠSpa ÃŁ
Ġd ig
tal ien
aut omaten
ĠTer r
ur o
su cher
zeu gen
ĠUm gebung
itu ation
ktu alis
wir k
ĠVer sion
ĠC re
Ġver besser
ĠKre dit
Ġ leich
ĠP DF
zei gt
Ġge wesen
g g
Ġpra kti
ĠTi pps
A D
r me
ĠD oppel
ot h
Ġsel ber
F a
Ġze r
ĠStra ÃŁen
de cken
Ġ }
Ġins besondere
ĠF C
sto ffe
ĠKomment ar
ta gs
ar y
ĠLi ve
p ark
n ungs
ĠS tellen
ĠF un
ĠMit te
i ken
Ġminde stens
lei ter
ĠB lau
Ġet c
Ġ200 5
lan gen
isk us
v ier
Ġf r
w art
Ġ nen
f ragen
ĠF ree
rei b
lau fen
Ġst ra
zei ge
ĠGe fu
h olz
Ġ200 0
f rieden
schaft s
Ho tel
gesch ichte
te re
lo the
ĠP S
den ten
Ġb ist
v olle
at ter
ĠP an
stie g
Ġge k
inde st
ob ei
9 7
s ystem
Ġmit t
O n
ĠB itte
ap an
ding t
walt ung
an gen
ĠM eister
I I
Ġ los
ĠMa sch
ĠFe hler
ĠS telle
ĠW eitere
Ġ0 3
ti l
ran zo
ĠAn g
Ġein igen
nen de
Ð ½
ĠW al
ĠL ED
ho w
Ġd o
Ġde in
ĠP unkte
Ġfre uen
k raft
ri ck
st s
u tion
\ /
ĠW ider
ke s
ir m
Ġgan zen
Ġhoch wer
Ġlau fen
li a
i f
Ġbeste hen
ber ra
m ark
Ñ Ģ
be t
tern ative
ĠDie ses
k rie
ĠLei stung
Ġk lassi
Ġt ran
Ġb ringt
Ġeben so
im men
ĠG ut
om o
lus ive
6 2
ĠAl ler
ĠP ass
ungs ver
ommunik ation
c ri
ĠErfahr ung
ro p
ĠIndust rie
fe rt
ĠMe ter
ĠUm welt
ĠB aby
ĠEr st
zei chn
h inder
E M
wie sen
T a
al og
Ġst o
Ġbede utet
schlie ÃŁlich
ĠF reitag
sk i
h stu
Ġa re
Ġg rund
b l
ĠCh ar
aly se
im mel
ĠVer lag
ng ig
Ġbrau cht
m as
stit ut
Ġverwe nden
Ġh and
in ander
ĠSe t
ĠTh omas
masch ine
Ġregel ma
ron t
ĠSt rom
K a
he re
ffe nen
UN G
ĠErfahr ungen
ĠM y
V D
ĠP rem
ĠSp ielen
ĠW olf
ĠMon ate
Ġsch reiben
ra le
b um
r ten
Ġf and
N o
le tter
nd igen
ĠAus bildung
Ġdeut scher
sch w
Ġve ra
r dig
ĠSal z
Ñ ģ
s itzen
ad a
t in
b rigen
om in
ĠL iste
um a
Ġver t
ĠW ort
ĠMen sch
ĠWie der
c c
ĠM i
T o
wert ungen
ĠSam stag
ge lt
o der
ĠSch lu
ĠMitglie der
is h
Ġver gan
ĠW ahr
S h
iel le
na me
na pp
ĠPoli tik
ich tig
ce s
Ġum ge
9 4
ĠS T
fin den
8 7
sp ha
Ġein zu
ĠI T
Ġse chs
k arten
ĠZu beho
Ġink l
f luss
ĠWohn zimmer
ĠBl ut
un kel
Ġletz te
ri o
Ġaut omati
zieh ung
Ġge sehen
ĠFa cebook
ĠE ing
hn liche
p hone
s ungen
op p
Ġgeeig net
Ġse tzen
sp ielen
ken nen
ĠK arten
Ġze hn
Ġer schei
r ter
S P
Ġfunktion iert
Ġaus zu
ĠIn ve
ier ungen
Ġehe ma
ĠS or
ĠUr laub
Ġsu cht
ĠT urn
it s
ĠP rivat
u be
ĠE is
á Ħ
Ġ Ìģ
ri ff
ser v
ĠTeil nehmer
ĠO pti
be tt
nder ungen
f ra
ĠN utzung
Ġ ?
Ġbeson de
Ġwar um
Ġzu dem
schein lich
ber ger
flu g
lei stungen
b r
Ġ3 00
o per
á ħ
in form
wei le
ĠBe sch
ĠGe spra
j o
ĠV is
ĠS im
k le
lin k
Ġho hen
ht ml
ĠEntschei dung
8 4
p zig
t lich
ÃŁ te
200 9
ĠNa me
St art
T ag
Ġ3 4
M S
ĠD ire
stimm ung
A U
ĠS icht
T V
M on
ra ch
ĠK arte
Ġfin anz
Se r
ĠAu ÃŁerdem
' ,
Ġentwick elt
our n
ste s
Ġal lein
Ġlie be
Ġâ Ĩ
deut ung
Ġsp ielt
ch mal
brau cht
ur f
oku ment
z z
ĠFir ma
ĠRei sen
ver gleich
an zen
b is
Ġth at
ĠD ich
pa ck
C on
ĠH ann
ĠU N
I B
we chsel
nd ige
Ġh istor
ff nung
Ġfre und
ĠMart in
Ġkomp lett
ĠA lex
ĠE ng
p age
ĠSpie lothe
ĠG ott
Ġf ort
Ba y
ĠKin dern
h igkeit
ĠErgeb nisse
fan gen
ĠMe r
on us
ti s
ĠIn sel
n i
Ko sten
Ġb as
hr ungs
ĠC ol
ĠSta ats
S V
n zen
ĠM icro
ĠAnd re
ĠMon at
Ġste ll
Ġbei de
uel l
ĠSt uttgart
G ru
rau t
Ġ pe
Ġer fu
Ġe uropa
ic s
Ġvoll sta
hr igen
ĠSo zial
ĠElekt ro
ĠMein ung
ĠComp uter
x x
ĠLie b
spro chen
ĠAn bieter
Ġ @
ĠA kt
ĠVerb indung
ner stag
ra te
ma il
ĠBas is
ĠA f
ĠZ we
lei stung
Ġd anach
ĠGer man
la st
ru f
at ch
ĠD eine
Ġbeste llen
ste ht
ta sche
ge setz
li sche
z wischen
9 2
schlie ÃŁend
we ndig
5 00
ĠSchlaf zimmer
m t
Ġbek ommt
L AN
w il
ĠOrig inal
Ġges agt
Z um
A ber
ĠF l
Ġg a
ĠH D
men ten
b ro
ri ce
pe rt
Ġ200 4
ro id
s ver
ommun ity
I P
per ten
Ġgew orden
sp ir
v id
ĠH ein
Ġgel ten
Ġemp f
Ġver die
Ġgen ug
Ġn ah
si ve
l aus
ĠDe tails
Ġlau t
ll ung
d acht
z y
g ut
ĠStu dien
Ġtre ffen
ĠGe bie
9 3
ĠHe raus
tw och
om at
p fen
am s
ĠFir men
zei chnung
ĠM or
ma terial
A nt
lin ge
fe renz
> ...
ĠBa ck
ĠK ilo
ĠE del
Ġso zia
Ġbe sta
ffent lichen
Ġer h
de lt
m ut
ĠPra xis
Ġer reicht
ĠEnt wick
se h
el ler
der t
al tet
sa me
mittel n
spiel t
ÃŁ ten
ĠNach richten
ĠW unsch
h ab
ĠSta at
Ġ lernen
we gung
Ġ1 50
m und
rei bt
t her
ĠD rei
Ġb lau
e nt
ĠM el
J u
C D
ĠAn zahl
d urch
Ġn immt
ffe ne
y l
arb eite
Ġd ownload
itz t
ate g
Ġk g
ĠUnternehmen s
ĠT on
r ke
b ad
Ġso gen
wer ke
ri se
ĠHand y
Ġe cht
ti ker
Ġzu letzt
f unktion
. "
Ġer folgt
S on
ne tz
ĠSt rand
li p
9 1
Ġer za
ĠD an
ĠPat ienten
ĠS ingle
ĠFahr zeug
Hal lo
a ger
masch inen
glei chen
nde te
E G
ra y
ĠBe deutung
ĠMen ge
c al
i ten
ĠIm mobilien
Ġvor her
> Â
ĠA ben
Ġhe u
ĠUnter kunft
Ge sch
Ġe ng
Ġgew innen
B ild
och ter
la d
se x
it zer
ĠFrei zeit
ĠK omm
n ke
Ġy our
Ġerfolg reich
ĠF arb
k an
ie ten
st ar
ĠI talien
el len
ler weile
me sser
ĠH ans
ri fft
8 3
Ġf ahren
Ġeinzel nen
li c
ĠTe chnik
f tig
ĠBro w
Ġ[ ...
an ien
I CH
am b
ĠC an
ĠHal b
Ġver z
k rank
Ġve rein
f ilm
ĠZ a
g as
gen de
geb aut
ĠFried rich
ĠB or
Ġweiter hin
ond on
ĠBe rn
kti ven
ĠDa zu
8 2
ĠM ulti
do or
sicht s
man agement
richt ungen
ĠBl ue
oh len
ĠEr satz
ri a
ĠBe s
cke t
line r
so ft
ĠP u
Ġd adurch
bar keit
ĠSch ritt
bo ard
or gt
Ġb ald
ĠW in
wer te
ĠArch ite
ĠEr d
ĠR ie
ĠF eld
Ġal te
Ġnie d
Ġande rer
W o
ĠD inge
Ġfrei e
ĠRab att
Ġvergan genen
ge ssen
ĠW issenschaft
ĠH ol
oh le
r us
bil der
mer zen
ĠKateg orie
Ġk lein
oh nen
ĠV ater
ĠRei he
ĠW ol
Ġbe sse
St u
sam m
men s
si sch
ha ben
ĠHoch zeit
Ġsch eint
ĠKa ffee
ck lich
Ġd rau
Ġdam als
ĠRe p
Ġ che
Ġge geben
te mber
ssel dorf
ber pru
Ġder zeit
ĠF it
ĠAuf gaben
Ġgesch rieben
ĠBe sucher
rei ber
ma ÃŁ
ic a
ĠÂ ©
Ġw obei
ĠCas inos
ch an
ĠKre uz
Ġseine s
ĠF lo
Z ur
T S
ĠLin k
a ker
in i
Ġzwei te
ot os
ĠI N
Ġbe tro
ĠC ity
Ve ro
au se
ĠU l
ĠV ier
ic o
E C
ĠE he
ĠFrank reich
nn ten
200 8
ue rn
ĠBeg inn
Ġun ten
ĠGru ppen
ta in
k at
Ġtrotz dem
b ungen
Ġrecht s
ĠSpra che
mel n
Ġwe rt
Ġg ratis
le ment
ur g
A rt
ĠSch rift
ĠT able
Ġvorhan den
C he
c s
Ho me
dig lich
Ġfolgen de
mu ck
ĠD el
st ahl
ĠB rand
ĠAl les
pf lich
Ġp reis
Ġa k
os a
ĠSil ber
Ġse tzt
Ġbe ein
b ringen
ĠBe t
Ġbe f
Ġvor bei
ĠWeihn achts
len der
au sen
alis ierung
Ġ3 3
mitt lung
ĠBe son
Ho tels
zig ar
gem eine
a z
ĠMe ss
IN G
os sen
ver kehr
ĠMon aten
St and
an ger
Ġw ohn
klei dung
Ġrich tige
ĠAn gaben
O b
nst ige
ĠCo ok
a y
ber icht
k ap
Ġge stellt
n lich
ĠAl so
p artner
li schen
fess ione
ĠK lasse
lei sch
T M
u x
sa men
ĠGew icht
Ġab zu
ĠO der
ĠBe triebs
ĠP lat
Ġn u
ĠL ehr
Ġaktuel le
ĠOr d
ĠC amp
Ġbe e
d lich
se nen
Q u
wohn ung
Ġbefin den
I nnen
bru ch
ĠW ild
r ungen
tz liche
ĠInte resse
nder ung
ĠBe such
Ġ3 7
sch riften
Ġent halten
l tig
ograf ie
, -
Re g
ĠMe tho
unter nehmen
ĠR au
ne re
o v
ĠG leich
ĠRestauran t
U M
ĠP lus
ĠF el
ĠP sych
ĠMin i
hl te
Ġe ndlich
ĠF ra
Ġwe chsel
ĠSpielothe k
ĠMet all
i den
latt form
ĠSch m
8 1
Ġze nt
l eit
le y
s eits
ĠUn sere
Ġun ver
n sche
ma ck
ti fiz
lan z
wa y
I R
or gung
ĠCh ina
ah lt
lu st
rin ge
it ion
I V
Ġ4 2
ier ig
l f
k m
Ġglei chen
Ġm y
ĠReg ierung
it co
Ġp riv
p ha
A pp
d ass
Ġsp annen
Ġaktuel l
k unde
su lt
Ġin dem
tre u
Ġneue r
ĠVer fahren
te xt
rin ger
Ġer fahren
Ġ200 3
Ġt olle
se tze
Â ¤
or s
ĠD ra
ĠVer antwort
sch ne
w ahr
ant ie
ĠSon der
ch ner
Ġver lo
Ġt ragen
lo ser
ĠS ohn
ĠVer tra
S G
Ġsei e
b la
tel n
Sp ort
den k
ge sellschaft
Ġ1 20
ĠS w
fre und
ĠB io
ĠSt ru
ĠKar l
Ġge setz
ĠO ff
Ġhe rz
ble m
uch s
ĠBeru fs
me ss
Ġhil ft
licher weise
Ġbestimm t
ĠV iele
ĠZ wischen
ĠS atz
b te
ĠKir chen
ĠPro f
Ġk einer
ĠBus iness
Ġ !
ĠE m
ze rt
Ġseie n
vers icherung
li cken
ĠB la
vent s
ĠLei pzig
ĠB raun
ler n
den ken
ĠP unkt
ur a
rit z
rder ung
ĠMar ken
h il
ze pte
ĠH unde
>âĢ ¢
ĠHer bst
t op
ĠTe mper
D urch
Ġf ranzo
ĠD ia
den burg
h or
ĠG ot
Ġp f
ĠGe richt
ĠRu he
ste iger
Ġschlie ÃŁlich
sp rech
ĠZu stand
Ġde fin
ĠTran s
ĠB y
Ġ/ /
ĠN utzer
H and
ag o
ma len
ĠJo se
Ġab gesch
ĠTra iner
ĠBeru f
---- ----
nd nis
ĠM ik
ĠC ha
d is
ĠJoh ann
Ġp re
Ġge plan
Ġ .<
Ġer wa
li z
Ġwe sent
R u
ĠS ach
M ann
ĠBe stand
ĠGed anken
rz te
Ġ4 4
ach st
Ġer inner
b latt
ĠSch wer
ĠInf os
ot al
ĠK ol
ĠA ss
ru e
ĠRom an
st he
f assung
Ġo ffiz
hal le
ĠZu g
Ġw or
ĠAn meldung
Li teratur
schlie ÃŁen
ieren de
Ġwel cher
ĠS uch
ĠMee r
Ġzie mlich
r ken
Ð¾ Ð
le v
Ġgleich zeitig
Ġzu vor
Ġse r
ce n
> >
le ucht
Ġd ru
ĠThe ater
Ġ4 8
me e
G o
ig a
ĠTo d
W u
zeu gt
Ġd ank
Ġa c
Ġw h
ĠK ampf
ro s
ĠK lo
u al
L ei
ann ung
S tra
ran g
lin gt
ĠVer trag
M W
samm lung
Ġer reich
w al
F A
I ON
w issenschaft
tro lle
Ġzahl reiche
Ġzum indest
ĠPro zess
leb nis
sch ra
Ġauf zu
spra ch
o te
Ne u
ĠÂ °
ly mp
ĠPar is
n glich
ĠMan agement
. "<
le e
M us
ĠLin ks
Ġa pp
Ġp asst
ĠS ituation
ler ie
ver la
Ġ4 00
De s
ĠD E
Ġwelt weit
lin ie
f li
ra ter
ĠChrist ian
Ġm as
ic al
or a
all s
pp ort
it le
( '
Ġperfe kt
ĠWebs eite
Ġre l
setz ungen
verb and
mp el
ĠFol gen
K om
ĠWirtschaft s
de st
Ġver sta
che rn
ĠiP hone
Ġspe ziel
Ġan meldung
ĠHa ar
ĠD res
ĠVor aus
ge g
Ġ5 5
200 7
m ine
Ġ7 5
b as
ĠK aufen
Ġb ra
k omp
for men
ĠD anke
Ġ rie
on t
hr ten
am ing
ff nen
Ġde utsch
S S
be zo
hau se
ĠGeburt stag
ĠK ro
ĠâĨ Ĵ
Ġg lu
v ig
b auen
ĠEi sen
ĠWir k
P ra
Ġjewei ligen
iel len
ss ystem
Ġ ren
ĠY ork
mp fe
ne l
ĠH an
ĠW ander
ĠÎ Ķ
Ġerne ut
ieren den
di gen
ĠSch ei
ĠAu fent
ti onen
ĠTei le
e rst
ĠMon tag
ei sen
Bo ok
Ġ links
Ġdig ita
ĠL ondon
ĠVe ra
k lasse
trie be
IN E
ĠS che
g r
ĠJ ohn
ol s
rei ten
Ġher unter
Ġh alt
atu ren
ĠSti l
ĠApp le
U T
ĠHo f
ĠC lub
Ġer kennen
ĠG as
ck el
ĠB all
te ren
Ġbe que
ĠG lo
ne aker
ĠA ktion
Ġgen ommen
li tz
ĠEr wach
schrei ben
te ten
ĠN atu
ie fe
Ġc om
lei ne
Ġunbe dingt
kto ren
ĠÎĶ E
On line
Ġver suchen
f ahrer
dee n
y pe
ĠTe e
Ġ raus
re chte
il der
Ġande res
ka dem
stru ktur
ĠT yp
Ġbeg innt
Ġs orgen
rech net
yn am
Ġc omp
M u
sicht lich
ĠF ig
al z
hen s
ĠLiefer ung
ĠZu dem
glich t
n or
ĠV in
ĠKa iser
rger meister
ĠT ochter
L O
Ġwich tige
Ġer lau
ĠBa den
ĠVer wendung
li k
A ll
lin ik
cks ich
Ġw ider
glie d
ĠG rau
- /
ara kter
ĠTer min
Ġbeg eister
ĠSa che
P la
pe dia
ri p
Ġle diglich
Ġs inn
aus o
oll ar
- )
Ġu p
be dingungen
ĠK urs
Ġ200 2
p art
; <
Ġge rn
mel den
ĠTe le
le gung
ĠDaten schutz
Ġver la
gent ur
Ġverk aufen
ĠStie fel
ĠS ei
ĠHeim at
pro gramm
ĠK rit
ĠFlug hafen
ĠMar ke
ĠSer ver
y si
ing les
au pt
ĠZ it
Ì §
Ġer g
g ten
Ġteil weise
ba rer
ĠBe wer
te in
fts fu
Ġgen utzt
lei tet
Ġscha ffen
Ġqu ali
ĠZe r
ĠPf lanzen
Ġor ganis
In ter
\ "
Ġwichtig sten
ĠP fer
ĠZeit punkt
Ġk napp
ĠRo ck
ungs an
ar n
ĠO per
ĠUS B
ĠE d
be wertungen
Ġunter wegs
ĠBer atung
ĠK ommunikation
ĠZent rum
n kt
u ÃŁer
ĠD orf
ĠD ro
gru ppen
ĠFe r
ĠG i
ĠAn wendung
Ġro t
ĠB eim
sa gen
tre ffen
Ġgro ÃŁer
ĠBe zir
h am
ĠM orgen
Ġ- -
Ġle gen
ĠA ktuel
w issen
ĠB ra
Ġ q
sp iegel
x us
c ol
M ein
ĠKa bel
ĠauÃŁer dem
ke a
v iel
ĠK rank
bli othe
i vers
ler s
ĠA s
Ġd rin
ss a
be lle
ĠPh il
ĠM eine
ĠBe scha
ĠBade zimmer
trie ben
{ "
ĠT ur
ĠZusammen arbeit
lin ien
Ġbe gru
Ġver stehen
ge scha
ĠMar keting
ri ger
Ġus w
s hop
hel m
Ġsp ort
H E
teg ie
ĠBur g
ĠHinter grund
tet s
Ġj unge
Ġer he
ĠSie g
ĠPro fess
Beit rag
ĠZ ahn
Ġgen annt
hal ter
Ġge lesen
ĠMann schaft
ĠJa ck
de ckt
om ie
Ġer le
Ġautomati sch
G u
tro ll
Ġsch war
ĠN un
ĠAr zt
itco in
ĠHann over
Ġin ten
Ġs orgt
ha ber
r ze
] ,
Ġden ke
ĠD reh
ĠWer be
ĠB lo
ĠK lassi
ĠH ard
Ġlie ber
b lich
Ġzu frieden
i ze
rei e
âĢ ĺ
ĠSicherheit s
ĠAuft rag
ĠKa mera
un kten
ĠAng st
den s
Ġ1 000
Ġs h
ĠLe ser
duz iert
Ġ4 3
Ġkur ze
he ren
iskus sion
Ġspa ren
Ġausge stat
ĠAb schluss
ĠAller dings
ĠSt r
Ġre ch
Ġeinge setzt
lie sen
ra gt
xe n
d te
ĠDon nerstag
t rem
ĠFre unde
ĠFran z
ĠS inn
Ġk rit
ĠRei ch
ro l
le tte
Ġbrau chen
ĠPart y
Ġum fassen
ste d
Ġp ri
ĠW ill
Ne ue
Ġrich tigen
sch uss
ĠVide os
00 00
sch auen
ĠV arian
des sen
ĠMit twoch
f reich
ĠTa schen
rt s
V P
Ġnach dem
we n
ĠR i
ĠB unde
plat te
g i
li t
co unt
sche s
io ren
Ġp artner
Ġent ha
Ġwen ige
oll ten
Ġer sch
j u
b an
ĠBild ung
ĠD ru
Ġzu erst
on y
or te
S eit
ĠSch ie
ĠFahr rad
ĠZ eiten
Ġerwar tet
bin ation
spra che
ĠKilo meter
ĠE li
Ġde inen
ĠSchwei zer
ĠArb eiten
ĠVer brau
Ġ4 9
wind igkeit
I A
l fte
Ġbe achten
Ġd ah
Ġs am
leucht ung
ren ze
Wei ter
ĠP al
Ġge ma
be wer
ĠMe dizin
de te
glich st
Ġs ingle
ĠIn halt
!! !
Mo de
Die ser
200 6
ĠP ublik
we der
st ro
ĠP op
sam keit
S pe
cke ts
iv al
Ġs tets
Ġra b
li st
Ġgew u
ĠProdu ktion
ick t
Ġb ein
ĠVerkehr s
ffiz ien
i as
Ġwahr scheinlich
all y
te chn
schei d
ĠMa c
Ġm orgen
Ġk or
ĠGe schenk
ĠLi teratur
it ten
ĠA ktivita
Ġge gru
ok al
as y
k ing
Produ kt
lker ung
Ġ200 1
la b
D S
ĠY ou
Ġgesam ten
f amil
ĠPau l
ig ner
ĠNo v
> +
ala xy
P C
i i
ran ge
F oto
ĠE ind
b len
ute s
ĠLei stungs
ĠVer arbeitung
dit ione
ĠSta aten
c or
ĠInform ation
K E
ĠC ap
hr ungen
Ġer ster
stand s
ha fte
ĠH und
ĠAnd roid
ģ Ħ
im al
pp ich
s burg
Ġman chmal
Ġ new
ar zt
ber eitung
ie te
ar o
bie ten
ĠSch lag
ĠZ oll
Sp iel
z ung
ĠMu seum
ĠSto ff
ĠLei stungen
be e
Ġgu ter
uss land
vol ution
ĠWoche nende
Ġzie hen
Ġwir tschaft
hn ung
rei g
Ġk n
re chnung
ĠMe d
Ġver d
âĢĿ <
ĠWa sch
... .<
ĠTra ining
ĠI r
ĠMo der
ĠE ro
t or
heit s
Ġdurch aus
ĠWor ld
si a
de d
ĠSpiel automaten
Ġgesam te
ĠSchne e
r g
Ġjeder zeit
Ì Ħ
ĠC O
ĠHe ute
rig ht
Ġmitt lerweile
han delt
H aus
b ieren
Le ben
Ġbe zeichnet
Ġdurch gefu
Ġfe rtig
ĠV a
ĠS inne
Ġsol chen
Ge boren
al o
Ġf eie
W ar
r ation
ide o
ĠP il
stell ten
an gebote
ĠSch nitt
d am
rt tember
Ġerforder lich
Ġaus reichen
ier tes
ng st
ĠD VD
Ġan geboten
ĠE p
ĠEin kauf
ĠUnter such
um m
L and
k lus
ĠSon ne
pp t
Ġver lie
ĠIn di
ĠIn halte
ĠBe vo
d wig
ĠIhre s
Ġsp rechen
wirk ungen
ct or
ĠAn schluss
Ġ lin
ite d
Ġk W
ve st
ĠMo ment
ĠRad io
ĠDa te
Ġsie ben
T ER
Ġgeb racht
Ġpro fessione
ĠPar tei
ĠCe nt
s ste
Ġ2 50
ĠSt au
Ġin tegr
ar be
le ger
ĠO ne
ĠMa il
c us
sch wei
os oph
ĠE dition
ĠVer t
Ġerst mals
ĠDien stag
Ġper sonen
ĠSt ahl
ar den
ĠAus gabe
ĠWe chsel
Ġo ut
ĠL aut
Ġverb unden
ĠS amm
Ġschle cht
Ġihre s
Ġbis schen
lt ra
zen z
n lichen
B au
ĠSch loss
Ġver sucht
ĠIn s
ta iner
brigen s
Ġver antwort
des ign
Ġbeg ann
i cken
Ġ acht
ĠL am
ver se
sch nit
ĠPh ili
Ġg rau
b re
ma ler
K inder
walt ungs
Ġmehre ren
Ġgen ieÃŁen
ĠEin wohner
ĠZu gang
ag ue
stu hl
di das
>â Ĩ
me dia
ru g
ĠK ino
sch irm
ĠAn spruch
ne in
mp fa
Ġu ner
bau m
Ġob wohl
K W
war d
Ġsel ten
i res
rz t
se d
pf lege
Ġsch la
t au
os k
ĠSt unde
ĠBrow ser
Ġ6 5
as te
ĠÂ» <
ter ien
R a
S ystem
ce r
Un sere
ĠInternation al
H och
Ġaus fu
Ġ4 6
it ar
Ġerh ielt
sch ungs
ĠSP D
pp ing
Ġka men
ĠN ummer
ĠT w
Ġt u
ĠB ir
* <
Ġer stellen
G E
ĠPo wer
Ġdenn och
ĠFun ktionen
her r
w id
u fe
D A
ĠZusammen hang
â ģĦ
ĠSlo ts
ĠT raum
ĠAuf gabe
Ġt op
ig ungs
n y
ĠNach bar
ck te
ze ne
Ġver w
Ġg ames
ĠMe dia
olog ische
ag no
je ct
Ġgute s
rttember g
Ġ4 1
ĠH um
Ġschne lle
ĠS E
Ġgar ant
ver fahren
ĠP i
geb racht
s b
ĠRe chte
stell te
p assen
zu gs
je n
t tel
geb nisse
ĠE uch
wend ungen
ĠZei chen
Ġeinz ige
ze sse
ĠMe di
Ġge lo
ber blick
ze hn
Ġdar in
ĠSch wa
ĠM acht
r ati
ren nen
tz ten
= =
s dorf
sp ar
ĠBe zug
ĠAn lage
ĠStu die
ĠK no
r ut
ati k
Al so
ffe kt
bo den
We st
o ff
ĠLand kreis
T op
ĠMasch inen
lt lich
Ġun abha
ĠSter ne
spe kt
ĠVers icher
gra mme
ĠII I
Ġbestimm ten
Ġge le
dig t
Ġein zigar
Ġa ktualis
a ktiv
il ber
ĠG re
Ġge kommen
v an
ame rikan
ĠAr m
ĠRis iko
3 00
ĠEr na
ĠO lymp
p ol
ĠS neaker
S ti
ĠG ame
ĠTh is
U r
ĠFre ude
Ġent stehen
ĠKateg orien
T h
f un
Ġbeson dere
s um
ĠRe st
b ilita
ĠMar ia
mo tion
te uer
nen t
um in
ist ik
ot to
ĠGe setz
mm t
utsch eine
Start seite
Ġgef allen
Ġge a
ĠZahl ungs
st ation
be trieb
ĠVer sta
Ġer f
k ul
ĠK och
an lagen
P ar
Ġausge wa
lt ure
y mp
Ġd is
ĠAus land
de ne
ger ichtet
ang s
Ġbelieb te
b ra
> *
ĠBer liner
Ġgen auso
ĠQ ue
be ck
sch lossen
me rikan
ĠRe d
c ts
far be
ĠA R
ĠG olf
De ut
ĠB ot
g ien
ĠB rief
ĠAndre as
ĠGener al
pf licht
ĠK eine
Ġnie der
ĠI P
u rer
ĠVeranstalt ung
ĠHal lo
hol t
we st
Ġwen igen
ĠT ru
N E
____ ____
ĠGe sicht
Ġrel ativ
sto ck
C hr
ĠP ul
c re
s wert
ĠAus fu
Ġklei ner
ĠSa chen
we e
Ġda gegen
ĠDres den
Ġnah m
ĠNe t
fern ung
ĠKrie g
wei te
ieren d
Ġwunder scho
F F
ĠP osition
Ġm l
Ġver gessen
Ġt yp
el s
ĠR E
Ġent gegen
ge ord
ĠRe s
ĠBen utzer
Ġso dass
S E
ort s
Ġrab att
zie ll
Ġwar ten
ĠâĢ º
ber eit
S C
Ġver ste
Je tzt
ĠR unde
k und
Ġausgestat tet
ĠNetz werk
Ġ6 4
z ur
ĠHer zen
sa ck
Ġj ungen
ien ce
ĠMaÃŁ nahmen
legen heit
ĠRestauran ts
be werb
o le
ĠCH F
ab ine
ach tet
st isch
gew icht
Ġfe hlen
be darf
Ġ Ã
ĠZeit ung
in fo
ĠVe ro
F in
ĠT au
sp oli
ĠPap ier
ta ble
sp f
Ġsch rieb
ĠBo x
De n
d ag
ĠO hne
ĠP ha
W elt
Ġentsprechen d
ĠS eine
mittel t
Ġnot wendig
fig ur
ĠS ehr
z it
ĠDe kor
Ġmit tel
ce nt
ĠZ ahlen
ser ie
treu ung
ĠO li
d atum
i ven
Ġdar um
ĠT iere
ĠS achsen
ĠGe org
Ġb i
ĠT at
Ġge o
ĠSp eicher
tre ter
Ġt ut
Ġg ra
ĠM att
ar tikel
de cke
O W
ĠRe a
Ġkosten lose
du l
mer z
ĠSch reib
ĠBe griff
Ġe nd
ber atung
ĠJ ourn
O C
r hein
ren d
g ress
r or
n icht
c ation
d auer
Ġd ur
ali sten
ĠH istor
K ar
at o
ĠM iet
ch se
Ġan t
ĠGesundheit s
f l
ĠGot tes
ĠStand ort
fe hl
Ġverlo ren
ĠPf ar
ĠA M
wus st
c ur
ital ien
Ġt oll
b eit
ĠVer halten
ĠH immel
ĠL eit
ber all
ĠCook ies
Ġm achte
Ġkre dit
c ia
Ð »
ke tte
W el
Ġe gal
Ad resse
ĠLu dwig
De utschland
p unkte
alt ung
ro ss
Ġh andel
ndig ung
ĠEdel stahl
p lo
Ġverdie nen
Ġgest alten
ĠAkt ien
ĠZ o
b lau
inform ationen
ĠP in
ĠM ad
le cht
ue rt
ĠH eil
ĠBlu men
k ampf
+ +
ĠE t
st ige
rn berg
ĠQu ali
D I
y o
ĠWe ge
ĠLin ie
S ehr
Ġpersonen bezo
b lu
Ġpass iert
ĠMus ter
Ġk inder
is iert
wer be
Ġe Bay
Ġmel den
zi f
ĠG rad
ĠV it
ĠBre men
ro om
ĠAn forderungen
del n
Ġabsol ut
ĠVor teile
Ġer stellt
n liche
k aufen
ĠInte ressen
ĠA B
ie d
ĠM B
ograph ie
ge staltung
ch tig
ĠEin fu
an ta
ĠF r
sp lan
ler nt
> Â«
l ter
ĠWir kung
Ġunse res
sent iert
fu l
ĠFor schung
ĠBahn hof
Ġ reich
st itu
is ierung
as ter
an nes
Re cht
ĠSte fan
ger s
ĠSch luss
Ġst ud
ĠOber fla
ĠTran sport
v ange
ĠA L
ge ma
ĠL im
Ġperfe kte
ul d
ĠNo te
Ġver gleich
N ame
Die ses
> @
ĠGe mu
stau sch
Ne ws
sp recher
d or
Ġverk auft
ĠWar um
ĠAu dio
Ver s
on ie
Ġor ig
aue rt
ĠSy mp
ĠPa ck
âĢ ŀ
Ġwir kt
il ler
Ġverbesser n
Ġb onus
ĠM w
lie ben
k urs
ch ster
ter ne
g ner
ver y
qu alita
Ġw issenschaft
Ġh u
ĠSmart phone
z ahlt
ĠK le
ch tet
ĠSo und
om me
ĠEx perten
v ollen
J o
ph p
ho se
Ġher r
ĠUn ser
isk ut
mp fen
Ġne g
ĠO pen
h och
r ier
G H
Ġerwar ten
Ġur spru
gem einen
w olle
ite inander
ang a
ĠEur op
N icht
W ohn
sa chen
ĠF ab
Ġp ol
Ġbeg innen
mit tag
ap ier
ĠN EU
Ġge ld
bel n
ĠDes halb
r kt
Ġes sen
ĠF ahrer
p re
Ġlan gen
Ġ 000
ĠSter nen
ke rn
geb a
Ġfinde st
son sten
Ġheu tigen
ĠFit ness
Ġsp richt
ĠInter ne
/ <
an gebot
ĠPe n
Ġentwick eln
ĠVor teil
Ġum fang
O K
Ġ4 7
sel n
ĠKe rn
H R
ĠRe zen
r gen
le ss
Ġei g
ĠVer ha
Ġde iner
wor tet
ate d
ĠE nglisch
ĠKunst stoff
r mer
o ss
ĠDig ital
ĠS au
gri ffen
ĠD auer
le der
eiche rt
ril le
ge benen
Ġglau be
kir chen
Ġd ating
ĠSam sung
ĠPrem ium
ah res
M A
alis mus
im g
in ten
ĠBer icht
Ġirgend wie
ĠSe min
Ġrei cht
ei ter
ĠAl bum
ĠK ant
Ġver lassen
> |
Ġha ve
ĠF ein
. )<
ran s
Ġli ve
ĠC lo
ff nungs
ĠG B
Ġ19 99
ja cke
ĠS ein
Ġex trem
Ġer leben
( "
Ġs icht
w urf
ĠSlo t
ress um
ĠG rie
ĠSch iff
Ġdar unter
ver trag
ĠUn fall
al ler
L A
Ġbestimm te
ust rie
Ġw ann
me sse
gri ffe
ĠG la
ĠW ohl
sp an
Ġlie ben
ĠH on
Ġein gesch
orie nt
T u
on line
Ġh aus
Ġtra ditione
Fu ÃŁ
al ien
ĠSt ro
ge nes
ĠGe fa
ĠS ha
ĠC olle
U p
e x
de nen
rei cher
ĠK ann
ĠK as
Ġbu chen
il ien
m or
ĠIn stitut
te c
n fte
nis sen
Ġeinfa che
ĠW eite
ĠDa her
glie der
ri b
ĠMin ister
ĠStart seite
ag ra
ĠD or
ĠT rin
Ġmo dern
i us
f ass
Ġm ach
Ġin zwischen
Ġmoder ne
t ung
Ser vice
an zeigen
rs g
Ġex tra
ĠBe du
Ì Ĩ
fa len
m isch
ĠGe bu
ĠS V
Ġgo od
Ġ land
Ġber uf
le nt
kor b
Ġf allen
st ab
ie ur
Ġfol gt
ĠJ ung
ĠK unde
ĠK art
ĠCo de
Ġf un
p ot
dag og
Ġge mu
ĠVerbrau cher
Ġb rit
li ger
ip l
Ġver gleichen
ĠA N
Ġpassen de
ĠSto ck
ĠLei ter
Ġge spielt
Ġerlau bt
ĠAll tag
n ur
ĠOrganis ation
D aten
Ġden ken
Ġkon kre
D P
Ġb auen
Ġz ahlen
wer den
âĢľ .<
ĠS at
M in
Ġlie ÃŁ
Ġke nnt
uch ten
p u
ĠSp iegel
f rau
ce nter
I st
ĠSpra ch
ĠLebens mittel
ĠOrt s
iel d
Ġschne ller
Ġmo re
S am
Ġge sucht
r ker
ta gen
art s
Ġ5 4
Ġse x
ie w
con tent
ad o
ru he
A A
200 5
b it
p fe
Ð º
ĠW illi
Ġat tra
ĠWer bung
r unde
ĠIn stru
m g
ĠIn tel
> Â»
f alt
ĠH ot
ĠSch lie
hl ten
Ġlang sam
ro t
Sch o
ÃŁe re
Ġdrau f
mm ung
ree t
mb ol
f lo
ĠF lor
be g
li m
Ġsch reibt
ĠFeuer wehr
ur ist
ba y
Ġkom bin
Ġp h
ce des
ĠWelt krie
ĠN ike
p asst
ĠBe dingungen
ĠTro tz
ĠMw St
D i
r zen
rau ben
ĠAr ten
ĠG ames
ĠEr inner
Ġe ffe
ĠRo bert
ge wo
amp ag
lau ch
b ald
Ġgrund sa
00 3
Ġ ter
kti k
geb u
ei den
Ġnoch mal
id s
stall ation
Ġde l
Ġer weiter
Ġslo ts
Ġdeine m
wor k
las h
ĠSchau spieler
ĠJahrhunder ts
ĠMicro soft
ĠRecht san
vis or
ut ze
ĠE hren
k ar
D o
Ġge ra
ul ation
vo line
ag d
ĠM c
v ar
Ġmus st
Ġge stern
ĠHandel s
Ġ199 0
ĠBe wegung
ah nen
Ġgek auft
ĠMo tiv
ĠPro fil
Ġent weder
n itz
ĠBe e
Ġt au
ĠO p
Ġla g
X L
B A
ĠS tern
Ġd auer
Ġbe ob
ĠAl ten
ĠP um
ĠG T
Ġei gen
L u
ĠDa vid
Ġent decken
Ġzahl reichen
au lt
ĠJob s
p x
ge geben
ĠG anz
di sche
AN D
ĠO f
ĠAuf bau
ĠG ei
Ġbede uten
wei ÃŁ
Ġerschei nt
ĠV W
os ter
ĠB ie
ĠLu st
ren a
P oli
ĠVor sitzen
Ġ arbeitet
k opf
sa che
ĠSpe zi
f as
au st
S hop
ĠW under
Ġk at
ho len
be llen
rich tet
r c
ĠR ussland
Ġf lie
b lichen
ĠLi ter
Ġ arbeite
ĠF ans
ven tion
mo spha
ĠJ apan
in ings
ĠGebie t
gang s
g y
ĠO ffen
ĠTa sche
me tho
ĠMe sse
ĠQu ad
ĠVerein s
ĠMerk ur
Ġde utschland
Ġverb in
Ġun mittel
ĠStra f
ĠVer ka
ĠBu d
S U
ra gs
Ġvor ne
a les
ĠE ss
Ġwe der
st lichen
a e
be u
nf tig
d ach
ive au
Ġinform ieren
ĠPoli tiker
sp on
age s
r sten
lei ten
ĠV ort
Ġo ber
Ġ9 9
Ġun g
ĠK al
R W
Ġd re
Ġbek annte
ĠProdu kten
st il
i ler
c ar
ule tte
Ġd ritten
nu ll
othe ke
Ġ italien
ĠW LAN
ĠM ei
V O
ĠT el
ĠU ser
A ktuel
sch i
Ġso weit
Te lefon
ĠK G
Ġ* <
ĠKar riere
ĠMas ter
isten z
a zin
las sung
G rund
Ġp sych
ĠStu dium
Ġv ia
Ġauf genommen
Ġho ffe
se que
Ġgen annten
ĠS C
P U
ĠAn zeige
ĠEr de
ĠV ielleicht
Ġentsprechen den
ren n
Ġkommen den
Ar ch
che ster
ner n
ĠBal kon
umin ium
ĠGe wa
op y
ma chen
Ġf ro
Ġ5 2
ĠPro jekte
og a
ĠGe h
p le
Ġver pflich
fik ation
r fte
ĠMode lle
d ra
Ġe ngli
ge hend
ĠRe lig
di re
ĠKat zen
fer ung
Ġer ga
F T
ĠF rieden
Ġst arten
ĠG lau
ĠW ur
I K
ĠBe k
ĠAn frage
olog ischen
ĠWolf gang
Sta dt
Ġg arten
Ġnach hal
ĠD okument
ĠIn nov
ĠOut door
ĠB ier
Ġ[... ]<
Ġgen u
N ur
me ssen
ĠPa y
ĠI de
ric an
Ġa merikan
a kt
lie fert
at oren
ari f
ĠMo bil
ĠAm ts
Ġn atur
ĠG ran
ĠO l
ta kte
li o
ĠD ist
B itte
Ġt otal
lan gt
Sch u
f le
ik on
kt uren
n as
w illi
Ġbil den
ĠH alle
W E
b liche
Â §
zeichn is
ĠDen k
Ġre ag
Ġbesonde ren
ĠVertra gs
Ġsiche rlich
iki pedia
ĠFahr t
zus tellen
" -
ĠF ro
ard s
a a
F ilm
ĠgroÃŁe s
ĠFil me
L in
ĠGrund stu
form ance
Ġ6 00
ord in
di schen
sel ler
ĠAk ku
ili ty
Ġaus dru
Ġpro fit
C O
Ġf ragen
or ge
Ġp ru
D anke
ĠMotor rad
Ġklei nes
kadem ie
Ġs an
ĠGesch mack
ĠUr teil
Ġer z
ĠHe n
Z immer
rich te
ĠGe fahr
ĠF isch
Ġbeque m
ĠVer le
o ten
bliothe k
Ġb lieb
v ing
Ġre ad
Ġt rifft
Ġâ ľ
Ġbe suchen
ron ik
p i
Ġzu sta
leuch te
Te chn
ĠPo ol
Ġi deen
ĠâĢ ł
ste chnik
Ġt ief
reg ierung
Ġ199 8
Ġsp u
ĠAufent halt
ĠUn ion
sp u
S eite
ĠTerr asse
re x
i or
ut ton
le ase
ĠMan ager
Ġi f
" .<
Ġglei che
ĠSch la
Ġko stet
ind ungen
ĠKlei d
r sen
ir us
ĠWel che
ĠDort mund
S L
la dung
acht ung
Ġkennen lernen
Ġzu nehmen
Ġex ist
Ġ teilen
ĠBe schreibung
ho tel
ĠP as
ĠArbeit sp
Ġpro du
ĠL ab
ĠKo oper
Ġstell te
nde ten
ĠKrit ik
ĠAm t
s berg
ve ra
minister ium
ĠG ol
an y
O r
Ġbe rech
ĠKom bination
4 00
m d
ĠS ign
Ġge bu
F ahr
Ġent schieden
ĠM ir
ich ter
b log
ĠBe reichen
he mati
ĠB MW
lassi c
ve s
mpfa dern
S D
lin a
cht ung
Ġwei ss
ĠSp anien
oh ol
á Ĩ
ĠKon to
Z e
ĠT anz
hand lungen
ĠMik ro
olog y
Ġf oto
ĠDas s
i tel
ĠGe b
g las
Ġin nov
ha gen
ĠGrund lage
T eil
Ġlo hnt
il a
ĠW achst
r kte
is o
Ġge tro
Ġhin ten
at us
ĠðŁ ĺ
S CH
Gesch ichte
ĠO ption
v y
atter ie
ĠSch on
EN T
and a
B E
ĠDar u
ĠEigen schaften
ĠF rem
ash ion
ĠHein rich
ĠAus stellung
Ġsch auen
vers orgung
ĠSk i
z wei
Ġreg ion
h te
H L
M eine
bo ten
Ġf lex
cke y
>Â ©
ĠIn n
Ġb lo
ĠE ben
ĠM io
ĠThe rapie
ĠN utz
ĠVo gel
hren de
iti ative
ĠZwe ck
ĠK laus
ĠPo ten
el a
ĠD iskussion
ĠR icht
ĠScha den
v t
ss lich
tro l
Ġr us
lu ft
P R
Z eit
y al
s al
m ei
ment ar
g in
ĠUm satz
fil ter
Ġher um
p osit
ĠS ur
gangen heit
ĠBe ach
Ġd ro
ne m
Ġpro blem
Ġ8 5
ĠLe hrer
Ġin vest
ĠD DR
e p
schen ke
Ġ5 6
ĠInterne ts
amm t
ĠD ein
l ue
for schung
1 01
T C
poli tik
ĠAn alyse
ĠO s
Ġk ra
ĠKon zept
Ġal leine
bild ungs
ĠAlex ander
ĠRo sen
P O
il len
Ġan ti
, .
d ungen
an ze
Ġm iteinander
plat ten
ĠKe nnt
ĠE cht
de ten
hr lei
ĠWil helm
Ġe l
ĠK op
ge setzt
ĠBe tra
ĠAnt rag
an ischen
a de
ĠMilli arden
m is
Ġs org
ĠUr lau
Ġh ol
ĠAu di
Ġviel fa
Ġal ternative
forder ung
Ber lin
alis iert
st lich
ĠS un
Ġdes ign
ĠVer waltungs
n ing
ĠAd resse
ri scher
ĠGro ÃŁe
Ġber ichtet
ĠIn fo
ĠHome page
D ar
id t
fre d
Ġfe hlt
ĠAn na
K unden
such te
mus ik
uch te
ĠIn tegr
ĠR ing
Ġte st
ĠGe heim
Ġn ow
ĠG renzen
Ġ5 9
ĠSp itzen
ĠN orden
ĠK i
ĠTe mp
ste l
ran ten
ti scher
ĠPer so
hin dern
ĠGe gner
ge d
Ġb au
D ien
Ġmus sten
ĠKosten los
Ġsch li
Ġv an
Ġei nt
Ġan schlieÃŁend
Un ivers
Ġz w
Ġs ah
r chen
ĠLu xus
Ġge setzt
k as
Ġme nsch
hens wu
Un ser
ĠT atsa
ine s
A K
ĠMil ch
on ne
ĠP arte
z um
g licherweise
ĠC am
wil lig
rich ter
eiche rn
ĠSp itze
ĠG alaxy
ĠF al
ord s
ĠSch muck
M ag
** **
C E
Ġla st
ĠUm gang
ie fer
n ie
Ġzie ht
mode ll
it or
len k
ĠFran zo
Ġ achten
Ġwel chen
ĠQ uelle
ĠAll gemein
me lt
c le
inde x
ĠG ute
ste igen
ĠB lock
Ġdurch schnitt
Ġink lusive
ĠMaterial ien
ĠSho w
Ġs auber
ĠRe da
ĠB rem
gemein de
ĠW M
ĠEin fluss
ã Ĥ
h orn
io us
ĠJu st
Ġge be
ĠH art
. .<
ĠH ir
Ġge boren
Ġver an
ch tes
Ġslo t
ĠPlan ung
ĠGew alt
ĠRe c
In form
ĠLei der
a der
rie s
ga ge
ĠUnivers ity
lo ver
ĠCe nter
ĠD re
scha ffen
Ġs ystem
Ġmit tels
n ungen
I hr
ĠNach dem
for um
Ġhochwer tige
ĠAuf nahme
1 12
Ġte sten
Ġspiel te
ĠS ow
Ġmoder nen
c ast
ĠTemper atur
recht s
Ġge ne
ĠC u
ĠBe teilig
b b
ĠBe ho
Ġme dizin
Ġ ?<
Ġf lu
or m
Z it
zu fu
s itz
ĠBe stellung
f lus
ĠZu sch
pen den
ver ha
ĠBe ob
le tten
ĠDa fu
Ġstar ke
isch of
ĠArbeit geber
Ġ1 10
ĠWerk zeug
Ġse n
ber ichte
Ġd pa
m acht
U L
ĠE vent
f unk
ĠUnter richt
Ġge zeigt
Ġste igen
Ġge schu
ĠRe al
> âĢľ
ĠW ell
ver waltung
ĠR us
Ġhil freich
ar ma
ĠGra fik
leg te
we nden
ha ften
ĠSe kunden
Ġvor stellen
ĠVer besser
ur y
ĠUm setzung
Ġbe ant
ĠSchu len
Ġe vent
Ġha bt
ĠM isch
I nd
Ġbe an
Ġentsprechen de
ĠB run
ĠS CH
b or
mb and
ĠM ig
Ġlo ka
ĠSt ati
ĠF i
Ġp lus
ĠVer sch
) )
ten d
ĠTeam s
ĠL ad
ĠN och
geb lich
wo od
ĠC al
ide e
ĠUnter schied
schu h
p r
Ġgew ann
B uch
Ġ5 8
ĠGerman y
ĠM ie
ĠR ang
ĠJoh annes
ber nehmen
Ġentsp richt
ĠF ront
ber s
auft rag
Ġp lo
di ger
ĠFrei e
nah m
peten z
for d
D is
rder t
k w
ĠF leisch
stell ungs
ĠK au
um l
ĠKon zert
Ġinteress ant
Ġentfer nen
ĠJe der
/ -
Ġh eim
sp rung
ĠMin ute
ĠSch war
he d
A nd
Ġ5 1
ĠVer gangenheit
Ġwir st
wer ks
ĠâĢ ļ
ber zeugt
fahr ung
Ġpo st
zel len
ĠTechn ologie
f tigt
li ma
B is
Ġwich tiger
ber setzung
Ġbes itzt
H ei
ta b
ĠO pfer
Ġzei ch
ĠM au
Ġfe r
Ġelekt ron
ĠPro vin
ge legt
ĠEr nst
v ia
Ġwich tigen
ĠAut os
ok us
kir che
Ġs c
ĠAus stattung
ĠT om
Ġ18 0
ĠI V
Ġehema ligen
tig te
ĠMed ika
vis ion
Ġm ark
ĠRei fen
Ġv ar
K ateg
ĠR oh
ĠG eist
ĠG ab
ĠVert rauen
k g
Ġwir ken
Ġ ..
ff ung
ĠAc cess
Ġs im
Ġn ation
h igen
d re
ĠA qu
ĠK os
Ġo ne
ĠPh ysi
ĠWeihn achten
ĠFor schungs
te id
Ġbis he
l tigen
ĠT her
hal len
si ze
- <
ndig t
ĠD adurch
c ing
Ġsollte st
ĠArch iv
Ġw achsen
R ad
S A
ĠH i
f ur
Ġentwick el
sta at
F C
Ġ9 5
Ġv oller
as i
rei ses
St ar
be cken
Te am
Ġe le
am i
ĠSch lei
ho ps
Ġwe b
ĠAn ha
auf nahme
ima ges
Ġwas ser
ĠKlo ster
ĠOpti onen
ĠHin weis
fal se
Ġnach ge
ĠVersand kosten
ÃŁe ren
ĠOrd nung
ra pe
be schreibung
ĠVer waltung
Ġge dacht
o st
t um
ĠIm mer
me d
laf zimmer
rdig keiten
ĠDem ok
Su per
k ri
ĠT ha
Ġk licken
we ge
Ġne un
be k
ĠSte p
k tes
Ñ ĥ
ĠLe sen
de u
out ube
f ried
ĠTren d
ĠB R
zieh ungs
i da
Sh irt
ĠDan iel
ĠVerein ig
Ġpoli tische
ĠGe tra
al ys
ili s
ĠMo dern
zeich nen
ĠWor ks
S c
Ġge halten
Ġt ollen
ĠNews letter
w ann
ĠEind ruck
ĠKolle gen
Ġf ach
ĠChe m
F rei
ĠD arm
200 4
ĠBe weg
rin t
ine in
ffent lichkeit
Ġpoli tischen
ĠR and
sche ch
ĠDeutschland s
ĠDis play
ĠAu st
ffent liche
Ġfal sch
uch tisch
ĠSch l
ĠM und
ĠPo ker
ĠI ma
il s
ĠSti ftung
Ġbe wa
mel det
ĠAl ternative
Ġf anden
ĠL iga
He ute
fe s
ĠBundes liga
duz ieren
g ol
ver sammlung
ĠPa ar
r fe
ĠLa den
Ġum fasst
ĠFil ter
sp annung
ĠRe chnung
B O
Ġsch wei
klei d
ĠC le
ĠKar ls
oh ne
ĠAl ters
ĠTi pp
ĠT un
ĠE u
ĠT al
sp artner
deck ung
ĠGel a
ym nas
ĠAu g
Ġ )<
wa ren
ĠPol y
ĠD anach
B us
ĠZus atz
um me
ĠZu cker
m bo
Ġausreichen d
z ier
ug h
Ġ199 7
Ġange zeigt
Ġg lo
ĠCo unt
nn is
ĠBru st
se arch
ĠMo del
" ]
schei dung
ĠSo cial
Ġweite rer
W ind
Ġ6 9
ĠPo len
Ġin nen
p ho
ber wach
k ohol
si den
b indung
ĠAuf lage
ĠCD U
Ġer nst
ĠSchne ll
vi de
ĠAn teil
Ġ5 3
Ġhin gegen
c at
O rt
ĠP ubli
wei sung
or ganis
n ow
ĠStre cke
F i
ĠEr kla
wohn ungen
che l
ĠC y
re gel
Ġ8 00
ĠLa de
ku ltur
ĠCor ona
Ġverantwort lich
Ġbe wusst
ach ter
Ġbegeister t
ĠStu denten
atu re
ba st
ĠKlei der
. [
ĠV an
Ġte lefon
ma x
ur ce
a ren
ĠG rand
A V
al te
ss igkeit
s inn
ĠBe ziehung
ĠG reen
hr liche
z gl
F o
Ġvor aus
ĠE reig
ĠNo voline
der ung
ĠBeson ders
ĠEuro pe
rei ne
ĠM ilita
Ġ14 0
% <
Ġposit iv
chte st
- )<
gemein schaft
ĠPreis vergleich
geb nis
Ġi den
forder t
Aut or
stor ben
n ze
ĠTei len
an dern
Ġ !<
ĠR ollen
ter t
ĠCh arakter
ĠH at
frist ig
Ġp lan
arb eits
dien ung
i tes
B ER
i me
ĠB ig
h ige
f tigen
b rechen
ĠUp date
ĠLe ague
Ġ199 6
ĠJ ungen
ren nt
v as
ier s
ger ung
Ġb ar
ĠTeil nahme
ler in
Ġbe d
stimm ungen
b ungs
ĠLa st
vie ws
Ġbe zahlen
ĠFahr zeuge
p ul
b orn
ĠSt amm
ti tel
ĠRe zept
Ġaus wa
ĠH ab
um b
Ġbe ton
Ġ- <
Ġ5 7
e k
ĠInter view
po ol
ĠLe se
ver kauf
u ne
ĠVol k
ar l
u la
Ġgesch lossen
K omp
F ol
Ġmus ik
H rsg
Mus ik
ĠN ik
ĠRegel n
ĠPro je
ĠHe ssen
Ġsch wa
Ġnot wend
cri ption
zi ger
schu len
g reifen
hre ad
ĠWa re
Ġbesse re
Ġfor m
Ġ orden
ĠPar la
hol ung
nt he
Ġd iskut
ve d
Ġo ur
iche rt
ĠWe sten
fe ren
Ġpla y
6 00
ĠAut om
ĠEin richtung
b rit
ist rieren
O ber
ĠInve stit
Ġbe tei
St o
ĠN ahr
Ġinternation ale
Ġge braucht
te x
Ġp df
ĠTre ffen
& #
Ġle bt
ĠB auern
zie ht
ber tra
Ġbewer ten
k ord
ĠLe r
Ġdie nt
Ġver schieden
Ġgew o
ĠBa y
Ġs k
ĠNeue s
Ġver hindern
ĠWer te
Ne ben
ĠS he
Ġh aupt
ĠF an
an ische
he ber
ĠAb satz
Tag s
Ġbek annten
ĠN ein
ĠL y
ĠStu dio
Ġzu verla
Ġver treten
Ġsch rift
ver sion
Ġe ure
Ġnie mand
ĠStru ktur
ver t
re f
ne u
Ġv is
and o
ĠK it
Mode ll
ĠOff ice
T R
Ġent standen
ĠV om
Ġ199 5
ĠBild ungs
re l
ber zeugen
ĠBe darf
ss ige
Ġsie he
B eim
ĠFe tt
P f
L INE
g ing
ĠKra mpfadern
rk ei
we chs
d on
ti m
Ġse he
9 78
ĠZ iele
ĠGr ill
Aut o
ver mittlung
spru chs
g ht
ĠInform ations
ã ģ
ĠK lassen
ĠZent ral
ĠZu ge
d us
Ġh olz
far ben
li gt
f ic
ur laub
ffizien z
ĠGe rade
Ġz o
Ġf la
D ER
Ġa p
ĠF as
p ft
ĠLieb lings
ĠK ing
ĠErwach sene
D ann
ĠTh u
Ġf rauen
ĠM P
ĠM iss
fer tigt
si denten
ĠKrie gs
iz z
8 00
Ġweite res
ra len
: \
Ġver y
Ġide al
r liche
ĠH als
Ġmo bile
Ġmu ÃŁ
B ahn
ĠO ster
di ge
lo ses
H ol
ru fe
ĠJ ul
Ġh as
ĠLe e
land s
ĠMo bile
me dizin
ĠZeit raum
or ten
Alle s
gra d
oh nt
ver tra
Da men
Ġle e
ti al
ĠNach richt
ra hmen
ĠW all
ĠFern seh
K at
ĠE inen
Ad visor
ĠA ch
ĠAnt on
un ger
ĠEr ste
st ische
Ġkon takt
ĠT y
schie nen
ĠB an
ĠMa y
st art
st rom
} ,
ĠA S
ĠB reite
ĠKon trolle
ir l
ĠAn aly
n scht
par atur
k asten
ĠW eil
Ġgew onnen
ĠL ap
ĠTri p
ĠAll gemeine
ĠauÃŁer halb
b by
ĠTw itter
ĠCh amp
F arbe
sprechen d
Ġspe ziell
rie nt
mt liche
B undes
Ġ6 6
we nn
ĠKom fort
ĠLe rn
ĠTra inings
ĠEin fach
S el
Ġsozia len
F re
ĠAp art
ĠTra dition
Ġs ho
ĠChance n
Ġbis lang
ĠGesch ichten
i ble
Ġ ~
Chr ist
Ġverm ut
ĠAl uminium
ĠF und
ĠEin ige
ĠM A
Ġbesch rieben
Ġkur zen
Ġaus geb
zo ne
kenn ung
k us
ã ĥ
spa ren
st ant
it iv
Ġs au
< /
fel der
lan de
ĠWie ner
ka lender
ĠP lattform
ta schen
B el
as on
ĠO sten
ĠCa fe
" )
ĠD ollar
ĠT im
sch iff
Ġeng ag
Ġher gestellt
sk on
Se t
Ġgeplan t
p um
. ):
ste il
Ġerschei nen
ĠE ner
ĠAu ff
ĠC ho
ĠE N
C e
Ġre zept
onen ten
gbar keit
ver schluss
olo ge
ĠV illa
ĠK ein
v ille
Ġf ein
hn lichen
M I
ders achsen
Ġdar aus
Ġin stall
ĠEnt fernung
ĠVor der
Ġ199 4
Ġw and
ĠKe nn
ie g
Ġkon zent
ĠViel zahl
K re
ĠAn lagen
mp f
Ġm g
Ġei genes
is a
Vers and
Ġeinzel ne
N ie
ĠEx e
Ġgarant iert
liegen den
Ġc re
Ġk ap
ĠAn kunft
li sten
ĠEr krank
Ġent steht
ma ÃŁen
Fe rn
Ġopti m
!! !<
ĠDa tei
ĠVerantwort ung
Ġte uer
r man
hei mer
D on
ĠS ar
Ġlei sten
Ġent lang
Ġeinige s
Ġbe raten
ĠK eller
ĠD om
Ġsogen annte
Ġsta at
ĠEr lebnis
Ġverm eiden
Per son
tz lichen
schei det
ĠEr weiter
Ġbeein flus
ĠL ight
ĠEr kennt
ĠRep ublik
i que
ĠWa gen
ĠAt mospha
ĠW i
d ge
Ġge lang
ĠB und
Ġt ritt
wie gend
si scher
âĢ º
Z us
ber tragen
kun st
ĠArchite ktur
ĠGegen satz
ka bel
ĠZ y
H z
lex e
k ro
wee n
ĠR oll
ĠSt reit
ĠE ngli
Ġvermut lich
. ),
w ander
zeichn ungen
o us
Ġb raun
> âĢĵ
ir st
ĠLe hre
Ġ \
1 50
Ġw id
ĠKon kur
Ġbe handelt
ĠBon n
bo gen
ĠAben teuer
ck ing
ĠL eitung
Her steller
tig ten
ĠT ab
n ti
o ires
ili t
F amil
g yp
ĠA mb
va il
i ro
se her
F rank
re st
ste dt
Ġinteress iert
E l
n ien
ion al
ĠO hr
Ġwieder um
ann ien
stag ram
ĠMus kel
. /
freie n
Ġsogen annten
ba res
ĠHin weise
P artner
Ġwesent lich
ĠFrei heit
ĠAut omaten
ĠIs ra
Ġd auert
s ich
Artikel nummer
ĠWa ffen
rat s
Ġpassen den
be sch
C C
ĠCamp ing
ĠBau ch
ĠGro up
G ra
ĠGe legenheit
w p
ti fik
p ass
ord net
gel s
k ommt
zieh ungen
th or
hren den
Ġan bieten
Ġprakti sch
maÃŁ nahmen
Ġent deckt
r asse
H D
ĠB anken
ĠD oku
Ġ6 8
Ì Ĭ
B B
ĠVer la
ti ke
nen d
ie ÃŁ
s us
he ben
w ein
ĠT ief
nd orf
ĠGast geber
t rue
ĠFall s
p ublik
ĠBru der
ĠF ischer
aut y
ge fa
ol les
sei tig
ĠF lex
ĠFor men
P ort
Ge n
ze ption
M P
Ġgesp eichert
Kon takt
ĠDe tail
ĠGe setze
Ġ19 45
Ġzer sto
n sten
Ġv s
p at
ti ment
Ġklassi schen
ĠApp s
g no
u hr
ĠWer ke
Ġ19 80
ck ge
ĠSchu h
f ru
gesch oss
ĠGe staltung
Ġf alls
Ġzu ku
l g
Ġdie nen
Ġstar tet
I ER
Ġtechn ischen
ĠRe tt
ĠSu b
IS BN
ĠP R
V ideo
Ġlie b
rein igung
Ġd unk
ĠI t
ĠO tto
st alten
sen den
ĠS tei
sch merzen
C omp
Ġla den
pp y
ĠB itcoin
az ita
ĠSon g
Ġt rat
Ġru hig
re ten
Ġgeb aut
wer ten
ĠAut ob
ĠHigh light
FuÃŁ ball
ir che
ĠEn gage
Ġstar ken
ĠKe y
ĠMa le
P h
ĠHa fen
B as
Ver sion
Ġposit ive
ĠD rit
F il
ĠKri terien
ei se
it ch
War um
ĠZus a
me rika
ĠSti mmen
Ġe uro
ĠA U
ĠRe nn
D r
Ġinteress ante
ach ing
tz ungen
ĠWh ite
ĠG R
Ġvor gestellt
ĠHo use
ĠB in
ĠMe tal
Ġpriv aten
Ġwelche m
Ġinform iert
ĠB arb
nd iger
Ġkon troll
r tel
ap ter
dien ste
ĠSol ar
ĠSp ar
Ġpriv ate
ĠE ck
ma g
ĠEng land
Ġau ÃŁen
Ġe chte
ma cher
Ġein s
ĠAu ge
N un
Ġmo ment
co re
ver anstalt
T ro
is ion
be wahr
Ġse nden
ĠP ala
vig ation
te ne
new s
le hrer
t ok
dig ung
ĠImp ressum
ĠKranken haus
v ic
Ġindividu ell
ĠM ach
Ġung laub
ĠPer spe
ĠPublik um
ĠSamm lung
E W
âĢ Ķ
wer de
brit annien
kon to
ĠKon fli
ie rer
I F
art y
ĠZu hause
P al
Ġm ieten
c lub
Ġma che
Ġho me
jen igen
ĠDu sche
Ġ que
ho ben
ĠK linik
a bend
S k
om s
Ġge te
produ kte
Ġa g
ar tige
ĠSen ioren
sp reis
Ġein iger
ar z
ichte te
ĠM ut
Ġvor zu
l ach
j i
ĠNe uer
ĠEin zahlung
Ġverpflich tet
Ġse e
rat ie
ĠMetho den
ĠStra tegie
Ġb ad
Ġf ur
st anz
Ġ16 0
Sie he
H u
Ġvor be
si de
ĠRein igung
m y
Ġh ell
I hre
at her
ĠHei z
Ġak zept
ĠGra f
ĠSe henswu
ĠGa lerie
ĠGe ru
Fe rien
ĠKlei dung
Ġd unkel
c d
Ġnor mal
k l
Ġlie fern
ĠFin ger
c ommunity
ĠPhil osoph
ss our
Ġnen nen
sor gt
G ar
Ġin fo
Ġ1 30
l ut
berei tet
ch a
nd ischen
on ym
U P
ne ben
ĠGener ation
se he
ĠA ktiv
ĠHoch schule
Kosten loser
Ġge he
Ge mein
be th
ĠEin richtungen
ĠBil dern
ĠPa ket
u xe
Q uelle
Ġmon at
ĠLand schaft
Ġzu gleich
Ġben utzt
a ber
b ten
ble me
ĠNe r
ĠRe nnen
Ġho her
ĠKrank heit
Ġzei gte
": {"
ĠS us
Ġf risch
ĠLe tzte
Ġab ha
li x
ĠR ol
H in
ĠHer rn
Ġd ra
ĠS ind
ĠRe de
ĠPfer de
e u
ĠFre unden
chn ungen
ĠMon tage
ĠSu pport
ĠFreund in
w i
fol ger
ĠEn ter
ĠF A
Ġo be
ĠA D
ĠRegion al
nst igen
Ġw ollten
Ġver lieren
Ġau spro
Ġsp rach
ĠS ig
Ġme d
Ġ199 2
Ġco de
Ġo ff
un i
M ich
Ġ$ *
ĠPrin zip
I mp
ĠJe ans
pack ung
ĠChe ck
ĠSti mme
ĠVerb and
fin ale
ĠAn leitung
L og
st ande
ĠSk y
opy right
ĠAuto ren
under t
bil a
fass ungs
Ġkom for
Ġs ur
d pa
ĠGar antie
Mit glied
rei he
wei st
ĠReg istr
sk y
ker s
ran che
Ġge sellschaft
A c
ĠWill kommen
b auer
h ing
H A
Ġan melden
ann ter
Ġwill st
Ġauf s
L eist
f tet
ĠQ uellen
E Z
T el
ĠD IN
ĠL os
sent ieren
ĠAl tern
berra schen
Ġg re
leg ten
ril len
1 20
ĠP unkten
ĠUnter nehmer
Ġs ign
stimm t
ĠGe ha
ste ine
K T
ĠDes igner
ĠVer mo
reie n
Ġ9 6
ser t
cri pt
Ġin spir
ĠGemein den
ĠBo ot
arbei tern
al ue
Ġ rau
Ġfu e
Ġein deu
Ġabgesch lossen
AR T
k ta
ĠDire kt
a gen
bast ian
stag s
Ġkor re
O G
ĠV ielen
Ġrie si
om an
con tainer
ĠBaum wolle
ĠMer cedes
West falen
ie fen
B i
li sch
Ñ ı
k ammer
Ġhal b
E lekt
ĠBe sten
Ġkomp lette
m iet
ĠR ap
ĠRes ort
Ġbe mer
x i
ĠA spe
ĠVer treter
mu seum
E X
Ġgef ragt
sor ge
ĠSchul ter
ĠEin tra
ĠRo ulette
ĠTe ppich
ĠEin t
ĠHa ft
Ġschw ierig
Ġ199 3
h st
ĠT OP
ĠWell ness
ĠA tt
Ġb undes
lie bt
ĠU ltra
Ġs itzen
2 000
Ġb lu
ĠProfess or
ĠGlau ben
hi as
Ġ ner
it o
Ġabsol v
ĠVers uch
E ST
to me
Ġd anke
Ġst ars
ze p
z ut
ĠKooper ation
sp eicher
Ġge ner
Ġb reit
wo che
ĠZ i
ar kt
c ause
rei tet
ĠH P
Ġleich ter
I EL
Ġsu b
Ġho ffen
ĠFest ival
stu fe
Ġba ck
Ġglau ben
lam pe
ĠSer ien
Ð ²
Ġfreie n
hab t
to oth
ĠWeiter lesen
ĠC at
leg ant
ge f
ĠD ipl
Ġ6 2
Ġman che
Ġ1 01
Ġviele s
ĠT rum
Ġd ata
T L
ĠB ron
k al
Ġse tzte
d ten
ne e
Ġ6 3
Lie be
Ġer folgen
st on
we b
ĠK lar
rid ge
L ink
u che
stell bar
ĠChe f
Ġein gerichtet
h jahr
Ġan s
ir ts
ĠWie s
Ġbe hau
ĠRo se
Ġg ame
Ġent stand
ĠF alle
bar ung
druck t
ĠVarian te
ru fs
ĠG ratis
Ġgemein samen
Ġa ner
ĠMark us
ĠSta ffel
Ġ19 70
ĠEx tra
ĠS ingles
ĠSte ll
S I
arm on
sen de
ÃŁ ige
ĠMasch ine
na men
Ġbra chte
O B
ser n
dit ionen
ĠDar stellung
im it
z we
Ġau thor
Ġbe die
n gel
ĠDe ko
Ġf ile
ed back
k omm
stal lieren
wir ken
di v
olog ien
sie he
Be schreibung
mus ter
S y
ĠKir ch
V ol
ĠVier tel
ĠOb jekt
Ġerst mal
Ġre lev
ĠV ari
ĠF ire
li nd
Ġf rag
ĠGe werbe
ho me
Ġfreund lich
Univers ita
de x
D och
Ġver ur
ĠG ri
sts ein
ĠL ok
Ġsel ben
ĠUm sta
ĠService s
renz t
ĠWor te
ĠSp ru
ir r
sche hen
' :
maler weise
st ron
Ġ7 2
ĠKlei ne
win kel
h s
ĠH oll
ho fen
port al
Ġge pf
mann schaft
Ġnahe zu
ĠD unkel
âĢ ²
ĠL G
Ge w
ĠLo u
si tes
ĠStu d
M ob
} }
ĠAn fa
ĠKa lender
ymnas ium
tere st
ĠJugend liche
ĠMus ic
ĠVor stand
wus stsein
fel n
ĠBest seller
Ġeinge stellt
ĠPhili pp
Ġwar m
ĠTex te
r dern
ĠSch reiben
fe kt
st unden
Ġhervor ragen
F ru
ba den
b rand
ro nen
Te st
Ġquali fiz
ĠRich ter
g au
ĠSch alt
P re
Ġerste s
ĠI ll
ĠPe t
Ġtechn ische
ĠK and
Ġs in
rei ter
Ġg la
ĠKu lt
alt h
uch tigkeit
p reise
ĠMon ats
ge spra
ff a
Ġt rin
per son
Ġk ommun
Ġ8 8
rf nisse
Ġ198 9
ĠW alter
ĠF on
Ġ7 7
Ġper son
Ġb ut
200 3
ĠX L
ĠO N
ĠA C
o c
hr iger
str asse
ffnungs zeiten
Ġzusammen ge
m ach
Ġaktualis iert
ort h
Ġp latz
n b
Ġde kor
sent ation
ĠBe am
p apier
ale nt
ĠWer ner
Ġk auf
Ġz og
Ġer geben
ndig keit
ĠGrie chen
h ling
wir kung
a ne
## ##
ĠS i
W or
ĠC ommunity
p df
he bung
stru ktion
Ġausge zeichnet
li ta
Te r
ĠPer formance
teil ungen
k inder
' '
les wig
N A
her steller
ĠFrei burg
ĠSch merzen
K aufen
ĠG ang
ĠIn spir
ĠAus nahme
Des ign
Ġbe stellt
Ġsinn voll
Ġindividu elle
ĠWachst um
hig keiten
ri ca
B ad
handel n
ĠG riff
p ut
Ġ199 1
Ġf ind
P reise
ĠA rn
ar tet
neh me
Ġbil det
E AN
Ġkosten losen
Ġin c
ĠPf licht
ĠDie sel
p ret
Ġbe wegen
gs burg
ĠK ommun
Ġda men
tin u
m il
Ġfre ue
Ġ( âĢŀ
mp fer
ir n
E E
L G
S H
kre dit
Ġmei stens
ĠAn walt
ĠF okus
rei ft
ho use
In fo
Ġver letzt
ĠS in
V iele
Ġschle chte
r iert
S K
ri x
he riger
Ġall gemein
ĠArbeit nehmer
Ġb illi
ĠSt reet
ĠSy n
ĠF ili
user n
Ġmitt le
Ġreg istr
ĠF le
Ġsti mmt
Pro gramm
k asse
an i
ĠFe der
ge la
kt op
Ġ8 9
isten t
st ig
Ġeinfa chen
F lug
ĠF eier
Ġgutschein code
gericht s
l tige
Ġd ran
ĠB ras
ÃŁe s
zeich nete
m ischen
mer s
Sp iele
Ġbes itzen
K reis
Ġle gt
G a
Ġ6 7
ĠAr z
ig keiten
ĠClo ud
k n
ĠEr b
Ġch rist
Ġselbst versta
man den
ĠEngage ment
den schaft
Ġho len
Â ¬
nig s
ri ve
Ġsiche rn
ĠGrund lagen
ĠKo stu
yste men
ĠAus gang
: :
M B
ge ht
ĠLei cht
ĠAn dere
Ġtre ten
Ġspeziel le
w uchs
ĠA g
ĠSch ok
c ard
ĠParte ien
Ġherz lich
aus stattung
Ġv irt
ance n
00 1
Ġaus sehen
hau ses
ĠRo hr
ĠðŁ Ļ
u k
ĠFe rtig
ĠAme rika
Ġtran s
> âĤ¬
ad s
b ul
Ġleben s
atu res
ĠU K
T A
la te
ĠMin dest
Ġge ringe
Ġst ammt
ĠE cke
per n
ĠA ction
Ġs y
ĠW ohnen
Ġn ord
nst iger
ĠIs land
ĠSo ft
itu ationen
ĠB ord
Ant worten
fol gs
ĠMen u
ist ischen
Ġr unter
hinder t
ĠSt ress
Ġbe cause
me tik
sie ht
ĠFa vor
art h
ĠBel ast
Ġ7 9
ĠO kt
Ġma ÃŁ
Ġerfolg te
ĠOr te
ĠJose f
lo t
ar tig
ĠKap ital
ĠBe tro
ĠTi ckets
j ob
del s
Ġf as
p in
Ġn ix
ĠHaus halt
ĠUm fang
Ġre chten
pp chen
Ġerfolg reiche
un tain
Ġor ient
st immen
ĠSchm idt
ĠI l
ĠS we
Ġfoto community
C ar
ĠSch n
Ġwechsel n
Ġjeden falls
ĠD ial
Ġz zgl
P A
Ġab out
ĠG renze
ĠBezir k
lin der
^ ^
wir t
i be
ĠQu art
ĠBran chen
ĠSchwer punkt
ĠN RW
opp elt
ĠWohn ungen
Ġp rivat
Ġh y
Ġsozia le
teg ien
ffentlich ung
B C
for dern
ĠB ab
ĠGra mm
OR T
ĠB ach
Ġ12 5
ĠO bst
sch we
Ġunge fa
so zi
ĠIn stallation
w ur
Ġtra in
ĠS icher
ĠC lassic
t tern
ĠLa ser
Mar ke
nge re
ĠWeltkrie g
ĠRich ard
f arb
Ġf rem
Ġdah in
ĠAl kohol
Ġeinfa cher
Ġb eit
a i
ĠHei del
ĠE R
ĠIns gesamt
che nt
Ġhistor ischen
ĠJa zz
liche m
Wel che
Ġkur zer
!! !!
ĠI nt
Ġschw ier
wissen schaften
ĠKu chen
ĠZu griff
ĠBil lig
Ġprofit ieren
a pp
famil ien
ĠEin trag
F ach
plan ung
Z wei
ĠN ation
Ġt itle
Ne w
ro ck
iz za
Sch lag
ma te
ĠDel uxe
ĠSch le
is st
Rei se
K ann
ĠZ in
ĠUrlau bs
Ġ tag
ol or
ĠSpe zial
fen ster
ĠBel ie
bern ommen
ĠProvin z
Ġch ine
A F
Ġ9 8
I O
Ġf ore
au l
que nz
Ġsh ort
ĠF liesen
V B
ĠPro fi
gen s
p osition
Ġmeine s
Ġst ammen
X X
g f
Ne tz
I d
ĠO rient
Ġoffen bar
Ġ: )<
ĠC omm
ĠChrist oph
ĠHa are
Ġti me
ĠKap itel
um fang
ĠIntegr ation
hal tet
du le
Ġge legen
ĠFe b
Ġer leich
ĠHer stellung
Was ser
up load
ĠDa y
riv ate
ĠM iner
ĠL ine
cke nd
ĠA li
ĠLand wirtschaft
ĠBe gru
ĠZusch auer
hl schrank
ĠAl b
ĠMetho de
ĠInf ra
Ġhier zu
de rer
Ge storben
Ġst ru
ĠLe on
sel ben
sch lagen
Ġmit ge
ĠHer mann
ĠGew inne
ĠAu stausch
ĠTo uch
ĠI kea
] [
Ñ ĭ
Ġde aktiv
O ut
ĠSchw anger
ĠR un
scha fter
lat te
Ġwohn zimmer
ĠF ant
Ġge pra
Ġerinner t
ĠG lei
' ).
ĠN utzen
Ġv olle
ĠVers icherung
Ġz wo
lin ger
ĠT U
ĠRei hen
Ġfunktion ieren
sch alten
ES S
ne ren
ĠSa int
ch tigen
ĠAus wirkungen
Ġ: )
B ilder
Ġs ilber
h me
j s
ã Ģ
ĠZwei ten
ĠLau fe
on n
ĠBe f
ip fel
ĠBe kannt
ima ge
st rich
ĠFran c
rin zip
omati k
Ġan schauen
ĠZ ie
ine e
ĠR am
ĠEin kommen
ĠTer mine
Ġau to
ĠAn sicht
ĠSalz burg
Ġ[... ]
ĠFran ken
ĠB latt
ku la
f ile
Ġgest altet
f ro
For um
Ġscha fft
tz ter
Ġbe treffen
v it
ch o
Ġp as
Ġr um
Ġherunter laden
Ġfue r
Ġdam ali
st alter
fahr ungen
Ġb lack
ĠTe nnis
am burg
ot ograf
liz iert
fe uer
w n
ĠRu ck
ĠEinkauf s
ger in
uÃŁer st
ili a
te am
a chen
Ġer setzt
sp la
Ġf arb
ĠSch atten
d ik
ĠB ein
ra gend
Ma terial
wend ungs
n r
We rk
ĠTable t
ck ten
EL L
Ġs hop
ĠAme rican
Pro jekt
sh irt
ĠM ur
ĠAp r
Ñ Į
tic s
ĠNord rhein
n ken
ĠCh or
gesch rieben
Ġhinzu fu
ĠPri me
Ġan hand
f r
Se rie
bau ten
B ar
Ġj apan
ir men
ĠL ein
Ġerinner n
ĠD I
ĠM and
ĠT rau
Ġgemein same
( )
ĠCar l
V ER
ĠSchrift steller
d d
ĠLer nen
ĠEn gel
ĠAus sicht
h ner
ix el
ĠG itar
Ġleich te
merk samkeit
ĠAus druck
ĠauÃŁer gewo
ĠSch al
ĠL ange
ĠDe z
Ġo ffenen
ĠNie dersachsen
f z
ĠE bene
frei heit
we be
Ġve rab
ĠLi zenz
ss igen
nde l
pe nd
G arten
O D
ĠTa bellen
k lusive
Ġh inein
Ġwill kommen
ati sche
>< /
ĠB och
au x
ĠSemin ar
ĠF ur
ĠModer ne
Ġgete stet
Po sted
Ġopti mal
ĠDi agno
ĠLi fe
tel li
ĠSt ich
ĠEr z
We rt
nd ische
Ġlie fert
u res
Ġgen aue
H il
tig keiten
um mi
Ġmusik ali
Ġb ild
il y
K urz
Ġw ind
ĠO ffiz
lei hen
De tails
Ġmax imal
ĠC ur
b sta
ĠHam burger
geb iete
Ġ ye
ĠB ul
Ġk rie
r ge
ĠB am
unde ne
H S
Ġg old
ro se
d icht
ran z
sto ffen
Ġ7 6
idee n
Ġre c
ĠSte llung
t d
O rig
Ġirgend wann
ĠZur u
o se
be tes
Ġste igt
ry pt
Ġsu che
ĠBen zin
Stra ÃŁe
ĠSch i
b ag
pe s
ĠD atum
Ġp op
bo te
Ve rein
an isch
ĠAb lauf
ĠVersicher ungs
V G
ist ische
ĠZ w
ĠP L
Ġeinge fu
Ġs ter
ĠZ ut
ĠB rit
ĠHo ffnung
Ġge habt
Ġwen den
on i
N ein
ĠEin stellungen
Ġ7 4
u ti
u fen
Ġinternation al
C K
Ġd ritte
AS IN
B L
werk zeuge
Ġab nehmen
Ġso fern
ĠM ix
Ma x
ĠLie fe
Ġw us
kle ber
ĠSee le
mit teilung
f ront
u len
ĠA e
Bo x
Ġwe s
ĠBran denburg
o x
Ġm i
rei be
Ġv i
sell schaften
rie ch
ĠAl pen
K lei
ĠJa va
Ġbesch ra
ĠF R
kti ver
an walt
ei tig
Ġspe zi
rt h
sp richt
ner s
Ġbil der
ver brauch
per s
M otor
ĠZahl ung
meister schaft
n ste
Ve ran
/ ><
ei le
ter min
ĠTurn ier
unter richt
Ġv ol
be rater
ĠA T
Ġd achte
ĠSt d
ĠSe p
ĠRu f
Ġarbeite te
Ġge ring
it is
b ig
Ġget an
per te
au ss
ar ge
Ġne t
S chn
ĠF luss
te stens
ĠEntwick lungs
ĠAn zeigen
Ġf ra
Ġh art
>âĨ ĳ
Ġ reichen
C a
Ġg eist
D ownload
Ġta ble
Ġaus einander
sto ÃŁ
ĠAu str
Ġ6 1
ĠD am
ĠBa sel
Ġm ann
The ma
ĠRe ssour
Unter nehmen
berwach ung
ĠAn griff
Ġindividu ellen
ĠC up
Ġp hy
Ġeig net
ĠDig it
ĠForm at
Ġdi ver
ĠMit arbeitern
reg ion
Î ±
ĠFerien wohnung
ampag ne
ĠM otto
Ġre duziert
ri an
ĠPort ug
ĠK B
us ion
pe te
ĠRu d
lle s
Ġb un
ĠT ank
um p
Ġerg ibt
Ġersch ien
ĠBe wohner
re gen
Ð ¼
ĠWahr heit
ĠMag azin
ĠE ffe
Ar b
ber eiten
Ġ19 60
ausen d
wer ken
isch t
ĠTour ismus
ot ten
Ġben utzen
ĠAn spru
ast rop
Ġkom ment
leuch ten
c omp
Ġmei nt
sterreich ischen
Ġc as
ĠF uss
Ġbe tre
Å Ĥ
Ġgesp annt
ĠBer eits
ĠWett bewerb
gri d
Ġgetro ffen
nach rich
Ġm at
! )
T re
Ġkom me
Be ste
ck y
Ġf iel
ĠSp ann
ĠL ow
ĠDi am
C asino
ĠHil fs
ĠA ktionen
Ġso was
Ø §
Go ogle
ĠD ating
g old
ng igen
ĠSch ro
ul iert
ĠP ress
ĠDate ien
ĠSt ation
K unst
n ischen
n lichkeit
Ġp ubli
ja ck
um t
ĠS ysteme
ĠHard ware
" >
line s
Ġge pru
H P
k ind
Ġan g
ĠWett bewer
los igkeit
F B
ger t
Ġge legt
ffe ln
e e
j ahres
ro lle
sol ven
re ne
Ġst yle
ick el
Ġall gemeinen
Ġdes wegen
ĠC lau
Gro ÃŁ
peri ment
N or
brau chs
ĠFin ale
b art
Ġ20 21
ĠJ ames
ir ma
beu tel
Die s
nit ten
ĠL ande
ut zern
sy l
on ist
ĠLa ck
n zt
spoli tik
Ġ198 8
d ata
ĠDe cken
ĠBer at
ĠVarian ten
Ġf lo
Ġneue sten
ommunik ations
Ġehema lige
ĠK anz
P resse
ĠK am
Ġhaupt sa
Ġlo g
ĠReg ie
St d
ind lich
men sion
ĠAd min
ĠT R
cht linge
bil den
q uelle
a be
f rika
ĠEin bau
lie gt
ren g
sch rau
tem per
de zimmer
ĠHe ad
ĠiP ad
ĠDurch fu
ĠRhein land
ĠM eld
Ġde sto
ta le
ĠSti mmung
ap pen
ĠVin tage
Ġdar gestellt
ĠJa cke
sch al
ĠBei de
p an
ho st
ĠS per
Ġver ha
u schen
1 10
ver zeichnis
ĠBe treuung
se m
ĠUntersuch ung
Ġsicht bar
12 3
pro jekt
le mente
form at
ta ill
Ġbe arbeitet
ĠS G
Ġsam meln
Ġange sehen
u sch
ĠO ver
Ġ8 4
Ġerreich te
ĠUN D
Ġauf merk
ĠGe brauch
Ġs rc
Ġku lture
ĠGemein schaft
i ver
ĠBe reiche
ĠSchul d
klei der
Ġi kea
nere ll
ĠSch ritte
Ge s
Ġschwar ze
Ve rt
ĠB lei
ĠSon y
fu ÃŁ
m all
k lassi
ĠS omit
ĠHo se
ĠAr mee
E B
ĠLo ok
Ġâ ĸ
ĠP y
ĠVor ga
Ge scha
ĠLap top
Ġ3 60
ĠSchw imm
Ġbek am
Ġdigita le
olo gen
Ġ7 8
ĠFo ren
ti me
Ġhier bei
fahr ten
Ġange nehm
win den
ĠEing ang
mmer n
ĠS L
ĠAuf lo
ĠIn teress
ĠJahr zehn
ĠðŁĻ Ĥ
ar ben
k lar
fre unde
ĠStie fe
Ġer la
me ster
ĠB raut
t liche
ĠFern sehen
ĠE M
Ġ8 6
ĠVer d
ĠH alt
Ġ- >
ĠS ollte
S M
ĠB L
âĢľ -
rit ts
ĠK lin
op tion
d om
be sta
Ġw in
N och
Ġerle bt
ibe x
Ġc le
ĠMain z
berei che
pp el
Ġ: :
ho ckey
F lu
wei ten
s ein
P G
Ġst re
Ġschlie ÃŁen
ĠA ktualis
che lor
g n
ĠViel falt
ue s
ĠTre ffer
zeit ung
an bieter
ke hrt
Ġdigita len
ungs mittel
ĠGe ne
ĠSand alen
Ġme rk
f utter
bern immt
ĠBran che
Ġlau tet
wor fen
ĠAus sage
Ġfre ut
E igen
Ġpla nen
Ġc ar
F rau
ĠS zene
ĠIn c
Ġf ahr
ICH T
ĠKosten lose
Ġei gener
ĠMat hemati
se ner
Ġwh ich
chn ungs
fe hler
F R
ĠCo ver
ĠIn gen
ale tte
ĠD ol
ĠEr wart
I ST
ĠUnter ku
Ġo p
Ġb ro
ĠHaupt stadt
Ġpro duziert
c an
à ¹
Ġ[ "
ĠAuf merksamkeit
ri pt
m ische
Ġmo tiv
ĠVers orgung
ĠY oga
Ġbetro ffenen
ĠLog o
ĠHa be
p rice
Ġk lingt
ĠTest s
ĠVor lage
le hen
ĠKant on
id o
K ur
ĠAuf grund
Ġbeg onnen
lei ster
ĠI D
Ġ( +
Ġf amil
Ġmax ima
Ġbetra chtet
Â» ,
ĠVer an
Ġke nne
ber setzt
ĠJugend lichen
ĠB rau
âĢĿ ,
ĠSy mbo
ĠTa belle
ĠE vents
ĠMe x
W h
k in
Ġer w
ĠSe ns
Ġge gangen
ĠVor bereitung
Ġpartner suche
Ã ·
Ġst arte
ction s
wer tet
sch el
ĠE iche
Ġdurch fu
ĠBe ton
Ġbe sucht
ĠVe ne
Ġgew innt
ĠWir d
ĠK ali
Ku ltur
sp unkt
ĠMa ÃŁe
ind ustrie
lie nt
Ġvers and
ĠPro te
Ġblau e
ĠTo des
Ġverz ichten
ĠVer lauf
ne i
al so
bi len
fin anz
ĠF unk
Ġbeliebte sten
ĠA P
ĠP osit
ĠAutom ob
cksich tigt
Ġnor malen
me di
fe ktion
ĠReda ktion
ĠKarls ruhe
u den
ch i
c to
Ġf rische
Ġb reite
ach im
ĠSte ck
yer s
or ama
ĠTri cks
2 50
Ġbe tt
ĠEr za
upload s
Ġorig inal
ĠâĨĴ <
ĠSe bastian
AS S
b rille
ĠKe r
li d
Ġe h
P rice
omm st
ĠVer trieb
Ġle tzt
form ation
ĠBezir ks
ĠE ier
Ġauf treten
Ġdes cription
ĠUm feld
sta un
Ġn utzt
ffe renz
h ungen
Ìĥ Â¤
Ġsch me
ar io
Ġbishe rigen
Ġbetei ligt
ĠBes itz
ng igkeit
Ġ> >
e nglisch
Nach dem
pho nes
Ġfor dert
K eine
ĠW ag
ĠD oma
ĠEle mente
ĠS W
ti nen
b aut
ĠKon zer
ĠIs lam
Ġvor n
g rau
an alyse
ĠD J
Ġgesetz lichen
nsch te
ĠSch nu
ĠGel b
ten s
7 00
?? ??
ĠG au
b iert
amerikan ischer
iel ten
ĠArch ive
Ġausge fu
Ġlie fer
ĠAb stand
ĠR osa
Mar kt
bel s
vor sitzen
ĠAn wendungen
Ġo ffene
ĠFo rex
dor fer
ĠT an
ĠInternets eite
Ġgescha fft
Ġteil nehmen
schrei bt
spro gramm
ĠK l
cur ity
ĠL ind
un s
ĠSchwe ster
Ġn utz
te mp
ste chn
Ġden k
wei chen
ar is
Ġdi verse
Ġein geb
ĠRo yal
we tt
ber nahme
ĠF ritz
nge ren
u gen
g ig
âĢľ )
arte ment
Ġstatt finden
f ield
hr lichen
zu beho
ĠBe hinder
Ġproblem los
gu ment
g it
ĠLe s
D ig
men ge
T B
wor te
ĠMon t
c io
bertra gung
be wertung
fa che
ĠMus iker
ĠLin ien
Ġinstall iert
ĠFig ur
hei zung
s sten
ĠDenn och
is burg
Ġein st
P L
Ġro man
ĠMatt hias
ram ik
nn y
rei f
oto ren
Ġver kauf
lu bs
D ate
Be st
ĠSt ory
Ġer schienen
ĠRat geber
ro me
ĠSchwe den
Ġj ahre
ĠV el
Ġhandel n
ĠOb wohl
ler innen
Ġweiter lesen
ist an
ĠP reisen
fel s
Ġre den
v gl
ĠKn ie
F L
ĠP ie
Ġnie mals
len burg
lte re
Deut scher
ĠBa ye
P DF
ien s
alle l
ĠL ob
Ġo ption
Ġklassi sche
ĠBe sta
Ġspeziel len
ĠDien ste
ĠBe leuchtung
ĠBei spiele
ĠBo ots
ĠK ru
ĠK rist
n heit
ĠRe f
Ġe d
ĠSie d
gew inn
ĠJun ge
zen ten
ĠEntschei dungen
ĠRe ser
ĠA kademie
Be n
b ein
aut omat
ma ga
Ġso bald
A p
ke d
metho den
z iert
ĠQ uer
f os
st ischen
Z E
ĠEr f
d lichen
fol ie
= >
stauran t
ĠSte uern
Stand ard
ĠGe braucht
wer fer
gro und
ame ra
Ġg ingen
isse ur
ho fer
ĠI M
Ġver urs
aut o
Ġ9 4
ah a
lan k
ho e
Ġe chten
ĠJe sus
ĠVor gehen
kre uz
chse lt
Po st
Ġge zogen
r lichen
ĠR al
Ġo ffe
ĠS ili
dru cken
u uml
arb on
Ġfeie rn
.. ...
Ġum zu
t yp
ĠBro t
ĠTrip Advisor
de utschland
zir k
si ven
fal z
de ren
ĠSo fa
ĠFl ach
ĠH it
F unktion
ĠRe paratur
ĠPark platz
ĠR el
ĠF ord
ĠTemper aturen
ĠD au
H O
ĠEr ga
ĠVor stellung
ĠBe tten
ĠB atterie
P latz
ĠWaren korb
ĠFrem d
200 2
le hre
t itle
Ġlang ja
ĠBe arbeitung
ĠN iveau
ĠSto re
Ġs che
Ã ¸
Ġumfang reiche
a den
ĠE vange
Fe st
Ġser vice
lie s
Ġst anden
ĠReg ierungs
A t
S pa
sch lei
ĠC ast
Ġbehau p
Ð ´
Ġerweiter t
Ġstra teg
ÃŁ igen
ar f
Ġkomp lexe
ĠVerbesser ung
je t
ĠTerr or
di on
Ġer richtet
iv il
s ichtig
wach sen
fur ter
ĠB ag
ĠW ord
E IN
ĠF utter
sch ritt
Ġmo de
Ġo ver
ye ster
ro chen
ĠW ikipedia
T our
Ġbeg leitet
leit ungen
sch utzer
ir chen
D amit
Ġv ari
u ge
Ġschu he
Ġs itzt
miet ung
Ġfolgen der
Ġbewer tet
Ġh ielt
Ġe m
ĠJ agd
Ġgescha ffen
tt ingen
ĠF ast
ĠI mm
lau e
ĠAu gsburg
Ġse t
s per
rz lich
ĠO be
gra m
Ġ7 00
Ġdies mal
H aupt
Ġo k
lei stungs
p he
ĠAustr alien
wor ld
part ment
T ube
il de
ĠV ic
Â« <
Ġange geben
Ġc lass
po st
Ġ198 7
Ġf rau
Ġverdie nt
ĠAus ge
ĠSch leswig
ĠW att
w unsch
le m
ĠBesch werde
le un
Sch warz
p as
ck ung
hard t
Ġv ollen
sch m
ĠDurch messer
fehl ungen
Ġ1 15
Ġaufge fu
n ot
qu ot
ĠAktuel le
ĠIsra el
li scher
Ġstud ierte
Ġje ne
ĠB d
ĠAr ray
Ġerreich bar
B R
Ġbe zahlt
Ġwunder bar
ĠV f
ĠAn ne
ĠMe ga
Ġumge setzt
ĠPo d
ĠSp ur
w iki
f eier
op le
So ftware
Ġbe fu
Ġa ben
ke y
ĠLo ve
ket ball
ba cher
arch iv
cy c
Ġle s
Ġg ol
ĠBe geg
Ġb al
ĠPrin t
T O
ber leben
Ġste uer
c as
od y
a f
ĠB om
ĠAspe kte
w andel
ĠEr mitt
Ge ra
ĠKu gel
los sene
bild ungen
nsch ten
kra ine
Ġv ieler
hand lungs
b anken
G O
ĠGe t
Ġverbin den
ĠDe b
Ġopti male
k lo
los senen
ĠStu fe
ĠVer lust
P ol
Ġerf ahre
ĠV ie
ka mera
ĠG renz
Ġer fre
ĠRe n
ig te
h ten
ĠHo he
Sch wei
Ġver standen
Ġbest immen
ĠC L
ĠW art
h eil
Ver fasst
Ġan alys
Ġste iger
ĠSon gs
Ġ8 7
i len
ĠMe tro
ro ll
ĠBlue tooth
ĠBild schirm
at in
di te
ĠSch merz
ĠEin heit
lich ten
S ol
gesch windigkeit
ĠEcht geld
sa mer
Ġ ....
ĠTatsa che
Ġwei ÃŁe
Ġges undheit
ĠM asse
Ġge langen
ĠAn gabe
w anne
ĠMit t
Î ¹
teil s
ber ein
ge setze
Ġbe w
Ġfe rn
k issen
ĠTo re
Co de
Ġschli mm
} <
ĠD ER
ĠProdu ktions
ĠSystem s
s ur
ĠTurn schuhe
ĠEmp fang
h ar
ati ver
ĠL as
ĠFu ll
": [
schutzer kla
ĠMann heim
Ġpla ce
b run
ĠAuf wand
ne ter
la stung
ĠWilli am
sp or
ĠKon takte
fa st
Ġunter scheiden
re publik
ĠB ischof
Ti tel
Ve rk
ĠSh irt
Ġme di
Ġver geben
Ġhei ÃŁen
lt nisse
Ġver ku
mp ft
Ġp m
Ġbe halten
me tern
fa ce
ink l
ok rati
Ġinteress ieren
Ġse rio
ĠBe zeichnung
ĠBewer bung
ĠD iv
nst le
E O
lan ze
V ielen
schwei g
Ver lag
Ġlie f
Ġz weit
in stru
such ten
st in
b ilis
ĠInnen stadt
dit or
sch warz
ĠH ill
Ġm ulti
zahl ungen
AC K
ĠB eine
ke te
m otor
k ler
ĠKat ze
s au
Sel bst
Ġschwe ren
ĠFa ktoren
Ġkombin iert
ĠM S
Ġwei st
fo ne
ĠO ld
Wei ÃŁ
H el
o de
p m
ĠPro zesse
Wind ows
Ju gend
ĠChe mie
] .
Ġmoment an
Ġ19 50
ĠTrin k
i daten
Ġsch ie
sprech partner
Ġp u
stehen den
we gt
ĠRe chner
de ner
Ġverb ringen
zu stand
ĠQuad rat
Ġ198 6
othe rapie
Ġ line
Ġk an
Ġsol cher
ĠE mail
ĠSp recher
ĠO P
ro ne
ĠN at
Ġbe zu
ĠBe ziehungen
Ġf ix
ĠK lang
ĠEx press
ss on
c am
ĠSt att
so ren
ab rik
ĠM id
Ġo h
Ġges und
t lichen
le ute
ĠJose ph
ĠD R
ĠJe an
Ġnen nt
b reite
ĠPro gramme
Ġunmittel bar
je ktiv
ĠEin stellung
ĠBo dy
ĠL ong
ĠPau se
ĠCh at
K lasse
K ino
ĠG al
Wir tschaft
wer ben
n ische
ĠRei chs
ĠSu chen
T H
S tellen
ĠN ah
Ġrech nen
ĠKre ativ
Ġ3 50
= \"
is ierte
ĠIn itiative
ĠDekor ation
ĠRei ÃŁ
Ġgel ungen
nde re
Ġ198 4
Ġausge schlossen
Ġkeine s
we ndet
Ġ7 3
u a
ppe rt
Zu beho
âĢ ¢
D C
sen s
Ġ9 7
Ġ- --
ĠK iel
f y
Ġme t
yp al
Ġzu ga
u ÃŁe
ĠSpra chen
G R
Ġkat ho
Ġs uch
ĠP ic
Ġein ma
ĠFreie n
ĠSpiel zeug
lan ge
ĠMa ler
Ġsch icken
wer ker
Ġs eiten
Ġp or
ur l
r ill
g nu
Ġne tt
ĠRelig ion
Ġfore x
B S
Ġge recht
Ġein setzen
stu dio
Ġan y
an ter
Ġal ter
Ġso me
ĠSy mbol
ĠHo bby
Ġw ohnen
ann a
nt al
Ġpass ieren
ty pe
net te
ĠF ashion
ĠUn ited
Ġb us
ĠBer eit
ĠTex til
ho ff
ĠCa se
ĠPlat ten
ou ble
1 000
ĠEr folgs
alis ieren
ĠInfra struktur
ĠVereinig ten
ĠD A
ĠMe sser
ĠMu se
Ġsp eichern
ĠRo ad
mit glied
ĠIn halts
scha le
um ber
ĠLie d
di nen
G ut
ĠWohn ungs
ĠMehr heit
ĠReg ionen
ĠVer sionen
schei be
b und
cks spiel
so le
Ġmehr fach
ĠC ra
I s
Ġber ichten
Ġfol gte
ĠHau ses
Ġse par
Ġ2 20
Ġauf gebaut
Ġentwickel te
it ur
ĠM un
n ia
ĠÃ ĺ
aten t
ĠStep han
F ree
cke rei
Ġsch au
s at
Ġbei ge
ĠFinanz ierung
Orig inal
ĠNote book
mann s
Ġmein te
ĠArb eiter
ĠFig uren
ĠR os
Ġbein haltet
ĠUn gar
g lu
ĠC ross
izz ling
me chan
Ġlin ken
ĠO R
ĠZwe cke
qu ote
her z
b lo
Ġglo ba
ĠGe gend
ĠT iefe
" ).
ĠKomm ission
ĠLe vel
ite ktur
tic le
c ted
K ap
tec ted
k rit
ĠIn dien
ĠFin den
ĠW ich
Ġdefin itiv
urn ier
ĠM assen
ĠZeit schrift
s how
ĠRe volution
ĠSchei ben
k annte
ck lenburg
ĠOrig in
ĠDeut scher
Gru ppe
cel ona
ĠBud get
ĠSor timent
Zit at
ber nahm
ĠAb teilung
mie ter
J an
ĠD ampf
ĠTrum p
ven ti
vt l
ĠV il
k op
d l
u ÃŁ
ĠR as
kre ta
ĠOr gan
ĠHo hen
ĠSport s
Ġp ort
Ġbesten s
ĠIndi vidu
ĠT arif
Ġnoch mals
ĠI dent
Ġ198 5
ĠD omin
Er st
Ġsiche re
Ã Ĺ
Ġg laub
cu ment
Ġab geb
Ġo per
ĠAn lass
ra k
ĠK ammer
ĠEr schein
ĠG aming
ziel te
ĠSp ir
fa ser
ver halten
ĠJu bila
ati sch
ĠKin des
nner n
ĠGriechen land
ro hr
Ġf rage
ĠM osk
ĠL an
g ibt
ĠM aus
ĠNach mittag
eint ra
sp ann
P falz
sta aten
ĠGro ÃŁen
ĠAus bau
t ti
ĠP ant
Hol stein
th is
la y
sch icht
h h
it an
Ġd oppel
Ġe hrlich
ĠAll ein
ĠRe tro
Ġbeob achten
ĠS K
Sch ne
raue r
N atu
ge ho
Ġgro sse
ne d
p l
ĠEurop as
wei ler
ĠA ro
f leisch
da tes
ĠDaten bank
ĠS H
ĠWebs eiten
Ġun komp
tro ller
ien te
ĠMittel punkt
Ġle cke
Ġli ke
Ġeinz igen
ĠEmp fehlungen
L ED
ĠSt or
ris uren
ĠMe tern
S icherheit
Ġin stallieren
lie fer
ĠY e
ĠT rag
zel n
Ġg gf
i bel
wand te
ĠNer ven
ĠRe zepte
ĠAf rika
P ri
f tige
Ġge kla
ĠOpti m
Ä ±
Ġf anta
ĠHeidel berg
ĠCh i
ĠZit at
ĠH itze
ĠNach frage
ĠO e
ĠSie ger
ĠGe sam
Z ent
sie ger
N ord
Ġ9 2
Ġpri ma
ĠSp annung
ĠKonkur renz
ama zon
att le
be kleidung
ĠSc ience
Ġp at
Ġb itcoin
Ġver steht
An gebote
B lu
k y
Ġange ku
K arte
ad d
Ġfas zin
Ġverbesser t
ĠG utscheine
p on
Ġber lin
anga ben
Ġevent uell
pa ckt
ĠWei ss
fer ien
ĠSchne ider
la de
Ġst arb
di sch
ĠGew inner
Ġbetro ffen
Ġverschiede ner
ĠAb schnitt
Ġaufmerk sam
Ġge brau
ĠWe n
ei chen
ĠGr unde
ĠUn s
I X
Ġbe ka
che ck
ĠL och
ian o
ĠRezen sion
sp latz
ra tes
th ing
tain ment
ative s
ĠJ ungs
dis play
ĠSo zia
Pe ter
ĠSol daten
ĠAccess oires
rat or
t sel
ĠFor mel
f ungen
Ġbe dro
ei r
ĠGen au
ĠV ER
r ste
ĠErwach senen
n ften
lei ben
ĠAlt stadt
Ġ7 1
lie be
ĠThe orie
ĠPort al
ĠF lie
he s
sti ft
ch ron
ĠNach folger
f lie
Ġzunehmen d
Ġbe stand
ĠRe alita
ĠD ynam
L C
F la
F ra
Ġan gebote
Ġh ot
B y
Ġlei stungs
au ti
Ġschwe re
ĠNach hal
Che ck
V C
ĠE iner
ĠTelefon nummer
p per
Ġend gu
mobil ie
olog isch
C om
Ġinten siv
ver le
iele feld
ĠPha se
rat ze
sen z
Ġhin sichtlich
Î ¿
Ġm iss
Ġbe arbeiten
Ġmit ten
ĠWeiter bildung
Ġfest gestellt
Ġspannen d
ber ge
ron omie
hn liches
ĠPe ters
ĠDu ft
ĠNeu bau
s ysteme
ĠK ohlen
M AN
ĠFerien haus
k olle
ĠM ission
ĠU hren
setz ten
Ġwes halb
ĠUS D
Q U
m inen
ĠP RO
V om
ĠKon tra
ĠH all
ro llen
ffe t
ĠL ot
ur op
ĠW ichtig
ĠH ell
ab ility
ber wiegend
hei ra
ĠTrans fer
âĢ ł
pf lanzen
ĠTo ile
Ġdar stellen
Produ ct
us h
ĠBe ne
Ġne in
ĠPro be
ĠSt y
v iert
á Ĳ
che ln
b ir
ng ige
pla ce
ĠNe uen
in te
ĠRessour cen
ĠIn stitu
ĠP ots
ĠSu bst
Ġ8 2
deut sche
Ġste ckt
we nder
Te xt
la re
B ru
ĠHer kunft
ĠR itter
Ġmas siv
ut her
ĠSt yle
tz eit
ren ner
r r
( );
ĠL aufen
Ġpassen d
, ,
ĠEntwick ler
Ġgew issen
E n
200 1
ĠSp u
Ġver l
ri ke
Ġbet rifft
II I
ĠErinner ung
a tes
ne imit
Ġbee ndet
ĠMon d
Ġs ingles
a men
ĠEin ladung
pf ung
ische m
b lock
Ġ ce
ze nen
ĠAn schlieÃŁend
So fort
ĠSta te
b ron
sh ip
ta bel
li ges
Ġge tragen
ĠD isk
Ġr as
Ġauf nehmen
Ġerz ielen
9 00
ĠA lu
ĠPla stik
Ġg riech
spro zess
meld ungen
Ġge arbeitet
Ġar ch
unde nen
wor ben
D EN
Lie ferung
nf tige
ĠGericht s
ĠHaus halts
Ġgew isse
Sch on
ausen de
ĠZe ug
ĠJ on
ĠHu b
ĠSo zi
} ,"
ĠRechtsan walt
Ġirgend wo
ĠSt atus
Ġ( )
Ġo ther
Ġall gemeine
mer as
ĠA tem
ierig keiten
ĠMerk el
De utsch
ĠK W
Ġver sehen
fer tig
n ab
Arb eits
ĠDemok ratie
gen den
Ġ8 3
sa beth
AL L
âĤ¬ <
ĠWel len
e rn
produ ct
lad bach
l on
Ġh or
ĠGe f
ĠUni sex
ĠWerk statt
Ġ( =
chste s
ĠS auer
y d
Ġgen auer
s ig
Ġan sonsten
ĠRett ungs
ĠAb geord
da ille
ĠW C
Ġdur fte
ĠMa gen
Ġt rau
va ter
li de
Ġaus la
Ġ las
ĠRu b
fe hlung
Ġj ust
M y
wa k
Ġdrin gend
ku chen
z iele
Ġerfolg reichen
sion s
ĠKor re
ĠBron ze
stre cke
ĠA achen
reg al
Ġbek omme
w elle
kte ur
art o
ĠBe suche
ĠVort rag
ĠTi me
ĠPhilosoph ie
Ġge liefert
ÃŁ ung
V o
Her ren
te ch
Ġzu zu
ĠLe ucht
as ie
ĠDial og
Ġle cker
ga mes
Ġobe ren
B and
g or
r atz
Â« ,
Ġre lig
ĠSch ick
ĠS U
h aut
ĠMisch ung
Ġf it
be rech
Recht san
Ġver teilt
ĠSa ar
Ġver arbeitet
ĠBe ta
ei len
be handlung
r mel
ĠCor por
ĠGe orge
ĠLab or
ĠBeweg ungs
form ular
ah ne
H K
ĠDe fin
Ġe motion
b rig
ĠD C
ati schen
lo ch
it ies
att oo
Ġk lasse
Ġoft mals
ĠPort ra
ĠInnov ation
st yle
ĺ ħ
Be wertung
Ġs chen
nd ungen
nd ungs
ĠSt urm
ĠKan al
hy th
lte ren
w itz
Ġge lingt
Ġvoll kommen
ĠS ing
ĠFru cht
Ġc u
Ġre al
ĠN ight
Ġsti mm
ĠA bt
Ġf il
Ġeindeu tig
stu fen
ath on
we sten
K an
mit glieder
i at
an ie
A W
ĠR on
sta ben
ĠSo c
ck kehr
len a
tische s
die s
ĠStu hl
ĠA didas
qu id
ĠD ur
ĠKla vier
Sch ul
ĠF U
ĠAnge ho
sen dung
Ġhier fu
Ġk ehr
ĠElekt ronik
Ġst olz
Ġge ku
st iges
i sen
ĠGesch lecht
ger ichte
ali tion
ĠKon zent
ĠKri se
ĠPart ie
fahr zeug
Ġun teren
ĠSo fort
ng ste
Ġum s
Ġvorbe halten
ĠD ata
G L
to ur
Ġbestehen den
ĠSymp tome
ĠBes itzer
ĠAr mband
ĠUnter haltung
we tter
ĠMas sage
Ġe ndet
ĠJu den
au fe
Ġoffiz iellen
Ġbe handeln
ĠT ob
hn te
ĠC ab
ap i
bahn hof
ĠSch na
d ichte
ĠHei ligen
Ġkeiner lei
Ġer n
Ġwenig stens
ag a
stit ute
ĠSt reifen
m ungs
ĠJa ko
Ġ9 3
Ġv ideo
fon ds
ĠS M
ĠD IE
Ġb re
ti ka
Ġletz ter
Ġfun ction
nehm ung
ta bl
L icht
Ġ198 3
od urch
Ġge lernt
ber legen
T yp
ĠLog istik
aller y
Ġbesse ren
schei ben
ĠVi ze
ĠRat haus
o e
Ġke nn
ĠA ward
ĠIn se
hing ton
ĠC R
ma p
Ġde taill
vol ler
Ġd ynam
S terne
b f
kon zept
Ġdrau ÃŁen
ĠEint ritt
be trag
ungs mo
ot her
Ġ _
ĠMo untain
Ġ} );
Ġbe zieht
beg inn
Ġk rank
12 5
ĠEp iso
ĠSpe ed
o ter
ng lichen
ĠAl li
ĠF lash
Aus wahl
Ġan genommen
de burg
ĠStadt teil
fo re
ĠBek lag
ĠB ill
01 7
ĠUnter schiede
Ġkleine re
ĠErfahr ungs
ĠPum ps
ĠSp ark
ĠZwei fel
M icro
Ġamerikan ischen
E uro
ĠH yp
nig reich
ĠHau p
li cke
ĠSchlie ÃŁlich
ill on
tok oll
ĠNa gel
il and
k auft
bo ter
aum l
le ct
setz te
ĠV al
P an
ĠCo re
Ġsol ange
ĠHau st
ĠB E
Ġhochwer tigen
col or
a ktion
Ġsch lafzimmer
be re
temper atur
Ġglei cher
ĠKinder garten
ĠAus bildungs
Inter net
Ġide ale
ĠC ru
famil ie
Ġzu folge
is ieren
Ġspannen de
ol lt
N atur
ss ysteme
Ġbas iert
Lei der
ĠB utter
ĠMar c
Ġbrau che
ĠPol yester
Ġex klus
ĠKomp onenten
Ġ2 30
F OR
Ġhervor ragend
Ġ198 2
ĠAt om
Ġoffen sichtlich
ĠT schech
ĠSchok ola
ĠKon zern
Ġbil lig
ommer n
ĠRu hr
ĠL ohn
ĠSti ft
steuer ung
V A
ĠAd vent
ĠG ibt
ĠChr isten
sa al
Ġange sch
b ot
fun ction
ĠInve st
ĠON LINE
Ġvert rauen
ĠLie der
Nie der
ali ty
ĠBe weis
Ġempf ohlen
ah me
P ark
Ġgen ie
ĠMa ke
ta ges
ĠWissen s
Ġf liegen
gu la
Ġd own
Ġimmer hin
Ġw oh
war ds
feren ce
Ġele gan
ĠA gentur
ĠKo ffer
re cken
Su che
Ġ8 1
Ġzu hause
A k
ir ur
ĠKom petenz
ĠZ war
y r
... )
Ġve rei
ĠB ah
ĠD M
Arch iv
ĠVerkauf s
Ġschne llen
Ġbe geg
ga le
p ad
auf bau
Ġ19 72
Ġver st
Ġsowie so
H ab
i os
ï ¸
ĠDen ken
ĠFa kten
Ġw odurch
Ġant worten
ĠSchl acht
ĠS orgen
Ġrich tet
ĠSign al
F Z
Ġwus ste
h at
fo lio
Ġz it
Ġbeant worten
Ġbe mu
ĠAl te
D ollar
Ant wort
g asse
li stet
H igh
?? ?
Ge fa
ĠGer hard
ga lerie
ĠUl rich
it sch
ĠTrotz dem
Ġ art
schein lichkeit
Ġbe liebt
b rem
ĠHein z
ĠBe schluss
Ġver hindert
ĠWe gen
ĠBer nd
ĠHoch schul
B log
Ġange passt
P at
Ġv ie
Ġb uch
Ġir gende
ĠDenk mal
ĠFa ir
ĠWol fs
du ktion
ĠN O
ĠFa x
Ġre sult
Ġkla re
Ġzent rale
ĠFe edback
ĠFlu cht
men u
nt a
ĠK el
ĠSim on
pa ket
F rauen
Ġsti ll
vier tel
Ġk alt
ĠPh oto
ĠCol or
ĠRezen sionen
ar ia
Ġbe ziehen
S R
Ġorganis iert
De m
wer fen
legen heiten
ĠBestand teil
S an
Ġwei ÃŁen
ĠO range
ĠBet reiber
ch tige
ĠPay Pal
Ġein stellen
ĠStre cken
Ġt olles
nger ung
kon om
Ġb ank
C as
ng nis
sprech ung
ĠSe nder
ĠSch rank
ĠB auen
produ ktion
Ġt raum
B ro
ĠW ehr
t zer
ĠF ri
ste hung
sch lus
nf tigen
fa ktor
fra gt
ss o
Ġtro cken
le bt
D ire
ĠDe mon
Ġh um
Ġgest artet
Ġmon t
ie hlt
Ġoffiz iell
Ġge z
ĠIS O
ĠBe trag
rag on
Ġinter net
Ġan spruchs
Ġ9 00
u fa
ahn sinn
Ġbeg leiten
ĠDru cker
ĠEigen tu
arb urg
r ungs
ĠM auer
D ass
n ap
uer ung
ĠChr on
Ġa ir
E uropa
Ġeinge laden
áĲ ħ
ĠMedika mente
p ng
a ment
Ġdire kten
ĠN orth
R L
Ġe nglisch
ĠCo ck
n kung
Ġ19 79
ĠFern seher
lei ste
ĠE L
ath ie
10 5
ĠHam mer
ĠWies baden
Ġnor male
ar ina
Ġschwar zen
Ġdire kte
ĠK issen
ĠF ut
ĠAll gemeinen
sen det
ĠAtt ra
ĠGra b
ĠAn s
ran sport
Ġf eine
J un
Ġden kt
c raft
ster dam
an teil
ĠNach wuchs
P D
Ġvor bereitet
stie fel
ĠH orn
ĠN ic
g lanz
ĠScho ol
ĠGo e
Ġsei d
hl ungen
se hr
Ġ| <
Ġf ilm
Ġnor malerweise
rk ung
ĠVer teid
Ġquali t
ĠAt lan
E nd
tz u
w an
ĠAl bert
ĠKre bs
ĠAus flu
ĠGra z
Ġst ation
Ġange kommen
tt y
geb ir
ĠS penden
ĠAnt h
Ġprakti sche
ĠVor schlag
ĠKlima anlage
â ĸ
ĠBeson der
ierte m
Ġ1 14
ĠEin schra
ĠUr sache
! âĢľ
M as
g la
mp fung
Ġ19 20
cke rn
u nen
ĠYou Tube
Ġc ur
ĠAn geboten
lei h
S W
r iss
ĠGutschein code
An gebot
ĠEmp fehlung
ĠKlassi ker
ĠB renn
n immt
ĠRuck sack
Ġintegr iert
Ġtro cke
nk ungen
ĠKas sel
sa ison
Ġver mitteln
Ġho tel
ĠA si
rem ium
ĠBar celona
ĠM ass
Ge rman
Ġge bil
sch wa
Ġspe zif
ĠWin kel
Ġtrin ken
o fen
ge le
e m
ĠKan ada
aus bildung
ĠE sp
Ġunglaub lich
Ha be
ĠVit amin
Ġa ktive
ĠT ar
ber uf
ĠB GB
ĠP M
ĠFlug zeug
tinu ier
ca dem
bo ot
' t
te ur
wechs lungs
ĠVoll zeit
ĠKu pfer
ĠPh arma
W inter
ĠSu cher
ĠMan gel
r bt
ĠT H
c ti
we nde
>âĨ Ĳ
Ġt ri
Ġbe schreibt
Da tei
ĠFe hl
ĠW arte
ver n
Ġsiche ren
Ġunter nehmen
a gentur
ĠOp tik
ĠL E
b ranche
nger n
Ġge fahren
k os
ĠR um
sto ÃŁen
Ġ19 78
De nn
ziehungs weise
ĠOlymp ischen
ĠDurch schnitt
Ġthe re
ry l
Ġge fo
ĠT hread
g on
M i
g ige
ĠSp uren
st ren
Ġwechsel te
Ġbe wegt
H ilfe
ĠLein wand
b ruck
ĠB lan
Ġs ymp
ĠA v
Ġfal se
Ġbesch lossen
ĠGe ma
Ġdie jenigen
ow ski
Ġnach zu
ĠLam pe
Ġent ta
Che f
ad ies
Â» <
Ġauspro bieren
pum pe
ĠAn satz
am pe
Ġk ar
ĠNo ten
Ñģ ÑĤ
mar ken
O ff
ĠStu di
Ġprofessione lle
ĠF li
k ann
Ġfest ge
Ġkontakt ieren
ĠE ffekt
te nen
ĠOli ver
Se e
ĠBerat ungs
ĠS lip
Ġi OS
g licher
Ġ19 68
ĠBras ilien
scha den
ĠðŁĺ ī
nehm igung
ĠHo ff
tel ligen
b io
ĠMie ter
bie tern
aus wahl
ĠHe ft
Ġiden tifiz
rin nen
Ġc or
Ġ9 1
sch loss
C or
ĠRis iken
us tellen
Kom mentar
Ġzwei mal
st ic
j or
G ast
ĠB ist
sch l
ĠIn stagram
Ġk lin
ĠC C
16 0
aus gabe
ĠK ath
ye n
ĠR eit
ĠM ah
Leist ungs
Ġ198 1
mee r
ĠSchreib tisch
ĠCh ara
ĠE gal
uf iger
mpfe hlung
am o
Ġsch lagen
Ġad min
For mat
Ġverbin det
sbe sondere
ĠO ft
ĠSch ein
ĠAutob ahn
ĠSch ild
gent in
p lus
Ġdiver sen
. ).
ĠY o
Ìģ ,
d b
ĠC ro
Ġge sprochen
Ġne hme
sch ild
ĠL ist
ĠSe g
ĠEx plo
K A
Ġverl iert
Ġqu asi
h lich
F H
ĠBraun schweig
ier bar
Ġu l
b aus
Ġt ot
ĠQue e
rk ten
ran t
u ps
Ġein fu
ĠHei zung
ĠG anze
ĠB le
pha se
Ġsch ein
Ġbe sie
Ġro ten
ĠWor k
be tten
ĠC ard
ĠHa ben
Ġvorge sehen
ĠâĢ ĺ
ĠRe nten
gra ben
A ug
ĠSp ring
Ġbevor zu
ĠGen uss
Ġso zial
F r
o ben
Ġgebu cht
ĠDes ktop
ĠDia betes
k anz
Ġd omin
ĠBa se
ĠGegen wart
ĠVe reine
Ġer werben
te au
Ġbe ur
Ġer kannt
Ġf und
us ten
ale tten
ri m
S B
Ġa didas
ĠSo uth
ter ie
Ġ19 75
f rie
hrlei sten
ver arbeitung
U ser
ĠKart o
Ġman chen
man ager
deut schen
pe d
row ser
omati c
ng sten
ĠWider stand
ĠCre me
ĠJ og
ĠBe stell
Ġmar kt
sch muck
ĠCo uchtisch
ĠP ier
mb h
G anz
maga zin
Ġro om
Ġda vor
ĠMar io
organis ation
ĠP lug
ĠMax im
v arian
w atch
Ġer kennt
sch all
wa ys
E nergie
Be reich
lie d
Ġbe trieben
ĠVe n
IS CH
wei l
Kosten lose
ti pps
ĠSho ps
ĠSta d
ĠKon ferenz
ĠGe pa
ĠZut aten
Ġ19 76
Mit tel
A ma
solven z
f ungs
ĠJe ns
co me
Ġtran sport
ĠO x
ĠNach teile
Ġ áĦ
Ġ :<
g renze
ĠSmart phones
de tails
ĠA syl
mess ung
f tigung
sto ren
ĠK ommunikations
ĠEr fu
ĠK il
AR D
S cript
Ġpo ten
an zeige
Ġch ron
ĠDro gen
Ġfro h
kon ferenz
Ġf irst
T EN
ĠEben so
bi bliothek
ĠIdent ita
Ġco ol
ĠGegen teil
ï¸ ı
Ġhin weg
Inform ationen
ĠKno chen
ĠT hr
Ġon ly
ĠD ritte
Ġwe re
li day
co ver
Ġne tte
Ġa f
ĠOr ten
ĠKinder zimmer
Ġ19 74
ĠÐ ¿
ĠOb jekte
ĠLe g
ĠRud olf
ĠFot ograf
ĠDie ter
K omm
ĠK ab
hm t
scha ffung
nn a
ĠKon seque
vel op
l z
Ġinvest ieren
ĠE X
ĠC el
ĠD ark
F rage
ĠEr sten
ste ck
heira tet
M E
stu dium
z ieren
Ġgeb lieben
kur se
ne mark
ĠDarm stadt
be treuung
Ġvor an
ĠC li
Ġw on
ĠLei denschaft
Ġunge wo
Ġloka len
ĠFor scher
ĠSitz ung
ĠVorsitzen der
sch ungen
2 12
Ġre chte
ĠBoch um
Ġge d
ĠBe fest
teil te
Ġreg istrieren
ĠRo ute
% ,
ĠSa una
Ġunter sucht
c up
ĠGe schenke
Ġnied rig
am eister
ge laden
n chner
ĠK lick
W M
Ġg reifen
Ġ rat
i cke
ach s
r men
ven s
ĠH R
ck chen
li fe
ĠSu cht
vor schlag
ĠEle ct
ĠBuch ung
o me
ĠBe rater
ga st
Lie fer
f oto
ke tten
ĠAus sagen
ĠP ink
Ġbe las
s z
ga ne
Ġletzt lich
G el
ĠIntel ligen
ĠDu isburg
b ring
ĠW ars
at tet
uz z
Ġex p
neh in
ĠW andel
K O
ĠRe kord
Ġle gte
J ob
ati bel
Ġbetro ffene
ut in
Ġver le
schlu ÃŁ
Ġposit iven
Ġwichtig ste
ĠB art
sch te
bur t
Ġzu g
reg ister
ĠArchite kten
ĠZ ir
ĠErwart ungen
nd liche
ĠLaut sprecher
t an
ĠAp fel
S how
ĠKomp lett
r fel
G old
ĠFe uchtigkeit
ĠOrganis ationen
zeug ung
ĠL angen
ic tion
Ġd auern
fol gung
Ġhe ran
ĠÃ Ĺ
g renz
Ġorden tlich
ĠFon ds
t ums
ĠTo uren
ĠX box
B M
in sel
Ġ$ ('
ri min
Ġver mittelt
ĠRe cher
be dienung
ĠBe werb
Ġ3 000
schrei ten
ĠNa se
Ġrech tz
Mich ael
C ine
Ġhistor ische
ver lauf
L iste
Ġwor ld
ĠWor ten
V ielleicht
s ho
ner kennung
Ġer mittelt
1 30
ĠM all
iz on
ĠO ste
ĠÐ ²
W ill
ĠBa chelor
ĠJust iz
Ma in
ĠTo ol
ĠErsatz teile
un fa
hn achts
is co
verb indung
Ġg utscheine
Ġnotwend igen
H i
Qu alita
ĠEin sa
h ier
Ġm achten
ĠS A
ĠAuft ritt
Kateg orien
Ġk ind
Ġh ieÃŁ
ĠHa ftung
Ġsti l
icht lich
Ġ19 69
per sonen
rans fer
eig net
ĠMann schaften
M T
ar ische
Ġb ru
ĠSt rick
Ġgre at
ĠEr ne
ĠS AP
pla yer
) {
tre ff
ver tis
ra e
B lack
d own
ĠS O
ĠEin stieg
ĠSch lo
ĠR auch
ĠS R
Ġsch lu
con om
st reifen
ĠApart ment
ĠK ids
ĠS ab
schrei bungen
land schaft
na ck
ck zu
ĠDon au
ĠMar ine
mo re
ĠWil len
ĠCount y
vertis ing
ĠOst see
Ġm or
ffentlich te
ĠGleich zeitig
ĠU kraine
| |
Ġb itten
ĠVer pflicht
L aut
ĠD os
Ġun ange
Ġver langt
ĠTre ppen
stehen de
ĠPartner suche
org ungs
m ir
G A
Ġget rennt
st y
ĠWe ber
ĠAust ria
ing u
Ġrei sen
we tten
vers icher
ĠE D
Be son
ĠAnd rea
ĠLe x
W and
ĠH altung
A ir
ĠFavor iten
tre tung
sch alter
ĠB it
ĠRein igungs
Ġ19 77
ĠHochzeit s
Ġbrit ischen
rat zen
ĠgroÃŁ zu
ĠTro cken
Ġlan ger
ĠUr sachen
ĠWorks hop
O der
ĠKur se
Ġteil s
Ġim p
H olz
hol fen
ĠFor st
wer bung
Zur u
di c
t sch
ĠP rei
ĠZ wie
E P
Ġth eir
sterreich ische
vol les
Ġverurs acht
M al
z elt
Ġu se
ĠMon itor
rse y
B il
Ġe hren
b rief
ĠMee res
berg ang
rz burg
ĠNatur schutz
ĠHerz og
ph y
Ġex ter
Ġwel l
berra scht
M art
S ho
dagog ik
fe ste
ok a
Kateg orie
ĠBlo gs
St ation
Ġempf iehlt
n och
ĠH om
fin det
fahr zeuge
ĠRe fe
m ix
lich keiten
ĠAus einander
Ġlei den
l de
Ġre duzieren
geb rau
ĠSc reen
per rt
ĠP rie
fiz iert
Ġ10 5
schnit te
ĠM r
Ġs ite
k no
ĠNe ck
Ġhal te
Ġan fa
ĠCh ine
G EL
Ge ner
ĠKe tten
ma ge
il det
ĠW arm
nig in
ĠLou is
ĠKap u
Ġzu la
ĠTren ds
AP I
k amp
ĠB A
ĠPla yer
ka teg
ĠF risch
Aktuel le
Ġde posit
M ark
ĠNe um
Ġbesonde res
ĠH allen
Ġp r
Ġkeine m
ĠUnivers al
? !
Ġlee r
rypt o
ron ic
ĠKat alog
ĠDe mo
ĠUntersuch ungen
ĠS D
fest yle
vide o
zu cker
M ER
y out
e b
ang o
l ner
Ġbe legt
R und
Ġt iefe
B aby
b ahnen
ĠRea ktion
ĠF rie
do se
sta ge
ĠInternation ale
ĠKonfli kt
ress ion
Ġe vtl
Ġge we
ĠS ituationen
ho fs
he ad
ungsver fahren
g h
Ġe chtes
I Z
aus schuss
spa rent
ĠPra ktik
Sch utz
Ġd okument
ĠB utton
C re
Ļ ¥
Ġst op
isch o
Ġrein igen
ch lichen
d ungs
) :<
. ;
ĠFot ografie
ĠExe mp
ĠSan ita
ge sellschaften
Ġal tern
Ġj ahr
der ungen
wei tern
Fin anz
ĠDire ktor
Ð ĵ
nd lichen
ĠAus wa
mit h
Ġdamali gen
M od
ĠBern hard
Ġnach voll
hei z
ĠRegistr ierung
sent wicklung
latt formen
ĠSe ndung
Ġkon tinuier
Ġgibt s
Ġ1 19
ĠB ang
Ġch at
or ca
ĠProble men
! !<
gie ne
Ġsti mmen
ĠLu xe
ĠVorder grund
ĠPra kti
d west
ĠReisen den
ĠA th
Produ kte
A ndere
ĠD einen
ard o
e xe
ĠErweiter ung
Ġren ov
ĠTra ge
ke hren
w all
ĠNahr ung
Ġein zahlung
Ġw ork
ĠM is
ĠMo re
ĠPfer d
Ġ19 73
Dien st
ĠAb reise
ĠA GB
b raun
r ations
na le
stie gs
or i
ĠS umme
Ġf li
Ġerhe blich
ĠWa ter
ĠS ant
glei che
ĠSch ach
ĠCon trol
ri ter
D oppel
ĠNa vigation
Ġvor genommen
For m
o men
Ġg las
ber gen
ĠAktuel l
Ġh igh
he m
ei ch
ro e
Ein gestellt
kel n
ĠDesign s
Ġp ic
The men
a ct
ĠNamen s
T ype
ĠKennt nis
ke tt
ĠP fe
Ġschla fen
E inen
zi ner
de ko
S im
sp itze
ver treten
zie her
ĠEr stellung
ĠU V
Ġkosten frei
ĠTour isten
kt rum
ĠS um
Ġheu tige
A ch
ll y
ĠP rag
Ġaus ser
Ġirgend wel
Ġbe ge
Ġschlie ÃŁt
ĠVer packung
ĠDokument ation
ĠO pel
ĠLam pen
see n
ĠP l
ĠAf D
ind ungs
ie gen
ga in
Ġge nerell
ĠInstru ment
ziel le
ĠJo achim
In s
ĠT urm
ĠBer ge
Ġoh nehin
ĠFrei spiele
s w
ĠKo ordin
ide os
willig ung
iskus sionen
b chen
ĠHe ck
du ld
H N
Ġdeutsch sprach
Ġnu ll
ĠK ie
ĠZu stimmung
be stand
D abei
G G
Ġreag ieren
ut age
ĠM uss
Ġaus sieht
t ur
ĠLin ux
Ġ19 71
B re
ĠVic tor
ĠIn ten
ĠD einer
ĠH ut
ĠEle ment
Ġthe ore
Ġro te
ĠOb ject
A ller
L auf
ul ierung
U K
an tes
ri te
ĠEinzel handel
ĠOper ation
gyp ten
u scht
ĠFab rik
Ġfest stellen
ĠDie sen
wach sene
auti ful
i ra
Ġgel b
ĠEngli sh
lat ten
ĠBo gen
h as
Ġverb reitet
un ch
ĠSpiel tag
Ġgesch ickt
ĠHand lung
f ix
Ġ4 50
Ge samt
ĠT ast
mar ke
Ġbetra chten
ĠGesch irr
Ġzeich net
S ommer
ĠZ auber
min ar
ĠA V
Ġe tabl
ĠHel mut
pe t
ĠM ul
ĠE ich
Ġm otor
stra hlung
ĠVeranstalt ungs
Ġaut hen
gesch lagen
Ġweit gehend
ĠCon tent
ĠCo up
b rid
Ġje manden
ul ator
ĠKos metik
ik ro
Ġan geb
H y
Ġer setzen
utz utage
ĠMag net
on isten
Ġent scheidet
Ġ arbeits
ĠHal ter
ut or
Ġbe fest
gen o
Ġk op
ĠLand schafts
hy d
ĠSti mm
Ñ ĩ
ĠEisen bahn
Ġs ort
ĠSel ber
ĠB ass
ĠG ir
lo ok
kennt nisse
ĠDrit tel
ar ium
ian a
Ġst art
ĠDoku mente
ĠSymbo le
ĠAn wesen
Ġ ]
ita le
ĠRi ver
ĠBe richte
ĠBe auty
re ffen
la w
st andes
Ġv ierten
M ir
T F
wer tes
bs au
ĠParla ment
ar tigen
aut or
J ahr
ĠEli sabeth
Ġpo ker
ĠGe werk
ĠSpa zier
ĠPoli z
ĠNor mal
w ell
P lan
ĠAuf stieg
ĠPen sion
rische s
Her r
sor gung
ĠMe chan
so fa
ĠM ahl
ĠEx istenz
log gen
iet y
In stitut
ĠGemein sam
veranstalt ung
Ġf otograf
U B
ĠPul lover
ind liche
A Z
ĠSan ta
ein richtung
ĠDist ri
be d
be arbeitung
Ġentsp annen
Ġm ilita
P ubli
ĠVor schla
ĠMo dul
spha se
h istor
ĠAus ru
ĠSt rau
ĠKri min
Ġ( "
ad or
ka y
ha i
ul s
Ġlang wei
B ank
I EN
ing o
Ġ ler
ĠArz neimit
Ġeinzigar tige
ge recht
14 0
ĠR y
ĠZ weit
ha be
ĠE C
TM L
E ssen
ur teilung
ĠAuf kla
Ġab wechslungs
st ati
ĠDie t
H at
Ġe vange
ĠGroÃŁ handel
ĠTechn ische
ĠGlo bal
co des
schnit ts
ĠBarb ara
Ġ1 12
Ġ19 33
ĠGast ronomie
rin k
Ġwer fen
ĠUr heber
ot ball
Ġk unst
Ġho use
ein richtungen
Ġrelig io
ĠCh ic
Ġ7 50
Ġan schlieÃŁen
22 3
der te
ĠS now
rent wicklung
bre tt
ĠTre k
ha re
Ġâľ ĵ
sen der
ĠUn abha
Ġvorhan denen
t ure
Ġfe hler
ĠVor stellungen
ĠHo sen
Ġwe st
ment o
r ner
A lt
ge wa
mer n
ĠMar ie
ĠIde al
ĠH omo
ĠSpieler n
ĠCon sult
Ġgesam melt
ĠM IT
2 20
E is
ĠDe ck
ĠLand haus
ĠMe ta
ĠW it
ĠkW h
ĠM inder
Ġb aby
ĠB auer
Ġhe re
ĠBett wa
gesetze s
Ġ17 0
ĠD B
ASIN O
ein heit
ĠBe stimmungen
Â ¶
C lass
ĠA hnung
Ġvor he
ĠPsych ologie
Ġme nschen
ĠO S
ĠVe gas
N u
z is
re form
ateg or
Ta schen
it as
ĠSp on
ĠF rist
sch ine
ord nen
lau t
ĠAm sterdam
pro tected
s agt
Ġwar tet
Ġkom peten
Ġp ur
Ġeffe ktiv
an sicht
10 4
ĠSerie s
ĠSteuer ung
inten do
ĠTechn ologien
h iger
auf gaben
atter ien
Ġaktiv ieren
ĠKap azita
ĠWeb sites
Ġschle chter
ĠBesch werden
ĠRa sen
ĠGe stalt
ĠAuf bewahr
ĠGebur ts
US A
Ġdeaktiv iert
Ġsch ul
ĠO K
ĠSpe cial
Ġtraditione llen
Ġro bus
ĠBi ke
ĠRab atte
Ġdre hen
ĠK rei
Ġsorg fa
ĠStru kturen
Ġmo bilen
ad y
Ġan geblich
ĠB O
ze ttel
ka te
ĠBo ard
ĠS MS
Ġe very
AT ION
ĠInsel n
ĠV ar
ĠB litz
pro zess
Ġum welt
Ġst ati
ĠKn ow
ĠUngar n
be leuchtung
ĠArbeitsp latz
freund lich
ĠRegel ung
mon t
Ġwei sen
Ġer kenn
ĠEr wa
vail able
ĠAus gaben
tifik at
N ational
sto ne
mon d
Ġre tten
ĠPat ient
ĠWe sen
tig ungen
Ġver scho
Deut sche
ĠB ielefeld
ĠVor feld
ĠMe yer
ĠJe de
re geln
mess ungen
Ġ24 0
Ġw ho
gent lich
ĠRe view
ungsbe dingungen
A kt
ĠGrund sa
Ġro sa
ga te
Ġge fertigt
ĠHal te
Ġst ieg
IS S
mode lle
j an
othe ken
cksich tigen
ĠHel fer
ĠEng inee
ĠWe stern
ĠMitglie dern
F reitag
je kten
Ì ¨
ĠF DP
ER N
un fall
ĠVor schriften
ĠKlein anzeigen
halte nen
un ion
áħ ®
d al
ĠEntwick lungen
schne iden
He rz
A tt
H inter
ĠGe fahren
ha ven
ĠE IN
ĠEmp fa
Ġh aut
f otos
mel de
ĠMa de
ĠFrank furter
sa mes
Ġg r
Ġ19 67
ĠBil anz
Ġna mens
Ġkurze m
"] =>
Ġun der
kon trolle
a ktive
ĠBi bliothek
ĠHin sicht
ĠE du
n utzung
ĠB rie
re chten
R ot
che m
J oh
ĠO hren
m eier
ĠG un
tre me
ĠKo alition
Ġexist ieren
Ġme chan
Ġange legt
ĠWas hington
Ġw it
u fel
Ġver boten
ĠEr ho
ĠK un
ĠTele kom
we ar
ĠHand werk
st op
ĠA W
k lam
Vor heriger
Ġschne iden
ĠFa ce
recht lichen
Ġsonst ige
ĠAn gel
ĠK amin
ĠSpiel s
uf ige
nger in
Ġ( âĢł
zu nehmen
Ġfor dern
ĠFas sa
ge halt
Ġver langen
ĠProje kten
h art
ĠMein ungen
Ġsch aut
y wood
Ġb ot
Ġsch licht
Ġaben ds
icht s
" /><
ss ion
Ġe u
ĠGegen sta
g igen
ĠLe uten
beit rag
ĠFla sche
ĠAir port
Ġmorgen s
sp uren
mp fehlen
anz ig
Pla y
f abrik
ir s
Ġbeeinflus sen
ĠPots dam
Neue s
n acht
ĠNachhal tigkeit
à ¤
fang s
ĠBi bel
ch liche
ĠEr folge
h ahn
nab ru
ĠLiefe ranten
Me r
ĠMen gen
ĠKrank heiten
zeich neten
18 0
b ol
p al
inform ation
Ġeigen sta
ver ku
ĠK lage
k ino
Ġver folgt
ĠM ord
g han
ĠE qu
ĠK asse
spra chen
Ġoffiz ielle
Â ·
da frika
C opyright
Ġ len
Ġzu fa
Ġan fangen
ĠM ol
ograph y
o die
ĠSchu ppen
ĠðŁĻĤ <
Ġ12 8
Ġ1 16
Ġp art
hm te
Ne t
t urn
cht lings
ge rufen
cksich tigung
ĠVoraus setzung
Ġerz ielt
d liche
ĠMar ien
amb ling
ĠFo od
ĠE va
Ġ: -)<
) "
rd lich
ĠJuli a
f ot
ĠHallo ween
ĠWeite ren
Ge gen
Ġpro gramm
ĠColle ction
Ġs w
Ġun mo
ĠSch atz
alist ischen
den z
Ġbe trieb
ĠBundes republik
ĠTo ols
ĠSp eise
v il
blen den
ĠVer mieter
ct ure
t v
ĠZ oo
cker s
ĠEreig nisse
Ġviel mehr
P ress
ĠHier bei
Ġ: -)
ti ven
ĠWol ken
pe ra
Ġf f
re nen
Ġnach folgen
Ġdiskut iert
Ġstru ktur
mer kt
ĠG att
nig ht
ĠJack pot
ĠMad rid
ĠBe cken
cks eite
Ġge raten
Ġein richten
ĠMe cklenburg
Ġer zeugt
ĠF inn
Ġ19 30
Ġglau bt
UN D
ĠSho pping
O pen
ĠDa me
he rn
B D
ĠUnter lagen
que s
Ġ| |
ĠWe sent
Ġbe suchte
! "
Ġn ahmen
H T
d ding
ĠF I
ĠD S
d an
Ġ arbeit
r eitung
H eim
ĠStiefe letten
ĠZ elt
ĠVerb indungen
Ġbe l
qu is
R ein
ĠBal ance
ve ster
ĠPfar rer
ĠBas ketball
G lu
ĠLi ppen
S mart
ĠT SV
ĠLauf zeit
ĠDiagno se
ĠD ing
dire ktor
ĠHand lungs
le chter
ok ia
bl ut
and ra
ĠB reit
is ierten
K auf
ĠH op
ĠI sol
se g
10 8
Ġdig ital
ĠAkt ie
mo dus
be zu
Ġbe rechnet
ĠErkrank ungen
ER S
Sch w
An ti
f isch
bli cke
ĠTe mpel
ĠFin anzen
ĠFlor ian
ĠHe e
vol umen
ĠAus gleich
Ġer staun
ili an
Ke y
be wegung
ĠMas siv
her ren
ff nete
M C
r igkeit
he ll
ĠLieb ling
Son ntag
ĠKe ramik
ĠP age
Ġreag iert
lo ud
Ġge ste
Ġbeton t
sp ot
irur gie
Ġlaufen den
ce pt
Tro tz
Ġperfe kten
Ġbe herr
ĠF ische
ĠAs ien
ch ange
ĠLad y
schie ben
ĠD og
lei cht
ĠStau b
ĠA K
ĠBlack jack
ĠSt ars
ĠAss o
Ġsta y
N C
Ġtra f
ĠB r
sc reen
Z ahl
lie ferung
ĠRegen sburg
ĠP rivate
ĠStra tegien
li sse
ĠChar les
k ali
Ġs telle
Ġer fasst
ĠBe ck
Ġausge sprochen
Ġange messe
produ kt
k lang
ĠChamp ions
per ience
ĠTra vel
Ġ1 11
O ne
ĠTi cket
ie ber
w oll
Ðµ Ð½
arbeit ungs
Ġh undert
ok o
f ein
Ġer weitern
ĠBundes land
berg reifen
ĠDe cke
Je der
t r
gno se
farb ig
ĠSw iss
ĠAutor in
Ġsch einen
on ia
Im mobilien
hil fen
F otos
spro zesse
ri ne
ĠMag deburg
ĠK O
Ġe lf
ĠReg isseur
f tes
L P
ĠS ko
Ġein heit
ĠP fa
K lein
an ner
Ġge to
d h
ug o
cke nde
ĠIma ge
ĠMan fred
Ġge boten
ĠCo me
Ġt at
c in
st unde
lo hn
Ġt rag
le hnt
i alis
Ġge kenn
ppert al
iche rer
ĠBre mer
Ġin halt
ĠAn liegen
N D
u tel
Ġfeie rt
vi der
frieden heit
Ver ha
me dien
ĠBot schaft
Ġi lle
iel ler
at ien
ĠMehr wert
k linik
ct ory
ĠGo od
ĠK urt
Ġaktiv iert
verkehr s
Ġster ben
Ġdarauf hin
ĠIm mobilie
Mo der
tifiz ierung
rie benen
rien d
Ġha d
Z ug
ber trag
ÑĢ Ð°
ĠStu fen
Ġdauer haft
att an
ĠAd apter
ĠMathemati k
Q L
ĠSa le
ĠMosk au
Ce nter
ĠK ron
nstig sten
01 0
set zer
mmer t
Ġj o
ĠS ite
ĠSta bilita
ĠAb wehr
ĠIn g
die nt
ber weisung
K L
}, {"
schiede ne
f ault
Wohn ung
ĠPortug al
fo x
f alle
ĠA mp
Ġ19 64
be griff
Ġer zeugen
ĠW E
b ingen
ĠKennt nisse
T P
Be nz
Ġnation alen
ĠSch ra
Ġle d
hrlei stet
be zug
zent rale
ĠBeob achter
fon t
Ġfinanz iellen
Ġ19 65
Ġfal sche
ĠEnt spannung
Me ss
rat h
ĠHor st
mber g
S eiten
ĠAn leger
x el
N O
Ġemp fangen
ber w
T or
u ÃŁen
pro be
ĠReg al
berra schung
ĠB W
Up date
' );
ĠRo stock
le te
Ġw inter
ĠWal zen
f c
re o
schie ht
bron n
ĠSe ssel
aler ie
Ġgez ielt
da merika
ha ar
ĠHel m
Ġfu hr
Ġf ragt
Gar antie
pa ar
lan des
ĠKredit karte
ĠSti ck
ĠTru ppen
Mon tag
ĠAuf nahmen
ĠW ith
Ġb lock
ig an
Ġun za
ĠAus kunft
ĠRie sen
10 9
ĠKe tte
Ġfest gelegt
A CH
ig are
Ġer fa
Ġver tra
Ġlie st
aus stellung
Ġsch m
m ung
ĠPat rick
cre me
Ġper ma
one lle
Te chnik
nz ung
Ġâ Ī
Sch ule
Ġi g
ndler n
ĠDar auf
meister schaften
p ommern
Ġs ach
Ġ19 66
Pa ket
O pti
Ġbeit ragen
Ġh ref
ĠFir st
10 3
Ġgew ohnt
ĠS chen
ĠAuft rags
Ġver ru
Ġ rad
ĠAp otheke
lik ationen
vers and
ĠMo bilita
ĠSp eisen
ĠDu sch
d ter
ĠB ol
Ġmensch lichen
Ġkla ppt
ĠAc count
ĠIn solvenz
verb ot
Ï Ħ
ĠEurope an
Au ÃŁerdem
kom me
rech ner
el and
metho de
ĠWettbewer bs
Ġhinter lassen
Comp uter
ĠN ar
ĠIn sbesondere
S onnen
Ġte xt
mach ung
p il
Ġhohe m
an leitung
ĠPap st
at ta
Ġvor liegen
Ġq uer
ber fla
Ġd ist
Ġdies ja
d r
ĠUm bau
c tive
ĠK alk
ĠF L
spro du
ĠNachbar n
Ġ19 39
A h
CH F
eie rt
Ġna me
ĠH as
ĠVor stands
ĠDe al
ĠPerspe ktive
ĠPod cast
hal s
Ġw ild
ĠAuf sichts
ĠSa fe
ps y
Ġzent ralen
ot ter
ĠTo ten
Ġ12 00
ĠDeine m
Ġen orm
durch schnitt
Ber g
ier st
45 6
Ġge gebenen
ĠBe dien
ti ne
ĠC all
Ġe st
ym bo
ĠA nerkennung
G ER
An ge
ĠChr is
ĠG ummi
Ġbedie nen
tei diger
rien ds
ari fe
weis ungen
Ġen or
ĠVis ion
ser ver
ĠBeteilig ung
ĠFe atures
wer tige
Ġor gan
ĠA st
Ġinform ation
M O
ĠBeam ten
be ll
E vent
Ġver lor
y pen
ĠP ad
B I
ĠNeu stadt
Ġko chen
ĠSch all
Ġso urce
Ġg alt
ĠAn sonsten
p assung
ĠA gen
wei ch
W il
he e
P lus
S al
ĠNieder lage
Ì ĩ
) -
Ġ13 5
ĠWag ner
fiz ierung
ĠMuse ums
od or
Ġerho ben
hm ten
Ġsch loss
li ckt
Ġneue m
ĠR A
ru p
re ckt
ho tels
ing t
wir kt
ĠL isten
ĠFe lix
l der
Ġbe schreiben
ĠA le
Ġre f
ĠB rig
Ġflex ibel
ur i
ĠUm frage
Ġgeplan ten
Fern seh
Ġgem eint
ge ts
bo y
ĠG ymnasium
ĠLa ke
Ġkorre kt
ĠPass wort
P asst
ĠAus sehen
m burg
ist isch
H ein
Â ©
Ġbrau chst
ĠIn haber
Î µ
>Â §
ĠS qu
book s
V iel
ĠB rut
ĠOut fit
ĠD ress
sem ble
Im mer
as ing
ĠBei ge
ĠRo ss
ch ancen
ĠIngen ieur
ĠN i
u sche
ĠIn dex
O h
ĠNe ur
ĠF assung
fik ationen
ĠE ye
ĠQuali fikation
ĠSto ffe
n isch
im o
Ġengli schen
re al
w ahlen
ĠWider rufs
F un
ĠSa al
Ġrechtz eitig
Ġge schieht
ĠGe brauchs
fahr ts
M at
ĠPark pla
11 6
ĠE g
Nach richten
F S
si um
Ġinnov ative
ĠTra iler
Ġb lue
Ġbestehen de
ĠT am
ĠPrem ier
Ġinten sive
Ġ25 2
D ruck
or ben
ĠBel gien
ĠPfe ffer
ĠAben dessen
Ġ15 00
In ternation
y na
ĠN ico
sch wer
bee ren
Ġbelieb ten
le d
ber u
ĠIll ust
Ġange sichts
ĠT onnen
u lt
ĠMe ssen
ĠFant asy
Ġver folgen
Ġeinge tragen
ri al
ĠImm un
Ġje tz
sch us
ĠBestand sk
Ġaufge stellt
ĠOrt steil
Ġb reiten
ĠRe form
u tern
ĠAus la
Ġab geben
p ag
a ce
krie g
re as
Ġte mp
Ġge g
ĠD at
ĠMittel alter
Rechtsan walt
Ġje ner
Ð ¿
H C
ĠIn ns
sei tige
Ġrus sischen
tember au
Ġ19 38
ĠL okal
Ġam a
Ġwor auf
ĠE ch
D VD
ve c
Ġanzu zeigen
Ġd or
ĠSwe at
Ġschle chten
ĠE ber
H ar
10 2
eie n
bi ke
St re
Ġba dezimmer
ĠMon te
Ġt or
Ġsch merz
Ġt ru
P N
Ġrich ten
ver antwort
ĠMar co
wand t
R at
ber ry
Micro soft
m utter
Ġu ne
ĠAn wendungs
ĠL assen
Ġeingesch ra
ĠJa co
Ġheraus zu
ÌĪ .
Ka bel
Dis play
ĠS eil
iche rn
V oll
ĠDe ckel
Ġkon seque
be ner
N ike
w ider
Ges undheit
Ġbe ha
ver lust
o ck
Ġnied rige
ĠK ohle
ĠLa w
Ġlang fristig
Ġselbst sta
ĠMotiv ation
wick elt
Ġfinanz ielle
Ġt ren
ĠCon ne
O st
ce an
wander ung
ĠSe curity
W in
ĠBetro ffenen
ĠSneaker s
alk ing
Ser ver
sel f
merk ungen
ĠX P
os h
si ver
Ġge re
ĠSelbst be
S til
tei ler
pra xis
ĠI ran
pol ster
Ġattra ktive
Ġfe sten
Ġun verb
fun ktionen
Ġleich ten
ĠBru ch
Ġversch w
ĠM O
Sam stag
ĠCar o
chn am
ĠMex iko
Ġeiner seits
laub nis
Ġbet reiben
ĠSor ge
ĠHandel n
ĠD own
ĠSy rien
Ġbe weg
Ob jekt
c co
ĠE ure
Ġzer tifiz
ĠSili kon
Ġlie ÃŁen
Ġprakti schen
Ġerforder t
ss atz
ĠGeh irn
Ġum so
Ġ1 18
bes itzer
Ġbek ommst
ĠP ick
Ġb it
q uellen
Ġwei ch
ĠGew u
AT E
Ġe dit
N EU
ĠWe nde
be lt
ĠEnt wurf
li an
ĠTher mo
M ulti
Ġk unden
line n
ba i
ĠKon text
F ran
Ġaut omat
11 5
Ġ ten
Ð ·
zess in
Ama zon
ck ner
di d
ĠDu al
Ad vertising
ĠZ ivil
ĠLo unge
ĠT omaten
Ġlo ok
ĠF lat
ĠAutomob il
ĠBe at
ĠAmb iente
ĠFl ur
H andel
ĠBo sch
rie bs
ĠJava Script
iz ieren
gra de
schen kt
Ġh is
ĠGu ide
IN D
c asino
Ġlieb sten
press ion
ĠRe nt
An halt
p ri
t ta
lo e
Ġsteiger n
ĠMiner al
Ġall zu
Ġge ringer
Ġein ver
ĠSch li
Ġdefin iert
IC E
ĠBro ker
au ff
u pe
och t
Ġo pen
be zirk
w h
ĠJahrzehn ten
Me dien
Me dia
ĠJe des
re uth
Ġitalien ischen
ho sen
L uft
p resse
v ance
Pro f
10 6
ĠRa iner
Ġthe y
ĠB B
Ar beit
gen au
N ummer
ĠV io
uel ler
Ġh ar
ĠG PS
kta kula
verein s
geb uch
rper s
kre bs
ĠVol umen
fil me
Ġc ol
ĠU e
M use
Ġdurch ge
V i
Ġ19 63
C ap
Ġver sorgt
Ġ19 40
D rei
Ġan sprechen
Ġges unde
ĠZe ugen
frist ige
Ġber ichtete
Ba den
ĠNie d
Ġeinge hen
k annten
Ver gleich
Ġge ringen
Bel ie
ĠFla schen
ĠBe wusstsein
ĠAn fragen
ĠRe na
zent ren
Ġnachhal tig
lit zer
ta te
ĠK assen
hl on
ĠF eie
ĠVor haben
Ġ; )<
Ġkon stru
ĠD SG
ab a
Ġ19 61
Ġ1 13
G S
FuÃŁball spieler
Ġge lassen
Famil ien
Ġunkomp liziert
ĠRei ter
F E
D B
Ġher ren
ĠGe rne
ĠKand idaten
schlie ÃŁt
Ġd on
m os
peten zen
Ġdar stellt
Ġma ke
cht nis
K or
ĠSta dion
ĠNicht s
Ġe p
F O
ĠT ie
Ġum gehen
f rauen
Ġver suche
Ġneg ativ
Ġz iel
ib ilita
E t
id at
B in
si st
reich ung
K ein
hil osoph
ch at
c amp
nt her
F it
ĠY our
ri ffe
arn ing
Ġ19 44
Ver kehr
ĠStati stik
ĠM ama
ĠBe sser
tra ining
K ind
ĠVerle tzung
C lub
ĠGeheim nis
> /
Ġ Ñģ
ĠCas ual
Hil freich
ap a
We tter
ĠAl fred
Ġt ier
t tet
ot ing
Zus ammen
man gel
re y
pa api
ĠColle ge
Ġan passen
Advertising API
f low
ĠO pp
ĠKolle ktion
ĠSP IEL
ĠSan kt
ĠBe kleidung
ĠF lag
ĠBe d
wor ks
P M
ĠHin blick
ĠDrei e
P E
so fern
ĠBab ys
ba yern
ĠGro ss
ĠSchul den
Ġschwei z
ĠLe n
K K
ver lag
zahl ungs
ĠV iew
Ð¾Ð ²
Ġer zielte
Ġbeg renzt
ug ht
lig keit
K lassi
12 8
tt ing
st amm
ĠDoma in
ĠK und
ĠA kte
g baren
ul pt
Ġp in
Ġ, <
Ġeig nen
Ġverwe ndeten
mit te
ĠThe re
ĠAuftrag geber
ck ig
Ġer worben
v ious
Ġumfassen den
Ġt han
stu dien
stra tegie
res h
B al
ĠHe ro
Ġ19 00
ĠPlat te
no te
d os
1 19
che f
ĠKo chen
ĠD ingen
ĠAn wender
ab teilung
ĠZ DF
spf licht
Poli tik
Ġp osition
Ġkleine ren
ight s
verb andes
ĠMa chen
Ġj ung
A lex
IV E
ĠM E
Ġtechn isch
ĠUn der
spa renz
ar ien
gesch ichten
ĠU we
Ġanderer seits
wett bewerb
Ġbeant wortet
bar ten
ĠSti ll
ĠR C
pro fil
ge ha
ĠLe a
tu res
Ġ< /
p rise
alist ische
ĠLin z
Ġaut omaten
ĠGar den
fe hle
Ġf rischen
U C
tter t
Ġre st
ĠTaschen buch
ĠK y
ta len
Le tzte
Ġbef and
Ġscha ff
ĠZe nti
Ġa go
Ù Ħ
ĠKom bi
ĠHar ry
ĠI sa
ĠAn nahme
ff ic
Ġ19 62
ver treter
ĠE rt
M L
willi gen
ng liche
Ġla ck
ĠV I
Ġ1 17
alis ierte
ra zit
Tra iner
Ġb aut
ĠAn im
Aktuel l
Ber eits
d ll
ĠQuart al
ĠUm kreis
ĠLa bel
s eiten
d ti
ĠBetrieb ssystem
ĠPartner schaft
ame ter
gen ossen
ĠAll tags
ĠAn ders
Ġab ges
Ġhal be
he ft
sa ft
ale m
Ġe bay
ĠPor sche
ĠBe dienung
ge bene
Ġa ktiven
ĠHer bert
Ġdi cke
ĠSt k
Ġdre ht
ĠKli cken
ĠPor no
bee r
10 7
Re st
ĠJe doch
ĠI C
ha in
ĠR unden
ĠP ixel
im me
Ġumfassen de
velop ment
ĠO k
ĠSp in
ĠInspir ation
Ġre gula
Ġh armon
Ġst ren
bas is
de kor
or der
ill s
ĠErinner ungen
SP D
ĠT ok
, ...<
ĠRe search
AG E
Ġren omm
Bus iness
ĠVor gaben
ss ischen
ateg ory
ĠSch rau
ĠV irt
ĠKat ho
ĠGe richte
berraschen d
li dar
ĠHon ig
rei bst
uter t
Mit twoch
ĠMeister schaft
ver ordnung
ĠK ana
Ġhinzu gefu
d ann
D ata
in stitut
Ġme rken
hn ten
w ord
ĠW oh
druck s
ĠgroÃŁe m
Ġ link
ĠFor derungen
ĠW ire
ĠA rab
ĠHa ken
rik ot
ĠHum an
ĠBre ak
ĠMon ster
ĠAl pha
and al
ĠHand buch
lus te
sa fe
I talien
vor lagen
Ġben annt
iv a
e st
ĠGroÃŁ teil
Ġgrund legen
ĠLe d
ĠFest platte
qu ali
las ter
l b
Ġletz tes
áĦ Ĥ
Ġge holfen
zip lin
ommer ce
Ġhei ÃŁ
Ġgen annte
ĠIn iti
z icht
Sp ieler
k it
ĠJourn alist
ĠB os
ta ct
acht ungen
11 4
Ġs i
h ammer
kul ta
ĠR AM
de utsch
Ġlie bt
ĠP ur
in ts
ĠK im
ĠAltern ativen
ĠK ok
ber sch
war ten
Ġgest al
ĠChara kte
Ġk nnen
ĠSelbst versta
f ahre
Ġin telligen
ĠOr chester
Ġama zon
ĠS abine
Ġbe ster
hel fen
ĠBu ll
Ġd reh
be auftrag
Ġnew s
stauran ts
ĠB un
fre ude
rau cher
UR L
In halt
ĠComp any
ff in
ue st
ĠS ollten
ĠG umm
Ġ cent
La ger
ĠV R
ĠW atch
ĠWe ster
ĠG ur
Ġver gro
Ġseit dem
Ġpro duzieren
ĠSchauspieler in
n ik
Ġlu stig
au te
li te
ĠOs nabru
Ġdiese l
Ġm att
Ġf i
ver ba
sch le
Ġausge lo
ĠArt h
Ġange ht
ĠP izza
ĠF OR
3 20
Ġj urist
g io
n ige
ĠBe wa
stal tet
wie s
n ix
ĠErkrank ung
E m
Ze r
* ,
Ti pps
Ġer kunden
Fa x
ĠSch riften
Ġda ten
ti z
ĠHa gen
ab schluss
ĠChrist us
ĠDefin ition
ĠKon sum
Ġver lin
D ru
Ġabge rufen
L age
ande rer
zus ammen
Ġge schehen
ĠFuss ball
Ġhei ÃŁe
ĠRe port
ia le
bie tet
k ow
ĠMe dium
Ġq m
Don nerstag
kon takt
rech tigkeit
ĠLe op
ĠRe siden
ĠVorsitzen de
w is
EN D
F alls
Ġp ara
Ġdah inter
zel l
Ġmach ine
Be tt
hor st
Ġe ffizien
us sia
ĠAr ti
con d
r assen
ĠWirk lichkeit
ĠW ann
ĠE legant
k am
sto re
ĠWo men
ĠBelast ung
sche f
ĠA cadem
ĠD iskussionen
re den
ĠNot fall
ment sprechend
K arten
Z wischen
ĠS S
k nu
ĠLauf schuhe
ĠGe stalten
Ìĥ Â¶
ĠEr halt
ĠC la
ĠB ow
Ġehren amt
Ġer fahrungen
Ġit s
ĠSan ierung
Ġstell vertreten
ran ke
Ġfe ste
Ġbe nach
ĠRei s
Ġ ord
ĠAn reise
ri um
ogra mm
ĠSa telli
ol ar
an bul
ĠEr furt
hol m
Ġlo cker
lin o
pen sion
d in
ĠRol and
w ich
ĠSp rung
ĠAr men
ĠNor wegen
arb ru
ord an
du str
ĠâĤ¬ *
ĠIn ner
ĠEin blick
V I
werk statt
ĠSie mens
nger t
rau f
bsau ger
rer st
ĠBuch staben
H amburg
l se
ben de
ĠJuni or
Ġabsol ute
ĠT O
ĠUm zug
ĠBei nen
teilig ung
Ġ ^^
Ġver arbeiten
a he
stre am
B ran
L ang
ĠMerk male
Ġstarte te
Ġim port
ĠInvestit ionen
Ġent deck
ĠTi rol
ĠL td
Ġmin i
s icherheit
un ft
ĠAb ha
ĠB ut
s werte
Ba ck
ei gen
ĠOnline shop
Ġhervorragen de
ĠS ide
kter ien
Techn ologie
op s
ĠStaats anwalt
ĠT opf
ĠAn bau
Ġver heiratet
ĠSchu b
ĠBunde stag
ĠMit tag
ĠFreund schaft
be tra
24 0
spf lege
ĠKlei nen
Ġ19 56
Ġ12 3
sen sor
ufig sten
] ]
The ater
ĠX XL
wel len
Ġbesonde rer
ann over
ĠRegel ungen
Ġ19 49
ĠKind heit
ĠO fen
k ol
Th omas
Ġmaxima le
Ġin neren
Ġhal ben
Man agement
stat us
ĠVerein barung
ĠW andern
ĠPosit ionen
Ġstand ard
ĠS ir
Ġhin ge
2 30
Ġ10 4
ĠVeran stalter
ĠT rom
ber setzungen
ar ischen
A s
Ġerleich tern
ein satz
ĠSch icht
U l
ĠWer den
Ġs amt
ĠFa zit
ĠOr gel
Ġb la
b at
ss icherheit
Ġmehr mals
der born
Ġschein bar
Ġne ut
Ġschrift lich
Teil nehmer
j ahre
áħ® áĨ
ĠZimmer n
Ġbe setzt
Ġbes ei
Ġru fen
Ġre pra
Ġspezi alisiert
ĠWorks hops
Ġunter scheidet
Ġli ter
Ġg ast
Ġw ahren
ine d
uer st
ĠF ron
fi ken
ĠTemp o
u ters
h lings
F D
bet reiber
ĠEnter tainment
ber wa
Ġp c
Ġd oppelt
ĠMinister pra
ĠCom ments
ĠN EW
ĠHel den
us ter
Se n
Ġin to
Ġange gebenen
Ġun no
ĠGe o
ĠA sse
Ġgro ssen
ĠT uch
Ġf ried
Ġ; -)<
ĠT um
Ġvor ab
ĠTable ts
ch or
geb urt
Ġm ut
t chen
ĠRe ad
om i
ha fter
Ġscha de
ow eit
ĠMeld ung
ĠKon gress
Ġ ran
ĠA kten
Ġj ob
19 99
Ġver suchte
ĠMiet wagen
ĠAus blick
Ġver wei
Ġan statt
ĠOli ven
ĠF ell
hoch schule
Ġgef eiert
Ġbrit ische
auf nahmen
ĠKon struktion
p unkten
Ma i
Ch ar
3 50
material ien
Ġauf einander
or ita
l zer
CH EN
Ġtelefon isch
AN T
ĠE ffizienz
Ġge hei
Er gebnisse
auf wand
ĠHighlight s
ä ¸
re tt
ĠG ipfel
ge rechte
ĠSchi ffe
re de
k r
ĠT iger
be kommen
ig ungen
ĠNeu kunde
ĠR io
Ġsol ch
Ġher ko
Ġplan t
Ġda y
ar ing
Ġb log
ution s
Ġteil te
val u
ommun ic
p c
Ġbe teilig
Ġum geben
Ġbe z
Beit ra
ĠTag s
be du
ĠRe chen
ĠAnge les
u u
ra in
K G
Ġgebil det
rib ute
Ġan gebracht
schlag wortet
sel be
Ġp our
ĠZin sen
Ġpa y
ĠGru ÃŁ
Ġberech tigt
ĠOlymp ia
Ġabge geben
ĠU s
rape u
ĠPrie ster
r ar
ĠEss zimmer
ĠÐ ½
Ġverm ie
ĠSch uss
ĠJo nes
ĠLe nk
ĠCas h
ĠKopf ho
ĠSonnen brille
ĠV alle
Ġgute m
ĠP KW
ĠTha iland
ĠStandard s
the rapie
c la
ĠHil f
op tik
ĠHand ball
ĠWo od
ĠSie ben
spe zif
ill y
ĠBe handlungs
krank ungen
P ER
ĠLi quid
Ġphy si
wal ts
rech nen
figur ation
Ġ19 59
re ut
A ktion
Ġsel bsta
re ck
ĠSte ue
Ġange meldet
ÃŁe nde
ĠS ul
Ġge bo
r iel
Ġc ou
', '
g b
ĠKn opf
Ġra sch
ĠSt an
Ġange fangen
Ġ19 58
Ġf am
zieh bar
Ur laub
S ind
Famil ie
Ġauf fa
ĠS oph
ĠStud ierenden
ĠKreativ ita
ca pe
Ġste cken
Th is
ist o
N acht
Ġge werb
ĠSte ine
ĠLu x
Ġerle digt
sie d
xe r
ĠJe na
b on
11 8
Ġbeob achtet
Ġdem nach
ĠMan chmal
mas ter
v ir
yo ta
Te x
ĭ áħ
ĠE ta
ĠL it
gar antie
g itter
ses sel
ĠA cht
gebir ge
T rip
Ġc ir
Ġbee n
ĠB ri
Ġspiel automaten
ĠLie ben
bern achtung
ĠNieder lande
ĠTest sieger
Ġver spricht
ver mo
Ġzent ral
ĠR uma
ĠMat ch
ĠTra ck
ĠEnt stehung
ĠSchwei ÃŁ
ch tern
pen der
ĠT eig
ĠEr werb
ĠGT X
gra mmen
Ġrei ne
olog ischer
dre ht
ĠTran sa
iche n
ĠVor be
ĠGu sta
ĠVer ordnung
ner in
ĠC ASINO
Ġausge hen
ĠT rier
Ġz ahlt
ĠF RE
ĠBesuche rn
W A
ĠBie nen
Ġ10 9
? âĢľ
ĠZ el
ĠGol den
schie ne
b be
ĠClau dia
pe st
b d
Ġkonzent rieren
ro ugh
or o
L ine
Ġp age
c z
person al
kom fort
h ut
Ġbegeister n
D atum
lan t
Ġzwei e
K S
verku sen
mil ch
ĠKon troll
ĠSchokola de
Ġkonkre te
Ġ3 20
U E
min uten
ĠReisen de
Ġsta bil
" );
ra chten
EL T
ftig ten
vel y
sti ken
ĠHerr schaft
Î ½
y ball
ĠSo bald
ĠHo liday
Ha ben
ĠU fer
ĠAr gument
ĠOrd ner
nummer n
g st
Ġgew or
Ġju gend
c f
g lo
Ġman gel
Ġw ahre
nes ien
ĠEli te
Ġd icht
ĠAus flug
ĠVor bild
Ġtraditione lle
G T
ĠKat astrop
ĠV ul
ĠSch rauben
u ber
Ġliefer bar
Ġverein bart
M eister
v irus
a kte
ĠJourn al
ĠBer gen
N S
no men
willi ge
C amp
? )
an zug
H ot
m orgen
ĠGrund schule
ĠC ir
li ver
ĠEing abe
he ma
ĠBade wanne
Ġme ssen
M U
ĠRal f
ĠT ieren
ĠR ho
ad ow
wissenschaft ler
ĠLie ge
Ġbeeinflus st
Ġ( Â§
Ġ ri
ĠVer triebs
ĠGar age
ĠFa kulta
ĠK letter
ĠL ar
ĠCo ach
ĠSt rei
F ried
ĠA ar
Ġba ye
wick ler
Ġgarant ieren
ĠVor jahr
ī Ī
sp ur
ber lin
s in
ĠBe dro
Ġ5 000
itt le
ĠTechn ology
lie der
Ġch ar
ĠInns bruck
ĠAl arm
Ġges perrt
uzz le
Ġn ice
ĠE mo
ĠBeitra gs
ĠE S
Ġtra ding
ĠEx port
Dien stag
ĠPol ster
ĠM iete
Ġempfehlen swert
po int
ĠInform atik
Ro ck
ĠGr as
stra fe
ĠG lanz
Ġpar allel
ĠC m
ĠPan orama
schei nend
tic al
Ġgew al
Ġ19 55
R aum
tz chen
W C
ĠSpa ce
war tet
Ti pp
il den
gg ress
p ara
ĠLei b
ie fel
11 1
ĠSpiel zeit
gef unden
qu a
V E
ĠFol ie
ĠHei de
ĠGen re
ĠSchw ein
Ġ19 57
Ġsta dt
p ause
Ġqualit ativ
ĠJourn alisten
Sti ftung
met all
ber geben
ke ten
ĠRe spekt
ĠLiebe s
dar fs
Weiter lesen
Ġg rad
Ġge h
Ġrezept frei
ĠRechtsan wa
Ġsp ie
ĠV ir
I ng
Zu letzt
ĠA rena
Ġunbe kannt
Ġb ina
Ġpoli tisch
Ġ ort
ĠS co
ĠV irus
Ġentscheiden d
ĠRe zeption
hrer schein
ĠPer ma
ĠS m
Ġgekenn zeichnet
zwe ck
ĠAd am
ĠNe bel
ĠS ich
sch altung
ga me
Ġjewei lige
neh mlich
a wei
22 5
ĠAu ÃŁer
ĠS zenen
Ġberuf lichen
h ib
ĠS ven
ĠMas ke
Pro zess
be ha
ĠChar me
ĠAb stimmung
dition s
ck wunsch
Imp ressum
ĠEx cel
wid th
ĠBundes wehr
L ive
vail ability
Ġ19 48
ĠTren nung
lich sten
ĠPe e
Ġge fordert
ĠVer fassungs
IT E
30 3
ĠRa y
Ġmedizin ische
ĠN ick
rz ten
veranstalt ungen
Ð ±
richt ungs
Sie g
rger n
at he
Y ou
ĠZ ellen
u des
Ġver nu
ĠDir k
pp lung
r unden
ĠWerk zeuge
ĠSu ites
c ca
Ġe ner
men gen
L T
ĠRecher che
Leben s
ĠEin heiten
ĠMan uel
Ġschwe rer
r ften
Ġvor auss
ĠOl denburg
ĠL KW
Ġweb site
Ġge ehr
Ġge ha
ĠT eller
P ass
g ab
Ġh ow
ĠDis co
Ġ lasse
ĠAus zahlung
sp unkte
Ġg reift
Ġw hen
ĠPro test
13 5
Ġvor sichtig
Mod us
Ġs age
Ġwe stlichen
Ġaufge hoben
k reises
an schluss
s m
Ġhel p
Ġsol ches
Ġd os
Ġnieder la
Ġte urer
ĠTast atur
ĠPa are
ĠAd vents
fo od
st ange
ĠEinwohner n
ĠRo ten
w riter
ĠOrigin als
man tel
lo tte
he punkt
Ġge ru
11 7
ĠPan zer
ma ker
Ġw olle
W ein
ĠInve storen
Ġbemer ken
ĠZu sta
yl on
ĠSch me
ĠErkennt nisse
ĠSal at
fa chen
familien haus
D an
ĠKap ita
ĠRe nd
hal l
fle chte
ĠEigen tum
ĠK fz
Sch we
ath le
Ġb rei
ĠSam mel
Ġ19 52
vor schla
li ka
ĠBe vor
Ġco uchtisch
Ġb lieben
ĠRe ferenz
Ġakzept iert
Ġvert raut
ĠChem nitz
ĠProf is
Ġ áĲħ
ĠLand tags
ĠBo b
Ġre d
sch ritte
mati k
ĠJ ur
ild ing
Ġma de
Ġt iefer
Mar keting
ti pp
Ġdru cken
p ap
si der
c ta
Ġauf wa
ĠB rille
le ne
Ġ19 0
IL L
F ans
Ġhe utzutage
ust om
ĠR oller
ĠPin terest
ĠZit ieren
Ġseiten s
G ibt
ĠTerr assen
Ġdro ht
Be wertungen
v om
ĠInstitu tionen
Ġwert volle
G ute
ĠCo des
Ġgro ss
an ia
op ro
ĠDis ney
ĠE bay
Ġvi agra
ĠFran ce
Gemein de
O hne
rum pf
son st
ĠVerle tzungen
Ġpro bieren
ĠEin zigar
ĠGes ang
ĠFunktion alita
ĠLiefer zeit
ĠB ug
ĠG utes
Verk auf
ĠMan tel
ĠNu ll
ĠEner gy
ĠErkennt nis
peri a
Ġe del
k lassen
ĠMich el
ĠBeteilig ten
ĠAb itur
ren ce
zw ungen
ĠV alent
N ot
ĠTra ding
Pla yer
Ġange schlossen
k ok
ĠDist anz
gr ar
ĠJako b
CD U
ĠP ig
ge schenk
Ġeinge ben
ol aus
Ġle se
ĠH ER
rag ung
Ġste he
ĠLe h
36 0
r fer
geb ieten
he ute
i P
ver ne
Wie der
ĠAn la
ĠEin scha
schen ken
itz ung
ĠReg ister
Ġwh at
ge stell
ĠP kw
ĠEner gien
qu ire
Aus gabe
h auer
ĠN ow
ĠZu fall
Ġges ichert
ĠS icherung
berei chen
Au dio
p lex
Ġamerikan ische
ĠVer kaufen
ĠTob ias
ĠBu chen
ei ver
ĠKar ne
the ater
do be
Ġkon zip
Ġan la
ĠP on
rein iger
Ġtable tten
Ġmo st
Ġexist iert
ĠUnter halt
u hren
Ġmit hilfe
ĠS cher
Ġsonst igen
Ġb ig
ĠStu dent
ĠWir bel
Ġloka le
f ind
Ġe uer
ĠRe serv
le hnen
ĠIn stitute
ĠC it
ĠGener ationen
Ġ10 2
vi den
ĠBundes la
ĠVer gu
T isch
ĠMall orca
C M
ho ut
h us
kri terien
ĠCan on
Ġblo ÃŁ
ro man
mit tags
ĠBrow n
c os
Ġ19 46
ĠPrem iere
ĠK asten
ganis ation
Ġlei ten
ei s
Antworten Lo
B lue
ĠR S
ĠR ela
g eist
Ġkontroll iert
f irma
Ġver scha
ĠRe nov
Ġ licht
so ftware
Ge sellschaft
ĠEreig nis
Ġlo ve
e rs
ste te
g ladbach
Ġzeich nen
Ġunter halb
ment are
S ingle
ĠUn be
ja cken
ĠPass ag
freund liche
Ġd r
ĠH its
Ġwesent lichen
ge st
Ġgene rika
k art
stre cken
ĠBeg leiter
Ġschme ckt
ĠAufent halts
Ġorganis ieren
ĠRe lease
ti mer
ĠArzneimit tel
Ġverste he
Ġd ram
ĠNov omatic
ĠGe halt
ĠPla neten
ĠMar y
> ,
s hafen
tel ler
Ġkonkre ten
Ġvor u
rei z
nder te
Ġin nere
recht liche
Ġor ange
ĠD ritten
Ġ[ [
Z iel
x id
zus agen
Ġ lernt
Pro fil
ĠQuee n
ĠN intendo
sh i
tra iner
ĠKraft stoff
Ġpf legen
01 5
gem acht
m atte
ĠK abine
ĠG ig
ĠHum or
Ġ2 10
ĠD SL
bin den
lab or
Le tzter
[ /
Ġex akt
Ġun zu
ĠL ichter
n am
Ġdem okrati
su la
Ġ tisch
ĠMag ic
zen sion
Ġg rand
Ġkap utt
ffe rn
ĠGe ho
F G
Ġerlau ben
we d
ST ER
qu i
ĠWu ppertal
M el
Ġk ir
Ġfolgen des
leb nisse
ch sischen
ati o
ĠGoe the
Mart in
ogra fen
ĠDownload s
ĠAuf takt
Ġti pps
Ġt wo
Me rk
ĠZ ell
an spru
ID E
Ġaktualis ieren
Ġt ype
Ġex klusive
ĠN ationen
ra lis
k ommunikation
ĠTh or
Sch au
f ied
ĠInvest ment
Ġkrit isiert
Ġt oller
Ġwa sch
Ġ ol
ĠE k
ĠE ast
sch alt
Ġcas inos
ĠSe gel
, ...
Ġso fa
Te le
ĠMobil funk
ne ue
Ġrus sische
ĠC ine
Ġs olle
Al bum
ĠSp itz
mati sch
Ġ10 3
t uch
ĠWei s
ĠC OM
ĠGe bote
ĠBegeg nung
Ġwo uld
ĠT E
B lau
ĠPf lanze
Ġhand y
20 3
ĠLe o
ĠFilm s
Ġelekt rische
4 50
ĠKop ie
ĠI tal
am pen
Sch a
ĠPhysi k
j amin
ma in
ĠU rk
me yer
for ce
Ġpop ula
me daille
Ġf liesen
wie der
? "
ĠMar cel
ĠS oll
T age
Ġt rue
ĠG E
ĠL A
ĠCh rom
o sten
IC K
Ġ19 54
W ien
ie ger
Ġn on
, .<
ĠFlex ibilita
Ġad d
Lei stung
n au
Ð ³
Ġbe zogen
sc ript
sterreich ischer
ĠPh ant
ffentlich ungen
Ġinc lu
ĠG L
ip ment
u vera
ĠPer len
ĠDes wegen
u chen
ĠM ine
N ER
Ġnied riger
ĠEigen tlich
Mit arbeiter
Ġentsp annt
ĠJe den
F P
Ġso g
k rise
Ġab weichen
Ġra ten
ĠSat tel
q uer
Ġ19 53
reg ungen
ph oto
ĠKom bin
Ġein wand
ĠTre ff
p us
ge triebe
ĠMar s
Ġ10 8
ĠRe chnungs
ĠD ritt
ĠU RL
ze ssen
un dern
19 98
Sto ck
Ġle uchten
anne l
pra kti
â Ī
Ġeinver standen
a ktivita
âĢľ :
12 4
ĠW im
' <
ĠVort ra
ĠT asten
Ġfal schen
ali for
ĠKomp onist
Ġa gain
ĠT itan
R hein
schrau ber
rz tin
ren ten
% )
ĠAuf rufe
ĠF liegen
ĠCon tainer
ĠJe rsey
ÌĪ -
ĠKri sen
ĠFried hof
ĠÐ ¸
Ġma y
ĠBe stimmung
Ġ* **
Ġst ring
Ġberech nen
so len
op tim
Ġpf lege
W S
mo der
i j
ĠJo e
zei tige
ĠJahres zeit
aus fall
y k
v d
ĠHier zu
Ġchine sischen
leg ungen
os o
Ġfol gten
scha len
Ġherr scht
>Â ·
rd in
A pps
ĠPat ch
ĠO F
ĠS lim
Ġeinzigar tig
Ġk it
ĠLin den
== ==
Ġakzept ieren
ll te
Ġgeeig nete
Ġt v
D L
wer s
ĠG uten
ĠSu ite
zia le
Be stell
ĠE st
AT A
W olf
ĠHalb zeit
ab lo
Ġregion alen
Ġmedizin ischen
ĠWie sen
K urs
ĠH E
Ġeinzigar tigen
ĠReich weite
Ġverz ichtet
Ġdank bar
H or
Ġbeein dru
ĠEis hockey
ĠCy ber
ĠMe nt
ĠZ una
Ġre serv
ĠSchick sal
nd rom
ĠC hallen
au ten
ĠTe ster
h on
ĠDar lehen
ze m
and ina
Ġb io
Ġbe darf
T I
ĠGe denk
ĠSens or
Web site
W eil
Ġreich lich
d ner
Ġpro mo
ĠP r
ind lichen
zeit raum
D ein
ĠC ann
ĠCo aching
ier mark
Ġ% <
Ġzu greifen
V ier
Ġs al
ĠVer handlungen
Ġch arakter
Ġvor kommen
ke nd
ĠGe triebe
ste tten
ser fahrung
I r
ĠDra ht
Ġein lo
ĠBa yer
bersicht lich
hre e
t ras
ont an
Ġe legant
ĠNot wendig
par ks
C an
Ġsch ei
Ġver f
Ġeinzel n
Ġge laden
ĠR n
Ġnachhal tige
Ġ+ ++
Ġelektron ische
Ñ ħ
ir gend
vor her
Ġ19 41
sche ma
Ti me
ĠPerspe ktiven
hre re
Ġn ich
Ġverur teilt
Wo che
Ġgeb unden
wa sch
ĠInter pret
Ġsch ar
Ġ19 42
ho pa
ĠMan che
ĠM os
Ġverlie hen
in tage
Ġzu recht
sc ar
cher s
ye d
mit ten
ĠVerla gs
Son der
ĠEro tik
ĠKe nnen
ĠA chtung
Ġ light
S w
Ġnied rigen
g ot
schne ider
ĠGra ph
Ġ10 6
ĠMe tz
ĠT HE
zu cht
ĠS itze
Ġver wo
b iz
mper atur
Ġap otheke
ĠF ul
s eit
Ġho ffentlich
kan al
ĠMei len
ĠGemein der
Ġa ku
ĠBrem s
ĠPol o
auf lo
Ġtyp ischen
Ġmittle ren
Wir d
ĠG reg
ĠO ran
ber gabe
rie gel
schlie ssen
rter buch
d le
an ts
Ġkomfor tabel
ĠSp ass
ĠW id
Ġb on
je ktive
Ġabsolv ierte
zeu gs
Ġopti sch
Ġber ei
ĠIr gend
ĠInse kten
cke rt
00 5
ĠMo z
ĠGewinn spiel
ser kla
Ġzwei ter
Ġlei tet
ĠBewer ber
ĠDra chen
Ġbe zeichnen
Ġab ger
ta ten
Ġan fangs
Ġglei chnam
Ġern annt
Ġstatt dessen
ĠFor derung
ma de
01 1
ĠMilli on
an ischer
ĠAnkunft s
Ġhil fs
ĠBe cker
ĠSte mpel
Ġd at
ĠL AN
S and
W under
ĠH tt
Ġheraus ge
Ġer b
ĠL P
ĠFin al
ĠBeg leitung
ĠSch aum
ĠH unger
mar sch
A X
Ġver me
Ġso ftware
kt ar
cyc ling
Ein ige
Ġverscho ben
blen z
ĠL on
ĠHen ry
ĠH O
st um
ĠGesetze s
Ġzei gten
ĠCo sta
ĠHir sch
IC S
Ġein gebaut
mie de
ĠErschein ungs
an kt
Ver fu
St ore
ĠAn k
Ġecht geld
sch ir
ĠSch alter
f ia
ĠGe nehmigung
ĠBe griffe
c ity
Ġb rand
ab geord
ĠC A
iz iert
Ġde cken
al m
us se
ĠRot h
Ġkre ative
B MW
ĠReg istrieren
.. ...<
ĠT own
ftig te
F arb
ĠKon g
Ġver lei
Ġf arben
ĠTrin ken
ĠE P
Ġt ho
ĠRen ault
K lima
lic ation
ĠAut omat
Hin weis
ĠLiefer umfang
b ri
ĠStadt zentrum
An zahl
G ames
ĠQu ar
zei ger
ma les
lu xe
Ġ19 43
fa den
(" #
ut s
lo aden
CH E
áħ ¡
V alue
arch itektur
Ġer k
ĠLe ber
12 9
Ġdiskut ieren
li ft
la bel
Ġirgendwel che
p ubli
ĠAktuel les
Ġsch ick
mer kung
iv als
ĠH U
sse lt
arbeite te
ĠKro ne
ber nach
fer tigung
EN S
ĠGre y
Ġe e
sch rauben
ĠB at
da le
st rand
ĠKro atien
ĠHoll ywood
ĠW eit
geb ie
zel lan
ĠM rd
se ts
Ġbeton te
Ġb unt
Ġgest orben
ge fahr
Ġc ity
Ġz we
f ree
t ot
ĠE last
K N
rei de
che ner
ĠD ouble
ĠRo d
os se
Ġet liche
cd n
y ne
Ġim ages
Ġre par
ar at
ize d
tt le
ĠSil ver
Schlag wo
ĠBaye rischen
ĠNational sozi
ĠKomm unen
Ġex terne
ĠWider spruch
Ġre stlichen
gehen de
be am
Ġdie nte
ĠBe triebe
ner t
Ġinvest iert
ĠAR D
ĠO h
ĠSchu fa
Au ÃŁen
Ġsp iegel
ÃŁ ter
ĠS mith
ĠMe dit
unter such
. ]
ret ch
f b
Ġzu gesch
Ġf all
Ġabge sehen
ĠTable tten
Ġ; -)
ĠBu ches
no ten
ĠHe els
ĠIst anbul
ĠF uchs
kap ital
ge lenk
an fang
Ġ10 7
Ġerforder lichen
Ġer mitteln
ss iger
Ġeigent lichen
G eld
Ġfrag te
> .
fol gend
amerikan ische
Ġson der
Ġhei sst
ĠAus zeichnung
Ģ â
ĠGe sell
ndig te
ĠSt ri
te ll
Ġb rut
Ġm b
ĠD FB
ss pe
ĠInvestit ion
ĠVe nen
re gt
B ike
ĠAu stra
au stausch
be such
Ġb ir
Ġent zu
at hlon
system s
ste ig
an ti
kre t
M ana
ĠC l
Ġkor rig
kat alog
kon zert
ĠM ES
Ġbee nden
ĠðŁĺī <
ĠK ampagne
nb sp
Rad io
Ġmoder ner
lei d
ĠBetra cht
W ann
ĠX e
ten nis
ĠTeil zeit
im um
ce d
ĠSon stige
lager t
ĠHo w
di ne
ĠP oster
Ins gesamt
ĠBas ic
ĠEben falls
Ġmin ima
ĠKe rzen
ĠK ohl
ĠFar bt
ĠBeg eister
ĠAM D
H istor
pro gramme
ĠW ach
ĠKommun al
ragen de
lam pen
Ġge heim
ĠR he
ĠKart on
ĠSee n
ĠJa c
ĠWasch maschine
lan den
ĠCount ry
4 20
Ġhoch zeit
C ha
ĠDipl om
ro de
Ġk ol
nchen gladbach
Ġnach ts
ĠFel der
instru mente
Ġb innen
P ru
orient ierte
Ġver n
Ġspannen den
Ġa partment
Ġkurz fristig
ĠCh ip
leb te
ĠBe stellungen
Ġr isk
Kar riere
Jo se
des heim
ĠChamp ion
ber aus
jen ige
Ġde ko
Ġa temberau
ĠIr land
ĠKlassi sche
ĠSh ort
ĠGe len
Ġver teilen
ĠGegen stand
ĠDo ktor
ðŁ ĺ
Ġme tho
ok ies
Sch lie
ĠArbeitsp la
mar keting
ĠH ang
m ord
ĠDSG VO
wal de
d rau
ĠEin nahme
Ġkomp letten
Ġe uren
Ġle bte
14 9
hel fer
ĠRicht linien
Reg ion
we et
Ġh amburg
ĠG ie
ĠHe md
pro jekte
ĠDer zeit
Ġelektron ischen
ĠWolfs burg
s li
ĠVer wand
rn a
ĠLa tein
ĠBre tt
b ischof
! .
fe renzen
ĠC are
F its
atur n
ĠLand tag
fe lt
ĠE asy
ĠE tike
un gene
ĠP el
ĠA ri
Ġerh ielten
Ġig nor
" ;
z ien
s heim
b onus
s is
Ġk raft
Ġf rank
J ahre
ku lt
Ġletzten dlich
ĠBestandsk unde
ĠN ap
V R
ĠZ ah
Ġste uern
ĠLee r
nze nd
Ġehema liger
ĠR O
ĠAnge la
17 0
ĠTran sparenz
Ġi ll
ĠUl m
beit ra
f lex
Ġst ri
Ġdur ften
Ġausge setzt
ĠPf ei
Ġp arty
Ġbeste hend
tern al
Ġe asy
D ia
ĠFahr ra
ĠMarkt platz
A bo
us te
Ġwieder holt
lo h
Ġgegen wa
45 5
ag on
ĠO stern
Ġwunder bare
ĠRund funk
ĠBeru fung
ĠPrin z
ĠBe rechnung
Zit ieren
ĠS ke
ĠWaren test
stra ÃŁen
mo del
ĠG ib
Mag azin
rt ner
ild ren
Aller dings
di scher
Ġgeplan te
Ġfer ner
ro st
], [
wa ffen
Ġt rug
Ġlangwei lig
L ist
fts bedingungen
bst ahl
sp ark
ĠF ix
tage ssen
ĠVin yl
b ier
blu men
ĠEnginee ring
te ner
ffiz ient
ĠOptim ierung
Ġge meldet
sp annen
ĠJe su
ĠA y
ĠVer pack
her stellung
ĠÐ ¾
lei hung
D ra
Ġlegen da
ĠD ance
lte ste
I mage
ĠM AR
Ġriesi ge
wechs lung
Weiter fu
Ġgesetz liche
ike rn
Ġauf weisen
p ic
Lin ks
ĠEin nahmen
d og
ĠFa sch
ĠBe rt
Ġme rkt
ĠT reiber
ge stellten
ign al
Ġe nergie
IN T
ĠEr holung
ĠC PU
ph ysi
Ġbet rug
ĠN on
ĠH TML
n on
ĠPubli c
Ġbest mo
26 4
ĠBi bliothe
Ġbo den
Ġlang leb
cke d
ĠP U
ĠSus anne
tt s
Ġsen si
ĠSar ah
s her
fa x
Ge r
ĠEr ich
der o
Ġwich tiges
Ġange sprochen
sp rit
Ġsch ien
g ei
ĠGemein schafts
ĠHe alth
ĠTest bericht
ĠDe fen
w itter
ris iko
ĠI f
p ziger
Ġh elle
Ġwar me
recht lich
ĠY outube
Ġliebe voll
ĠVerb reitung
H ER
ĠSuper markt
G EN
Ġbehaup ten
ĠSie he
ĠSte cker
stru kturen
bring ung
ĠLe uchten
ĠPe tra
li ve
Ġan halten
ĠArtikel s
wei ss
ou ren
Ġa bend
Christ ian
I nn
Ġver legt
G lo
arm onie
ĠD orn
s hed
Elekt ro
bro t
ĠGarten mo
Z T
Ġsorg te
l ation
ĠEin willigung
u age
Sh irts
ĠD ES
Ġbo x
ĠKonzer te
ĠG ala
ĠTeilnehmer n
ĠRo me
Ġge p
Ġein kaufen
ĠMittel n
Ġunver ge
ras h
ĠBunde stags
ĠZer sto
ĠH ong
s icherung
let tern
p y
n iveau
ĠPa derborn
ĠArchite kt
ĠA spekt
Ġs ize
li on
p ly
ĠAb sol
Ġaufge rufen
Pa ck
ĠEpiso de
on to
Ġd ick
Ġregistr iert
ze d
rk ische
ĠUr ban
Z B
ĠSie ge
Rei he
Ġge burt
ĠW ahlen
Ġli fe
h und
Ġbetre ut
ĠI ta
ĠK iefer
8 99
ĠV olle
S lo
ĠC M
ĠKn ob
ĠErgebnis sen
las ses
ĠAl len
ĠJa ne
xx xx
lte sten
ĠIma ges
Ġbesch leun
he ater
ĠSuch maschinen
ĠSchwar ze
Ġhohe s
ĠHin zu
ĠGe sichts
Ġge nehm
C up
lei sten
ĠDrit ter
B ur
mo ne
ĠMar ch
ĠO H
ĠDiv ision
ĠC ON
ĠSol o
ĠauÃŁer orden
Be t
Ġge sto
ĠVerhalten s
wid get
ĠCook ie
Ġmel det
Sa ison
ĠPh ot
ĠEigen tums
minister in
Ġbedie nt
regel ung
ĠDau men
Mit glieder
Hand y
P u
i ft
Ġinteress anten
in halt
hre rin
Ge rade
zi se
Ġle ute
e c
Ġwe h
Ġerkenn bar
Ġvor liegenden
Ġzum al
ck nen
ĠBrun nen
ĠBesonder heiten
00 7
R T
ĠE AN
one llen
36 5
U X
Ġda te
our s
aus ru
C L
Schu he
Ġzuge ordnet
fla sche
Ġzu kunft
ste cker
Ġstell ten
hrungs kra
P op
Ġc olle
nst liche
ĠForm ular
Ġo ffer
omati sche
ĠFil men
Ġst au
Ġbein ahe
l lige
ĠVa ters
Ġ19 36
pul ver
ĠEr ziehung
Ġaus gebaut
P or
ĠS ize
Ġumge hend
ĠC arbon
Ġe chter
ĠHy per
Ġlu x
pp iche
sta te
Ġverm eint
g renzen
ĠPoliz isten
ĠMo tive
ĠOrient ierung
ĠB ars
iche re
ag te
ĠLang arm
k and
ĠInstru mente
gesch ritte
Ġc ap
ĠDe bu
Ġ17 5
ite kt
Ġk auft
ren ch
Ġ( ...)
: .
ra ler
ĠMo mente
Ġneg ative
Ġr unden
ĠEnt zu
An zeige
ĠO ze
ba cken
ĠSe a
auf lage
Ġi phone
Ġ2 25
ĠO m
ĠL TE
ĠTy pen
Sam sung
ĠN utzern
ĠNicht raucher
Ġa v
ĠRe e
r b
Ġspe ktakula
m auer
zei le
sterreich s
ĠAnfang s
H ard
ot te
ĠMar ket
u i
Ġan fallen
Ġauf bauen
B io
Sch lafzimmer
s fa
19 9
Ġbe auft
ĠBewertungen Nr
ĠOut let
Ġhinter her
ĠA z
ĠTe ufel
L IN
ĠWahr nehmung
tel ier
kat ho
A ss
Ġs ites
tz liches
Ġmonat lich
rt lichen
ĠGe webe
. âĢĿ<
Ġt her
ĠB GH
utor ial
ĠMu seen
ĠReihen folge
Ġw ollt
â Ĩ
Da zu
Ġga ben
Ġex c
ĠDe ad
Ġv alue
EC T
istr ation
mo bile
og o
ck gabe
E nglisch
ĠYo ung
ĠAus sen
ĠKath arina
und ation
ive s
ĠL ig
12 7
ĠL id
ĠH ahn
Ġoptim ieren
ĠDu o
Ġre zepte
ĠDeb atte
halte ne
ĠN ei
we red
Ġengli sche
Beson ders
C A
P lattform
Ġunter halten
ĠProfess ional
i ren
Ein fach
ĠPro motion
-- -
ĠKla pp
Ġwa schen
ĠW itt
ĠHy brid
ĠM ath
Er satz
ju gend
rdin and
L au
fig uren
ra chte
ĠA ktions
Ġ19 47
Ġ01 7
ĠE hr
ĠNeben wirkungen
00 2
ĠDreh buch
ĠR olf
Ġre la
ĠSie gen
Ġk ommer
ĠCom ic
Ġkombin ieren
rich e
ĠRo te
We tt
ol as
Ġent schied
â ĺħ
Ġeigent liche
ĠAltern ativ
Auf grund
haupt stadt
Ġ6 50
ĠRub rik
ari at
St unden
R ie
ĠM ike
Ġru ft
Ġaner kannt
p os
00 4
ĠDienst leister
Ġpe ople
Ġmo ney
mal bilder
ĠVolks wagen
ĠSor ten
Ġmark iert
ĠN ad
ĠAus zu
zus p
Ġm achst
Ġmit zu
ĠAnt rieb
ĠNach weis
ĠKunden service
ĠAb fall
Ġzuge lassen
ĠSa arbru
ĠW iki
ĠBe satz
Rei sen
ur io
ĠVerfahren s
ĠEnt decke
ĠSchlei f
ĠNe g
l la
Ġhei ra
V arian
":" ","
16 8
Ġgegebenen falls
ĠRec ords
ĠBe zahlung
ilo ten
ĠKau fent
Ġ19 51
Ġge langt
om on
Ġk al
Ġausge pra
ĠGra fiken
ĠVer mittlung
ko rea
Ġin ne
ĠPe ru
13 6
ĠAth le
ro ler
Ġwie s
Ġerleich tert
Ġgeht s
ĠD io
s ort
d reh
kom petenz
da ktion
ve ro
ym na
ci ation
ĠO VP
ali d
gr unde
F an
ca re
F lo
ĠArt s
li ance
ber fu
Schwei z
gr ill
E nde
Ġs ommer
C han
a ir
ita te
g ger
ĠAn regungen
rz ung
m w
ĠLe verkusen
w ikipedia
dem ie
ĠAuf kleber
j ourn
S O
Ġbedeuten d
k assen
Ġs mart
ĠTo de
Ġ3 65
ĠPh otos
nlich keiten
ck blick
ĠBon ita
bo w
str ation
Ġin teg
ĠVer fassung
ar isch
ssel n
ĠErmitt lungen
k ologie
ĠSko da
ĠKon su
ĠAn ruf
ĠAn bietern
de fin
sei tigen
A merika
rei st
ST EN
C R
ziel len
Ġkomp atibel
ĠAn ku
fi les
Ġsch reibe
ĠSch olar
ĠEr ster
Veran stalt
in ken
Ġaufge lo
ĠK amp
z onen
T ier
A didas
ĠD L
ĠL ag
nn i
pa cken
z uma
ĠT auch
ĠT r
ĠLu kas
Ġsch eiter
Ġp reise
ĠT rauer
ein heiten
ler anz
ĠGitar re
Ġopti malen
sam ml
Ġaufge fallen
ĠHy giene
Ġaus lo
ĠSen at
âĢĿ .
ĠPfar r
ator s
ĠG allen
ĠTa lent
schlie ÃŁ
as p
.... ..
bo dy
Ġh omo
ĠSa men
ĠTechn iken
L andes
Ġsymp ath
Ġbewer ben
H ans
Ġis lam
Ġschw anger
14 5
P H
ST R
ĠMale rei
ĠVer mut
ĠAc ryl
Ġwar men
Ġ19 18
techn ologie
z ahn
A bs
ĠEt was
k eine
s ungs
ĠFranc isco
ĠK alt
ĠFa ktor
Ġhol t
ĠTa fel
B aum
ĠIntelligen z
Ġum setzen
zei tigen
Ġdunk le
ĠVene dig
ĠBeweg ungen
ĠL um
Ġk omm
ĠSe mester
a ks
IL D
ĠP lo
Ġ19 14
ĠZenti meter
o und
d tischen
Gew icht
Vor pommern
ĠSex y
ĠInten siv
Ġt reiben
ĠF ly
sp ie
Ġf ung
Ġbeg renz
An bieter
gen omme
steiger ung
ĠL otto
Ġru hige
ĠSe c
Ġfu ll
kir ch
Ġumfang reichen
sk raft
m ory
2 10
Will kommen
ĠAben ds
ĠBur gen
Ġe nge
Ġ ue
ĠModel len
Ġma in
ĠPoten zial
ĠFel gen
K opf
ĠRo bin
ĠH A
ĠSch los
ĠBe fu
ĠMit teilung
Ġn ational
ĠC os
rk ischen
ĠKon ditionen
stie gen
ĠSch lauch
th ik
ma d
li tter
ĠWei ÃŁen
c ch
ĠP alette
Ġ ach
ĠMor itz
ĠVer gnu
ĠR inge
ĠIn stall
ium s
teil nehmer
U hr
ĠTur bo
ĠB attle
ĠBor ussia
ien na
ĠZo om
Ġ01 6
wer bs
C ity
ĠCent ral
ĠTrink wasser
Pf lege
22 8
Ġl ong
sch n
ĠC ry
Ġge la
ĠT otal
ĠSow ohl
ĠE cken
ĠVer dacht
op tionen
nach la
P arty
Vol ks
ĠRa de
C ommerce
ĠK ard
ĠHar z
ĠGut achten
Ste in
ingen ieur
+ <
unter lagen
Ġbehaup tet
ndig ungs
ĠAr mut
s bach
ĠSpiel hallen
Su chen
b ah
as ien
12 6
ĠProdu zenten
ĠP assen
Ġdi ffe
Ġse ns
ĠN okia
hyth mus
Ġe Book
r be
Ï ģ
a ktuel
ĠOffiz ielle
h ielt
ĠEhe frau
ĠC ot
ĠBlut druck
ĠAn ten
Ġgesch lagen
E ben
P T
f ranken
ĠSoc iety
duz ierte
gent uren
Ġinter pret
ĠBook s
nach richten
Ġkla ren
Ġneue ste
Ġ12 9
re cke
11 3
ĠSe at
unde t
Ġma le
), <
wirtschaft s
Ġan stren
fe e
ĠF alten
y outube
ta ler
cor der
Ġbe zahl
ĠCo uch
n ch
Ġriesi gen
ĠBa kterien
ĠAbgeord neten
re lev
te lefon
kon struktion
sh ot
am as
ĠKrist all
voll sta
ĠCon troller
Ġs how
ĠF ahren
sch lauch
ah ler
Ġnotwend ige
re gung
F irmen
ĠNieder o
ĠWeiter hin
Ã ¦
ĠB ald
ĠC opyright
ro y
Ġ arm
li teratur
ĠRe ne
F ragen
ol did
ge schenke
ĠP atent
ĠKlima schutz
N ET
ĠHon or
ĠWett kampf
de res
alist isch
ist rator
ĠD AS
ĠSy nthe
ĠJ ury
am ine
Ġ19 34
onn ieren
ãĤ Ļ
ĠA ff
ĠRo om
St r
S il
áĦĤ áħ®áĨ
Ġbe eintra
ĠKo blenz
AR E
peri ode
v re
F K
sie g
ĠAd ler
mo d
ĠCamp us
Be rat
wei len
ĠRa cing
Ġdem on
ĠIn dia
ĠLi festyle
ĠSchie ds
ĠWur zeln
ĠPort folio
13 14
kosten frei
ant rieb
ĠPo ke
ĠChic ago
ĠBewerb ungs
Ġmo bil
bau ung
Ġz win
Stu dien
ĠWohn raum
ĠLebens lauf
ĠP ast
Ġbet reibt
ĠB len
E ng
Fe uer
mp ro
Ġ19 37
qu art
m ien
ĠSp an
Ġau stra
ĠSpa ren
c ter
Unter stu
ite m
Ġein ander
Ġent nehmen
ĠTe ch
ĠDon ald
ĠKon rad
M ini
v s
ĠWart ung
ĠSen ior
ĠE benen
ĠSemin are
un sten
p hen
ĠKontra st
ĠI ron
Ġgleich ma
pro bleme
Me t
ĠRe sult
s la
ĠM otoren
ko se
te e
ĠSu pp
K ra
ĠPi raten
rie t
v ari
as k
ĠZ wer
teil ungs
ĠMag ne
ĠW at
j ahren
under te
tro llen
Ġ; )
Ġent stande
in c
ĠDI Y
ĠN S
Ġdunk len
ĠTra il
mp o
Ġeigene m
ĠEs stisch
ĠR TL
por ter
ĠPla net
spa ce
3 15
Ġabge stimmt
wach s
ĠL CD
Ġst y
ĠCha os
ĠIn fe
ĠHand werks
ĠArch a
Ġgepf legt
ut zes
D ort
Ġgebe ten
Ġd ia
Ġunter liegen
Aus bildung
ĠSto ÃŁ
Ġi d
Ġs yn
lau fe
F I
ĠI den
v io
ĠBundes ver
ĠRo b
deck el
ge webe
ko st
Ġâľ Ķ
19 97
ĠWerk tage
h lige
Ġcomp uter
Re d
iss ance
Ġg latt
An schluss
ĠUp dates
ĠG host
ĠMensch heit
ĠSp anisch
ĠKonseque nzen
leben s
Ġrecht lichen
ĠAd olf
Aug ust
AN K
Ġver leihen
Ġbe legen
Ġfa ir
ĠNe xt
ĠSchau spiel
Ġbe weisen
Ġstehen den
ĠTe sta
ĠAn passung
ĠZei len
Ġa vailable
oh ren
Ġentscheiden de
ĠAktualis ierung
eim ar
Ġsch wach
omm y
Ġi l
n ick
Ma c
Ġv one
ĠKauf mann
rk is
cke s
og ar
B lo
r ationen
Ġe ndete
mitt ler
Ġ lass
ĠHan se
20 5
leuch tet
ĠAut omatik
ĠAr me
ĠMo dus
ĠS GB
Ġexter nen
ĠEin haltung
Ġge rman
66 7
V W
sch inen
ĠSE O
Ġer na
c omm
Ġgelten d
Ġmerk ur
AN N
Ġm icro
Kon to
ĠG or
ip per
ĠIn halten
ĠNa vy
Ġgegen seitig
99 9
G las
A vailability
ĠFrieden s
Ġ om
schrei ber
rd lichen
Po wer
ĠAl p
ĠRe nte
Ġr is
7 50
15 16
Ġange wiesen
Ġum st
Mail s
ĠBe fehl
Ġbas teln
OL L
Ġje mals
Ġde luxe
ĠNational park
CH T
ĠRo boter
h ip
Ġar ab
ĠBe ha
he rer
ren nung
ER T
ĠS auber
Ġent fern
ĠE volution
alle t
12 1
k au
Ġbe lo
rag ten
ĠH us
Ġland wirtschaft
ut ure
lker ungs
ĠJahr gang
ĠGe duld
Ġgesetz lich
so ur
Ġt ur
ĠBen utzung
ĠWei le
Ġan legen
ĠCharakte re
ĠBaum woll
ĠAus wertung
Ġis ol
schus ses
b undes
el low
G utschein
rei nen
Er weiter
ĠPartner n
mel der
handel s
un ta
nd iges
ĠHa ppy
Rest zeit
ĠB j
W id
ĠHD MI
da fone
Ġwir ft
p ing
! âĢľ<
Ġitalien ische
u cher
ĠMitt lerweile
ĠArbeits zeit
19 96
Ġbe legte
ĠA US
Ðµ ÑĢ
Ġabge lehnt
Ġgloba len
ĠMik row
Ġfor um
ĠE G
ĠF ass
ĠDe t
ber flu
c ra
ĠKon zepte
ĠFach kra
ĠY u
n liches
ige m
Ġthe m
ĠKaiser s
stron g
ĠZeit schriften
re chnungen
ĠVf L
be rer
Ġregion ale
is ka
kti sch
Ġa fter
Ġver halten
Ġrabatt code
ĠSt ationen
ĠFra ktion
Ġ12 7
ĠAuf l
nder s
sat zes
Ġdeine s
ĠVerteid igung
me ta
ann i
g ler
ĠSo cken
ĠW eine
Ġ19 35
ĠVers orgungs
D W
Ġzu grunde
Ġpreis vergleich
ĠTa y
V ID
re k
Ġu ser
ĠKon stru
Ġc olor
Ŀ ¤
Ġgen ial
ĠAcadem y
Ġvone inander
jo y
Ġe w
ĠHar ald
Ġ19 19
ĠMach ine
Ġbilli ger
pro bieren
uge ot
o ft
ĠChrist ine
Ġcle an
Ġges orgt
ĠLog in
reiche s
ter ra
ĠE v
ĠKomp lex
Ġmensch liche
Ġk B
ĠB U
bo xen
lin s
15 9
m asse
ĠNeu se
be cher
ĠPrin zessin
rech ter
G leich
Ġne ed
dig ungen
re spon
Z Z
Ġm il
ĠSol che
rie bene
ĠN ass
ĠPo int
rit ter
ĠUn ge
vol ta
Ġstra hlen
ĠF lip
ĠGew issen
Ġbean tragen
Ġspiel ten
Ġge lei
ĠB ischo
denk mal
rypto wa
E le
Fa cebook
M M
ĠAn sa
ĠVor lagen
ĠS izzling
Mob ile
F ranzo
ĠB ina
ĠLie gen
Bo den
lich ter
/ ?
j unkt
lee ce
Ġt rennen
brun nen
bu st
ĠPri ma
ĠD in
ĠZiel gruppe
r chten
Ġverlei ht
spro che
ste st
ĠBu da
Ġka bel
ĠSpe ktrum
Ġex plo
m ter
ĠG od
gt h
Ġru higen
App le
ĠRea ktionen
Ġneg ativen
Ġmittel alter
ĠSp ringer
Ġindi re
l ten
amp le
ĠKal orien
Ġkn ow
ĠW oll
ĠG on
âĢ² âĢ²
ĠI hn
k um
bereit schaft
T able
Ġ !!!
ĠEin steiger
Ġ2 28
fot ografie
schla gs
ch stens
Ġne ug
ĠAn n
ON E
Ġs and
ein g
Ġsch ra
Ġver setzt
ĠL isa
ĠLuxe mburg
Ġme dia
s wu
ĠR in
n c
nd ischer
ĠMilli meter
Ñ ĸ
ist in
ĠWasch becken
mo tiv
Ġtra fen
W W
gel b
ĠK ita
ĠHo sp
ĠC row
Ġbekannte sten
ĠAn stieg
ĠSchwei ne
A Y
Ġste tig
Ġange ho
Ġst unden
Ġkehr te
Ġauf tau
ĠKonzent ration
W ahl
ti a
ĠC lient
ĠAr gentin
ren den
ĠRom a
ĠFA Q
ver kauft
ffentlich ten
13 8
ss ler
verle tzung
m mel
ĠMulti funktion
p op
pen s
Ġver glichen
ĠÐ º
bas ierte
n licher
ĠEin mal
Ġm illi
Ġkosten gu
le hnung
Ġge samt
?? ?<
ĠN AT
ben den
ĠPil ot
in chen
Spe zi
sto mer
ĠFe e
r bar
que st
Ġn omin
Ġw omit
vor sorge
ĠNutz ungs
ĠE ric
g ard
ht m
Ġverlie bt
ant on
ĠM C
bro chen
ĠGusta v
ĠQu ick
Ġkm Hotels
v c
fe tt
rich tete
ĠH amm
Ġr utsch
Ġf lei
verb indungen
ĠAuff assung
ĠAro ma
Ti ckets
ĠK FZ
Ġteil t
ok ie
Ġverk nu
ĠVi ren
T om
ĠS SD
20 4
Ġw itz
Ġbrei tes
ĠKap it
ĠHistor y
ministerium s
Ġge messen
ats App
le hr
Ġverei nt
ĠCo ol
Ġsp rich
ĠFili ale
win ger
Me di
An lage
ĠB atterien
ĠLu zern
z zo
ĠD U
19 0
ĠWissen schaften
y on
Ġvo rerst
Ġ15 5
ĠPoten z
c ap
ungsver ha
ĠMail and
ĠF arm
Ġher stellen
Ġlei se
Ġgeeig neten
13 4
ve y
k lag
Mana ger
r tigen
T W
Ġges unden
fer nen
ĠZit ronen
ĠG S
Ġverur sachen
Ġausge sch
rf nis
Ġgele gentlich
ĠSp o
Ġein zig
h d
ĠGe lenk
âĢĶ âĢĶ
ich tigen
sch un
Ġun u
b lin
ĠTun nel
Ġkrit isch
ĠWel ten
K V
di mension
Ġs ymbo
C ard
strich e
Daten schutz
lik ation
ĠNor m
Ġklei der
ĠU E
R el
Ġdurch zufu
Re staurant
Ġnation ale
K ir
ĠNor bert
ĠE conom
in haber
ĠAbreise datum
Ġzweie r
ĠAn der
Ġle der
ĠZy linder
ĠBeklag ten
Ind ustrie
); <
ĠVe get
ĠNotwendig keit
L ux
do sen
Ġ14 5
da illen
Ġstaat lichen
ĠW olle
Tu nes
splan ung
Ġma schine
Ġkan ad
Ġkonzent riert
ĠWord Press
Ph ili
su b
Ġgele gene
hen den
ĠIn gol
ĠGe da
ĠA h
Ġli t
Ġange wendet
setz bar
Ġwohn ung
part y
Ġu nent
san ierung
Ġer baut
Ġopti onen
Ġd an
ge ru
ĠW elle
othe ker
br ary
b isch
ĠEin flu
Ġtyp ische
Ġsch arf
13 1
C ol
ss ische
ĠVersicher ungen
Ġwirk sam
for scher
Ġwir kte
hren der
Ġf l
Ġtrain ieren
ĠT ragen
ĠLei pziger
ĠGi ft
e ffizienz
Ġsingle bo
ĠDienst leistung
Ob wohl
Ġsie hst
Ġabge legt
ĠG am
dig te
pla ner
ĠSch nit
Ġangebote nen
n ommen
O lymp
Ġan wesen
rdig keit
Ġbe dingt
men sch
ren de
ĠSport ler
ĠBis her
lo c
ĠHersteller s
Z oll
n atur
hau be
ĠP lu
ĠC ree
ĠL ord
w ol
li ca
Ġro ulette
ati c
ĠReser ve
uf igen
ĠHand ys
ĠG ren
hen de
ĠDamen schuhe
ĠP VC
ĠVor sicht
Ġberei tet
ĠAB S
hand lers
ĠGeb ir
All gemeine
T U
ges undheit
Ġ( -
Ġder selben
ĠGebie te
ĠKe n
Ġme ss
ĠKali for
mo dule
schu b
ĠVerpflicht ung
ĠD ick
ger ie
os hi
Ġwie so
V ideos
ĠW alt
Ġgew inn
Ġp ark
Ġbas ierend
Ġte am
r digen
E ndet
Ġver passt
ĠAd ressen
ge schu
Hoch zeit
ĠKom petenzen
ber legt
amerikan ischen
Ġla gen
osk op
6 50
c il
ĠIn neren
Ġmo di
Ġg rat
Ġvert rau
ĠP for
19 95
áĦ ĭáħ
date ien
ĠM oto
Ġauf t
ĠOx ford
ĠSchul z
Ġe ven
le a
Ġpro ble
ĠF aust
Ġein be
ĠDa neben
St G
Ġj unger
m eine
ĠA ku
ĠG il
Ġf lach
ĠArbeits markt
st urz
14 4
un ts
Ġse xy
ĠEintra cht
ĠTro pfen
ĠâĤ¬ /
ĠSt at
fest ival
table tten
Ġs il
Ġengag iert
ko ho
Ġfu ÃŁ
ĠMit tagessen
ĠCent re
Ġtran sparent
Ġa cc
17 5
ĠLau ne
Ġgen ossen
Ġkeines wegs
le se
sch me
ĠD y
Ġs ale
Ġaus gerichtet
ĠEffe kte
ĠWelt meister
ĠNa vig
ĠToile tte
ĠC SU
ver teilung
ĠGewinn chancen
ĠGe ben
ĠAd d
u ses
Ġdem na
Ġwa y
ĠMuskel n
Ġbemer kt
ĠFer tigung
ĠZahn arzt
ĠPul ver
fin gen
ĠFahr zeugen
ĠFern bedienung
ĠAusgang spunkt
de cker
Techn ische
Î ·
ĠS B
und s
ĠBehinder ung
ĠZu verla
13 9
ĠV iet
hr ig
Ġer li
Ġge laufen
M G
igare tten
ĠZ R
ĠK um
Er stellt
ĠLand rat
ĠBle ch
Frank furt
ĠMig ration
Ġauspro biert
ĠP okal
Ġ9 25
ĠK lam
Bu chen
berg angs
14 8
ĠCon ference
i vi
Ġsen ken
ĠSha re
Zu dem
ĠSch ritten
Ġprofessione ll
ĠD un
ch tigt
Ġan scheinend
Me ta
ĠBegeister ung
Ġganze s
Ġver raten
fre quenz
Ste uer
Ġta ge
ĠMitglie ds
ĠWander ung
ĠOpp osition
Gesch rieben
Ġwoh in
fe ll
w under
ĠSchme tter
amp oo
sp art
20 21
Ġâ ĺ
e ng
ĠPro tein
ĠHa ck
Ġlu ft
krie gs
ĠN ICHT
ti fic
ĠDru cken
op her
13 3
Ġvie ws
Ġda neben
Ġausge legt
Ġâ Ļ¥
ago ge
ig ten
ĠFuÃŁ ga
Ġzwin gend
ĠHeraus geber
ĠH ip
ĠG U
Ġbe denken
po ten
ĠAns ichten
stu die
rin a
Ġh ie
b rech
ĠPro tag
f lich
u lieren
ĠFo otball
Ġbei der
rz ustellen
ĠVer zeichnis
sser n
ĠErd geschoss
Ġversch winden
R C
ĠO T
15 8
Ter min
ĠCre dit
fer tigen
Ġverz wei
t it
ta fel
Le der
sel bst
ter a
ĠL uther
] ,"
ĠStre am
Ġac cess
ĠTi p
m ing
Ġnach tra
ĠT ype
IT A
inter home
BO OK
Ġge listet
ĠPa ypal
j k
Ver b
alo ge
rise ur
Ġnun mehr
ĠVol ker
bal ler
ĠAus stellungs
ĠWesent lichen
Ġstation a
Ġzwei tes
Ġso oo
Ġgest iegen
kra in
Ġein drucks
o gen
Ġ5 50
15 5
dit h
ĠA stron
> \
al on
ĠBau jahr
and t
Ġbun ten
ber schreiten
22 1
ĠR ande
ĠSa les
16 5
sp ring
ĠBe que
go ogle
ĠAnt riebs
ĠAlli anz
D el
Ġ4 000
ĠBon i
I nde
ĠSt ol
Ġbrau ch
Ġflex ib
ĠSch ott
ĠDich ter
be la
ĠVer suche
ĠT iefen
las ten
ĠHoff mann
rper liche
Ġzu stande
misch ung
ĠBe tre
wak ei
Ġvorhan dene
Schn itt
ĠVor her
ĠCom fort
ĠIn dik
o ire
20 8
besch ichtung
Ġy outube
ber setzer
Muse um
Ġange ben
ab o
wei tere
ĠSatelli ten
ĠPer fe
ĠHau stu
z ing
zel le
z io
Ġt ausend
Te ch
Ġliegen den
Ġ19 29
ir it
ci fic
s d
Ġback ground
f liesen
Reg istr
nn chen
Ġattra ktiv
20 9
i w
ĠW appen
uÃŁe rt
ĠKap elle
sert ation
fas ste
K la
Ġso viel
Le sen
Ġsch lag
ĠAn at
ĠCorpor ation
ĠBen jamin
Ġrelev anten
Ġge rechnet
19 19
ĠDra ma
ĠL ittle
Ġkontinuier lich
Ġge sta
ĠBe nachrich
ne x
setz ungs
hel ms
ĠPier re
athle tik
ĠVor bereit
Ġunver zu
Ge ographie
25 2
ĠSe kunde
Ġge zwungen
ĠFor ce
ĠZe hn
re rn
R icht
unter gang
ĠA grar
res den
Ġsto ck
man dem
16 9
Ġgele genen
ĠAb schied
Ġbei des
ĠP aten
ĠAb o
D iskussion
Ġver laufen
comp uter
ĠBelie bt
E lement
ĠEntschei dungs
cto ber
an ders
ĠTri ck
me dium
Ġla chen
x l
n uss
AL E
ĠGebie ten
ĠL oh
komm ission
hn achten
ĠPala ce
ĠCo upe
Ð½ Ð¸
ĠHaust iere
in itiative
j ust
B W
Ġan nehmen
g bare
ĠA cker
v ard
ĠBu sch
ĠSch ad
Ġkontroll ieren
Ġblaue n
st ars
it ing
Ġge holt
' )
ĠAut hen
lauf zeit
. (
sk op
ĠFort setzung
sti ftung
Ġe last
Kom mentare
Ġme r
ul se
Ġerle digen
ĠSil vester
att r
ĠR ank
Ġver sion
Ġbilli ge
ĠEl f
dig ten
stand ort
Ġwh ite
ris ur
be scha
g ur
Ġvor gesch
si gen
len te
25 5
ĠMar i
Ġzum eist
ĠRo y
plan t
ber lassen
P RO
rik as
ĠPort o
Ġw ahl
ĠS na
ĠRecht sprechung
ne cht
t urm
li us
ter mine
Q uer
ĠFe rdinand
stra hlen
ĠHin dern
rn ten
lan ke
Ġt iefen
ĠN ieren
ĠTex as
st ationen
ĠG O
ĠGra fen
He y
ĠRe mo
US B
ampag nen
Ġul tim
Ġge rufen
ĠSchal ke
Ġfor derte
ĠVerband s
aus weis
ĠSe arch
Ġsp ar
gemein den
D ank
ver mietung
x te
ĠNetz werke
ĠB ER
arbeite ten
ĠGre at
spe ktive
Ġe mail
ĠAn tik
ĠRei chen
ckt ritt
12 2
ĠFi at
ĠW itten
ĠGab riel
ĠEr nte
id as
Ġ19 28
In fos
ck liche
ste iner
ĠB ren
ĠQuadrat meter
hr det
Ġnachfolgen den
ĠAb bildung
ĠWachst ums
Ġvor nehmen
Ġverb undenen
W ol
Ġsa hen
D eine
Ġin dustr
Ġgleicher maÃŁen
b ia
ĠG eister
zus te
Ġkon serv
Ġinter nen
kennt nis
ĠTrek king
ĠDe ss
** *
ST E
S ollte
ĠW is
Ġwesent liche
ĠT A
bs eite
ĠGar dinen
d ynam
Ġautomati sche
ĠZer tifikat
Ex perten
ĠBack ofen
ĠSing ap
Ġre alisiert
ĠMan nes
K amera
28 0
Ġye ars
nie der
ran nt
Zus a
ĠHa st
ĠAufbewahr ung
ĠSo lidar
Me nu
ĠR h
ĠG rei
G alaxy
Be trieb
mat ch
Ġerhe bliche
ĠAqu a
01 6
ĠP utz
ĠNe ug
Ġru higer
Ġkatho lischen
Fil ter
ou verne
f indung
fa ktoren
ĠHor ror
ĠM eist
Ġe wig
Ġlu st
gut haben
ĠS mo
ĠS zen
t hen
andina v
ble ch
Ġkommen de
Ġvor la
Sch lu
ĠParla ments
Ne xt
Ġbeur teilen
Ġge teilt
ok uss
Ġli mit
Ba yern
13 7
Ġbevorzu gt
st ick
ĠEx periment
I ES
ĠI ce
s v
al bum
ĠMe hl
ĠKa i
or chester
ĠAb ma
ĠEr lo
ĠAb gabe
Ġbeein drucken
ĠS IE
ĠRei z
D O
ĠBe urteilung
ĠD icht
K ol
ĠRein hard
ĠZu lassung
ĠTre ppe
Ġmit nehmen
ĠWer ken
Ġstar ker
Ġk alten
ĠKanz lei
A ktivita
ĠNachbar schaft
psy ch
ĠAnkunfts datum
ĠF rom
ĠKleider schrank
Ġd isk
Ġelekt ro
ĠEmo tionen
Ġzeit geno
Ġkosten loses
ĠL O
Ġku lin
ĠWilli ams
Ġr un
spro jekt
rape uten
con fig
Ġkonkre t
ĠP lattformen
Ġgew is
p ler
ĠMin de
ĠFre quenz
Netz werk
f d
dre hen
ĠSchwar zen
ĠKult uren
g le
Po int
ĠLebens dauer
kon zern
finanz ierung
ress o
I KE
ĠHy dro
ĠGebraucht wagen
sp arte
produ kten
be triebe
Ferien wohnung
ĠSpazier gang
Ġein laden
ange ho
ĠAt ta
ut a
ĠS ummer
Al ter
C OM
ĠEind ru
Ġes s
Z eitung
" ><
il lo
ĠIn do
ĠInstitut s
vorsitzen der
ĠSe le
Ġbevor zug
Ġw uchs
K rit
board s
Ġkomment iert
as a
ĠTei ch
Ġunter sch
die se
ster reicher
B rand
Ein satz
K olle
ye s
ĠLex ikon
ĠVerein igung
Ġmittle re
nd chen
ĠVer tre
ĠEing angs
ĠDi fferenz
Ġun gew
ĠP ho
ĠBam berg
F ort
ĠGesch ichts
c cess
ĠMat ratze
W issen
ĠBrun o
ber to
Ġfreund liche
**** ****
ĠBa st
ĠAuto fahrer
ste inen
Ġu sed
ĠBy tes
h inter
c ci
gebrau cht
Ġflex ible
ĠEr langen
frei es
Ġberu fen
ĠGir ls
Ġsp ra
ĠMar ina
01 8
Ġgere gelt
ĠMeld ungen
di kt
ĠMar ga
ku gel
ti st
C ent
am aha
ĠSw itch
B U
Ġsp anischen
Ġs ha
f lor
ĠE tagen
Ġent f
No te
ba rem
ĠEch tzeit
kti sche
Ġfe tt
P aul
ĠTh ro
ĠAn kauf
19 94
Ġinteg rieren
ĠBu che
ĠSchm utz
W G
ĠTa xi
log o
ĠB H
Ġst reng
pen hagen
Ġunter st
W ald
ĠMES Z
m ahn
ĠMein ungs
Ġas i
Ġange nehme
Ġbe autiful
Ġentwickel ten
fel den
Ù Ĭ
ĠSti rn
Ġle gal
Ġgekla ppt
ĠI G
Ġschen ken
Ġ12 4
unter nehmer
ĠL or
ĠAme rica
Ġ: -
gra f
sche e
ĠA fter
rikan ischen
ĠSon stiges
ĠBro ther
ĠS urf
M il
ĠNeu igkeiten
R S
Ġbe gan
Ġser viert
ĠMaÃŁ nahme
ĠCh rome
Ent fernung
ĠVi sta
in as
ar di
ĠVer n
ĠArtikel n
ĠTi mes
20 2
ĠApart ments
ungsan leitung
nkt lich
ĠKa der
si ge
ĠEin richten
Be arbeiten
Frank reich
Ġbundes weit
ĠSc ien
vance d
ĠFle cken
ĠAb hol
pf alz
00 8
ĠDe als
T ran
Ġstatt findet
Ġre turn
ĠStud ierende
ymna stik
ĠVer ba
Ġfreie r
o uml
ram t
ĠBlu se
Ġbed anken
Ġsch lug
ĠVictor ia
hl y
ĠKrie ges
ĠGatt ung
ĠSk ulpt
ĠHaupt bahnhof
ĠKalifor nien
Ġerst klassi
Ġgo ogle
sp o
an aly
ĠWe ste
ĠPap a
K B
ĠKre u
ĠG Hz
ĠBlue s
P P
News letter
Ġeinge gangen
Ġre cher
kon takte
bo ur
ET A
Ġs ingen
Ġunter suchen
ĠKnob lauch
b ing
ĠEine s
Ġ12 2
pp i
Ġjapan ischen
men schen
j ung
ĠCock tail
ard in
Ġpa ypal
ĠS lee
Ġinter ne
ĠDa von
Ġbe ta
ĠWest falen
fel de
la h
ĠSt op
v iele
ĠM arburg
Ġstaat liche
B it
ĠBo xen
F M
Ġbegeg nen
Ġv iew
ĠBul gar
ĠÐ ´
a v
Ġentscheiden den
d dy
R oman
Y S
ĠMar x
E A
Ġh arte
ĠC and
ing ang
ĠSchie be
ĠEin zug
19 5
raue rei
Ġhol te
T rans
Ġg mbh
Ġbeteilig ten
Ġwei chen
utt gar
Ġgen auen
rei fe
ĠPraktik um
ĠHoll and
ĠSe hen
so urce
schie ÃŁen
ĠUhr zeit
ĠH im
ĠNik olaus
ĠT C
hei ght
p artement
E K
r ierte
Ġan th
S itz
H au
Ġdown loaden
ĠD rive
Ġ2 80
ĠO cean
Ġunter gebracht
ĠPha sen
Sp ra
dti rol
uti que
ĠSch auen
ri ffen
Ġge folgt
ĠX X
ĠGemeinder at
ĠPa per
d ingen
Ġan sa
ĠMittel meer
Ġ$ (
D D
ren te
ĠKontakt daten
ĠB reiten
Ġder art
Ġkre ativ
Ġm uch
Ġbe fo
Ġum sonst
ĠAb ku
ĠP hone
Ġchine sische
ant o
Ġtrau rig
j agd
ĠHand werker
ĠLei nen
ĠNe ut
ĠZ ier
w ords
ĠAr gu
J ahres
Ġverw andel
me ga
Ġbun te
ĠNet work
Ġmas sive
ĠAf ghan
ac tive
ĠK nei
zen te
ĠSon st
ĠZ U
ĠSchm id
ĠHe ktar
is men
ĠAir lines
lo cation
Ġver g
f ters
Ġtran sparen
ĠHoch schulen
rei hen
Ġte ppich
ĠDre am
kap azita
wahr scheinlich
Ġwei bliche
Ġa rea
ne inander
to uren
bie s
ĠGed anke
Wor ld
ĠO tt
tinen tal
Ġdeut liche
ĠF ile
stor benen
Ent wicklung
ĠIn nere
Ġn am
Wor ks
ĠK rau
stra hlt
Ġ--- -
Ġd ruck
ĠPla ce
ĠAus stellungen
ĠH TC
ĠAmts gericht
ĠK lagen
or ry
Ġ raum
ĠInteressen ten
zin s
Log o
> :
Ï ĥ
ator in
ĠSte reo
ĠTest berichte
ĠA sp
Ġan onym
iss ar
be ton
ĠPri orita
ĠL ite
S eine
ĠE po
tel la
zu setzen
ĠThe ologie
ro und
tra ck
ren ds
ĠUnterricht s
z da
schie det
ali sche
Ð¾ ÑĢ
lig isten
P i
Ġschon mal
b leiben
ĠNach teil
Ġv ierte
Ġa ggress
O f
Ġin folge
Ġbus iness
Ġeint ragen
schun gel
Ġerst reckt
ĠSee len
Ġsu pport
ĠNeuse eland
ĠB aus
m ission
St yle
ĠAp o
Komm ission
ĠAe ro
Ġver wir
ĠSchei be
ĠNa del
dis zip
ĠBereit stellung
ĠK L
ĠZe he
S UNG
lie fe
ĠSauer stoff
h unde
ĠE co
Ġanzu sehen
Ne uer
kon stru
D ach
ĠHu awei
r cher
che rei
ĠPro ject
Be wertet
Ġau gen
ĠIngol stadt
ĠSpiel bank
Ġvers orgen
is m
OS S
Me tho
V iew
hn licher
hab ung
Ġwo chen
hei de
r tige
ĠLim ited
M aster
um lichkeiten
ĠNetz teil
ł Ģâ
unter laden
laue r
ĠAus richtung
ĠSpiel automat
ĠVerb rechen
14 6
ĠEx trem
do cument
Ġwie viel
sprach ige
ĠAuft ra
Ġsch reib
Ġs eite
po stet
vor gang
os serie
ĠRau chen
30 5
Ġfinanz iert
15 6
O O
d iert
ĠLang zeit
ĠToile tten
ĠE hre
Ġvorhe rigen
au schen
ĠAl ben
ĠAb nehmen
ffe kte
po le
f inder
L ok
ĠInnen raum
ĠEx perte
chte te
ĠJu ne
vor schriften
gro up
h old
ĠD G
b om
ant wortet
Ġal tes
ĠP fo
teil ten
ĠDoppel zimmer
Ġausge tragen
ĠH ass
bei spiel
Ġbesse res
Ġn utze
Ġw here
ĠKon s
Ġpo tent
ĠP ir
U ng
wer tig
Ġvirt uellen
Ġfrei willig
nn ing
Ġg riff
R ab
ha ken
Ġf assen
ĠRe vision
ĠRich tige
Ġ19 10
v m
ĠS nap
ltnis sen
utz ten
All gemein
ĠDVD s
ĠPlan ungs
Ġp ie
grund lage
ĠEn semble
ne um
k raut
kon g
Ġv a
Ġzur zeit
15 7
hin weise
Mit te
K rie
ĠBe ster
Ġfamil ien
wick eln
Ġrelev ant
f liegen
C T
freie r
Ġk li
ĠBe scheid
ĠN el
ĠVer teilung
t ri
iss an
schi ffe
Bu y
az ine
p ots
Ġme tal
pert y
ha se
all tag
S ei
ĠFer r
g uss
Ġk ranken
Ù ħ
Ġgriech ischen
ĠFolgen den
ĠEnter prise
volta ik
! "<
Ġmehre rer
Ġ13 9
Fa zit
hinder ten
Ġ19 32
Ġwe stlich
ĠBoden see
ĠDeutsche s
Ġin dust
Ñģ Ðº
Ġheim ischen
un us
ĠL IN
Ein trag
pro ben
di os
ĠVer ne
ĠR iv
Ġref lekt
ĠA Z
w alter
ĠMittel feld
Ġs izzling
ge sehen
ve re
Ġvor bereiten
ĠNeu kunden
rf nissen
Ñ Ĩ
Ġinnov ativen
Ġer teilt
ĠRicht linie
B ir
c lick
Ġm inder
ĠStand orte
spa ÃŁ
Ġlin ke
A ust
Ġt schech
Ġma ter
W i
Ġi Tunes
Ġtyp isch
mas ke
Ġ14 9
I tem
ĠAbma gerung
Ġverste ckt
Hoch schul
ĠAnaly sen
ĠBrit ish
ĠAn ime
T ur
wus ste
ĠGeburtstag s
Ġp ul
Unter kunft
Ġver fasst
M EN
fe der
Ġwe tter
h ir
au chen
Ġmont iert
Ġkonzip iert
ĠBewer ten
ĠKe vin
or gan
Ġberu ht
ĠThe odor
ĠJ ag
ĠAsi cs
Ġedit iert
ul f
bla de
Ġrei bungs
sa le
ck wa
Ġab schlieÃŁen
Ġmoder nes
ĠBe setzung
be ding
ĠAb sicht
ĠL ichten
14 7
Ġn annte
wel ten
r dige
Ġ16 5
ver leih
nnte st
sk ra
Ġha ar
Ġso for
Be nachrich
Ġaufzu nehmen
for table
ĠTe nden
ĠPro tokoll
run ken
sse s
Ġbishe rige
Ġqu ad
Ġ19 25
Ġwe m
Ġwer det
Ma ÃŁe
nd l
vor lage
Ġge handelt
ra dio
Ġja ck
ach se
ĠMus ical
01 9
Mo del
Ġman y
ĠUn fa
S ysteme
dition al
ĠGed ichte
Ġf einen
Ġkulture llen
hr licher
ĠA dobe
ie b
High light
20 6
Dar u
st ich
ali a
ĠTschech ien
ss icherung
Ġversch lu
ĠRis ik
ĠK ei
ĠConsult ing
l tigkeit
Ġsp ontan
ar ly
ĠNa cken
' ;
Ġ10 80
fent halt
our ce
ĠBand s
ak i
lei chen
k och
ĠZ ins
ko cher
Ġumzu setzen
n ant
Ġlo hnen
fess or
a x
e ro
ĠKlima wandel
ber legungen
un genen
llig keit
Ġge dreht
ĠA ur
ĠDig itale
de al
on ial
ĠHalb finale
] :
Mob il
Ġba cken
P art
ĠSpezi alisten
Ġp ink
ĠFamil y
rst in
li um
ĠLa yout
fas ser
Ġverschw unden
n ischer
v illa
Ġver schaffen
wie se
Ġselbst be
Lo ok
uttgar ter
C y
ĠAnaly tics
ĠDar um
Ġver kehr
Ġver ringer
. Â»
Ġgesch nitten
schnit ten
ĠHy pert
Kre dit
. âĢĿ
ĠL at
ĠMitglied schaft
ĠGlauben s
ĠH ugo
Ġm ind
ĠKredit karten
v illon
pe tent
ord nungen
ir urg
Ġheira tete
Ġsch onen
ĠTex ten
Ġje gliche
ĠEngli schen
ĠGottes dienst
Ste fan
R ing
ĠF lei
ĠAus gangs
ĠJ urist
ĠBe denken
Ġve re
tz tes
w ister
gegen sta
Kre uz
Ġbetei ligen
f um
ik ini
ĠRelig ions
Ġunmittel barer
werk zeug
ĠLau ra
ĠWei ch
ĠCorpor ate
Ġunverge ss
Ver fahren
19 8
Ġk opf
an trag
Ġverab schiedet
omo tive
Ġein schla
ĠDe te
Ġwirtschaft lich
ĠSta b
ĠSta tes
ĠUr sprung
Ġ Ø
ber zeug
Ġgelten den
z heim
de ra
Ġan bietet
n ar
ĠNeck ar
ĠDe vi
ÃŁe rn
H ow
ĠA xel
verein igung
Ġunter einander
Ġall ta
ĠMa kler
zy linder
ĠBe stehen
xt rem
ger ichtete
Ġpre uÃŁ
p rin
~ ~
ic on
ĠJahrzehn te
Ġse tzten
ĠSp rech
Ġcon ne
ĠSchw immen
Ġre ally
s l
V is
ĠIn tern
sch li
ĠEnt decken
Ġche ck
z ione
ĠDe leg
ĠObe ro
ĠT S
ĠBo y
Ġgro b
ĠKennen lernen
I t
Ġ} ,
ĠBe sondere
ĠZahl ungen
fer s
ĠGewinn linien
ĠPf ad
ĠNa sen
ĠZ one
ĠW itz
S ilber
hn chen
Ġan dern
Ġstud ieren
Ġc y
ĠLi ving
ĠS IM
ĠSp rit
ĠRo uten
Ġauf geben
Ġre alisieren
osit ionen
Aus stattung
ĠEr hebung
n tel
Ġda ys
Ġein her
fiz ierten
ĠStand orten
ce mber
ĠZeit ungen
ĠTo yota
ĠFI FA
ĠB illi
Ġverein baren
IT Z
Ġ rief
Ġsp art
Ġo wn
ss uche
Be richt
19 45
be st
Ġn at
ng ung
ĠOper n
4 04
bu tion
ĠAb wechslung
Ġattra ktiven
ĠSport wetten
Ð¾Ð ¼
ĠJuli us
ĠG itter
Ġmed ika
Fil me
ch sische
g ue
Ï ħ
Dig ital
be zeichnung
Ġkonseque nt
ĠPlat in
Ġba den
Ġk lingen
ĠMess ing
c ort
mp fang
r bis
ĠGe rechtigkeit
Ġbean tra
Ġun i
20 7
bu sch
25 6
brem se
v ieren
men z
ĠNe tto
zeu ger
Zent rum
ĠFo cus
ĠKle be
ff ner
Be rn
kre u
ĠMo d
ĠG elt
N G
ĠC S
00 6
Ġne xt
ĠSa ck
ĠBe mu
ĠSt am
ĠKant ons
klus iv
ile y
st ing
ĠV amp
alis ierten
Des halb
ĠBe utel
ko ffer
Mar ia
Ġbein halten
ĠBe an
. Â«<
netz ug
te le
ĠPor zellan
16 6
op athie
Ġf A
ĠBo hr
ĠPass form
Ġsti rbt
Ġober halb
ĠI rak
K irche
ĠBar geld
ll ten
f ari
so me
ĠAc tive
Ġschwier igen
ĠPf alz
he ssen
ĠTa i
Ġo st
Ġge r
ĠN ylon
Ġto ur
Ġweiter ge
ĠC lubs
ĠFel sen
val ue
att o
ĠB elle
ĠR aten
Ġ{ "
ĠIn stand
ĠG ree
ĠHu bert
at ra
ĠKar in
ĠSow jet
E rz
Ġber eiten
ĠW ik
Ġ12 6
p rint
ĠHoch glanz
ĠDi mension
sident in
uss ball
Ġexklus iv
; &
Ġange messen
w ing
Frei zeit
ĠDe velopment
ĠBo ck
ĠD rum
alen der
re che
ĠHe a
b n
Ġma c
ĠSchutz hu
ĠIn fektion
Er ste
ĠPreis vorschlag
S uch
Ġvor liegt
ĠKrimin al
D M
sehe nen
Ġth rough
Hal b
ĠTrans formation
OC US
00 9
Ġaufzu bauen
Ġmat hemati
Ġr ight
ĠGesell schafter
ĠB ridge
Per so
A ng
ÃŁ iger
ĠStatt dessen
frei ung
Ġschli mmer
St rom
mo dul
pa per
ĠSied lung
se mester
St ati
Ġverwe ndete
ĠE T
ĠBe stellen
Ġk i
Ġee n
le hne
K och
b ab
Ġun klar
glie dern
ĠI ris
ĠK ick
Na ja
Ġun gar
Ġelekt risch
Ġs un
Ġan na
ĠArn old
Ġlan gem
ĠPat ri
fli x
18 5
ĠMe et
ĠBor de
f uer
ad min
19 90
glie dert
F ahrer
fan den
Ġge son
p rinzip
g anz
nd isch
ance r
ĠWeihn acht
mu tet
g re
hab ilit
ĠAt hen
ĠWohl fu
ĠTo ner
Per sonen
lei te
ĠAus u
Ġlo cation
tel t
ĠAuf fu
Ġim age
F U
Me nschen
ĠJ as
Ġis rae
spar tei
30 4
ia ne
ĠEing riff
Ġgleichnam igen
schul d
ĠSte ffen
Ġsiche rer
Ġweite rent
ĠPre uÃŁen
l ligen
Ġge ta
And reas
ann tes
ver folgung
len sburg
ĠFer ner
l k
vis ions
Ġge schenkt
se ssen
ve t
ver ka
Ġanzu bieten
ĠWur zel
ro k
la v
lasse nen
ut o
ug las
ĠSpezi alita
D U
Ġf eier
ĠT il
G ol
Fernseh serie
je r
Ġdrei mal
Ġmusikali sche
Ġvor wiegend
im i
ĠVor sorge
ĠTra de
ĠS ue
Ġbede ut
rie men
c op
l m
ich tigung
ne burg
Ġfinanz iell
Ġj un
EM A
ĠLei den
ĠPro gnose
Wa ren
ĠHei lung
par tei
ĠInter views
Ġveran staltet
d ring
pul lover
ĠBefest igung
lad ungs
k k
p utz
Ġmit unter
ĠCab rio
on ds
ĠB I
W al
ge tra
Ġlo c
ĠDiam ant
ĠSol utions
ilo meter
Ġberuf liche
sch utzes
ĠRa in
Ġmet all
ĠBur ger
ĠBuda pest
ĠElekt ri
Ġso w
":[ "
tro ffen
wor tete
Ġganz heit
b c
ass istent
Ġhinge wiesen
ĠFo undation
hen ver
zur u
Fried rich
Ġk reie
Recht s
Ġkulture lle
dero be
b sch
ĠMag ie
ĠRo uter
Ġverw alten
ĠT T
mess gera
Ġco o
ograph ische
ĠA zu
verein barung
P sych
ku lture
Ġex perience
k abine
Ð° ÑĤ
ĠWa ffe
ĠZ E
vers uch
Ġ19 27
Mer cedes
ein gang
Ġb r
ad ing
01 4
k ranken
Ġver nachla
acht ungs
ĠMon ika
ĠA ra
ĠA ven
Ġdeaktiv ieren
ĠSach ver
ĠT olle
ĠRef lex
ĠHon da
f is
p fel
Ġhum an
Wei hnachts
ĠPo sten
sp ringen
ĠMar athon
be wohner
ĠmaÃŁ geblich
ĠHe u
Ġfre u
ĠMo dule
rus alem
Ġan kommt
ĠVer zo
kor de
Ġso zusagen
ĠKa meras
Ġumfassen d
Ġfeie rte
Ġschw immen
ĠAk kus
Inter view
Ġbe tragen
B rief
ĠBeklag te
e ben
Ġhochwer tig
ĠJa cken
Ġ `
ĠSchie nen
B or
ĠWire less
K raft
m atten
z ige
S ein
on o
ĠValle y
mo ment
ck ige
ĠPu ppen
Ġgest attet
fiz ierte
Ġfa cebook
Ġneben bei
A uft
ĠC lip
ĠSyn chron
ĠAb wicklung
ĠT B
ĠJohn son
al les
ason ic
ĠVi ktor
ĠSo fern
st inen
Ġmus ter
im s
Ġbereit gestellt
ĠHeil bronn
on na
Wer bung
Ġer for
ute te
tz licher
Ġerg ab
ĠN ano
Ġverb racht
n us
ĠF risuren
fa cebook
t om
spor ter
Ġeffe ktive
rm t
ch sen
Ġli la
ber eite
Ġge schei
ĠWer der
ĠAn alog
pp o
ĠG ieÃŁen
ĠC lan
ĠHand tasche
ĠSand ra
Ġverb aut
Trip Advisor
ĠElekt ron
d ichtung
K rise
ĠEurop ameister
ub iger
ĠVerb und
pf legung
ĠIn zwischen
ĠC lar
Ġw ohnt
ĠP ix
17 6
b org
frist igen
s feld
ĠVer brauch
Ġ19 31
brau cher
han sa
ĠLin ke
Î ¼
Ġko st
Ġsta bile
Ġbe sa
We g
La bels
Ġk reis
17 18
... ]
Ġge fe
Ġson nen
ste cken
one ll
17 9
ĠKno ten
c ip
ĠGitar ren
ĠKilo metern
ĠVan ille
13 2
ber ta
Ġne m
a ktionen
ĠM AN
ĠSingle bo
oh aus
Ġin tern
Kar l
stra hl
; &#
ssel ung
lex ikon
Er folg
ĠMus li
ĠFort schritt
ĠZu friedenheit
k orn
zen s
ĠSc ott
Ġirgend was
Ġfe nster
ĠImmer hin
gehen den
Ġ ).
sel len
nen den
K leine
Ġaus u
Ġge gessen
ĠCe r
ĠBo ss
be teiligung
W issenschaft
ste ten
we hren
zep ten
ĠO scar
Ð½ Ð¾
Ġun vera
ĠSal on
u ble
Ġsp ru
ĠEigen schaft
Ġrad ik
spe zi
Ġstra f
ĠCh arm
ĠGi ro
ĠVe nt
vor stand
Ġ* *
Ġver passen
ĠGro ÃŁer
Ġ= =
va cy
Ġc al
Ġco ole
Ġerfahre nen
ĠDoppel bett
Ġre view
B reite
ĠSt retch
world cat
>â ĸ
ga len
lt st
ĠS yste
ĠMulti media
Le x
fre u
it us
los ung
sied lung
15 4
ĠAuft reten
Ĺ ı
ĠStar ter
kap elle
ĠGe m
ĠOber bu
b ien
Ġauf ho
Ġ19 24
Sp eicher
ĠR ic
Ġ !!
Ġwei che
Ġst reichen
ĠZu letzt
pro blem
Ġp au
ĠEt wa
z ar
ĠGe nu
Wert ungen
Ġgu cken
ĠInternets eiten
ut ing
P rin
Ġvor ange
Ġ- ,
ĠHand habung
mit arbeiter
Ġc omm
ĠTo te
ĠVor gang
Ġdort hin
u ÃŁeren
ĠS ort
ĠWh atsApp
Ġwar nt
lau tern
sen kirchen
ĠKind le
Ġumge kehrt
hr leistung
Ġzug unsten
w k
Ġsin ken
dig keit
Ġle bten
Ġver klei
ĠAsso ciation
ch tigkeit
e vent
Ġsp ringen
Ġange fu
sp lattform
Gro ÃŁe
lt in
ĠSo urce
Ġhei len
For ce
ĠFin de
ĠK anten
ĠKreuz fahrt
wer ter
ĠAngebot s
ĠVor satz
ĠInner halb
O X
stand ards
gesch ra
tz ungs
r buch
Stu die
Ġe nde
ĠV ib
Ġbe la
ĠT L
Ġlei d
Eigen tlich
Ġ reise
ĠGegen u
ÌĪ ,
ĠUm ha
ver tretung
ĠVorsitzen den
ĠDam als
ĠFel s
ĠAnton io
ĠPoten tial
ĠLob by
ad i
let scher
ĠHaup ts
30 6
S ach
be finden
Ġan wenden
ĠValent in
Ġk olle
Ġ14 4
ab is
Ġen gen
Ġge stu
D G
bernach ten
ĠO ma
Ġwind ows
Belie bte
Ġin te
t ungen
14 3
fra struktur
15 2
Ġe urer
ĠVer gabe
Ġpo wer
o ffiz
Ġg eil
Ġent worfen
ĠV alen
Ġ19 5
u alita
stitu tion
wend bar
ĠExplo rer
mer ken
ĠRe lev
Ġs m
ĠLu cky
ĠZ au
ĠA vi
p it
v os
OR E
i fik
onen te
Ġst ress
ĠJack son
Ġkomment ieren
on der
ĠGen ossen
ĠAn lauf
e Bay
ĠPro ben
ĠSte am
ĠFire fox
Fahr zeug
Ġc lub
dy l
Ġlan den
anga be
ĠGei stes
" },"
ĠKon stanz
ri ver
Ġp l
ĠD ut
st ri
stant in
re chnungs
ĠVer dienst
He raus
Ġun gu
fin ger
ĠWel pen
pro ble
he md
ĠPar as
stand ard
Ġgelei stet
ĠGe ht
ĠZw angs
Fe nster
ĠEr be
ĠSh orts
stau schen
Ġp lat
ti se
netzug ang
ĠSpru ch
ĠZu cht
kel ler
G r
Re gel
deck ungen
ĠG irl
Ġwieder holen
ĠP H
Ġ18 00
ĠKomp rom
ĠT asse
ĠP orn
ĠUmwelt schutz
fra ktion
ter rasse
D N
Pe n
17 8
B utton
Ġma terial
ĠSch il
Ġbe fore
ĠW eimar
Ġn umber
schne ll
je w
ĠFo x
E ngli
ĠChallen ge
Ġdazu geho
rem s
Ġeinfa ches
ĠC lass
Ġj ahren
ĠBo utique
ĠWe tten
liegen de
Ġte ure
Ġbe achtet
Ġerstaun lich
ĠSe h
ĠSpielothe ken
ĠIn vent
Ġf arbe
pf leger
Ġ2 60
ĠAd ress
Kosten los
ĠB Y
im ieren
Ge ben
F ast
Ġflie ÃŁen
pp a
irl pool
dekor ation
ĠCh am
Ġfrem den
S che
M X
Bundes liga
C le
ĠGleich gewicht
Ġintegr ierte
Gener al
ne tes
ĠSow eit
ĠW ille
ĠDe c
lo ve
ON T
ĠImp ort
Ġfam ilia
Ġunter m
ĠP A
ĠPf lichten
ĠCo ur
33 3
Se x
ĠZa un
Schne ll
30 8
ĠUn bek
sprodu kt
be le
ĠFunktion s
ĠVoll sta
ĠAn hang
Ġthe se
ĠN omin
da tei
Ġnachge wiesen
ver ter
Ġeinzel ner
Ġ19 23
Ġbef reit
ĠBlog ger
19 93
an ha
hr iges
ĠCor ne
se ud
C ommunity
ĠSchwimm bad
l p
S yn
ĠAn ordnung
ĠSte iermark
Ġn ight
Ġgol dene
Ġ# ####
Mar ken
Off ice
In teress
oku mente
no vo
ĠFein d
t liches
ff i
ĠR an
Ġidentifiz ieren
ĠHe rt
ruck sack
ĠZ ap
IE GEL
y u
Ġwei ÃŁt
Ġer fassen
ĠF alt
mon tage
ĠP uzzle
Inform ation
ĠPro fit
ĠAb bildungen
Ġ old
j on
ĠWer de
c ie
Ġemp fehle
26 0
ĠBeam te
ĠC lassi
Ġc ard
ĠD rag
g ge
T ri
Ġc ialis
gew al
Re zension
at al
ĠNord see
ĠAll ga
ĠVer luste
Ġw ant
Ġsport liche
ĠPhili ps
ĠBu cht
he bel
Ġun ivers
kti schen
bes itz
Ġe nden
Ġvergleich bar
ĠZei chnungen
Ġwe tt
ĠKon serv
Qu ali
Ġcre me
ĠH C
Ġpra xis
Der zeit
E rk
f ans
st urm
optim ierung
Ġpo ol
ĠPri ce
ĠÎ ¼
ĠKolle g
ĠB li
16 7
s and
16 4
Ġerne uer
Ġâ ŀ
k rei
zo gene
Ġord nungs
Ġanalys iert
ĠA ct
Ġbeantra gt
Poli tiker
19 6
oma in
Ġkon figur
Ġange ordnet
Ġ+ +
ĠRett ung
Ġgef lo
ĠSch immel
Ġg ei
Ġs he
ĠEr stellen
IN I
stell bare
ĠSaar land
AU F
ber gs
ĠPar ameter
o ve
Ġnach t
all ye
Ġuns icher
Ġrei nen
se mit
hau ser
Ġver wirk
ĠSchw ier
Be g
Ġperfe ct
ĠFe ste
Ġzuge ho
Ġne tz
ĠVf B
ĠStra fe
k lima
I nt
v b
J ohn
ĠL aus
Ġkon front
ĠP unk
O liver
ĠSen soren
merk male
O p
22 2
Ġre views
ser satz
ser ien
regel ma
ĠF ind
spoli zei
ĠN au
Ġschwier iger
Fra ktion
23 4
Ġverb leiben
lei b
schei nen
mo ve
Ġex zellen
Ðµ ÑĤ
ĠSel f
be griffe
Ġanalys ieren
im ler
ĠHersteller n
Con tent
ĠF usion
ĠK orn
ĠK na
IN S
ĠLe ather
ĠPublik ationen
ĠK r
ĠGen ieÃŁen
ĠH eld
mpfe hlungen
D okument
b ler
& &
j as
ĠPar kett
ĠGesch ma
Ġverlie ÃŁ
ĠR B
ĠÂ £
schen kel
Ġre spon
Ġausge wo
3 40
Ġeinz iges
gress ive
ĠM EZ
Ġh ard
Ġke y
Ġ12 1
ĠSch ale
di ums
ĠFerien ha
Ġfreund lichen
ĠProzess or
ĠMo on
ĠSta ates
ĠEx pert
Ġbest anden
ĠInnov ationen
ĠStei gerung
H B
ĠArth ur
na ger
ĠEinzel fall
Ġw andern
G ang
ĠSte ve
An alyse
S au
ĠJul y
ĠAb fahrt
ĠAn a
ĠD ragon
ĠgroÃŁ artig
da ys
Ġexklus iven
Lin ie
ĠUl ti
S icher
at on
op ol
Ge org
ĠV S
ĠJanuar y
vide os
Ġ16 00
ĠAn ker
ĠW he
Ġ27 0
g utschein
ĠN uss
di ction
Ġr unde
ĠA de
ĠPar ad
O ption
zu ki
ĠBa cken
ĠY or
b ble
wei ht
ĠBe a
ĠN am
grenz ung
ĠDomin ik
ĠStudi os
ĠBeit rge
Ñ Ī
l li
Ġd ans
Ġan treten
ĠGeru ch
sche rn
ne ut
ru ption
24 5
C olor
osa ik
ĠD ow
Ġk ro
Ġz immer
ĠOr der
Ġsp ray
g ow
Ġge leitet
łĢâ łĢâ
utz te
: "
Ġlei tete
Date ien
ĠR SS
U G
Ġste in
Ġe reig
ĠVi agra
ĠStati stiken
Ġ19 12
ĠLand gericht
ĠAus w
17 7
dem ok
it hm
Ġse le
rk irche
Ja ck
im ir
ke e
Ġp rin
nt wicklung
aus bau
Ù Ĩ
L ehr
d c
Ġex tre
Ġsort iert
ge lo
Ġan der
ar get
ar me
ĠE V
Ġher rlich
Ġdurch suchen
ber mittelt
ĠHalt barkeit
Ġwei ten
ĠScha de
ĠVer schluss
ĠH unden
organis ationen
ĠH ur
ĠR utsch
it ive
ĠPe rio
P au
ĠC ara
Ġg i
Ste p
A ben
Me ter
mein ungen
ĠRep ubli
ap pe
wie gen
Ġelekt rischen
ien st
ungs recht
s un
Ġu ltra
ĠSpann ungs
win det
19 92
Berat ung
pt on
Ġzu t
Ġdies bezu
. ).<
bo hrer
ĠW y
ĠDurch schnitts
Ï Ģ
ĠStellung nahme
ĠSo ckel
ot ti
Ġdi agno
gener ation
ĠHistor iker
Ġzu treffen
Ġent lassen
sch atz
ĠPost s
ord ing
Ġre gen
ĠM ang
ff neten
G ame
- >
ĠOb jektiv
inn ing
ĠJ am
rin gern
ĠGe flu
ĠPlay Station
Ġbin den
ich tige
G ymnasium
tho s
ĠSchein werfer
ck gang
23 5
Ġa kadem
ĠM ieten
W O
mel ten
ĠNieder landen
Ġb richt
ĠPro phe
ĠGew inde
ĠNach folge
ĠK R
Ġbefest igt
ĠC ri
rikan ische
wach stum
Gen au
Ġ24 6
ĠgroÃŁ artige
ĠFinn land
Ġchrist lichen
Be vor
Ġlau ter
Ġzwischen durch
P OL
Ġsa ÃŁ
kon omie
u ment
Ġverwe nde
me hl
g liches
B EN
f ische
Ġpf lanz
Ġwahr genommen
Be triebs
ge lei
bau te
da kteur
ĠSy l
Ġ25 6
ĠFa den
zentrum s
lin i
schrei b
Fe ed
ĠB las
mel te
ĠA wards
ĠCre w
o is
rit or
ĠA re
Ġwei blichen
li des
ĠWie se
dienst leister
ĠV ON
s im
ĠAlb recht
B ot
ĠVerb ot
Ġerweiter te
ĠDu bai
Z A
ĠAn deren
ĠTe n
Ġausgeb ildet
Ġaufge treten
h urt
M att
ĠâĪ Ĵ
24 7
L ast
ĠM T
ĠFra me
D J
aut os
Ġorganis ator
ĠL EG
Ġausdru cken
Kan al
Ø ±
ha ftes
ĠM ind
c ine
dien stes
lis mus
ĠB ana
UL L
G re
ag ing
Ġ19 26
ĠJaco b
lad ungen
ĠK eil
bar ungen
ĠSch irm
Ġfer tigen
du lt
H ast
M ix
ĠVer schiedene
ĠMikrow elle
rt lich
ĠC amb
ĠTay lor
ol ph
Ġflie ÃŁt
ator ium
18 8
ĠSt rich
ĠIm peri
E urop
Ġf ran
ĠHit ler
Akt ien
Ġberu higen
be stimmungen
T eilen
ĠB ell
Ġerreich ten
kateg orien
Ġc lose
Po ol
Ġso uvera
ĠBro schu
Ġwe chselt
isk y
ĠSonnen schutz
H H
brun n
ĠJe t
ĠMo vie
ĠKonfli kte
Re staurants
h zeitig
me ne
Ġst ore
ĠBe leg
sehe ne
Ġ lt
Ġk ri
Ġu k
it ionen
sa y
C u
s ha
Ġhin weisen
junkt ur
Ġiden tisch
t ier
ĠBlau e
ĠZ wil
z il
ĠPar adies
bil anz
ĠBrie fe
S ki
ÃŁten teils
ne ider
Ġsow je
Ġwieder her
EC K
ter in
bil dern
Ġch a
up per
wa ffe
bie ters
19 2
Ġmus ic
Ġst ro
Home page
ĠDoku menten
Ġintegr ierten
Bei spiel
Ġkomp liz
Ï Ĥ
bu ffet
Ġ3 30
I AL
ba se
M or
ar ticle
ph il
ĠSlip per
am tes
o sen
hal tige
23 9
ĠMas ken
ĠP OL
lass ungs
nach mittag
ĠHer d
b rillen
ku um
ĠT rikot
r ft
ĠKur ze
25 26
ĠHei den
Ġwo che
ĠGer d
22 9
ĠEin blicke
15 1
duz ierung
Ke nn
18 4
ĠUntersuch ungs
Ġmitge teilt
ĠN AS
Ġlo w
Ġst ol
ĠJ ordan
g ungen
Amerika ner
vorsitzen de
z za
sta ats
ĠI g
stu ft
ĠStoff wechsel
krit ik
des igner
s ichten
b lack
ĠN an
kund a
inne re
US S
ca fe
ĠAn wa
TS CH
e nd
Ġcir ca
m un
ĠAk zept
áĨ «
ĠSach versta
ur al
ĠWahl kampf
pum pen
Ġe lement
Ġlei det
Ġp i
Ġf ig
b ben
S at
ab schnitt
Ġwelt weiten
ab len
ĠK lett
ott bus
n berg
a ve
Ġra dio
n kte
ĠS org
cu tive
Bil lig
ve stit
Ġdurch s
Ġman ip
Ġ$(' #
ĠLo dge
f ly
Ġdeut lichen
? ?<
S un
c ure
Ġman uell
ĠB VB
ste hend
ĠDe pot
ter ium
Ġkit chen
Ġkinder zimmer
hei me
ge len
Ġ20 5
Ġre spekt
de in
ĠEin bruch
ĠMan chester
Ġtraditione ll
ĠKranken ha
ĠW ahnsinn
Ġrec ommen
ĠK ul
ĠRe pra
Ġw ien
2 11
w ik
c ro
Ġs ide
Ġsuch st
Ġang renzen
ĠStr asse
bel la
res ses
be ziehung
ĠAus nahmen
Ðµ Ð»
ĠK ot
18 9
ĠO ctober
be weg
B GH
m ischer
Ġ18 5
ĠIn door
K licke
Ġdurch setzen
E ffekt
50 5
ffent licher
Ġvers icher
Ġbee ndete
G P
C ore
Ð¾Ð »
ichte ten
T ages
Ġu nein
Q uellen
kom bination
ĠKomp akt
Ġe ur
sh ing
g m
ber winden
Ġbeein druckt
Ġrecher ch
Ġgef reut
22 4
ĠS kla
h ire
ĠPig ment
orient ierung
rzt liche
x it
Fre und
ĠEnt deckung
ĠKap seln
Ġin iti
ĠSto ne
ĠHypert onie
Ġdetaill ierte
statt ungs
ĠWirk samkeit
ĠArgentin ien
ĠAuf ruf
Ġrecht liche
ĠNe hmen
ĠImp lement
ra ining
Q ue
x ik
Ġwer k
ĠA del
ĠSt ark
Ġauf geb
ĠKauf preis
ĠAllgemeine s
Ġb rach
ĠGut haben
J apan
Ġsan ft
ĠBen utzern
M iet
ut he
E del
st reit
Ġver packt
W ichtig
Or ganisation
ss eite
ĠSpiel halle
ĠDar in
ah le
Ġpro biert
Î »
ĠMenschen rechte
ĠVor sprung
ĠAnge klag
Ġbedro ht
AM E
t teln
T on
mm lichen
UR E
Ġelegan te
Ġbe zeichnete
ĠG io
ĠZu ho
ĠAfghan istan
zo genen
ger man
g ambling
an cial
ma ÃŁe
Bas is
alifor nia
ĠZw ang
diszip lina
ĠTun ing
p ur
Ġd anken
ĠVereinig te
Ġver trag
sch ten
fla schen
Ġco uld
ĠJuli an
l tigung
ĠFro st
Ġfehlen de
LO G
ĠR ind
22 6
19 91
hol ungs
Ġge schenk
ĠAr min
ĠFlor ida
ĠBeru fe
feuer wehr
ĠBetro ffene
hl ter
ĠStre aming
reisen de
utt le
Ġne tten
27 28
Ġhier mit
dagog ische
Ġto urist
ĠRa ce
L ab
Ġh arten
ĠBetra chtung
Ġbew ahren
Ġschaff te
78 9
ĠB rillen
as ure
Ġfol ge
Ġinten siven
sta belle
e rt
ĠFre undes
Ġb ras
ĠStr assen
15 3
Te e
ĠM ist
hn acht
kom b
ĠRei fe
ĠVor les
Ġweiter fu
Ġgesch mack
ĠSh ang
ĠPan ik
B ra
sch laf
Ġw i
Ġver ne
ĠN ort
Eis hockey
vo gel
ĠKin os
ge werbe
ĠRal ph
ĠI R
âĤ¬ )
ĠOn ly
ĠBeliebt heit
k h
ĠEr lebnisse
mit z
ia len
i vidu
Ġeinwand frei
Ġbe her
ĠCas a
f m
Ġge rein
Hein z
ber ts
ĠAugen blick
ĠRo st
ĠK A
s icher
ĠVerbesser ungen
Ġhe t
samml ungen
schw ing
p fa
ĠEr zeug
ĠRabatt code
stra iner
ĠSch wert
ĠKarto ffeln
ĠCh ile
Ġaufge geben
Ġbe freien
uert o
Li fe
Ġhei ligen
Ġkann te
Ġsch n
Ġwider rufen
ĠTa gebuch
Z W
Ġ13 2
ĠBar ock
Ġbra chten
22 7
form ationen
bur gs
Ġp hilosoph
ba ne
Er wachsene
27 0
ĠCo urt
ald o
ĠAuf preis
Ġplatz iert
les kop
Ġ| --
Ġgebrau chte
ĠKil ogramm
ĠMo ney
gerichte ten
un te
oll y
qu ita
ĠHerzen s
h ungs
bi ler
se le
ĠSpark asse
Fin den
EL D
ĠLei d
Ġqu alita
ass ismus
amin at
B on
n l
ischer weise
ĠAus lo
Re c
di agno
be lastung
og ie
a co
rm ig
kateg orie
Ġinteress ierten
m assen
ĠSt all
is ters
am ar
ĠKri mi
Ġerhe ben
ro tt
No v
Ġfe uer
ĠOr dens
richt linien
ĠGlau be
: -
E V
il dert
Ġver teid
sp itzen
ĠKarne val
stra tegien
Ġrenov iert
E d
ĠErf indung
F ile
Ġfli rten
Ġbre ak
ĠEd ge
Ġ19 21
b licherweise
Ġbean spru
K i
Ġbu y
ĠBeg leit
Ġb aum
Ġgew achsen
k lin
ab on
nge tasche
Ġeinzu setzen
v at
\/ \/
k reise
Ġo kay
he rige
à¸ ²
Ġkla pp
ĠS her
ĠZum indest
ĠSolidar ita
kommen s
ver fu
An ha
ĠEinzigar tig
ĠF ie
ĠA lo
us a
chent lich
19 7
Ġgeburt stag
Ġein nehmen
He ad
ĠCorona virus
rde st
Durch schnitt
Ge b
ox id
Ġoptim iert
ĠP uma
Ġam bul
ĠKon solen
ca de
ĠWei ÃŁe
ĠAuszu bilden
ĠMart ina
ĠOrd nungs
A chtung
Ġsport lichen
lich te
co ut
ĠWen iger
Sch ritt
Ġtrain iert
U VP
Ġspe ed
ort rag
ĠC her
ĠSa x
ĠDo se
Me d
Ġange nehmen
> $
ob i
ĠHe bel
Ġvirt uelle
Ġgesch lossenen
Ġausge zeichnete
bi les
Fol ge
ĠBundes kanz
ser at
au bern
y ou
Spe ed
ĠHinter gru
Ġ13 4
m chen
Ġbek annter
ĠSchwarz wald
ĠOrt schaft
G alerie
Ġzeit lich
Gru ppen
ĠF rag
ĠEx pe
Ġvari ieren
ap s
m inder
Tra ining
ĠV II
Ġabsol uten
viel falt
stu be
T T
Ġdas selbe
24 4
> {
J uni
ge kommen
G ab
ĠG ly
Co unt
ĠBet rug
Ġhin auf
ĠS ystemen
Ġla tein
ĠFinanz ierungs
gesch lossen
Y L
ĠBo ston
ĠRuhe stand
Beitrag von
Ġaus fallen
23 2
ft ungs
f G
ĠKonsu menten
ĠNe st
ĠMinister ium
pf lanz
ĠBlu me
Ġsau be
ĠArbeits losen
ad resse
gan genen
Ġw ach
len d
varian te
vo c
K lar
Ġe ffizient
r spiel
ĠKa y
25 8
ĠVer handlung
Ù Ī
B raun
Ġin t
Ġs per
ĠProjekt s
e ds
Ġin mitten
Ġver fassen
ver teidiger
ĠFot ografen
nn lichen
rk sten
ĠT inten
lat or
amm lung
ĠSucher gebnisse
d n
ĠSo ul
ĠKarto ffel
ĠAma teur
je tzt
Son stige
Ġherz ustellen
id den
ĠSe chs
H U
Ġbil dete
ret tet
po sten
k iste
ĠLo cation
A me
ĠGeschirr spu
hil ft
ĠFir m
sch ach
ĠAL L
v ik
ĠFassa de
F al
Ġkon venti
Ġent gehen
othe k
H alle
ie ure
ĠSie b
Ġb ran
19 89
ĠDis ziplin
Ġbeka men
ĠKom o
D ir
mas sage
trie bene
fa cher
ziel ten
Ġnomin iert
B G
ĠWei den
Ġirgende ine
aut omatik
30 7
d westen
ĠLeop old
ĠWasser hahn
gra ph
Ġge richt
gel te
ĠM Hz
ĠNico le
tig ungs
on om
Ġbede ckt
ĠLade gera
ĠMaschinen bau
ĠStock holm
Ġbelieb ter
A bst
y t
ĠFal ken
ĠWohl befinden
ĠPf ing
nd t
Ġf ahre
isten ten
sch atten
B lock
ĠJun ioren
J ul
24 9
Da vid
ma kler
Ġar ound
b unt
mar y
nn liche
ĠPar ks
24 6
li der
Ġzei ge
Wer ke
kul atur
ĠZ im
b ran
tau sch
ĠAn zug
ĠI d
ĠFerr ari
alle tt
G mbH
fahr ungs
hr st
Ġengli scher
ĠT rieb
li stung
Ġm s
ĠFebruar y
ĠTisch tennis
ĠGe nt
lin de
mis sionen
gro ÃŁ
30 9
ĠM D
ag ten
c tro
18 15
se bene
B l
D ur
ĠEr richtung
Ġand roid
ĠE ige
ER K
To ol
zen sionen
u lo
Ġ8 50
Dire kt
ĠEin leitung
berei chs
itco ins
Ġbet ween
Ap ril
ll n
ĠSor te
sk ammer
k ologische
Ġbelas tet
ĠPart ien
ns eits
ĠMetal lic
t attoo
ĠStadt rat
19 4
N T
star ke
ĠSchul jahr
16 3
ahr ung
Ġver sam
Ġent schlossen
varian ten
ĠV ia
ck setzen
OT S
Ġzo cken
Ġins zen
ĠSp or
ĠTo wer
riend ly
Ġs mall
ĠKorre ktur
a ded
uti ne
Ġinspir ieren
nstler in
vor haben
ĠMar cus
D reh
li ps
ĠG b
hig t
spf lich
ĠMo le
test s
c ategor
ĠR ast
ug ie
ĠFund ament
Ġfamil y
W ild
Ġ13 6
Ġgemein nu
Ġab stra
Ġausge ben
] .<
Ġ19 13
ĠRun ning
ĠK lub
ĠGe nf
Ġre volution
nge rer
ra c
H on
14 2
ĠNo va
ĠFuÃŁ boden
Um welt
W F
Ġsch ief
E i
Ġverbesser te
bin sel
F lor
ĠInf rar
Ġdor tigen
p lattform
L OS
ĠX S
ĠMan ufa
ko v
ĠLe gend
si us
ĠSt uttgarter
he ld
ĠZei le
Ġver ra
Ġwon ach
ĠWirk ungs
ĠZent rale
Ġstop pen
ĠSozia le
Ġmusikali schen
leiter in
Ġneug ierig
ĠRe stau
ĠAb b
pla ys
ĠSozia les
ĠVo dafone
Ġfinanz ieren
ĠBe treu
ein s
ter o
aus gaben
ho u
sta ges
zei len
27 6
ĠSe ts
ĠScha f
ĠKre feld
ĠMa is
17 4
ĠRena issance
pu ff
ĠDi ffe
ĠG ate
se kreta
ĠRei cht
18 7
ĠEx change
au gen
ti cket
tre cht
ĠSa ft
K n
ĠGesellschaft s
14 1
K in
Ġcom ments
Ġab seits
g urt
âĤ¬ ,
ĠHand lungen
ĠKlin iken
sp oten
nstle rische
Ġn imm
am y
ĠS om
Ġviel seitig
los se
ei mer
Ġzwei fel
Ġz oll
ĠG na
hinder te
Ġc our
ĠLau b
lager ung
Ġ19 11
Ġb rechen
16 1
ĠBau stelle
a res
ron g
son s
ĠPen sionen
ĠF ine
spra y
ien ne
ĠK ommt
Ġdokument iert
ĠJe rusalem
d ney
l sen
Ġbe triebs
sen kt
ne k
beu gen
Ġge lingen
Ġsp irit
Ġye ar
Ġh i
ĠB orn
umb ia
c lo
be glei
Ġlu stige
Ġland haus
ĠAus ser
ĠSat in
3 01
Wh ite
at han
ĠHe y
ank ungen
wir d
sch ke
ĠAb bau
e lekt
ĠFul da
ne ck
Ġer hol
Ġvor teil
Ġhil f
Ġtau schen
Verein igte
or ies
u schung
ĠL ars
Ġgef angen
ĠM M
ĠUr sula
schei de
ra iner
ĠL asten
Ġgew id
ĠGe he
chten stein
Ġ19 22
Ġall ma
im ation
F ot
sser t
Ġaus gie
ĠG P
ĠJo chen
Ġp rice
ĠMedika menten
ĠL iss
ĠSte el
ĠM atte
ĠSchwe stern
Ð¾Ð ´
A ction
Ġfa vor
ĠAb wasser
ĠVerb indungs
ĠS old
ĠFe ature
k W
Ġ Ø§
G rau
ĠPla teau
ĠMo du
ĠMat ratzen
Ġau stauschen
sk arte
ck zufu
nt on
ĠHol ger
len kung
IG N
Sy mbol
ĠGe rt
sk lasse
S alz
ĠHa sen
St uttgart
ĠZahl reiche
F V
Be auty
fa ir
ĠGed icht
ĠElektro technik
l heim
blau e
ĠEin fache
Ġunbe kannte
anz ahl
ĠDi cke
K ri
ĠThe se
Ġausge stellt
B ig
ĠAn schlu
ĠA ce
Ġabsolv iert
hoe nix
ring s
ĠA ffa
Ġverme hrt
ĠGesch ick
v ies
G itar
laue n
ĠBer ger
ĠWh at
ĠE w
ĠKok os
Ġver schieben
ĠFol ien
27 5
ĠL ila
ĠGesch wister
ĠL is
re ste
sk ar
ĠKon zeption
Ġzeit weise
H g
3 000
Ġk ommst
P okal
ĠBang kok
spiel zeug
ĠGast sta
scha fft
Sicherheit s
rem iere
ĠS ohle
ĠK ara
t at
u sen
ĠAb deckung
Ġmode ll
ĠPf anne
ous ine
Ġlux urio
Ġgestal tete
ĠAnt rags
Gra fik
Ġkomplexe n
ĠRad i
i des
Ġbestimm ter
Ġbe fasst
ĠBack up
Ġe nger
ĠF lam
ĠRo ger
Ġrund um
spe ktion
ĠVor wu
iff eisen
um pf
ĠUnter grund
Ġbie te
ĠBus se
AN G
ĠBereit schaft
ĠMaxim ilian
Ġco me
re ll
ĠChar lotte
ad idas
ĠGet reide
ank auf
F ER
Ġbegan nen
st liche
Ġmin utes
ĠBe richter
c ium
B la
Hochschul lehrer
ĠC EO
ĠSowjet union
Ġso zi
ppe d
Ì £
Port al
elle nt
ĠA UT
ĠEm il
e ne
ck stand
Ġvers ichert
tau scht
ĠKa ka
ĠTa pete
nit ur
Ġrech net
ĠNied rig
ts am
zeit lich
T her
IT Y
i ment
und ai
Ġdefin ieren
Ġwo fu
in teress
Ġzo gen
ĠBek annten
G V
ste am
Ġver mutet
amil ton
Ġg ran
ie m
ĠTreff punkt
Ge gru
ĠMe sh
Ġkommun izieren
ĠFahr ten
ĠFut ure
arch ie
Re view
ĠS ahne
nder ten
sh ut
ĠStich wort
ĠB C
ĠAmerika ner
ĠAn schlag
ĠEle gan
ĠSamm ler
,- <
Ġver senden
ĠEl be
ĠW ut
Ġbe handel
Ġ2 23
Ġbeste s
F ein
ĠSchnitt stelle
ĠZusammen ha
ik ing
ĠCon ce
ut nant
ri ken
Ġ ____
th i
ko chen
ĠSpe nde
ĠVerne tzung
stimm te
ĠS ka
Ġver lang
Ġhervorragen den
ĠEnt scha
ĠSauber keit
ĠOber st
Job s
N N
do st
ĠSch ichten
schlie ÃŁende
ĠFlug ha
ĠExemp lare
w ire
he rapie
Ġ ),
ĠImp ulse
dire kt
Ġme n
ro ad
C ur
c tic
ĠK m
ĠCh art
P rivat
Ġhandel te
Ð½ Ñĭ
ĠInfrar ot
Ġli ttle
ĠP E
Ġw ol
ĠZi vi
Ġmein st
dru cker
ĠV IP
Ġdi fferenz
Ġein ig
ĠMa k
S ow
po wer
e bel
ĠLei h
Ġkom petent
Ġver sprechen
Ġgar nicht
ĠAn melde
vor aus
Ġk ass
>âĢ Ķ
ĠNahr ungsmittel
bu chen
UNG EN
Dan iel
ĠBir git
Ġh ilfe
Ġb an
olog ies
ĠLebens mitteln
Ġco unt
ĠVer gleichen
Er ster
Spe cial
L eit
ĠFest platten
H aust
Sp iegel
ĠC ow
ĠAb weich
ĠKomm and
ĠPau schal
sp anne
ĠMe hrere
ĠMikro fon
ĠElekt rische
ĠGrund satz
ĠAuf lagen
ĠSti lle
Ìģ -
ĠSqu are
t ru
c l
sei tigung
og an
ĠP O
R ang
Ġher bei
ĠFla ir
% .
bli cken
Ġ978 38
ĠBam bus
ĠC op
herr schaft
techn iker
Ġdah eim
? !<
Pre vious
na he
Ġerfolg reicher
nt gen
Ġzw anzig
LAN D
12 00
ĠBas teln
on ta
aste ll
ven til
stad ion
ĠSchiff s
ĠKapu ze
ĠPin sel
IG HT
Ġb lick
ĠK rat
lse a
f tiger
ĠSp ot
ĠOber hausen
ĠL C
Z a
halter ung
ĠMassiv holz
Ġt reibt
Z ei
B ul
ĠFre d
Ġ18 60
Ġac count
ĠDiet rich
. Â»<
Ġbe lg
m ig
ĠPer fekt
m iss
' .
J ourn
ĠDynam ik
Ġver tei
se ktor
ĠEi weiÃŁ
Ġbrit ischer
P age
Inde x
ĠPil z
ĠPro st
oli s
ati ker
ĠTa kt
Ġjapan ische
Au di
ĠFe ed
sp latte
Ġtho ught
Ġer mor
met rische
ĠViet nam
ĠTab ak
Ġbetreffen den
ĠJ ura
Pro blem
Ìģ <
ĠKohlen hyd
ĠE ndlich
ĠArtikel nummer
P il
ord neten
job s
Ġsign ifik
ne st
ver an
be ste
ĠP it
auf gabe
od o
ĠWer ten
Ġta ke
ĠLand s
Ġordnungs gema
ĠPo sted
ĠDe posit
ĠEinzel nen
ĠD ah
Ġnach weis
Ġph arma
ĠJon as
P as
ĠT utorial
Ġor der
NE W
m ol
Ġn irgend
Ġw omo
ĠMo unt
be lag
schein ungen
nehmlich keiten
36 4
gel der
sport al
ĠThr iller
So und
ĠRa il
ĠF M
ĠEpiso den
ĠSchu ll
Ġausge geben
an as
ĠBir ken
ĠLa chen
bl ue
Ġsch uld
ĠB ril
haus halt
ĠP P
Mo dul
C al
f rem
Ġpf lanzen
ĠAkte ure
ĠAuÃŁen bereich
o ber
rei fer
ĠD EN
hr in
re ad
ĠV gl
scheid ungen
c b
ĠN ut
kon zer
s ohle
Ð½ Ð°
ĠL kw
ĠHand tu
Ġkosten loser
S ha
ĠChrist i
m aus
sch eln
F ranz
ĠStar games
Ġ15 9
Ġme e
berra schungen
s ind
ĠFest ivals
Ch ina
Ġbe ab
ĠViel mehr
Ġpin terest
ĠChrist opher
] ;
ign ung
ĠPe ugeot
Ġsport lich
ES CH
Ġzw ingen
u ver
ungs fa
ĠÐ ¼
iz ze
lei ÃŁ
5 50
su per
Ġent fu
wo chen
nstler n
Ġauf weist
um ph
ltnis ma
u ck
be ben
b ringt
Ġer fahrung
Ġfu hren
ĠT DI
ĠEx peri
ĠK reise
rom bo
H an
ĠâĢ Ŀ
Ġver sendet
H G
zen zen
Ġvers icherung
Ġst amm
gem einer
Stra ÃŁen
ĠC ommunic
gesch neider
ĠFach bereich
D DR
Re gen
Ġorig ine
ĠE tage
Ġgewe chselt
ĠVor arl
ĠF leece
Ġ# <
Ġer arbeitet
ĠF OCUS
ĠI hm
ĠH S
ieren der
min ton
ĠFant asie
ĠP ia
ĠEin richtungs
th y
Ġwunder baren
Ġjetz igen
ss ituation
sch aum
Ġs at
ĠOr tes
vi leg
Ġpro minen
ĠBauern hof
Ġdauer te
St ich
re z
ĠMotor sport
re serv
tz el
u fern
Ġerfre ut
ĠSh i
Ġeingeb unden
ĠSe el
Ġcom ment
ĠBo ur
3 45
ĠN in
ĠSeit dem
ĠFili alen
kla ppen
Ġver ge
ĠTe a
p ixel
al ie
Ġte x
0000 00
ĠM K
ĠNe nn
A E
atsa pp
Me dizin
ĠWer ks
pag anda
de alz
Ġhilfs bereit
lich ung
Ġir re
Ġp an
ĠÂ§ Â§
C lick
Ġt anz
ĠKar osserie
ĠSchwei ze
ĠEx ten
ĠFranz iska
Ġperma nent
Ġhel len
J ust
Ġpol nischen
ĠM L
ĠLebens jahr
k ein
Ġg reen
ĠP om
ĠT alk
Ġbeauft ragt
R ay
ĠS UP
26 5
Ġoff ice
T OP
rie le
Ġpro test
ĠBrig itte
Ġdie nst
Ġex e
ĠPf und
ĠT ritt
K it
ĠHei ÃŁ
sp annt
ĠMedi cal
mb ach
ĠW ish
ck net
Lie b
Ð¸ Ð¸
ĠTag ung
se y
ĠAus steller
ĠWider ruf
ĠAn zeichen
st an
ber zeugung
ĠJe ss
Ġda zwischen
wur st
schau spieler
k istan
nst recke
d anke
ĠMin us
Ġuner wu
ĠLebens qualita
pe z
Ġje nen
si an
t l
ĠK ha
ĠSp am
se minar
Ġgew alt
S ign
Ġfo und
ĠVerteid igungs
Ġ peri
ĠBu ffet
b rie
ĠGlo cken
ĠGeh minuten
dar steller
burg h
ĠDres dner
Ġ19 05
lei der
Ġtechn ischer
Ġ ]<
Ġabsol uter
Ġnachvoll ziehen
Ġ19 08
ĠEx tras
ĠK ommen
e f
ĠAb flug
Ġgerade zu
he res
Ġve get
ĠAb messungen
OL D
Ġam b
Ak ku
Ġun beru
ĠM eier
ĠPhoto voltaik
ĠZ uerst
Ġkrit ische
Ġ& #
ĠAn ja
< <
ĠAuf stellung
Ġdenk bar
ĠB innen
ĠTri o
ĠZi ffer
aus schnitt
b sche
ĠR ate
L ud
ĠPreis ver
Ju li
N B
riche n
18 6
ĠOb ama
ĠDe cember
ge stellte
ĠMann schafts
ĠDis c
38 0
be griffen
lass ungen
ĠVe nti
ĠCh arts
ĠBet ru
Ġ% )
An sonsten
F RE
W ider
AR K
AL T
ĠTa peten
ca che
ĠEnt fernen
ĠM ahn
s itzer
Ġ center
st ance
ĠNor men
ĠL ass
ĠMa ps
ĠLi ft
25 3
Ġunverb indlich
Ġzusammen ha
Ġspezif ischen
ĠWir ken
ĠLauf bahn
ho s
Ġb l
AC E
imm ing
IN TER
schi ffen
Ġill ust
ĠPack ung
Ġbe re
ĠN it
G olf
produ cts
Ġausge ru
ĠSch mal
bewer ber
ie ner
Ġ' '
ĠFrem den
con s
ĠAus zeichnungen
ĠP ian
Ġlei stet
alle e
Ġmb H
Ġerfahre ne
Ġw ahnsinn
Ġus ing
Ġb rennen
Ġh eil
sport ler
kom bin
Ġzu kommen
gro ÃŁe
Ġgesch ul
23 3
ĠMedit ation
ĠRich tig
Re f
ĠFo re
ne ll
ĠDi kt
AC T
schie bung
ĠNord osten
ĠAp otheken
Â» .
ad t
Ġlan des
2 99
ĠBe rech
Ġbeherr schen
Ġca se
cess oires
rie be
ĠA tten
Person al
ĠKunst leder
Ġviel fach
ĠInterpret ation
na c
ĠGe hen
denk ma
Ġk nu
Ġ2 15
ĠRe chten
brau chte
Ġmit bringen
b reiten
Ġkom isch
ĠP iloten
ĠD W
ĠSoph ie
ĠLeistungs fa
ĠSonnen schein
lu x
ĠN ina
ĠDe e
netz werk
Poli zei
Ġschrift liche
ĠG an
Ġverw andelt
ĠSchw anz
Ġform uliert
ĠSchub laden
ber ichten
Bis her
ĠBelie bte
ĠBay reuth
ĠMar mor
R oll
Ġpoli tischer
Ġdamali ge
ĠVis a
Ġetabl iert
Ġsepar ate
ĠA stro
Ġkop ieren
ĠSe hn
Ġtro p
ĠWeltkrie gs
ĠOliven o
o z
ĠB lind
ist orie
4 01
Ġge rin
Ġi dyl
ĠPau sen
Ġorient iert
Ġin stru
las tet
ĠB indung
ĠSpeicher ung
li b
Ġkonfront iert
ling hausen
Ġun a
s ar
ĠA sh
ung al
Ġhal f
ĠTechn iker
ce ption
Ġ( @
P ad
ĠS Z
Taschen buch
a kten
Ġre alen
ĠPar allel
Ġitalien ischer
Ġpo ss
ĠMo di
ber ma
ĠG l
Ġab brechen
Ġ18 99
Ġhochwer tiger
Ġeinz ur
ĠSchwier igkeit
ĠEta ppe
P rint
geburt stag
Ġt anzen
Ġwit hout
ul ations
Ġv intage
Veranstalt ungen
ç ļ
Land kreis
rei bung
Ġoffe ner
ĠTha i
zei gten
Ġsch icke
ĠKapu zen
ĠVol t
Pri me
ĠAli ce
hol der
ĠFavor it
Ġwei s
ĠStraÃŁen bahn
ĠKlassi k
ĠEin kaufen
Met all
ĠAn halt
ĠBas tel
ĠMen s
de uten
Ġkeines falls
Ġ14 6
Ġkon stant
Ka ffee
ĠP ion
ĠAnt ra
ĠHe m
ĠH ohl
W ell
F ront
Ġw ander
Ġget ren
Ġkon tra
Ġfol low
un ahme
Ġfa ce
ei gent
ĠW O
p d
Produ ktion
Ġdo cument
fan ten
Ġscha den
iskut iere
Z y
ve reine
Ġpa cken
ĠSelbst sta
ist ole
ĠHier fu
ĠGe stern
ĠLim it
ĠBrand schutz
We n
leich ter
sh ots
hunder t
ĠPro tot
ĠMo os
ĠZeit alter
ge gangen
ĠZwei te
ĠNeue ste
lau fs
ĠVer lo
Ġt hen
zu lernen
ĠQue st
. Â«
ĠAn griffe
chte ten
itu de
Ġmotiv iert
Pa per
Ġklassi sch
t licher
r ben
ĠItalien isch
ĠDanke scho
Ġbe ding
ĠRend ite
Rat geber
ĠWil helms
ĠKor b
L ight
UR G
T olle
ĠVor schau
Ġsau bere
Ġchrist liche
ĠOH NE
Ġe hr
Ġausge rechnet
ĠReise fu
ĠAnti ke
hu b
ĠAn schrift
aus gleich
ke ts
f acht
F l
lin sen
Ġb lut
. âĢĵ
Ġver ringern
Ġ13 3
ĠSho es
ĠF F
s werten
rm ige
om y
Ġtre u
ĠP ure
c ut
v ue
âĺħ âĺħ
ck igen
Ġbedeuten de
ĠW ho
Ġwa gen
ĠRelev anz
ĠMo b
ĠW obei
G as
Ġver dien
Ġ reiche
aa aa
ĠA la
ĠMi ami
ĠD ob
Ġb and
Ġme ga
ĠS mall
Ġvertei digen
te ppich
ĠLe diglich
re kord
ĠâĤ¬ .
bee re
V illa
Ġge tra
rt liche
ĠWei zen
ĠZ om
23 6
âĢ Ĳ
W ander
lie benen
Ġ8 88
Ġschme cken
ĠMa jor
ĠPor tion
AU T
ĠGreg or
n um
Ġm ass
f irmen
ĠBeste s
Ġi tem
ro x
Ġbestimm tes
Ġar gument
Ġfe ster
bas ierten
rt u
schw ein
Ġin tu
Ġ13 8
su lin
Ġab nehm
Ġrenomm ierten
Ġho st
ĠBot schafter
Ġfest legen
ĠT ausende
Ġent haltenen
ĠKli cks
Z N
Ġa vec
01 11
ĠFassa den
ĠI HK
ap t
ĠVir gin
Ġkatho lische
ra di
ĠG G
ĠB V
heim ischen
ĠT in
ĠSchw ach
Ġsch ickt
ĠKon t
ffe ner
24 8
ĠHor izon
ĠSt urz
bio tika
ph ot
leuch ter
Ġmittel sta
nz lich
Ġerf rischen
tt ings
Ġge rettet
io se
ĠFranzo sen
Beit rge
ĠE SP
à¸ Ļ
ĠMal ta
ĠKranken kassen
J ahren
ĠLe gende
! )<
ĠWur st
ges agt
Ġaufge fordert
ĠA ge
ĠPrivat spha
ĠGen ial
Se ptember
Aus ge
Ġer richten
j un
ĠHomo sex
Ġange sagt
ĠKre dite
Ġunter scha
ĠHil de
Ġhe ftig
Ġtra ten
Ġeinge reicht
Ġengag ierte
Ġsu pp
Be rufs
ĠJ A
b recher
i sta
Ġsch ritt
W L
Ne ck
Ġflie gt
ĠHaus halte
U hren
Se henswu
o va
tra kt
99 0
Ġ ×
C lau
ĠPsych otherapie
ĠVol ume
Ġgeheim nis
23 8
Ġwa ter
03 1
ĠHil desheim
ĠKon figuration
Ġvermie den
ĠC ut
C hi
ĠPar a
f g
Ġide aler
Ġ19 17
ĠSpiel plan
ĠBe ka
as ar
Ġde fekt
ĠKrit iker
O ktober
och te
ir i
ĠBu y
ĠDi viden
ĠSpe kul
A g
ĠZusch auern
ĠiP od
ĠPe king
Ð¸ ÑĤ
c ies
Ġent schul
ĠKur ven
poli zei
Ġsicher gestellt
wid rig
ĠKosten loser
ĠBi bli
Ġ25 00
ĠEiche n
ĠC AR
Ġrie sig
An melden
"] ,"
ĠAus schuss
ĠEnd gera
k ante
t ran
Sch ie
ĠRad fahrer
ĠCre ative
Ste ll
ĠM X
Ġre quire
ĠAus schnitt
ĠNeu heiten
ĠW G
ĠCar sten
Ġle b
Ġan ha
ĠJ ar
K R
Ġultim ative
ati ne
Ġkehr t
ĠMau l
çļ Ħ
E iner
ge lernt
ĠT ische
ath room
ĠS aturn
fan genen
Ġ19 07
La de
Ġ4 05
man i
sent ierte
ĠBo u
ber durchschnitt
ĠUr spru
St ring
Ġgloba le
ĠKomp ress
Sta ffel
vir on
Ġwachsen den
h ter
ĠGe halts
C loud
ĠMess ung
is ation
ias is
26 6
ĠD uell
lo k
ĠElect ric
ĠSh ar
OT O
ĠF rische
ĠGe schehen
M D
f unden
ĠD ram
ĠHo ckey
ĠT win
dem ann
Ġo g
ĠMo or
Ġge richtet
St ru
ĠLand schaften
rist all
tu i
ĠSamm lungen
bern achtungen
Ġgenie ÃŁt
Ġ16 9
ĠD ell
R ob
E gal
Ġde vice
de i
E p
ul us
Ge schenk
ĠV ienna
Ġkrie gen
ĠChe lsea
la fen
ber la
ĠMa yer
ĠBan ner
ĠDar unter
che d
iz ont
Grund sa
Zitieren Gefa
or ger
ĠM d
h um
áħ µ
Ġk alte
ĠGen ie
Ġam p
G uten
ch tigung
ĠB res
ĠRe views
ĠH z
sch iert
heil kunde
Gew inn
ĠUm stand
ĠFab ian
ĠTo ren
ĠA ppe
ĠBedro hung
her d
ĠHand schuhe
b licher
al ters
ti zen
te rer
b w
im ano
Ġkre ativen
D isk
o vo
geben d
ĠAn derer
Ġangemesse ne
h iges
ĠEhe mann
ĠSchieds richter
ĠLe asing
ĠK ratz
ĠFest stellung
ĠDis sertation
ĠSp ritz
âĢ ¹
Ġbaye rischen
ĠRe ut
ĠTesta ment
n zer
spann ungs
Ġso lide
uel lte
ĠAb stieg
Ġat mungs
tifik ate
ĠFli rt
ĠG in
Ġlecke re
Ġvolle m
Ġtor rent
pf chen
pas ste
ĠDar steller
Ġber g
ĠDenn is
Ġerw ischt
or am
ĠR og
tra cking
schein werfer
ĠArgu mente
Ġge stellte
Fit ness
D anach
ĠStr ass
ĠSt rip
Ġwenig sten
Ġc lick
ĠPro gram
P in
fo ren
ĠIn ne
a is
el les
Ġauf re
Stu dio
ĠF riseur
de fault
d ler
IL E
ES CO
ĠLuft hansa
un ten
um ann
lei den
gra dient
35 5
ĠEr haltung
ĠBe cher
ĠRe par
ĠM ED
Ġcon tent
tis mus
ul ationen
ser ne
M iss
Ġver zo
ĠSch ar
Ġvorge legt
ĠAu ktion
let in
ĠK ran
zu gang
ĠB rat
versicher ungen
3 30
o pe
ĠTre ue
Die sen
Ġbe leuchtet
ĠR id
ar mband
Ab gerufen
ĠL S
19 88
Ġenor me
ĠMaÃŁ stab
al ast
Ġverm uten
Ġge steiger
ĠVer mietung
Ġl arge
O U
Ġerne uert
ĠUmsatz steuer
ĠAn melden
Ġinspir iert
G U
op ath
sen d
us ser
ĠL utz
T eile
at sch
pflich tig
ot in
ĠPeters burg
Ġaus sage
seh bar
if y
w ill
ĠR ats
ĠResult at
N utzer
ĠSchro tt
schir me
ĠPol ar
ĠWi Fi
Bahn hof
ĠBel ohn
ĠPer s
Te rm
Ġre stau
ĠP os
E ro
F ashion
Mode lle
gar age
ĠI o
nn lich
Bo ot
ĠP le
rm igen
ĠT RA
Ġre geln
ĠGel senkirchen
ĠOld timer
gewinn ung
ĠDo sen
lie ÃŁ
spa ket
ĠâĤ¬ ,
zir ks
ĠKenn zeichen
ĠUrheber recht
Ġnie manden
Ġvor lage
Le ser
ĠSingap ur
ĠEin klang
ĠNieder la
ĠEr ziehungs
Ġorient ieren
ĠSun maker
kon troll
Ġan fu
Ġs ke
rger schaft
ĠBesonder heit
ĠGa bel
Ġbe stu
le uten
be c
Sie ben
zwe cken
run n
ĠEqu ipment
ĠOn kel
Ġho fft
Ġentsprechen der
poli s
lus ter
ĠV OR
Ġse ht
ĠNetz werken
Ġspie gelt
ĠRoman tik
ĠDA X
ĠKon sole
hal tes
ufer s
Ad min
za un
Ġb auch
per tise
17 3
Ġman cher
â īĪ
uÃŁe rn
Ġwert voll
frei che
ÃŁ igkeit
ĠP RE
ĠInvestit ions
ĠDie bstahl
ĠKu h
ĠD al
e le
Ġunbe kannten
L eicht
ĠW alking
ste ile
ier bare
Ġnachhal tigen
Ġernst haft
Sch war
ĠBi ologie
k alk
m ich
ĠPfar rkirche
ĠMedika ment
Ġbit tet
Z o
) )<
Ñ İ
25 7
ĠAt mungs
Ġer fordern
Ġro bust
ĠC ad
M ach
Ġku ltur
ĠMel de
li ssen
ĠHu ber
Ġan stelle
lei he
: \/\/
rei ÃŁen
Ġkennen zulernen
Ġzit iert
ĠE llen
ĠDire ctor
rger innen
uth och
ĠMy ster
nen nung
Ġdi cken
ĠFl ammen
Ġab onnieren
ĠKir sch
Ġko ordin
Ġ4 20
ur is
P remium
ĠVerd au
Ġ7 20
st ark
Ġ14 7
I AN
ĠAn bindung
r l
ĠAl m
ĠGe sellschaften
bezo gene
Ġhe rab
Ġro llen
Ġpro zent
ĠS QL
ĠSicht schutz
Ġempf ohle
V it
trie benen
Ġhor izon
len z
rock ner
ĠKaisers lautern
Ġer mu
ĠAntrag steller
So zial
kt ure
ta pete
orient ierten
ĠMig ranten
i ter
IN A
ĠEnt sorgung
leb ten
hr den
Ġan rufen
Ġma il
ĠTechn ischen
Ġan kommen
op fer
G ott
ĠEr zieher
cha in
Ġgewid met
ok s
ro th
ĠJu an
Fahr rad
fel gen
ĠHtt p
Ġque st
Fol gen
Ġbe du
ĠW inde
ĠA gg
le hens
ĠBegeg nungen
ĠRoll stuhl
Ġa li
olog in
schul ung
Ġmit machen
st mo
fli kt
ĠCD s
ĠMar ok
che mie
, '
Ġko s
ber gehend
ĠSei den
Ġpo sten
h immel
ĠSchw ung
op ing
ĠOut look
ĠResiden z
Ġge sa
ĠH SV
Ġbesch riebenen
berwach ungs
Li zenz
V S
vor stellung
ĠSam uel
ĠS z
ĠTer ra
ĠBe bauung
ĠV ita
zeit schrift
ĠU VP
ĠNeu jahr
ĠEr leben
ĠWe e
Ġausge tauscht
ĠBe haupt
ish ing
cke reien
b las
ĠAb stra
ĠOffen bach
tel y
r chtet
ĠW ul
ĠUnivers um
ĠEr werbs
duz ierten
ĠEd ward
ĠS pen
Ġsch rank
01 3
4 05
Ġdo es
Ġeinma lig
Ġte le
Ġdiffe rent
ut schen
Ġex o
k licken
Mus ter
wa ter
ÑĢ Ðµ
ber sehen
ĠR itu
ĠStadt werke
ca se
Ġdel la
AT T
Ġk lo
E hren
ĠTh ink
Ġengag ieren
ĠB reis
ĠP ony
ĠAb lage
ĠD ichtung
ma lig
Ġâĸ º
ĠLi b
Ġgewis ser
ĠBon d
Ġstud iert
ra it
ĠI X
g ia
01 2
ĠSweat shirt
f and
ĠZu bereitung
Ġer schiene
Ġkrit ischen
Ġgef asst
ony me
Ġ15 2
Tra vel
ĠInter ior
ĠU M
L L
ĠHaust ier
ĠMiss brauch
ar de
ĠChrist ina
ĠJ h
ĠHe art
Ġder artige
sb onus
ĠK ragen
ber dach
ĠIns zen
Ġsim ple
ĠT wo
ĠAn pass
Ġbelo hnt
ĠVergleich s
ĠFl yer
ho do
C at
W AR
ĠOr che
steil nehmer
Ġa ction
B unde
Ġstar kes
ce ne
alt ar
ĠCamping platz
Ġte uren
Ġmit teilen
A nna
Ġlan det
ĠF rench
Jan uar
ĠE thik
je cts
ĠProdu zent
ĠC E
B H
ĠLo ck
sto ur
ĠEr la
ĠTa x
n atu
J A
Ġb ur
26 8
bur y
ĠUm stellung
Ġfe hlte
Ġf otos
Spiel zeug
K irchen
ali sch
æ ľ
ĠTok io
le ft
ĠF S
tic les
k ragen
S ollten
bewer bs
ĠEl fen
q m
ck nahme
ĠTag ungs
ĠSchne id
ĠSch wie
m ma
ĠW IR
ĠQu al
ĠWe tte
vor teil
Ġde tail
D or
stra hler
ĠSchwer in
ĠHo stel
stra ining
sthe tik
ĠI BM
ĠKrank heits
steigen d
Ġaufge listet
ĠPe ople
ĠFi les
ĠSam t
Ġ4 80
Ġkomfor table
Ġ13 7
Ġje nseits
Ġlo t
Ġfehlen den
ĠQ U
ĠAnge legenheit
ausen den
ĠGesetz geber
che rt
Ġver ko
Ġge lieb
ĠF H
P ul
Stra tegie
Ġpassen des
ĠFamilien name
sp w
ĠKe ssel
ĠO G
Ù İ
Ġwid men
Ġer langen
ri co
ĠSti pend
ĠAl di
ĠAusflu gs
Da her
E isen
ĠB Ver
Ġwasser dicht
lig ator
Ġbar riere
ĠKlei ner
Ġklein ste
Ġlaufen de
25 9
Ġanzu geben
Ġ19 06
ĠF am
c ss
vor bereitung
ĠDer by
ĠWe ser
Ġlang fristige
ĠEx c
Ġaufge teilt
r tern
P F
H am
sp rungs
An meldung
ĠAuf listung
Ġ17 9
Internation al
ĠAgen da
Ġ^^ <
ĠW arten
Rei fen
12 22
Ġlo cke
bo e
4 06
rab att
ĠP un
riegel ung
Quer y
Ġge za
ĠE b
Sch reiben
s ing
be ka
lie ge
ah oo
ĠSchlo ÃŁ
Ġwer d
ĠRe m
ĠA telier
29 0
g us
? âĢľ<
ĠFahr bahn
vorher sage
ĠS kate
off ice
be cker
u mer
Ġ19 09
Ġout door
ĠLe na
Ġp ress
h ic
ĠAb out
ger te
ĠKe mp
ĠSchlag wo
ĠTop s
ĠWar n
pro zesse
ck sicht
ĠVil lage
r bung
al u
ĠNe o
35 6
ĠErschein ung
Ġc ash
25 1
ĠC laus
Ġbeque me
or ig
wach senen
ĠBen z
Ġ2 75
Ġgew ohn
Ġun iver
ĠM um
ĠZwei g
we ren
qu are
Ġe G
ĠStra teg
uellte xt
12 13
ĠM U
t lg
Ġel se
ĠB rad
Ġli zenz
Ġ ><
spiel s
Ġein bauen
3 10
ĠAuf satz
ĠC ater
Ġge form
ĠEr fassung
te sten
ĠSchaden sersatz
Ġun heim
li very
Ġd ach
ĠJ im
ĠHir n
ĠHeiz ungs
uthoch druck
ĠL amm
23 1
Ġben utzer
que t
vas cript
Ġgewor fen
ĠBeson deres
Ġqualifiz iert
ĠS ara
liz it
mp fte
ĠGew innen
ĠQu oten
Ġ# ##
ist ischer
ĠWel ches
an geboten
ĠRe habilit
ĠWohn haus
Ġgele bt
ĠCoup on
ĠS ogar
ĠSt reich
ret urn
ĠVer schlu
gno sen
Ġbesei tigen
ĠD HL
ĠEr laubnis
ĠVerpack ungs
ant in
Ġbrau chte
ĠK oh
ĠNa ja
ĠT ap
ĠJohann a
ssel dorfer
st rei
ĠProdu ct
ie la
ĠF lan
ĠVo gt
Ġsa ison
ĠRe ck
u ÃŁere
O per
ĠUl rike
au bert
la ken
ct ors
a ters
ffen heit
ĠLog ik
is p
Ġschwier ige
lei bt
olog ical
Ro bert
nni fer
Ġsch utz
S hops
Be e
Kat alog
wh ite
Ġverein barten
ĠEt hn
ĠAb sprache
ste buch
Pro gramme
Ġei che
al ben
17 2
ĠAb gas
ĠG ara
lasse ne
bo o
ĠZwie bel
() {
ĠNet flix
ĠWohn fla
Ġleistungs fa
li v
Ġgemein sames
Ex press
Ġ$ ("#
Ġ19 04
ĠG allery
ĠHar tz
Ġangesch aut
F ind
ĠProf ile
k se
ĠFort bildung
unter stu
ĠRe h
ab lauf
rper lichen
ĠSalz burger
ĠAn schaffung
ĠStau bsauger
s g
Sp ielen
OR D
Ġein ziger
ST A
Ġ teile
Ġanspruchs volle
Ġwirk ungs
Ġverringer t
ĠScho ck
Ġinteress anter
Book s
ĠSpezi alist
ĠEUR O
flu cht
geb nissen
ĠÐ½ Ð°
Ġwar te
ĠAus fall
Ġsoll tet
tin ue
ĠHy drau
tegr ation
ĠOrganis ations
mittel ten
ĠPul s
ĠL U
ĠY og
ob j
Ġhand werk
ĠR ange
F ig
da e
19 87
ĠUltra schall
ĠBreak fast
qu oten
ĠAnge stellten
Ġleben den
ĠSig nale
Ġqualifiz ierte
ĠSte h
ĠFinanz amt
ĠW ii
o pen
w l
fer de
ch ar
Ġ14 8
Ġverm ieten
ĠP ot
16 2
port s
ĠInf l
Ġzent raler
ĠInhalts stoffe
ĠB AS
RA U
K ranken
No vember
P assen
eie rn
Ġreich te
ĠRe cycling
Ġo d
Ġzw angs
Ã ĺ
ĠSchott land
untersuch ung
ĠB D
ĠDia kon
ĠAp otheker
n se
ĠOr den
w it
L im
ĠC AD
pe g
Ġge zahlt
be ra
Ġbelieb igen
ĠUn glu
Ġausge gangen
ĠStra hlen
andes amt
ĠKonkur renten
ĠRoh stoffe
H op
tent wicklung
25 4
Ġd ipl
ĠG anzen
fessione lle
O rts
Ġbe ra
Ġsel tener
17 1
Ġbegeg net
ge lassen
b utton
ron ics
ĠMahl zeiten
Ġlau f
Ġgrundlegen de
Ġaktuel ler
Ge setz
Ġfund ierte
no se
ĠBe ding
b itz
ĠD O
ĠAb sta
ĠHe el
ĠHel ligkeit
Ġt rage
Ġschnell sten
A GB
ĠSch rei
zo gt
Ġz auber
st atte
s arbeit
ĠVari zen
ri ges
lis iert
ĠPrin ce
ĠLiss abon
Ġbetreffen d
Ġg rade
ĠSport arten
un ken
ĠVer gessen
fel dern
do c
>â ľ
Ġfa iren
ĠSpir itu
F X
olog ne
ne tt
Ġnach weisen
ĠAus schluss
ĠErsatz teilen
Ġt hin
H unde
sser ung
l c
L ICH
Ġeinge tra
ĠA kadem
14 15
Ferien haus
ĠT attoo
7 20
Ma ÃŁ
w andern
n igen
16 17
ĠSe nde
Wa sch
Ġm p
ĠDa imler
mei dung
ut ta
ĠKit chen
C art
able d
Ġtau cht
ĠInteress ierte
50 6
Ġrecht lich
ĠGelen ke
ĠEdu ard
Ġinteress ierte
Se minar
ĠT aste
ck licherweise
ĠRicht ungen
ru ppe
30 2
Ġ6 000
kla pp
ĠZeit ungs
wa che
ĠL ungen
ĠAus zug
= '
ĠHee r
ĠAb rechnung
ab satz
sse re
ĠL ith
ĠKomp onisten
ĠKolle ktionen
ĠRad fahren
... )<
ĠNik ola
h ma
k necht
ric s
ragen den
ĠVer folgung
Ġlecke ren
ĠBand breite
ĠAn wohner
renz ung
ĠSchul ung
ĠAD AC
ĠKo st
04 0
ãĢ ĳ
sch war
zu halten
K as
Ġseit her
Ti cker
pf ei
mis match
ĠMon ta
ĠâĢĵ <
s ingle
Book ing
ĠStei ner
ragen der
agra mm
Registr iert
ĠHa aren
mon at
ĠNor damerika
S i
Ġimp lement
ĠGar ant
ĠNord westen
ĠF lensburg
be stimmung
ur on
ra ÃŁe
Ġ14 3
neh mes
ig i
an forderungen
Aus schnitt
Ġverste cken
Ġeu rem
ĠÂ ®
ĠZ igaretten
Ġdiesel be
Li ter
ike rin
un nel
ĠHand tuch
ne z
ĠK ryptowa
ĠHaus schuhe
ĠVor mittag
US D
ng s
Stand ort
ĠAus malbilder
ĠJo ker
zu legen
ĠNahr ungs
krank ung
ĠZimmer mann
Ġk arte
ĠE ll
Ġgro up
aus schusses
Ġversch ickt
ĠDarauf hin
an fragen
ĠD rop
ĠCan ada
R U
ĠNa vi
h armon
ĠVe reinen
m ass
Fe hler
Ġgerein igt
ĠV III
Ġle be
ĠHo odie
ber setzen
cken schmerzen
ck lichen
Ġsch aue
ĠBulgar ien
Ġf ing
Ġerw arb
Ġver tre
ali schen
ĠKatastrop he
tte st
Ġpro cess
ĠRe ste
ĠMit tags
Ġinten siver
ĠPlatz ierung
cke nt
ĠVolle yball
Bild ung
E rn
Ġausgestat tete
Ġeinma lige
Rab att
ĠKar ib
Ġje glicher
La yer
Ġge dru
ĠMu st
ĠC alifornia
ĠPast or
fe kte
29 30
p reisen
F arben
geb ungen
18 2
Ġhochwertige m
Ġnor weg
K le
Ġ18 90
st ill
ĠSpiel platz
Su b
Ġsozia ler
ĠT arife
Je de
ĠDo uglas
ĠVor ders
Ġhe bt
Ġbe treten
Ġthe rapeu
ĠTier schutz
Ġk aufe
Ġidentifiz iert
Ġqu iet
Ġf angen
ĠScha ffen
ĠHeim spiel
ul ierte
sse kreta
itzer land
28 8
Ġ3 10
wand lung
per re
ĠGef rier
Lud wig
ĠSuch begriff
Ġpro vi
got tes
ĠWert ung
sse e
Ġteil zunehmen
ĠF our
ĠHilfs mittel
ĠShang hai
mel zen
ĠX peria
Ġdarf st
ĠProgramm s
ĠIn fan
T G
Ġbenach barten
bour ne
in del
Ġunter halt
D ro
ĠInstitu tion
ĠBre xit
ĠT ho
ĠBe handlungen
ĠLau ren
amp fer
h ligen
hy si
h inein
O k
âĢ ļ
wen ien
Ġd umm
ĠVol vo
cht lingen
Ġverkauf te
hm arkt
Ġumfang reich
reg ionen
ĠK E
Ġm isst
Ġober fla
ĠLager ung
rmer n
Ġherauszu finden
oper ation
Ġeinge halten
ĠDaten u
w ahren
LA Y
38 6
ĠK itz
Ġvo or
ĠUE FA
Ġg rib
ĠLe tzt
ok ola
rit ing
ĠDiam ond
ser ve
Ġorig in
b zw
ing ton
50 8
ĠParas iten
ĠSubst anz
ĠSpir it
sch ichten
Ġprodu ct
san gebot
las ma
ĠW DR
ĠScha dens
( {
Ġheraus gegeben
Vor sitzen
Je t
ĠVor heriger
ĠAb la
Ġte e
ĠC ottbus
ĠEhren amt
ĠArbeits recht
ĠPla za
ĠSteuer berater
Ġsch laf
i zer
tel finale
k lein
ĠPsych iat
> '
Abs ol
ĠLin ken
Ġben utze
Ro ute
Pra xis
E hema
ĠErz bischof
A rab
24 24
hed rale
M orgen
Se ns
Son y
ĠInnov ations
ĠKu ba
Ma schinen
Ġf ielen
Ġzeit gema
bor der
Ã Ĳ
ĠZ wick
ĠLu pe
Ġwo her
37 9
ch rist
T D
zy k
Ġlie ge
ka meras
ili ate
Ġf lor
press ionen
Ġmark ieren
ĠD schungel
R OM
re zept
ĠSchw ing
ĠCom ics
m au
ĠAbhol station
ĠM W
el o
ĠDe ep
Ġver zeichnet
Ġw ein
ro ma
omati sch
ĠVer f
ro ller
ĠBeob achtung
mel z
den burger
ĠNe uss
In sel
ohn heiten
E ss
K lo
hl st
be halten
T X
an c
AA AA
Mess age
ĠAb mahn
ĠChrist mas
Ġs elt
Ġeigen s
ĠAqu arium
ĠPar iser
Son stiges
Ġtrocke ne
ck zug
Ġemp fa
ĠVer tretung
Ġv gl
b ischen
18 1
Ġlack iert
Varian te
h ot
N EN
c lip
arte ments
ĠImp f
Ġbef rie
ĠVor jahres
nstle rischen
ĠK id
Ġ !!!<
B lick
G anze
Ġanzu passen
RO OM
ant worten
ĠA uer
ĠVen til
Ġver sprochen
e se
Ġnach denken
ĠWa y
35 7
b lank
ap os
dem okrati
( $
f ire
le ts
kla ppe
Ġerhe blichen
ĠGes ichter
ĠA stra
Ġd id
G allery
markt ung
ol t
t ungs
Ġprodu kt
gesch mack
K U
d ringen
ĠSieg fried
Engli sh
ĠBee ndigung
19 3
ĠVer sammlung
ĠMultifunktion s
daten bank
Ġein genommen
orient iert
g aming
ĠE ls
Re daktion
par ate
ĠBrut to
ĠAb holung
ĠAl gor
at ti
ĠSp ins
19 20
ĠQu arz
38 8
ĠSchne lle
Ġsho uld
Ġinc l
our met
ĠCann abis
ĠDen im
peri or
hl s
Ġbevorzu gen
2 15
ĠUns icherheit
ĠGe rn
len ce
Ġkomp liziert
B row
ĠSt olz
lo ws
wa ii
lie derung
Hinter grund
mag ne
E ndlich
z ita
Ġoption s
S ON
Ġgen a
ĠSch lus
ĠNatur al
bo ck
be f
ie ra
tike rin
Ġkla rer
g if
ad os
pti sch
Unter schied
ĠK lu
ĠS la
ĠLe t
Ġler nte
ĠA dels
m att
ĠRa che
Ġph otos
O rder
te ams
d korea
P rei
Ġbe wiesen
S ER
OC K
Ġt r
o den
ĠTra chten
' ))
ĠB lin
mit teilungen
sthe orie
Fe bruar
ĠWander ungen
am an
Ġf okuss
Ġ19 2
Alex ander
k lingen
ĠZ ink
Ġge sendet
Ġschwar zer
ĠO ra
Ġmel de
p ie
is si
ungs stu
ÃŁig keiten
vit ra
di ges
ĠKa ter
ĠNie mand
Ġo s
ĠStudie s
ich tes
ĠKlei nes
Ġverd ra
gemein schaften
ta blen
l maschine
im iert
ĠP ub
ĠKom mode
spar nis
ĠB inde
ĠSubst anzen
ĠS AT
ĠKa st
lische s
ti ca
ET R
ĠMar ian
vert rauen
ur u
Ġweit aus
ob jekt
23 34
nen dlich
ĠD ag
ĠF lus
hin weis
ss itz
mati sche
ĠEle menten
te ich
So ft
fiz ieren
ĠBelast ungen
ĠG ouverne
ĠEu gen
ĠUp grade
ik u
ko ne
ĠModer ator
ĠFre y
Ġunter liegt
18 3
k ru
Ġs uchte
Ġpar tic
Ġd ritt
Ġph oto
Ġs itz
Ġkenn zeichnen
ou se
A ktiv
ĠP lease
ĠFil z
mo us
Ġne usten
ĠFor mu
Ġk arten
Ġdire kter
le dge
Ġ/ ><
Le vel
Ðº Ð°
ĠWe s
T urnier
ĠG rat
ur ve
+ "
l al
an fa
S us
ĠSh irts
rger t
a ction
ig ned
Ad d
Ġabsolv ieren
Ġpla yer
ĠR assismus
Ġg ue
f ranzo
Kon zert
w urm
LO W
Ġsin kt
ĠSch ilder
ĠArchive s
an spruch
oo oo
Ġwid met
pa id
Ġter min
u der
Ġstehen de
Ġbe lie
kolle gen
Sch wer
Ġausge liefert
v ok
k reisen
Ġbe geben
ĠLeicht athletik
ĠH atte
V in
Ġ15 6
ĠFlo renz
ĠH amilton
A gentur
ĠCap ital
ben s
ĠSport schuhe
ĠPf lanz
ĠKle mm
ĠTher m
Ġsp anische
siden tschaft
ress ionen
ne rei
denk lich
nstig ste
ha e
ĠJo y
at re
Ġanth razit
ĠMan ip
ĠStiefe lette
M ad
ĠFort schritte
ir d
ĠN Y
Ġj ourn
fu hr
ĠO laf
ĠHert ha
ĠRe son
ĠRom ane
I ED
lieb haber
d tische
ĠBundes rat
ĠTu S
Ġer zeug
ĠNatu re
ĠB EST
ir ls
ĠE ver
Ġbe sche
Ġ20 22
schlie ÃŁung
p reises
C lasses
ĠZu vor
ĠCh urch
Ġup date
ungsver mo
ĠHoch wasser
27 7
bersch ritten
Ġun gen
sch icken
Ġrepar ieren
ĠMit arbeit
ĠN E
STEN LOS
ho cker
ĠOze an
ste uern
ah nt
Ġweiter gegeben
ag ram
Ex perte
ic ial
ĠMag azine
Ġha ftet
ĠS TE
ut sche
woche nende
G reen
ab la
ĠMa e
rang ig
Ġglo bal
Ġlei denschaft
reg ler
Ġsel be
ĠI ST
su ppe
19 86
rap ien
Ġwar s
man s
ug os
Ġd rum
Ġm ischen
ĠSpra y
gesetz ten
49 0
Ġherr schen
ĠW A
lo gie
Re al
Ġverb undene
Al tern
ĠVor hang
wei ser
Ġant wortete
Ġstra pa
ak ter
Ġwe ndet
Ġtau chen
in stallation
ĠFor mate
richt linie
j ong
ĠFlie ger
ĠW ickel
no de
75 6
ĠR asse
Ġgem isch
ĠP HP
ĠLad ung
ĠZei chnung
ĠKand idat
Ġzertifiz iert
spro bleme
ĠF ieber
ck greifen
Wir k
kon zent
ĠMat he
Ġch arm
ĠBur k
ĠBe achtung
Ġuns icht
ĠR ating
auf gang
Su pport
E vents
Ġv it
Ġschnelle s
Ġeinge stuft
23 7
W D
B ranche
Elekt ronik
I deen
Er lebnis
s orgen
F lex
ĠTau sch
ĠBeschwerde fu
O ffen
li os
berwa chen
ĠNavig ations
ĠWohn ort
Ġat ta
H V
ein stellungen
Ġp un
el ly
ĠT han
i kt
Ġb licken
druck te
ĠSta pel
Ġele ct
ann y
ĠStra ÃŁ
ĠWirk stoff
Ġh ind
Ġnah t
sk irchen
Ġsel b
lan det
ber at
an wa
Ġdeutsche s
K licken
ĠPe ch
ĠCh ange
mir al
ĠS und
Ġbeeindru ckend
ti um
Ġpa ck
ĠEn kel
ĠEint ritts
ĠO ur
ver si
Ġhierzu lande
iz ation
ĠAR T
ĠWein gut
ĠE A
ĠH bf
Ġge druckt
H annover
Ġp p
ĠSpon soren
ĠH olo
Ġbal kon
as so
Ġge achtet
Jose f
ab stand
ĠAttra ktionen
Ġbe sorgt
Ġbest icht
oth ar
ĠR hythmus
ĠD EL
ker zen
ĠG uest
ĠEr mittlung
ĠWh irlpool
ĠAktion a
ĠFas zin
26 27
ĠE ditor
br eitung
G utes
Liefer zeit
ĠD N
ĠSy dney
Ġver deut
ĠVer sa
ment al
te ig
dagog ischen
Be ruf
ĠNeuer ungen
ĠRe chnungen
Ġx D
ot ta
ĠR U
geben heiten
durch messer
haft ung
ĠVirt ual
ver sprechen
Ġ15 8
ĠTee nager
ĠM ok
bertrag ungs
sch ilder
ĠAb wa
ĠPal m
ĠSchwer punkte
sk irche
ĠSpark assen
36 6
re dit
gem achte
ĠMa p
De al
Ġfrem de
Jun ioren
Ġb ud
ĠHart mann
ĠQuali ty
P osition
Ġlau ten
à¸ Ń
fer tigte
Ca fe
ĠD EU
Ġbes ichtigen
Sk y
ĠSP IEGEL
are tt
hand schuhe
ĠMe mory
ĠBe fo
F ro
al la
Aus zeichnungen
ia o
ĠWeb design
ĠProst ata
ĠGran it
ther net
ĠDurch gang
Ġge kauf
ĠCamb ridge
Ġheraus finden
ĠInve stor
ĠH eine
19 84
Ġ14 2
ĠEnt ta
Ġa way
Ġ$(' .
le gend
ĠWunsch liste
ĠBe ute
me te
ĠZe n
W ur
ial og
ĠKab inen
ĠAss ist
i fest
Ġmonat lichen
":[ ],"
Ġopti sche
r ster
ĠTu be
ĠCast le
lad imir
Ġfestge halten
ĠBremer haven
Ġd t
ĠApp artement
p alette
Ge rne
ĠExemp lar
ĠN ag
B onus
N Y
ul tate
Pro jekte
Ġb at
ĠMal vorlagen
sor iasis
ĠAb ra
ĠRich tigkeit
Ġplatz ieren
r ho
ĠFriedrich s
Ġ19 03
An lagen
ĠSite map
ĠEmp f
zu friedenheit
h z
rk isch
ĠGeschma cks
Ġer wu
Ġer lo
Ge stern
Ġhin teren
ĠBild hauer
sk in
S zene
To uch
zur eichen
ymp h
ĠWas se
âĨ Ĵ
g ier
Ġab holen
ĠC ommer
G i
Ġkon kur
ĠFl ut
Ġwieder hol
Ġbe suchten
v ag
Ġerhe bt
ĠBesch ra
ĠProdukt s
ĠPau li
ĠAus dauer
Ġtransport iert
iel les
oppel n
Ġhe uer
Ġan aly
Ġmon th
We gen
Finanz ierung
Ġunein geschra
ann ing
Be handlung
M illi
ĠLe go
ĠC hen
ĠK iss
ott om
ist ry
Ġer lernen
u an
ĠFre der
an frage
ĠP ow
19 80
G rand
Ìģ .
Ġv ideos
um satz
A f
ste ckt
Ġgol denen
Ġ2 99
b auern
>| }<
schaffen burg
ĠN issan
D ipl
Ġle g
B urg
L ange
Ġg as
ĠPri x
ĠStre u
do sten
fuÃŁ ball
ĠDunkel heit
ĠPe arl
ĠFrei willigen
Ġ18 9
Ġum gebaut
Ġsch alten
ĠHe b
Ġco des
de utet
Ġbe wahr
ĠBas ili
ĠWirbel sa
ĠLe tzter
hel den
D auer
ĠEin reichung
Ġa e
Ġd iv
Ġh d
Ġbelieb ig
Ġb ul
ĠTo leranz
Ġtransport ieren
zin sen
ĠGe le
min u
ph on
ĠHei ke
Ġsam sung
W R
Ġna ja
Ġch ange
pe ter
ign on
Ġa ct
Te mp
ĠPum pe
k ant
ĠIn sider
ĠPa nel
kom o
ĠZwie beln
Ġein loggen
ĠT reib
ĠPe tro
ĠTa ten
ĠIniti ativen
im mobilien
Ġh arm
ĠWe ek
K laus
ko stu
Ġkennen gelernt
Ġp rinzip
Ġregion al
statt ungen
ĠBek annte
ĠR ag
stein s
k ara
ĠP elle
ĠF IN
ab i
R au
ĠKranken kasse
ĠZu griffe
ĠBau teile
ĠEr halten
ĠWohn mobil
PO ST
k ologischen
ĠRoh stoff
Ver bindung
Ġu hr
Ġh ielten
sp reise
wind igkeiten
ff nungen
ĠNAT O
ĠVer stand
ĠN L
[...]
