#version: 0.2
Ġ a
n e
t h
Ġ th
e r
l i
Ġ o
r e
Ġth e
Ġ i
Ġ s
n d
t i
o n
Ġ w
Ġ c
o r
n g
ne w
li ne
e s
e n
new line
Ġ f
o u
Ġ b
t o
Ġ p
e d
a n
a r
a l
a t
Ġ m
Ġ to
Ġa nd
Ġo f
i ng
Ġ h
Ġi n
Ġ d
l e
i s
a s
r o
i c
ti on
. <
o m
Ġ e
l l
Ġ re
en t
u s
v e
Ġ S
i t
Ġ y
Ġ T
a c
Ġ I
l y
Ġ g
Ġ C
Ġw i
Ġb e
Ġ A
â Ģ
Ġi s
Ġy ou
r i
Ġf or
l o
h e
s t
r a
u r
a y
t er
Ġ M
v er
Ġ n
e c
a i
a m
o w
Ġ P
a d
a tion
t s
Ġo n
c e
c h
Ġ B
Ġw h
Ġwi th
u t
g h
i d
l d
Ġth at
e t
Ġ 1
s e
o t
Ġs t
i r
Ġa s
Ġ D
Ġ W
Ġ 2
Ġp ro
Ġ H
Ġa n
er s
Ġ (
Ġ F
k e
a g
Ġ R
âĢ Ļ
e m
u n
o o
Ġa re
u l
Ġ L
Ġ li
e l
Ġi t
er e
at e
a b
ti ng
Ġc om
p p
Ġc on
Ġm o
Ġa t
Ġ l
Ġh a
Ġ G
Ġo r
u m
Ġw as
Ġw e
s i
Ġ N
ĠT he
Ġ E
ro m
o l
t e
re s
q u
Ġe x
Ġ v
Ġf i
h i
Ġb y
m ent
a nd
Ġyou r
t r
Ġ lo
th er
Ġf rom
Ġ2 0
es t
Ġd e
Ġ O
u c
Ġth is
om e
Ġs h
n t
Ġa l
or t
Ġs e
ti c
ar d
Ġha ve
o p
f f
Ġ us
Ġh e
u d
Ġ J
u re
Ġ u
Ġc an
i l
gh t
t y
ou r
Ġ le
> <
ai n
i ne
al l
es s
r ou
Ġd o
Ġ âĢ
i g
Ġ ne
an t
m e
Ġa c
a p
Ġs u
Ġp l
Ġw or
Ġc h
Ġn ot
Ġwi ll
Ġs p
it y
ac k
Ġa b
ĠT h
m p
al ly
a k
' s
o d
o s
c i
Ġ U
ou t
g e
us t
ou ld
e ar
a re
Ġs o
Ġa ll
Ġ k
0 0
Ġ j
e w
p er
Ġcom p
s s
Ġ ti
is t
b er
ar t
Ġ20 1
ic h
ag e
a li
at ed
k s
Ġa d
ĠI n
Ġ K
Ġd i
. .
n i
Ġh as
Ġm e
s o
ne r
ab le
on g
Ġp o
e p
a ke
T he
ti ve
f or
as t
id e
Ġ1 9
Ġb ut
Ġc o
Ġ r
ic e
v i
ar y
t w
Ġm an
i m
Ġu p
it e
ou s
an s
ac h
ec t
o re
i es
Ġ V
Ġo ne
an ce
Ġthe ir
ver y
o ne
u e
Ġ Y
li c
Ġmo re
u b
v en
en ce
Ġo ut
am e
Ġ en
Ġo ur
ac e
Ġ tr
Ġd es
oo d
c t
Ġthe y
si on
tion s
Ġwh ich
Ġn o
Ġ un
Ġm y
Ġs ome
er v
Ġin c
ai l
m er
Ġre s
Ġh is
n ing
Ġa pp
Ġab out
as e
Ġ 3
Ġd is
re e
Ġal so
ation s
ĠS t
k ing
Ġ "
Ġg o
Ġof f
Ġwh o
g i
a ng
Ġp er
Ġ te
Ġ qu
Ġ -
re d
for m
Ġbe c
nd er
i li
i gh
ac t
b le
Ġti me
t ra
ĠC h
ent s
us e
or d
ne d
as s
Ġa r
ĠI t
Ġy ear
s h
d uc
ay s
li ng
a v
Ġan y
Ġ new
n ow
or s
i a
Ġm i
n s
l es
at er
o c
Ġw ere
c ess
on s
p e
i ll
Ġ ro
d e
f e
Ġp e
âĢ Ŀ
o nd
or y
Ġli ke
al s
Ġa g
Ġo ver
i v
c es
Ġo ther
r y
Ġs i
Ġf e
Ġcon t
Ġbe en
Ġi mp
ĠW e
Ġin ter
Ġh ad
ir st
Ġ ra
a use
ĠâĢ ĵ
m i
Ġwh en
g ra
Ġthe m
re at
ti es
Ġg et
p s
ic al
Ġp re
Ġre c
Ġth ere
Ġi ts
Ġp ar
p h
lo g
is h
res s
Ġh er
Ġwor k
Ġ tra
f ter
Ġne ed
op le
Ġw ould
Ġi f
ar i
ĠH e
l ud
ou nt
ou nd
n o
Ġ 4
Ġk now
Ġre p
Ġth an
m s
ar k
ĠâĢ ľ
a th
Ġwh at
Ġs erv
u al
at es
a w
Ġin to
Ġb o
Ġex p
am p
oo k
t en
oo l
Ġf irst
Ġ tw
rou nd
Ġa m
Ġ 5
ĠTh is
c k
Ġh ow
ing s
en ti
o k
ou n
Ġcom m
c ri
d i
rou gh
Ġ ri
Ġ |
v es
Ġb u
ro w
f i
a u
ow n
T h
Ġpe ople
Ġinc lud
ver s
e nd
ic k
Ġbec ause
n al
f t
Ġj ust
! <
) <
f er
f ic
o st
Ġi nd
o se
p tion
Ġm ay
f ul
b s
Ġpro v
Ġc l
d ay
a ti
Ġh el
a ting
ĠR e
c om
Ġcon s
ul t
ec i
ad e
Ġ20 0
v ing
r u
) ,
n k
Ġmo st
Ġus e
ec h
Ġon ly
i on
Ġm ake
h o
u ll
Ġfi le
ai r
Ġth rough
le c
ation al
Ġh igh
Ġs ec
2 0
Ġpl ay
en s
th ing
Ġp ri
Ġpro duc
Ġs c
ou gh
Ġwe ll
Ġu nder
li sh
ment s
Ġf o
r ic
y s
Ġtw o
ve l
1 9
? <
Ġc ol
ĠC om
i le
Ġs he
Ġ &
Ġhel p
Ġs y
an y
i z
Ġst ud
i ght
n a
Ġb ack
as ed
t le
ar ch
d er
ĠY ou
Ġe very
Ġsu pp
Ġa fter
ai d
Ġd ec
v ed
r is
ĠW h
t ed
ig n
l and
w ard
Ġthe se
it ed
g an
ine ss
w n
qu i
u res
ur ing
i ve
ff er
Ġc re
ĠP ro
Ġ 6
Ġse e
em ber
f ore
Ġyear s
Ġg u
ter s
ers on
Ġex per
i e
i an
Ġ very
I n
Ġman y
e ll
x t
Ġe v
Ġlo c
lo w
Ġwh ere
us iness
u ch
ul ar
ve lo
i nd
ti n
st em
Ġg e
Ġin s
n ce
ch ool
am i
' t
hi p
Ġsh ort
Ġo p
Ġ ke
ic es
Ġthe n
on t
Ġc ar
a ne
c o
Ġg ood
ak ing
ĠN ew
u p
Ġdes cri
it s
ĠA r
o b
t ur
Ġw ay
a ve
i nt
Ġs to
Ġw ant
i ld
.. .
Ġ <
is e
Ġc ould
al e
re n
at ch
Ġp art
em ent
form ation
velo p
Ġsu ch
or k
Ġd own
ili ty
tr y
Ġre m
a tive
m an
ĠS p
Ġac c
) .
Ġs m
a z
Ġe ven
Ġn ow
Ġb est
se l
Ġsh ould
i al
Ġ 7
p t
Ġh ome
Ġs et
ĠA l
ll ow
o ve
to m
Ġa v
ĠL e
u nd
Ì ģ
o y
a x
ĠF or
al th
c ed
re ct
ali ty
mer ic
Ġc hi
Ġfi nd
ou se
Ġe ff
Ġad d
Ġ 8
Ġg reat
Ġ1 0
p l
Ġp res
Ġre ad
Ġsh ow
ci al
Ġd ay
Ġ1 8
t on
Ġus ed
Ġdi ffer
Ġ ed
Ġre g
as h
Ġm ade
e en
u g
Ġs aid
z e
r uc
r an
Ġb usiness
Ġin v
Ġm uch
ic t
Ġl ong
Ġsp eci
u es
o g
Ġs ur
t ake
l ed
w ay
Ġ $
c y
e e
t ri
Ġin st
Ġe nd
Ġm on
Ġexper i
Ġsy stem
as on
ĠS h
Ġag ain
Ġli fe
Ġi m
ent er
Ġp erson
ĠA nd
ĠI f
ĠS o
Ġs er
Ġbe ing
Ġm ed
Ġn um
ne ss
i o
Ġbe fore
Ġd on
i th
ow er
Ġtr ans
Ġ take
Ġin formation
Ġth i
j ect
ne y
en ces
Ġd id
o ld
Ġh im
Ġc he
di tion
Ġp r
ti m
ag es
Ġde velop
a h
Ġp ub
Ġre l
at a
Ġwor ld
Ġg ra
u ally
Ġch ang
vi ew
Ġ 9
Ġv is
Ġh ere
Ġcomp le
Ġsu b
âĢ ĵ
r ing
k i
r it
Ġp h
Ġe ar
ĠB e
Ġfi n
log y
Ġprov id
ĠD e
Ġc all
o li
Ġha nd
Ġte am
Ġch ar
ra tion
Ġdo es
Ġth ose
u tion
Ġri ght
Ġdescri ption
Ġwe e
t ain
e ver
ner s
ail able
Ġfor m
le ct
Ġe ach
il li
ti ll
ti t
Ġa u
Ġc are
Ġwh ile
Ġle ad
Ġst art
Ġv i
an k
t ech
at ure
Ġres p
ut e
b e
c c
Ġd ri
es sion
Ġc lo
Ġbe tw
ak es
Ġbetw een
ami ly
ter n
ĠA meric
Ġad v
le ase
Ġm ar
c on
00 0
ĠL i
Ġfo llow
Ġc ur
1 0
Ġpo st
Ġserv ice
Ġchi ld
W h
ĠA d
ĠU ni
Ġe as
am es
Ġf ound
ar m
Ġ tri
ne s
ng e
Ġcomm un
Ġ tech
ĠA n
R e
t al
ĠU n
Ġa round
t ter
i p
Ġav ailable
Ġl ar
ur ch
Ġc us
ĠJ u
Ġo wn
Ġas s
Ġlo ok
ou th
ĠP l
Ġbo th
Ġf ree
Ġlo ve
c er
mi n
re ad
Ġpro gra
or ts
ri end
ec ts
ĠI nd
ti v
an ts
b ers
Ġs ame
Ġe m
Ġpro cess
ar s
tic al
Ġdiffer ent
Ġc le
Ġb ook
vers ity
Ġc our
si ve
g g
ĠE x
o h
Ġpl ace
p le
Ġ 0
Ġb l
et y
Ġd uring
Ġre qui
ic s
c tion
W e
Ġ *
Ġ19 9
Ġp os
ro ss
Ġc li
Ġf l
Ġl ast
Ġ Q
Ġ ter
Ġre ally
ĠC on
Ġto p
w ays
is ion
Ġfi l
Ġre ce
Ġbu ild
Ġus ing
Ġr un
Ġoff er
Ġf ull
Ġth ree
Ġc or
n ts
Th is
ho to
Ġli st
Ġ Z
si ble
ĠM ar
Ġpro f
Ġs till
a j
Ġs chool
gi n
ĠA s
ur y
Ġv ari
Ġf un
Ġto o
Ġ ty
rou p
Ġm em
ĠThe y
Ġinclud ing
li e
m it
ai nt
th e
o ther
a ther
Ġthi nk
ĠC ol
Ġac t
Ġnum ber
id er
Ġimp ort
Ġcomp any
Ġapp ro
Ġf amily
Ġor gan
Ġ '
Ġc oun
Ġc ap
t t
it al
Ġi de
ur al
Ġsm all
re nt
1 8
y ing
Ġm us
ver n
al le
5 0
p ri
e x
t re
re en
Ġf ew
Ġsupp ort
Ġle ar
Ġpar tic
is s
g y
d f
Ġ| |
ĠH ow
el s
or th
Ġw ater
qu e
ĠS he
Ġsec ond
Ġgo ing
ĠI s
Ġmon th
ĠC hi
Ġo b
Ġ1 2
D F
gra ph
Ġhe alth
ĠB ut
Ġ .
Ġe mp
Ġin f
b o
st s
Ġp i
Ġ201 8
ec tive
Ġd ata
od y
Ġmi n
l ess
ff ic
) .<
e ld
Ġlo o
ĠTh ere
m es
Ġall ow
us h
Ġper form
or n
d u
Ġha pp
sel f
es e
g n
Ġ line
Ġs w
Ġco nd
p or
t em
ĠM i
te nd
m ed
ĠM an
Ġst r
Ġst and
Ġe ng
Ġke ep
m a
c ent
tic s
Ġis s
ard s
ĠG e
Ġp df
ĠC l
Ġman ag
Ġare a
Ġexperi ence
st and
e b
id ent
Ġli t
are d
ro l
Ġc er
Ġb re
Ġserv ices
Ġcon f
Ġpl an
er y
ĠC o
ĠN o
Ġo per
Ġor der
Ġdes ign
" <
it ch
Ġcl ass
ĠP DF
is sion
Ġwith out
Ġ tur
g et
Ġ ve
b all
Ġdi rect
lo y
r on
ine d
ra nd
i tion
Ġf riend
Ġm ark
ĠO n
E R
Ġdis c
Ġpo li
Ġp op
Ġs uc
Ġth ings
Ġp ower
Ġal ways
ĠR o
om en
Ġsi mp
Ġlit tle
ĠC an
at or
Ġcon tin
Ġg i
Ġd et
lo ad
ĠA ll
Ġp ay
Ġs ay
Ġon line
ri es
at ter
Ġhe ad
Ġm ust
Ġwe bs
ti l
Ġprogra m
1 2
b y
fi ed
Ġun i
at s
Ġs it
Ġv al
i ti
Ġg row
ĠR es
Ġlo w
ate ly
Ġf ac
Ġc ent
ĠE ng
enti al
ti ce
Ġle vel
Ġprov ide
ir d
od e
ĠUni versity
lec tion
Ġ es
i ties
Ġj o
ĠT o
Ġbe tter
Ġcom e
u ro
Ġpro per
Ġd ra
Ġimport ant
p i
Ġo ld
Ġs ig
Ġwith i
Ġwithi n
lish ed
Ġsi nce
I t
Ġne xt
Ġs ure
Ġs ol
Ġan other
Ġs ing
Ġpro ble
Ġde li
ri d
Ġo pp
ĠP ar
our s
Ġinc re
Ġqu es
Ġop en
ent ly
ĠS e
Ġg ame
Ġre st
Ġpub lic
ĠU S
Ġf act
ĠB l
b r
Ġh ist
Ġdo c
el f
Ġre f
Ġde p
> |
z ed
is ter
> âĢ
Ġs ite
ĠD i
Ġl aw
Ġ ver
en cy
Ġge ner
3 0
: <
Ġre se
Ġwi n
Ġp hoto
Ġcur rent
Ġ1 5
Ġh ard
Ġab le
Ġb ig
ĠM ay
al es
ot e
um p
w w
n y
uc k
a f
ĠAmeric an
as ter
en se
ro om
Ġb as
Ġd ays
.. .<
ri b
Ġsp e
Ġsome thing
Ġg ive
ĠW or
Ġa ir
Ġro om
Ġn ame
Ġb ro
s ing
Ġrec ord
ĠC ar
i ning
fer ences
u ts
Ġvi ew
or ies
Ġpr ac
Ġ est
Ġcons ider
i ons
Ġs k
i or
ain s
Ġad dition
Ġl ess
Ġagain st
Ġman ual
Ġse ver
op e
Ġne ver
Ġlar ge
Ġlo t
Ġp ut
Ġwee k
Ġmi ght
Ġmo d
Ġdes ig
th ers
1 5
as es
Ġf our
Ġpo si
ĠO r
Ġ tal
ĠP ri
Ġun til
I N
ou ght
Ġrese arch
Ġh ouse
ĠUn ited
g er
d ing
g ed
ic i
ĠT r
ĠF i
Ġst ate
em s
pp ing
I f
t es
Ġwor king
Ġo ri
Ġ19 8
Ġa ff
Ġwebs ite
vern ment
Ġ Â
p ar
ĠW ith
Ġf ur
Ġ /
i ns
Ġloc al
ĠD ec
Ġchild ren
Ġapp lic
ec tion
Ġqu ality
le y
ĠâĢ ĺ
ap er
ĠâĢ Ķ
1 1
Ġev ent
gh ts
ĠB o
y le
ort un
Ġg ot
illi on
th or
m b
ĠS u
Ġd em
Ġprof ession
Ġf ood
ĠA t
Ġb ased
or m
j oy
ĠP e
Ġco ver
Ġm aking
ge ther
Ġst re
p ort
w h
l s
Ġal ong
ul ts
ĠD is
Ġpres ent
ĠS c
Ġstud ents
Ġne ar
ide o
iv id
Ġto day
. ,
v al
Ġ201 7
ne t
Ġg roup
Ġh um
Ġsuc cess
> "
1 6
Ġac cess
Ġcomple te
Ġin t
Ġm et
Ġpro m
amp le
Ġ1 6
f ect
aj or
1 7
Ġwor ks
Ġ1 7
ac es
Ġ3 0
Ġm en
ĠCom m
ĠJ oh
Ġse ason
Ġproduc ts
p o
Ġloo king
Ġchang e
Ġex ce
lec tr
g o
pp ed
k ed
un ch
ai ned
n ks
Ġb lo
Ġc ase
ĠG u
Ġimp ro
Ġbe lie
Ġo w
Ġpro ject
Ġmark et
ĠR ep
id s
Ġw he
vi ous
Ġorgan iz
Ġan n
o f
no logy
ount y
Ġunder stand
ect ed
ab ility
ward s
Ġ [
s p
Ġcon ne
h a
Ġpo int
ab ly
Ġof ten
Ġl and
Ġb oo
me nd
Y ou
ate g
Ġfe el
v ir
Ġre tur
Ġser ies
l or
Ġp ass
Ġ1 1
oc us
li n
Ġmo ney
ill s
Ġpro t
ra li
Ġ201 9
Ġle g
Ġinclud e
O N
ĠM e
ĠJ an
Ġa way
Ġre al
Ġcour se
ur s
Ġmus ic
Ġmem bers
ac y
Ġknow n
m y
a ff
ĠS chool
Ġsever al
Ġm ater
Ġcont rol
ĠWh en
ut es
ĠS y
Ġw rit
ul ti
Ġo cc
2 00
r al
E S
Ġl ater
l er
Ġre view
Ġcon st
Ġneed s
Ġto gether
Ġresp on
ĠD o
Ġti mes
E x
Ġst ar
Ġed uc
Re ferences
gi on
iv ing
t reat
Ġha ving
A T
1 4
Ġ201 6
Ġde v
Ġc ri
ĠM y
ĠT ra
Ġcommun ity
Ġli ght
ail s
Ġre le
Ġ tre
Ġ1 4
le ge
Ġcus tom
Ġ X
Ġth ough
ĠM ed
Ġeas y
li ght
Ġs ide
an ces
at ures
Ġat t
con om
ure d
Ġvis it
vir on
ĠS outh
ĠCom p
Ġind ivid
Ġc ity
Ġen joy
A R
ap e
Ġfo ot
Ġc ou
ul ation
ro p
Ġemp loy
ĠA c
is ts
ri ght
ĠS erv
ĠS i
Ġg l
b i
ĠP o
Ġm ain
Ġcall ed
Ġle t
Ġmo ve
Ġle ft
c l
ep t
Ġte ach
Ġwor d
ĠS te
Ġdevelop ment
á Ħ
á ħ
est ed
Ġrep ort
Ġ19 7
th od
Ġ tem
Ġpos sible
ac hi
Ġ enter
ĠD es
Ġbe ne
Ġbec ome
A N
ĠG od
on y
is m
om es
am s
ĠA pp
Ġ #
Ġn on
u ary
1 3
ĠSt ates
ti me
Ġm ajor
/ /
Ġf lo
ĠTh at
ĠE n
ĠN e
o ice
Ġwh y
ĠWor ld
Ġfil m
ĠT e
r ont
Ġi d
Ġfollow ing
Ġw ar
Ġ ,
Ġcre ate
Ġ201 5
ic ally
n am
ĠE uro
f y
Ġco st
al f
ĠWh at
Ġf ocus
Ġb ody
Ġ treat
g es
u ng
ow s
u tions
Ġp age
Ġli ve
Ġ1 3
ro duc
Ġw on
Ġk ind
ack s
w e
Ġf ore
ord ing
il t
ur ity
Ġp ast
Ġv ol
Ì Ī
e f
A s
Ġchar ac
, âĢĿ
is ed
i re
âĢ Ķ
ĠC ity
er m
ut ure
ar ing
ra y
Ġp ot
re w
us try
: //
m ber
hi le
au ti
ĠO ur
ĠG o
Ġst ory
i er
ĠA ss
Ġh ot
tr act
Ġear ly
oc k
ĠN ational
st er
Ġd ist
ni a
an ies
Ġo thers
m ing
re t
pri l
>âĢ ľ
r ist
iv ed
nd s
viron ment
ĠTh ese
Ġw omen
Ġspeci fic
Ġan al
an ks
art ment
Ġp ati
b ook
res ent
Ġdo ne
um ent
Ġme ans
Ġm akes
Ġf ar
Ġproduc t
ĠB ar
b al
ir th
fer ence
Ġth ing
lic k
ĠN ot
Ġcoun try
ner gy
Ġper fect
, "
read y
O C
ĠF eb
e ad
p es
Ġf und
b ility
ri ting
le ment
Ġeng ine
Ġche ck
! !
O R
Ġso cial
Ġe t
Ġde f
p os
c to
a pp
Ġe ver
ir c
al k
Ġke y
Ġh old
Ġf av
Ġac ross
Ġgo vernment
ĠA ug
s ed
Ġv ideo
i od
Ġplay ers
s c
id d
s w
. âĢĿ
j ects
Ġme an
Ġrequi re
ti re
Ġs im
ĠA ust
ki n
ĠY ork
ĠC ounty
Ġqu ick
ĠIn ter
Ġf am
er ing
Ġest ab
Ġopp ortun
Ġ201 4
ĠN orth
Ġpr ice
Ġinv ol
Ġc al
our ce
a us
ĠM arch
Ġs hi
Ġc amp
Ġ ent
S t
Ġen ough
ĠHow ever
ng th
i ther
Ġcont act
Ġsing le
or ing
Ġstart ed
b ed
cto ber
Ġ2 4
' re
ĠO ne
Ġn ight
Ġcer tain
an a
Ġj ob
Ġr is
Ġm ulti
Ġbuild ing
ub lic
Ġal ready
Ġapp ear
Ġfi eld
um e
F or
Ġperson al
ĠB ri
ept ember
Ġto ok
Ġ19 6
ĠJoh n
Ġbu y
Ġp urch
Ġhist ory
Ġcom es
Ġ1 00
Ġspeci al
Ġgu ide
i ous
Ġex ample
Ġ z
Ġb ed
Ġpartic ular
i ble
Ġsp ace
one d
Ġbe low
ang u
Ġc r
our ces
Ġs um
v ent
ĠEuro pe
Ġe l
ĠW ar
u f
Ġstud y
ĠA pril
Ġyou ng
Ġcus to
Ġb it
ruc t
Ġ2 5
Ġd ue
ch ed
Ġp ain
id ed
ĠY our
ri ed
Ġget ting
Ġen s
ĠQ u
es ts
' m
Ġb ar
C h
Ġar ti
Ġs ci
2 5
Ġa w
om an
u ff
ull y
il le
Ġra nge
Ġf uture
Ġto ol
a tic
Ġtr y
ru ary
Ġa ge
ĠJan uary
Wh at
ĠSt ate
n ot
an c
u ed
Ġar tic
Ġw r
Ġle ast
ĠJu ne
Ġ201 3
Ġst ep
Ġau thor
Ġsh are
ur ance
ĠV i
Ġon ce
ĠA fter
i nts
Ġcomp anies
Ġen c
Ġb log
Ġcle ar
Ġ ess
Ġind ustry
at ural
Ġh ours
Ġc ame
a fe
m ost
Ġsu per
oo se
ove mber
Ġs ays
Ġfin ish
u ter
Ġse arch
ĠH igh
ab or
Ġb i
ĠIn s
ad a
ce pt
le x
om mend
n ation
Ġm illion
lect ed
Ġclo se
Ġgi ven
ting s
i um
Ġs ong
Ġst at
ĠA m
t as
Ġbe gin
Ġver sion
ĠP er
ĠC he
t able
Ġdo ing
Ġli nks
. "<
Ġe conom
Ġcon cer
Ġmonth s
ĠS eptember
A S
Ġre ach
Ġsh o
Ġper iod
ĠO ctober
Ġid enti
Ġm aint
at t
ll ed
tw are
auti ful
Ġfe atures
Ġme thod
ke ts
Ġl a
t our
Ġres ult
ili t
ter nal
ap s
E N
Ġf re
Ġ er
Ġpri v
Ġfriend s
Ġp ack
Ġde b
b um
Ġm ag
Ġb ring
t ax
Ġ201 2
Ġso f
ak en
ĠS ec
ag ue
H ow
Ġg ames
ĠH er
Ġbene f
Ġe lectr
Ġstr ong
Ġprofession al
Ġadd ress
ĠJu ly
Ġres ults
ili ties
Ġp ict
ĠA b
Ġst e
ti sh
Ġoff ers
y c
Ġab ove
Ġact ually
u le
um b
ĠC or
Ġval ue
ac tion
t aking
ni fic
gi nal
Ġ tour
Ġdown load
e le
Ġ* <
ter m
- -
f ully
Ġtra ining
o nder
du ce
os p
H e
Ġwi nd
Ġcomm on
4 0
Ġinst all
Ġs ound
p eci
Ġfi ve
Ġvari ous
A L
th ough
n c
ine s
el ling
d o
om i
Ġre ason
' ve
Ġmanag ement
Ġty pe
ne l
Ġtech nology
Ġdisc us
Ġde ath
Ġli ving
Ġne tw
Ġhum an
Ġc ult
Ġrec ommend
Ġ tax
ruc tion
an cial
v ision
tr ict
Ġb irth
led ge
ĠA f
Ġth ought
ec e
Ġproble m
id ence
Ġm om
ĠAust rali
b ack
Ġst ra
Ġp ress
Ġst yle
Ġf ra
l u
Ġb rand
ĠN ovember
E D
Ġam ong
ĠFeb ruary
Ġch alle
ĠH ar
I S
ĠAug ust
Ġw ent
Ġen vironment
Ġmin utes
O n
Ġdid n
pp er
ĠP re
ĠDec ember
ĠC ent
ĠCh ris
iv es
pl ay
Ġcont ent
I T
Ġrel ations
Ġ :
Ġ tas
Ġwe b
t est
Ġp lease
Ġbec ame
at ors
Ġacc ount
Ġmi nd
Ġe y
2 1
Ġare as
Th ere
uf act
ĠP ark
ch ie
ac ed
Ġinv est
ch es
Ġc red
ĠM o
Ġsi ze
ĠS w
Ġques tions
ĠH is
Ġlear n
Ġge ne
as tic
Ġme e
Ġth ird
id es
Ġst ay
Ġc ount
Ġan sw
Ġcl ai
fic ation
il ar
ĠMi n
Ġproper ty
Ġw atch
.. ..
Ġcomp e
Ġde al
si a
Ġp ur
ti g
res h
' ll
Ġiss ues
Ġbre ak
Ġc ard
Ġmo der
ati s
Ġb r
Ġm atch
Ġloc ated
I C
Ġtra vel
av ing
Ġmed ia
k y
Ġoff ice
k a
Ġ5 0
graph y
Ġy et
Ġm ember
Ġcle an
Ġpartic ip
p ris
Ġevery thing
Ġ table
re am
i ly
Ġperform ance
Ġ x
au gh
Ġg r
Ġw all
Ġw riting
ĠS ome
d es
as ing
2 2
ke ting
Ġa ud
ed er
Ġfur ther
am b
ĠR i
ĠA ir
f ort
res sion
Ġte ll
co ver
g ing
lic y
Ġoff ic
fi n
ĠD ep
ĠB y
Ġar t
t a
Ġdoes n
nd ing
ĠM c
Ġf it
Ġprovid es
ĠW est
Ġd ig
ĠR ec
Ġcustom ers
o int
Ġbl ack
ĠC oun
Ġup d
u ri
Ġ201 1
ci ation
ĠSt ud
and s
Ġre qu
Ġeff ective
ic ro
p ro
an i
ang e
Ġhe ld
Ġimpro ve
ĠP res
tiv ity
Ġre li
Ġrequi red
A C
w ork
ĠA g
Ġse en
it es
ĠC ont
Ġappro ach
Ġsimp le
Ġ201 0
Ġg lo
Ġwho le
tern ational
ĠP h
il es
ther n
o v
Ġph ys
ir t
h ic
ĠT w
Ġh y
m m
ol ution
Ġev ents
Ġo uts
Ġ ten
r or
h am
Ġ taking
Ġwh ite
s m
Ġe le
Ġph one
ĠCh rist
ĠW i
Ġe nergy
A l
ĠIn c
Ġme as
Ġp aper
te e
Ġrece ived
en sive
ad em
Ġal bum
Ġin iti
Ġh alf
op y
Ġpro b
ĠF ran
Ġf low
Ġbe autiful
Ġf ront
ĠD OC
ci es
ĠB u
ur g
Ġbu ilt
Ġe ither
Ġsi x
s y
ĠT i
Ġc ut
Ġdesig ned
lo t
Ġcre ated
no v
Ġrep l
ĠS to
Ġm ess
Ġwi de
en ing
i als
peci ally
Ġd am
Ġm or
Ġsu gg
t aken
Ġfe e
Ġide a
c il
Ġsome one
Ġori ginal
Ġem ail
Ġen tire
Ġuni que
Ġpop ular
ĠH ome
Ġprovid ed
ra i
Ġinclud es
ĠS er
Ġe qu
Ġwhe ther
ĠM on
Ġc ra
Ġh ope
ent al
Ġinter n
Ġsystem s
" ,
ĠE d
Ġide as
l li
Ġhe art
Ġsig nific
6 0
Ġpre vious
Ġe qui
Ġw onder
hi ps
Ġnew s
ĠH ouse
u ation
S o
Ġro ad
ĠCh ar
ab les
Ġfe ature
li g
Ġj our
Ġf ace
angu age
Ġc irc
Ġc ell
R E
g est
Ġst aff
c he
lo s
ĠK e
Ġm achi
ir m
Ġass ist
ci p
Ġcare er
Ġcharac ter
a ur
Ġas so
i tions
g round
Ġp are
ain ing
2 4
ĠM us
ear ch
Ġhow ever
Ġs elf
row n
Ġfoot ball
ond on
Wh en
Ġcomm it
f ace
o logy
Ġag o
Ġfun ction
Ġpar ty
sel ves
rid ge
Ġeduc ation
Ġd ou
n king
uc t
a e
for d
. "
Ġrep air
ut y
Ġrep resent
m en
Ġo il
Ġpri n
Ġp ort
Ġa chie
t ar
itch en
it or
Ġann oun
u x
an ced
C om
tend ed
ĠK ing
vi ties
Ġfor mer
Ġro le
ver age
Ġ test
Ġes pecially
Ġbelie ve
Ġfi nal
n it
Ġtr ack
c ome
ou ch
Ġinclud ed
le t
ĠC enter
Ġsof tware
b or
tim es
Ġper cent
2 3
Ġboo ks
Ġam ount
Ġ ...
Ġ taken
ĠAf ric
u ge
ĠEng lish
ul es
Ġneed ed
g le
tt p
Ġadd ed
Ġre gion
Ġsp ec
ar a
re g
ti vities
Ġfav or
Ġs ign
ho ld
Ġal most
ĠB ro
Ġn atural
ren ch
ĠS an
Ġfi les
Ġposi tion
s er
at ur
am ed
Ġne cess
Ġar ch
ep end
8 0
g s
Ġcol or
Ġproble ms
Ġmi ni
Ġbo x
ti li
Ġcommun ic
m as
os ed
tion al
ĠD ay
Ġsim ilar
am er
Ġques tion
Ġintern ational
Ġmod el
Ġqu ite
Ġ2 1
Ġac com
Ġrele ased
Ġus er
as i
es ting
Ġgener al
Ġread ing
Ġtra dition
ci ety
Ġdi ffic
hi nd
ĠIn ternational
Ġab s
log ical
ĠMan ag
Ġreg ard
ĠL ondon
Ġsimp ly
Ġm iss
Ġw ood
Ġve hic
az ing
he ad
ĠR us
Ġpo ints
Ġto tal
Ġman ufact
ali ng
Ġre d
Ġg ir
Ġplay ed
Ġet c
Ġtur n
Ġch oose
Ġknow ledge
Ġp as
Ġevery one
ĠFi n
Ġli nk
Ġsignific ant
Ġany thing
v ille
Ġthrough out
v is
Ġ rou
op h
m ission
T o
Ġsec urity
Ġfin ancial
Ġprac tice
ti ne
Ġan im
ĠO f
Ġme et
n ical
o id
Ġc aus
ner al
ĠG ra
ĠT H
Ġs ent
ĠH o
am a
ĠT ech
Ġw ays
Ġens ure
Ġiss ue
Ġcusto mer
Ġmoder n
si an
Ġrec og
Ġb ad
Ġte xt
Ġproduc tion
med i
Ġop tions
to p
ĠF o
Ġ tes
Ġ19 4
9 9
U S
Ġsp end
Ġapplic ation
Ġp ric
ber t
Ġbe gan
s on
Ġau tom
A nd
ĠP hi
Ġchang es
Ġb al
Ġinter est
Ġto wn
Ġyour self
Ġd ate
re et
t akes
Ġs al
Ġdet ails
ĠJ o
ed s
Ġst ruct
Ġte le
Ġv ia
li es
Ġb ot
ten tion
Ġra ther
Ġcom b
idd le
af ety
iz ed
p ment
ĠI I
ai ly
av y
Ġreg ular
wh ere
Ġg round
Ġse em
ĠD on
Ġlear ning
w ood
Ġp ick
Ġ200 9
Ġexp l
Ġfam ili
Ġex tra
ĠJ ap
Ġtr u
Ġpriv ate
Ġdeli ver
Ġlike ly
ĠO ff
ĠC ons
Ġli m
ke y
ou d
ce p
ys is
ak er
u als
Ġac tion
as hi
Ġso on
at ory
m on
ĠC ali
ĠD r
o ver
Ġfi re
hi b
ud e
Ġus ually
Ġ takes
Ġ round
Ġrece ive
m ary
Ġin j
ĠP i
ĠHe alth
Ġpub lished
or ge
Ġcurrent ly
Ġl ay
B e
Ġfor ward
st r
ĠAmeric a
Ġ2 3
one s
Ġouts ide
Ġcl ub
ĠU K
Ġshow s
Ġd u
ĠM ore
op s
ĠA u
l a
Ġtreat ment
ĠN or
ist ration
ĠBl ack
Ġco ll
Ġ2 2
Ġwork ed
Ġindivid ual
Ġi ll
Ġn ational
ti an
oo gle
Ġcont rib
at est
li ke
en ced
er c
z ation
ĠAss o
Ġf all
a ul
Ġan ti
Ġre ali
ĠCol lege
at form
Ġincre ase
Ġcons um
Ġcompe ti
ĠD av
Ġcom fort
Ġ4 0
Ġins urance
Ġwrit ten
Ġad min
ĠS ci
Ġ200 8
Ġlo ss
Ġac tivities
li ed
ĠInd ia
Ġst ri
Ġcom ing
amp ions
Ġs en
ĠB er
g r
ab y
Ġhigh er
igh ts
Ġwant ed
k er
Ġr ate
Ġartic le
k et
for nia
Ex ternal
Ġb ase
Ġ Ð
Ġl ate
Ġs ales
is ting
Ġde pe
Ġup on
ail ed
ou ra
A M
Ġe p
ver se
li er
Ġprob ably
Ġaddition al
c ol
Ġbe hind
Ġel se
s es
Ġs afe
Ġpar ts
O S
Ġm atter
" .
Ġread y
Ġrun ning
er man
Ġsto re
ĠBri tish
Ġh ost
ĠO p
ec u
air s
ĠF rom
al d
Ġword s
Ġ19 5
Ġim age
ĠA re
Ġp ers
el t
Ġin te
rou ps
Ġtr ying
at tle
Ġde g
Ġex c
Ġs le
Ġ tar
Ġo ption
i ni
Ġretur n
tr ac
Ġtr ue
Ġmi x
ĠS ch
A d
Ġapp e
Ġcli ents
Ġcontin ue
Ġk ids
u el
Ġs kin
Ġs qu
Ġstand ard
Ġopportun ity
Ġins ide
a it
si tion
Ġres id
Ġsk ills
fi eld
ĠB ra
Ġacc ording
u ne
ct or
Ġus ers
ci ous
Ġlong er
ag s
Ġnetw ork
Ġar ri
Ġto ld
Ġa p
Ġmo vi
Ġpre t
Ġdra w
ww w
Ġhapp y
Ġris k
i ence
O T
Ġf ast
Ġcomp uter
c tions
Ġrel ated
ĠC our
Ġpro jects
y ear
Ġpo licy
ut ed
ir it
Ġint roduc
Ġn ice
Ġmed ical
Ġwee ks
ĠR ed
Ġpri or
S h
Ġbo ard
z ing
bo ard
av es
ĠRe g
Ġit ems
Ġlead ers
Ġre duc
7 0
Ġasso ci
Ġpre p
Ġcan not
Ġsu bs
Ġc ele
vi n
Ġdri ve
Ġb ri
ĠA ng
Ġli ves
Ġsc reen
Ġexp lo
rai n
as ons
Ġg re
Ġso ld
Ġag re
Ġb orn
Ġgrow th
ly ing
ĠM ark
Ġpot ential
li d
ali st
Ġle ave
ar ies
Ġb ath
ash ing
ĠN ow
Ġmater ial
u k
ĠL a
mer cial
Ġpret ty
c ks
19 9
Ġfi g
z z
Ġloc ation
ord s
b ased
Ġb and
Ġv ill
tit ute
Ġcol lection
Ġc ode
Ġla unch
Ġcred it
Ġ2 8
or age
Ġind ic
Ġc enter
ic tion
ĠL aw
3 5
ĠW illi
ĠU p
Ġstud ent
Ġp at
Ġse par
es tern
cl us
ĠCali fornia
P ro
r ance
r as
n ter
Ġlo st
Ġmo b
or ting
Ġmar keting
Ġas k
ag ing
ĠComm un
em i
Ġvari ety
ra m
ĠM r
Ġter ms
ard en
ĠChi na
e es
2 6
ĠServ ice
ll ent
A n
h ood
Ġsto p
Ġw ish
Ġrec ent
Ġin ves
p re
Ġ2 6
i ent
Ġins pi
Ġch urch
ĠSt reet
ĠT V
Ġs ale
Ġc ross
ĠA cc
Ġri ghts
Ġc and
is ing
Ġis n
Ġlead ing
Ġs ched
p ose
O U
Ġch oice
Ġh air
Ġs un
Ġcon tract
ilit ary
ll er
Ġsum mer
ll s
2 8
y l
ĠW ind
Ġexp ect
Ġeas ily
Ġestab lished
Ġh it
Ġb us
E C
Ġgo al
ac ing
Ġre fer
Ġwor th
land s
ĠE ast
Ġlow er
Ġhe ar
Ġcond itions
O M
Ġrecog ni
use um
Ġ200 7
on ic
Ġimp act
Ġam azing
Ġo bs
ot t
2 7
Ġhist or
Ġcou ple
Ġ +
Ġl ed
Ġprogra ms
ad es
Ġquick ly
Ġ2 7
ra ft
Ġg roups
Ġn orm
Ġra di
O ur
Ġa li
Ġex act
Ġdis play
Ġansw er
Ġde fe
Ġc ook
Ġmater ials
Ġl atest
ĠG roup
A ll
Ġl anguage
Ġre ci
Ġl ab
ĠPres ident
Ġpl atform
I D
Ġde ep
Ġallow s
i b
ĠW hile
ati ves
ic o
Ġim m
Ġinvol ved
Ġs ave
Ġplay er
Ġfi ne
M y
Ġas ked
ed ding
E T
Ġqu ali
Ġc ause
ore d
Ġconne ct
ĠInd ian
ĠF e
ĠP ost
Ġno thing
omi n
Ġequi pment
ĠV e
Ġwe ight
Ġsol ution
Ġdo or
Ġn amed
Ġsub ject
d en
ĠIn st
Ġre lease
Ġed ition
Ġcount ries
ĠP lease
Ġp le
Ġa verage
Ġs aw
um ents
line s
Ġserv ed
Ġpoli tical
IN G
Ġplay ing
Ġde term
Ġprovid ing
ĠF irst
Ġf ish
Ġpati ents
ar ter
Ġmee ting
m o
Ġpl ans
B ut
Ġinst ead
Ġany one
Ġs on
z es
Ġb ur
ĠDi rect
k es
A t
Ġrec ently
Ġk itchen
Ġc ases
Ġat tem
oo ks
Ġse ems
ĠF rench
ve y
Ġab ility
t ail
Ġcent ury
2 9
Ġits elf
Ġf resh
Ġa ward
ĠServ ices
ĠAustrali a
br ary
á Ĩ
re st
fin ite
ĠT ur
ar an
Ġgo ld
Ì Ĥ
ĠB est
Ġnecess ary
Ġpurch ase
Ġty pes
Ġm id
4 5
Ġpl ant
Ġpri nt
ĠE ar
Ġtal k
d y
ĠCan ada
Ġloo ks
al y
ĠM or
ĠComp any
d om
Ġsec tion
Ġdis cover
Ġs ource
Ġdec ision
Ġh or
ill ed
Ġinf lu
Ġmulti ple
ĠF ree
Ġb ud
Ġdevelop ed
W ith
Ġchalle ng
Ġad j
A r
id a
Ġdis e
b an
Ġdig ital
oun ts
Ġlevel s
Ġeff ici
Ġco sts
Ġac tive
ist ory
es tiv
he l
Ġs ou
er ous
Ġim medi
ag ed
Ġmor ning
ĠB usiness
Ġrem ember
ĠM ag
ĠG l
ot or
h er
Ġdiffic ult
Ġdoc ument
Ġsol utions
Ġrem o
t ouch
b and
ĠTr ans
ed ic
an ti
Ġex tre
Ġconsider ed
Ġdec ided
o ff
E L
i ting
a to
ress ed
Ġhigh ly
qu es
Ġco ach
Ġpop ulation
Ġwr ite
Ġw al
ĠP ort
Ġe li
ĠCh urch
Ġtool s
Ġu nd
Ġmob ile
ĠT er
ĠSy stem
Ġe mer
ll y
er ve
ĠH ere
Ġm ount
Ġmom ent
Ġs ense
g en
w i
ĠLe ague
ra ng
sion s
A P
om ing
Ġp ath
Ġthem selves
ĠT ri
Ġs outh
b orn
Ġh ous
Ġter m
Ġcamp ai
ĠDep artment
ub e
I L
Ġ200 6
Ġpl aces
a el
Ġflo or
gra m
Ġsh all
ĠNew s
sy ch
Ġfee ling
eder al
Ġ =
Ġorganiz ation
ot es
3 3
Ġ- -
ol f
Ġli c
erv ed
it ect
to wn
g u
meric an
se qu
ver ti
e th
Ġbro ad
Ġdi re
A fter
ĠRo ad
ĠM od
is es
o x
Ð µ
Ġconst ruction
es ter
Ġcomple x
ect or
i f
Ġres ources
Ġdist rib
Ġpare nts
ĠL o
Ġim ages
Ġs il
rou ght
Ġ .<
w are
Ġs afety
Ġdev ice
Ġg iving
ag o
nit ure
Ġleg al
ĠEurope an
ĠF ri
ĠA ct
Ġc lick
Ġfavor ite
am ent
Ġg reen
Ġdirect ly
Ġw alk
Ġ touch
g ar
Ġ2 9
st on
Ġfi x
Ġow ners
Ġenc oura
Ġg ives
ĠRi ver
Ġch ance
Ġfe ed
Ġd aily
Ġg en
a res
ĠE l
Ġsw e
= "
N ew
or ks
v an
_ _
er t
ĠP at
ĠG reat
Ġtradition al
Ġbenef its
Ġp red
Ġsit es
Ð ¾
c ast
ĠS en
S ee
ecu tive
Ġsuccess ful
ha vi
Ġp en
ĠI N
Ġone s
Ġcon ven
ech an
Ġapp oint
ĠH ot
ĠF ace
l am
Ġanal ysis
ĠWh ite
ĠG old
Ġhand s
ĠC le
ĠCoun cil
ĠRe ad
Ġat tend
Ġti tle
Ġty p
ent y
tim ate
Ġst ation
Ġglo bal
? ?
Ġcom ment
ĠC ap
z er
Ġat tention
ĠJ e
3 6
Ġeff ect
Ġexce llent
el come
7 5
is try
Ġreg ister
Ġpi ece
Ġs li
Ġli ter
tit ution
C on
si bility
Ġse nd
ĠG oogle
ĠY ear
Ġtech ni
augh ter
k now
Ġs ession
B C
ĠT im
e k
Ġdec or
Ġmachi ne
ĠA N
r ac
Ġcer ti
Ġu tili
ĠÂ £
Ġse x
Ġc ool
i ed
i ans
Ġg ar
ĠAr ch
Ġj ud
Ġgl ass
Ġ6 0
u it
y ond
Ġspe ak
ĠO ut
Ġto wards
Ġs low
Ġmo ther
Ġmo ved
ĠChrist mas
Ġh uge
l ation
ĠAsso ciation
Ġposi tive
Ġlim ited
ĠG reen
Ġd ru
Ġs us
Ġex ten
Ġplan ning
P ost
Ġgo es
Ġc oo
Ġrest aur
si b
N o
Ġn or
Ġapplic ations
m ark
Ġ ul
Ġinves tig
A D
ord i
Ġfull y
Ġind epend
Ġn ature
mi th
v a
Ġschool s
S p
z y
to ne
3 9
S T
Ġextre me
Ġ â
ĠCl ub
Ġsci ence
w ise
ro te
ir ing
ĠS m
Ġfil ms
ĠJ er
l ling
osp ital
and er
Ġcult ure
Ġm er
Ġg ri
a ult
p ut
Ġsome times
Ġm is
Ġcomplete ly
c ing
Ġspe ed
ĠP en
Ġg ave
ĠDis trict
Ġa ng
ĠAr t
ru it
Ġh oli
Ġin nov
or g
Ġf ather
d ers
ord er
8 8
Ġser ious
Ġm ax
d ed
Ġdi v
ti s
Ġcon c
Ġtri p
Ġachie ve
Ġhel ps
is on
ĠSu per
Ġreport ed
L i
Ġsu it
Ġannoun ced
ĠN et
Ġst age
ĠDav id
ĠM ost
od es
ĠPro duc
Ġinter esting
Ġori gin
Ġmy self
ashing ton
c le
Ġphoto s
Ġrelations hip
Ġcond ition
por ary
a vi
Ġestab lish
ari ly
ĠPro f
O ne
Ġpric es
Ġpict ure
ul ations
ĠJ es
O L
m od
ĠD em
p ite
ĠS und
Ġne igh
ĠGe neral
Ġgra du
Ġpro g
Ġst orage
le g
ane se
o ts
Ġsur pris
n os
Ġpro pos
Ġtrans fer
h aps
Ġin form
ĠN i
Ġn ation
Ġrequire ments
Ġre nt
ĠT ex
k en
n ic
as si
Ġpart ners
ne se
Ġstud ies
ĠM ac
Ġatt ack
ul ated
ich ael
Ġcomple ted
f ts
Ġcol lege
Ġstre ngth
Ġstar ting
an cy
Ġd ro
ĠEng land
Ġd el
ri al
hi re
ine r
Ġd ark
Ġre ve
ĠS um
b u
ĠPl ay
3 4
res sive
Ġsto ck
o ke
ot a
Ġteam s
Ġcre ating
Ð °
Ġm as
finite ly
Ġus es
Ġphys ical
I ON
> (
Ġdescri bed
9 0
ol es
Ġb ank
P e
P S
Ġn orth
au ght
Ġindivid uals
Ġto w
ĠJ ames
Ġst ories
Ġgo als
ly mp
Ġv ac
estiv al
Ġapp ly
D o
Ġdi ed
Ġc at
Ġfre qu
ĠE duc
se y
Ġprac tic
us ed
x im
Ġ tic
h ouse
Ġcon ver
Ġcom mercial
Ġ200 5
Ġf irm
Ġcar ry
Ġbegin ning
z a
P l
Ġinter view
an ish
ĠL et
ã ģ
Ġfamili es
em ents
ff ee
Ġvi ol
ĠB re
lo ne
Ġh i
Ġf ai
er n
Ġthi nking
Ġge ts
Ġtem per
Ġas p
m ar
Ġg as
Ġproduc ed
ĠE very
Ġspec ies
Ġal ter
Ġinter ested
Ġaw are
Ġcor rect
Ġrespon se
ĠRep ublic
Ġd ry
s et
Ġprom o
y n
ch ange
Ġs ce
Ġblo od
Ġac tivity
ĠI mp
Ġcour t
Ġvehic le
ĠG erman
L e
ĠM ount
li t
Ġlo ad
Ġblo ck
Ġse ven
Ġstr ateg
Ġp or
B y
>| -
b ra
Ġw arm
ĠJ ust
ĠLi fe
E O
ĠG et
m ate
ĠTh en
> -
ĠCour t
3 8
v ant
ĠS ing
th es
Ġc ab
Ġro ck
om b
Ġb all
Ġc ateg
cri ption
Ġh on
m ore
Ġav oid
Ġc amer
alle y
ili ng
ĠF lor
ĠS al
Ġmo ving
Ġ20 00
Ġw rote
ĠO ver
Ġwr ong
ke nd
ĠRes earch
Ġrequ est
ashi on
n ary
Ġpur pose
Ġst ates
amp les
ĠR oy
m ail
ĠDes ign
Ġun it
à ¤
Ġimp lement
Ġs n
ven ue
Ġ >
Ġw oman
Ġmess age
Ġtr ust
b on
Ġocc ur
Ġa im
Ġsp orts
Ġr ace
Ġdeg ree
Ġsh op
Ġexp ected
Ġwi fe
Ġas se
T M
Ġass ess
ã Ĥ
Ġunderstand ing
Ġh our
Ġmed ic
ĠW ashington
ti ves
Ġtra de
ĠG ood
Ġlar gest
Ì Ħ
3 7
u ra
mit ted
ĠSu pp
Ġgrow ing
lo ck
ĠM et
Ġcli ent
ĠL ou
, <
ĠR ich
Ġc opy
Ġbe havi
Ġoffic ial
ĠM al
b ody
iz e
it ation
r d
ree k
ĠM em
Ġh ar
Ġb rought
Ġemploy ees
Ġcons ist
Ġpost ed
ĠP M
Ġsp ent
Ġhe at
Ġfra me
1 00
atur day
Ġf elt
ate gy
Ġs l
do or
ĠFace book
Ġf arm
el ess
lec tions
w ide
Ġadv ant
por ate
ĠP aul
Ġbusiness es
Ġf ab
b ur
Ġsur round
Ġex erc
ĠSt ar
ĠCh ampions
un t
) :
Ġo pe
ĠA M
os s
ĠCl ass
6 5
ĠFri day
Ġsit uation
3 2
od ay
ce ed
Ġne g
Ġaccom p
ĠBo ard
Ġent ry
Ġm ilitary
Ġse ll
A merican
ĠAl so
ĠTH E
ous ly
ot ed
er ap
ad o
Ġphoto graph
on a
Ġpict ures
Ġsle ep
Ġmovi e
ra nge
gh ting
ven tion
p m
Ġ3 1
Ġlo g
Ġeconom ic
ol ute
F i
Ġh ttp
ĠB ook
Ġdi ag
Ġbl ue
ĠD iv
na tive
n ner
Ġdam age
Ġhim self
gi ns
ec es
Ġtar get
ĠB ay
Ġassoci ated
Ġex am
Ġeff ects
ali zed
ĠC al
ĠB ec
ari an
Ġno vel
ĠMus ic
ĠM ic
ant ly
ĠP hoto
ĠQ ue
ĠB ur
ie ld
Ġp ages
Ġpoli ce
y a
Ġdiffer ence
Ġm ission
ĠS ub
ĠM ary
Ġhealth y
ĠS hi
ĠV ol
Ġwonder ful
Ġanal y
Ġal though
] <
Ġm iles
Ġde ad
as ting
Ġ @
Ġmini m
oo th
Ġeff ort
Ġhot el
re l
Ġsp ot
ra w
Ġcand id
Ġstruct ure
Ġsh own
i nc
4 4
Ġpress ure
Ġd edic
D e
ĠPar ty
I s
asi no
Ġsp irit
Ġoffer ed
Ġgi ft
ĠDe velop
Ġre v
Ġf air
Ġind ust
ĠTh om
Ġser ve
ĠE mp
ĠR em
tt ps
Ġinvest ment
s tic
ĠOff ice
ĠF ore
Ġtrans port
Ġp aid
ĠB en
Ġopportun ities
ĠIs land
li st
fi le
Ġm at
Ġst uff
Ġsur vi
Ġb an
Ġsur face
ĠManag ement
ĠD ri
Ġac cept
Ġappro pri
Ġdo g
Ġp ane
Ġv o
ĠWe b
Ġey e
un k
ĠSp eci
al a
l ong
it ter
ĠL ake
Ġle ngth
ĠIns titute
Ġchang ed
N e
Ġinter net
Ġbas is
Ġcomp one
Ġnot e
Ġmean ing
Ì ĥ
ĠG erm
Ġfinish ed
E M
5 5
Ġover all
Ġm ass
ul a
ĠL ove
ĠS ur
Ġchar ge
Ġhigh est
Ġexact ly
er ed
Ġche m
Ġdou ble
ĠTh anks
ĠSund ay
Ġpre vent
ĠS tr
ĠTex as
Ġsci enti
Ġincre ased
Ð ¸
Ġ200 4
Ġbenef it
Ġex ist
el p
an o
Ġbas ic
ra b
' d
Ġb row
Ġen h
ĠC up
ĠC li
as ion
Ġw ait
Ġr an
ĠF l
ess or
ĠT y
Ġde finitely
Ġfin ally
I P
ĠAfric a
Ġm aster
Ġbe yond
Ġfe et
I G
Ġdirect or
ĠD own
g a
Ġapp re
Ġh omes
Ġrespon sible
er o
Ġpre mi
ĠG i
Ġtele vision
f ying
Ġtri ed
Ġline s
ĠL oc
Ġe at
Ġep is
Ġpro ced
Ġar g
Ġgir l
li ance
Ġdem on
Ġf em
un ic
Ġh o
al ed
th le
a uty
anc ing
se e
ad ian
ĠP ower
Ġad verti
Ġc yc
is ions
Ġdem and
Ġey es
Ġmax im
ĠPro gram
Ġsupp ly
Ġadv ice
om a
Ġim ag
ĠI S
ph one
Ġjo i
Ġb aby
Ġd en
Ġhe ard
Ġst y
ĠRe view
f o
Ġr ates
t or
ĠT op
ĠB i
Ġm echan
Ġch an
Ġfollow ed
ĠInter net
Ġjoi n
ĠF rance
Ġmod els
f it
Ġs atis
Ġparticular ly
Ġc ash
Ġsu ffer
Ġincre asing
Ġcoll abor
ĠB r
Ġdeli very
C C
ĠF ound
Ġem o
ĠGe orge
ĠA ward
Ġl ack
e ts
Ġp ool
ĠChris tian
ĠM any
Ġoffer ing
Ġcont ro
Ġf ail
Ġdise ase
il s
pl ace
Ġpre fer
ant a
Ġnum bers
ĠG re
Ġann ual
Ġvill age
Ġfur niture
ĠC are
ĠC ong
ĠS un
Ġdev ices
3 1
Ġem b
ĠM er
Ġbirth s
Ġp ush
Ġsm art
ĠP art
az ine
ĠP al
Ġwas n
Ġallow ed
Ġs av
ĠJ ew
log ies
Ġw edding
Ġsay ing
en ance
c a
o logical
ĠEng ine
ĠC re
Ġtur ned
ĠJes us
Ġregard ing
Ġh op
ĠE ven
Ġcampai gn
ri e
Ġgra nd
Ġreview s
und red
all ery
ĠÂ »
am ing
ĠW ater
Ġs ch
Ġinc ome
Ġope ned
cri pt
Ġset ting
Ġmeas ure
Ġm iddle
Ġmet al
ĠWind ows
Ġev idence
ĠP ublic
ĠBl ue
al og
as ts
Ġp aint
for ce
ll a
Ġd er
Ġm icro
ul f
Ġlo ved
ĠS aturday
Ġint el
T S
iv il
Â ®
Ġimmedi ately
h op
Ġcons ult
b our
ac ement
is c
Ġr ules
ali d
ĠI m
Ġb io
Ġhapp en
as y
ĠC ur
Ġth ous
ĠP oli
Ġre duce
ĠD el
Ġcontin ued
ĠC amp
Ġresp ond
Ġexperi enced
ac he
ĠM ex
Ġex isting
c are
ĠO b
ĠEduc ation
Ġmethod s
ĠH all
Ġback ground
Ġarch itect
Ì Ģ
Ġbud get
ide os
L E
um an
ap ter
I M
Ġ ur
Ġpro duce
Ġwe ather
ami n
Ġbed room
Ġelectr ic
ĠChi nese
ac ity
h y
Ġpri mary
Ġdis trict
Ġcre ative
Ġbe ach
ĠFlor ida
Ġfor ce
ĠW he
ali sts
ap ers
Ġest ate
no ther
ĠSci ence
Ġexp and
Ġd ress
19 8
Ġs hip
ĠP ress
Ġwi ld
Ġaff ord
ĠV ir
ĠAc adem
Ġst ress
ond ay
G e
ĠV al
ĠS ee
e ned
Ġlist ed
y er
ĠM ad
Ġh us
Ġprot ection
ound s
ĠH y
ber g
Ġeas ier
ĠM ichael
ĠB ank
Ġcap t
Ġnear ly
Ġhelp ed
ĠI nt
ĠO ther
Ġb le
ĠL it
Ġau th
Ġess ential
0 1
te xt
9 5
ĠW ood
Ġle tter
Ġcertain ly
ĠCent ral
are nt
Ġmove ment
Ġpl us
il ling
i x
t ro
Ġuse ful
Ġc ards
is tic
Ġcontin u
Ġh one
Ġac adem
Ġwho se
4 8
ĠE v
cent ury
Ġjo ined
Ġwee kend
ĠG rand
ĠIs ra
Ġlo ts
en cies
ac i
Ġgu aran
Th at
Ġtru ly
Ġf ant
ĠH am
ut ri
t ree
Ġear lier
Ġacc ur
Ġre asons
ĠB ig
Ġstra ight
b it
Ġas si
Ġco ld
Ġ200 3
ali an
Ġd aughter
ĠAn y
ic a
Ġn ar
s ide
ari o
ell ow
ĠSo ciety
Ġlar ger
p ed
Ġinte gr
Ġwind ow
clus ive
Ġ áĦ
ran ch
Ġthan ks
us tice
Ġper m
ĠT our
Ġsong s
Ġp sych
ĠGerm any
um s
Ġse lection
ec ting
Ġpe ace
ĠT om
Ġclai m
>âĢ ¢
ĠChi ld
P h
Ġgener ally
erv ation
Ġgra ph
I V
ad s
Ġpower ful
Ġprot ect
ĠB as
iti z
ĠPl an
Ġa lone
Ġi ng
U R
un te
ĠTi me
us ion
7 7
Ġopen ing
Ġbath room
Ġstr ategy
Ġautom atic
Ġs ust
ul ty
* *
Ġpl ane
ol ar
ĠUS A
ĠJap an
ĠU nder
ĠI T
w ell
Ġpl aced
Ġk m
Ġrep orts
Ġpay ment
ĠK en
ĠS am
ĠC er
Ġk new
o lic
el es
Ġli mit
.âĢĿ <
Ġabs olute
Ġtra ffic
Ġarti st
Ġr ich
Ġb atter
ĠP C
Ġsh ot
Ġs ens
st ate
6 6
ĠT or
Ġcharac ters
Ġcan cer
Ġcont ains
Ġp m
Ġview s
Ġp ull
ĠUni on
Ġgre ater
Ġbot tom
Ġn ames
Ġoff ici
Ġchalle nge
Ġch o
ĠM icro
ĠF il
ru gg
um i
ĠA lex
b re
Ġow ner
Ġcompeti tion
Ġev al
d own
Ġse lect
ĠSi nce
Ġ8 0
> Â
Ġsp read
b urg
e al
ĠW omen
Ġhelp ing
Ġorganiz ations
stand ing
Ġno tice
Ġsw itch
ĠB el
nd ed
Ġso ft
Ġm otor
Ġcomp ared
) ;
Ġco ffee
Ġag ree
Ġre pe
Ġpo or
Ġad op
Ġse lected
ĠS T
Ġpres ident
ĠW al
Ġappropri ate
es ome
ol a
Ġpar k
Ġpub lish
ĠD uring
t ag
ĠB ill
Ġpati ent
ĠC ath
l an
ad y
Ġti ps
Ġcomfort able
O W
T r
Ġextreme ly
Ġpi eces
ro id
Ġretur ned
or ial
ĠS ou
ĠG lo
ĠFran c
Ġd at
ĠD en
bo x
ĠR et
ĠR ock
Ġjour ney
c raft
Ġc reat
Ġcover ed
ĠM iss
Ġnorm al
Ġcon cept
ist or
Ġv oice
Ġstep s
ati n
Ġg arden
Ġoper ations
ul ate
Post ed
4 9
Ġcom ments
Ġs tic
5 00
ish ed
ra tive
C an
ict or
b es
mi nal
ĠOn line
S e
ĠR ad
Ġcap ital
ali sm
ĠA p
Ġh undred
ĠJ our
em porary
ĠDevelop ment
ĠO F
Ġwi ne
Ġjo bs
ĠS im
Ġcele br
ici ans
Ġlaw s
ĠT re
Ġdou b
ak ers
Ġele ments
ĠR ob
Ġhe avy
ĠC us
Ġmar ried
st e
Ġconne ction
Ġcommunic ation
enti oned
Ġso ciety
S ome
ĠWe ll
Ġlead er
Ġmay be
Ġcri tical
ĠDirect or
Ġc ry
gi ous
all s
Ġit em
ra tions
Ġradi o
ĠOp en
ate ver
Ġm ale
Ġpar ties
ĠE li
ĠW ed
Ġhus band
0 5
Ġstat us
. )
it ar
ni ght
Ġst rugg
A A
Ġw ants
Ġe ight
Ġarti sts
Ġpart ner
ĠCom mit
ĠV is
4 7
Ġfor ms
Ġc ast
Ġin ten
ma tic
Ġwe ar
Ġperform ed
ĠE ach
Ġcom bi
Ġw ai
Ġteach ing
Ġb ow
Ġtech nical
ic ago
or row
li m
D es
ĠSc ot
ĠWilli am
Ġste el
is si
ĠPe ople
Ġon to
ĠD u
Ġop ini
az on
Ġun its
ĠH ill
ĠO lymp
Ġa head
um ber
ar ge
Ġ200 2
ĠM useum
Ġcoun ter
Ġinc or
ĠG ar
Ġeff orts
Ġpresent ed
Ġappro xim
ĠM onday
Ġtech no
u pp
o graph
Ġex hib
" .<
li p
Ġ tree
y nam
com ing
Ġm ap
M S
Ġar rang
er ry
Ġro of
Ġadv anced
si n
id ing
Ġold er
ĠL u
Ġrel ative
ĠRoy al
Ġdo ll
Ġsh aring
d d
Ġ9 0
Ġvol ume
U n
Ġs ort
Ġsub st
Ġcamer a
Ġresp ect
ur t
Ġcent ral
Ġadj ust
en a
res p
h ol
Ġe lection
Ġsec ure
ro ll
ĠP R
C H
4 6
Ġi ce
ĠC r
Ġide al
Ġau to
ul ting
Ġqu arter
Ġth erap
ri a
Ġcommun ities
ob ile
Ġs light
ac ts
ĠW ork
Ġ200 1
Ġp an
ĠR oman
Ġb illion
os ph
Ġsh ared
Ġthan k
i k
Ġdri ving
Ġli f
Ġcond uc
Ġch air
ĠS il
ĠAn n
y e
ĠAustrali an
Ġdedic ated
Ġu ne
Ġcar s
Ġf ear
Ġsus p
Ġrel ax
ult ure
Ġmem ory
ĠF ur
Ġstand ards
20 18
ĠL ist
a ven
ent ed
Ġmanufact ur
Ġcell s
ce l
Ġprin cip
Ġswe et
li ghts
n is
S he
ou ble
ĠW ill
Ġrequi res
Ġthere fore
Ġadvant age
Ġlook ed
ĠA P
Ì Į
ĠL ord
Ġsy mp
Ġ7 0
Ġsp ring
Ġe th
Ġmanag er
Ġsig ned
Ġindepend ent
ĠF re
Ġdis h
Ġf at
Ġv irt
tain ment
ĠS pe
ĠEx p
Ġali gn
D on
ĠL and
ra g
ng er
r ant
P re
Ġwin ter
Ġrem ain
B A
ac tive
ĠJ ose
ĠAfric an
Ġpl ants
ro y
ent ure
ĠWh y
C l
Ġ ...<
te en
Ġso lid
ĠV er
Ġ3 5
Ġes c
Ġval ues
B S
ĠS et
Ġpass ed
Ġv an
Ġb rain
en ting
Ġman age
ro s
ĠCommun ity
Ġtechni ques
rit er
ĠBe ach
u i
Ġpos sib
Ġcr ush
Ġexperi ences
S i
so ft
ĠTh ank
ĠM ake
w ith
Ġsit u
N A
Ġform at
Ġbut ton
Ġfac ilities
Ġfai th
ĠO nce
Ġac cep
ĠTe am
Ġcomp et
ĠBu ild
ĠGo vernment
Ġsc ore
ĠRe al
Ġbec oming
Ġfam ous
Ġres ist
o th
ĠAd d
Ġrun s
ing er
ĠJap anese
R A
Ġnum erous
Ġfind ing
Ġinc red
Ġb ag
ĠI ts
Ġappre ci
ens es
Ġpre par
Ġh arm
is co
Ġdevelop ing
Ġdire ction
Ġear th
Ġf lex
wi n
Th ese
Ġra il
Ġcon ference
Ġupd ate
Ġmaint ain
ĠV alley
f ree
Ġs and
D A
S S
at re
g ency
Ġsepar ate
Ġatt ach
h ab
c king
M ar
un ning
ĠCommit tee
Ġche ap
un ction
ĠIn formation
Ġstat ement
Ġb ra
Ġd ream
ĠL ear
ĠW estern
u ps
Ġp hi
ĠK ore
ĠM en
7 8
Ġlo an
ac tions
Ġcap acity
Ġrem ove
ĠSh ow
Ġre tail
Ġfriend ly
Ġmaint enance
Ġb ul
ti o
Ġsho pping
Ġsy n
Ġfig ure
Ġproper ties
Ġth us
Ġclo sed
Ġad ap
Ġv oc
Ġstre et
ĠP r
R es
Ġfab ric
P lease
Ġse a
f riend
ĠTw o
h ttp
Ġoper ating
ĠC D
Ġf ashion
Ġke pt
Ġser ver
Ġfl av
ĠH en
uck y
ĠRo bert
Ġtal king
Ġv ideos
Ġsh ape
ĠS mith
0 8
Ġper haps
t d
ĠAl though
Ġcol ors
Ġm ine
ĠAr my
Ġorgan is
Ġd ang
ĠB al
Ġh om
Ġf an
Ġi r
Ġclass es
Ġholi day
Ġact ual
Ġcaus ed
Ġwork ers
Ġpre c
Ġre mi
Ġsched ule
o sition
Ġpro te
ĠC ard
it a
Ġbuild ings
ic ks
Ġac tiv
N ow
Ġins p
Ġd r
ist an
I I
Ġmo di
Ġcal c
Ġoper ation
ĠT em
Ġbec omes
Ġra i
Ġv s
Ġchalleng es
O P
Ġf ederal
ed om
ĠO ffic
Ġdesig ns
ĠSer ies
W hile
Ġdeterm ine
âĢĿ ,
Ġg un
ĠI r
ĠO ld
Ġinst r
I nd
Ġc atch
ĠU se
ul ed
Ġrecord s
Ġm ath
ris on
Ġaud ience
urs day
ri age
Ġth reat
Ġprofession als
Ġprevious ly
Ġd rop
Ġdri ver
Ġare n
Ġp et
Ġ20 20
Ġpost s
ĠDem oc
Ġgir ls
Pe ople
Ġtes ting
Ġlear ned
Ġclass ic
f ast
ordi n
ĠAr ts
ĠFound ation
Ġse ts
li fe
Ġfact ors
Ġhand le
ĠP an
Ġexper ts
L C
w ord
Ġeconom y
Ġf r
ĠAcadem y
Ġroom s
M e
ĠG ames
Ġbal ance
ĠPe ter
ĠThom as
w est
et ry
ĠTr ump
Ġdis p
Ġrem ains
Ġf ans
ĠT en
Ġprog ress
Ġti t
gi a
Ġfi ght
0 2
Ġmo de
0 4
Ġsee ing
ĠL os
Ġes tim
fi ni
h an
y m
ĠB ack
Ġess ay
ĠF ood
I A
Ġpas sion
ĠLou is
v est
p id
Ġsmall er
ci n
Ġf al
T H
The y
d a
ĠCan adian
Ġmajor ity
ĠM ill
Ġm entioned
Ġrecord ed
ĠTech nology
0 9
j o
nt on
d ays
ĠCh icago
Ġwin ning
ol ate
Ġw ww
Ġse at
Ġg ather
el li
ĠM ari
Ġbre ath
ĠW all
ĠB et
Ġre ality
Ġsec ret
Ġte nd
6 4
ues day
rou d
Ġs ources
Ġra re
ĠM at
Ġob tain
ã ĥ
F rom
Ġtru th
Ġtra i
Ġteach er
Ġcon vers
Ġclean ing
Ġmiss ing
ro ad
Ġsm ooth
ĠU s
ĠCent re
vi nce
ĠSo cial
ver si
Ġgo vern
Ġappe ared
ĠPro ject
ĠW il
Ġwas h
Ġadv ance
Ġpractic es
Ġtrai n
iz ation
ĠM ass
il ed
ĠA li
Ġg one
Ġresid ents
Ġp urs
> *
os en
Ġthe me
Ġp ow
Ġprep ared
Ġis land
Ġs now
ĠL ong
Ġeven ing
Ġevent ually
Ġre gi
ĠF amily
I R
Ġat trac
c an
lig ence
ki ns
re h
Ġcou p
ĠDiv ision
uc tion
Ġc row
ĠCol or
ĠH istory
Ġfem ale
los oph
ĠL im
Ġapproxim ately
Ġsen ior
Ġdis app
Ġdo ctor
as ure
0 7
Ġco re
ick en
Ġend ed
re land
Ġexper t
mb ly
0 6
at ers
Ġc y
Ġtas k
Ġapp lied
Ġv ote
Ġw elcome
Ġb ird
Ġcomm and
Ġc e
p et
Ġdru g
to ms
nes day
Ġaccom mod
Ġreach ed
Ġpoli tic
ĠS a
u ting
ri an
Ġfund s
ĠD et
Ġdiscus s
Ġconnect ed
Ġc itiz
ĠN Y
ce an
Ġgr ant
b a
ra ble
ĠM a
Ġagre ement
Ġland sc
Ġintroduc ed
it ness
j i
Ġout door
g ment
Ġdep artment
Ġcent re
Ġcould n
Ġob j
Ġre ference
ĠM ont
Ġle aving
Ġalter native
Ġtemper ature
Ġattem p
Ġrele vant
Ġbig gest
ĠD ata
Ġleaders hip
Ġg ain
Ġha ven
ĠT oday
Ġsur g
k o
ĠRus sian
Ġkeep ing
Ġwas te
Ġbe auty
ĠEn ter
Ġmed ium
us tr
Ġother wise
or al
Ġfl at
Ñ Ģ
re te
Ġbro ther
ab ase
Ġexerc ise
Ġocc up
Ġs ector
Ġ4 5
6 8
Ġartic les
unic ip
ĠMed ia
P A
Ġsto ne
Ġcall s
Ġfore ign
ol k
O D
Ġc ities
Ġ5 00
Ġhapp ened
b b
Ġinstall ation
t u
Ġmanag ed
Ġappear s
ĠE lectr
I F
oo king
Ġwrit er
le ar
Ġfi ll
know n
âĢĿ .
Ġocc asion
ĠO per
Ġdi et
Ġwi re
Ġpack age
ĠIt alian
ĠW ho
0 3
Ġdist ance
ĠApp le
Ġadd ing
Ġvis ion
ĠAN D
u ries
nam ent
ĠSt and
ĠMin ister
ri er
Ġshe l
col or
Ġiniti al
ĠM aster
et te
Ġprocess ing
Ġh ab
Ġing red
Ġar m
Ġform ed
Ġvol unte
ĠP ay
ld er
Ġserv ing
Ġchang ing
as c
EN T
ĠThe ir
H ere
Ġrestaur ant
ĠBec ause
b ut
Ġanim als
Ġra ised
ĠChe ck
min ation
Ġcl oud
Ġthe ory
ĠA v
ult ural
ĠD ig
Y our
Ġw est
al low
gi nia
Ġcombi nation
um n
ra p
Ġp ray
ĠPar is
m ond
Ġb ought
Ġsqu are
Ġcomp ar
Ñ Ĥ
Ġbu ying
ĠS qu
Ġinf o
Ġdepe nd
Ġmost ly
Ġdoc uments
Ġtra il
ĠL ight
ci ent
h ow
Ġcover age
Ġclai ms
h as
Ġrai n
ĠKing dom
ĠF estival
Ġd ating
ai ne
ĠSum mer
Ġgu ests
P R
ĠHe ad
Ġl abor
Ð ½
e ed
Ġtr an
Ġwai ting
Ġsce ne
enti ally
ĠSec urity
Ġpres ence
. .<
Ġc ris
Ġle aves
ĠA C
ol ars
Ġsust ain
Ġ199 9
s ec
Ġp air
ĠF lo
ĠMed ic
Ġ vers
Ñ ģ
Ġfor ces
t ained
pl ate
ĠF ind
Ġprocess es
Ġsp i
S c
Ġvisit ors
Ġmaxim um
Ġex clusive
ĠFi re
ĠFran k
ak ed
az z
ortun ately
Ġm ist
Ġteach ers
Ġregister ed
and a
ĠW ord
v ity
Ġnot es
Ġdi e
ĠT O
Ġpers p
ĠVi ew
Ġrep res
Ġdes k
ĠI D
Ġk ing
qu is
an n
Ġcult ural
Ġexplo re
Ġcontin ues
Ġli brary
Ġconf ig
ut ch
Ġgra de
Ġd om
ĠE m
ĠLi ke
Ġshow ing
Ġn ine
Ġso ci
ĠMark et
ĠV ictor
âĢ ²
Ġfor get
ĠLe ad
Ġp al
ĠWi n
uct ure
ĠB ud
Ġb right
u a
Ġl ux
Ġcon cent
Ġfocus ed
Ġs emi
Ġexten sive
ĠG ri
to s
ĠOr gan
Ġcol our
Ġpl enty
Ġjour n
Ġco ast
Ġs elling
ow ns
Ġob vious
Ġk illed
em a
Ġmin ute
Ġto ward
ĠTh ursday
Ġneg ative
Ġhelp ful
Ġd est
fic ial
Ġattem pt
y al
Ġdi ning
ai ling
Ġe gg
Ġc asino
Ġc up
Ġve get
ra tic
5 8
Ġengine ering
Ġexce ption
Ġbo y
Ġthous ands
v o
ci ting
6 9
Ġbri ef
ket ball
Ġgu itar
Ġcour ses
Ġ199 0
ed y
Ġli s
Ġto t
ĠZ eal
7 9
on us
O V
rom e
P ri
A pp
Ġinj ury
Ġepis ode
Ġth row
Ġdis tin
4 2
Ġm ir
5 9
Ġ tag
ĠCon ference
Ġwind ows
Ġhouse hold
or a
at uring
B l
Ġv alid
Ġdec ide
Ġyou th
Wh y
Ġgene ration
x i
Ġpo ly
Ġfeature d
tit ude
Ġhy d
Ġfac ility
n ting
ĠG ir
Ġfl u
ĠS ol
Ġleg is
Ġi ne
L iving
Ġe lement
Ġc op
Ġcomp l
Ġha ng
ĠSec ond
w ater
Ġlo se
l ad
ĠA L
ĠFo ot
Ġmin or
Ġcre am
Ġfi f
ĠC all
Ġsupport ed
os ting
il k
oli na
av ig
i et
ĠMed ical
Ġun f
Ġfound ed
Ġidenti fy
Ġrest ric
Ġin si
ĠComm ission
ĠEar th
ĠS and
Ġac qui
ĠZeal and
Ġup gra
ĠMex ico
Ġpro file
Ġdes tin
ill a
ĠL ab
on om
Ġe ast
Ġsc ale
ine t
Ġthough ts
A G
Ġh ospital
Ġb attle
Ġst ated
ĠT uesday
Ġwh om
Ġhapp ens
Ġpl ays
Ġuni versity
Ġdeath s
Ġvehic les
Ġtre es
Ġcor ner
Ġacadem ic
ĭ áħ
Ġstar ts
as tern
Ġp roud
Ġb ound
ni e
Ġloc ations
Ġpl astic
lo c
Ġac tions
Ġsw im
lec tive
ran ts
Ġex change
Ġpoli cies
Ġtyp ically
Ġdec isions
Ġcri tic
Ġmar kets
Ġsound s
Ġb ill
ig er
Ġtop ic
e li
Ġn utri
Ġinflu ence
ar p
ĠAcc ording
Ġrelations hips
Ġr ule
o very
ĠEx per
Ġfour th
Ġexp ensive
Ġcon tr
b ec
i ents
re y
oc olate
" :
ĠAb out
Ġneigh bor
o i
Ġwh atever
li ament
Ġtas te
Ġow ned
Ġwebs ites
Ġshow ed
ĠJ ack
Ġresp ective
Ġallow ing
Ġex ec
por ation
ĠU N
Ġupd ated
Ġaw esome
Ġc i
Ġdemon str
Ġse qu
Ġstud io
F L
ac ter
ĠWed nesday
Ġcomb ined
Ġ rom
ĠRo om
ĠI reland
oun ting
20 19
um ni
Ġcomp reh
ĠB rit
ti se
Ġm ort
Ġinstall ed
ĠC lick
Ġlaunch ed
pos es
Ġs at
Ġcol le
or ter
j a
ak s
ĠP et
Ġed ge
ab ilities
or ney
Ġag ency
ti fied
ĠSp anish
ĠI de
Ġrou te
Ġansw ers
Ġenvironment al
6 7
ĠCath olic
ĠVir ginia
or ough
ĠSp ring
ns on
Ġinter ior
Ġcor porate
Ġassist ance
A cc
S P
S te
ĠL td
Ġappear ance
Ġknow s
Ġth ri
ou ts
pris e
Ġdes pite
Ġli ved
ĠH and
ĠHot el
Ġap art
one y
Ġri ver
z en
ĠO ri
ĠCong ress
Ġs ti
g age
Ġtrans form
ĠFor m
Ġcol lect
Ġgu ys
Ġenjoy ed
ĠGu ide
ĠAng eles
erson al
ĠGe or
A b
Ġsto res
ĠAm azon
ĠT own
g ned
Ġdi nner
c ons
ĠâĢ ¢
Ġfe es
Ġs ki
ane nt
Ġfant astic
Ġv en
Ġ199 8
c us
C hi
Ġh ttps
Ġst atis
ĠH or
Ġdet ail
Ġdes i
Ġreci pe
tic ip
Ġf uel
Ġrecommend ed
4 1
ĠChar les
Ġtrans l
Ġstrateg ies
ĠRus sia
umi n
Ġexc ited
ĠTw itter
ĠD an
Ġdirect ed
Th anks
> [
Ġgu ess
u able
ĠSec ret
fic ations
4 3
S A
ĠPri v
Ġeffici ent
Ġacc ident
Ġri de
Ġinst ruc
Ġminim um
Ġde ter
Ġd ynam
am ps
ĠB rown
O r
ĠA sia
Ġremo ved
Ġf light
M an
Ġa mp
id ential
ĠK ar
ĠIsra el
Ġcli mate
Ġk id
Ġcateg ory
ĠC ross
or king
Ġdet ailed
ĠLe g
Ġj u
Ġfund ing
G et
ĠM el
Ġfi lled
Ġslight ly
Ġm ur
T C
Ġwal king
ĠB log
Ġworks hop
com p
t ent
ras tr
oh n
is tics
or ld
Ġd ump
Ġspend ing
ali zation
Ġun s
ag ement
Ġprac tical
ĠLi brary
A c
Ġsu gar
Ġsc he
r ick
Ġconcer ns
Ġtri al
ĠW ay
ĠJ ud
ĠAd min
Ġexp lor
Ġpur poses
aci fic
Ġcompone nts
Ġrespon sibility
Ġhone st
ĠB lo
ĠA nal
ĠIt aly
Ġm ental
bs ite
av a
Ġaud io
est yle
omes tic
ap es
ali s
ĠTim es
Ġabsolute ly
Ġbr ings
Ġset tle
5 7
ĠC A
st al
Ġer ror
V i
en cing
Ġinter nal
C ar
Ġconf lic
ĠH ave
U N
Ġfav our
Ġpat tern
Ġfun ctions
Ġex citing
Ġ3 2
ag er
Ġshi pping
Ġins tit
Ġclear ly
au ce
ĠH aw
it ors
Ġj ump
Ġd ance
ĠS k
l as
Ġe lect
Ġe ating
N ot
Ġtra ding
ĠJour nal
Ġhous ing
en ni
ĠA ud
er ies
ĠH ear
Ġbe at
Ġhistor ical
Ġlead s
Ġwould n
Ġimport ance
hi o
Ġinspi red
Ġin tended
Ġdiscus sion
x y
ĠCon ne
ĠJ un
ou nder
Ġr ub
Ġco vers
T V
B u
Ġmen u
ĠDown load
S C
ap ed
Ġdiscover ed
Ġpos s
ĠF ar
Ġf le
am ond
ĠC ond
Ġasp ects
Ġexp ress
Ġpane l
Ġa thle
ĠR E
Ġcont emporary
Ġindust rial
Ġsh oo
Ġorigin ally
C he
wh ich
Q u
L A
o graphy
ĠM iddle
Ġman ner
Ġ ton
C o
Ġle ague
Ġwi lling
Ġadmin istration
Ġlo ck
Ġproper ly
ĠP ub
ĠS ar
ĠM P
5 6
Ġwor ry
Ġlove ly
wh at
Ġhous es
ru p
Ġspecific ally
Ġdo ors
ĠE conom
e y
r ich
r s
ol s
Ġme ant
Ġv ic
lec ting
as er
d is
o log
Ġcirc um
ĠG al
ĠF und
re es
Ġre lie
Ġbe long
Ġsecond s
lo ts
ĠCar olina
ne ls
a o
Ġi ron
m et
Ġed itor
Ġsur vey
Ġopini on
Ġfe llow
ĠI P
Ġr ise
idd en
lud ing
Ġun less
ning s
Ġsee k
ens us
ĠC at
uc ks
ti mi
R ec
ag ra
Ġne t
ĠRe v
ĠH uman
Ġsuit able
Ġgood s
ra ting
Ġprom ote
ĠG ame
to re
y an
Ġcar ried
Ġdeb ut
! !<
ĠNet work
rastr ucture
C ol
ĠSo f
ni m
ll o
m l
Ġsugg est
Ġpro p
Ġtechno logies
Ġr ing
Ġdec l
er i
ĠA rab
Ġb en
ĠP ack
t ons
Ġnot ed
ĠAd v
Ġdri nk
vi a
ĠW ild
resp ond
ĠM id
ĠOr der
ly n
C ont
Ì §
Ġ198 0
is tr
Ġafford able
Ġf ruit
Ġautomatic ally
ĠRe gion
Ġbatter y
Ġwatch ing
ĠBo th
Ġanim al
ĠA ff
Ġcommit ted
ĠH istor
Ġprovid er
ĠRich ard
Ġ tro
Ġth ick
Ġex tend
f low
Ġpurch ased
ĠGlo bal
ad d
Ġl unch
Ġag ent
Ġcompeti tive
us tin
-- --
c ar
ĠN E
Ġl ap
hi gan
ĠSpeci al
c ont
Ġbus y
Ġsil ver
en sion
ĠE nd
go ti
Ġp itch
ession al
ĠB ed
Ġeduc ational
ict ory
9 8
ost on
Ġappro ved
i bility
Ġdeliver ed
ĠF ort
ffic ient
Ġwrit ers
Ġdeb t
ag ram
id ents
Ġcont ain
ut ter
T A
Ġput ting
Ġexce pt
ric s
ches ter
ĠMicro soft
Ġcompreh ensive
ĠL ine
it able
F o
ĠIn f
Ġappoint ed
ĠOn ly
ĠO R
g or
Ġdepe nding
ĠM ax
po int
t an
ĠJ im
Ġri d
Ph one
M A
ĠY es
Ġli ghts
Ġsub sequ
Ġmeas ures
Ġdistrib ution
Ġ199 7
E E
Ġmo tiv
li a
ĠChampions hip
H istory
Ġpropos ed
Ġro w
Ġra pid
ĠT ake
Ĥ ¬
Ġrem aining
en tic
F C
Ġaward ed
ti al
ĠL uc
ou b
Ġingred ients
Ġarri ved
Ġcre ation
D i
ĠWe ek
Ġpain ting
mer ce
Ġ3 00
ĠM il
7 6
Ġrepl aced
Ġenh ance
Ġex amples
20 17
ĠO N
U T
ĠC ri
pre ne
Ġadverti sing
ĠH D
o ner
ĠMar tin
Ġiss ued
Ġv ir
Ġf ailed
Ġs ister
b ing
ic an
ĠDe v
Ġmag azine
ut or
cri p
Ġconne c
Ġcon text
Ġac ces
Ġ199 6
Ø §
Ġb ond
Ġinspi ration
on to
Ġacc ounts
ĠSp orts
Ġs ides
ph er
o king
ut ation
ĠF ull
E ng
um es
Ġelectr onic
Ġdec re
st ruction
n ch
g as
ĠC ra
ĠM os
li pp
ĠE r
Ġsub mit
ĠB ow
Ġtherap y
Ġad ults
ĠH u
Ġflow ers
Ġcre w
Ġag g
ani el
M ay
ĠL ast
Ġfield s
ĠCo ast
we ight
Ġdat abase
Ġr ank
Ġjo int
an na
Ġgu y
ft ed
ĠCol umb
ĠU l
Ġexp ression
Ġreduc ed
it age
t ough
> >
ec tions
f oli
os ite
ed i
Ġread ers
ĠY OU
Ġvis iting
Ġe lected
ĠM ur
v y
Ġemer gency
Ġpossib ly
Ġres ource
ron ic
ĠM achi
Ġk ill
Ġre b
ĠChi ef
Ġob ject
Ġde als
ĠR ail
Ġro ll
Ġk it
Ġfix ed
Ġinst ance
Ġprep are
re prene
ĠL ive
Ġexper tise
Ġs ample
Ġeval u
og a
ĠH i
od ies
C A
qu id
Ġpri m
si tive
áħ ¡
line d
ec tives
ĠS ho
Ġbo at
Ġal le
Ġreli gious
h and
ĠCont rol
Ġeli min
ĠA wards
ĠE s
Ġchan nel
ge ts
Ġres ol
Ġde fini
os it
di n
Ġshow er
Ġinter ests
ans as
ĠLe e
Ġad ult
u nder
Ġphi losoph
ter y
ĠSi mp
Ġpar king
ĠManag er
Ġbehavi or
Ġcal ling
t ub
Ġaff ect
mi le
g ers
Ġcitiz ens
Ġsurround ing
e per
Th ank
f s
b l
osp it
Ġ tough
Ġbrand s
gi e
Ġcli nical
Ġgu est
ð Ł
Ġor ders
Ġdeli cious
Ġinnov ative
Ġmen tion
ĠC ab
ali ties
Ġreli able
Ġc as
Ġtes ts
i na
F irst
Ġte a
Ġparticip ants
atter ns
ish ing
ĠD ie
Ġbe gins
b ury
Ġst ars
ig ration
Ġfeed back
Ġhold ing
ti st
ĠC ost
Ġstre t
us es
Ġaccep ted
ĠC y
Ġfact or
x p
lic ation
Ġst ations
ĠLit tle
Ġwe ap
Ġupd ates
Ġhe aring
ĠPre mi
5 4
Ġsurg ery
ĠM as
ĠJer sey
Ġimpro ved
Ġgreat est
Ġfail ure
Ġch osen
ĠF er
b ar
rel ated
ĠYou ng
Ġconf ir
is ters
5 2
C E
ab led
Ġmus ical
i me
Ġconst ruc
Ġlab el
Ġour selves
Ġu pper
Ġtot ally
Ġcho ices
ĠFil m
Ġoffic er
Ġ4 8
Ġenter ed
Ġdep art
Ġm outh
opy right
Ġwall s
U p
li nd
Ġa id
Ġlic ense
Ġv ary
Ġex ecutive
Ġencoura ge
ĠAnd roid
th i
t un
Ġregion al
o or
ĠK now
Ġf ly
G o
Ġm useum
Ġre ar
Ġscienti fic
ĠN ight
Ġcaus es
r ors
un ting
ĠK i
ĠB ob
Ġrem ote
Ġ18 8
ri n
no on
Ġno tic
Ġat tended
Ġas king
end ar
Ġsp ort
Ġsupp orting
th s
Ġdeterm ined
Ġfe aturing
t elling
Ġf aster
Ġperm anent
Ġn ative
S E
r ings
Ġp ump
Ġexperi ment
Ġany where
Ġ tu
ĠA sh
Ġsig ns
ĠR ights
5 3
Ġch ampions
ĠAu thor
aw ay
Ġannoun ce
5 1
Ġconf idence
lic ations
Ġra ng
Ġmar riage
ĠC H
ĠCont act
ĠPo licy
m osph
Ġsy mb
Ġtic kets
ĠT able
Ġair craft
Ġspe ech
ĠWilli ams
ĠCh air
Ġex tended
M ore
Ġc ounty
f ra
li s
Ġro t
tim ately
ĠChild ren
Ġmount ain
ul ous
Ġfre edom
ĠS ite
Ġvis ual
o le
ach ing
ed ing
Ġadv is
ĠNor thern
Ġneighbor hood
Ġdisc ount
Ġplan ned
ge nd
Ġdes ire
Ġra ise
Ġidenti fied
d s
t aught
Ġchi ef
Ġch ain
U ni
ĠBra z
Ġnew sp
Ġwhe el
ĠO k
ac le
Ġtop ics
; <
ĠFor ce
ĠMic higan
Ġemploy ee
Ġres olution
Ġaff ili
ĠSou thern
Ġchar ges
ali gn
Ġan cient
ĠV ideo
Ġmanufact uring
Ġset tings
G B
c ur
M ed
Ġli ghting
Ġpor tion
tr ic
Ġrepl acement
b ration
Ġ197 0
Ġn one
ĠSw ed
os h
Ġ3 6
Ġbring ing
ĠM u
Ġ199 5
ĠA D
Ġfor ced
ĠD ub
Ġi gn
llow ing
Ġprote i
Ġtra ve
Ġdo gs
Ġoffici als
ĠV an
Ġprovid ers
ur n
Ġcon sequ
Ġprotei n
Ġp ra
V D
on i
ĠH ard
re nce
ĠRec ords
ai re
Ġsee king
ĠH ospital
Ġmonth ly
or ry
ĠE nergy
Ġbro ken
Ġc ivil
ĠAir port
Ġinstit utions
Ġop tim
Ġcor respond
Ġexpl ain
ĠA ri
Ġconduc ted
Ġdri vers
acks on
ne ver
o res
Ġfil ter
ĠR el
Ġne ck
Ġregular ly
Ġso le
ĠN OT
ĠN C
> â
7 2
Ġguaran tee
tri b
re me
Ġdef ined
Ġp ul
Ġtw ice
Ġb order
ĠA R
Ġseem ed
ian o
ĠI ran
Ġro b
Ġcond uct
ou l
le ts
Ġen able
Ġfe els
an ing
Ġcircum st
Ġeffective ly
ĠT hi
ĠB oston
Ġstic k
Ġc ru
ord ers
Ġconsum er
iv al
Ġp ic
Ġstruct ures
Ġmedic ine
ĠE p
Ġsc ored
Ġwi d
Ġwin ner
ĠC ast
Ġf u
Ġfamili ar
Ġarchitect ure
Ġrestaur ants
P ar
van ia
ĠHen ry
Ġdec ades
Ġsit ting
ĠFoot ball
Ġi l
Ġdom ain
ĠAre a
L oc
ĠC lo
ĠTra ining
Ġbut ter
t ables
Ġpersp ective
à ¸
Ġend s
Ġconsum ers
Ġval uable
Ġhold s
Ġrece iving
or ation
ĠSe a
Â °
all ed
ĠS aint
Ġsur f
Ġb onus
ĠPl us
Ġar ts
T ra
Ġrepl ace
Ġdest roy
w ar
P C
Ġam b
7 4
Ġ taught
Ġposi tions
Ġstand ing
c tic
ir ty
Ġs ac
f ting
ner y
Ð¾ Ð
ĠTh rough
E ar
Ġdoub t
ĠV ill
ĠAc cess
Ġinstruc tions
Ġnear by
ĠDig ital
ĠGe ne
ĠWhe ther
Ġsig nal
d ate
ĠWor ks
Ġme al
Ġworld wide
Ġbi ke
Ġparticip ate
Ġpare nt
Ġexp os
Ġpl ate
Ġmix ed
A re
Ġte en
l ers
ĠRad io
ĠL y
no is
ĠA tt
20 16
g color
re ams
Ġpro ceed
Ġc ro
ĠO hio
Ġbe h
hi a
Ġrem ained
Ġbirth day
Ġd omestic
E very
ti tion
Ġlist en
ĠP acific
or i
Ġth read
Ġj ew
oun ter
ĠEngine ering
ce ll
Ġhundred s
ĠDe f
d em
y ard
ĠS ale
Ġy ellow
ĠC ode
o e
Ġgl ad
Ġp ure
uc lear
Ġsuccess fully
Ġqu iet
Ġcusto mi
ĠC EO
Ġne goti
Ġappoint ment
Ġpas se
Ġmain ly
us i
Ġrent al
Ġrec overy
ut en
Ġfood s
n ame
Ġidenti ty
ĠPr ice
Ġcomp ris
y ou
Ġsh ut
Ġsupp lies
Ġrecord ing
Ġal co
Ġagre ed
Ġ tables
Ġsignificant ly
T R
6 3
ĠWh ere
Ġm ul
ĠSp ain
Ġr ug
Ġmovi es
Ġear ned
T w
Ġhor se
ĠS P
Ġb rown
Ġcoo king
Ġlic ens
Ġapp s
Ġch at
ĠB rand
em p
ĠJ ones
L et
ĠIs lam
Ġ199 4
Ġdi vision
Ġtell s
yl vania
l aw
Acc ording
are n
Ġti ght
it oring
Ġlay er
Ġre new
ĠF air
ĠW atch
ing ly
Ġappreci ate
ĠDes ig
as te
20 15
6 1
ud den
Ġ tor
Ġemp has
ĠP ak
Ġac id
fic ate
Ġserv es
Ġpay ing
Ġb es
ĠB ang
Ġsymp toms
ĠFranc isco
Ġp atterns
r ate
Ġsho es
ĠCon f
Ġfrequ ently
Ġg ear
app y
oc key
How ever
ĠPoli ce
Ġaff ected
Ġtr uck
Ġrelative ly
n oc
Ġs a
Ġassess ment
ĠNo v
Ġcut ting
Ġrecogni zed
Ġal umni
6 2
J ust
Ġinf rastructure
lo red
Ġre ti
ĠB ath
ct ors
ĠKe y
Ġsol ar
ou red
Ġproced ure
xt ure
Ġ rough
Ġpro to
Ġasse ts
u ters
Ġcandid ates
Ġ Î
Ġur ban
Ġreve aled
Ġtra ined
Ġn avig
ti fication
ĠSystem s
it er
h ar
Ġreali ze
7 3
Ġm ail
ĠD ar
In ter
Ġpriv acy
ĠSte ph
ĠWe bsite
Ġpresent ation
ph y
as p
Ġaccur ate
Ġpoli tics
to l
ah a
ĠT est
it t
Ġat mosph
Ġkind s
D uring
Ġrefer red
Ġdis cip
cl ass
Ġpro sp
ĠTe le
ĠM A
Ġle ather
Ġalbum s
ĠBo x
Ġorgan ic
Ġwe alth
at ri
Ġcommit ment
Ġmat ters
ĠA sian
uri ous
Ġconvers ation
ĠRep ort
ĠMi ke
ad ium
b ro
Ġcandid ate
Ġi Phone
oo sing
Ġf ulf
ĠF ederal
__ __
Ġbreak fast
Ġeffici ency
Ġsh ares
ĠA nother
A m
ce ption
Ġreg istration
ud i
áĦ ĭáħ
Ġb gcolor
Ġcyc le
Ġtre ated
t ab
am ber
ĠJoh nson
7 1
Ġoffic ers
Ġhon or
dition al
Ġmas sive
Ġinvol ve
Ġsever e
ĠP u
ru pt
ĠJe ff
Ġsi zes
ub s
L ast
y o
Ġre venue
illi ons
Ġre tire
m ers
RE E
ĠSc ott
Ġg rew
ĠMar keting
Ġk ick
ĠAmeric ans
Ġm ilk
ro ve
Ġr u
Ġsugg es
Ġre i
it z
Ġtur ns
ĠJ ac
ber ry
Ġafter noon
Ġy es
ĠE U
Ġintroduc tion
Ġpre gn
Ġar rest
Ġspeci ali
a is
w hile
Ġme at
Ġst ruc
E n
the tic
h t
ec k
ĠKe ep
Ġte eth
ad ing
vers al
j u
ĠP age
ĠR os
U L
O ver
ma to
Ġg od
Ġauthor ity
ng ers
Ġra nd
e ast
Ġimp os
R o
ĠR est
Ġsch olars
Ġmachi nes
ss ue
Ġout put
ĠPro t
Ġi con
ester day
Ġd omin
Y es
Ġn ur
Ġph ase
Ġf er
Ġadv oc
Ġdru gs
Ġhe ight
Ġpremi um
ĠAu to
ĠIr ish
Ġorganiz ed
Ġfe ll
H ome
w orth
lud ed
A u
Ġprot ected
ĠSupp ort
ĠS anta
ĠTra vel
O ther
Ġfound ation
Ġ3 8
Ġre si
Ġe c
ĠB ell
Ġsp aces
c ase
n ity
Ġexp an
us ter
ĠSm all
>|- <
Ġbe t
Ġob jects
ĠL ow
y ers
gi an
T e
ge ne
aw a
ĠGeor gia
ns ylvania
? âĢĿ
ap ore
u ration
pp ers
ak i
ine nt
Ġproced ures
Ġex ternal
ack ing
Ġc aught
ad ow
Ġj oy
Ġ199 2
ĠP op
tic le
ĠO w
Ġstre am
Ġconc rete
ĠPri n
int age
ĠJose ph
Ġsession s
Ġinstr ument
Ġresid ential
Ġdef ense
Ġter rit
ar ks
ck et
Ġm unicip
Ġperfect ly
ĠQue en
tain ing
Ġch ocolate
Ġquali fied
Ġincred ible
ĠF our
ĠJew ish
Ġreg ul
ak a
o ing
ĠK h
Ġmatch es
Ġp apers
Si nce
Ġe ne
ou g
ple te
Ġsal t
AT ION
Ġche ese
F F
ch ang
ap os
ree ts
ĠS ky
Ġte x
Ġair port
Ġmur der
angu ages
Ġp un
Ġag encies
ee k
amp ion
gi ble
Ġv ictory
ĠBe fore
ĠR ose
Ġcri me
Ġdiag nos
Ġcol lected
Ġb ridge
Ġapp arent
Ġhard ware
er a
D S
lli nois
Ġb read
ĠC amb
Ġbo ys
Ġpro mp
P er
bu ild
s hip
Ġliter ature
Ġshe et
ĠS us
ĠAss ist
Ġinte gra
ĠF OR
o on
Ġrec over
Ġdoll ars
Ġmess ages
loy ment
Ġemploy ment
Ġenter tainment
ĠP ol
Ġlandsc ape
Ġbrow ser
.... ....
Ġwe ak
Ġconsider ing
M i
ot ton
Ġtas ks
ĠIns urance
h ost
Ġch icken
ĠD C
i os
Ġbelie ved
n ar
un a
Ġs aving
Ġob tained
Ġcont ai
Ġele v
r ated
Ġimprove ment
M ost
Ġfo ld
roduc tion
ish op
Ġne r
Ġspe aking
ren cy
w an
Ġa wards
ĠH on
Ġsupp orts
Ġentire ly
M P
bur gh
Ġ18 9
Ġdeg rees
ĠF ield
Ġcl assi
Ġv it
Ġpo ll
Ġmo tion
H i
Ġconcer ned
ian a
Ġch art
ĠC irc
w ing
Ġset t
Ġsched uled
Ġher o
Ġr ac
ist rative
Ġ196 0
ĠBuild ing
Ġlux ury
Ġcoo per
A ny
Ġprogram ming
Ġ199 3
ĠAnd rew
Ġorder ed
ic ted
Ġhistor ic
Ġphoto graphy
Ġcamp us
Ġretur ns
Ġversion s
Ġgrow n
Ġh ire
w ich
Ġh all
vers ary
x ford
Ġtre nd
ĠF arm
Ġd ates
ĠLi ber
ab eth
Ġlet ters
Ġap artment
r ace
Ġg olf
ĠS C
Ġtr acks
Ġsc en
ĠG arden
Com p
ĠJ on
ad or
Ġ1 50
ĠK ent
ci a
Ġfact ory
Ġtyp ical
ĠJ ackson
Ġsp ect
ĠNe xt
>Â ©
ĠG reek
Ġintegr ated
Ġw itness
ay a
Ġsou thern
qu ality
um ps
Ġrand om
Ġsou l
ĠH im
Ġsty les
Ġdesig ner
Ġlo ves
Ġprogram me
ĠC ro
Ġknow ing
Ġ20 21
ĠÂ ©
Ġstand s
Ġbig ger
lo ok
âĢ ľ
Ġres ulting
Ġcons ists
Ġrepresent ed
F A
Ġfore st
ĠS earch
Ġnetw orks
r at
l ay
Ġprim arily
Ġph arm
R ep
ĠPri nce
id ance
ĠJo e
t ank
ĠC O
Ġag ents
ĠGo vern
Ġreason able
ĠH el
Ġve ter
r us
ĠC reek
Ġgar age
Ġfac ilit
Ġcircumst ances
od i
ĠSt ation
ick et
Ġm ent
ĠBrit ain
Ġsupp osed
20 14
ĠP A
Ġun able
Ġpay ments
Ġbe ar
Ġse asons
Ġc u
Ġbas ketball
Ġlo ans
Ġtour nament
Ġsp lit
Ġoper ate
Ġfollow s
Ġrei n
ĠF riend
Ġsto pped
t all
ĠM ain
Ġemo tional
d ney
H S
Ġin put
Ġbl ess
Ġup load
oo p
ĠA S
Ġc lic
Ġen th
Ġc ake
Ġaware ness
Ġauth entic
ch i
ti le
m ade
ĠÂ ·
ste i
T ER
Ġra d
Ġli ber
Ġless ons
Ġins titution
Ġsugg ested
Ġco ordin
Ġmi ll
ĠE gy
âĢĿ .<
Ġassi gn
ĠStud ies
ch er
Ġmee tings
st ers
Ġflo od
ĠL iving
c enter
ĠG allery
ĠAs se
Ġconcer n
Ġ3 3
stei n
Ġv es
ĠP ass
ĠR ou
Fi n
Ġcar bon
Ġprincip les
Ne xt
Ġclose ly
ĠSil ver
Ġsing er
ĠEx ecutive
O nce
20 13
ĠS up
nd ers
ĠF red
ĠPen nsylvania
ami nation
em e
ĠB io
Ġag ric
Ġtr ouble
Ġconf irm
Ġsk ill
áĨ «
ĠTh ree
Ġsitu ations
Ġre form
vi e
li ers
Ġh ur
ĠB an
ĠC ook
ĠPl ace
Ġchar ged
Ġc able
erv es
Ġviol ence
Ġg ro
Ġcare fully
ell y
ar ters
ĠM S
ĠPhi lipp
Ġconst antly
Ġelectr ical
Ġf ir
av al
Ġc ruc
cep ts
Ġtechni que
Ġw et
p ret
Ġclo ser
ĠT ag
Ġsc an
Ġkeep s
D is
Ġequ al
ĠPro per
Ġdi verse
t ested
Ġind ex
Ġen ti
Ġinvestig ation
Ġcommit tee
ĠT it
Ġ4 00
Ġincor por
on ics
Ġcollabor ation
A B
Ġlo sing
ĠN avy
Ġqu anti
Ġevery day
th eless
Ġcomp ens
ĠT ax
ĠA venue
ab et
Ġinnov ation
ĠB ul
ĠRe f
at us
W ell
Ġsuc ceed
ard ens
com es
Ġ199 1
al t
B est
Ġfac ulty
Ġwith d
Ġprof it
Ġcer em
st ery
Ġwide ly
ĠB ooks
Ġachie ved
Ġinvest ors
Ġinter face
ay lor
ony m
Ġar ms
Ġsc r
ĠAsso ci
Ġatt acks
du ate
Ġout standing
ĠF ra
F il
ĠCommun ic
Ġpartners hip
ĠS on
Ġperform ing
ĠEn vironment
Ġop timi
ĠReg ister
A nother
Ġ tab
Ġs ad
Ġacces sible
Ġdi men
Ġfig ures
ĠB ible
Ġadv enture
ĠK o
Ġf ro
ni versary
Ġattach ed
Ġcap able
Ġ7 5
P ress
Ġill ustr
C D
Ġav ail
Ġent reprene
20 10
ĠR am
Ġm m
Ġcoun cil
Ġdel ay
Ġimp ressive
Ġcris is
Ġal tern
ĠSp irit
ni an
ĠM ah
ĠD og
ĠR ay
Ġlif estyle
Ġsk y
Ġnor thern
rou s
ĠG en
ĠOlymp ics
p hi
Ġwor se
ĠSp ace
Ġh osting
Ġvis ited
ĠII I
g un
Ġsubst anti
ĠW ales
Ġimplement ation
sp eci
Ġmiss ed
u an
le vel
Ġresist ance
ĠW is
Ġconfir med
ĠMount ain
ĠI llinois
orge ous
Ġgu ard
ĠM obile
Ġele g
ĠP rac
Ġspirit ual
Ġus ual
ĠSh op
Ġb anks
ĠInt el
ĠKore a
st ar
Ġac know
ain ts
ĠS ty
Ġlis ting
ĠB ase
Ġs udden
Ġear n
ĠProf essor
ģ Ħ
Ġse ats
c u
D ec
vi li
Ġreg ulations
Ġwe aring
G u
ĠS ales
Ġver i
ch o
Ġdeli ght
ur b
ling s
Ġro les
Ġalong side
il a
Vi ew
Ġa st
Ġz one
g ot
Ġto m
pro fit
Ġauth ors
Ġcli mb
Ì Ĩ
st ream
ĠA T
ĠW alk
Ġf estival
L S
Ġth orough
Ġmanufactur er
Ġperson ally
Ġde le
Ġfish ing
â ģĦ
Ġh ospit
ĠPro v
ĠH ope
red it
ĠK ong
Ġdang erous
M any
Ġreci pes
Ġfac ing
Ġconflic t
Ġ tall
ĠFur ther
Ġ tub
ĠScot land
ĠS ong
F ind
ĠInst ead
lly wood
Ġestim ated
Ġsearch ing
ĠCoun try
ĠO ct
vi et
Ġc ul
Ġcook ies
Ġup coming
Ġcr ash
Ġpro s
ĠCh an
Ġce iling
Ġli quid
Ġter ror
Ġnar row
Ġexpect ations
Ġmi ning
Ġhealth care
ĠColor ado
Ġtic ket
ond a
Ġsatis f
ĠK im
Ġbow l
ĠU k
Ġyoung er
ĠSof tware
Ġstud ied
Ġat trib
Ġimag ine
cri be
ĠC R
Ġbr ush
form ance
Ġch apter
T ube
Ġclass room
ng oing
Ġprint ed
ĠSt art
Ġdestin ation
Ġmag ic
tit led
Ġs ter
ĠTr ust
Ġo dd
D r
Ġg allery
or able
M C
ol ks
E d
Ġgi fts
Ġag es
ĠSte ve
Ġmom ents
Ġ tank
ĠCor poration
Ġsp ok
Ġcommon ly
ĠThe atre
a ver
dition ally
B ri
L ist
i i
Ġcon so
Ġcomp os
foli o
Ġpick ed
Ġun like
Ġ ly
Ġm ac
C lick
ĠM ath
ĠFin ancial
man n
L Y
ĠF ord
ĠE ss
Ġrec on
ĠB oy
Ġdis co
Ġat tract
ĠThere fore
li ve
ne e
ĠTh ose
Ġbe l
Ġresearch ers
ti oned
Ġact or
ĠE astern
Ġfavour ite
Ġtem plate
ri nk
i nter
A ss
Ġgradu ate
> #
3 00
Ġhab it
Ġhigh light
ag ues
J ohn
i ers
ĠJ ustice
ĠSecret ary
Ġoff ices
ĠIde as
Ġclo thes
20 12
Ġauthor ities
ĠBro ad
Ġchalleng ing
Ġtur ning
Ġfl ash
Ġtow ns
u ine
to ck
gh ter
ĠLi n
ĠH elp
Ġinform ed
z abeth
ĠSt an
Ġexpl ained
ri ne
Ġw estern
ES T
Ġar my
ĠL og
Ġob lig
p on
Ġb odies
Ġmembers hip
Ġcompone nt
Ġcapt ure
Ġtre nds
Ġexten sion
Re ad
Ġasp ect
ĠU sing
ĠP ot
Ġc os
Ġ6 5
s en
Ġdiffer ences
Ġsp ons
Ġv ast
b ooks
Ġeng agement
ĠF ac
Ġj ustice
ai red
te es
Ġmanag ing
ĠK itchen
Ġincre ases
id i
Ġoper ated
Ġrou tine
ting u
Ġdec k
Ġproduc er
Ġin ches
Ġs cript
Ġsurpris e
l ass
ĠPri me
Ġregi ons
Ġst unning
alle t
ĠSto ck
Ġcerti fied
Ġgr ass
al o
Ġer a
Ġplane t
ĠB and
Ġle ct
ain less
Ġde aling
K e
f ront
Ġ3 4
x ic
Ġc art
as ant
Ġso il
Ġr ural
Ġde velo
Ġenc ounter
f l
Ġo k
Ġiniti ally
Ġlink ed
ab e
Ġnorm ally
ĠPo int
Ġref lect
Ġp od
Ġris ks
Ġm ut
Ġcri minal
Ġchem ical
clus ion
Ġcommunic ations
ĠS H
ĠStud ents
Ġasso ciation
we et
ĠSen ate
Ġs em
ĠD aniel
E A
Ġstrateg ic
an tic
ati vity
p age
Ġsi n
h ttps
Ġlo go
ĠE state
ti fy
Ġm ere
Ġd uty
lic ated
bour ne
ĠPar liament
st yle
Ġtransport ation
Ġw el
S ec
ear s
Ġinv ited
Ġpro of
Ġtal ent
l ar
um a
Ġher self
Ġc ute
ag on
Ġalco hol
z ona
Ġ198 9
B I
ĠC i
Ġm and
ig ure
to mer
Ġremo val
Ġl augh
Ġmanag ers
ĠJ r
ĠHo ly
ĠVi et
Ad d
Ġrep orting
Ġfi ghting
us ing
Ġflex ible
Ġenth usi
ĠBu y
et ts
ach us
C T
ame ter
Ġatmosph ere
Ġcelebr ate
ĠSing apore
Ġp ill
Ġbe er
ĠR un
Ġ tested
ĠDri ve
Ġw ave
ĠOb ama
ĠC as
Ġv ital
Ġcreat es
ter ior
Ġperson nel
es h
Ġmi le
Ġdiscus sed
Ġdra ma
ĠProduc ts
ĠB ru
ĠInd ust
Ġnew ly
Ġre ward
M us
ã Ģ
!! !
Ġrepres ents
ĠSto re
8 9
b io
f ortunately
h ere
t ac
Ġfin ance
Ġpass ing
Ġmon itoring
ĠU r
ER S
Ġgu idance
ĠO il
Ġabs or
Ġweek ly
Ġund ers
atur ally
el a
Ġ telling
ĠTor onto
Ġclai med
Ġli es
Ġequi pped
v as
Ġo ngoing
Ġul timately
ap ing
Ġnotic ed
p ur
tine nt
Ġro se
Ġtran sition
R S
Ġter ri
Ġfi led
ane s
Ġpo ker
ĠC am
trac ts
Ġh am
th at
P M
ĠSto ne
ĠAn ti
ĠSy dney
Ġeng age
ĠComm on
ĠB ridge
Ġch oosing
Ġtri gg
Ġpi n
Ġmanufactur ers
ĠColumb ia
Ġper mission
Ġl anguages
ĠS S
ĠSte el
force ment
ĠDo es
Ġco ck
Ġconsist ent
ĠF L
ĠP rom
Ġmon itor
Ġfor th
Ġpl ain
Ġin ner
en n
Ġcrush er
ĠLoc al
ĠC ivil
ĠM ember
Ġd ental
Ġdis pl
u per
ra q
z i
ack ed
Ġtrans mission
re al
ĠS U
Ġdraw ing
Ġvirt ual
Ġâ Ĩ
A Y
Ġb low
act or
Ġfit ness
C are
Ġmer ch
ĠM ulti
ĠB ad
ĠH ou
j ust
Ġmo ist
ag en
c lo
Ġhost ed
ĠR ight
ĠMedic ine
Ġqu ote
Ġappe al
Ġconst ant
oli s
ĠMod ern
Ġun ion
ar ry
ent le
Ġhapp ening
F ree
ĠMay be
re c
ce ler
Ġatt orney
Ġp ed
ath an
w er
ĠC oo
Ġdef ault
re ate
Ġdep th
Ġrep utation
ĠChris ti
Ġ )
id ers
ath y
Ġs lot
ĠR od
Ġprepar ation
uc cess
ĠL LC
Ġh idden
Ġn i
Ġbot tle
Ġcont est
Ġb ass
Ġe ase
Ġpi pe
aw n
yc le
ĠP as
Ġind eed
Ġth erm
Ġprof essor
ĠI ce
Ġacqui red
Ġass um
Ġimpro ving
Ġra ting
ĠH ong
b ri
ul pt
achus etts
O f
ir ts
il ton
8 5
ne tic
Ġexhib ition
Ġthi n
Ġcle a
= #
Ġm ari
Ġ198 8
Ġev ol
az e
f rom
Al so
p to
Ġclo thing
ĠH ol
Ġ3 9
Ġ[ ...
ĠO s
20 11
b ell
Ġrelie f
Ġclub s
Ġpers ons
Ġul timate
Ġcon v
Ġpos sibility
Ġintel ligence
ĠB all
Ġstret ch
Ġshoo ting
Ġimpos sible
Ġs tim
Ġp p
Ġexpos ure
ĠProf essional
ES S
Ġv ul
Ġti ny
Ġinv ent
Ġtax es
ne ys
Ġplatform s
ers hip
Ġve nd
o ir
ĠWi nter
ep ing
Ġw a
il er
Ġi P
d ri
p an
Ġch ose
Ġsav ings
ĠF ish
om et
Ġacc ord
v ard
t ack
Ġboo st
ra ge
Ġsh ops
b et
Ġprec ise
ĠD VD
ĠB C
ĠFore st
z o
ul ating
Ġo ven
Ġgener ate
Ġac ts
ib ly
Ġboo king
reg on
Ġwood en
Ġsustain able
o si
Ġph en
Ġhe avi
Ġimmedi ate
Ġin ch
Ġspi n
ĠHear t
ad i
ĠC ou
or ters
Ġfac ts
ĠSt ory
lan tic
Ġdescri be
Ġcontr ast
Ġdynam ic
ĠH as
ĠS l
Ġrecogni tion
ĠAg ain
G reat
Ġstatis tics
Ġl atter
Ġcomm ission
Ġpow der
nt ario
ost er
ack et
Ġproduc ing
u zz
E P
ĠT ool
ot al
ĠInst agram
ĠMc C
Ġtw enty
Ġinj uries
tr action
sel s
ul um
Ġrev olution
ĠLi nk
e v
Ġsex ual
Ġeng aged
Ġs auce
Ġ ðŁ
Ġple ased
Ab out
ĠSen ior
iz ing
g ni
ĠCol lection
Ġaccess ories
Ġcons tit
Ġdec ade
inc luding
t ube
ra d
di tions
c m
ĠDis ney
Ġvac ation
Ġac ting
Ġst reets
er ial
Ġill ness
Ġl ad
Ġrespective ly
ĠM ap
Ġsche me
Ġsh arp
Ġjud ge
ĠAn th
Ġpublic ation
Ġint ro
Ġinc ident
ty pe
Ġf as
ĠMin istry
ĠP ict
ĠAsse mbly
Ġcaus ing
Ġrecogni ze
Ġbird s
ĠPh ys
ord an
ĠS ir
Ġmark ed
Ġfair ly
ĠCom ments
ĠMal ay
l en
ĠIs lands
ĠL ind
ĠN iger
Ġoccur red
Ġexp enses
Ġhum ans
Ġdro pped
Ġb ranch
ĠVictor ia
Ġaccomp lish
Ġlist ening
Ġ( "
fic i
Ġcontro lled
Al though
Ġexpan sion
ĠMachi ne
Ġclo s
Ġsecond ary
Ġfor um
Ġe lections
Ġy ard
Ġw ra
ch ar
ound ed
ĠYou Tube
Ġso lo
ĠS ep
ĠS ig
Ġ tack
ĠL ED
ĠR og
Ġ ;
ĠM att
Ġcont aining
ĠGu ard
ĠT ar
Ġy esterday
Ġprin ting
ĠL abor
se ll
ĠDemoc ratic
p ool
f ies
Ġab use
Ġlaw yer
Ġread er
T op
ri g
Ġcateg ories
hold ers
Ġarri ve
Ġleg s
Ġn uclear
th ew
Ġrece i
Ġwar ran
ĠGold en
Ġform al
Ġst ring
Ġdis s
Ġhe aling
Ġs ick
Ġsav ed
ĠJ ane
Ġ tac
Ġy ards
f all
Ġconven ient
Ġm al
ĠS n
ĠCh alle
ur er
Ġreli gion
ĠC lin
ĠB attle
H igh
Ġlarge ly
Ġl ake
ĠT reat
s hi
Ġassi gned
u ing
Ġcontrib ute
ĠK it
ĠR om
xi ety
ap h
Ġjo ining
Ġdra matic
' ,
Ġcruc ial
Ġcon cepts
Ġretire ment
Ġadap t
Ġreduc tion
Ġben ch
Ġchan nels
Ġmus cle
ĠL atin
Ġpro ven
t um
Ġres erved
Ġshi ft
Ð º
y stem
ac ious
Ġf iction
Ġ19 50
nes ota
Ġcal endar
C O
Ġsto red
Ġun known
Ġli ked
al ling
ĠL ew
Ġhyd ro
Ġh ung
Ġil leg
Ġn omin
Ġattrac tive
Ġappro val
ĠT ai
Ġlist s
B M
p ower
Ġpl u
r ite
Ġdem oc
ĠD ra
R I
Ġcab inet
Ġb ags
2 000
ĠA nim
ĠTy pe
ĠL ook
A V
versi ties
ĠH a
Ġfif th
as k
Ġspeci alist
p ass
ĠLim ited
âĢĿ <
Ġsol ve
s he
ĠD utch
nd a
Ġact ress
Ġsuper ior
s a
ĠAr g
Ġ ?
Ġdesi red
Ġassist ant
ic als
Ġfind s
Ġ3 7
Ġg ran
Ġex tent
Eng lish
Ġdump ster
ĠTh us
Ġdis m
Ġinst ruction
Ġserious ly
is a
O h
ĠP ra
ĠS afety
Ġg ained
Ġdefini tion
Ġc odes
O p
Ġse nding
elp hia
enti st
ĠE vent
Ġpro ve
Ġ tail
he im
ĠO ak
Ġpres ents
Ġst orm
Ġindust ries
E G
o tic
Ġequ ival
ill y
B ack
c les
ĠPro cess
Ġpi nk
ĠSh ould
k h
Ġli e
ĠMass achusetts
ĠD er
i ors
Ġrem ark
Ġcont ained
Ġhot els
Ġsub mitted
Ġgrant ed
ke l
ĠPak istan
le tter
o tive
ĠEmp ire
Ġ4 2
ĠAr m
ĠIn vest
Ġtit les
ĠT al
ran k
ateg ory
ĠO ntario
ĠNe ed
ĠSt aff
re ement
ĠT am
Ġr ush
ens ity
Ñ ĥ
ĠD am
n ish
ĠSqu are
on so
Ġshi ps
Ġreali zed
ĠT ro
Ġf olks
Ġswim ming
Ġadd s
los ure
Ġconf ident
ai ry
Ġ' :
ĠC ru
ĠSm art
gh an
Ġs me
lad elphia
ĠB aby
Ġstrugg le
Ġmo ves
Ġ6 4
ĠR u
R C
m aking
ĠN on
Ġnewsp aper
ĠSh ort
p art
Ġ8 00
ĠF REE
Ġ198 7
el ry
tic ally
ĠAu tom
AN D
Ġr ice
ĠM D
Ġse ed
ĠF u
Ġfootball ers
ĠO S
is k
l ai
ali ze
Ġg orgeous
Ġincreasing ly
Ġinter pret
M o
Ġhead s
ĠMag azine
c or
Ġ5 5
Wh ere
Ġdefe nd
ĠT aylor
Ġre nov
ĠPort ug
Ġslow ly
ous es
Ġconne ctions
Ġcon g
ĠMem bers
Ġcra ft
ĠI raq
Ġsuffer ing
Ġcomp li
se x
s pe
ĠLear n
ĠD un
Ġfir ms
r acy
Ġhand ling
Ġm el
Ġam ounts
Ġeli gible
ĠC P
Ġobs erved
ĠAdmin istration
ograph ic
com m
Ð »
Ġsugg ests
ĠOffic er
U M
Ġpercent age
8 6
Ġexp ressed
Ġan ticip
ĠI d
Ġcompar ison
J u
Ġa mend
Ġcrow d
Ġtreat ments
ĠN ote
Ġapplic able
Ġus age
Ġro ot
8 00
ĠVill age
th a
Ġdisplay ed
m ble
ĠEli zabeth
f its
Ġwor st
are t
Ġbri lli
Ġadop ted
Ġno ise
J an
Pl ay
Ġocc urs
c ue
ĠSup reme
Ġp lot
Ġm a
enti ne
Ġbeh alf
w a
Ġ198 6
ĠStud io
ĠS ection
Ġcover ing
Ġblo cks
Ġmi xture
Ġme als
ĠO xford
Ġavail ability
st an
ped ia
and y
Ġsing les
ĠAri zona
Ġent rance
Ġwhe never
Ġtr ick
Ġadv ent
Ġopp osite
pe ople
ĠC ase
ĠTh ough
Ġcontrol s
ĠM ee
Ġgen uine
p aper
Ġbre ast
rop ical
ĠD ark
ĠN ever
ĠAg ency
Ġcomp are
ĠV ery
to red
ĠR an
Ġenter prise
Ġframe work
âĢĻ ,
Ġstat ements
re ts
or gan
Ġcontinu ing
ĠSe ason
Ġl uck
ĠC ON
ĠL as
em bers
ru g
Ġfal se
Ġgener ated
ĠFo x
epend ent
d on
Ġguide lines
ĠM es
Ġinvol ves
con sin
T oday
Ġdevelop ers
w ords
ĠM om
au x
Ġli kes
ĠEd ward
Ġconcer ning
ic he
ĠRepublic an
Ġm illions
Ġres ume
ĠH ung
ĠN atural
il st
Ġinvol ving
Ġs mile
ĠC amer
ĠLear ning
ri nt
ĠH old
alog ue
Ġst ric
Ġadmin istrative
ic ian
Ġphilosoph y
an ting
az a
ĠSci ences
Ġre action
er ts
4 00
gor ith
Ġp atch
ĠBro ok
ĠSome times
Ġsec tions
e qu
Ġs amples
Ġpen al
pp y
Ġreduc ing
p a
Ġra w
Ġc riter
Ġfeeling s
Ġmem ories
ĠB a
b rid
Ġsurpris ed
ĠP sych
ach es
Ġvis ible
Ġple asure
Ġ tun
ed ge
Ġact ors
Ġsome what
Ġg ate
H ave
lic it
Ġd reams
Ġ198 4
Ġover w
Ġcol umn
ti a
ne ll
Ġprom ise
Ġpl ug
Ġwh ilst
Ġwire less
Ġy ield
Ġge nder
ĠH oli
ĠL es
ect ors
Ġmort gage
w een
Ġtrans p
Ġne uro
Ġcol on
200 9
Ġrepresent ative
Ġconstruc ted
A F
Ġexist ence
Ġen titled
h u
ĠG er
Ġ4 9
St ud
ĠF un
ĠCon tin
m ont
Ġdepe nds
g ns
ou ri
Ġfun ny
Ġb ars
Ġview ed
Ġend ing
ĠSo viet
re ction
Tr ans
ĠC a
I ns
lic ate
Ġti p
Ġpromo tion
Ġreti red
Ġoffici ally
Ġcons cious
Ġsub jects
Ġengine s
Ch ar
Re g
St ar
ĠM ade
ed uc
ach er
Ġtal ks
Ġf inger
Ġ198 5
ĠO regon
Ġinc l
oi n
pl ates
Ġr acing
ĠM ajor
ĠC ry
Ġf ounder
Ġwi ns
L ove
ĠJe an
ĠF all
Ġdri ven
te ed
Ġj e
ĠF low
ĠRep resent
Ġdeb ate
Ġtrack ing
ĠE mer
Ġconcer t
Ġvul ne
m outh
Ġmaint ained
Ġtom orrow
um er
Ġfl our
O K
ĠChampions hips
Ġbox es
Ġun us
ust rali
Ġcra zy
Ġho le
Ġlegis lation
Ġph r
200 8
Ġmar ks
li ns
ĠD oc
ĠW H
ĠS ound
Ġ2 50
Ġb acter
ru ption
ors es
ons es
ac ting
Ġdise ases
Ġch ronic
ĠS EO
as m
Ġfunction al
Ġrequ ests
Ġ1 20
n st
Ġprom inent
ri ers
ĠQu ality
ĠO cean
Ġbase ball
d ale
ĠV o
ĠD id
li nk
erv ative
m ad
Ġlim its
ne ct
Ġdiv ided
Ġcap abilities
e ve
Ġport folio
Ġs oph
el le
Ġh ate
k ers
Ġcommunic ate
Ġperson ality
Ġst ro
Ġcomp liance
op er
G ood
Ġsho ot
Ġprefer red
h ops
Ġen ables
Ġscienti sts
Ġcarry ing
Ġin her
Ġinsi ght
ow a
ĠB ir
Ġab and
Ġflav or
Ġst ake
Ġj un
Ġpass word
ĠL ady
ort ed
Ġmath ema
ĠK ids
ĠR on
ny l
Ġk i
ĠPub lish
ĠS ign
ĠH ay
Ġci vili
Ġdi es
ĠBraz il
e ah
Ġwin ners
Ġpric ing
ĠR ome
Ġev olution
ir l
Ġp ris
ĠP ur
e ties
Ġsp oke
ĠW ars
Ġemp ty
am ic
Ġdra wn
Ġegg s
l ah
on ia
ĠTrans port
Ġretur ning
Ġtrans action
Ġperform ances
Ġintel lect
Ġgraph ics
Ġconsum ption
Ġst ages
em ed
Ġqu e
Ġroad s
Ġmin ister
Ġmee ts
Ġfore ver
Ġs an
Ġgra b
Ġjour nal
abet es
Ġlicens ed
Ġm ic
Ġtoo th
!! !<
ĠB on
Ġsome where
ati ble
ĠV en
Ġp rison
Ġconsider ation
R L
Ġdam aged
/ <
ti tio
Ġar ray
Ġb are
C opyright
D P
v it
he m
Ġg ym
ĠM ater
ĠE dition
pro of
Ġ4 4
ĠD aily
ĠCur rent
Ġl ucky
to od
N ote
ad ed
Ġch airs
Ġpropos al
p ress
Ġch ap
Ġposs ess
Ġc m
Ġb one
ĠCus tom
Ġp iano
friend ly
Ġapproach es
Ġad s
H is
at ric
c ut
ĠMin nesota
ĠBar b
Ġf lying
Ġintegra tion
ĠL au
ĠM otor
nc ol
B ec
v ol
w orks
Ġexpand ed
ĠS at
t ut
ins on
Ġsupp lement
Ġesc ape
ph ones
Ġhe ating
ĠHou ston
R em
Ġcom edy
ac on
Ġac quis
Ġindic ate
Ġdri nking
un ter
Ġorganis ation
ĠO h
W ho
lin ary
ĠT ry
Ġrepe ated
B ook
ti e
r ats
Ġobj ective
Ġdo ctors
Ġhop ing
tur al
erv ice
Ġsuffer ed
Ġrequire ment
ĠR en
Ġo cean
Ġcent ers
ĠR aj
P o
Ġb id
S ub
Ġdep osit
ag i
B ar
IN E
Ġweap ons
Ġmi nds
w ear
is er
Ġcerem ony
lec ts
ci ple
ache lor
Ġ' ,
Ġpre m
Ġas ide
G A
Ġmo lec
Ġcirc uit
ĠAnn ual
x x
ĠVe gas
ĠA h
vi ation
ĠStand ard
ri ger
Ġprior ity
Ġpo cket
Ġ1 000
Ġneigh b
ĠLe vel
ĠS uch
Ġven ue
Ġparticip ation
Ġport ra
ĠDes pite
Th en
ĠP ers
ĠE qui
Ġill ust
Ġrail way
i no
ĠBra d
Ġeval uation
ĠE ff
Ear ly
Ġsettle ment
ĠE ver
igh ting
" )
ĠE ric
tw ork
ine ts
ĠS oc
emi n
ĠWil son
Ġl aid
Ġcompe tit
ĠA ge
Ġlegis l
Ġz ero
b ow
ĠBer lin
ĠPriv ate
Ġb rid
Ġmo ld
Ġref resh
Ġst able
j e
all as
le ft
Ġsen sitive
ra ine
Ġe co
Ġa ut
ag a
Ġpurch asing
ĠR ub
ams ung
o ners
Ġmaint aining
ĠJ en
ap y
t ly
ron ze
ĠL A
Ġpos ting
ĠH ind
Ġgradu ated
Ch ris
C ons
9 6
ch est
Ġarg ument
Ġ0 1
end ing
s is
erv ing
Ġpot entially
ĠHistor ic
Ġrequ ested
Ġran king
di e
ĠGovern or
T ech
ĠC asino
ĠTur key
th is
Ġdra ft
Ġelectric ity
nd e
M on
Ġenjoy ing
Ġfac ed
Ġ ~
Ġh its
ĠS ab
C ur
Ġpack ages
ĠProduc t
ĠMr s
ĠN ame
ĠâĨ Ĵ
9 7
ĠQ ues
fo ot
ĠKore an
elli te
t une
ti ms
el ve
P L
D own
Ġprov ision
ast ed
N C
Ġinst ruct
lud es
Ġem br
ti er
ther lands
ĠDav is
pe nd
Ġless on
Ġclo ck
Ġsatisf action
Ġer rors
à ¥
Ġform ation
Ġti ll
ĠP S
ĠH ills
Ġw aters
Ġ tum
Ġis ol
Ġsce nes
ĠMod el
ĠB ris
Bl ack
Ġimag i
Ġholi days
ĠPhi ladelphia
ic tions
ĠDie go
ĠD oug
Ġdra g
ĠB row
ĠA ve
Ġexp osed
n ab
l anta
p erson
iz za
Ġn aturally
Ġregard less
am ental
W i
x ed
ĠStud ent
t ou
Ġbroad cast
W he
n as
Tw o
Ġacc ounting
ĠP it
ti sm
ĠS av
Ġres idence
u ous
Ġcomp osed
H A
Che ck
ĠA nton
Ġan xiety
Ġ tut
ĠP ersonal
Ġupgra de
ĠChe m
Ġexpl an
ric ulum
ĠA ction
ĠH aving
s ite
ĠC B
Ġm ig
Ġdistin ct
ĠT an
Ġac celer
ĠA st
ul ator
Ġequival ent
Ġestablish ments
Ġbelie ves
ĠMe thod
Ġbas ically
ĠN umber
hi bi
ĠFor um
Ġlay out
Ġti ssue
u its
ĠCr ush
Ġflow er
áħ µ
p ay
ĠH an
ĠGir l
ĠExp ress
qu est
S W
ĠC C
Ġto ile
Ġgreat ly
ĠWis consin
Ġpri ze
Ġchild hood
Ġb att
ĠR ound
ĠSol utions
Ġoverw hel
ĠT ok
ĠGl ass
Ġalle ged
Ġsc ulpt
8 7
Ġb ind
Ġincred ibly
i est
xp ected
Ġtransfer red
Ġens uring
?? ??
Ġpow ers
o to
Ġpaint ed
200 7
Ġpane ls
Ġstud ying
Ġsugges tions
O G
Ġsu fficient
ĠUS B
Ġinst ant
Ġphotograph s
ĠTra de
L ear
M r
ĠR yan
Ġs ought
Ġdown town
ĠB BC
ig en
as ty
Ġwal ked
Ġimp ression
ĠF eder
E ven
T ags
ar on
ĠWh ich
Ġvoc als
om er
ĠMem orial
ĠInd one
th ur
Ġra tio
Ġbro ke
ĠCl oud
tig ation
ĠJ am
ant ed
Ġbuy ers
Ġpolitic ian
ĠN ations
Ġreach ing
Ġhy per
Ġsur ve
ĠH P
ĠE le
ĠCus tomer
ĠS till
m ates
ĠPri nt
I E
ell o
Ġli ft
less ly
Ġper mit
ĠP aper
Ġref und
lig ent
Ġset up
Ġenter ing
ub a
Ġmir ror
Ġsho ts
Ġlo ving
ir y
Ġcop ies
umin um
Ġfrequ ency
ĠRep air
ĠPol and
! )
Com m
Ġsold iers
us s
9 2
r un
Ġ198 3
Ġun w
Ġsi ght
Ġg li
ak h
z an
i us
F eb
ĠS lo
em ic
tr ack
Ġarri val
is ms
ĠE X
ĠF A
Ġdefe ated
ĠF C
y si
ĠScot tish
ĠSt ra
hi gh
t ai
li x
ĠE st
Ġh urt
Ġh at
ĠMan ufact
Ġv intage
Ġexpl ains
Ġemploy ed
ro g
ĠAg reement
Ġcriter ia
Ġali ve
Ġle gend
Ġhead ed
T E
> âĢĵ
Ġencoura ged
ĠAlex ander
Ġexception al
bi n
ht ml
Ġfl ag
Ġan niversary
Ġc am
Ġal gorith
ĠH appy
tr um
Ġter min
ĠS M
Ġout comes
ĠA mb
Ġcontrib ution
ĠQue ens
ĠDis c
Ġto ne
qu arters
Ġinter active
Ġtag ged
et t
iner s
Ġpull ed
Ġble nd
ĠB it
Ġtem porary
ĠA nt
Ġl es
Ġtrave ling
lud e
Ġb ab
Ġpe ak
ĠB at
Ġfac es
Ġk illing
Ġsitu ated
om s
ĠAd am
Ġinj ured
h ome
Ġcapt ured
Ġf ranch
ar ity
ĠDe li
ĠMi ami
ĠN ation
Ġd a
Ġdis pos
Ġresult ed
ĠF ather
Ġattemp ts
ĠCo ver
Ġstri ke
fi er
for mer
n on
ĠH ur
% ,
ĠR a
he t
Ġstrong ly
S outh
ors hip
Ġcontrib utions
Ġmus icians
tain s
on na
Ġn ights
lic a
H P
ĠA z
V ER
ĠAd vis
ĠK ansas
] .
os is
ĠWord Press
Ġapp lying
ur is
Ġh ook
AT E
Ġcerti fication
ĠInd ustry
Ġli ability
Ġg entle
Ġst uck
ĠR oo
ĠPro vince
Ġsc ope
Ġcol ours
Ġdish es
ĠM ir
ment ary
Ġmo du
I mp
ph a
room s
ĠProt ection
er en
| |
ĠStud y
8 2
ĠBri an
ĠCap ital
p roduc
Ġvolunte ers
Ġ( )
Ġilleg al
ĠYou th
ĠSe lect
Ġnecess arily
os si
Ġs oo
Ġout come
Ġspe aker
Ġasse mbly
ĠBud d
Ġ198 2
co i
Ġsp ots
Ġcare ful
Ġne ut
Ġany way
Ġepis odes
M ake
ĠT R
S m
Ġo u
Ġlo ose
Ġcomp uters
Ġeleg ant
h es
Ġveget ables
Ġpolitic ians
U D
Ġclo sing
Ġdep ression
od ing
Ġd ust
ĠMar sh
ĠCast le
Ġopp one
ĠS E
Ġthem es
ĠSteph en
ĠAcc ount
S w
ĠRes ources
8 4
. )<
Ġqu otes
ĠMel bourne
Ġdem ands
ĠMill er
y es
Ġiniti ative
ĠM oo
ĠC ome
Ġphone s
Ġed ited
coi n
ĠIndian a
ĠEn joy
ĠAd vent
Ġcompens ation
9 1
% )
Ġcomple tion
Ġspeci fied
a fter
us ive
ĠComp uter
Ġle ts
Ġse gment
Ġwithd raw
Ġche cking
rit ten
Ġliter ally
ĠB oo
it zer
Ġgi ant
ĠD I
Ġdesig ners
Ġri ding
ever al
W orld
ä ¸
Ġfra ud
Ġgre y
Ġimprove ments
Ġdisapp oint
ĠF le
ĠPart ners
Ġf ru
ax y
Ġb orrow
F ur
Ġhop es
I m
Ġtele phone
Ġfocus es
Ġf t
ĠCamb ridge
U se
ane l
re f
Ġag ed
ĠS ri
Ġres ort
Ġb omb
Ġdistrib uted
Ġp ig
act ory
Ġres erve
Ġcomb at
i nch
ĠMo on
Ġsc ores
Ġsqu ad
Ġre nder
Ġpot ato
Ġop ens
9 4
Ġtri ps
Ġ[... ]<
ĠOlymp ic
T P
ĠC redit
ĠEv ents
Ġtr oub
Ġdi amond
G E
Ġfall s
8 3
ĠE N
um mer
Ġlife time
ver ty
Ġ197 9
Ġmodu le
ĠAd ditionally
av id
G ra
ĠB us
Ġm ood
Ġass ume
Ġvis its
Ġsp ell
ĠHaw ai
z u
Ġrece ption
Ġo range
nes see
Ġris ing
Ġse eds
Ġaccord ance
ĠAt lantic
ces sive
ĠD rag
erv ations
Ġth ro
Ġmount ains
v als
Ġconfig uration
ĠN ick
Ġevery where
ĠG row
Ġpi lot
m ir
ĠPl ant
Ġr aces
Ġpri me
od a
Ġex ha
enti als
200 6
be ing
P hoto
Ġp ace
Ġcerti ficate
Ġre ly
ĠD NA
Ġsupp liers
Ġbre aking
e ff
Ġimplement ed
thes is
ĠPo ly
C L
Ġconsult ation
Ġinter action
Ġresp onses
Ġfal ling
ĠH air
i j
ĠC ape
Ġstra nge
li ty
ĠE th
Ġdiv or
9 3
Ġcar pet
Ġfor got
Ġdemon st
ot y
6 00
Ġspeak ers
Ġl ou
Ġj us
ĠDon ald
Ġprincip al
AR T
ĠC S
ar ia
1 50
ĠAr ticle
ĠG olf
ĠRegion al
Ġrapid ly
Ġrec ruit
ĠCh ange
Ġphen omen
t ap
r ass
ic ide
gi ving
L a
Ġne ither
Ġreci pi
ĠW edding
ol t
ĠNe therlands
Ġpray er
ĠI V
N ational
Ġg all
Ġutili ty
Ġsubsequ ent
Ġ6 00
od ge
Ġcas ual
ĠG ive
h ou
lam m
Ġst ead
ov a
Ġcons ent
w orld
Ã Ĺ
ĠIsra eli
viron ments
ĠIm age
lah oma
Ġcomp licated
Ġm aps
Ġcol lective
c tive
li ances
ĠTer ms
Ġc otton
Ġsp ark
ti que
ĠJ ordan
Ġeas tern
hy th
Ġtrans lation
ĠCh apter
ĠHar ry
Ġcorrect ly
Be fore
Ġstay ing
Ġdestroy ed
Ġyour s
ĠI ron
ĠN ic
Ġdescri bes
ĠMan chester
' '
ro lled
ĠUn it
P ub
hold er
Ġfind ings
Ġg aming
ĠG as
Ġl ens
ĠY et
po sition
oli tan
li sts
f ish
Ġune xpected
Ġhor iz
Ġinstr uments
Ġc ater
Ġaccommod ation
ãĤ Ļ
Ġex ists
Ġlow est
M od
ĠBe ing
nam ed
Ġterrit ory
ist rib
Ġch ances
si e
Ġdri nks
ali a
w art
mission s
ĠU ser
cri bed
ĠP erson
2 50
Ġsc rew
F e
Ġparticip ated
Ġowners hip
Ġpublish ing
Ġem ails
ach ed
le ep
Ġshould n
Ġprepar ing
ĠO li
Ġdi pl
Ġstrong er
Ġsof a
ĠSh are
Ġthe atre
bo ards
Ġcomb ine
z ech
E ach
Ġengine er
ĠM other
ĠHo llywood
ĠElectr ic
ĠL ic
ĠFin ance
ĠP ati
ĠSi x
ir k
Ġb ands
ĠLew is
Ġarrest ed
er g
ĠG reg
ĠB E
Ġc a
Ġlap top
Ġcopy right
Ġgraph ic
ĠCh ap
Ġwe igh
ĠR ac
Ġcomp osition
gg ed
Ġtrans actions
ces sion
ĠDe ad
ĠB h
Ġdis tingu
Ġcoun sel
g ments
H er
uro pe
Ġy oga
ĠD ate
ĠF ab
ac ular
Ġsto od
Ġe book
Ġm g
ps on
Ġp ounds
ĠMary land
Ġpro vince
Ġscr atch
u nes
Ġd ad
Ġfunction ality
ĠCon struction
Ġattend ing
ĠS ize
Ġdecl ared
ĠPri ze
ch ing
ĠV ers
ncol n
ject ed
ure au
onso red
Ġto mato
ĠS om
ĠE P
Ġro yal
N otes
âĢĻ .
Ġa x
n n
Ġaim s
U nder
Ġex tract
ĠRe gi
ĠSt ri
d ro
or se
Ġ198 1
m ic
Ġpri de
Ġopp osed
ĠSte ven
orm al
ĠP ales
Ġrepair s
Ù Ħ
n f
Ġaddress es
ag an
Ġwarran ty
Ġindic ated
Ġchampions hip
Ġproto col
ĠFi nal
ĠN FL
ch ild
Ġinten se
Ġbrilli ant
ĠMi ni
Ġtro ops
ĠViet nam
Ġad equ
ĠA k
ine ma
is ode
Ġse es
Ġcoach ing
áħ ³
T y
áĨ ¼
Ġgra d
8 1
ĠK u
ĠR h
ĠMon th
Ġcontai ner
Ġke ys
D R
az i
ĠSe attle
te ned
s ome
Ġev il
ĠG M
Ġexplor ing
Ġrel ation
st ep
ĠB ody
... .<
Ġguaran teed
ĠAn ne
Ġdec ent
ĠC L
Ġthous and
ĠDo ctor
Ġflo ors
Ġvic tims
s k
Ġfocus ing
lim ited
ĠW elcome
Ġf lights
Ġperiod s
Ġan th
áħ ©
ar n
Ġg ap
ĠT X
Ġdi versity
Ġin tention
b ian
ĠF ront
Ġcol lections
Ġobvious ly
âĢ² âĢ²
ĠJ i
Ġg al
Ġrecog n
ĠLe ave
Ġcolle agues
Ġsk illed
Ġm att
Ġover se
ĠP ain
ab ad
Ġti le
ĠA ustin
IG H
Ġfil ling
Ġcompet e
ĠPremi er
ĠWh it
ĠP ow
l on
Ġfinish ing
d am
Ġp ad
ĠV ice
Ġ à¤
ĠT oy
Ġpo etry
Ġunders tood
ĠBer n
ce nd
Ġle af
ĠD J
ĠP y
Ġfund amental
Ġv otes
Ġass et
ĠM oney
Ġcontinu ous
Ġrep ly
Ġcele bration
yc ling
Ġopp osition
ĠWith out
tric ts
Ġ {
chest ra
Ġfas cin
Ġconver sion
ĠDec or
Ġ197 2
Ġheavi ly
Li fe
Pre vious
Ġtem p
Ġ197 6
ai th
ĠTh ings
Ġ197 8
ĠFo llowing
pi ece
Ġbene ficial
Ġd ual
Ġfarm ers
Ġfine st
Ġrank ed
Ġcour ts
ĠH omes
Ġemploy er
Ġf its
c ard
â Ĥ¬
Ġbro thers
ĠProper ty
Ġdra i
ĠD ream
Ġdrai n
ĠK er
Ġlo yal
D C
Ġene my
ĠDe ath
ĠT a
ĠT ony
ER E
Ġmodi fied
Ġrom antic
Ġstay ed
Ġaccur acy
Ġch ampion
Ġsi nk
ĠL ater
ĠG h
Ġvolunte er
Ġrepres enting
ĠB ull
ĠSar ah
ĠKe vin
ĠRev olution
Ġnur sing
Q L
Ġbo ards
d ep
str act
Ġb ills
ch en
p orts
ĠM ind
Ġuni form
Ġâ Ĥ¬
ĠW y
Ġsatis fied
Ġ ?<
ĠGir ls
ĠA B
ari ous
ĠN O
Ġuni versities
ĠEnter tainment
ĠM ission
fra id
Ġunus ual
Ġeng aging
Ġtri m
Ġc ensus
Ġcur rency
ĠAnal y
ĠClass ic
Ġ5 2
ĠR id
ti ble
Ġtemper atures
ĠMiss ouri
ing ton
Ġbelie f
p tions
be an
ĠD ave
ĠMat thew
Ġrec re
T ake
Ġst ainless
Ġflex ibility
ĠAnd re
Ġintro duce
ĠSchool s
Ġk ni
200 5
ĠLit er
Ġpass es
ĠD or
ĠPer formance
ĠE asy
ĠI L
ĠR ap
ĠEx change
Ġh es
i nal
cy cle
se ason
Ġ0 4
Ġdeliver ing
ĠArch itect
ĠD O
ĠB ot
pp i
Ġhe aven
t ape
Ġ4 1
ro it
Ġsubstanti al
Ġold est
Ġ tube
rie ved
Ġen vironments
Ġtal ked
Ġsac ri
Ġgold en
si zed
Ġv ice
ĠT ru
an while
r ice
Ġcon tracts
ĠM oh
ĠE lement
Ġsequ ence
ĠSt at
Ġtech n
ci ence
B o
di nary
Ġa fraid
Ġ9 5
Ġorganis ations
ab ili
ĠMar ia
% .
" ,"
ĠApp ro
av or
Ġpar alle
Ġti e
h r
Ġs lo
W S
Ġdoll ar
ĠL ux
ĠAt lanta
Ġrel ating
Ġdesign ated
Ġsubsequ ently
ili an
g al
IL L
Ġsing ing
ĠJ ay
ĠFin ally
ĠTra il
Ġgu ides
se a
t les
ĠIn iti
Ġconsequ ences
ĠS ex
L ab
ra ne
O ut
Ġcele bra
Ġb at
m ies
ĠTur k
Ġ196 8
P oli
Ġ4 3
fi re
ĠA thle
Ġparticip ating
Ġmed al
ell a
Ġun cer
Ġw is
Ġher itage
Ġ( $
Ġref uge
Ġv on
ou ver
Ġany more
Ġg am
u ality
Ġor al
Ġb unch
Ġw ing
ĠUn fortunately
Ġ197 5
Ġc uts
ĠS elf
Ġen forcement
Ġworks hops
P N
ell er
ĠAssist ant
Ġdef ine
Ġwatch ed
ĠEx pl
Ġha z
Ġpain tings
ch arge
Ġsign ature
Ġju ice
ĠB es
Ġab road
ob e
ĠRo ber
ĠN ature
ĠOffic ial
en z
th rough
ĠG un
ĠPlan ning
ari b
Ġpromo ting
gra duate
ĠBre ak
ĠB irth
ĠW riting
Ġdire ctions
ĠM un
ĠAff airs
Ġind oor
Ġground s
ĠEgy pt
Ġdes tr
Ġhang ing
Ġ19 30
p ers
U C
. ;
Ġn ations
ĠSer ver
ĠIn te
m us
b us
A ug
Ġ19 20
Ġde eper
B O
> ^
ĠB or
H L
Ġcre ativity
ame ters
g ue
Ġ tou
ĠB ush
Bu ild
ist a
Ġtw i
Ġra ising
Ġloss es
ati le
Ġview ing
ĠDel hi
Ġst ability
Ġclass ical
Ġhead ing
ĠE ag
ĠJew s
lic al
Ġad mit
Ġro ots
Ġ19 40
h our
Ġcomp an
ĠSwed en
Ġlay ers
av ed
pri nt
Ġh ockey
Ġamong st
ĠPo lish
ĠEar ly
ang le
Ġ0 8
E X
ll en
ang er
as ka
ĠB M
ĠAL L
aw are
ĠO K
Ġpe pper
Ġhone y
Ġchar ity
Ġex cess
Ġgr ace
Ġem ission
amb ling
Ġ tons
ane t
Ġl aser
ch a
ĠChalle nge
ĠTen nessee
onym ous
ĠL em
m akers
ail and
Ġinvest ments
Ġex amination
ĠIn nov
R ed
ĠP ier
ĠPat rick
ab ama
ce ived
Ġes timate
Ġcampai gns
ĠTi ps
Ġdeep ly
men ting
Ġmechan ical
i mp
ĠPriv acy
Ġdevelo per
C or
itzer land
Ġb aking
Ġpack aging
Ġ tap
Ġh ill
Ġwar ning
Ġreve al
Ġ197 4
n th
Li ke
ut ors
Ġdocument ary
Ġdemonstr ate
osp el
uri ties
Ġpati o
Ġcomp rom
Ġconven tional
ag u
Ġres ident
H ot
ĠN AS
Ġgr ate
ĠChan nel
Ġwhe els
P op
Ġcheck ed
us al
gra de
Ġdisco very
Ġconven ience
lo oking
Ġprov ed
ĠApp lication
t ours
allow een
ĠN at
Ġinf ection
ver t
Ġ tape
ĠMar ine
ĠT ree
Ġwor ship
ĠPhilipp ines
Ġ4 6
Ġ0 2
Ġcomm issi
en na
Ġw anting
Ġat titude
Ġsett led
Ġch est
t to
Ġsti r
are st
Ġpre v
p g
i ra
f ers
ri x
w riter
Ġdem o
Ġpack ed
Ġdirect ors
N S
ĠMet al
ĠG rant
Ġall oc
Ġform ula
ĠI owa
ordi nary
Ġto y
ĠD allas
te x
Ġdep loy
eme tery
Ġ197 7
Ġshould er
t age
Ġsc ar
Ġdispl ays
ĠS D
Ġv enture
ĠAv ailable
Ġ Ø
V is
Cont act
ĠCan cer
Ġpro por
Ġflu id
I B
Ġco al
ĠF R
ne tt
ĠN ap
Ġ9 9
on ing
Ġequ ally
ĠR s
gra ms
Ġref ers
Ġapparent ly
Ġ0 9
b les
Ġhard er
ud es
Ġmove ments
Ġed it
ang a
tic es
Ġadvant ages
ĠW ould
mark et
ath ers
Ġste am
ac ent
cc er
ĠC ut
Ġn urs
ĠAll en
ĠP ear
Ġrepresent ation
Ġtit led
Ġinterview s
Ġflo oring
pi n
ĠAnd erson
ĠI ll
Ġti red
Ġme ters
ĠHigh way
Ġengine ers
ĠI mm
o lo
Ġsp ray
Ġex terior
Ġbed s
is l
Ġcamer as
Ġcontrib uted
ĠT owns
Ġaud i
200 4
Ġpaper back
to ps
Ġob st
ug s
ĠOk lahoma
Ġmechan ism
Ġ197 3
oun ce
our se
Ġarti stic
en ix
ĠMex ican
ĠAnal ysis
ĠSy mp
ĠO range
cl ai
ĠYear s
hi ll
ĠJ ob
N et
AL L
t ah
ĠLe on
ĠP ho
Fur ther
ff s
Ġdefe at
ĠD ays
ĠJun ior
ow ners
ing ers
Ġaccomp ani
Ġh oles
Ġsurvi ve
ĠP ast
Ġsum mary
Ġmake up
Ġab ilities
w ho
Ġfew er
ash ed
ĠC OM
Ġsc oring
Ġpri vi
Ġbl ank
ĠB ou
Ġtarget ed
A g
Ġdu ties
ĠCoo per
Ġemer ging
Ġdocument ation
anc ouver
ari ties
P res
ist ed
Ġinvent ory
Ġhas n
ar o
Ġcirc le
Ġco at
Ġ tours
re ens
S peci
st y
Ġmount ed
Ġrele ases
Ġman if
ĠB ry
Ġchurch es
ĠRail way
as ions
Ġinsi ghts
Ġs ke
ĠC ore
ĠMus lim
ĠSt adium
ĠRead ing
Ġsp ir
b ound
Ġobj ectives
AN T
ĠCh ang
g ement
rit ers
Ġd ensity
Ġmatt ress
p ost
Ġclic king
ĠL arge
ĠSp rings
Ġacknow led
t v
Ġc ow
Ġemp ower
Ġsh irt
umb ing
ult ane
T ime
Ġdec line
Ġposs ession
Ġsens or
Ġ196 9
Ġ ..
at to
Ġtext ure
Ġsm oke
!! !!
Ġbel t
ĠEconom ic
ĠCont ent
ĠL ane
t ropical
Ġtow er
ĠM ove
ra bility
ĠTem ple
Ġser vers
Ġcon clusion
ok er
ĠB ird
Ġw ise
Ġcont ents
ĠCor ps
Ġh ip
Ġp uts
w ick
p ing
Ġsudden ly
Ġrub ber
Ġmar ine
Ġcra fts
Ġsoph istic
att an
w all
ĠIndust rial
ĠRest aur
Bec ause
os c
Ġemo tions
Ġs orry
? "
IC E
Ġbehavi our
ĠN ur
u um
ĠUS D
Ġintellect ual
qu iry
ĠAr k
Ġjew elry
Ġr ated
Ġphotograph er
arm a
ĠAuthor ity
Ġmass age
app ro
Ġcal m
is ation
u tic
Ge neral
ĠW as
Ġprom oted
ĠS now
Ġoper ational
Ġper f
Ġ4 7
Ġathle tes
ĠI C
sib ilities
Ġhost s
U K
Ġpo verty
Ġimm ig
D ay
ĠA G
Ġl ady
Ġmere ly
ĠSim on
hi l
Ġvers us
c asting
ĠD ance
b ia
Care er
Ġadverti se
ĠAp r
nd ry
ĠD E
Ġhigh lights
Ġrang ing
Ġpar ks
Ġmeas ured
ĠC ulture
ateg ories
Ġin hab
Ġvisit or
log ist
Ġdu rable
Ġ197 1
tic les
p ot
Ġcoach es
a a
Ġ 00
Ġuni verse
ĠP L
as sion
c ity
Ġre ferences
ĠFranc is
Ġshort ly
Ġcons titution
ri m
ĠC T
ĠPl aces
ĠSty le
Ġadmin istr
Ġsent ence
Ġtra dem
Un ited
ĠCour se
Ġ194 5
Ġgovern ments
Ġab und
Ġrare ly
v ation
Ġun p
Ġpasse ngers
ĠCap tain
Ġcap it
Ġprin ciple
Ġacquis ition
ĠSur vey
ĠL yn
ĠFur niture
Ġnutri tion
Ġopini ons
crip ts
Ġtem ple
Ġang le
IV E
sp an
go ing
amp ton
k m
Ġcur riculum
are nts
ĠLa ure
ĠFore ign
br aries
Ġiniti atives
Ġconnec ting
ĠH um
Ġed iting
ĠI M
ĠCre ative
Ġsurround ed
ĠC ell
ne z
il ty
ĠL ooking
Ġk il
ĠGre ece
Ġess entially
Ġtar gets
com fort
Ġelect ro
ĠF ive
ĠH ai
r ical
ĠP or
ate ur
Ġdesk top
Ġpublic ations
ĠW ine
un ct
v ous
ĠHer itage
n tend
oles ale
j an
Ġw ake
ĠCle ar
Ġaim ed
Ġdri ves
Ġarrang ed
ĠH art
ĠSp ort
Ġbo ld
ĠJu li
Ġsig ning
ĠRem ember
ĠInst all
ĠEqui pment
ĠD ue
or ized
ok ed
art ed
Ġmin istry
Ġexerc ises
Ġwi nds
Ġto ler
ĠKent ucky
Ġban king
Ġwonder ing
Ġse am
vis ions
ĠAm ong
Ġloc ally
IT H
ĠN ar
Ġ196 7
Ġsurvi val
Ġbe auti
b ot
ord on
Ġport able
n ock
Ġlaw yers
ĠS ac
Ġoper ator
ĠExper ience
Ġindic ates
sh ot
ve t
ĠReview s
ac les
IT Y
ap olis
ul ties
b age
I O
Ġdirect ory
Ġten nis
uris d
Ġb ran
EC T
ĠT u
ĠS O
Ġh orses
h ai
Ġnetw orking
Ġl au
Ġbedroom s
it ate
Ġapp lies
tom y
Ġp up
ĠL ess
Ġref riger
Ġc ali
Ġdecre ase
m ans
ĠP ad
ĠF uture
I nt
Ġmedic ation
Ġf olk
Ġproduc es
Ġb lind
Ì Ĭ
Ġlo op
Ġa es
Ġpassion ate
ĠG il
Ġsy nd
Ġl oud
ĠTh ird
d ated
c os
Ġcon j
Ġarrang ements
Ġo x
ĠM it
áħ ¥
Ġcomp act
ĠR oc
Ġso ccer
Ġmist ake
ĠM ilitary
Ġcry stal
Ġp uzz
tic k
Ġreg ulation
Ġdi abetes
igen ous
le ments
Ð ²
Ġcr ack
áĨ ¯
ĠB B
ĠQu ick
Ġproduc tivity
Ġg rid
tr ans
Ġbur n
i red
ĠAdv anced
ĠCons titution
ĠM and
em an
Ġvari able
Ġe lder
ĠC op
Ġh iring
Ġst amp
Ġsur ge
Ġnovel s
Ġdiffic ulty
Ġconcent ration
ĠJ ava
Ġinsp ection
ĠPe ace
ĠD ouble
ĠLi ncoln
ath e
Ġdiagnos is
Ġbo ot
ĠRes erved
200 3
Ġcor n
Ġsp an
gg ing
od d
aw s
f ly
Ġmist akes
Ġtrust ed
a ud
g ate
ĠK y
Ġj er
Ġg ay
Ġtal ented
id ae
Uni versity
F S
lo re
Ġb uck
" |
c ond
Ġpower ed
ic ed
Ġacqui re
ĠPer haps
els on
Ġcap s
ĠS ave
ot ors
Ġappear ances
Ġsafe ly
W est
Ġpurs ue
ĠBe ne
Ġ8 5
Ġexce ed
us ting
Ġsu ite
Ġdevelop ments
Ġdesig ning
Y ear
er or
Ġaccommod ate
qui re
Ġequ ity
Ġle gi
ĠDu ke
ĠIslam ic
ĠE C
Ġ0 7
Ġw eren
Ġsh apes
ĠS ide
S pe
to nes
Ġwis dom
Ġcooper ation
ĠSw itzerland
ti ally
ĠM s
Ġfranch ise
Ġcol oring
L o
ĠWor king
ĠA w
Ġconsist ently
Ġp it
ĠK elly
ĠB ased
Ġvic tim
Ġcent uries
Ġinv ite
p res
ĠEnvironment al
sc ale
ol as
ĠC and
le e
Ġpar ish
Ġcus hi
Ġh ide
Ġwork place
M embers
Ġacc um
Ġdis order
Ġgene rous
Ġhear ts
Ġregul atory
ĠRet rieved
Ġdiscus sions
ath on
Ġbreak s
Ġhi red
Ġg ardens
ĠMee ting
Ġshe ets
ĠPer fect
w orking
O ri
Ġess ays
am ili
li ss
Ġspeci alized
ĠDi amond
Ġdis tricts
Ġwor n
Ġoper ators
ĠPh one
ĠB uff
Ġsign als
Ġsw ing
ĠL anguage
Ġmo on
Ġsty lish
ĠSing le
h ard
Ex p
Ġcab inets
ic kets
Ġwi der
ĠiP ad
Ġland ing
Ġenh anced
Ġfrequ ent
Ġa po
Ġestablish ment
B L
ĠShe l
rop olitan
ĠVis it
Ġaddress ed
Ġoper ates
ĠB ear
In st
ĠM ust
Ġcan ce
lot te
f ric
Ġland s
âĢ ĺ
Ġpoint ed
Ġnot able
Ġac qu
b oy
W omen
ĠAl abama
Ġpi one
ĠPe ters
ĠB R
u li
Ġam en
Ġde leg
Ġu k
Ġmatch ing
Ġpregn ancy
Ġ0 3
ĠL ie
Ġconver ted
Sp orts
Ġdi al
L D
om ed
ĠAg ric
Ġtrans formation
OR E
Ġminim al
>â Ĩ
Ġconver t
Ġv oted
Ġro lling
ist ance
Ġ ta
Ġpro hib
Ġgrate ful
ter native
uc king
Ġshe ll
Ġelimin ate
l anguage
Ġarrang ement
si ght
Ġco pper
Ġor dinary
ous ing
ĠE lli
ĠR ow
win ning
ĠB ag
Ġemploy ers
Ġdis aster
an try
Ġblog s
ĠJ osh
c ow
agra ph
Ġ196 4
ll ers
Ġi OS
Ġphys ics
ĠMi x
ĠR and
ĠG ran
ĠW W
s ers
ĠAf ghan
Ġimp ressed
Ġcomple ting
ĠSpe ed
Ġti ed
Ġfr ust
ĠA y
mon th
ĠAnth ony
Ġref used
b ird
Ġagg reg
ĠP ut
Ġto ys
ĠJ ason
Ġmus cles
Ġvi br
Ġal arm
ĠTh ailand
ss ues
Ġwhere as
Ġelse where
ĠB ureau
Ġfab ulous
Ġsupp lied
Ġbr ick
Ġproduc ers
Ġe ner
ĠCom mercial
Ġinves ting
ĠG ro
Ġentreprene urs
Ġpro sec
AC K
ĠB lock
Ġhapp iness
ist ent
Ġb ou
tili ty
ĠGu ys
Ġdam ages
ĠBow l
H z
Ġwrit es
ĠVi n
Ġresol ve
lo se
Ġv ine
Ġactive ly
ĠMalay sia
Ġdiag ram
Ġpar ameters
ĠO pp
ll ar
Ġreview ed
ĠS amsung
E l
Ġprac titio
Ġens ures
p ack
ĠEvery thing
Ġbuy er
Ġ7 2
ul us
Ġder ived
Ġsim ultane
Ġdis con
Ġs ons
Ġsupp lier
Ġtw e
ab ling
Ġe igh
' .
Ġin tend
] ,
Ġad mitted
ur u
Ġutili ze
Ġmi ld
Ġpasse nger
th an
Ġover come
Ġstruc k
Ġover view
ĠN a
Ġeth nic
Ġconso lid
Ġp our
Ġtr ash
ti ous
Ġm ouse
Ġagg ressive
Ġfi ber
Ġcred its
In c
Ġres tore
Ġarti ficial
Ġcomp atible
Ġs our
Ġno se
Ġse al
Ġar twork
Ġchar ts
Ìģ ,
ĠTech no
teen th
Ġcoll ap
Ġpossib ilities
ac o
R et
Ġen abled
Ġrest oration
Ġpopular ity
Ġcelebr ated
Ġcons ervation
fe fe
Ġstrugg ling
Down load
Ġman uals
un ity
Ġj azz
Ġincorpor ated
j ection
Ġ196 5
ĠF ine
Ġtwi n
i nf
im b
ĠIn ves
b log
Ġloc ks
Ġdism iss
Ġmy stery
ĠRel ations
ĠB os
red ited
ĠC os
ĠC u
Ġevalu ate
Ġsymb ol
ĠC zech
xy gen
ĠC ele
ĠMo vie
Ġcom ic
ĠF al
Ġsix th
Ġst em
Ġimportant ly
---- ----
Ġgo ver
o line
Ġremo ving
Ġdiv ide
n or
ĠK ings
lo sed
Ġinter act
Ġpred ict
ĠC ow
ĠF alls
Ġis lands
Ġb ay
t ale
Ġconstit u
vi an
ĠRes erve
Ġ5 1
ment al
u ce
ĠT rib
Ġ5 4
ĠNi k
ĠL ot
sc reen
ĠGe ner
nter est
Ġfle et
Ġsmart phone
ĠR ain
Ġrestric tions
az ines
Ġs lots
Ġfulf ill
Ġinvolve ment
ĠH R
ĠCl ark
elf are
ĠFriend s
min ute
ĠDo or
Ġre verse
Ġo uter
Ġvir us
it ations
S M
les h
N orth
ĠHar ris
Ġtri b
Ġj urisd
Ġspeci alists
Ġmar gin
Ġrepe at
Ġul tra
am an
ĠSo ci
U P
Ġly rics
ĠU C
ĠCommunic ations
ĠC e
sh op
M ark
th al
Ġtem plates
Ġv ent
ĠG ab
ĠW el
ĠThi nk
Ġgene rations
ĠA I
ĠAl liance
Ġabs ence
Ġasse mb
Ġprocess ed
Ġver tical
gi um
Ġm ad
ĠPhi l
ffic i
Ġspect acular
ĠSwed ish
i ft
cus sion
N E
Ġtri als
Ġsto ps
Ġchem istry
ĠM ine
Ġsurf aces
Ġre loc
as ters
le nd
ĠC ash
ĠK ind
Ġmanufact ured
Ġman ip
Ġquanti ty
D em
r ish
Ġtrail er
medi ate
Ġhy po
Ġrou tes
Ġ0 6
Ġcompetit ors
Ñ ı
Ġr um
Ġindepend ence
m aster
tr as
to pher
Ġhousehold s
ĠB rew
Ġun cle
ĠFurther more
Ġre tro
ver e
In ternational
Ġb ub
w estern
ĠV ancouver
rist mas
ĠNiger ia
ĠDet roit
200 2
Ġvill ages
Ġh unting
A ustrali
f a
Ġa merican
Ġocc asions
ĠJo i
ĠB ab
ĠK han
Ġwild life
qu et
ĠE mail
Ġb ic
Ġdemonstr ated
Ġagric ultural
ling ton
ig s
ĠD ur
Ġleg acy
do ors
Ġacc used
ĠCh oose
Ġpre ced
l est
ĠIndone sia
ĠN ear
Ġre hab
ud d
ĠU RL
ĠFeder ation
ell ows
Ġad mi
Ġevery body
Ġrough ly
m g
Ġremark able
ĠDef ense
ĠCons ult
c s
ĠHam ilton
v or
Ġprov isions
Ġtri es
Ġw aves
200 1
ed ral
Ġcontract ors
Ġjun ior
ank a
Ġtra ins
be y
ĠLin ux
K E
Ġbacter ia
Ġcul tiv
p resent
Ġfant asy
Ġcon vey
Ġ196 6
> @
ĠMor gan
Ġchi ps
Ġgun s
Ġemo tion
ĠPrac tice
ph ic
ĠCom pe
c asts
Ġdis orders
Ġ Ù
V C
Ġglo be
ĠSi n
ĠRou te
Ġpe ts
Ġton ight
Ġ0 5
Ġglo b
ĠCent ury
M en
ju ana
Ġexp ense
Ġphys ician
Ġr us
Ġc ats
Ġoccasion ally
arib bean
Ġback up
Ġbu ried
Ġgot ten
Ġbur ning
s uch
build ing
ĠChristi ans
Ġexperi encing
Ġle ase
Ġthe ater
Ġlet ting
Ġcoup les
Ġquali fy
ĠE qu
Ġfin ancing
Ġattemp ted
ui n
Ġsat ellite
ĠB ishop
ĠJoi n
Ġmy th
Ġemphas is
s ki
ĠMoo re
Ġgather ed
D I
Ġcat alog
p he
ĠM ort
ĠF ashion
Ġin tri
de f
ig ned
bur n
ĠEvery one
ĠT el
ĠG P
ffic ial
Ġfit ted
A v
Ġche aper
ĠF ast
ctic ut
ĠCon tract
lo ved
Ġw ard
en i
Ġdeli vers
> ...
ĠPh D
Ġmini mi
ĠSc reen
t aint
Ġp upp
ĠSt orage
ĠComm and
Ġprin ter
Ġgather ing
M L
Ġkey board
Ġsleep ing
ust ed
atri ate
Ġexam ine
ĠTech nical
Ġexclusive ly
Ġh ack
Ġra tings
Ġnar rative
Ġh ub
ĠHow ard
Ġover night
Ġeduc ated
S L
Ġpi x
ĠH op
c kets
= =
Ġaccompani ed
Ġw rest
Ġcry pto
ĠCli nton
B re
ĠMag ic
Ġtable t
H ar
le menting
ĠAr thur
ven ting
Ġ( âĢľ
Ġwi ring
Ġas ks
R P
Ġsimp li
ĠElement ary
! âĢĿ
Ġwid th
pi red
ĠTh erap
ĠPlay er
ĠTok yo
Ġh em
ĠG a
Ġdang er
Ġvirt ually
it ting
Ġs ectors
ather ine
oli n
Ġex chang
Ġcar rier
Ġa er
Ġlis tings
ĠPri or
Ġrec ru
Ġdi ff
Ġ %
Ġw are
Ġpro vin
ug g
ĠArch ives
Ġcru ise
Ġfru its
Ġgene tic
ĠE aster
Ġsubs cription
Ġgener ic
c al
Ġliter ary
ĠA qu
ĠRes ort
ĠChair man
vel and
B ig
Ġfo lder
C P
ĠNor way
H D
li est
Ġcook ed
au g
m ach
Ġex ecu
Ġsubst ance
ĠHoli day
ĠCh amber
Ġal uminum
Ġres cue
S upp
au thor
Bri tish
li on
o ch
im en
Pro f
ĠRec ord
issi ppi
ĠL am
M arch
S uper
Ġ5 6
g ree
Ġinst antly
Ġem bed
Ġmeaning ful
ĠAr ti
c alled
f unction
Ġsh aped
ĠC ount
ĠTr ack
ĠAl ber
s u
ĠRe li
O B
mi ning
Ġinter vention
Ġhospit als
Ã ¸
ĠF ile
ĠP ick
Ġf ence
er to
ĠR oss
Ġpl acing
Ġwork er
P art
isc al
Ġintegr ity
Ġl amp
Ġ1 10
et ch
ĠJo bs
Ġac res
Ġsure ly
Ġmet ab
ĠR ab
o es
or neys
ĠC N
Ġed ges
ĠAP I
Ġl asting
Ġan ch
Ġpro tes
B io
Ä ±
ci ll
Ġoil s
ĠS A
Ġpre cious
ĠDe ep
ĠV A
Ġb oss
Ġmor al
Ġdu ration
ĠMet ro
th y
Ġp ip
Ñ ĸ
ĠPort land
ĠCle aning
ĠUk raine
Ġhand y
Ġparalle l
Ġdi ameter
Ġpar liament
ĠAtt orney
f red
ĠU tah
Ġ tropical
n an
b ul
Ġtour ism
off s
ĠT ower
Ġstruc tural
Ġcoup on
ĠD ress
ĠMos cow
Ġsh ock
ĠSe ven
L ooking
Ġcult ures
ĠF an
al so
w riting
Ġpurch ases
Fil ms
Ġlabor atory
Ġrob ust
Ġper mitted
ie val
Ġannounce ment
ĠCer ti
Ġex it
ll and
Ġidenti fication
ĠGre y
ĠC F
ĠP a
Ġar range
Ġent ries
ĠMore over
to on
er k
ĠW ire
enti na
ĠF resh
ĠEd itor
Ġmy ster
ĠD ak
R us
Ġchair man
Ġk nee
M I
Ġinflu enced
S et
le m
c ure
Ġbu ll
vious ly
Ġfo am
ĠG ate
Ġpenal ty
ĠFo llow
Ġte nder
w he
Ġple asant
Ġhead quarters
áĦ Ģ
Ġpregn ant
ĠS W
ĠN ich
ĠM ul
ĠF ant
Ġcorrespond ing
Ġpre vention
y d
Ġappreci ated
re tion
IS T
ĠCom plete
c ore
ĠR ick
Ġm ature
Ġche cks
olog ist
A pril
on ly
Ġdo se
ĠPhoto graphy
P i
ĠH al
Ġthorough ly
He alth
Ġchem icals
ĠN J
Ġexce ll
B R
Ġout fit
Ġcoo ling
no ld
Ġco gni
c at
J une
B usiness
ĠBe autiful
O ff
Ġbeauti fully
ali tion
E duc
b ridge
Ġextra ordinary
wh ite
Ġsh ade
ĠR ent
Ġc ig
Ġimm une
Ġexplan ation
Ġ !
bre ak
Ġ10 1
re ll
Ġthe ore
Ġapp le
Ġthi nks
Ġdisc ounts
ĠH alloween
is ure
Ġcontract or
Ġs tit
ĠV ac
Ġfacilit ate
Ġbran ches
Ġconc luded
C ap
Ġmeasure ment
Ġpic king
Ġsc al
Ġvo ting
Ġenti ty
Ġsum m
Ġestim ates
Ġpar ad
ched ule
tim ore
m aker
s ection
ali sed
Ġou ght
Ġjourn alist
Ġsome how
Ġsophistic ated
ad er
ce llent
l ash
ĠSw iss
ĠWith i
ĠA V
ĠWithi n
Ġdimen sions
ĠR ing
Ġind uc
Ġpres idential
Ġhab its
ĠD at
Ġinspi re
ple x
b acks
ĠAnton io
Ġfra mes
Ġm arch
Ġimp l
Ġvend ors
Ġdipl om
Ġsme ll
ĠC ris
ch ain
Ġbal anced
ĠN ative
m al
Ġpush ed
now ned
ĠLi ver
ĠDub lin
ĠVe ter
Ì £
Ġprog ressive
ĠCon cer
Ġsusp ect
Ġsh oc
ur ers
ĠCon vention
the ast
ĠLet ter
tes y
is hi
Ġin hib
Ġg ambling
Ġinter actions
ĠB L
pl ed
iction ary
ĠGra de
ĠH om
Ġwish es
ĠW olf
ĠM uch
Ġpl ates
ĠInter ior
Ġassoci ate
Ġmed ian
ish ment
ĠCo ffee
Ġg ang
ke e
augh ters
Ġgu ilty
U E
Ġsec ured
par ty
Ġhy brid
Ġd entist
go v
Cur rent
ĠPhi lli
US T
ĠFlo or
Ġhe ll
Ġpres cription
Ġ3 60
Ġdivor ce
Ġcap ability
ĠAn na
Ġprof its
er ted
ĠIn sp
az ed
nes is
ĠE mb
Ġinter pre
Ġ5 3
Ġexpand ing
un i
A ir
Ġprot ecting
Ġattrac tions
f le
Ġsole ly
le ans
N or
Ġcons ecutive
ard o
r um
Ġpr on
Ġfund ra
Ġbu g
ĠRes pon
Ġscen ario
Ġjud gment
C us
Ġtour ist
Ġbro ker
Ġshel f
omi nation
Ġweap on
Ġfur n
Ġsal ary
Ġconsider able
w ind
Ġf ault
Ġhigh way
Ġsal ad
ĠMar g
Ġcont em
Ġr hyth
ĠC ool
P ort
ĠA th
ĠH ad
t ags
Feb ruary
C R
Ġtoile t
Ġm es
Ġadop tion
S tr
Ġexp ort
Ġspok en
Ġwal ks
ĠN ep
ĠS ource
to oth
Ġven ues
Å Ĥ
si ze
ĠDen ver
Ġconvers ations
Whe ther
ĠOrgan ization
as se
Ġapp liances
v ada
Ġvo ters
Ġmix ing
Ġin k
Ġeffici ently
bor ough
Ġtes tim
at ar
Ġgro cer
el and
ow ned
W elcome
Ġc ord
D avid
i res
ĠEx am
Ġun re
Ġle mon
Ġdef ensive
Ġfollow ers
Ġnew est
ĠL ad
Ġanswer ed
P roduc
Ġd ess
Des cription
ĠEmp loy
Ġcustomi zed
f ather
O s
id th
ĠConne cticut
F T
bu ilt
Ġgovern or
Ġdis cri
ming ham
P al
Ġr ings
Ġfund ed
ĠGi ft
Ġad mission
ust ain
Ġdep os
Ġse ller
ed d
we gian
ĠB ah
gi ve
Ġp y
ĠCon c
Ġc hip
b ie
ic y
Î ±
P P
Ġvi nyl
ĠPal ace
Jan uary
ÌĤ âĤ¬
": "
ĠI ng
Ġwe ird
Ġinter nation
Ġscreen ing
ĠD a
Ġb ronze
Ġ196 3
ĠDi ffer
Ġthe sis
Ġadv ised
Ġo re
Ġinterpret ation
Ġcont acts
ĠPe ak
TM L
Ġwash ing
ĠDe al
ĠAl an
Ġdimen sion
Ġbul k
w eek
Ġcons ulting
is ine
Ġspec trum
Ġcolle ges
Ġwall paper
ĠBe at
> $
n ut
ad ows
Ġgra y
Ġnews letter
b el
b at
ĠC oc
l ace
Ġexec ution
asc ular
Ġd ough
ĠUr ban
d og
Do es
Ġaband oned
Ġdiffic ulties
Ġproduc tive
Ġdepend ent
S earch
Ġtw elve
Ġdis ability
ĠR eci
ĠA ns
Ġann ually
Ġrelax ing
Ġreve als
Ġfascin ating
sc ape
Ġb atch
me tic
Ġamen ities
ĠS emi
Ġf ought
Ġok ay
Ġfast est
Cl ass
ag ers
Ġoverse as
Ġar bit
ĠRes ults
Ġunder lying
di rect
og en
Ġen orm
ĠG ulf
Ġpo et
W ill
ĠV it
Ġsto cks
Ġpost er
P ersonal
Ġcli n
Lear n
ob by
Ġr ack
ĠBrook lyn
Ġshel ter
o ks
ĠV irt
ĠT alk
Ġwor ried
ĠLeg al
Ġbeach es
Ġrece ives
li ning
Ġcli nic
Ġl ung
ts burgh
Ġgen us
ci ally
OV E
Ġre tain
Ġtex ts
Ġload ed
Ġmathema tics
Ġop t
Ġar med
Ġa ver
Ġf ake
ĠTowns hip
ĠM ess
Ġsp acious
ĠBo ys
Ġoff ensive
ĠM aine
Ġto xic
Ġb er
Ġreali stic
Ġ196 2
P ublic
Ġdi alogue
rane an
Ġmet res
ul u
Ġinvestig ate
ur l
ĠHu gh
Ġter minal
en h
Ñ ĭ
ĠS ug
Ġd ancing
Ġear nings
Ġmoist ure
Ġdes cent
ĠInd ependent
Ġrom ance
ĠG A
Ġv alley
Ġrepl acing
Ġstri p
enni fer
ĠÂ» <
ĠB ap
Ġdepart ments
ĠP ath
Ġdet ection
Ġsp are
Ġlog ic
og ue
áĦ ī
ĠRober ts
ĠW onder
Ġmed i
ng u
. âĢĻ
Ġdr um
ĠMc K
we alth
ni k
ĠD R
am aha
Ġbab ies
ĠMay or
ĠMic hel
Ġmunicip ality
ĠInd ex
Ġcompet ed
ĠDemoc rats
Ø ±
Ġvulne rable
Ġgu ided
tinent al
Ġstre aming
Ġimm igration
os a
Ġassign ment
Ġbu nd
op hi
v able
ab out
ĠR d
Ġnomin ated
Ġtr ucks
p ati
Ġinc om
ali nk
ĠTag ged
ĠE D
ep tion
l ades
Ġpsych ology
Ġner vous
pris es
Ġbo ats
Ġphys ically
AC T
Ġam bi
ĠCar l
i ro
Ġperson alized
Ġ194 4
Ġbe gun
ĠM aking
Ġadequ ate
ĠSh er
Ju ly
Ġapart ments
ĠDe an
ott age
Ġsli de
ĠO cc
ĠCons ider
ed ia
Ġbio logy
con f
ĠL ay
! "
Ġpl acement
Ġhum or
Ġan no
ĠH ans
ĠBet ter
ĠWalk er
ĠIn n
Ġphr ase
Ġauthor ized
um my
Ġh ence
Ġsou p
Ġd irt
ĠBath room
th ouse
Ġreg ards
uten ant
S ing
ĠLouis iana
ĠCle an
I ES
ĠC ars
Ġp unch
ĠR ug
Ġexcell ence
ĠO ffer
w atch
Ġuni versal
Ġbatter ies
ĠS kin
nab is
ĠD ad
vi val
Don ald
Ġp izza
Ġcap tain
ari n
ĠHar vard
pi ration
Ġadmin ister
J ap
g ade
Ġfi red
Ġfootball er
ac kets
C all
Ġinsp iring
ĠRid ge
Ġneigh bour
Ġcor por
Ġdeal er
din burgh
ĠPi nk
qu er
Ġsepar ated
Ġking dom
ĠBe auty
Ġadj acent
Ġden ied
C ent
ric ane
ĠR ot
Mus ic
Ġwork out
as is
Ass o
ĠC ategory
Ġbre w
Ġhope fully
Ġpublic ly
vis or
Ġsp onsored
Ġbe ans
ĠMc G
other apy
Ġpri nts
O ctober
ro se
os ystem
ĠAust ria
Ġgra i
Ġs ail
oo ting
Ġlo b
ĠHawai i
form ed
ĠFl ash
ĠC M
ĠB right
Ġro cks
ĠS ony
ĠSy ria
ĠO bs
Ġthreat s
Ġgar lic
Ġre tri
er ick
oun ced
Ġrespond ed
ĠComm issi
Ġin vention
Fo llowing
for ward
taint y
ĠS ti
ilit ation
ned y
ĠPict ures
Ġprocess or
it ects
ĠLab our
ĠN ash
ĠPho enix
Ð ¼
Ġhold er
u ke
Fin ally
Ġpar agraph
ee ts
ĠG R
ĠAl bert
ti ni
ĠTurk ish
Ġgen re
Ġdro ps
Ġeffective ness
ĠP ric
ĠC aribbean
Ġh ills
ĠP od
Ġ6 6
Ġbe ef
ĠPh arm
ĠB ond
Ġcompl aint
ĠAud io
ĠS uccess
X X
Ġdes per
Ġsuper b
ĠBe ng
Ġ5 8
P G
ĠG ordon
Ġbelie fs
ĠEnter prise
Ġ3 50
g ame
Ġcontro ller
Ġth irty
ĠComp anies
ed u
ĠCrush er
Ġs orts
ĠC old
Ġcompos er
Ġaff airs
Ġse as
ĠSimp ly
T O
ĠP ool
Ġo xygen
Ġres erves
Ġc afe
gu ard
ĠC orn
Ġachieve ment
Ġdon ation
and o
op ter
g ood
Ġagric ulture
ĠT ruc
V ideo
er ape
Ġf ingers
Ġage nda
ir ates
ab s
Ġ5 7
Ġvibr ant
Ġtime ly
ĠMiss issippi
ĠAl aska
Ġgra des
ĠBase ball
ĠF M
ĠVol ume
Ġcomp uting
Ġbut tons
Ġtra ditions
ear ing
ĠM C
Ġind i
b n
gene ration
ĠS ay
Ġconsult ant
en ne
fi ning
ĠR ace
Ġc ub
Ġemission s
Ġsn ap
ke ters
Ġcar b
ĠJ oy
ps y
Ġspok es
ĠAd ams
ag ar
ps hire
ĠP ap
ĠBru ce
ge ting
Ste p
gi le
t ang
ĠM E
19 99
ĠUp date
ĠSt atis
Ġpo em
ĠW ITH
Ġexp ed
Au thor
Ġlad ies
Ġenjoy able
ĠCle veland
ĠProm o
Ġlab els
estiv als
Ġlaw n
Ġcli p
Re view
ĠT ow
ĠG ary
ĠSa udi
est ab
ag ger
ues e
t ong
b lo
Ġti les
Ġsto mach
Sec ond
es tive
Ġri val
ĠDes k
Ġadv ise
Ġro bo
mar ks
Ġaffili ate
D ri
Ġinf lamm
se ts
Ġmag netic
ĠAl b
Ġph ysi
Ġexperiment al
R el
Ġachie ving
ĠS everal
Ġball s
M c
Ġdes erve
Ġhor ror
au ge
e ng
Ġincor porate
Ġsc ra
Ġse lecting
Ġa like
av an
Loc ation
ĠSc he
S im
. -
ĠLeg isl
im ension
Ġsupp orters
Ġw rap
ĠS co
Ġtravel ling
G oogle
ĠDoug las
Ġeconom ics
Ġd up
Ġfound ing
and ra
and e
Ġc urious
ont al
ĠLead ership
ĠGal axy
Ġs q
Ġsm oking
Ġflow s
g art
Ġcl ari
n osed
Ġimp er
ok es
Ġarchitect ural
li ms
Ġlo d
nam ents
ĠDe b
Ġbio logical
Ġtrigg er
Ġregard ed
. '
Ġg ross
ĠS olar
ĠContin ue
pe nded
ash er
Ġ196 1
at on
ĠSu ite
ĠK al
: :
Ġori ent
Ġexplor ation
s ky
N Y
Ġre jected
Ġencoura ging
Ġpres erve
Ġh orm
ĠMed al
AR D
ĠT otal
Ġsec rets
ĠP ic
ĠCo le
xt ures
ĠSp i
Ġaccomp lished
ĠStud ios
form ing
Ġcomp ly
line ss
Ġf emin
Ġclassi fied
Ġpres ti
áĦ ħ
Ġillustr ated
Ġtre mend
Ġregi me
Ġstro ke
Ġex cessive
Ġdele te
pl us
J o
Ġbu ff
ĠBel gium
Ġscholars hip
Ġoccup ied
Ġtut orial
it ement
ĠBlo od
Ġvol tage
Ġtra ils
ĠNE W
Ġn uts
Ġautom ated
Ġbound aries
new s
hi n
Ġco con
Ġunlike ly
ĠPl ans
ĠW ol
ĠM ail
op les
or er
let te
usal em
c ers
ĠD raw
ĠCer tified
ĠCor p
Ġtem por
Ġsh orter
W atch
Ġagre ements
Ġpush ing
D id
M ag
pri et
ĠCo ach
ph p
Ġ âĢĻ
Ġj et
an ie
ĠJ ul
Ġen jo
Ar ch
Ġsli p
ĠC opyright
Ġrec all
ĠChar lotte
ĠW ant
U I
Ġaff ects
ĠA na
Ġex em
il ation
Ġsho e
at u
Ġspecific ations
ĠWi ki
ĠTit le
Ġadap ted
Ġcons isting
ĠW A
c d
Ġsub tle
Ġw ings
ĠCom ment
C re
Ġexhib it
ĠBet ween
Ġconf used
Ġdis ag
F rench
ud a
Ġpat ent
V e
ig a
Ġm aker
onom ic
Ġcoast al
ĠPost ed
loy d
Ġs its
Ġlight weight
Ġfl ags
ali zing
ĠOr leans
Ġcar ries
Ġglass es
Ġpass age
or ig
ach t
Ġprom ised
Ġend e
on ies
Ġfem ales
ĠYOU R
Ġ194 8
Ġde ar
Ġoverwhel ming
the y
ĠAnd y
Ġcar ing
Ġa qu
> !
Ġoptim al
ĠB ee
Ġadvent ures
le an
ĠK at
ĠK ra
em ade
Ġo live
Ġterri ble
Ġimp acts
Ġdestr uction
ĠG ray
umb ai
Ġmag azines
Ġlimit ations
Ġc amps
B et
ur d
Ġsu ff
S I
ĠDI Y
Ġmag ical
ĠCard i
ri k
S D
ĠM unicip
.. ...
ĠTr ue
Ġd ash
he alth
Ġhad n
z ens
ĠL ang
og ni
Ġreduc es
c ap
ven ues
Ġcol lecting
ĠC el
EL L
7 00
ĠBudd h
iss ance
Ġass ured
Ġgrai n
rupt cy
er ra
ĠCre ate
Ġass ault
ĠLaw rence
ai gn
Ġload s
Ġp ol
ater al
Ġcontro versi
Ġprot est
ĠM I
á ĥ
Ġd ont
Ġ tent
k ind
n fo
lo v
S eptember
ĠG round
Ġboo ts
ĠE V
ment ed
as ures
ĠM aint
P oint
ĠE ve
oun try
Ġo z
Ġenter taining
Ġport ray
Ġdifferent ly
add le
Ġbind ing
ĠP ed
Ġcor ners
be at
ĠProduc tion
Ġti re
iter ranean
Ġ tai
Ġsubs cri
ĠSt ay
ass ador
ĠP un
Ġshi pped
sh ore
Ġpe er
ĠIS O
Ġhand led
Ġprof iles
ĠL is
ĠMon te
Ġback ing
ĠM B
Ġg rants
om as
ĠQueens land
Ġre treat
Ġrequ iring
am ous
ĠH it
Ġbe aring
Ġmusic ian
iz es
Ġfire place
ound ing
er ic
Ġpop ulations
Ġvari ed
Ġtack le
anna h
Ġcon vin
enni al
Ġins u
Ġsignific ance
ful ness
Ġ tan
Des pite
Ġs enti
Ġsh ore
Ġves sel
ĠO l
Ġse ating
ti na
en tical
ac co
o z
Aug ust
Ġcritic ism
Ġti m
Ġti ming
ĠPrin cip
Ġmeasure ments
ĠTur n
Ġspeak s
D ep
Ġcompe ting
Ġ !<
d iv
Ġexperi ments
s ub
ĠE T
Ġvol umes
Ġke en
Ġb its
ĠN one
Ġsi zed
Ġdis k
ĠB rid
Ġcollabor ative
Ġgrad ually
ĠIm ages
IT E
ĠW E
Th rough
Ġoption al
Ġaccept ance
v ar
H ello
ĠCon st
Ġinst alling
Ġcast le
Ð ´
vi es
Ġassum ed
ĠM atch
ĠW oman
L P
ah oo
t ure
ĠE nt
Ġcompeti tions
Ġclo th
Ġec osystem
ĠD ry
Ġexec uted
Ġform ing
ĠPri mary
Ġten sion
Op en
Ġ194 2
Ġco ating
Wh ite
Ġsusp ension
n ations
Ġcri tics
up id
Ġprote ins
U sing
row s
Ġjud ges
Ġbas ement
Ġround s
ĠMan ual
g ly
Ġmag nific
Î ¿
Ġinter f
ĠOut door
AS T
S y
Ġnavig ation
Ġaccomp any
ane ous
áħ ®
V ery
ĠG B
ĠT oo
ĠAl ong
ĠRus sell
Ġd ys
ĠS weet
ro t
ĠFre edom
Ġreli ability
Ġcook ie
g reen
Ġcou ch
Ġres tored
Ġster e
ĠDrag on
ra u
Ġre nowned
Ġman us
ĠDet ails
ĠE dinburgh
graph ic
f are
Ġ195 6
ĠT es
n ames
Ġidenti fying
ĠFra me
Ġarg ued
ĠSqu ad
Ġsurvi ved
ĠU P
p ir
ode ling
Ġwi nes
Ġtrans mit
Ġsh ed
W illi
Ġloc ate
f il
ti te
Ġli ver
Ġstra w
ĠBal timore
ous tic
li min
Ġdistin ctive
** **
meric a
ĠR ol
Ġintel ligent
Ġchar ging
Ġpsych ological
Ġn a
am ine
Ġs lic
Ġj acket
w y
Ġk nit
ĠPrin cess
Ġdon ations
cel ona
Ġcocon ut
W ar
ĠZ one
Ġcon ce
Ġab o
ĠR ang
Ġanaly tics
Ġp orn
ĠSub s
ĠC afe
le i
ĠSt ars
Ġpur ple
Ġsimultane ously
ĠTri p
Ġattack ed
S er
che ll
Ġlab our
ul li
ĠL ock
OR T
Ġdet ect
Ġfeed ing
ĠT un
ĠCo ll
ĠSimp le
Ġfore cast
ĠId enti
ĠSp ec
ĠN elson
ĠPublish ing
ss on
Ġrelax ed
ĠGu y
ĠW ard
Ġfor t
ir s
ĠStr ateg
com merce
N ovember
Ġpresent ations
Ġdis abled
ĠR io
Dec ember
New s
Ġaccept able
ĠAs k
Ġarg ue
Ġves sels
Ġri g
Ġde emed
ĠR ange
Ġbi n
Ġsu icide
Ġgrow s
Ġair line
Ġcom mer
um bers
ĠS ter
ĠNo thing
Ġsto nes
ĠA F
Ġvo ices
Ġenjo ys
Ġformer ly
speci fic
Ġal ert
ĠDub ai
Ġvac uum
B as
ĠA BC
ount ain
ĠChris topher
ic ts
re m
Ġimp lementing
ĠSing h
1 20
Ġicon ic
ĠRestaur ant
Ġresist ant
Ġend less
B ay
id enti
Ġhit ting
se ling
Ġ5 9
âĢĿ )
Ġunder ground
ĠM O
Ġcalc ulated
ĠG race
ĠTo gether
Ġg ard
Ġout doors
ĠM ars
Tr ack
199 0
Ġ195 9
) (
Ġre act
ĠChe l
ris e
Ġ195 8
till ery
n ote
Ġsand wich
Ġstrength en
Ġ6 2
ĠD ating
O b
Ġstri ve
S an
ĠDak ota
ĠJud ge
Ġhard ly
Ġout let
am m
ĠUp on
G reen
Ġdro ve
% <
Ġdisp ute
ach ers
ĠCi n
Ġlau ndry
Ġcondition ing
T ag
c ode
Ġsh adow
Ġbot tles
or tion
ĠAb d
Ġsp a
ac c
ver sion
Ġdiscip line
ali on
Ġline ar
Ġj aw
Ġprom ises
li nder
Ġsil ent
G old
ĠWal ter
Ġworld s
b est
Ġtransl ated
I AL
pl ant
m other
ĠVe hic
Ġsto pping
en cer
ĠF ro
K S
Ġen abling
Ġretail ers
ĠD ump
g ence
w eb
ĠBed room
row ave
b rew
Ġid entical
m art
Ġti es
Ġmem orable
Ġaudi ences
ĠW at
Ġattemp ting
Ġrestric ted
Ġdemoc racy
ĠBr un
th en
ĠThom pson
ĠWe e
Ġrecipi ent
Ġknowledge able
Ġvers atile
Ġimagi nation
ĠB achelor
Ġj am
back ground
Ġn an
ig e
Ġw re
He y
Ļ Ĥ
des ign
ĠPortug al
áĦ ĥ
ĠE ye
ĠAN Y
Ġc rown
Ġro d
ĠL ower
j ack
ĠA le
ĠPu erto
i nfo
iner als
Ġa uction
Ġ194 1
ant um
f ice
ced es
ĠS ud
Ġorganiz e
Ġear ning
Ġcons ervative
Ġ tune
Ġcou rage
Ġ tale
Ġrug by
mm ar
Ġform ats
Ġqu een
R i
Ġinstruct or
Ġcompl aints
Ġpod cast
ĠH ud
ĠP resent
00 3
Ġcross ing
? "<
Ġcomp assion
tt es
ĠInvest ment
Ġcri mes
Ġdead line
val ue
th on
ĠO m
f lo
G erman
ĠMor ris
Ġg ains
Ġ tong
Ġrev ised
o ly
ĠD ise
Ġso ap
ĠS ure
Ġint ent
ĠN ob
v ate
Ġmeas uring
ce eds
ch air
Ġli ps
ĠTreat ment
W ork
ĠP ages
ĠJer usalem
Ġcare ers
Ġmotiv ation
Ġ urg
ven tions
cy clo
le ngth
an cer
Ġnavig ate
ĠH unter
Ġchar ter
Ġall erg
Ġanal ys
ĠPro g
ĠY an
Ġadd iction
Ġinhab it
or us
k u
Ġst adium
h ot
> '
h attan
Ġdies el
Ġ19 39
ĠZ e
Ġmechan isms
ĠTh ai
P hi
ĠTechno logies
Ġexc itement
gin ally
Ġri vers
Ġri b
Ġdepart ure
Ġmine ral
o ven
Ġback ed
Ġbrow se
C al
Ġn it
Ġaltern atives
Ġpric ed
Ġfro zen
ĠFe atures
Ġproceed ings
li ving
Ġmulti p
ĠC V
Ġkni fe
ĠKen nedy
Ġfall en
Ġfit ting
ĠS li
Ġstri king
ĠSch olars
ne cess
Ġmoder ate
Ù Ĩ
Ġoffer ings
Ġs ed
ĠLu ke
ce ne
Ġodd s
ĠReg ard
Ġco ins
Ġsecret ary
ĠJac ob
Ġp ine
Ġvit amin
ĠTool s
Ġelectr onics
Ġinv itation
Ġnur se
t ation
Ġs ne
sc ar
P aul
Ġinst ances
Ġmedic ations
ĠDen mark
ĠB ai
ĠS urg
H aving
Di rect
OU N
Ġch amber
ĠSte p
Ġneut ral
Ġ Ø§
20 20
} <
Ġradi ation
Ġsome body
g ow
ĠHistor ical
Ġref lects
Ġ tags
ĠEp isode
Ġbare ly
Ġemb ar
Ġ7 00
ĠShi pping
Ġattend ance
Ġcan vas
B oth
ĠH ub
Ġbi b
ĠTe xt
ĠLiver pool
Ġdiffer enti
Ġr uled
k ar
si gn
J oin
Ī Ĵ
ĠCor porate
Ġco lored
Ġpl as
r ons
p op
ĠHot els
ĠO d
Ġtran si
Ġ194 3
Ġwork force
ĠD al
Ġsu its
Ġ9 8
Ġli braries
o a
Ġ195 7
ĠSto p
ĠMas ters
Ġtre ating
ĠAfghan istan
ĠCost a
Ġtour ists
Ġpremi er
erc ury
II I
Ġestablish ing
B N
c li
ĠArk ansas
Ġ tang
Ġru ling
199 8
oc al
ro ck
ĠSci enti
S R
ĠY ellow
p ace
ĠMount ains
ĠS ession
ne n
Ġdo zen
us er
Ġcl uster
Ġbi kes
áĦ Ĵ
Ġenorm ous
Ġdev oted
as a
Ġpeace ful
ij ing
ER V
ĠAr tist
ĠSus an
>âĢ ĺ
Ġpoll ution
onom y
ĠY e
AS E
ĠP ope
ra h
Ġrece pt
T ur
Ġd aughters
ĠNe vada
ĠJon athan
Ġm akers
Ġhand book
ĠCom merce
Ġb om
Ġcon tra
Ġvari ations
ĠB Y
comm unic
Ġtr us
ĠU pper
ĠToy ota
iv ic
Ġe ager
ĠM L
Ġenc ry
ĠArg entina
ĠFrank lin
Ġsurpris ing
ĠE co
Ġb ones
Ġg ig
ang o
ĠOper ations
Ġref ere
ĠB att
ĠG T
Ġanim ated
Ġr it
Ġcris p
Ġj ack
atter ed
u ling
Ġdecor ative
Ġanaly ze
ĠP au
F igure
M et
ĠI BM
Ġemb odi
Ġquali ties
Ġstric t
Ġf iscal
ĠU sed
ĠPit tsburgh
ff e
ast ro
ĠBirth day
Ġacc idents
ĠUn c
Ġaes thetic
ĠN eb
Ġste ep
Ġassist ed
Ġast ron
Ñ ķ
Ġdr ums
g ent
We b
Ġre de
b ank
Wh ich
ĠPhoto s
S chool
ĠF ly
mi ly
ĠCamp bell
! "<
W ater
ĠPer u
Ġwi des
O k
Ġcab i
land o
ĠM all
ĠBir mingham
ĠD om
Ġ194 7
ĠK a
Ġsubs idi
Ġclo set
OM E
Ke ep
Ġch a
Ġsepar ately
ĠMari e
Ġ q
ĠPost s
Ġ lying
shi ne
ĠG ot
ĠE M
P ower
1 000
ian ts
spe ed
Ġval ve
p read
Ġh ood
ĠSim ilar
ag ne
ĠIntel ligence
Ġ6 3
Ġ194 6
ĠAnim al
Ġge nes
Ġsustain ability
W ind
Ġcomplex ity
ish es
ĠWe ight
Ġfund ament
Ġsc reens
th ic
f ty
Ġsp o
u tical
Ġmotor cycle
Ġd ated
Ġwh is
Ġthere by
ĠBarb ara
en tion
ed e
Ġcomb ines
Ġautom otive
Ġb li
c r
Ġgri nding
ĠR O
ĠY oga
Ġg ut
ĠS el
Ġprecise ly
Ġn ail
Ġw ars
Ġmed itation
ĠEd ge
Ġcabi n
Ġpublish er
fer red
Ġbo ther
Ġweak ness
Ġs isters
ĠUn like
____ ____
as ive
ĠC ould
ĠGl en
Ġno ve
Ġhe al
f old
Ġm ud
on ge
ĠG all
Ġhi king
Ġg oogle
ĠJ azz
ON E
Ġdon ated
Ġrespon sive
Ġc rop
ĠAp art
ĠOri ginal
Ġ1 30
Ġconso le
Ġhor ri
Ġaud it
Ġrang es
ĠVal entine
Ġrec ur
rup ted
gu ing
Ġforgot ten
ateg orized
ĠD ynam
Ġ19 00
Ġexp licit
Ġen roll
Ġp es
Ġcontai ners
Ġsch olar
Ġdecor ating
G od
ĠGre ater
ĠS ad
ĠR ules
Ġo d
Ġrecommend ation
ious ly
Ġtechno logical
Ġ195 5
Ġprogram mes
Ġpre ferences
ar ms
00 1
Ġv io
ĠK am
ĠB aker
Ġag ing
lo d
i to
urch ase
Ġwhere ver
ĠChar lie
Ġ tv
ĠH TML
Ġo ak
Ġlo gin
iss an
Ġcal ories
Ġm ales
Ġcolor ful
ĠG ard
Ġth y
ĠIn fo
d ig
ĠS ki
on ial
Ġcommissi oned
Ġra mp
Ġmodi fy
ĠBro thers
Ġveter an
us sy
Ġshi eld
ot ech
ab a
ĠH ost
ill er
ĠC row
Ġfi ling
ĠBe low
an im
Ġvari ables
Ġ18 0
Ġanal og
Ġ6 8
ĠQues tions
Ġsci ences
on al
Ġim aging
Ġa rom
Ġstar ring
cons cious
Ġmod ules
Ġdestin ations
Chi ld
reg ation
Ġene mies
Ġcompan ion
ĠInnov ation
Ġconvin ced
ĠG ree
Ġf a
ĠAss ess
ĠH ERE
ick ed
Ġv ig
Ġme ter
ol ved
Ġspe eds
ĠRog er
Ġconst ra
ĠSum mit
( )
y our
Ġsatis fy
Ġcitiz en
Ġco i
Ġk its
ĠK ate
Ġinten s
Ġfil ters
Ġc ups
ĠF ame
T om
Ġreach es
Ġneighb ors
ĠRegi ment
Ġf uck
ap or
Ġune mp
ĠWay ne
oth y
ĠPark er
Bl ue
Ġcy ber
Ġblog ging
ĠBe gin
Ġpromo tional
ĠL E
ĠGra ham
Ġbene ath
ber ries
h ang
ĠB uck
Ġview ers
ĠHor se
Ġrel ate
ĠN BA
Ġdiscus sing
Ġanim ation
n atural
Ġsubs titute
ĠDes cription
ĠR y
amp a
king s
Ġf ails
he ld
ĠP anel
Ġp ics
Ġbreath ing
Ġir rit
Ġvis a
s ervice
Ġop tical
ard i
th ere
ĠH E
atch ed
ĠArchitect ure
Ġne arest
St ate
Ġpro priet
ĠTe a
Ġpo ems
Ġstead y
ul ates
Ġfu neral
Ġload ing
ĠWhe el
ĠT ob
ĠSte wart
ĠW right
Ġhar sh
ĠD ental
ĠK ay
ĠG ardens
Ġsh ades
ĠC rown
Ġharm ful
em ale
t ort
Ġj ail
ho e
b ane
dis cip
g ic
om y
V P
j amin
Ġle ak
Ġin noc
Ġd ict
Ġp ie
ĠW es
Ġmas k
Ġpropos als
Ġth rown
Ġmo s
ĠH IV
un s
ĠJ ess
Ġatt orneys
v d
u z
Ġoblig ation
o om
ĠTour nament
b en
b one
Ġr anks
ib li
ĠSt ories
Ġpre view
si tivity
ĠâĨĴ <
Ġpers u
Ġoblig ations
199 7
Ġdownload ed
g ral
IGH T
ĠPhi lip
Ġo h
Ġsynd rome
Ġar c
ĠM echan
ĠAl ways
Ġg el
Ġcontrib uting
Ġhuman ity
ĠIn v
Ġlock ed
ĠThe ater
Ġst ays
Ġutili zing
or ms
Ġ195 2
F ull
Ġep ic
re tt
Ġvis u
or tive
ĠSt age
Ġclimb ing
Ġcogni tive
ĠTai wan
ĠO tto
ĠCommunic ation
ĠPat ri
ĠSam uel
E urope
ĠáĦ ĭáħ
Ġrecord ings
Ġany time
crip tions
pl an
ĠPal m
or ia
ins ula
Ġtable ts
Ġbless ed
R T
Ġsu ited
Ġport al
ĠAli ce
ĠK id
Ġc ited
U s
Ġbrief ly
ag ine
Ġisol ated
>Â ·
ĠDi ning
Ġg ently
Ġ6 1
Ġmari juana
Ġadv ances
Ġf ancy
ĠH ousing
Ġcontinu ously
ĠF ed
Ġseven th
G i
thod ox
Ġpar tial
for ced
i as
ĠD ol
F ri
ĠHam pshire
re ach
Ġsub mission
Ġintens ity
Ġpotato es
Ġbet ting
Ġ9 7
lic ity
ĠPremi um
bor ne
Ġfavor ites
Ġdef ence
P T
Ġutili zed
um ph
ĠI an
Ġmotiv ated
f lix
ĠRo ll
S un
ne st
Ġobs erve
ble m
Ġorder ing
j pg
Ġveri fy
ĠCar ter
ĠFor ces
er gy
ĠG PS
w ill
reate ned
or ient
ĠCol omb
Ġre named
ĠC ards
G M
Ġb ite
th ri
Fo llow
p al
en o
ĠBit coin
Ġign ore
ab ul
ace utical
ĠK an
Ñ Į
T ax
Ġsymb ols
od el
trac ting
Ġportra it
ĠUni versal
Ġconfirm ation
k g
Ġcelebra ting
Ġpo i
ic ing
ali stic
Ġvari eties
Ġre actions
Ġtransp arent
Ġz ip
ĠTele vision
ari ans
Ġvoc al
Ġear s
Ġg host
ĠTherap y
Ġab stract
ass y
Ġdynam ics
p uts
ĠRes ume
M ax
On ly
ĠC emetery
Ġ/ /
en to
Ġe uro
S H
Ġclos est
Ġrun ner
Ġtreat s
Ġdes ert
Ġarg uments
Ġ8 88
Ġk iss
ist ant
Ġspecial ty
F amily
ĠD ick
Ġmut ual
be lie
ĠIns ide
Ġsol ving
Ġ195 4
Ġlo ne
Ġtherm al
ash es
ĠFin land
em or
ro ne
Ġemer ged
ĠD omin
ĠC art
Ġvari ation
S hi
ill ance
Ġvac c
ĠCont emporary
Ġan a
Ġstake holders
Ġenti ties
F M
Ġser ial
Ġdelight ed
Ġfore sts
st ory
ĠCh a
Ġviol ent
A E
ten sion
Ġcon ferences
ustr ated
Ġshow c
p tic
Ġpl umbing
Ġfriends hip
ĠRe lease
Ġdiag nosed
ĠK night
Â ¿
Ġsee ks
ti fications
ĠPro file
Ġcamp ing
Ġcor poration
ow ner
ĠJu an
ĠVers ion
Ġvo ter
Ġun limited
ĠMor ning
Wi n
ĠDesig ns
Ġst ating
ici ous
no x
Ġeng lish
Ġte ars
ĠK ris
b as
ĠCerti ficate
Th ree
Ġup set
nez uel
Ġcorpor ations
Ġ7 6
Ġmay or
ry ing
lectr ic
Ġtechn icians
ĠS L
GB T
ab i
ĠBas ketball
ĠNor wegian
Ġseason al
ĠL isa
Ġear liest
ĠCurrent ly
ĠEconom ics
S ource
Ġcard io
Ġnewsp apers
Ġoper a
ĠM au
Ġb orders
T ele
ĠRoo f
Ġcoi n
ĠT N
Ġ7 7
s chool
Ġinv ested
ti nian
Ġre wards
ĠLead er
Ġun lock
Ġnice ly
ĠM umbai
Ġref lection
Ġmain stream
Ġw elfare
bor o
Ġd ying
Ġdisappoint ed
f irst
Ġsus pended
P ay
Ġlong est
Ġflav ors
ĠP H
r ates
ĠL ati
áĦ Į
ĠCro ati
E s
Ġ6 7
Ġcu isine
ĠMed iterranean
ĠBar celona
res hold
Ġrep roduc
ĠRepublic ans
ĠAl ternative
arch y
R ich
ĠH at
Ġp ear
Ġpres enting
Ġgovern ance
Ġshow case
Ġpre venting
ster dam
Ġconst ruct
Ġwell ness
str ong
Ġfoot age
Ġ7 8
atter y
v ised
Ġautom ation
at al
Ġdeter mination
omi ni
Ġd ub
h en
ast es
Ġang ry
Ġcompris es
atin um
. :
ĠAl bum
Ġdisc retion
Ġh unt
W orks
ĠHe nd
Ġn om
Ġpartic les
ĠOper a
p r
Ġg aining
Ġclea ner
ĠDep uty
ĠRe y
Ġg onna
ĠTransport ation
E p
Ġimp lications
p df
ĠThanks giving
Ġbi nary
Ġplu gin
ĠðŁ ĻĤ
ess ed
ĠH us
t utor
W A
Ġm igration
Ġbond s
Ġteach es
limin ary
ra z
Ġdec lined
Ġg low
lades h
Ġen zy
Ġarch ae
ĠTh or
re nder
Ġbur den
E v
od ium
Ġgl ory
ĠR acing
ĠInter view
ĠG O
Ġcrush ing
ĠK ni
Ġun necess
Ġprec ision
Ġhome work
Ġti res
Ġfai ling
199 6
Ġcur ve
Ġ194 9
: #
Ġno body
ĠT ig
Ġpath s
Ġorgan ised
1 10
Ġmanufact ure
ĠI F
ic ial
Ġconven tion
Ġadjust able
ĠUl tra
ĠChe ap
C li
ro gen
Ġper ception
Ġpersp ectives
Ġvi agra
Ġqu it
Ġor g
Ġ195 3
ĠKen ya
Ġc ure
Ġjurisd iction
Ġex hibi
Ġappear ing
Ġdri ed
ĠLe ather
Ġembr ace
ĠY u
Ġin take
ock et
ĠOr chestra
ĠCommon wealth
Ġne st
ĠMont real
Ġcol li
st ra
ĠGl as
M ichael
ry lic
ĠS ept
ĠSo ft
Ġwides pread
ĠM is
a ft
ĠC ultural
Ġp airs
ĠExper i
I X
B B
ĠM aj
Ġref lected
Ġacknow ledge
ĠBraz ilian
Ġexp ecting
C ast
Ġf ron
Ġbe loved
omet ric
Ġro lled
>| <
Ġclassi fication
Ġpain ter
J ames
anc ers
um ns
Ġcost ly
Ġjourn alists
Ġd rew
Ġincor rect
G S
ĠArch ive
ĠHon or
Ġhand ed
Ġmolec ular
ĠSal t
Ġto ss
Ġp ale
es a
ari um
ĠPl atform
ĠMad ison
st ro
ĠPoli tical
Ġnation wide
Ġ8 8
Ġclai ming
le ton
Ġsurg ical
Ġsh ri
Ġang er
Û Į
Ġlux urious
h al
ĠMad rid
Q U
Ġremi nd
B ased
Ġdeter mining
ĠEx hib
Ġmerch and
ĠEx tra
ĠT ell
Ġqu ot
Ġtr icks
fin als
W H
Ġsens ors
ĠMarg aret
am el
Ġf ed
f amily
Ġp orts
li hood
che ck
ĠDirect ors
id ity
aren cy
Ġblock ed
Ġpain ful
ĠN ord
ĠFe ature
ĠL ar
Ġ9 6
ĠK ath
Ġspeci ally
Ġdecor ation
Ġd irty
ĠMarsh all
log ists
ĠLu ther
ĠC ub
Ġbl ame
oli sm
Ġmarket place
Ġwra pped
ne red
Ġpas te
ĠS afe
ĠLau ra
Ġcan cel
Ġdeli ber
ĠRob inson
Ġappre ciation
ong s
ĠMan hattan
Ġtrans it
ĠV ision
V al
g on
Ġc od
Ġstra i
Â §
Ġrefer ring
ordi nation
OR D
ĠFac ulty
p en
Ġdev ast
s or
nic ian
Ġstrai n
Ġdemand ing
ĠPar ts
an te
Ġeli te
ĠP le
ĠF aith
f u
ĠMi ning
C ong
Bu y
Ind ian
Ġtai lored
ĠAc tive
an ne
ĠCra ig
o is
Ġsucceed ed
S en
ĠMur ray
quis ite
ĠSt orm
sh irt
ĠEmer gency
ĠN ice
Ġhy p
Ġfarm ing
Ġbas ics
Ġst ack
Ġacc ent
ĠF r
st ud
ĠC ream
On line
H ead
m el
Ġdraw ings
ĠB ring
Ġdress ing
Ġass ists
Ġmachi nery
K ey
mans hip
ĠEgy p
Ġadvoc ate
Ġne at
edi atric
Ġs id
ry s
Ġread s
Ġchap ters
ĠCl ay
Ġtravel s
t anks
um ble
ĠBes ides
ĠAssoci ate
t el
Ġmo bility
Ġoptimi zation
ĠCab inet
Ġcoup ons
ĠS it
ĠVal ue
Ġsepar ation
Ġalgorith m
D ata
ed ar
Ġs amp
Ġf oster
Ġlect ure
ad ays
Ġlo vers
ĠRich mond
ĠF it
S ur
Ġpar tially
ĠCry stal
B ooks
Ġcor ruption
199 5
Ġal leg
Ġpros per
B i
Ġprem ises
Ġgrocer y
Ġb ush
Ġattract ed
Ġ tutor
cover ed
ĠV ic
erape utic
ĠB ron
ĠAng el
Ġelement ary
l ast
ke nds
C ity
ĠPortug uese
list ed
Ġen rich
ĠBl ues
om etry
ĠSen ator
Ġincl usion
Ġk er
gi o
ĠT ed
t orn
ĠG rove
E nter
T i
ĠWar ren
T er
ĠTH IS
ĠSp a
Ġp ants
ĠA my
ĠPre p
ari os
ĠH alf
Ġpe ne
s le
ĠCh ampion
Ġwhere i
ĠH onda
Ġwherei n
sh aped
erm ont
et a
ĠQue bec
ĠU V
R O
Ġaccess ed
ĠEv ans
% .<
des h
Ġconduc ting
ĠAr men
Ġhome owners
yn asty
Ġ Ñģ
ĠK az
Th ose
Ar t
utri tion
AS S
ĠStr ategy
ĠNC AA
lo nel
ĠQu i
e ven
ĠL anka
Ġhe ated
Ġflo ating
Ġcross ed
. ),
t ails
Ġk nock
âĢĻ .<
te ous
Ġrecei pt
g ary
Ġpropor tion
Ġaddition ally
Ġprot ective
ĠDoc ument
Ġhand ful
b ase
ĠSh ang
ci um
che m
bs on
Ġc inema
ĠSou l
AR E
Ġlou nge
S ch
ĠWorks hop
istrib ution
Ġoff ense
Ġdecor ated
Ġar ise
Ġfi rew
ĠWood s
ç ļ
ĠB ranch
Ġhand les
ne ath
se ud
Ġcar go
Ġcontact ed
ge bra
Ġconj unction
Ġ Ìģ
Ġ12 5
ĠV oice
Ġindivid ually
C S
Ġth reatened
Ġ tort
Ġqu ery
Ġsupp lements
Ġdec e
Ġlegi timate
Ġbas ket
Ġc au
ĠP erm
Ġworks he
z able
Ġcoun ties
Ġamp li
Ex per
Ġf estivals
Res earch
Ġp ays
Ġdispos al
Ġli ghter
ĠHe at
Ġs anc
si m
ĠN an
ro ider
ĠRe ally
ri ors
G lo
Ġindepend ently
ĠConne ct
Ġev ident
th rop
Ġexecu tives
Ġ tanks
C er
ĠUnc ategorized
orks hire
H y
Ġvol unt
ĠÂ «
áĨ ¨
Ġde fic
tra tion
Ġintegr ate
Ġa lig
M B
ĠO H
9 00
t z
ĠBe ijing
ĠNY C
ĠGet ting
Ġess ence
ĠD rug
Ġfac ial
Ġviol ation
e ves
Ġrecruit ment
Ġcomp ound
Ġtravel ed
Ġqu est
Ġelder ly
Ġpri est
Ġh al
comp ass
Ġshel ves
Ġafter wards
ĠOver all
Ġno tification
Ġmission s
ĠJim my
Ġprosp ects
Ġemp lo
Fo ot
sec ond
u ated
ĠDri ver
à ¦
Ġconscious ness
Ġtransform ed
Ġtw ist
Ġc ave
Ġoccup ation
Ġcand y
Ġpro xim
Ġembed ded
ell ed
Ġbr ace
Ġaddress ing
Ġmunicip al
Ġsto len
am as
ĠInd ivid
w idth
Ġnegoti ations
Ġinvest or
ic tional
os ing
Ġd educ
lai med
c est
Ġd ressed
F R
ĠM ason
Mi n
OS T
Ġch ains
Ġgradu ation
Ġbe ings
ĠDeli very
ĠCol lins
oc ese
Ġ195 1
ro be
Ġs ights
ĠSo ld
Ġrecei ver
Ġhom eless
ĠDis co
Ġhaz ard
Ġstatis tical
ĠCond itions
az y
Ġte ar
Ġadop t
fi x
Ġb ol
ĠJ ustin
ĠF ried
So cial
so le
em y
asi nos
ĠTer rit
ĠPi nterest
Ġinflu ences
Ġpresti gious
Ġswe at
Ġbre ach
i nst
D ef
Ġback yard
Ġcount less
Ġobtain ing
Ġa ug
Ġp icks
t atto
com ed
net te
Ġ6 9
Ġhes itate
ĠM T
æ ľ
Ġtremend ous
Ġhabit at
Ġnutri ents
ys ide
s ur
Asso ciation
um ar
Ġval ued
h ony
Ġprosp ective
ile y
Ġunder graduate
ĠB our
Ġconf usion
ĠLoc ation
Or gan
ĠPro grams
Ġmechan ics
Ġcl ay
ĠAd ditional
M E
Ġdi ve
Ġpo lish
Ġcond iti
IC K
rai nian
ĠL en
ĠBroad way
' <
ĠF igure
Ġback s
Ġpul ling
Ġl ately
et ric
b ine
Ġcontroversi al
Ġre ver
Ġcr icket
Ġst abili
Ġunf ortunately
ĠE lect
Ġdo zens
ch ron
Ġevol ved
] .<
Ġho ly
Ġmus h
ĠL akes
ome ter
Ġread ily
P s
Ġpra ise
ĠJ ennifer
ĠBap tist
Ġthrow ing
to gether
AG E
ro po
E mp
Ġto ps
O lymp
j ud
Ġrec ycling
Ġsp ouse
ĠH ockey
ĠAb ra
ĠB ol
Ġam ateur
Ġre ct
Ġchar m
out ube
Ġgene rating
Ġex ams
Ġoppone nt
Î ¹
à ®
A ng
ĠS K
ami ns
Ġinform ative
Ġ19 18
Ġdis abilities
Ġav o
ĠMit chell
Ġw ax
igh ter
Ġg ree
Ġti mber
ĠBook mark
ĠTem plate
T im
flow er
Pl ace
anc he
ĠAd ult
Ġle isure
Ġapplic ants
Ġmode ling
Ġfin an
Ġad verse
M ac
T ri
Ġche f
Ġpre ference
Ġveget able
ĠG ay
ĠClin ical
Ġdecre ased
m ill
Ġcoun ts
Ġri ders
ãģ ®
Ġdress es
ĠL an
Ġeth ical
ĠC itiz
L ong
Ġlegend ary
ĠCh oice
Ġcreat ures
Si mp
row ing
Ġthe ories
Ġinf lation
p ine
Ġclos ure
OU R
Ġli able
h h
Ġbuild s
Ġseem ingly
Ġdec iding
ov o
ĠB O
Ġhon ored
Ġdedic ation
Ġche er
ĠOp tions
Ġinc ur
ui tive
Ġmuseum s
* <
Ġcle ver
Ġfig ured
lo ve
çļ Ħ
ad vant
Ġexist ed
Ġhighlight ed
se mble
Ġtradem ark
ĠL odge
Ġcent res
Se lect
ĠCommissi oner
Ġcomm ander
Ġlaws uit
ĠF ocus
Ġinte gral
Ġvend or
ĠP ul
Ġaff ecting
Ġtomato es
Ġprop ag
ĠAre na
ura ble
Ġte ens
ĠL ith
h ad
Ġsub ur
Ġcyc ling
ĠVictor ian
> .
ĠBut ter
Ġbl ade
199 4
ĠMar vel
ob b
Can adian
ort ant
Ġk noc
ĠA mend
D E
Ġfunction ing
ĠL ost
ĠMe anwhile
U B
Ġow ns
ĠBas ic
ress ing
d ec
ĠE L
child ren
tw o
ay an
to w
Ġf li
vers y
ĠAd verti
dep th
ĠI l
ĠMus lims
Ġac ute
ĠD ow
Ġtri ple
Ġremember ed
C ri
qui ries
j ar
ĠC E
Ġaccep ting
Ġfre el
Ġearth qu
Ġbar g
ĠPar ks
Ġattrib utes
ĠV ari
ats on
? !
x on
ĠCB D
Ġadjust ed
Ġpo ckets
Ġbar rier
ĠPi n
ch an
Ġstart up
Ġimm un
Ġj unk
Ġchar ming
E mail
ĠF light
B ro
olog ists
ĠA er
ĠStan ley
Ġped est
s upp
os hi
uc le
ĠCompe tition
Ġin timate
ĠF ee
ĠCol le
f ax
l ap
ĠArab ia
Ġ7 4
rau lic
Ġres on
ĠEar l
ens ed
Ġmis si
Ġine xp
Ġj ury
Lab els
ĠAlber ta
Ġst upid
Ġobs ervation
Ġmem bra
Ġd ot
fici ency
Ġte nds
Ġcour tesy
Ġany body
Ġmed ieval
ĠCirc le
Ġinflu ential
Ġshi ne
Ġper pet
ĠMove ment
ĠEmp eror
ric ks
Ġcle ans
g roup
fic ates
Ġdraw s
A K
ĠHe aven
ĠR V
ĠCh er
Ġmag ne
zu ki
Ġdo s
Ġfl aw
Ġinc idents
A lex
Ġ tatto
ĠHe ll
m ay
ĠC ad
Ġeth ics
ĠCri me
Ġin tim
ĠP aint
Ġsem ester
Ġgran ite
ĠPub lished
ĠAr c
ine a
Ġpri zes
H appy
D et
com mon
os ity
Ġcon ve
Ġworth y
st airs
Ġm aj
v ine
Ġaffili ated
Ġbre ed
ĠTre as
Ġeas iest
Ġcan nabis
ĠBill y
Ġanticip ated
ĠEngine er
Ġleg ally
ac re
Ġ19 36
ĠBris tol
ĠK ap
rol ling
Ġdire c
Ġf ridge
Ġgradu ates
Ġbad ly
Ġj ar
Chi na
cast le
ĠLe x
ke eper
ĠBro ther
ĠGri ff
ĠS ustain
Ġconsist ed
ĠL at
ĠR ic
hes ive
ĠVis ual
AC E
H C
12 5
ar ound
ĠP ine
st ruc
ĠA id
gra d
Ġindi rect
n ati
Ġgener ator
ĠT ouch
b ay
D ig
Ġdeal ers
Ġrac ial
Ġfinish es
Ġaccur ately
Ġgirl friend
Ġsh ame
Ġbe ll
Ġbr ass
Ġper ceived
Ġresi li
Ġf ossi
ĠAssoci ates
R oy
id o
Ġro ller
Ġrid ic
ĠOr lando
G en
Ġsum mit
Ġveter ans
Ġ9 3
Ġphys icians
any on
Ù Ĭ
e ner
ĠÐ ¿
velop ment
TH E
iz on
Ġprof ound
eri ff
Ġachieve ments
Ġn u
ĠPict ure
ĠCamp us
te i
Ġimmig rants
Ġpe ers
cep tions
Ġh ay
ĠF ellows
ĠAdvent ure
it arian
Ġher bs
ĠBM W
ĠMe et
ĠRi vers
ĠBuff alo
Ġco inc
Ġreported ly
Ġst atic
Ġm esh
Ġsupp ortive
ut able
Ġman ually
Ġhi ke
Ġresol ved
m ath
Ġ torn
Ġoccasion al
c re
e i
Ġfree ly
Ġve gan
Ġl enses
ĠMedic are
Ġwhe at
Ġve ctor
Ġst air
F ore
d rop
Ġquali fying
P erson
C OM
Ġtas ty
ĠS cript
Ġinf ections
ĠImp act
V ol
ĠA ut
ĠA bs
Ġk g
Ġmac ro
a uc
ĠOf ten
ĠEx cel
Ġcontin ually
Li nk
ĠJ oint
T able
ĠWe ather
Ġgri p
ĠF ig
Ġbal lo
ĠS QL
p ath
iz z
Ġ19 38
F O
Ġbe ating
tin y
l at
ĠWind ow
T T
Ġgar bage
Ġse gments
ĠF actory
Ġadvis or
ĠO thers
Ġbank ruptcy
Ġinter ns
S O
Ġmagnific ent
p ad
ĠFl at
ras ka
Ġprom ising
Ġnew er
ĠPar ticip
Ġsurve ys
ĠI A
ĠT ags
ĠL ap
Ġali en
Ġorganiz ing
Ġperm alink
Ġbe ta
Ġhonest ly
ĠTe acher
e ing
ĠVirt ual
ĠT odd
w al
Ġin aug
ĠR isk
ak u
m ia
i ac
graph er
Ġch er
ĠBar ry
lic on
Ġshe ep
Ġ19 14
Ġrecogn ised
Ġ8 2
Ġir re
ĠSw itch
Ġapproach ed
our t
ĠVir gin
Ġdu rability
ci o
ĠSh ah
ID S
Ġf ut
ĠR F
oo ling
rali zed
Ġwel comed
Ġassoci ations
ĠD anish
Ġpart ly
Ġout line
Ġhom emade
ĠNe uro
Ġremi nder
Ġbatt les
Ì ĩ
Ġele ven
Ġsu ng
ĠSt re
one t
ul er
ĠReg istration
ĠGrow th
il g
ãĢ ģ
Ġmo thers
Ġadapt ation
ali n
Ġc ath
Ġc um
Ġsi b
um per
Ġn ut
ĠRob i
Ġrad ical
ĠDump ster
ĠThe ory
Ġtrib ute
ĠT s
ĠF itness
Ġc ric
Ġvis ibility
z ers
ĠBe yond
Ġsp orting
Ġjourn als
Ñ ĩ
Ġw age
ĠGlas gow
N ame
ge ner
b ably
ĠS R
Ġde licate
ĠHe avy
Ġb oring
ar ts
ux e
St and
Ġf are
Ġth reshold
G O
Ġclea ned
Ġ8 4
Ġchalleng ed
ĠBang ladesh
Ġg est
st age
Ġvary ing
Ġoppone nts
Ġc ere
Ġpe oples
Ġcontrol ling
ĠY orkshire
ash a
w alk
Ġc ement
Ġno tion
Ġri des
Ġres et
ĠF IG
Ġfor give
h l
Ġinhabit ants
Ġm inerals
ĠR ather
Ġ7 3
Ġbar riers
ĠUs ers
Speci al
ic king
Ġd airy
Ġminor ity
ĠCare er
Ġre un
e at
lo ss
Ġdomin ant
Ġpharm ac
Ġsc rap
Ġline d
Ġdescri bing
Ġcomp elling
Ġrenov ation
ew ay
a que
19 80
ĠAg ent
Ġdiv ine
ĠDi et
le ased
Ġconnec ts
Ġcl arity
Ġsacri fice
rat ulations
Ġprosp ect
Ġorganiz ational
L ive
ĠVi enna
Ġtong ue
e an
Ġsystem atic
ĠAm sterdam
Ġbas es
Ġloc als
Ġfor ums
ĠHigh er
ĠDel ta
Ġpartners hips
Ġr ally
ke eping
ĠDis cover
Ġperm its
199 3
Ġaltern ate
ĠNep al
ĠCh ronic
Ġsust ained
Ġnon profit
Ġle ver
ĠL OVE
Q ue
ĠHe ights
ĠI da
Ġsugges tion
akes pe
Ġremi nded
ĠA round
O O
Ġtra uma
discip linary
ĠSoc cer
ĠVol unte
ĠL anc
ĠTam il
are l
Ġqu ad
Ġat traction
ri or
R ad
Ġun ve
Ġpo le
Ġg auge
ĠRes ource
Ġun ited
ĠVe nezuel
Ġconcer ts
erv oir
op en
Ġman ages
f ound
eb ook
ort on
ĠCh art
Ġcou pled
Ġintroduc ing
ĠPhi losoph
ĠH az
er ness
le ading
fe ld
Ġcomb ining
Ġcharacter ized
Ġrese mb
ĠImp erial
US A
or o
ĠMater ials
T unes
Ġbook ed
as ia
Ġspons or
Ġsing ers
Ġcer amic
N ET
ĠHealth care
un ted
Ġch rom
Ġrecover ed
ns ic
ĠGu est
wh en
S tre
ĠRet ail
ĠCh icken
Pro v
Ġf ont
ox id
g us
l ord
tr al
Des ign
Ġin ac
ĠSupp ly
ĠComm ons
Ġpractitio ners
ĠS hip
Ġarri ves
Ġhe lic
ed ed
Ġel abor
ĠT ab
ĠInd ians
Ġac ids
Ġstre ams
g am
Ġli p
ĠT on
ĠR ES
ĠMont ana
ĠElectr onic
Ġm ice
Ġh os
Ġdeploy ed
Ġbus es
G C
Ġobs ervations
Ġper i
is to
Ġexpl aining
lass es
k an
Ġ7 1
Ġph osph
ĠRobi n
ati al
ĠI R
Ġbathroom s
tit udes
Ġdet ected
ĠM ack
Ġrun ners
å ı
Ġcro ps
Ġhop ed
ic ting
Educ ation
ĠB und
Ġhealth ier
Ġunnecess ary
Ġste ering
Ġwar rant
Ù ħ
ĠEag le
ĠS id
ĠNot es
ĠNi ke
ĠS N
Ġ14 0
ĠLa unch
199 2
um ing
ĠNet flix
ĠClo se
M D
fic tion
Ġsyn thetic
Ġdeb ris
Ġappe aling
dri ven
Ġen rolled
ĠSho pping
Ġtra iner
ĠChristian ity
Ġre tained
al ph
ox ide
ĠA RE
ĠJohn ny
li ft
Ġpromp t
ĠSp ot
Ġorient ation
Ġ8 9
ĠS af
Ġsugg esting
Ġmar ble
ĠC ensus
ĠSe an
Ġmaxim ize
Ġwel coming
Ġpack ing
ĠG on
ĠApp lications
Ġn ic
Ġtax i
ĠP os
. [
l ab
Ġland ed
Ġ9 2
Ġfor tun
se nger
act ors
Ġcor re
Ġbal con
Ġneed ing
ĠPl anet
Ġdecor ations
ĠR A
Ġloyal ty
epend ence
un ts
c op
ĠSt u
ĠR ental
Ġdelay ed
Ġtr ace
v ro
Ġsupp ose
T re
ĠCirc uit
Ġinv asion
Ġarri ving
ĠR ice
W ow
ĠX i
Ġcomm od
Ġsp am
im m
ĠJer ry
le tt
Ġcomp ounds
Ġ19 37
ĠImp rove
Ġpup ils
ĠAm azing
ĠBl u
Ġwa ist
Ġlegisl ative
ĠW orth
St art
Ġprior ities
ĠL arry
Ġphenomen on
Ġsil ence
Ġb ang
Ġdi ver
ĠChi le
L ook
Ġcol umns
Ġl as
iz er
Ġz ones
Ġto pped
Ġmod es
ĠTra ding
Ġwood s
ĠAgric ulture
cin nati
ĠL ights
ĠT ickets
ĠGi ven
akespe are
Ġon ion
Ġencounter ed
Ġl akes
worth y
Ġpray ers
ĠBen jamin
ĠCh ocolate
Ġanti que
ĠâĢ Ŀ
ĠN ag
ĠHar bor
Ġfear s
Ġc it
Ġware house
Ġlo ver
y on
P at
Ġscienti st
ĠCli ent
ing o
Ġs aves
r ub
Ġrepeated ly
Ġbelong s
Ġref use
Ġpractic ing
Ġch ris
est y
Ġ ....
Ġner ve
Ġbu gs
ov ic
ĠBe th
ÑĢ Ð°
Ġconsist ency
om on
ĠCli mate
Ġkey words
ley ball
ĠLoc ated
t astes
Ġreason ably
ĠCh and
amb oo
ĠT een
Ġn ick
F OR
Ġdep ot
ac er
Ġind igenous
ĠA aron
or f
Ġbroad er
Ġtun nel
U RE
ĠPro p
Ġstruct ured
Ġinten sive
Ġexam ined
Ġout lets
Ġgl uten
ĠT as
Ġbes ides
Ġpool s
Ġwee kends
Ġ ts
Ġgri ll
Ġprofession ally
ĠG host
Ġ19 17
ĠRac hel
bl ack
ĠRich ards
Ġresp ected
ĠTw i
ĠNur sing
f olk
ĠÂ §
S al
Ġob li
ĠT ol
Ġmand atory
ĠCamp aign
Ġam id
ĠCh rome
Ġto dd
ĠJ ama
ĠL ate
ress es
ĠQu arter
ĠA ld
ĠSc ar
ĠStand ards
bre aking
ĠNash ville
Ġdark ness
Ġfl oral
Ġcharacter istic
ĠLic ense
Ġsac red
Ġins ert
Ġathle tic
ĠH ab
ĠM ills
ĠL atest
Ġf ate
Ġbit ter
Ġpast a
Ġhung ry
m und
and al
w elling
Ġti n
gg y
Â »
ĠP on
Ġen compass
Ġtal ents
Ġcom for
m or
ĠKe ith
Ġindic ating
Ġextend s
N on
Ġadjust ment
Ġ tastes
po on
Ġcra fted
ä º
Ġcance lled
qu arter
ĠB ass
ĠO tt
Ġto b
ĠHung ary
," \
Ġmaint ains
pi re
ĠL ag
x it
Ġwh olesale
u to
ĠM ali
Ġf lip
Ġk ne
m ax
ĠChar ter
ti les
ĠApp ly
Australi an
Ġl at
ĠPhys ical
Ù Ī
B en
Ġdro pping
Th ough
f ull
ntend o
Ġcond em
m id
Ġmid field
ati e
Ġdep loyment
Ġski p
Ġg lor
er ie
Ġbrid ges
ĠLe ft
ĠAd obe
Ġstric tly
Ġcirc les
ĠLiber ty
Ġth umb
ĠN ad
ĠC anyon
ai ting
ĠK irk
ro e
ge nds
Ġpati ence
ĠOli ver
Ġcomp iled
Ġindic ator
ĠV PN
ĠC uba
ĠR AM
H R
ĠS le
ĠCons umer
af ood
ĠClin ic
u ity
Ġhistor ian
ke ep
A li
n te
Ġactiv ists
an ium
alis ation
Ġcom ics
Ġpre val
ac a
Ġ9 4
ĠW ing
Ġun to
ĠIce land
Ġimm ers
Ġsn acks
p ub
Ġrep lied
ĠV illa
ang ular
Ġexp atriate
Ġtac tics
ĠC BS
Ġencoura ges
ĠTer ry
G R
Ġliber al
g l
Ġdeal t
ĠW ang
Ġglob ally
Ġbo asts
Ġassign ments
ĠGab ri
pp e
Ġunder neath
or por
Ġcirc ulation
Ġkill er
Ġdramatic ally
ĠMath ema
10 1
Ġmerchand ise
ĠAir lines
Ġli tigation
R ob
orient ed
ĠB art
ond ers
Ġro lls
B orn
Ġhold ers
M aster
Ġle an
ĠPar ad
Ġcompar able
ĠInd eed
Ġfr act
Ġat e
Ġsp rink
Ġlaunch ing
Ġin tr
Ġbound ary
ĠRet urn
Ġdi visions
ĠF at
Ġbe am
ĠA mp
b ad
Ġdu o
load ed
ti tive
Ġwarm ing
Ġcou sin
vro let
ali e
ĠD rop
ĠR SS
Ġvan ity
ab ases
ĠSh a
ke ley
? )
Ġrob ot
comfort able
Ġsche mes
us c
ah n
Ġrenew able
Vis it
Ġan ten
Ġn iche
\ /
ĠR S
Ġfi xtures
Ġex pend
Ġdepos its
Ġdocument ed
Ġsn ack
Ġd ense
ĠN SW
3 50
Ġadministr ator
Ġuncer tain
Ġad orable
un ny
Ġfor k
ĠCan on
AC H
thi op
Ġroof ing
ĠHud son
Ġarch ive
ati lity
Ġincl usive
Ġ16 0
S u
Ġpal m
Ġin quiry
Ġminimi ze
cont ent
ĠG y
Ġtar geting
Ġp ork
M al
Ġdec ides
ĠS F
ph ant
M M
Ġexec ute
Re f
Ġrel atives
ĠR ico
ĠNAS A
ĠCath edral
De ath
Ġrev ol
Ġmyster ious
Ġdess ert
Ġhoriz ontal
Ġstrength s
Ġdest ro
Ġnurs es
Ġtrans fers
M icro
Bio graphy
Ġqu oted
D isc
Ġ19 19
Ġcomment ed
ĠPar ish
ĠLink ed
Ġ utter
K now
im a
199 1
Ġcomp lications
Ġcost ume
v ors
Ġl uc
ĠPro jects
Ġpred icted
Ġimm ense
Ġpick up
au kee
ĠM ob
Ġprof itable
Ġnot ably
EN D
ĠNorth west
ai de
ĠTrans fer
ĠL P
Ġperform s
ĠSo lid
ret ty
L it
ĠSug ar
Ġcomment ary
Ġfar ms
Ġelev ated
ĠJoh an
Ġqu eries
Ġw ore
Ġdis ser
Ġth erapeutic
Ġhon our
H elp
ĠV ideos
abul ary
ne g
Ġ8 6
G roup
ĠW ords
Ġ )<
ĠAb u
Olymp ic
Ġd owns
ct uary
ĠWel sh
Ġme th
ĠColumb us
ĠRoman ia
Ġres ervation
Ġst airs
se arch
' .<
ĠPer ry
e ared
Ġsurround ings
Ñģ ÑĤ
Ġcra w
un c
Ġwe ld
gi bility
Ġa ired
ĠSy n
Ġdiscri mination
Ġtra ded
Ġupgra ded
Ġpred omin
ĠAl fred
Ġelimin ated
Ġcomp osite
Ġfor d
Ġthe ft
ĠMet ropolitan
ĠGra duate
Ġas h
Ġrhyth m
S U
T hi
Ġcomprom ise
Ġto ll
Ġw ool
ĠK el
ĠGar age
Ġcustomi ze
H ouse
Ġs ake
tei n
Be ing
Ġsqu ee
Ġdo ct
Ġ19 33
ĠRec overy
Ġcur tain
sib ly
art z
S ign
Ġstrugg les
B ox
ĠEgyp tian
O ld
ĠCamer a
A wards
Ġse nds
om o
Ġ8 7
Ġ19 10
Ġconflic ts
ĠPoli tics
N i
ant on
Ð¾Ð ²
ĠE mily
eff ective
Ġpor tions
ĠRep orts
ĠCl ar
Ġk no
ĠTar get
one n
l ate
Ġappoint ments
Ġn aked
um atic
Ġlog ical
Ġdescri ptions
Some times
ĠEn c
Ġsim ulation
ĠBlue tooth
Ġli d
Re al
Ġhe ater
erv atory
p ically
Ġse wing
Ġspeci fy
Ðµ Ð½
ĠSouth east
Ġf ran
D B
m ap
ĠOper ation
speci ally
Ġtheore tical
Ġban ned
Ġinter section
G H
Ġver se
m ons
ent e
em en
ĠC arm
ĠN aval
ĠF ern
imension al
Ġdisc losure
Ġdri ll
Ġcomm ands
ĠS ie
Ġbe ars
ĠE i
ex p
Sh ow
yl on
Ġi Tunes
Ġign ored
lo e
ĠPart ner
Ġcolon ial
Ġ19 35
Ġcomple ment
ĠPlay ers
oo ter
ĠK on
Ġh onda
Ġbo il
Ġscen arios
ĠCh at
w ritten
Ġ 000
ĠKnow ledge
ĠStatis tics
art a
Ġpo ison
Ġmerch ant
ĠAdvis ory
- <
Ġmo net
Ġcollap se
Ġsen sitivity
n ate
ĠO P
Ġr he
ĠJeff erson
ĠA CC
Ġdesi res
ĠNeb raska
Sm all
ĠR C
ĠCl are
ess ors
ĠF ili
ĠDise ase
ĠOpp ortun
re ls
ĠSh aw
Ġdisapp ear
Ġaccording ly
Ġre venues
Ġthick ness
ĠCons ervation
Ġliter acy
li ps
zz le
ĠV a
Ġover look
ĠSi erra
ĠRem o
ibli ography
Ġsp ine
Ġfr action
Ġdistingu ished
Ġshould ers
Ġm ot
heim er
Ġconnec tivity
ĠSw im
DA Y
IN D
is i
Ġind ia
Ġs ailing
ĠStr ong
ression al
Ġbl ues
Ġdi ving
iti s
onom ous
Ġori gins
Ġdistin ction
T D
Ġsculpt ure
ki ly
M iss
Ġdes cend
y ed
Ġglo ss
bo at
ĠK os
Ġprob ability
H on
ille t
Ġher b
AS H
Ġprohib ited
Ġn ode
Ġsun ny
ĠTru th
j ective
I ts
Ġth rew
Ġrefriger ator
I d
ĠLe o
F our
ĠH oo
Ġste pped
Ġed itors
Ġswitch ing
ĠN ico
Ġmic rowave
Ġeduc ate
For mer
Ġ( +
Ġboy friend
I Z
ro le
ine e
An n
ĠE sc
ĠMaint enance
Ġb urg
ome ters
Ġpress ing
Ġpromo tions
ĠH ood
um ed
ĠLiber al
ĠR ural
Ġdemoc ratic
uff y
thri tis
Ġtransp arency
Ġmon ument
ator ies
Ġpharm acy
ĠPri x
ĠM N
ĠNor man
ĠP red
Ġp a
Ġalgorith ms
b ach
Ġbrow sing
cyclo pedia
Ġm il
F lor
che t
c lick
Ġpen sion
ĠNo va
ĠL ore
Ġra b
id ency
ĠE gg
Ġbra ke
M s
to mi
bro ok
Ġsur render
Ġpres erved
Ġbur ned
pe g
Ġl bs
Ġrefuge es
ĠR ate
Ġac oustic
ĠR ud
w as
ĠD h
o ting
Ġavoid ing
Ġdomin ated
A h
ĠV ermont
ĠT ac
Ġconsider ably
ati gue
ĠFA Q
Ġmem orial
Ġacc us
ĠH app
ĠS chedule
ĠC AN
Ġconcent rate
Ġpe tition
ĠMor oc
Ġsuper vision
Ġ7 9
tin ct
áĦ Ĥ
Ġin tra
Ġfabric s
fi ers
ĠMur phy
Ġextend ing
ĠHe brew
ĠK aren
Ġpermanent ly
Ġinflamm ation
ĠMil an
ri ll
t ec
ĠM ak
ĠB rain
clus ions
ĠFred erick
Ġpip es
ĠCh ance
ĠPra desh
ĠM t
Ġoccur ring
Ġimpro ves
se ys
IF A
M ari
e g
ĠAnaly tics
Ġaut umn
e ners
ĠLiter ature
Ġillust rations
Ġstri kes
Ġbelong ing
ĠShang hai
B E
Ġsubs cribe
f an
g mail
Ġ19 29
W ant
ĠDis play
G L
Ġfi res
Ġplant ed
ĠTh under
ĠPales tinian
Ġexc av
Ġdevelo ps
Ġw ounded
ĠCal endar
ĠHo lland
Ġspons ors
Ġyoung est
Ġwar ned
Ġname ly
Ġpris oners
E nd
orig inal
Ġrus tic
Ġdi min
ĠAccess ories
Ġpo se
ĠPear l
F re
ĠUn til
Ġaggreg ate
Ġ ze
Ġs ni
Ġ15 00
amili es
Ġreg ret
i nary
ID E
Ġ8 1
ĠD ia
Ġcirc ular
Ġpor ch
Ġdiagnos tic
line r
Ġdon ate
oc y
Ġbegin ners
ĠâĢ º
n als
xt reme
Ġfundra ising
ĠTur ner
H and
Ġfound ations
ĠConf eder
ĠM ig
Rem ember
Ġac ted
Ġpen cil
ION S
e ling
Ġmon ster
Res ults
Ġrot ation
ĠS EC
Ġcons ume
ĠV ar
D en
Ġiniti ated
Ġtre asure
ĠPop ular
Ġinj ection
Ġre vel
Ġparticip ant
ĠJ ar
ĠS ens
nd on
Loc al
Ġch ristmas
Ġembar rass
Ġpro ceeds
Ġa ce
E ast
Ġactiv ist
Ġcle ared
Ġcan cell
Ġan cest
Ġsil k
or ous
iti ous
Ġsurve illance
nect ed
Ġpill ow
c ost
ĠBud get
Ġon ions
Ġmanif est
L and
on line
ell ery
+ +
ĠAssess ment
ho le
em ail
ĠH unt
Ġv aries
ai nder
K ing
me ga
ĠDel aware
Ġc attle
OW N
ĠA x
ch t
t am
Ġter rain
ĠBern ard
ĠF DA
Ġinexp ensive
ph ere
enti a
sequ ently
Ġl ac
Ġupload ed
ĠHind u
ss a
Ġf ung
yc led
Ġsh irts
Ġ9 00
Ġbar rel
ĠP ump
Ġdis advant
Ġwithdraw al
ro ller
ĠWeek ly
Ġle verage
v ascular
ĠA ra
w aukee
uck er
Ty pe
Ġenter prises
vi ting
Ġbehavi ors
Ġsto ve
n z
od s
S F
to x
Ġdistrib ute
ĠG or
Ġf lesh
Ġingred ient
Ġbri de
Ġlect ures
Ġsen iors
Ġham mer
ar us
ĠG am
Ġcli ps
S ex
Ġend orse
c up
1 30
ours es
Ġresi gn
ĠSome thing
Ġcontro versy
A ct
T Y
Ġinstrument al
Ġmem or
ĠBris bane
Ġhospit ality
ri l
ĠÐ ²
Ġinter mediate
ĠHar rison
Ġpe nd
Ġl ane
ring e
Ġassess ed
N G
ĠR ece
load s
ĠProgram me
ĠLabor atory
Ġrele asing
Ġlob by
uts ide
Ġar ising
ed ies
M ad
ĠM ai
rid ges
Ġrelax ation
ĠM Y
ĠTe aching
Ġactiv ated
Ġprivi lege
Ġti l
Ġhar ass
ĠUl timate
Ġcoun seling
áħ ¢
Ġg y
ĠO scar
Ð ·
Ġtu ned
ĠAd el
Ġposi tioned
Ġ8 3
ĠLux ury
ĠRes p
Ġuncer tainty
ur st
M ic
Ġbrand ing
Ġst ew
C ome
ĠTri nity
ĠP oker
m u
b ai
ĠMar c
Ġoff set
Ġathle te
ed a
ep lay
Ġpres cribed
C reate
Ġse lls
" ),
Ġelectr on
ĠEx cell
ĠL ighting
ard ed
h ave
ar u
V er
Ġcombi nations
Ġcloud s
ĠScienti fic
oc hem
Ġpipe line
ĠN u
f ood
ĠSong s
P E
i fied
Ġcell ular
Ġattend ees
Ġo s
ative ly
ĠOr acle
ĠSho es
ĠR aw
å ħ
Ġtroub les
Ġsold ier
Ġinvestig ations
Ġsa fer
ĠU g
et ta
fra me
Ġ19 34
ĠNe il
ann on
Ġmonet ary
ĠLind a
Ġma pping
ĠY ard
p ublic
ĠWild life
00 00
ĠComm ander
Ġpuzz le
omi nal
ĠN az
ĠD M
ĠFe el
Ġaff air
ĠDesig ner
m ount
Ġpremi ere
ĠS end
ĠChel sea
Ġsoo ner
ĠZ oo
Ġpro li
Ġtradition ally
Ġrehab ilitation
Ġmoment um
tom ic
ĠRem ove
Ġabund ance
Ġprivi le
C ategories
ĠRe i
Ġm ounting
ĠH ack
Ġcreat or
Ġhas sle
ĠM iles
Ġmet aph
he ll
sh ow
Jap anese
Ġeigh th
Ġb ree
ĠOr thodox
Ġm p
Ġfif ty
Ġcomp aring
Ġun comfortable
ĠW u
Ġtwe et
Ġrecre ational
Ġdep uty
Ġinstall ations
qui red
pri ate
ĠCo ordin
Ġg ospel
Ġsli des
S ave
or ti
Ġthri lled
198 9
Con f
ĠT ran
ĠM AR
Ġtra ders
ĠInte gr
Ġrep orter
S am
Ġcomp ilation
Stud ents
Ġrefresh ing
ĠN orm
Ġprev ents
Ġdele ted
ĠInc re
S il
ĠL GBT
ĠP ray
Ġtour ing
ĠH em
Ġentreprene ur
Ġb aked
Ġapproach ing
b rand
Ġunderstand s
Sh op
ĠInstall ation
ĠS ites
ĠLi nks
el ong
Ġh ind
Ġm ailing
mir al
Ġeditor ial
mi no
Ġhero es
al ore
uck land
ad os
Ġjump ing
ĠVin cent
Ġc oding
Ġp anc
fi able
ĠAcadem ic
Ġcur tains
m ag
f re
pl ane
C amp
Ġtob acco
Ġh ier
Ġspir its
ĠInf antry
Ġsubstanti ally
L ead
Ġsearch es
ĠCru z
ĠQu ali
ĠC able
ĠAu th
Ġ \
d oc
Ġpurs uing
h is
L og
ĠCar los
nder gart
aj a
ĠCond ition
Ġg room
Ġ19 28
Ġtra des
ĠInves tig
th ird
v ance
Ġwealth y
Ġ ×
O per
ĠP D
ĠArab ic
b ag
O H
Ġbackground s
ens on
hi m
Ġl ug
ĠH ence
ĠWe lls
ĠA W
c ountry
Ġeduc ators
ograph ics
OU T
Ġare na
Ġpar a
s al
St ation
ĠF ellow
Ġdist ant
ĠS leep
ĠOrgan ic
ĠG ospel
, âĢĻ
Ġch ol
um ini
Ġrem ainder
ĠPro to
Ġtal es
ĠI ssue
Ġp acks
Ġcalc ulate
Ġmathema tical
re lla
Ġprint able
ĠThrough out
ĠCom ics
à¤ ¾
ĠH ours
w oman
ĠPsych ology
ph en
M er
ĠSn ap
Ġvan illa
ĠS aints
ĠX box
ĠPl ate
play er
Ġprom otes
ĠM ong
Ġg ly
Ġcan ada
Ġtempor arily
asi n
Ġw ound
Ġmat rix
M or
Ġrent als
Ġattrib uted
nc ere
g om
sen al
Ġadjust ments
ĠFe ed
ĠBreak fast
Ġdiscon tin
Ġalign ment
ĠSo on
H o
fi nal
Ġch ick
ĠR ule
Ġelev ation
ĠSurg ery
Ġsell ers
Ġlo com
Ġenthusi asm
Ġdecl ar
li ghting
Ġswitch ed
Ġtax pay
Ġ9 1
Ġ3 65
lo gi
Ġstar ter
Ġder iv
Ġre t
Ġtra y
Ġreview ing
Ġmethod ology
ĠN BC
Ġcomm emor
c amp
orpor ated
Ġb ust
Ġf ond
ĠDirect ory
oli tion
ĠA A
Ġthank ful
ic tive
Ġmed alists
Ġsc ary
>âĢ Ķ
b ig
Ġins ulation
Ġmod est
Ġabsor b
ĠRepresent ative
Ġcar toon
Ġhar ness
Ġsmooth ly
T it
st en
ĠEm ma
Ġprotes ts
ĠSt ream
Ġcred ited
Ġre tention
Ġinstitution al
Ġbr ut
f acts
Ġwatch es
Ġrevolution ary
ĠPay ment
ĠRug by
Ġp el
Pres ident
ĠWh atever
re z
k le
k it
ĠM BA
Ġsubst ances
c am
erv ices
ĠR ai
Ġstr ings
ĠOF F
edd ings
N ever
Ġg ad
ĠNever theless
Ġinc enti
ĠGra ph
Ġautom obile
ĠV ent
M obile
ĠIran ian
ĠS eb
Ġgrand father
ĠRep l
ĠP ure
ra ys
Ġsc ream
ĠAthle tic
P O
ĠMo z
ĠTH AT
Ġattach ment
ĠF lex
ar se
Ġcar riers
Ġprovin cial
ĠN ancy
Ġevalu ated
Cl ub
Ġexplo red
amb ig
p ted
Ġremi nds
Ġ ÃĹ
Ġhar vest
Ġtravel ers
ĠB le
Ġn omination
Ġform ally
ĠCh ester
atch ing
ĠL oss
Ġsec urities
Ġbar n
Ġdes p
ĠN ine
Ġst ap
ĠFlo rence
Ġtou ched
Ġinf ected
w ers
Ġres ur
Ġsk etch
br al
W ould
Ġan x
Ġsh orts
?? ?
Ġclear ance
nam on
ĠMichel le
ĠWire less
Ġgl uc
ĠV R
ĠColomb ia
o logies
L ight
Ġw ages
Ġpre liminary
Ġcool er
Ġf ri
Ġsli ding
Ġmet als
ĠHel en
Ġpsych i
ĠP T
Ġmer ged
Ġp ile
Ġnum er
Ġs af
Ġcontr ary
Ġb ump
L ou
Ġgod s
Ġbl ast
Ġpromp tly
ĠF BI
ĠSch olar
ĠE R
Ro bert
Ġexplo res
W ood
ĠChe f
ĠPack age
k ok
d ra
Ġequ ation
ĠA po
Ġpoi nting
Ġment or
ĠN av
ni es
Ġwork flow
Ġupgra des
Ġconfig ured
ĠNo tice
ĠBill board
ĠW rite
Ġfl ush
v ice
ĠF itz
Ġlog istics
u ate
Ġpra ised
Ġex otic
Ġc ine
Ġconv icted
Ġmatch ed
ĠBlo om
st ation
ĠMin or
Ġcusto ms
ĠON E
ĠM AN
Ġcompris ing
ats u
Ġsw ord
ĠDe gree
Ġstrugg led
ĠCom plex
ĠFant asy
M ulti
Ġd il
ows ki
ge tic
ĠM az
ĠáĦ Ģ
ĠAdd ress
om p
Ġassess ments
ĠUk rainian
Ġsubmit ting
Ġre ign
ĠV ista
tr yside
ĠC raft
Ġgradu ating
Ġsur name
Ġdiscus ses
ĠWar ner
er ce
ĠL ac
ĠC otton
Ġst rand
ograph ical
Ġcompli mentary
ĠPric es
Ġass assi
Ġte as
Ġv ouch
ĠS ERV
ad ic
Ġfif teen
Ġjo ints
ĠSquad ron
> +
ĠRog ers
ĠKar l
Ġnation ally
Ġno tified
19 70
Ġhard wood
Ġsurpris ingly
L aw
ĠHer o
d ess
Ġflow ing
F ood
v oc
Ġsubs id
Ġin fer
ĠW atson
ĠW I
ĠN AT
ĠIndust ries
ĠCamer on
et al
Ġo m
Ġinc on
ĠSpeci alist
ĠLo an
ĠS au
Ġp aired
v t
ĠGuard ian
Ġcompris ed
ĠTwi n
Ġphotograph ers
ĠH our
m ine
w asher
Ġdefe nding
Ġc uri
ĠChap el
ham mad
Ġquali fication
Ġp olar
Ġspread ing
um en
ĠMater ial
Ġst ressed
ĠCoun ter
Ġ19 32
ĠÂ °
ĠMax im
ĠG ear
Ġpar ameter
Ġactiv ation
Ġy amaha
Ġe ld
Ġdi p
Ġlight ly
Ġtestim ony
Ġpropriet ary
F orm
ĠM otors
Ġc asinos
es us
Ġcusto dy
h aw
li o
ĠH V
r ator
Ġch lor
B lo
sel ling
or ie
ĠT ampa
ĠA ber
F ran
ĠH oney
Ġspeciali zes
n se
qui n
Ġupd ating
En joy
Ġf ried
ia h
Ġsti ff
Ġmanus cript
Ġapplic ant
old ing
Ġ20 22
Ge orge
re ne
ĠS ample
aff e
Ġcheap est
ĠSy rian
ĠNich olas
ĠIs a
whe el
iz ations
Ġint uitive
ĠCin cinnati
Ġexpend it
S N
Ġ- <
Ġsh allow
ĠUni verse
Ġface book
ĠInt roduction
ĠBene fits
Ġjo ins
R oman
op ic
Ġf auce
Ġexhibi tions
ut t
ĠÎ ¼
Ġvio lin
ĠMem ory
Ġbes ide
Ġreward ing
ĠF lu
ĠThe me
lo p
ĠK ir
19 88
ĠIda ho
ĠW ide
May be
Ġlike wise
Ġfin als
M at
Ġtow el
W eek
Ġli nking
Ġsurvi ving
Ġanti bio
ĠO z
old s
Ġcoun ting
ĠE thiop
l av
Ġ um
ig o
an ut
Ġco zy
ĠTra i
Sh ould
et e
ĠT ank
Ġtum or
ĠDen nis
Ġsh ake
Back ground
Ġent ers
ĠUs ually
Ġsoci eties
Ġgra ve
fi ve
Con tin
Ġterror ist
Ġover head
ged y
Ġ: )
ĠPen n
h all
ĠH aven
Ġ19 12
ys ical
ai ro
ĠRead y
Sh ort
ĠK il
ĠAr ticles
st ed
j ay
ĠEss ay
ĠQues tion
Ø ª
ĠMed ium
Ġqu iz
ĠC atherine
ĠM ario
Ġref ine
ãĢ Ĥ
Ġb ru
Ġh iding
Ġdat abases
Ġhon ors
ĠBu ilt
); <
Me anwhile
R ail
Ġp ound
as so
ring ton
Ġ ut
P H
ĠBr us
Ġcon vince
Ġh int
ĠSp ac
s ong
ke ys
ĠC AR
ĠB urg
Ġranking s
ren cies
n ormal
ĠAgain st
Ġ18 00
ĠH ang
Ġcat aly
Ġdisser tation
ĠPl astic
Ne ed
ĠVehic le
an cies
R ock
ĠMer cedes
Ġin viting
umb led
Ġn urt
Ġperf ection
an tit
h ouses
Ġprot ects
Ì ¨
ĠTour ism
c ano
ĠHealth y
re p
ĠB A
oo s
Ġtas ting
Ġpurs uit
U l
Ġchi na
ĠPo ints
oh en
Ġv enti
Ġprog ression
Ġno tify
R ight
Ġc akes
B rand
g irl
Ġunemp loyment
f our
ĠSh ore
tt a
d imensional
Ġblog gers
ĠCol oring
Sh are
Ġdis charge
ph oto
Ġfore x
Ġlast ed
Ġso y
tiv ated
O fficial
umini um
ĠV intage
Ġconsequ ence
Ġcock tail
ist le
Ġ19 16
F ire
by e
at ra
ĠP ent
ish a
Ġad oles
Ġemb roider
Ġcons ensus
ĠOtt awa
Ġacc redited
Ġep id
ur dy
Ġassemb led
Ġanch or
bri ties
Ġbic ycle
Le ave
Ġbi as
Ġfra gr
Ġgood ness
Ġconsum ing
Ġdig it
Ġdel ays
ĠTruc k
ĠEag les
Ġ19 15
Ġbuild er
Ġsol ved
Ġsusp ected
å ¤
ĠCh en
ĠT esting
Ġse aled
ĠGu ild
ĠBer keley
Ġcelebr ity
lan throp
ra is
f und
ĠB attery
Ġsent ences
ĠEd wards
ud er
ĠRE AL
Ġline up
tis an
Ġfor ty
ĠPl aza
ĠC it
Ġ1 15
Ġalter ed
Ġp uri
fric an
V ill
Ð ³
M ain
ĠIns tit
uc ci
S K
Ġneighborhood s
Ġ19 24
S und
Ġsubsidi ary
Ġstat ue
Ġhand made
er ver
M ary
ĠDef ence
Ġab d
Ġn ails
Ġlimit ation
Ġc ottage
F ace
am bers
Ġgall eries
Ġro ster
Ġpro j
Ġexten sions
Ġcyc les
ĠSk ills
u er
Rel ated
ĠAmend ment
Ġblog ger
Ġconsult ants
Ġacknowled ged
ĠManufact uring
Ġimp osed
Ġsu pre
Ġreg ulated
Ġextensive ly
Ġc ables
ĠB orn
Ġexc use
Ġw allet
Ġarch itects
rou t
ĠN y
Ġso vere
Ġlear ners
ai m
Ġfer tili
ĠSh akespeare
min ster
ul ent
Ġtra p
ĠMo vies
estab lished
ĠAlex and
ĠM end
an th
Ġdom ains
Ġenthusi astic
men to
Ġconstitution al
Ġcor ro
ĠT ak
f ounder
ĠGene ration
Ġtransl ate
ĠOw ner
Ġwater proof
ĠAth ens
Ġf rench
Ġdemonstr ates
ĠArti sts
Ġi cons
Ġdemonst ration
fini tion
c ot
Ġsl ave
d owns
Ġstri ps
ĠEduc ational
ĠC rew
Ġban ner
ĠPhys ics
Ġkid ney
Fi nal
ist ence
ĠRan ch
ish ops
Ġd ow
Ġje ans
ĠDat abase
r r
Ġcal cium
ĠAC T
ĠTest ament
ĠTh an
Ġsched ules
Ġch ic
Ġanno ying
Ġfi ghter
hol m
ac io
Ġli ngu
Ġste al
Ġlo s
Ġb illing
ndergart en
Ġsli m
Ġresearch er
Ġeng ra
Ġe books
ho lic
ĠAny one
ĠV I
po ints
h uman
Ġ19 27
tim edia
Ø ¯
7 50
Ġgr asp
Ġdes erves
Ġill umin
ĠW OR
IS H
ĠBel le
Ġli ning
osi tions
itch ens
Ġ Ï
ĠS or
Ġpublish ers
ĠElectr ical
Ġdiscip lines
Ġphr ases
la very
Ġbene fici
Ġ19 31
Ġmir rors
ĠB anks
Ġunw anted
od ed
ĠBatt alion
ĠBe havi
Ġco alition
Ġproject ed
Ġindic ators
Ġlif ting
Ġlack ing
ah l
ĠSymp hony
ĠA K
oura ge
Ġlicens ing
if ts
T our
Ġnorth west
Ġindic ation
ĠHe llo
Ġtre k
ĠInc ludes
E li
Ġg aps
ĠPo ke
Ġun pre
ĠLi ons
V A
Ġh obby
ĠJess ica
ĠR hi
Ġembodi ment
ĠN eck
Ġfar mer
ĠSte am
ar ctic
Ġpoor ly
Ġdist ur
Ġre vi
ĠAw esome
Ġwarm th
Ġboo th
Ġle nders
Ġcatch ing
Ġc ran
ent on
ĠRep ly
Q ues
Ġb ap
ĠWiki pedia
Ġf ool
Ġa viation
po ke
Willi am
Ġc asting
bec ca
Ð ¿
ĠT aking
ĠLie utenant
Ġnor theast
Ġw rist
Ġbless ing
ĠPR O
ester ol
pati ent
Ġle nder
Ġcoll ar
ud ge
Ġcrypto cur
T en
ĠWork ers
ĠShe et
Ġcont amin
198 7
ubs cribe
lei n
Ġadvoc acy
Ġveri fied
tic a
re ns
Europe an
ep s
Ġrad ar
ĠExcell ence
ul ative
OL D
ĠY ang
av ailable
Ġgl ue
ĠAbra ham
Un fortunately
med ia
Ġpas sive
ĠPo ll
ĠStan ford
Ġneed le
ĠE SP
Lit tle
en tive
s ch
ls on
Ġ19 22
gi ons
ĠCor ner
< /
p y
Ġfin ances
Ġcomp ression
Ġinform al
ĠPh ase
ĠVen ice
Ġproxim ity
Ġli qu
Ġrep ay
Fri day
ĠSpe aker
ĠHe y
w p
j ob
Ġanaly zed
Ġm ph
ĠBri gade
Ġobst acles
Ġfle w
ĠL ud
Ġg ates
Ġadminister ed
S ources
ĠRe venue
Ġli me
Ġalleged ly
Ġavo ided
IM E
ĠM ale
bo ys
ah u
id ad
Ġsc ared
Ġfirm ly
ĠS atur
Ġin nings
ĠT iger
Ġco ordination
Ġtou ches
ĠDesig ned
Ġprop he
ke a
à ¹
ĠJ et
Ġc d
n to
ĠN H
Ġmar tial
S till
ĠW ILL
Ġsid ew
ĠF iction
Ġresi gned
Ġ19 11
Ġcap ac
Ġapp liance
o bs
si l
Ġabs ent
Ġti ssues
Ġspecific ation
ĠIn j
P I
Ġgrand mother
ĠMc Donald
P D
ĠB omb
Col or
bo th
Ġ19 25
att a
Ġsli ce
ĠFle et
Ġbre eding
Ġg um
d ue
qu ali
ĠAust rian
e astern
u th
Ġm all
Ì ¦
mi ting
ĠTig ers
B ibliography
n h
bour g
E m
ens is
Ġless er
Ġa ne
Ġrel ay
Ġy eah
ĠEn try
Ġinvestig ated
Ġvit amins
ti ff
Ġpat ri
Ġl amps
Ġup hol
w en
Ġspot ted
Ġthe at
Te am
Ġvari ant
Ġsex y
Ġoff line
ĠC ass
Ġsurpris es
Ġquanti ties
ban on
z ations
Ġende av
op ard
ti de
ĠN A
tract ed
Ġcompet ent
Ġh p
Ġfortun ate
Ġplan ting
b ath
ind ex
Ġimport ed
Ġdismiss ed
Ġnecess ity
ĠNi ntendo
Ġev ac
Ġto nes
ER Y
fefe fe
ĠStat ement
ĠIniti ative
Ġi di
ĠDown town
F I
ĠS ara
Ge ography
ti nes
Ġinnov ations
Ġw eddings
ĠL amb
un ks
J ew
aster y
Pop ulated
Ġflav our
c ro
Ġcha os
Ġpharm aceutical
L ondon
ulli van
Ġqu antum
Ġh orn
ĠLi f
z el
OV ID
Prof essional
Ġqu ilt
Ġrenew ed
m its
H istor
v ic
AT A
lip se
Ġtend ency
Ġconf ront
ĠPer iod
Ġp c
i fy
Ġfor tune
Ġillust ration
Ġjump ed
[ /
Ġ19 21
ĠN OW
B ur
Ġquali fications
Ġconf idential
sp ot
ĠB onus
Ġamb itious
ĠTy ler
ĠJour ney
Ġind ul
Ġmedic ines
ĠTrai n
Ġch ore
Ġconf using
Ġtu ition
Ġle f
Ġjo ke
i tol
ĠH S
Ġsub str
ĠA llow
ĠTra ffic
Ġfre ight
Ġbra ve
Ġn od
ces ter
Ġconsum ed
Ġbub ble
Ġlandsc apes
Ġde er
ĠSh ower
ĠP E
Ġra tion
Ġal ph
ĠR T
ĠF a
Ġsurge on
Ġtri be
B T
Ġterrit ories
cure ment
ĠS ell
Ġperform ers
ĠZ en
ĠF E
Ġsal mon
an as
Ġwitness ed
Ġfur nish
gh ters
Ġmodi fications
ment ation
lest on
aint ed
Ġalleg ations
Ġg reet
ath i
ĠA uckland
pt on
ĠHugh es
B D
Ġcos metic
ĠR ating
Ġanalys es
ĠSt ainless
Ġpan ic
Ù ĩ
Ġsouth west
ph is
Ġcand le
ĠTi bet
ĠFran ces
Ġcheck out
AT H
Ġthem ed
gom ery
Ġsound track
Ġb achelor
ĠE specially
ĠExper t
W E
Ġpractic ally
198 6
Ġins titute
Ġdesi rable
Ġf atigue
ĠZ i
ĠSer ge
form s
ĠCy ber
Pe ter
Ġround ed
Pub lished
f alls
j ab
rac tic
ĠBB Q
ĠAl pha
ĠCP U
Ġstic ks
ĠC ob
Ġguaran tees
des igned
Ġsatis fying
18 0
Ġprior iti
Ġgra mmar
f ar
al an
Ġm u
ĠPhilli ps
val uation
Ġan ime
Ġy e
ĠShi eld
Ġp ian
ĠP HP
pir acy
Ġinvestig ating
Ġf ame
Ġdisp utes
Ġcy linder
ĠMo ving
ak y
Ġ19 26
o T
ĠN azi
o tion
ĠE c
Ġsmall est
C ategory
ĠOak land
Ġox id
k ov
ĠHar vey
ĠS MS
Ġel astic
Ġed itions
S ervice
Ġg inger
es ity
Ġp ads
Ġref ined
osi um
Ġmembra ne
Ġwriting s
rali ty
ĠSU V
ĠS ant
Ġfe ver
Ġfai ry
Rus sian
ĠN HL
ĠR unning
an ia
e or
ĠGu itar
te nder
ĠÐ ¾
pan ic
oi nting
AN K
H ope
Ġout look
, ,
ĠRang ers
ar atus
ĠH ob
Ġmar sh
Sc ot
ĠW a
Ġup s
Ġvi able
Ġdo ck
mi nded
Ġf led
ĠCons ulting
Ġsle eve
Ġbehavi oral
IN T
l le
It alian
Ġward robe
one st
ĠNe g
Ġcon gr
ĠO wn
Ġpun ishment
ĠNe igh
Ġtri umph
Ġwonder ed
ĠL iz
p it
ti f
ĠStar ting
Ġpenal ties
Ġz i
>âĨ Ĳ
ĠS r
j s
Ġal gebra
ĠG L
ĠSac ra
Ġp ap
Ġsched uling
Ġno ble
Ġbuck et
ĠTra ditional
ĠPier re
ati bility
ĠEli te
Ġp umps
OC K
Ġshi fting
Ġj ohn
ĠLegisl ative
u v
Ġthro at
Ġpred ec
gar ia
Im age
al one
Ġp ussy
ĠGh ana
Ġal lies
ĠE S
Ġconven i
ĠCar bon
Ġbalcon y
Ġdisc lose
char ged
f ocus
Ġsimp ler
Ġg ems
Ġ4 50
Ġblank et
l ane
Ġeat en
ĠN utrition
thi nk
Ġl amin
ĠFlow er
are ttes
Ġan onymous
Ġtour naments
ĠLinked In
osit ory
Ġcor rection
AV E
Ġcons titute
Ġconf ron
Ġb ake
Ġsouth east
Ġ10 5
ari zed
ĠWi Fi
f ox
tic o
Ġemp ire
Produc t
Ġand roid
Ġ umb
Ġbo om
ĠW ays
ĠA viation
Ġthread s
ĠHy dro
bs p
st orm
Ġs el
Ġfor cing
ĠCer tification
mar ine
ĠR ush
Ġsc am
Ġpast or
ĠT ours
role um
ĠLe banon
Ġ| <
ĠC reat
sh a
Ġrecre ation
E r
16 0
Ġfinan cially
ĠJu lie
ĠM ans
Ġtherap ist
Ġcons iders
Ġcontra d
Ġinv alid
ĠGu inea
Ġthri ve
ĠM illion
Ġplay ground
198 5
ĠC ake
D el
Ġgra vity
Ġcerti ficates
Ġcenter ed
ĠDi pl
Ġpress ed
M ajor
Ġast ro
gg ies
p oli
pos ed
Ġconcent rated
Ġch erry
ĠK ick
ci enti
l arge
ĠDisco very
ĠC ock
Ġrail road
a tics
Ġrec ycled
Ġ19 23
Ġe cho
ĠX P
ĠS ew
ĠH arm
Ġread ings
ĠG RE
ass is
ĠExpl orer
Ġwash ed
b lock
Ġrow s
v ak
ĠA vi
Ġinnoc ent
Ġsi ncere
ĠDo ors
ĠG iants
ĠRu th
uc ed
Ġass isting
Ġle nding
ĠCh ase
s hire
Ġgli mp
uri al
Ġsmart phones
ĠPer th
Ġden y
Ġal liance
Ġb od
EN TS
Ġsp rings
ĠRec ruit
ĠCar ol
ĠProf ession
D ue
Ġ vel
ĠD ial
Ġsk irt
L uc
ĠC ities
ĠAn cient
Ġenh ancing
ĠGra m
ĠLe eds
ĠTe achers
Ġclass ics
Ġdiscover ing
gie ne
Ġc ope
Pl us
Glo bal
Ġm ant
Ġsun set
Ġbeat en
Ġins ects
ĠS olution
Ġs illy
ĠCont est
Ġe Bay
mod ern
ĠV IP
th ood
Ġsp y
oub ted
Ġsun light
ĠNew ton
ag le
Cus tom
Ġreform s
ĠHung arian
ĠW rest
ĠBl ake
Ġmodi fication
ĠDan ny
Ġmon i
ĠPen insula
ĠW ash
ĠEngine ers
ut ton
k k
Ġc ad
Ġstud ios
h n
m are
ĠPro s
Cl oud
Ġcater ing
Ġdrag on
Ġb acon
ĠOther wise
Ġd amp
ĠLe gend
Ġcoun tryside
Ġfe eds
Ġb ored
ĠSh adow
Ġter race
ĠCr icket
ĠD raft
W al
Ġveri fication
elling ton
ĠAn niversary
Ġci n
ĠTh erm
ĠBeng al
arm ing
Ġmin isters
ĠMoh am
Ġsce nery
ĠDep ending
onic a
ĠF irm
Ġmid night
Ġfold ing
Ġnow here
ab we
Ġearthqu ake
Â £
Ġreal m
ec urity
ĠN HS
Ġth r
Ġsacri fic
198 4
Ġor chestra
on o
hy d
Ġout lined
id as
Ġexped ition
id al
ĠGo ing
ĠDis cussion
Ġbund le
ĠBut ler
ag nos
e lection
ĠA chie
Ġunder taken
ĠBi ke
Ġsome time
fin ity
Ġretail er
es pecially
Ġal together
) -
Ġfil med
rag ue
Ġpic nic
Ġsimilar ly
ĠK itt
ov able
IS S
ĠFood s
Ġqu il
Ġ2 20
p ic
ĠRec re
Ġanaly st
le ne
le tin
Ġsp elling
ĠâĢ ł
Ġthere of
Ġst ats
ĠNew castle
ĠDi nner
ĠFor mer
Ġor th
Ġrel uct
ĠCal gary
Ġoptimi ze
ĠS aw
ĠApp s
ids on
Ġ lymp
w riters
Ġco ne
V R
Ġsy nc
Ġdry ing
Ġjourn alism
Ġuni ons
ĠInd ependence
L O
Ġrecipi ents
J ack
Tag ged
xt on
Ġm elt
Ġmas ters
Ġri gor
ĠAdel aide
Ġslow er
Ġfrust rating
Ġvir al
B log
G P
G ar
Ġins ured
ĠRail road
ĠC ord
ni on
ris k
ĠExhib ition
Ġterror ism
si ans
Ġagre es
Ġharm ony
Ġgard ening
Ġrib bon
C M
Ġ velo
Ġso cks
ĠPhilosoph y
ĠE ston
s ay
ĠL ion
ĠCommun ist
L ine
Ġrem edy
ĠSpeci fic
å ®
Ġrespond ing
Ġinv is
Ġtub es
Ġpix els
ul atory
n us
Ġs ang
Ġm ilit
Ġour s
ĠPre vious
Ġfor b
ĠBel gian
Ġequ ality
Ġstra p
ĠEconom y
Ġrock et
Ġ19 13
Ġadvis ory
ĠAud i
Ġhas h
ĠáĦ ī
Ġno ting
ç Ķ
Ġabo ard
ĠBe er
Ġpo lished
Ġcont acting
S aturday
Ġshi fts
Ġdiet ary
ĠPot ter
Ġpo nd
ĠPet e
Ġanaly sts
i ntend
pp le
Ġkey word
Ġtw itter
Ġdefend ant
ut ory
ĠMu hammad
ĠFlow ers
the tics
Ġm it
ĠFish er
ĠH unting
Ġdownload s
ĠN avig
Ġass ure
Ġblock chain
ĠBio logy
Ġver b
Ġre he
Ġrep ro
Ġstress ful
nd y
tle ment
Ġcan al
ĠMil waukee
ĠBo at
ĠR osen
ĠI RS
Ġsc ales
Ġpre tend
Ġbreak down
ĠCan al
Ġse lections
Î µ
Ġbio graphy
Ġa merica
ig an
Ġhead er
au er
ĠR alph
Ġinterview ed
Ġgu ards
Ġsubscri bers
h alf
j et
ĠBuddh ist
Ġmar ry
Ġshe er
n at
D M
Ġd welling
b ly
od ia
ĠO re
Ġn ap
Ġro pe
ĠI van
Ġsh aft
am o
ĠMun ich
Ġsyn chron
D oc
Ġapp ren
a gh
antit ative
ĠCer tain
Ġdef ines
ll or
ĠBro oks
ow ed
Ġbe e
ne ts
Ġfl or
Ac cess
Ġdry er
AN CE
Ġdraw er
ti tions
ĠCom par
ĠA us
Ġp and
Ġgover ning
Ġpro long
ĠW aste
ĠM ental
imb abwe
ĠWe i
ĠReg ular
Ġn ons
Ð ±
me ter
ĠE ST
k ward
ĠTh er
Ġten ure
Ġcri min
Ġunder go
qu o
ĠMar ti
Ġsequ ences
Ġl asts
op ath
Ġexha ust
ĠCh es
ĠM M
Ġnever theless
ver ages
Ġsh y
Ġcivili an
ĠF oster
ĠS ai
ĠW ag
Ġsc ent
p rus
Ġamend ment
ok a
ĠS mo
ĠZ ero
b usiness
ĠLe af
Ġb ible
ĠChem ical
Ġassum ing
Ġmi nt
S tra
ĠMP s
ĠJu lia
ĠKind le
Ġviol ations
ĠN Z
ĠX L
Ġat tain
ĠT W
trac tions
m os
ĠProper ties
ĠR ena
st ad
ĠR M
Ġadministr ators
Ġpass port
Ġnutri tional
ĠVis a
g el
Ġsp ite
s top
ĠT ot
ĠAh med
Ġurg ent
F iled
Ġge ometry
Ġ: )<
Ġra ises
Ġtech nician
ĠCh ain
ĠL loyd
Ġpump kin
ĠB ib
ew atch
Ġten ants
ĠStu art
ĠLith uan
Ġamp le
Ġbe ats
G ive
Ġplace holder
ha us
Ġblo cking
Ġ: :
P ER
Ġrecru iting
Ġmean time
Ġre vers
Pl an
st ruct
ĠC ategories
ĠJam ie
B er
Ġsp ices
Ġlength y
Ġe ternal
Ġpe nding
ven tive
ĠP ill
Ġ18 90
Ġvolunt ary
Ã Ł
Ġam azed
ĠEmp loyment
rig ation
ĠD ale
g ies
L ow
ĠChem istry
Ġfaith ful
oubted ly
uccess ful
Ġbed ding
Ġche es
ĠCons ervative
ĠS we
par ts
Ġrel ates
Ġtime line
ĠPi x
ts y
ĠC SS
our cing
ĠBre xit
d ata
liss a
Ġcan t
ult an
Ġpres ervation
Ġinter ventions
ĠS em
communic ations
ĠIn str
Ġk ay
Ġlist ened
ĠPre vention
ĠManag ing
Ġflood ing
ĠDes ert
ĠEx cellent
id en
ĠS orry
T or
Ġf iring
he nd
Ġp est
J im
ĠG aming
Ġdisapp eared
Ġmor ph
ĠB ald
Ġab ortion
Ġhard cover
Ġdoub les
M ilitary
ĠF IFA
F rank
ist ries
ĠB T
Ġaccess ing
ĠDiffer ent
ĠðŁ ĺ
ĠForm ula
Ġdi alog
v itable
ar re
ber y
ĠAsh ley
ambig uation
Ġtrick y
Ch oose
Ġ( ,
Ġvacc ine
t ory
, '
Ġcushi ons
Ġsequ el
C y
ĠAutom atic
avor ite
ĠBar n
ĠB uch
B ER
ĠIns piration
ir us
âĢ Ĳ
Ġqu arters
ĠI ssues
ĠáĦ Į
zz y
bo lic
lie f
Ġapp les
Ġbreath e
Y eah
T ry
ĠBrus sels
Ġsurvi vors
Ġtra its
zer bai
i nte
sm all
ĠSal v
Ġph ases
ĠP arents
Ġ1 12
Ġprevent ed
ĠMo tion
Ġdownload ing
ĠP urchase
ĠInter nal
gra tion
Ġal mond
Ġterri fic
ĠN am
z one
ĠVenezuel a
Ġwh i
ff ield
Ġconc ur
Ġhistor ically
ĠD A
d al
Ġcommer ci
ha ppy
b ial
ĠB og
198 3
d ates
Ġreali se
ĠY eah
Ġenroll ment
G rand
ĠProcess ing
ĠG ill
d le
Ġlic ence
us ters
Ġprin cess
Ġ10 2
ĠD aw
Ġvoc abulary
ĠO ption
li de
Ġri der
Ġmess aging
Ġsimp licity
amp agne
Ġattrib ute
Ġincenti ves
F ar
ĠJer emy
s ort
ĠTr us
be it
m is
20 21
reg ular
ou ting
P DF
ĠL aser
ĠCroati a
Ġtur key
ĠB end
Ġbe lly
J un
li ter
ĠC raw
Ġgra titude
Ġwh it
Ġexhib its
yle ne
Ġtrans mitted
Ġen force
ĠLaure n
. ).
ĠJu ng
ĠR ew
Ġcom bo
Ġguitar ist
vi er
ĠPl ain
Ġresearch ing
Ġse w
atter ing
Ġprotocol s
ord able
ason ic
Ġde fining
nd um
ĠE UR
Ġre vision
Ġbe et
Ġac rylic
Ġrem odel
ĠVeter ans
ro v
as aki
Ġass urance
Ġo un
ĠS ax
w agen
Ġw and
ud s
Ġkick ed
ĠA Z
le vard
Ġexce l
Ġdead ly
Ġp ills
St arted
ĠDe fe
Ġquick er
Ġst urdy
Ġpain ters
Ġp iv
ffici ency
Ġgre ens
ĠUni que
ĠLem mon
Ġpat rol
Ġbas i
ĠCri minal
iv a
Ġfail ures
ĠAl most
Ġcorrespond ence
ĠTre k
ĠW o
Ġhyd raulic
Ġre ass
Or der
Ġc ents
ĠFi f
Ġw itch
Ġcompl ain
ch ard
ĠL INE
Ġbro ch
V E
ti ner
ĠG ru
OR S
AM E
pe ts
ĠÐ ¸
ĠG ang
Ġisol ation
Ġadvoc ates
om ens
ĠCele br
ic hi
Ġunder taking
Ġax is
t ari
ĠSpac ewatch
Ġcoordin ate
ir ls
Ġcreat ure
ĠConc rete
enn ai
Ġhapp ily
ĠÐ °
hil st
Ġinten tions
ĠCent ers
Ġsp ice
ĠElectr onics
ens en
Ġbro th
Ġproto type
u h
Ġsuccess or
C ard
erc ise
Ġevol ving
Ġelimin ating
ĠSp ider
W ed
ke ter
Ġno on
ĠE di
Child ren
ch ant
ĠEx amples
" ).
Ġcancell ation
l ated
Ġpromp ted
Ġnurs ery
Ġth ir
un ters
ĠRe ed
arent ly
Am ong
ĠH ire
Ġwa ited
Ind ia
ĠLo ts
ac ies
Ġproduc tions
Ġg er
Ġdesper ate
ãģ ¦
oun ters
fric a
Ġmet rics
ĠS ue
Ġmicro sc
or ro
D an
ĠT ask
ĠLuc as
áħ §
âĢĻ <
Ġexplo sion
Ġti er
ĠPo etry
Ġshare holders
Ġmolec ules
ĠU TC
N OT
Ġne ur
Tele vision
at che
P ack
Ġ19 08
sh ots
ĠM ode
Ġby pass
Ġex traction
velo per
ĠHe ath
ĠE lection
Ġinv oice
Ġve t
ĠF unction
Ġ. .<
ood le
r als
B al
Ġto e
Ġcream y
ĠSti r
Pri or
c aster
Ġgl am
Ġun ity
Ġm otors
ä »
Ġsty ling
Ġintroduc es
erv atives
ĠIt ems
Ġcompos ers
Ġv oy
ĠFer r
Ġelect oral
st a
Ġsec uring
Ġn aval
R ay
s to
ĠPartners hip
Ġmid st
s an
P an
bb ing
Ġcritic ized
our met
ĠAl z
Ġgri ef
ĠK yle
Sports people
ĠV M
d r
Ġdef ects
Ġsyn thesis
ĠHy per
> ,
ĠMah ar
Ġpat ron
c f
ĠL or
ĠV lad
Ġswitch es
Ġattack ing
rai rie
uct or
Ġwrest ling
it ars
uck ed
ĠR aven
Ġoff shore
ble ms
ĠJoh ns
Dig ital
Ġ18 80
ĠBob by
read s
st art
Ġglo ves
us ions
ĠA nge
T otal
Ġhydro gen
Ġpe el
Ġv ar
ĠProduc tions
Ġinf ring
ĠNor folk
uc tive
Ġwi res
end ers
c ence
ĠP and
Sund ay
I K
Over all
Ġtouch ing
pl aces
Tra vel
gra phi
ĠLyn n
j our
Ġrou ter
ed o
ĠPar king
Ġpal ace
Ġfree ze
ĠCon ver
S ar
ĠM LS
ĠK Y
ĠOtto man
Be autiful
one nts
Ġtri bes
áĦĴ áħ¡
Ġrep lica
ĠScholars hip
ĠM old
Chris tian
áħ ¦
ĠK ill
Ġsc roll
ĠCom ing
Ġarch ives
Ġmem oir
Ġair lines
ĠG ai
Ġdelight ful
ashi oned
n ja
er tion
Be low
ĠM aur
Ġexpression s
ĠK or
> **
Ġcitizens hip
Ġsib lings
ĠFour th
p at
ĠL CD
Ġyear ly
Ġ7 50
ear t
a ned
ĠW ake
loy ed
Ġhorri ble
ĠS ame
ĠCand id
Ġanti oxid
ĠLu is
Ġactiv ate
Ġst ain
ĠG ym
ress or
Ġori ented
Ġpost ers
ĠT ap
Ġmark ers
ä ½
ĠSh ar
ok en
Ġseam less
ĠRe quest
Ġat titudes
ĠP O
am ount
ĠH orn
rag on
s l
Ġcl ue
ĠCal c
n u
n stein
ĠBec k
umb ent
Ġcho pped
F P
appro priate
ni val
ĠG DP
Ġine vitable
Ġclin ics
ĠGu aran
ĠIN C
ĠS AP
Ġrenew al
j ah
is ons
Ġi i
Ġd ictionary
Ġstrong est
ĠFl ag
Ġtrave lled
gg er
ĠAl ban
Ġsent enced
Ġb ishop
ĠP apers
ĠPro test
The ir
Ġski ing
Ġinf ant
F ig
Ġabund ant
f illed
M ini
Ġsenti ment
w s
Ġcelebra tions
Ġuncle ar
Ġlay ing
ĠL ect
ro d
Ġdeterm ines
ĠHind i
ĠFore x
p ark
Ġimp lies
Ġmar king
Ġdistingu ish
Ġdeter ior
Ġconstra ints
bi nar
Ġs na
Ġplas ma
ĠHope fully
ĠAr ctic
Ġexchang es
ĠL ed
ĠM ich
Ġlength s
Ġtr actor
tic ular
Ġ3 000
Ġunder take
Ġresp ir
olute ly
Ġf ictional
ul s
ĠD IS
Ġexhib ited
Ġur ge
Ġli fted
Ġover looking
ĠMulti ple
s ting
ĠPi pe
Ġdri lling
ĠSte i
ĠCru ise
Ġsy rup
names e
Ġpositive ly
al ysis
c ra
oh yd
li ch
ãĥ ¼
Ġinv ented
M a
Ġli miting
no ver
ĠHur ricane
Ġpoly mer
ĠInc ome
ĠDra ma
ĠTro phy
æ ĸ
power ed
ĠSy l
app le
se en
co al
Ġpath way
Trans port
ĠF emale
yl an
Ġsupp lying
ump tions
Ġang les
Ġlo l
ĠW AR
th ma
Ġbu ffer
áĦĭáħ µ
ĠG E
ĠFin nish
Ġsemi n
ĠDer by
Ġhere i
Ġfi b
ĠPan ama
ĠAb bey
ĠN W
Ġreve aling
Ġview er
Ġbul let
Ġd ar
ĠM aps
ĠW ave
h p
Ġpriv ately
Ġansw ering
ĠW iz
Ġsemi nar
H en
st als
ĠFR OM
aw i
Ġincorpor ating
Ġm ines
bur se
Ġm ate
M ade
ĠC isco
Ġs cripts
Ġfr ustrated
Ġalig ned
ĠM ut
uff s
ok u
ĠOcc up
ĠSp encer
ĠB elt
ne apolis
Ġin tric
re view
Ġchol esterol
C at
Ġmer ger
ĠHar per
Ġinstruct ors
Ġbu zz
ĠB less
ues ts
Ġemer ge
ĠL G
Ñ ħ
Ġcrow ds
12 3
198 2
alth ough
Ġvill a
D ate
Sp ring
ĠMos es
p arents
Ġref urb
AR Y
lic an
T ex
ĠD ell
In formation
Ġcan on
ĠDemoc rat
ĠSw an
S everal
Ġcle aring
ist on
pi no
Ġassoci ates
le en
Ġminds et
ĠForm at
Ġtra gedy
ĠSimilar ly
ĠMir ror
Ġfrust ration
Ġas leep
% ),
ti tle
ĠK ai
Ġjer sey
os es
clai med
Ġdi versi
aw ays
ĠT E
Get ting
Ġthreat ening
ĠA me
ĠAll ah
Ġpi lots
Ġconsider ations
ere k
Ġapp aratus
Ġni nth
sp ace
und ai
ow ers
Ġvine gar
ĠAnt arctic
Ġse afood
ĠCo lonel
ĠMont gomery
ĠAdmin istr
Î ½
N O
Ġra p
min ate
ph alt
Ġpure ly
Ġkil ometers
Ġpione er
S QL
Ġherei n
lo dy
Ġout reach
19 60
B el
ĠV ine
l ag
ĠB ak
ut ational
ĠDog s
ĠL ing
au th
Ġappro ve
Ad ditional
ĠSer bia
Ġen act
Ġno tifications
rop ractic
ou x
ĠStrateg ic
b ishop
ĠRec ommend
W orking
ad ers
Ġmed als
ĠIn to
Ġwor ries
Ġshoc ked
Ġco ated
ist ani
Ġfree zer
ĠAdvent ures
Ġesc al
Ġy og
Ġign or
ĠWee kend
Ġaw ful
Ġarg ues
ace ae
li b
ec onomic
ĠY ahoo
Ġten ant
14 0
ir ate
Ġw onders
Ġran ch
Ġactress es
Med ia
Ġres ervations
Ġg em
Foot ball
atch es
em atic
ĠPrincip al
L ater
Ġp seud
Ġwas her
Ġar row
Ġcar ved
Is ra
S orry
Ġn odes
ĠAc tivities
Ġaccount ability
Ġbe verage
Ġimag ery
Ġcon tinent
Ġcom ed
Ġdam aging
4 50
r t
Ġretri e
ĠK oh
Ġcr ust
Ġscen ic
ĠSe ts
Ġcapt uring
ĠW ear
ĠH ug
Ġdr astic
S k
Ġholi stic
N ice
Ã ¦
V I
ĠNet works
Ġsens es
Ġdefic it
ĠCh o
ĠBur n
Ġinaug ural
ĠA TM
ĠWy oming
ys on
Ġgam eplay
IG N
ne th
Ġun for
Ġpun ct
ill o
ood les
EE E
Ġpro ne
ĠApp lied
m entioned
ens ation
ĠTh u
ĠU I
ĠRe b
Ġfix ing
u ant
Ġbro kers
Ġfi ghters
ĠIsa ac
ĠBry an
los ures
Ġf erry
Ġtra pped
Ġexce ptions
Ġcand les
ĠAdverti sing
dis ambiguation
Ġneighbour hood
velo pe
K en
Ġpro active
l asting
sty les
Ġrep ublic
Ġfl ame
S ummer
Ġ å
Ġn ucle
Ġat ten
Ġcol ony
Ġs oda
Ġrender ed
Ġfundament als
ĠUni vers
B ase
ol ence
Ġgra ms
on ts
Ġinsu lin
Ġaccep ts
Ġcollabor ate
Ġlo gs
Ġconv iction
Ġy arn
Ġjud icial
10 5
Ġbelie ving
Ġrec k
Ġvis ually
ach ment
ĠAct ually
Ġhung er
Ġinc ons
ĠW aters
R un
ĠF O
ĠMathema tics
G ame
ĠSo x
Cent ral
Ġd ynasty
Ġkne es
Ġgenuine ly
C AR
ĠE ither
ti no
â ĪĴ
ĠW ool
c ross
ĠJ ake
Ġk ills
Ġsevere ly
Ġaw kward
Ġpo ets
Ġlike lihood
Ġgive away
ah an
ody nam
ĠPain ting
Ġspeciali ze
ĠFellows hip
Ġbe ads
ĠD ual
ĠCh erry
Ġdec ay
Ġsou ls
Ġrecommend s
Ġlad der
Ġbusiness man
Ġtatto o
) :<
y ards
Ġz oo
Ġcom merce
im ir
Ġcost umes
Ġpred ictions
ĠSecond ary
Ġalloc ated
ĠCustom ers
ci li
Ġlandsc aping
ĠV as
19 79
nit ude
ĠMunicip al
ĠAmb assador
Ġmetab olism
ph an
f lu
bu y
ĠIs le
Ġse vent
ĠIm agine
ould er
ĠR ide
ick er
Ġess entials
Ġanten na
ĠH amb
Ġcau tion
ĠG em
ul sion
Add ress
Ġsamp ling
Ġres ervoir
Ġbo iler
ĠFab ric
C ali
Ġmo ck
ĠTen nis
Ġtechn ically
ms on
ĠRec ently
Ġs ax
ĠEnt reprene
P age
Ġdo d
P rom
ĠAng els
ĠM am
si g
ĠLo ans
IC S
ĠHo lo
M id
Ġmark er
Ġsens ation
Ġkind ness
Ġworkshe ets
Ġn avy
ĠCar pet
ac ion
ĠPower ed
ĠV AT
y u
Com merce
ĠFi x
Ġm um
ĠB ug
por ting
Ġtradem arks
Ġlic enses
Ġac ne
Ġmunicip alities
Ġpupp y
Ġb ail
gen ic
Ġl azy
Ġsp icy
ĠB ach
ĠHV AC
f lies
ro ts
Ġplay offs
Ġst ati
Mi ke
Ġmort ality
ĠAd just
F E
ĠCom b
ĠPay Pal
Ġunf air
Ġpri nce
Ġmater i
Ġdis rup
est a
ĠMembers hip
Ġcommunic ating
aj i
em ption
Th omas
Ġdi y
ĠH ospit
ra di
Ġimpl ant
ĠK ash
re a
ĠAr nold
Ġdes ce
ĠRem ote
Ġnegoti ate
Ġad ditions
ac ements
Ġlive ly
Ġdeb uted
Ġpar ade
Ġimpact ed
Ġe urope
ies el
ĠDev on
l ain
ĠFil ms
Ġl ace
m un
Ġvir uses
m ati
Ġ10 4
Ġinvis ible
Ġl b
Ġfavor able
ĠJ a
Ġcomfort ably
chang ing
ĠSh ot
Ġm ali
Ġdemand ed
Ġorg ans
Chi nese
h ed
B es
Ġeli gibility
ng es
ĠS Y
Ġcare gi
Ġbonus es
Per haps
St ay
Ġgen ius
ĠLeon ard
ast rop
on ne
Ġsw ap
C r
Ġvari ants
Ġsur pass
ĠP am
ĠA way
Ġmar vel
ĠG and
Ġrem odeling
Ġacc laimed
Ġhapp ier
ai res
ĠRespon se
ĠMic he
H ard
qu are
ĠT ang
S um
Ġfossi l
Ġn our
ĠW ellington
g reat
Ġp s
Ġinv ites
ĠRe ference
ĠV arious
ĠKe ys
A ud
ĠC inema
Ġrug s
g re
Ġdon ors
Ġener getic
Ġpatch es
ĠB order
sy stem
Ġre vis
ĠF ron
ug os
Ġintim id
D ER
S B
b ags
ĠAthle tics
Ġquarter back
Ġchar itable
c orn
Ġsuper vis
Ġimag ined
Ġelabor ate
ent ry
h at
>Â »
Ġa ids
ĠAv oid
Ġth ru
v ideo
an ic
p ical
M ix
Ġf usion
Ġteen age
s cience
Ġaffili ates
Ġboard ing
198 1
J ose
Ġcongr at
ĠB U
T I
ãĤ ĭ
gh tened
amp oo
ĠSouth west
Ġcalc ulations
ĠP ie
Ġsw allow
avi lion
ĠSh eriff
Ġbi om
Ġhous ed
Ġexp orts
ĠD od
Ġabsor bed
Se ason
ĠT M
Ġdiamond s
Ġinspiration al
Ġmar athon
Ġdisag ree
ami ning
Ġ19 05
Ġnomin ations
ar c
23 3
Ġemotion ally
ĠTerrit ory
Ġsw ift
gh teous
Ġfilm ing
ĠU AE
Ġportray ed
di ed
ĠPeters burg
ĠK umar
ced ented
Ġpractic ed
Ġscan ning
li an
P lot
ĠB orough
ĠRel ated
Ġconstitu ency
e ter
ell ar
pher d
ĠConcer t
ĠSlo vak
Ġun author
Ġang el
Ġhum ble
Ġint act
Ġenthusi asts
Ġcond o
Ġbal lot
ĠN athan
aus es
Ġ `
Ġinter val
ĠY ale
g t
Ġtransport ed
inc ome
ĠX ia
ĠInter est
Ġad her
Ġf rank
co logy
ĠRes idential
Ġri fle
Ġanaly tical
ĠBo ot
Ġcalc ulation
Ġhe els
You ng
Ġex quisite
mont on
ĠAcc ounting
Ġcoordin ator
Ġexc luded
Ġwitness es
Ġs ulf
ĠIndian apolis
rid or
ĠLad ies
ĠBul garia
Ġu gly
Ġtoler ance
Ġd ign
ĠT ile
Ġreali sed
Ġref lecting
ĠN issan
ter o
en za
ĠTom my
Ġris es
Ġpack et
Ġdiscip les
Ġposition ing
ve ling
Ġenjoy ment
te am
ĠRes olution
oo f
Ġse lective
Ġment ally
E asy
ĠHe i
ĠD y
ĠEs sex
Ġdeb ts
so ever
ec ies
Ġlocks mith
fin ished
ĠE VER
ne ck
div ision
S ty
Ġ12 8
Ġconne ctor
Ġ" <
Ġconsolid ation
ro ads
Ġcred entials
Ġdrain age
Ġencoura gement
Ġutili ties
ali se
ĠGrand e
avi er
Not able
" ;
Ġsettle ments
li na
Ġac re
EN S
ĠLet ters
Ġcu linary
ĠRay mond
od er
Ġmi tig
u ations
Ġs ab
Ġportra its
ĠUg anda
ĠT ub
Ġexp ects
Ġinc entive
Ġmix er
ĠTreas ury
Ġpremi ered
Ġi ter
Ġfl uct
ĠIns titution
Ġshi fted
Ġair ports
us a
a ut
ci nation
Ġmet ro
th ree
Ġreason ing
Ġpre cip
K i
ĠG roups
ĠBat man
Ġbur st
Ġplane s
ĠG ifts
Ġcount ed
Ġgluc ose
Ġsp oon
?âĢĿ <
Ġcomm ence
ĠA i
ĠWal king
Ġsubs tit
Ġthought ful
ĠH ale
Ġeconom ies
Ġdisplay ing
Ġ tari
Ġbuild ers
ĠCom edy
ĠT ul
bec ause
ing e
ĠB I
at y
Sp anish
ĠCy prus
Ġso re
Ġa ustrali
C ross
Ġ24 0
ĠSt amp
! ).
us ty
Ġre im
Ġmi lls
Ġcolli sion
an mar
z hou
Ġproud ly
AN G
Ġcr unch
Ġorigin ated
Ġw ander
Ġf lies
Ġst al
Mod ern
Ġ1 11
Ġtrigg ered
Ġsc attered
ĠRe form
ĠPal mer
Ġc ache
read ing
ĠN M
amp ire
Ġre build
Ġ tam
ĠW are
ĠT erm
red itation
S mith
ab el
Ġrefer ral
Â ·
ĠApp e
ĠR ams
Ġd ol
Ġrest ra
elli on
OL L
ĠAlz heimer
T ON
Ġd ull
Ġrit ual
Ġmon itors
tom atic
ĠB ears
Ġdoct rine
Ġtr unk
ĠEvent ually
Ġcl ause
ack er
cur rent
Ġhelic opter
Ġappropri ately
Ġter mination
J P
ĠWho le
ang ered
Ġs odium
ub ishi
Ġtri o
Ġsc andal
Ġcontrib utes
si um
ens ing
A Z
W C
Ġpare nting
Ġadvertise ments
lic t
ace y
ĠSt atus
Ġgra pe
yl um
3 60
ili ary
ĠN V
Ġne phe
Ġthere after
ĠRena issance
ĠDisc ount
Ġc ares
ĠT ut
Ġm aid
ul ously
Ġci alis
Ġhistor ians
Ġconc lude
Ġbl ur
Ġpers istent
W D
es tion
M ass
ĠEff ective
ĠBro s
vi nc
ĠMar cus
Ġsearch ed
ĠOut look
ĠW R
lai m
Rich ard
Ġan kle
Ġem ig
osp ace
ĠP om
ĠP ER
Ġfat ty
Ġbra kes
Ġlo gging
ĠQu otes
Ġtouch down
pro cess
Ġpi ns
Ġch rome
1 15
ĠMe g
de v
al am
ĠM ile
br ush
Ġkil omet
qui to
Ġge ographic
Ġtail or
Ġaccompany ing
ĠAdv ance
Ġj ung
ĠSand y
Ġaband on
ĠTri ple
Ġrobo ts
Ġc ass
ĠRh ode
Ġh il
Ġspi nal
Ġtre as
ĠJo an
C ON
Ġconveni ently
Ġ( ),
Ġemb ark
Ġacqu iring
Ġgover ned
Ġdesign ation
he y
Ġad apter
ade qu
ave nder
at em
ĠB ali
f ur
velop ed
ĠCo x
ti sts
ĠDe uts
B ill
Ġund oubtedly
ĠKni ghts
Ġbe es
ĠBen nett
Ġ }
ĠFind ing
ĠT all
Ġbul bs
Ġcru el
Ġthe ology
Roy al
Ġpul se
Ġtow ers
Ġen semble
ĠA ub
ven ant
ĠD awn
ĠEd die
ĠCo pper
ĠReg ulations
P ut
ur as
A nal
ĠMess age
We bsite
Every one
ĠWall ace
Ġgl ance
v id
S a
Can ada
pe lled
Ġcele brities
Ġincorpor ates
ĠBrand on
Ġ19 06
Ġblo wn
Ġsh red
ĠRepl acement
cel ain
ose x
Ġanx ious
C ra
Sp ace
Ġover see
Ġdark er
Ġperson alities
ĠØ§ ÙĦ
igh ters
Ġdis comfort
Ġins erted
Ġgrand children
Ġcritic ally
ay ette
Ġneck lace
ĠO x
Ġbud gets
ĠA ce
Ġv oid
Ġacces sibility
graph ical
ok ia
ĠLuc y
ĠHigh land
ĠW riters
ĠCou p
ĠK as
Ġjew ellery
en os
ĠK end
ĠÐ ½
M ap
ĠColl abor
ĠGreg ory
Ġteen ager
ĠM ond
Ġfo il
ĠH T
Current ly
Ġw rink
cu ador
ĠBar on
ĠP AR
e z
Ġc ivic
Ġfi ghts
ĠRes cue
Ġimp lied
ĠRec ent
g ae
â ĸ
ĠS ed
19 78
mi e
Ġass umptions
M ENT
Ġme lod
ĠE PA
Ġthri ller
Ġbul b
Ġrespir atory
Ġfound ers
Ġfra med
Ġoverwhel med
de al
ĠLaw s
ri ghts
ĠPur ple
st ead
Ġh ose
ĠH ook
Ġf estive
P rice
ĠCitiz ens
ĠDo llar
cy c
ĠMi nim
Ġst oring
im age
Ġm ane
Ġre per
Ġbree ze
S cript
let ters
go vernment
ĠChar acter
; "
Ġv ivid
Ġdecl are
Ġscholars hips
ine es
Ġflags hip
Ġevalu ating
ĠStei n
Ġlabel ed
Ġgreen house
Ġaccident ally
enti eth
Ġshow ers
Ġunder way
ĠMus ical
Ġdr unk
st ri
ĠJour n
gi ate
D O
Ġdo i
Ġpro ves
no se
v ory
Ġm anga
ĠG ali
F riend
Ġpaper work
Ġplay off
ĠEst ab
Ġaccess ory
Ġpal ette
S ongs
Cons ider
ĠSter ling
Qu ick
ĠM ang
Ġmurder ed
g ard
B ob
Pro ject
L arge
Ġso lic
ĠVit amin
ĠY i
ĠC olin
Ġa us
ĠReg ulation
B row
Ġexce eding
ĠDec k
ãģ «
ĠEx po
H E
Ġaccommod ations
Ġinter ference
Ġbe an
Ġwar mer
à ¶
Ġhe el
Ġland mark
Ġsun shine
ĠN ut
Ġapo logi
Ġdeclar ation
Ġmetal lic
Ġcolle ague
Ġsal vation
Ġsle eves
Ġline r
Ġh ats
Ġbe verages
Ġcho ir
ĠBai ley
stan bul
Ġsp atial
Ġchampions hips
ĠL amp
Pro per
ac tic
Ġrenov ated
Ġcub ic
ĠNot ting
Ġfra gment
Ġ19 07
Ġinc oming
Ġsi ns
ĠPod cast
S end
ĠA zerbai
AN S
ĠCh uck
Ġres c
cl ub
ĠH O
ĠAdv oc
Ġtim eless
Ġin ver
aval ry
Ġconfig ure
Ġ19 09
Ġpred iction
Ġsle ek
Ġhorm one
Ġengine ered
ĠG ates
Ġch ase
Ġsanc tions
ĠMar athon
M onday
Ġprot agon
Ġj ap
Ġpart nered
Ġridic ulous
Ġ( ;
Ġdefini tions
ĠF ortunately
Ġfreel ance
Ġc auti
ĠB uc
D eb
Ġdon or
OS S
Ġaccount able
ĠM ORE
Ġor din
U r
ĠPers ian
Ġevol ve
ĠSlo ven
ĠAutom otive
Ġex emp
Me et
Ġsi e
Ġlug gage
her o
sw ick
ĠF lying
Ġveget arian
Ġhum idity
aur us
ĠRet ur
tive ly
ĠJama ica
Ġ( @
ĠC ave
ĠR ica
Ġre sin
Ġship ment
ĠM ot
un ar
Ġrep orters
Ġal erts
w ig
ĠP izza
Ġli tter
) )
Ġbasi n
Loc ated
10 2
Ġp ediatric
Ġsh out
en cia
Ġs ati
t eles
Ġre taining
Ġdiffer ential
ns ure
Ġ :<
C ost
Ġpath ways
ĠSp ark
man uel
Ġcrow ded
mi nology
A w
Ġc emetery
Ġpro pose
Ġanaly zing
ĠB od
sc he
Ġshi ny
ĠLi by
ĠPy thon
Ġst ems
omb ie
Ġgen res
Ġpo ts
Ġlaunch es
ers et
Ġas pi
f air
ard ing
Ġeven ly
Ġj unction
Ġnone theless
Ġm ould
US E
us hi
ĠMc L
N ov
per i
ĠRemo val
P en
ĠMem phis
U AL
Ġrespond ents
ops is
sh irts
ĠT D
ĠN urs
E conom
w right
Ġmag nitude
Ġpay day
ĠGabri el
Ġre nting
ch at
ĠHol mes
Ġteen agers
tiv ation
ĠCl aire
Ġrender ing
Ġbroad casting
ĠGil bert
resp on
Ġur ged
Ġgu ilt
or p
Ġau tism
Ġmod ular
Ġd ancers
ĠW ai
lic one
Ġunpre cedented
ĠA U
is en
ĠBang alore
ĠD ru
19 77
ĠY o
Ġfat al
Ġre min
ĠP ull
Ġjus tify
she et
Ġconcent rations
Ġsc ru
Rad io
Ġbad ge
one er
ĠS ang
Ġdevast ating
un al
ĠBrad ley
board ing
Ġcong regation
Ġob esity
Ġres orts
Ġcommit tees
xim ately
ok o
ch y
Ġb ore
ĠBe lie
Ġdisc losed
enni um
Ġrecogn ise
p ersonal
b ee
loc ation
) "
ĠD avi
ĠMari na
Ġcalc ulator
ll es
áĦĭáħ ³
P roduction
ĠCo alition
ĠAssist ance
å Ī
ĠParad ise
ĠPales tine
Ġan ne
ĠD one
f r
ĠRe ve
Ġdevelopment al
Ġde pri
Ġcry ing
art et
ĠG az
Ġbreak through
ĠD ame
Ġloc ality
ĠSome one
Y S
ĠWar riors
ĠSc ore
Ġbreath taking
Ġdoub led
le vant
ĠL ives
ĠAm anda
ĠCom fort
Ġa mino
Ġsal on
Ġstrength ening
Ġphi lanthrop
Ġcontem pl
ĠSus sex
2 20
ĠSing les
ĠH M
h or
Fil m
ven tional
ĠB ing
ord e
ĠReci pes
e fficient
AT ED
uff le
Ġthro ne
Pri vate
w ent
ĠB oli
ĠCoordin ator
Ġcy to
Ġoptimi zed
ĠU T
Ġline n
Ġrep aired
Ġcompetit or
Ġnow adays
vel t
ĠGene va
bra ting
ĠSe at
fect ure
Ġresid ing
ĠMethod ist
ti nal
ho g
Ġlo gged
Ġcon clusions
Ġrec alled
Sm art
ĠClar ke
Ġtemp les
Ġreg ulate
ĠZ imbabwe
Ġexplicit ly
Ġacadem y
Wind ows
Ġind o
Ġn as
ĠAff ili
intend ent
Ġle ap
Ġrem arks
ĠBou levard
h istor
Ġd uck
Ġsp lash
ĠKer ala
Ġri vals
otech nology
Ġpractitio ner
aret te
ĠK ee
a ner
ĠRock y
Ġceiling s
Ġpro be
19 75
ĠR ear
Ġw it
ĠP end
ĠE llen
ĠP rague
ri ka
lit z
ĠJosh ua
Ġimp air
Ġfellow ship
Ġ19 01
ĠD ictionary
Ġmal ware
Ġtor que
ĠCh ad
Ġgra ins
Ġinher ent
ĠC ohen
ee th
health y
Ġstar red
Ġdist urb
ĠPhoto shop
Ġper cussion
ĠK ur
ĠBan king
s ource
Ġcin namon
Ġillustr ate
Ġhel met
ĠR at
Ġnotic es
Ġ18 70
Ġ19 04
ĠO live
Ġrep utable
ĠUp dated
Ġbrand ed
d et
Ġincom plete
Ġn ude
ĠCap itol
Ð½ Ð¸
S ection
ĠF uel
Ġvelo city
Ġst amps
Ġwhat soever
Ġfi xture
ĠC ork
Ġauthentic ation
ĠMin neapolis
ĠSacra mento
ĠDr um
ĠDur ham
ortun ate
Ġrele g
Ġus eless
Ġbe nd
Ġrem edies
Rec eption
Ġcon form
ĠG U
Ġwe ights
Ġa erial
ec tious
ĠW riter
Ġprovin ces
Ġtow els
Ġsy m
ĠDep ot
Go vernment
ag og
Ġst ained
Ġcat alogue
ĠAc tivity
ol ph
ol ve
Ġto ken
Ġparliament ary
Ġcorre lation
ĠRead er
Ġrecept or
ĠPro ceed
Ġcol oured
Ġdra fted
o fficial
Ġmoni tored
G T
Ġsecure ly
Ġpro xy
Ġch ron
Ġcuri osity
ĠUnder standing
à¥ į
Ġresol utions
D aniel
am y
Ġpan or
Ġwish ing
Ġme g
any a
c ope
Ġclassroom s
Ġhead phones
A sh
ĠSuper ior
Ġal titude
ĠEv olution
Ġdiplom atic
Ġam azon
Ġs or
Ġcrush ed
p apers
Ġancest ors
Ġev ange
r ong
ĠD odge
Ġhoriz on
Ġf ax
Ġcur ved
ĠNew port
ĠMal ta
H u
Ġdiscount ed
Ġshort age
ly mouth
ĠJ ak
M AN
Ġble eding
ri ages
Ġl ush
Ġinher ited
tr ue
Ġcushi on
Ġsemin ars
es te
Ġmush rooms
o the
f un
Ġgener ates
ĠChe vrolet
Ġflo at
ĠCN N
P ass
Ġspokes man
Ġquiet ly
ĠMar x
Ġlo ses
lu x
ĠB ark
19 76
Ġy a
As k
im mer
ra it
à ·
ĠEff ects
ĠSw ift
Ġdist ances
å Ĳ
Ġth under
Ġge ography
head s
ĠMon ster
ĠRe becca
ĠiP od
ĠMedic aid
ĠR eds
E vent
Ġback drop
bl ue
Ġlaugh ing
ĠBang kok
Ġin puts
Ori ginally
nold s
f en
ar r
ĠRecre ation
es i
Ġmass es
Ġsyn thes
ri o
Ġp H
ĠSeb as
ath a
c ott
Ġend ors
AL E
Ġfi erce
Ġmen tions
ras er
ĠMort gage
Ġcardio vascular
ĠN T
ilg rim
D isco
ĠSustain able
H am
Ġglimp se
Ġcomp ositions
ĠDiv ine
ĠU b
ĠGlo be
Ġ12 00
ĠG D
Ġh ints
Ġexp ose
Ġrecon struction
es to
19 74
si ns
Ġteach ings
ĠF ut
ĠO EM
me tics
Ġm im
Ġexpect ation
th am
Ġpix el
n ap
az er
ĠC ay
Ġinher it
Ġneighb oring
Ġyield s
Ġhigh lighting
Ġ10 6
c ular
Ġd ed
Ġsub missions
nc orporated
ĠTreat y
c lock
ĠR ah
Ġexpress ing
ĠK l
ĠF ear
Ġgate way
or ph
ĠSy nd
ĠON LY
ĠMar kets
ĠOri ginally
ĠRegister ed
Ġrelie ve
Ġhe ights
t rop
ĠSoc orro
Ġm uff
Ġdep icted
Ġcommit ments
ĠBr ush
Ġhard est
Ġbou tique
Ġi tiner
Ġ teles
Ð ł
Ġpull s
Ġsus cep
ĠMe asure
ĠG C
Ġ _
e very
ĠSp ons
ra k
Ġbl ades
| <
ĠUn less
Ġbegin ner
ĠAl co
Ġre n
Ġamend ed
ĠD uty
h arm
atur ated
io logy
ug u
ĠRecruit ment
Ġdi n
m ake
asp berry
ĠLou nge
tre ated
Ġtransform ing
aken ing
m n
ĠMen u
Ġbroad band
hand ed
Ġcomp atibility
M aking
Ġpartic le
ĠDe als
A I
F un
ĠSec urities
ul ators
Ġcollect or
ĠShe ffield
vi na
Ġb amboo
es tic
ĠHis panic
ĠC hip
tur n
Ġ17 0
Ġglor ious
enh agen
Ġeconom ical
ĠP orter
ca ust
ĠE ther
Ġli g
ĠHe ather
ĠRe quire
ĠMoroc co
Ġappe als
ĠDis p
sh o
Ġtext ures
Ġtrans plant
ĠU E
qu ency
Ġencry ption
os o
ub ric
bo ot
it ated
ĠP iano
Ġscr ub
ĠT ip
Ġstretch ing
Ġre ef
Ġcon tend
Ġeco logical
Ġdefe ating
ĠE t
ĠWi nner
ĠGener ally
ĠHop kins
p us
ĠP retty
ch urch
Poli tical
as ible
O w
Ġsculpt ures
ĠFrame work
Off ice
Ġunve iled
ĠNiger ian
Ġidenti fies
Ġout break
Ġclic ks
Ġtutor ials
up unct
ĠPhilipp ine
Ġmar keters
Ġopp osing
D iv
Ġscrew s
Build ing
Ġwish ed
ĠTri al
Ġexception ally
Ge ne
Ġi on
Ġeven ings
get table
Ġseas oned
Ġfore most
z ard
fi e
Ġs aus
Ġanticip ate
Ġr at
c ock
ĠB ronze
Ġper former
ĠPort al
ĠK rish
Ġaim ing
Ġfree zing
be k
Ġd read
n ick
Ġsk et
tin ation
Ġslic es
Ġli mes
ĠC av
is ive
ĠH av
hel p
Ġdys function
ĠIn k
ator ial
umb ling
Ġve ne
lli on
ni er
tr ust
Ġhome town
Ġ ]
e tic
si ne
ks wagen
ĠGerm ans
ĠLINE AR
lec ular
ĠT ong
ĠLo gan
ÌĪ Â¿
Ġmi ns
ĠGre ens
one nt
Ġfurn ished
Every thing
Ġconditi oner
F ive
ĠTech ni
Ġk ings
mus ic
Ġeff ic
H uman
Ġappe tite
orti um
Ġdet ailing
pur pose
ĠWell ness
Ġtreat y
Ġmer cy
Ġ19 03
lish ing
Ġch ess
AB LE
ric tion
Ġlear nt
Ġstre ak
ti d
Ġbook mark
F lo
w ait
Ġor bit
Ġper ce
ab lo
it ary
Ġinter im
ĠCli ff
now n
ĠBer ry
G N
ĠA ur
f ill
im ens
A tt
19 50
Ġce ase
rac tice
ĠVe get
Ex cellent
ĠAchie ve
ĠJ ai
ĠJo el
ĠD ash
Ġdem ographic
ven ile
Ġinv itations
ĠBur ns
G l
Ġmissi le
Ġopen ly
ĠChe ese
ĠT C
Build ings
ĠF I
Ġl amb
en ic
ĠBen ch
ĠPro blem
K ar
us tion
Ġsu ites
ĠBi n
ĠViet namese
Ġcr ude
ĠFor ward
Ġinterf aces
ĠBright on
Ġtowns hip
; "|
t et
Ġenc ounters
Ġquarter ly
Ġro asted
ĠHar old
ĠB S
ĠElli s
ĠS ullivan
ĠC edar
ĠNews letter
Ġtodd ler
Ġassum ption
Ġenc losed
c ards
App le
N AS
sp ective
Ġpitch er
ÑĢ Ðµ
ĠMap le
Ġb ure
ĠG ross
ĠTw enty
Ġaut onomous
Ġdro ne
Ġinterpre ted
ĠWrest ling
ĠM aced
Ġspeciali zing
g ran
Ġcard iac
ophi e
ĠPow der
Ġdisp ers
ĠDun can
ĠH ali
Ġpri ests
Ġsafe guard
ort ment
Ġgift ed
ue z
ĠO utside
ĠWest minster
Ġlif elong
Ġb iz
Ġs lavery
irc raft
FOR M
ĠBrow se
rys ler
ĠK B
ut a
ĠE at
Ġrig id
Ġques tioned
ol an
Ġfoot print
ĠTh ous
Ġco co
ĠEss ential
Ġre ject
Ġspons orship
Ġthrow s
ĠS ak
its ubishi
Ġsl aves
ĠB rent
iss ue
ĠMar tha
19 72
qu ette
v ings
Ġexc ur
Ġinter vals
ĠPro ced
ri de
Ġ> >
Ġte e
ĠDev ice
ud ed
ng uin
n ational
Ġpres chool
m mer
unt u
ĠD B
ing le
Ġcon ting
ari us
ĠD j
Ġcig arettes
ul p
ĠW et
ĠC yc
ti k
19 73
ĠK un
Ġdece ased
Ġstuff ed
Ġvol leyball
ĠCor i
ĠK atie
li te
Ñģ Ðº
cond ition
Ġop ted
pp s
ery l
ĠC um
Ġwre ck
f urt
Ġcons piracy
G I
Ġalloc ation
Ġle agues
Ġoptim um
ĠF ishing
ĠShe ll
ĠG r
ff ective
Ġa ston
ĠO UT
Ġsk ull
ĠSc an
ĠN as
ĠR af
craft ed
P LE
UL L
M ur
ĠLead ers
ĠN est
ul se
an ical
mo on
ter ed
H as
Ġmand ate
Ġsoci o
S ep
ĠAgric ultural
M ex
Ġpress ures
ĠB ac
ĠRe hab
Ġstart ups
phi ns
I tem
Ġacadem ics
Ġtherap ies
ĠLeg acy
gu ably
ĠExper ts
EN CE
ĠIndivid ual
Ġten s
ĠCh ennai
áĨ ·
ĠView s
ffici ently
vel s
Ġreli es
Ġappro x
Ġhy giene
Ġdish washer
erv ille
Ġm l
ĠSu ff
Ġveget ation
ap est
ĠS ector
sp ring
Ġru ins
ĠT rou
Ġ10 8
Australi a
Ag ain
> --
od ore
ĠD S
Ġre built
ĠDri ving
Ġste pping
Ġequ ations
ĠM ercury
OS E
Ġshri mp
ĠCont rib
ĠRub y
2 40
Ġwild erness
n ant
p se
low er
ĠPress ure
ĠBl vd
ĠM ilk
ĠCR M
nder ing
ors che
ĠSet tings
ĠT icket
atch er
Ġun common
Ġy east
Ġsen sible
res istant
Ġunique ly
ĠOri gin
Ġtr act
ĠIS BN
R NA
Ġope ner
.... ..
Ġh ref
ĠS V
oy le
ĠS ah
Ġ1 16
Ġback pack
IN K
ON G
ĠAndre a
ond o
st ring
Ġen velope
Ġinter change
Ġwell being
Ġcompan ions
Al bum
od or
Comm unity
ĠPati ents
us k
op al
c uts
ĠW ish
ĠN uclear
ĠHar bour
man ia
S ite
Ġins ane
Pro t
f est
po si
cont rolled
IC AL
ĠPort able
ĠEd it
ru ng
ap a
ĠN ak
ĠW oo
Ġdis se
s tone
Ġdis cer
ra ms
ĠPublic ations
ol ves
ar is
Ġcre ations
Ġsuper visor
Ġch assis
ĠBar nes
Inst ead
Face book
Ġf ocal
Ġsu pers
Ġmet ropolitan
mp h
ĠHend erson
Ġaff ection
B aby
ĠL ines
Ġup side
ad min
ĠM aker
Ġban ana
Ġin ability
li k
Ġbe tra
pro f
ĠDay ton
1 12
uge ne
ĠInd igenous
ĠRo le
Ġbib lical
Ġ19 02
W ild
Ġcom fy
ĠA ges
Ġdrive way
Ġrequ esting
Ġp ep
Ġl anes
ĠPrince ton
ĠRegard less
Ġhuman itarian
Ġesc aped
on ian
ĠLe ices
ĠAd miral
ĠH C
ĠHit ler
c ision
Ġch arities
eng ine
ĠC AP
ne c
R eci
ar th
fil m
Ġdefe nder
J on
Ġmob ili
oc a
Ġphilosoph ical
Ġserv ant
Ġballo on
e h
ĠPow ell
ĠP ale
ĠSh ut
Ġh ug
ĠBrun swick
Ġun belie
ĠS B
Eng ine
ĠW ere
Ġfauce t
Ġin finite
ft on
T alk
IS E
ĠP ane
ĠDom ain
Ġ1 17
m ain
Ġrhe tor
Ġk itchens
Ġlog os
ĠE ight
ĠChar leston
e ks
Ġf eder
J our
ĠF ill
Ġmerch ants
ĠMethod s
19 69
Ġsy mm
ĠHoli days
Ġlight ning
Ġb un
per ed
Ġl an
Ġknoc ked
ĠAl ger
Ġun cover
Ġmen us
Ġequi p
Ġrecogni zes
Ġhe x
Ch ristmas
ĠF ight
ĠD ani
Th ird
Ġpres um
Ġabsor ption
Ġpoli te
ru ce
ĠH ip
ĠM R
Ġo v
Ġdang ers
Ġb ats
Ġ18 60
ĠReli gion
Ġbuff et
>âĨ ĳ
ĠF iles
f ac
Ġbe ers
ai ner
ĠPro vin
wi ki
Ġp ne
6 50
Ġin adequ
Ġgrab bed
ĠH ands
pe x
Col lege
ĠE b
ĠSh ri
ters hire
Ġst ance
Ġvi bration
Ġhypo thesis
An ti
former ly
Ġw ounds
ER T
Ġchap el
ĠCook ies
ĠUn its
ĠD ro
Ġcon vinc
Ġeleg ance
Ġ10 3
Ġrein forced
Ġsh adows
Ġdam n
ÑĤ Ðµ
Ġve ggies
ĠNur se
Ġar thritis
zan ia
Ġadvertise ment
Thi nk
Ġprin ters
ĠGe nesis
Ġdem entia
ĠAr med
ĠSteven s
ĠESP N
/ -
Y et
ĠA ni
Ġble nded
Ġover ly
Ste ve
Ġso lit
ri ans
ĠEr ror
M em
ĠBer g
ĠJ ump
ty pes
um bs
Ġrecur ring
Ġadv ancing
ĠRoom s
ĠLe ngth
Ġslo pe
Ġstere oty
ĠB un
ĠOp ening
ĠR aid
ric ia
ĠNAT O
ĠKi n
ce ans
ĠOw en
ĠArm strong
ĠCom ple
ĠLou ise
à¤ °
Ġpurs uant
Ġstory telling
Ġadvance ment
Char les
O ct
Ġeduc ator
ĠRo chester
der abad
Ġ2 10
ĠP ush
Ġspend s
Ġstic king
Ġs ali
Ġcapt ures
pro t
to ire
not es
als a
ĠW ait
Ġcl an
Ġinterns hip
Ġro ses
ĠU tili
ĠRon ald
Ġspin ning
Ġst ains
2 25
m obile
Ġcivili ans
ac ier
Ġge ographical
Ġinv al
he at
ĠMod els
Ġper taining
vi al
Ġsp ont
Ġdraw ers
ĠF ruit
Supp ort
ĠSud an
ree ned
oc aly
Ġsub urb
ty ard
tter y
Ġsp anish
ĠClass es
lo o
ĠP ris
Ġb oun
ura tions
Ġpe ppers
Ġrent ed
Ġblo ss
Ġband width
o ids
Ġshut tle
J oh
Ġgra nds
v s
Ġbr acket
Ġcup c
Ġtra iners
Ġm illi
Mod el
ul as
Ġintri guing
S ize
ĠY am
R ound
Ø ³
Ġpe aks
Ġwork book
ĠE cuador
Au to
Ġra ys
Ġvulne rability
Ġcur ves
u ka
Ġqu antitative
19 68
Ġallerg ies
ĠAny way
Ġri ghteous
ĠRoman ian
ili a
E ss
qu ot
Ġ æ
Ġ ????
ĠC ourses
Ġpredomin antly
Ġcirc uits
EC H
oph one
Ġdecor ate
ĠLoc ks
Ġreb ounds
Ġinval uable
Ġrac ism
om ore
ĠC od
Ġstic ky
Ġv ict
ĠSp o
ĠAr ri
uch i
Ġfragr ance
ĠSum mary
ĠD AY
b ish
p rop
ĠHill ary
Ġfurnish ings
d ad
Tit le
Ġ5 000
Ġen lar
Ġad here
st atic
Ġad hesive
ĠM aid
AR S
at ry
p n
Ġfulf illing
m and
m illion
ĠHer bert
ĠSc out
ĠH annah
Ġcollect ors
N T
Ġrein force
Ġst orms
ĠReal ty
S weet
Ġall oy
ĠM int
ĠCoun sel
ĠGood s
Ġcompli ant
ĠAndrew s
Ġenzy me
Ġumb rella
ĠG rass
oose velt
on ials
c ents
ĠIt em
Ġsn ake
ĠS IM
Ġkind a
Ġrep roduction
tire ment
ĠTrans it
ĠD ock
Ì Ľ
Ġsig ni
Ġdemonst rating
Ġb ent
ĠA ware
Ġs om
Ġliber ty
ĠH il
wi fe
Ġventi lation
19 71
Ġoverlook ed
ĠQ atar
Ġimpl ants
Ġswe ep
g ning
e u
ĠT ue
ich t
ĠGl enn
ĠLati no
leg ant
Ġcelebr ates
Ġbelong ed
Ġmar gins
Ġtra gic
uc i
Ac adem
ĠTre nds
ĠPre par
ĠBe ned
gr ass
ĠCra fts
ĠFu neral
is ch
ĠM ight
ĠEn h
erm any
ĠC AD
ĠC I
ke es
Ġro de
umber land
Ġfulf illed
âĢ ¢
ĠI oT
L L
Ġsp ac
oo oo
ĠVolunte er
ĠAt las
S ou
Ġaff irm
Ġdat as
Ġyog urt
Ġhazard ous
Ġin quiries
ĠS ounds
Ġal pha
ĠJohan nes
ĠBe ver
Ġe cc
ĠApart ments
Ġlear ns
ĠSol omon
Ġorganiz er
Com plete
dri ve
Ġc iting
R est
Ġal uminium
ĠMonth ly
ĠHand book
S ystem
ĠDep ression
Ġrou lette
Ġplan ner
ĠJ unction
ĠRe new
ĠOut standing
Ġher bal
Ġstat utory
ĠAut umn
ĠCub an
Ġplane ts
ĠLouis ville
! ),
L im
li nks
Ġimper ative
Ġrefere ndum
E st
to o
co li
Ġincur red
ra wn
ĠSpring field
ĠE y
per formance
ĠD im
Ġweb page
Ġpill ows
ĠC OVID
Ġstick ers
li stic
Ġbl u
ĠAmeric as
Ġwar fare
Ġb os
ĠC odes
Ġfe ast
ĠC ine
imen sions
ĠOw ners
Ġrigor ous
Ġpo lls
Ġanth ropo
Ġdos age
Ġsubstr ate
ys ics
S at
iod i
ĠDev il
Ġgu itars
ĠCol our
Ġex tr
ĠL unch
Ġuns ure
Ġresid ency
Ġlod ge
Ġrele vance
ĠWal t
Ġslo pes
ens er
ĠLi u
Ġc av
ĠP ig
ĠInter active
s ol
Ġdeb it
Ġ[... ]
Ġf ucking
Ġfurn ace
ĠPhoto graph
ĠEx c
ĠC ove
ĠJ aw
ol ation
Ġhur ricane
ĠConsult ant
Ġamb assador
ĠBe hind
ĠVe ne
Ġfi bers
Ġs edi
ĠOver view
Ġto es
ĠJi n
Ġr ust
Ġth ie
Ġcon qu
Ġsurf ing
d b
Lear ning
Ġaw ake
na e
ĠH ilton
Ġdec om
ĠManufact urers
al er
ĠPlay Station
ĠRad i
Ġrandom ly
ĠSimp son
ĠSep ar
ĠM IT
amb ia
ĠA nk
Ġdi ary
es ar
Tr ump
ĠGi bson
r c
Ġsy ll
Ġwilling ness
X L
Ġacceler ate
P et
Ġnot ebook
Ġex amining
Ġcr acks
ĠW er
nic a
k ens
ĠG ig
Ġcar p
Ġro ok
Ġinter con
Ġra tional
Ġclari fy
ĠA j
ti ans
Ġrehe ars
Ġconver ting
Ġsoci ally
f al
ĠWind sor
ĠD ES
ĠZ hang
ĠMan ila
Ġo ste
Ġpos es
ves ting
ĠR NA
il ateral
Ġsports people
Ġstra nger
Med ical
Ġarm or
mo graphy
ros se
ĠSte ps
Ġdistrib utor
t read
Ġz oom
ĠNico le
Ġfe asible
Ġwith stand
ĠCel tic
ĠWh olesale
ĠIraq i
ĠProto col
me th
Ġres ting
Ġprosper ity
Ġwe ed
Com mon
ĠT A
Ġqu i
Ġmel ted
Ġstere o
enz ie
ĠStock holm
Ġcompris e
he et
Ġpra ying
S eries
W R
ogen ic
oc ado
Ġinv asive
Ġtr ump
Ġtur bo
ĠP ac
gg s
op a
ĠSur rey
ĠD uch
ĠFif th
Ġ12 3
Ġreg istry
A nim
Ġpost p
r h
ĠSh aron
Ch apter
Ð¾ ÑĢ
Ġbox ing
ĠFort une
Ġperi pher
Ġe u
Ġsour ced
ĠMan or
Ġtab s
ĠCh airs
load ing
Ġarbit r
ĠBe au
ĠSur face
Ġvalid ation
ĠI gn
Ġcre ep
Ġles bian
Ġas thma
ran o
18 3
ĠCar oline
T em
Le g
Ġpack aged
>Â «
ĠHo lly
ĠDe veloper
Rail way
he e
ĠPed ro
eal ous
Ġconduct or
Ġrush ed
Ġph y
Pub Med
Ġ18 98
Ġpend ant
Ġf ost
Ġor ches
Ġtrans cription
Ġjoint ly
ĠDo ll
OR Y
ĠB elf
ĠF ail
ĠG ib
tis tic
ĠMon roe
Ġun anim
Ġsec ular
ĠJes se
Ġtr action
Ġsh aping
ĠAlternative ly
ĠOper ating
Ġsho ppers
ĠBudd ha
ĠEx tension
Ġsp lend
ĠC IA
p rice
ĠAp artment
ĠSo lo
Ġres ide
Ġmir acle
ĠLand scape
M el
P acific
ĠS ister
Ġunder water
Ġstir ring
Ġha ul
ĠCong o
W ashington
ĠOffic ers
Ġl ag
ĠProg ress
B ad
ĠExp lore
im s
k ill
Ġfi nes
Ġun m
Ġdash board
Ġbal ancing
Ġcivili zation
ĠMunicip ality
S uch
ĠK iss
ĠLaw yers
Ġform ations
Ġwas ted
ĠMy stery
Ġstit ch
Ġvi be
Ġfold ed
Ġresign ation
ĠU ber
s tore
Ġ ÌĦ
ĠAug us
graphi es
ĠCri tical
g old
Ġhome page
ĠAl lied
F ac
Ġharass ment
Dis cover
Ġremin is
Ġpolitic ally
Ġsal aries
ĠGon z
Ġp am
ĠOb viously
ĠAdministr ator
Ġwe ars
ram id
Ġserv icing
Ĺ ı
ĠDu ration
Ġpro curement
ĠP ep
Ġworry ing
Ġbutter fly
Ġf el
Exp atriate
Ġdis asters
ĠD iana
Ġ2 30
n aire
ĠS avi
ffer ent
ĠSand ers
Ġpe anut
Ġc age
? ?<
ĠDec ision
Ġli th
ĠT roy
Ġde fect
n uts
Ġgu iding
ĠInd oor
iv o
Ġdirec ting
Ġ- --
H O
Ġtu nes
Ġfresh ly
Ġvers es
Ġassess ing
h urst
Ġpremi ums
ĠSc ale
play ing
Ġear rings
ĠEd monton
Ġcarb ohyd
ĠI g
N atural
ĠP orts
Ġlegisl ature
Ġcoordin ated
EM ENT
Ġb on
Ġunfor gettable
Ġarti facts
Ġhead lines
ĠHer ald
ĠE xtreme
Ġse iz
ĠOp timi
Ġcont ested
Ġoccur rence
ĠA ctor
F ile
ĠD reams
ĠHer oes
v anced
ĠS low
ĠP il
Ġ6 50
ĠFil ter
ĠMar riage
quarter ed
d isc
Ġm ang
Ġpay roll
ĠBu yer
ĠTim othy
ĠD rew
Ġparad ise
b ps
m c
pp ings
Ġintegra ting
ĠBri ef
ature d
Ġk icks
Ġinduc ed
ti fying
Ġ18 50
p tive
Ġvalid ity
Ġar guing
ĠSom erset
ĠFin ish
Ġver bal
ĠEn cyclopedia
ĠOff ers
ĠSur f
ag us
ĠStre ngth
ĠM AC
ig ns
st able
ĠS ons
ĠPray er
bes tos
ĠCar r
ĠInter esting
ĠW C
Ġf ats
ĠMass age
Ep isode
ĠAd ded
Ġpuzz les
ĠM akes
Ġn aming
Ġcomp re
ĠY ugos
ĠGe off
K im
Ġworth while
n j
Ġfact ories
Ġind ie
ĠCorn wall
Ġmain land
ĠSupp lies
Ġv ague
Ġkind ly
ĠLyn ch
Ġco il
ĠConne ction
X T
w ave
ĠP ere
Ġpl ed
Ġfe at
ins pired
ĠX ML
Ġdign ity
gus on
ub le
Ġobs erv
Ġbes poke
ĠRe id
10 4
Ġd ye
ĠK S
ĠI stanbul
ĠV es
Ġunf ortunate
ĠTe ams
ĠAb ove
ĠCar roll
tr on
art ments
Ġdist ress
Ġdeleg ates
Ġcry stals
ĠAr senal
Ġopen ings
ĠList en
Ġau x
ĠSp ect
Ġextract ed
Ġloc king
Av ailable
D ear
cili ation
Ġste ak
B ot
Ġspir al
G ri
Ġremote ly
Sim ilar
ĠRe ality
Ï ģ
ĠW P
S us
ĠV oc
Ġsp ur
tex ts
Ġ- >
so lid
ard on
ten s
Ġstim ulate
gra nd
Ġsuccess es
Ġhot test
phi n
Ġh edge
Ġpron ounced
ĠRo th
rec tive
B ank
ĠT ier
pro file
Ġti de
Ġdo ses
ĠAng ela
ĠImp ort
g one
ĠN okia
ĠL oy
ĠAng lo
ĠQu ad
Ġcor al
Ġfresh man
Ġchris tian
Ġmet a
amin ations
Ġst ub
pi eces
g arian
> {
N P
Ġr uin
Ġexha usted
19 67
11 1
ĠP ART
Ġd rought
K O
by ter
ĠJew elry
ĠP el
Ġcrash ed
b ands
NE W
Up on
Ġcryptocur rency
ad ata
ĠPl atinum
Ġrug ged
Ġpay able
Ġinc ar
log ic
ric ular
ĠBal ance
Ġhaz ards
Ġmul timedia
Ġcontrib utor
Ġj okes
B ul
Ġlef to
m ember
athe tic
Ġreloc ated
Ġmap le
ĠF amilies
ster ed
Sing le
ran ty
Ġass ortment
ĠRom ans
ex cept
ĠGM T
ĠF olk
ĠKen neth
Ġout fits
Ġsp here
and ina
Ġcollective ly
H ER
re ci
Ġtri bal
Ġj i
ĠPe pper
ĠCop enhagen
mi na
Ġd row
ĠIntegr ated
ĠWal mart
Ġdi nos
Ġfemin ine
Al ways
== ==
ĠEven ing
Ġcross es
verti ble
Ġ tread
Ġdr ummer
ĠCol lect
ari na
ĠP ond
ĠR EC
ĠAn nie
Ġh et
Ġpop ulated
ĠPri de
Ġth igh
Ġd ancer
ĠRec ogni
Ġemplo ys
e a
ĠKing ston
Ġre cession
Ġcoordin ates
li fting
Ġinvestig ators
Ġhome owner
ĠT ables
n ated
M ah
ĠCOM P
Ġse g
ĠJuli an
F l
/ .
ĠWorld wide
Ġsuc c
Ġan ces
Ġcred ibility
t apes
Le ague
Ġb ests
ĠEm irates
Ġpar cel
Ġcric keters
ĠPres idential
Ġrecover ing
Ġthri ving
ĠS tic
Ġcreat ors
ren ts
ĠAdvis or
ĠR ig
ans on
ĠCar p
Ġm amm
oint ed
Ġpar tition
th ro
Ġ1 18
Ġch oo
Ġc ough
Ġneg lect
Ġincon ven
Ġgene ra
ĠD ylan
lu ence
upunct ure
ĠE yes
Ġlone ly
Ġ ><
ĠDesk top
ĠR oosevelt
ĠWhe never
Ġin appropriate
Ġphotograph ic
Ġinten si
sp ect
J eff
ĠLe gion
Ġpe as
less ness
u alized
S ix
ĠW on
ge nder
F ast
U CT
ad ia
d n
li son
ĠTer ror
Ġsupre me
Ġalle vi
ĠD H
Ġcook book
ĠPun jab
Al ong
ĠOr ders
c ourt
ĠEthiop ia
ĠA ch
A frican
Ġcock tails
Ġang els
Ġlif es
Ġtic k
ĠW itch
ĠSan ti
Ġsm oo
Ġreli gions
H ung
Ġmist aken
Ġsqu ares
ĠE lder
ĠM AT
Ġcop ied
ĠFran co
ĠInsp ector
Ġmane u
et tes
Ġplu gins
chie f
Ġlives tock
ĠAdmin istrative
Ġmul titude
alle ts
Ġtight ly
ĠN R
ĠSt uff
ĠMon ica
ĠProv ider
Ġadvis ors
ĠTy pically
Ġmul tic
m ere
Ġin n
av is
Ġ3 20
Ø ¨
Ġa i
V ir
Ġorganis ms
Ġw oven
D D
Ġmet ric
Ġreve nge
Ġmoist uri
p rom
P ark
ĠLog o
Ġrect angular
Th ursday
ĠAz ure
Ġbli nds
ĠFeature d
Ġnumber ed
Ġover s
ĠMes si
Ġer ected
Ï Ħ
Ġrain fall
se nd
ber ger
end ed
ĠChang es
ĠEng agement
Ġin box
Ġrot ating
m ology
Ġkilomet res
z h
ĠB asin
ĠV ern
E U
ĠRol ling
Ġad di
Ġv ici
Ġpredec essor
el en
ĠP arent
Ġsm iling
ĠMar ty
w rite
ti p
B ra
Ġfo g
Ġprov ing
field s
Ġhe ir
Ġgra vel
ĠK au
ĠK om
ĠBar ack
Ġnotice able
n orm
ĠTh ing
Ġattrac ting
ĠCl a
ĠSco tia
produc t
ĠO g
ĠC MS
Ġinac cur
ĠB one
Ġrush ing
Ġdisapp ointing
Spe aking
loc al
Vill ages
ĠB ran
ash tra
Ġheavi er
ĠHam mer
U ser
Ġ ng
Ġrep ository
Ġcompar ative
Ġadmi re
ĠZ ion
oc ks
å Ń
Ġm s
Ġtyp ing
ĠRey nolds
ĠComp are
IE W
Ñ Ĩ
er ting
Ġcare d
ĠS isters
Ad min
ĠVi nyl
ĠAdv ice
kins on
ĠSpe ech
ĠD istribution
ĠImp ro
Ġprof essors
ĠSec ure
Ġcrimin als
m w
ha ul
ĠEth ics
Ġsuc cession
tras ound
Ġann ot
ĠIndone sian
Ġun c
amb a
S top
Any one
down load
ĠMechan ical
Que en
Ġri m
y outube
ĠNor theast
Ġdiss olved
Ġsimp lest
Ġhead ache
Ġsym bolic
and i
Ġs am
B raz
illi an
li us
ĠCo al
ĠH ig
Ġar tillery
iodi versity
Ġs igh
Ġmath ematic
Ġparad ig
Ġr uler
nific ant
Ġw ag
Ġstra ps
ĠN G
Ġtro phy
h ra
Ġ18 99
Un like
Ġdisappoint ment
áĦ Ĩ
ĠS ask
red ict
Ġpre y
u y
ĠSpi n
ff i
Ġin tes
ans k
Ġunauthor ized
Ge ner
ĠMy anmar
Ġm ili
Ġver d
M ont
ĠB UT
Ġcommand ed
Ġcl utch
ĠG el
ĠT ales
dog s
ĠImm igration
Ġblo nde
Ġeli mination
ĠChris tine
Ġbath s
Ġpre jud
Ġproble matic
ju ven
Ġwheel chair
Ġple as
Cong ratulations
chan nel
W estern
ĠEv ange
ĠV io
Ġir rigation
Ġhonest y
ĠGl ad
Ġhead aches
s uper
Ġb ounce
n um
Ġo ct
Ġl acks
Ġland lord
Ġse ized
ul ance
W ay
ĠJ P
Ġcooper ative
Ġsort ed
et z
ĠD ew
G allery
Ġtran qu
Ġdefe nders
Ġli on
it an
Ġphys ic
Ġsubur bs
ĠN I
Ġwork outs
Ġhe y
Ġm ercury
Ġri p
Ġrid ge
H F
Ġj ealous
C ry
aw asaki
AN C
ĠFlo oring
Ġremo ves
S ho
en y
C ut
ĠMan uel
ĠAr ms
ĠL ucky
b read
Ġover time
Ġspot light
A ns
ĠN ormal
Ġa ka
am bi
ĠM use
ĠNob el
e ne
stand ard
V ictor
ĠPo or
Ġexplan ations
ĠT ube
Ġhead line
ad al
Ġhook ed
Ġconstit utes
Ġremi x
Ġb or
w ire
ĠRos a
enni als
19 45
st at
ci er
aly mp
Ġpreced ing
Ġexplo it
Ġmicro phone
ters on
ĠC opy
ĠHamb urg
ĠPast or
Ġs log
Ġco ats
Ġ tapes
ĠS ultan
t ative
Ġvirt ue
Ġharm on
De li
Ġeffic acy
line ar
F rance
F it
Ġpl aque
Ġshe lls
ĠEff ect
ĠKaz akh
Ġbom bs
Ġannoun ces
! ,
Ġref lective
ĠLove ly
Ġpers ec
Bet ween
Ġvol cano
ĠPati ent
Ġpoly ester
Ġy ummy
Ġdeal ership
Ġm am
ĠPati o
E lectr
Ġdefe nded
Gi ven
it as
Ġbrace let
Ġfu els
ES CO
ĠH osting
so cial
ĠHard ware
Ġtermin ate
assi um
Ġbl an
ĠChar ity
Ġnot or
Ġreali zing
Ġpres erving
d an
10 3
ĠR he
ĠMil ton
ĠPri nting
ĠInf rastructure
amb ridge
G re
ĠDo ing
Ġd umb
Ġle aks
Ġaccum ulated
Ġb olt
Ġto x
Ġcrew s
Ġval uation
ĠM ouse
Ġcor on
atche wan
Ġenh ances
Ġl aughter
ĠZ ach
ruc tions
L y
Ġsound ed
Ġexceed ed
Ġsk ate
ĠAssoci ated
ĠLuc kily
Ġphenomen a
ĠCl assi
ĠD ee
ĠG aza
ĠK nox
Ġlymp h
Î ¼
gni tion
Poli ce
ĠI EEE
Pri nt
ĠC ind
Ġa nes
ĠReci pe
Ġbrow sers
ĠMe lissa
Ġbow ls
ti ps
si nk
ĠIN TER
ĠW ald
Ġ18 95
ĠQu est
Ġimp ress
t ors
d aughter
Ġindo ors
Ġana tomy
H ub
ĠCris is
ĠG io
Ġillness es
Ġb ip
h um
ĠTem plates
nt y
F ort
Ġm ug
Ġimmig rant
ĠHo ff
Ġ= >
ĠCom ic
Ġcommod ity
Ġwarran ties
Ġf oo
Ġuser name
ĠWh ats
Ġpat ents
99 9
orth y
h art
Ġmon op
Ġtrend y
Ġdi oxide
ru gu
ĠD as
en ary
ĠR ise
Ġsw elling
em er
Ġlimes tone
Ġsever ity
ĠRest oration
ĠArch ae
ĠL C
oc ation
Ġmer it
ec tic
Ġtex tile
ĠHe ating
ĠFac ility
Ġkid na
L es
Ġdis ruption
Ġli b
Ġexplo sive
ĠW ritten
Ġmy s
Ġinter iors
Ġexam ines
Ġradi us
ĠBo eing
lyn n
ars ity
ĠB li
le te
Ġenter tain
Ġ10 7
es is
Ġcor rupt
ĠIde a
ĠSe lection
Ġresili ence
hy dro
Ġn asty
ĠD entist
ĠJackson ville
Ġfrequ encies
com mod
ĠSh ows
ĠCre ating
head ed
Ġre lying
Reg ister
ĠMod i
Ġprec au
Ġr ats
Ġle nd
Ġg a
Ġ trop
Ġemplo ying
ĠF IN
Ġp ause
Ġbu rial
Ġm c
m ac
ĠFe aturing
Ġregi ment
å ľ
ĠD uck
em bourg
amili ar
ĠR ates
Ch ang
D L
Ġstra ins
ĠMon itor
Ġstap le
bor hood
im i
Ġsusp ic
Ġanti b
ĠHen ri
ĠAzerbai jan
ĠH ampton
W inter
Ġgra pes
; "<
Ġcon tinental
Ġdig estive
Ġins isted
Ġsan ctuary
col m
M att
Ġtr aces
ĠLes lie
ĠUp dates
Any way
Ġshoc king
ĠCon stan
Ġsusp icious
19 65
Ġneg ligence
Ġcy lind
Ġsp ins
p x
and ro
ĠB ub
ĠCe iling
J oe
Ġl ati
Ġes te
ĠF ul
ĠAlb any
Ġ( #
Ġfor wards
ĠImprove ment
ĠCamb odia
ards hip
Ġtur nover
Ġcommission s
Ch urch
b ucks
R Y
Ġuns uccessful
ĠJeff rey
ĠBuild er
Ġuni fied
ĠRichards on
ĠCol ors
Ġow ning
Ġpost ure
Ġ189 6
ĠMid west
Ġgri lled
ĠP lymouth
Ġlater al
Ġjung le
cu los
oli a
Ġadverti sed
ir med
ĠAd rian
ĠIde al
ĠSh ir
Ġpro jection
Ġstra ngers
Ġrest ruct
ĠK ab
at ts
Ġb allet
ra red
ĠJe ep
3 20
Ġmat urity
Ġdestro ying
áĦ ĩ
ATION S
ĺ ħ
ri ad
Ġe go
tingu ished
Ġmon sters
ĠTi n
Ġsem ic
Ġpublic ity
Ġgra m
Ġwh ites
ĠFire fox
Ġaustrali a
ĠE mo
Ġser um
Micro soft
Ġchar ger
19 66
Ġrestric t
B r
Ġcolour ful
at um
Ġsw i
ane y
ĠO t
mi ns
Ġimp orts
ĠAd ap
an tom
Ġdemonst rations
Ġtri llion
Ġse ated
ĠðŁĻĤ <
Cali fornia
H a
Ġne ural
ING S
Ġrestric tion
Ġb a
ob ic
ĠCardi ff
light en
ĠGar cia
Ġsubject ed
ĠPro bably
Ġcl utter
Ġun conscious
Ġconfig urations
ĠD ear
ĠM K
Ġsupp orter
Ġw oke
vi o
Ġd uc
Ġprosec ution
Ġre jection
ĠRap id
sh aw
n om
Ġdo ts
ĠNap ole
Ġpitch ed
Ġdig ging
Ġd are
ĠCardi nals
ĠM ist
Ġrecru ited
Ġ ted
ick y
ĠBr ass
Ġsh it
ull ah
ĠMc Car
ĠAt tend
ĠL isting
Ġhil arious
Ġpro c
T B
m aid
ĠPh ysi
u ber
Ġsim mer
Ġpe aked
Ġdefini tive
Ġhalf way
is p
Ġp ave
Ġdis able
ĠEx ped
ĠFor ums
Ġon wards
ĠProceed ings
ind ing
Ġnit rogen
Ġa fore
B LE
vit ably
fe eding
Ġextre m
D raw
ĠGer ald
ĠRi b
ĠW ow
Ġm ast
Ġbarg ain
Ġhands ome
J er
Ġarchae ological
Ġvict ories
ĠD istrib
A sian
Ġin ception
ĠTun is
Ġdec ks
ra de
Ġcart ridge
ĠM ach
rais al
TH ER
li ze
affe ine
ĠAb original
ĠGi ant
Ġtoy ota
Com mercial
ĠBird s
ĠL ok
ĠPl ants
ist rations
T uesday
ĠRain bow
ĠDomin ican
Ġemp ir
ĠGuide lines
With out
Ġbase line
op tion
A merica
N D
Ġsett lers
Ġrem ovable
S elf
ĠAl t
Ġblow ing
Ġpurs ued
And rew
B ring
ĠL ooks
ĠRod rig
Ġv ow
atis f
ĠG ust
Ġprefer ably
ĠD omestic
y r
Ġh alls
Ġv a
ĠBel arus
C ould
Ġfirm ware
Ġwi pe
ĠMar co
ĠGu atem
Ï ħ
Ġrefuge e
Ġpand emic
With i
ĠBroad casting
ĠÐ º
ne a
Ad ditionally
Ġcomm enced
Withi n
Ġwho lly
Ġserv ants
Ġfinal e
Ġsens ory
Ġsubur ban
ĠM arian
ĠCon tinental
ot ta
l ton
on gh
ĠW id
Ġend emic
ĠDe er
ĠSh arp
ĠInst ant
Ġre organ
Ġcommer cially
ĠAnim als
ĠEd en
ĠF li
Ġdiag rams
pp o
M ount
Ġbra ins
Ġcrash es
Ġindust ri
Ġover sight
à °
Ġnot ch
ĠÂ ±
pl ash
ati o
Ġauthor ization
law s
p c
Ġdemo lished
Ġpedest rian
ĠAc ts
Ġbe ts
ar row
ĠNo ah
mi an
Ġreli ed
us ts
Ġten th
Chi ef
ĠD up
ĠGri ll
Ġgal axy
ĠMan ito
Ġbench mark
Ġstat ute
ĠCou pon
ĠBed ford
Ġfut ures
ĠE sp
ĠRe le
l ake
Al umni
C ook
and ing
Ġtrust worthy
ov an
ĠBr ick
S cience
Ġemb ry
19 64
og o
oo ps
ĠK erry
ĠP ocket
si x
Ġcan opy
ĠSe ed
Ġiniti ate
ĠArmen ian
Ġstead ily
xi n
ĠMe ga
as tr
ĠC ater
ĠA verage
he ng
Ġcomp artment
Ġro oted
Ġs ands
Ġperiod ically
Ok ay
Ġobs essed
Ġquestion ing
ĠD erek
Ind ivid
l ater
Ġk ar
á Ģ
D og
ĠL az
ĠThi nking
ĠA de
lig a
Ġble nds
Ġfore c
Ġadj usting
ĠLuther an
W alk
So ft
Ġst roll
Direct or
P ad
C enter
ĠP P
Ìģ <
Ġ189 7
ni n
ut z
Ġoptim istic
IN S
tr ate
Ġv ictor
ad ians
ĠTer minal
ĠStand ing
Ġex cer
Ġreim burse
C lear
IS A
Ġcollabor ated
ac cess
Ġd awn
o vers
ti zed
ĠR D
ĠH ouses
ĠBl air
Ġyou tube
Ġenhance ment
o que
Ġapp arel
ĠB oss
Ġdoub ts
ĠN D
N umber
l r
ĠRh odes
ĠD um
2 30
ĠFor bes
Ġforgive ness
ĠL uck
ici nal
ĠWars aw
Ġpar as
ĠP olar
bor g
Ġu rine
Ġmo th
Ġpi nch
Ġdi aling
Ġblack jack
ĠR AF
Ġchi ll
Ġsupposed ly
p ts
Ġha w
Ġfire f
ĠGra phic
Ġcl usters
ĠProfession als
Ġcar to
ust rial
ĠG ad
ĠML B
cont rol
Ġgrand parents
Ġred und
Ġbacter ial
Ġlist eners
oni n
F resh
Ġmetab olic
Ġannounce ments
Ġw olf
Ġtransfer ring
Ġcounter parts
Sen ior
ĠMan n
ãĥ ³
Ġbit coin
T L
ĠJane t
Ġele phant
al ty
S aint
Ġadvis er
ell s
Ġc el
IC ES
Ġche fs
ĠK w
Inter net
ĠMin utes
Ġtext book
ĠAl le
Ġshoo ts
ĠP orn
ĠL ars
ĠB har
ĠAff ordable
Ġmiles tone
Ġinf antry
ĠG uests
Ġ18 65
, -
Up date
Ġbless ings
Ġuni vers
C am
Ġco h
ter ies
Ġber ries
Ġendors ed
20 1
Ġunder going
Ġclo ses
Ġrest art
Ġdi ets
Ġflu ores
Ġconvinc ing
ĠComp uting
il arities
Ġprolong ed
ĠDem on
ush ing
W il
ĠA mber
Ġarbit ration
ir on
oura ble
de gree
Ġpi er
Ġspell s
ĠLem on
spe aking
V M
Ġsett ling
AD E
oy a
Ġinf ants
f at
ent a
Ġground ed
Ġpropag anda
ĠStr ing
ĠLanc aster
t art
Ġar ises
ĠK ane
ĠC ivic
Ġforth coming
nk nown
Ġb orough
10 6
Ġsu fficiently
Ġcorrect ed
Ġad ul
ĠCur tis
Ġwhere by
il ant
ĠF ans
Ġsong writer
ĠC ottage
Ġsing ular
epend ing
ĠNe eds
Ġque ue
A thle
ĠCon cept
s outh
13 5
Ġre fin
ĠC ance
Ġtrack ed
Ġb ir
Ġpost al
Ġasse mble
Ġf athers
ĠA BS
ĠSche me
ec raft
ĠSS L
Ġlong time
J ud
Ġâ ĪĴ
Ġdipl oma
Ġjud ged
ĠPatri ots
Ġtri angle
Ġpreval ent
ĠPak istani
Ġspec s
Ġ13 5
Ġsquee ze
Ġto ast
Ġclea ners
Ġut most
Ġcomm une
ĠNe ither
ĠCl ai
Ġupgra ding
Ġn atu
ĠIn vent
19 40
ig ning
1 18
S of
A IL
Ġh ooks
Ġprem ise
Pri n
Ġwe binar
ĠSer bian
Ġout dated
Ġsand y
Star ting
ĠL O
Ġfo x
ĠAre as
B an
U G
C ond
fore st
ĠC red
t oured
ĠAtt ack
b id
ĠV el
Ġpass words
Ret urn
Ġantibio tics
ĠAns wers
ĠC ul
ais y
f ig
ĠPers p
Ġho llow
ĠFriend ly
Jew ish
Ġcon ceived
ĠEx ercise
Ġcli ff
ĠS op
Ġpl um
Ġkey boards
Ġinstall ment
ĠV id
ĠB allet
ĠCo i
Ġw ont
Ġvac ant
ĠScript ure
ĠPre fecture
ĠAn ch
Ġ10 80
Ġadop ting
ĠCase y
Ġelev ator
Ġ toured
Ġover d
n umber
Ġsandwich es
ĠTop ics
ĠB ars
b ling
ĠAc id
all a
re present
ĠJ us
ec o
ĠAware ness
Ġz inc
D ouble
Ġretri eve
ĠW hi
Ġillustr ates
E ver
Ġker nel
Ġer g
bs ites
bec ue
V o
ĠM ol
od ied
per ature
ĠF ounder
Ġf encing
b iz
Ġtem pt
iss a
ou p
Ġemphas ize
ĠV end
ĠBelf ast
min ating
ĠLab s
l ords
æ Ī
ĠJen ny
Ġ1 19
Ġre cess
T oo
Ġp unk
ĠN ex
ĠE valuation
Ġbomb ing
Ġf ountain
Ġide ally
Ġner ves
is tol
Ġfix es
ĠR N
ur ally
ĠWh is
Ġimpro per
ĠField s
Ġweakness es
Ġno stal
Ġfore front
ĠM ent
ĠAst ro
Ġcorro sion
US D
Ġsqu ash
ĠMon itoring
row th
M ale
Ġstret ched
Ġamend ments
ĠO UR
Ġdead lines
L ED
Ġple asing
ĠDavi es
Ġb illions
Ġb ark
Ġprepar ations
ĠMig uel
Te xt
Ġcontinu ity
ĠH AVE
ten ham
ĠF raser
Ġk n
Ġreward ed
Ġg aze
e lectric
ĠCommun ities
Ġuphol stery
ĠFor ms
Re lease
ĠE ugene
port ed
c z
Ġwel comes
ĠSaf ari
Ġdisc ourse
ĠEv il
li sm
Ġir regular
ĠGram my
Ġmetaph or
mi nd
Ġfashion able
Ġfle e
tiv ating
Per fect
ĠO M
with out
ĠClass ical
res cent
ĠRec on
Ġsad ly
ĠMay a
ĠDra ke
L ess
de en
Ġso cket
Com ments
Ġlung s
Ġmight y
Ġafter math
Ġ ll
ĠSteph anie
st rom
Ġmom s
Ġbelie vers
( ),
Ġwi ki
No thing
ĠLi quid
ĠB ic
ĠGl ou
F und
Ġbrut al
ĠS eller
Ġende avor
Ġimp ose
Ġmon astery
term ined
ji n
Ques tion
ĠR emi
Ġfi bre
Ġup right
Ġpes tic
can ic
A H
ĠTo ys
ĠGate way
IC T
ĠVlad imir
Ġa f
Ġre vival
ĠRe lief
Ġtransl ations
Ġlo ft
a ties
he arted
ĠLi ly
Ġatmosph eric
Ġgas oline
B P
ĠF old
Ġey eb
AM P
Le vel
Ġlo ttery
Ġe g
Ġinsp ections
Ġproceed ing
ai ah
u alization
b ies
Ġnegoti ation
ĠK N
ĠYan kees
c ool
W I
d raw
ĠF X
Ġk en
R a
IL ITY
us ually
ĠFarm ers
g lo
thes ia
Ġtac tical
lec tic
ĠP VC
Ġpictures que
ĠM ens
>> >
oke e
Ġintern ally
& #
ĠS ally
ag netic
Ori ginal
R ose
ĠR ising
ĠEx ample
Ġmanip ulation
ĠM ou
ĠCON T
ĠSp y
Stand ard
ĠSalv ador
Ġrock y
c ultural
IT ED
ĠHy derabad
ili ght
Ġrain bow
chang ed
J esus
Ġf aux
Ġd well
Ġcra fting
ĠBet a
ĠTan zania
Ġde ficiency
ĠM atter
ĠBet ty
Î ·
Ġflav ours
ĠR oh
Ġup ward
áħ³ áĨ«
Ġproli fer
Ġwh oles
ĠR andy
Ġcontract ed
ise x
is ers
Ġh d
10 9
Ġsp ider
Ġh unter
ĠF ew
ĠBur ton
Ġce ased
Ġcolon ies
work ers
ĠStri p
mon ary
Ġhe llo
ĠGraph ics
idd les
Ġind uction
Ġow e
Ġsm iles
ad ors
Ġpot ent
Ġh atch
ĠDri nk
ĠRe ason
ĠPi lot
Ġcateg or
the astern
ĠRom ance
ãĤ Ĵ
Ġorganiz ers
ĠLess ons
at z
Comp any
Ġad missions
ĠWes ley
ĠW ings
gen cies
ĠS ali
hold ing
Ġpat ented
ho v
ĠAd s
Ġprocess ors
direct ed
ĠC ycle
ure n
Ġcra p
I ce
Ġ9 11
Bri en
Ġref uses
po ons
Ġgli tter
S port
ĠGri nding
Ġmer ge
Ġdub bed
Ġd an
Ġspeci als
ĠV ale
ĠR ut
Ġinc lined
ĠLegisl ature
Ġb isc
ĠA AA
Ġra id
s ation
Ġdeb ates
Sw ed
ĠExp ect
Ġsme lls
Ġtort ure
ĠAl umni
ĠSky pe
le igh
lar ation
Ġbrid es
Ġ189 3
ĠÙ ħ
ĠG ren
B Y
ĠHe aling
Ġnutri ent
ĠB IG
ĠKeep ing
ĠSur vi
bird s
oul try
ĠAr lington
ĠAns wer
Ġf ry
19 20
cy cles
Bes ides
ĠPar ade
ĠPau lo
Ġacc ents
Ġdeliber ately
ĠF ighter
Ġh ull
10 8
Ch ange
Ġine quality
Ġfold ers
Ġgrands on
ĠHy brid
Ġ18 61
ĠM IN
ĠSe oul
Ġinc umbent
ĠAll an
ti us
ĠMes a
Ġcont amination
ĠC andy
Ġdisco vers
C I
ĠCra zy
ĠPro blems
p ill
Ġwar nings
ĠPre ston
ge on
ĠIn ner
ĠEmploy ee
ic ated
ĠInst ruct
ĠTh ri
ĠSal on
Ġinv o
Ġa top
Ġhorm ones
IT ION
ag ara
onge vity
m at
Ġun con
Ġdet ective
wh y
ĠHold ings
t ude
ĠP U
ĠCon sequently
Ġstret ches
ĠDemoc racy
ĠStrateg ies
Ġa is
Ġab bre
ĠRand om
z on
ĠWin ners
ĠWall paper
H aw
Ġs iding
Ġregister ing
g ang
def ined
ĠTes la
Ġli ng
Ġpos ed
ale igh
ĠPack ers
ĠMe yer
ĠH A
Ġro ast
Ġmess y
ĠImp ortant
o an
ĠDi ocese
Wed nesday
Ġlap tops
Ġcar rots
Ġjer seys
Rec ently
ĠSac red
ĠH od
ĠIn tern
ĠN orton
Ġrep rint
ĠAppe als
Ġrou tines
ĠC ran
Ġcomp ose
ĠDis cus
Ġ tel
Ġmon o
ope ned
Ġtw entieth
N ear
oc ol
Ġvici nity
ĠCl ara
ind uced
ĠF acts
ĠNo vel
Ġst en
ĠL iga
ĠST EM
N ER
36 5
ur ous
par alle
Ġexp ired
Ġtheat rical
L ee
Ġk not
Ġseam lessly
Ġgad gets
uc tions
Ġintric ate
Ġas y
Â® ,
H I
ĠSession s
Ġcard board
j ee
ĠSof a
Ġtun ing
Ġmali cious
ĠMachi nes
Ġy o
Lou is
ge nesis
Jap an
Ġbure auc
ĠR um
ĠAbd ul
Ð ¡
up iter
Ġf onts
Ġspec ulation
ĠT S
F ish
ĠIn form
Ġend angered
Ġa ve
Ġconc ise
Ġill usion
omed ical
ĠInte gration
ĠW V
Ġrun way
Ġdeleg ation
Ġprem ature
estab lish
Ġw ow
ĠMachi nery
iche ver
Ġbe ast
Sil ver
Ġinsp ect
Ġproceed ed
Ġbear ings
Ġm our
Ġsung lasses
Ġl av
Ġcan s
ond uctor
Ġsub way
ĠW arm
Ġsc reened
ĠBe an
Ġkind le
Ð½ Ð¾
Ġexpendit ure
ĠAlexand ria
Ð¾Ð »
c ook
N N
Ġar guably
ĠNot re
Comp anies
ĠG ur
ĠR ings
t led
Ġcomp utational
Ġsuper market
ĠG rid
P ict
ĠSal em
ĠSil k
ĠTe h
ĠMod er
Ġval ves
âĢĿ ),
ni peg
Ġrest oring
Ġcleans ing
ĠCo aching
Contin ue
ĠIn ch
c ats
ĠC los
ĠNo ble
Dri ve
Ġwithd rawn
Ġlow ering
y i
Ġdivide nd
Ġbud dy
Ġinstruc ted
ĠTra iler
ĠG OP
ĠOp tim
Sc ott
Ġnic kel
Ġconcept ual
se at
ĠL ub
Ġf riction
ĠBu ying
ĠAny thing
log ically
Ġconsequ ently
Ġdepart ed
ĠLo gin
ĠV P
IL E
t m
Ġutili zation
ĠDi agnos
Ġcr acked
Re li
C and
ti r
Ġj umps
ĠUn ity
Ġdev ote
Ġgall on
focus ed
ĠHolo caust
tin ction
Ġmari time
Ġnom inee
f les
__ _
Ġqu arry
qu it
17 0
Ġacquis itions
c ourse
Ġdiscontin ued
B rown
si gned
F IG
ĠA IDS
Ġinc ub
Ġment oring
ac cept
Ġthe aters
Ġti mer
Ġa ster
J ob
Ġimpression s
Ġdis till
Ġ* *
che ap
Ġout lines
ĠC ec
Ġso ak
ĠL one
> //
Ġl ord
C ro
Ġbo iling
byter ian
ĠMor rison
ĠN ames
a ic
ĠAd vant
Ġcit rus
Ġthat s
Ġch orus
Ġsp ill
ĠHigh ly
g rowing
Ġcheck list
ĠGriff i
w yn
ia o
Ġmile age
ag ain
Ġconver ter
ĠSe ne
ĠArch itects
ap i
ĠHawai ian
... "<
app a
ĠHear ts
con tract
ĠQ i
Ġafore mentioned
fe ed
Ġmon uments
is cher
Ġ188 9
Ġrec ap
sh are
ĠK urt
Ġcon texts
bec k
W riting
ĠA ris
S yn
ĠGriffi n
Ġpain ts
. (
ĠTal ent
ĠDipl oma
ans om
Ġw anna
ĠL EG
ĠB av
Ġgovernment al
Ġs au
Ġl ubric
Ġv apor
ĠSask atchewan
ĠCry pto
Ġcol lects
tiv ate
ad h
S ky
ĠM oss
Ġcollap sed
mi tive
Ġnegoti ating
lo cking
W as
ĠRent als
Ġcatch es
E V
abe tic
Ġuni n
Ġtoile ts
Ġbeh ave
ĠElli ott
ay e
clai mer
Ġda unting
Ġimp ly
Ġinterf ere
Ï Ĥ
Ġbroch ure
Ġend urance
Ġsign aling
Ġvolunte ering
Ġlower ed
au tical
Ġun aware
Ġen ch
ĠR BI
ĠEqu ity
Ġback wards
Ġdestr uctive
Ġden ial
ĠMo to
Ġ* **
Ġra m
itor ium
ĠBra dy
ik h
ĠT B
ĠB P
ĠMari on
Ġathle tics
UL T
ĠB ras
ĠLithuan ia
ĠÐ ´
oph y
ĠU ns
ĠZ ip
ter bury
Ġi phone
Ġtw ins
ĠHai ti
ĠBas ically
Ġevent ual
ĠG iving
Ġsim ilarities
ĠSanti ago
Ġwid ow
b irth
Ġmorning s
ĠReli gious
ĠH ull
ĠContract ors
C ele
Ġtri logy
ĠF ont
ri na
ĠB ent
an ol
Ġsil hou
omin ated
tos is
Ar ticle
1 19
Ġ18 64
ĠL IM
ĠM ate
ĠK re
ĠProgram ming
Ġallerg ic
S ir
à¥ ĩ
Ġobs erving
Ġrevel ation
Ġauto bio
ĠUS E
Ġe pi
Ġer o
ar ting
to ch
Ġinsu fficient
mid t
ĠP G
ĠRe ich
ĠSp art
is se
Ġrecogni zing
Ġdecre asing
ĠAm ateur
ĠApo llo
Pre mi
Ġchoo ses
ĠSund ays
Ġve g
ĠRoof ing
ĠS ever
ĠP RE
Ġcook er
ĠSoci alist
Ġ189 2
ĠEp ic
re x
Ġpres idency
Ġweigh ing
ĠS AT
ĠDon na
M ater
ng the
19 63
up loads
ĠT rent
D K
Par ticip
Ġpres ently
is y
Ġdomin ate
Ġcont ests
hel le
Ġplain tiff
Spe ed
W AY
ĠCondition ing
atic an
Ġutili zes
ĠE ra
osp ice
Ġspark ling
Ġlaugh ed
ĠPi ece
Ġcor ps
L I
Ġris ky
Ġspec imens
ĠBu zz
Ġdess erts
v il
ĠPat ricia
Ġdup licate
Ġsto cking
Ġinadequ ate
Ġshoo ter
is o
Ġdistrib utors
Ġqu artz
Ġste er
Ġsymb oli
Ġrab bit
Ġout rage
ĠC ooking
ĠDynam ics
mun ition
Ġ tart
Ġbar rels
ĠTom orrow
to res
ĠIniti ally
Ġ189 1
ĠCab inets
Ġdesper ately
Ġpian ist
Ġnick name
Ġsec re
to ok
Ġ Ã
S ure
er es
ĠBrad ford
ĠOpportun ity
) ?<
ĠEmb assy
ĠSpe aking
ĠAg ents
ĠCoi n
rit z
au ra
Ġle tt
Ġpor celain
tra i
ĠCa uc
ĠFrank furt
I ni
ĠO ber
Ġg ases
ĠN S
min ated
S emi
ur an
olk ata
en c
Ġqu ir
Ġo val
ĠSupp liers
ĠP our
j k
ĠCons um
Ġass umes
ĠArch bishop
Ġge ometric
ĠApp arently
i ration
Ġattrac ts
on ut
Ġcontrib utors
Ġle gends
am ation
Ð¸ Ð¸
ĠUE FA
Ġjus tified
face book
Ġmo sa
ĠAcc ounts
ĠC ats
ÌĤ Â¿
ĠEther net
Ġ189 4
em on
Ġcl ues
Ġ: -
id ian
N R
Ġa we
Ġtang ible
ĠHy d
g lass
áĦĥ áħ¡
ĠD ot
ĠK lein
Ġun used
Ġsw ept
Ġreti ring
Ġ10 9
ĠEv idence
Ġv ault
Ġnew born
App ro
b ug
ĠT uc
ĠAuth entic
ĠL af
Ġped al
Ġimp erial
Ġimp rison
Ġmyth ology
Ġbooking s
Ġmoder ni
Ġtra der
it us
Ġon set
Stud ent
tic ians
T ell
Ġbud d
Ġregul ators
Ġup stairs
man i
Ġfra gile
f acing
thod on
Ġmod elling
Ġox ide
al ong
ĠClo thing
ĠLe vi
!! !!<
Ġmas ks
Ġrub bish
Ġse wer
ĠProv idence
ĠH U
ĠLif estyle
M uch
Ġsimpli fy
19 62
ĠL oop
Ġki ndergarten
utic als
ĠSto res
ĠSav ings
Ġexce eds
ĠGo v
ĠGo als
Ġde finite
Ġun happy
ĠMe h
qu a
oth s
ĠB ags
Ġp oo
C oun
P ak
identi ality
ple asant
ĠáĦ ĩ
Ġpet rol
Ġ50 1
Ġpen ny
uk u
ĠE k
ĠBur ke
Ġcerem onies
Ġse als
Ġjour neys
ĠFin als
Ġf ade
ĠR iley
ĠGu ides
Ġgen ome
ande z
Ġtax ation
ĠPo sition
or ate
Ġvouch er
Ġres ides
que z
Ġdecre ases
Ġrou ting
ĠIdenti ty
Ġintroduc tory
f ab
qu ent
ĠBri g
en burg
Ġthir teen
anc a
ĠS I
Ġdev il
Ġtaxpay ers
d ry
ĠManufact urer
ĠE as
Ġconcur rent
Ġp oured
met al
Ġallow ance
ĠL ance
W all
Ġeco logy
Ġcur rencies
Ġrepro duce
ĠY outube
Ġcong ress
ĠB ooth
Ġnephe w
S ound
Ġsi nks
flo or
ĠFi xed
Ġre charge
Ġus a
Ġnight mare
i fer
ĠAb b
cep ted
p ric
Ġmini ature
ĠSt ro
F ab
ac tivity
Ġsk ies
ĠLe b
ĠS ul
Ġp lots
ĠF t
ĠBra h
un ciation
Ġne on
ĠSat an
Ġco her
10 7
ĠBrand s
ÑĤ Ð°
Ġout board
ĠMc D
nde z
Ġsl ate
Ġbroad ly
lear ning
un ion
t ant
ope z
ĠD w
Ġc log
Ġtrave llers
oper ative
H ost
Ġperiod ic
ĠE van
tw itter
ĠC OL
19 30
Ġas phalt
Ġun le
Ġdet ention
Ġy acht
p arent
se i
ĠU tt
Ġreluct ant
ĠManito ba
Ġmidfield er
Man ufact
Ġair plane
Ġa z
Ġc uc
ĠWH O
ĠMy ers
Ġcar pets
Ġcomprom ised
op es
Ġaver aged
Ġreloc ation
ĠCol lections
ãģ ĭ
ĠB EST
thi nking
17 5
ĠPu tin
OUN D
ĠP oo
Ġpri mer
ĠFore ver
ĠD ai
W ritten
ĠAp ache
ĠD ish
Ġswe eping
Ġto mb
Ġcur ated
Ġav id
ĠH idden
Ġwonder fully
ĠRestaur ants
Ġstandard ized
ĠV C
ĠJe ts
Ġ18 62
Ġveter inary
Ġemp eror
n formation
si ties
et tle
Ġer up
ON D
Mar tin
ĠLux embourg
Ġwar rior
ĠGu jar
Ġpan try
its u
Ġclimb ed
ĠF Y
car bon
Ġy ork
ĠP ai
Ġdistur bing
Ġton nes
- $
ĠK ang
Ġcompli ment
Ġtroub led
on ist
e lected
IC A
Ġform ulated
Ġcl ergy
ngthe ned
Ġhope ful
Ġal beit
trai n
Ġnews letters
Ġaw a
ĠWhe els
Ġcor rel
Ġd orm
ĠPublish er
oc cup
ĠSupp lement
Ġmos quito
ĠSi licon
Ġ19 0
ĠSebas tian
Ġconf ined
ĠBre ast
Ġsp her
ĠB read
ĠU PS
Ġtw eets
Ġli gh
ĠCom es
ĠSig ns
qu ity
Ġtre asures
Ġevolution ary
Ġlo ops
ĠCh al
T est
gi lity
ĠE cho
ĠBegin ning
og g
C i
Ġcompet ence
com b
Ġth ou
li ever
ĠC ant
Ġwell s
ĠCond iti
ĠTra vis
ĠK ol
ĠIN D
Ġbas kets
Ġresc ued
D ark
Ġ188 5
ĠR ag
ĠPat tern
Exper ience
z ig
Ġ ),
Ġmel an
Ġex clusion
Ġidenti fiable
ind a
ĠRoberts on
h us
Ġbri ghter
Ġes p
st ars
ĠS tick
ĠPharm acy
ĠCars on
ros ity
M O
ĠPro tein
inf lamm
C over
ĠáĦ ĥ
Ġnegative ly
Ġterror ists
d el
Ġsimpli fied
Ġnumer ical
ĠBack ground
Ġh over
Ġannoun cing
ĠParticip ants
5 50
ĠWW E
Ġslic ed
ĠL ORD
ĠS lot
Ġcath edral
Ġk o
o tives
l b
ĠShi n
ĠP ars
Ġdep ressed
Ġj an
Ġprotagon ist
Ġthy roid
Ġcli m
ĠCar ne
ĠUn limited
step s
Ġbur ns
ĠA ires
F ra
ĠDar win
v ested
Ġroof s
as per
ĠPar ties
ĠPre view
et ti
Ġh ect
d ependent
ĠV II
Ġs lam
op athy
ĠAur ora
ĠRab bi
M R
Ġch asing
grad ation
bal ance
ĠO pi
ess a
rib ly
Ġsh ampoo
Ġweld ing
ĠW ins
Ġrai ny
ĠCat alog
Ch icago
Ġeconom ically
Ġshi ning
Ġris en
Ġaw hile
Ġpris oner
Ġd itch
ĠEston ia
Hen ry
re ctions
Ġb ac
ĠDel uxe
Ġ18 88
ĠJ S
ĠCor nell
ĠD EL
ĠPow ers
Ġneg lected
Re ally
Ġrep lies
Ġtrigg ers
ail ability
Ġfo li
Ġst ab
Ġexem pl
Ġunder went
Ġine x
ĠP une
ĠVol kswagen
K A
ĠL iv
Ġdiag nose
ĠApp eal
he a
Ġlong it
Ġbi king
Ġroutine ly
ĠSymp osium
mb led
Ġs crip
Ġexerc ising
v c
Th ings
ĠSe al
Ġinf ectious
op ing
Ġsusp ects
12 8
lo id
ãģ ¨
Ġunp redict
Ġdisc oura
ĠCal vin
Ġop io
Tex as
Ġintention ally
ti os
si nce
ĠLaw yer
ĠRub ber
en cers
Ġra ils
ĠK ali
ĠRep orting
Ġanth ology
fter s
Ġadequ ately
ĠRivers ide
å Ľ
Ġine vitably
Ġmechan ic
[...]
