#version: 0.2
e r
l i
e n
Ġ a
Ġ t
e s
o n
e w
li n
lin e
n ew
Ġ d
new line
h e
Ġ s
a n
r e
t i
Ġ i
o r
c h
Ġ p
o u
l e
a r
n d
t e
Ġ w
Ġt he
Ġ c
Ġ f
i s
n g
Ġ b
Ġ m
a l
Ġ o
i t
a s
Ì ģ
Ġi n
Ġ S
Ġ e
a t
o m
Ġo f
i ng
ti on
Ġd e
en t
Ġ l
i e
Ġa nd
u s
u r
Ġ h
Ġ A
Ġt o
e d
Ì Ī
i l
r a
r o
. <
Ġ C
Ġ n
e l
Ġ M
Ġ T
Ġ u
i c
Ġ g
Ġ B
â Ģ
Ġ P
Ġ 1
s t
Ġt h
Ġ v
Ġ I
e t
Ġ D
r i
o l
a m
Ġ re
Ġ 2
t er
Ġ (
q u
v e
c e
Ġ L
Ġ F
i r
er s
ou r
a tion
g e
Ġ R
Ġ H
d e
Ġ G
o t
Ġ E
Ġb e
Ġ W
i g
> <
u t
l a
Ġf or
Ì Ģ
Ġi s
Ġ y
o w
Ġ on
o s
l y
t a
an d
Ġ N
t s
a d
m ent
Ġ2 0
es s
t h
Ġ le
u n
âĢ Ļ
es t
c k
i ch
Ġ K
a y
u m
i d
Ġl a
Ġa l
it h
u l
v er
Ġa n
Ġ J
Ġd es
Ġu nd
Ġs e
te d
Ġ en
o p
Ġu n
i m
a b
u ng
Ġc on
a i
Ġd er
c t
Ġ O
Ġw ith
Ġw h
Ġp ro
Ġ V
s e
Ġ r
er e
Ġ k
c i
Ġc om
b er
p p
Ġa s
Ġe t
t en
Ġ1 9
i on
Ġth at
Ġs t
o d
f f
a u
e m
Ġ qu
. .
Ġ U
Ġa u
an t
a g
p e
Ġ li
Ġ j
0 0
Ġw as
Ġ20 1
h r
Ġd ie
Ġe i
Ġei n
k e
Ġ z
an s
en d
ĠT he
a ch
o g
or t
c he
Ġ âĢ
Ġy ou
Ġa t
r om
Ġ ch
m e
ti ng
ou t
r u
Ġ or
Ġp ar
Ġ he
ar d
Ġ -
is t
Ġe x
i te
l d
o re
u re
Ġb y
n s
a te
Ġa re
g h
i v
n t
ou s
al l
u b
Ġf i
il l
as s
Ġi m
Ġi t
Ġs h
a p
i es
a li
e i
Ġf rom
Ġh a
o k
Ġ <
d i
Ġw e
en s
) <
Ġn e
l l
a c
Ġd u
o c
ĠI n
a ge
Ġ 3
us t
i er
ti c
Ġth is
el l
Ġm e
Ġs u
Ġl es
Ì Ĥ
qu e
d u
ĠS t
h i
a k
u e
' s
ch en
c tion
o i
ĠR e
d er
o st
r ou
ai n
om e
Ġa b
m er
us e
r es
f or
p er
ig h
r an
i nd
i a
t y
an n
u d
it y
e ar
g en
Ġ |
Ġy our
Ġv on
Ġ :
e b
Ġs o
Ġn o
i de
Ġm a
Ġ "
l o
Ġm an
s ch
Ġn ot
on t
Ġha ve
Ġal s
Ġ er
a v
Ġcom p
ĠT h
2 0
f t
or k
on g
a re
f e
i re
Ġd en
n er
o ok
n i
as t
h er
Ġa c
an g
or d
Ġp l
Ġ Z
c es
Ġf u
Ġal l
an ce
r ic
b le
ar y
ter n
Ġc an
y s
r y
a ti
1 9
Ġm it
Ġp re
er v
al ly
Ġ 4
e p
ĠâĢ ĵ
Ġp our
is s
ĠC h
is e
ab le
b e
Ġt e
on s
a le
Ġs ur
ation s
en ce
i li
Ġ Y
T he
Ġ20 0
ĠS ch
Ġa d
on e
Ġv er
Ġp e
) ,
Ġr es
o li
l es
f er
a h
m i
am e
ar t
d en
Ġa r
Ġ 5
Ġ Â
Ġz u
Ã Ł
ou ld
z e
Ġp la
Ġs p
on d
or s
ig n
v el
ĠL e
ĠD e
Ġw ill
Ġ est
c a
r ie
er n
Ġ us
a ck
w e
m p
Ġd o
ic e
li ch
r ess
o b
a il
v i
Ġt ra
u nd
for m
Ġa pp
v en
p h
Ġau f
Ġh is
Ġh as
p s
ar k
Ġp er
Ġg o
i en
os e
Ġa m
om m
Ġi st
Ġb ut
p tion
ĠA r
on n
us s
n n
Ġd ans
u g
s s
ent s
Ġ ra
o v
th er
lin g
r en
t o
Ġ es
re e
Ġun e
ti n
c ri
Ġ1 8
ie l
ĠP ro
il d
Ġde m
as e
a ted
Ġd as
ich t
ol l
Ġin c
gh t
e c
te m
ĠU n
u ch
li s
Ġd is
am p
Ġs ch
i b
Ġu p
Ġwh ich
Ġ 6
Ġs a
k s
Ġfi le
al s
Ġg e
o h
i ns
Ġthe ir
Ġals o
Ġd i
ĠS p
at er
ĠM ar
im e
Ġ ro
.. .
Ġon e
Ġf a
ow n
l and
il le
ĠH e
i an
Ġ out
ur s
or y
Ġm ore
c ess
Ġqu e
Ġ 0
f ic
li c
Ġw ork
u x
ĠB e
Ġ &
ment s
Ġab out
Ġcom m
it s
tion s
c om
ĠA l
Ġthe y
o ve
en n
i le
g es
Ġw ere
ti ve
te l
ol og
g er
ay s
Ġc l
Ġ 7
Ġre c
ic k
at h
Ġm y
Ġwh o
Ġ ou
Ġh er
e x
Ġc o
ou nd
Ġre p
ul t
Ġa us
es e
i ve
ca use
Ġqu i
m an
ti s
ir st
a hr
Ġs ich
Ġ ent
n ing
âĢ ĵ
r it
m s
ation al
Ġ our
Ġa v
g i
u al
i k
igh t
t re
m a
ei n
i z
o y
Ġs ta
Ġy ear
Ġ 8
Ġp ri
ĠA n
ĠL a
âĢ Ŀ
Ġa g
Ġ new
ĠV er
Ġf e
ĠI t
t t
ou nt
Ġbe cause
at es
un e
Ġ 9
ur ch
Ġ ri
w o
Ġim p
Ġh ad
Ġs erv
ta i
Ġein e
ic al
1 8
u f
! <
Ġt ime
1 0
Ġc ol
I n
le d
Ġ1 0
Ġw ar
mi n
ar i
m en
Ġs pe
h o
du c
Ġcon s
iv ers
h en
h a
ung en
g ra
ti es
f ter
cri ption
t ra
Ġ19 9
n ess
ve c
o ol
ing s
R e
l u
Ġi nd
r is
a is
li e
Ġsh ort
op le
Ġm i
os s
ĠW e
g an
a ir
r ans
v es
Ġs ome
Ġbe en
qu es
Ġpl us
.. .<
er t
ol d
ur es
ĠÂ »
el le
Ġi ts
ĠS e
Ġk n
Ġw ir
Ġan y
) .
Ġo ther
k t
w n
Ġf irst
Ġp as
ĠD ie
Ġo ver
Ġc re
n is
Ġau ch
Ġin s
Ġg et
Ġin ter
Ġp h
Ġa vec
Ġm on
Ġs i
ci al
Ġn icht
ion s
ĠN ew
n k
Ġwh en
ti t
Ġg u
Ġc e
ĠF or
Ġf il
ĠS ta
u p
ĠâĢ ľ
f i
ou n
Ġpla y
ĠP ar
Ġw ur
a ce
Ġp ers
Ġse i
ai re
di tion
c o
re at
Ġ /
l an
? <
Ġ Q
tai n
ĠE r
e y
ĠS ie
n a
ĠT e
Ġdes cription
en e
f ul
Ġb et
r on
or n
Ġa ut
ver y
a z
Ġw ould
Ġth ere
en ti
ung s
Ġc ar
âĢ ľ
u te
Ġs on
Ġof f
1 2
Ġin to
Ġ| |
Ġi l
Ġ *
5 0
p le
Ġex p
m b
i p
te ll
il li
oi n
an ge
j e
c y
ti g
Ġs c
o ck
or ld
o is
o od
ĠO n
b en
ĠF ran
Ġth an
Ġpe ople
: <
ti v
ot h
Ġse c
Ġli ke
el s
Ġre g
ch a
ch er
Ġs er
Ġ ,
ter s
Ġbe i
b s
at s
Ġb u
Ġthe m
our s
Ġd ies
l er
p t
Ġi f
og ra
T h
ĠC om
00 0
Ġfi n
i al
o ir
r and
is h
1 7
u i
en er
ou gh
Ġ1 2
Ġas s
mer ic
Ġcon t
et s
Ġdi ff
d ay
ti m
v ent
Ġs ie
rou nd
ĠTh is
w ard
an ts
Ġs he
t on
it er
Ġwh at
Ì §
Ġne ed
Ġh ow
Ġt wo
ie d
ow er
Ġn ach
Ġm ar
i que
1 6
Ġ1 7
h n
is chen
as ed
Ġ201 8
1 5
Ġ19 8
ĠS h
a us
an k
ys tem
Ġp ub
et te
p ar
c ed
p re
Ġw er
en ces
Ġl oc
l ud
il y
Ġv ers
vel op
n es
ĠM a
ur ing
Ġ1 5
w w
Ġon ly
D F
d f
op e
Ġund er
> |
rou gh
Ġw ie
Ġwur de
Ġm ay
ro w
3 0
l le
as h
et z
e k
a ting
Ġc he
Ġpro v
u tion
Ġsu pp
Ġm ost
Ġt rans
Ġt a
E R
ur n
Ġac c
he d
Ġj ust
ĠC on
Ġa fter
u es
ĠG e
os i
b re
1 4
Ġ1 6
Ġj e
au x
et h
ou se
ĠM i
Ġth rough
ĠA d
ra i
form ation
Ġh igh
p r
us i
Ġhe l
c c
le ct
h al
Ġu m
Ġh at
ĠL i
Ġo der
ul ar
ĠM an
ĠE n
Ġ use
t z
Ġp oli
ĠE x
is ion
ĠM e
c on
at ure
or th
Ġb ook
re d
ĠY ou
Ġpar t
Ġt er
o de
Ġv ous
Ġd ire
Ġe ff
Ġre m
Ġh ab
Ġsei n
ch t
at t
Ġf am
f u
our n
1 1
Ġp df
ĠP DF
at ch
ĠS u
Ġm od
Ġs ub
ag es
Ġs ind
ic es
Ġb ack
Ġwer den
ĠO r
ch n
hi p
Ġst ud
ĠA nd
ati ve
Ġb es
o ot
Ġw ell
ĠE i
ar s
Ġfi nd
el f
o ch
Ġyear s
ĠA b
ali s
Ġ19 7
ĠC ol
t es
m ber
Ġma ke
) .<
onn e
ĠI nd
o x
r ing
g n
Ġinc lud
1 3
Ġm em
v ers
Ġg ra
b all
Ġo p
i f
st ru
ĠA s
Ġmi n
L e
f ore
ou th
a ut
2 00
Ġ1 4
Ġz um
Ġs ont
i ble
Ġpro f
Ġ $
usi ness
w ay
n ce
at ur
ow s
Ġfor m
ĠS o
ci p
v ing
oh n
Ġv or
b i
a it
an y
Ġwh ere
Ġ [
Ġ .
vi ew
Ġpro du
ogra ph
am es
ti f
Ġl ook
Ġl ong
ct or
as on
u is
ĠA meric
Ġb est
Ġb is
i nk
Ġv i
Ġch ar
Ġc ent
Ġd on
b ur
Ġe very
el t
m it
Ġan n
m m
ĠâĢ ŀ
le ction
Ġo b
id er
Ġhel p
Ġs te
Ġp res
Ġth ese
ti e
al es
st er
e h
c ent
ĠJ ahr
Ġkn ow
ĠC ar
Ġth en
g et
at a
' t
l s
Ġ201 7
Ġ â
Ġz ur
Ġein er
Ġ1 3
s p
x t
ro p
Ġman y
a de
ĠC hr
or ts
ĠUn ivers
I N
o te
w er
Ġn um
k i
f en
Ġs im
Ġcomm un
ra tion
st en
c ted
Ġex per
al th
it en
Ġi ch
Ġen d
Ġ19 6
b ers
Ġm us
Ġc ou
ĠB er
Ġ lin
ĠR o
gi n
Ġs m
ĠP ri
Ġwir d
ĠÂ «
ĠN e
Ġver y
Ġcomp le
Ġm ed
ĠJ u
E S
Ġh im
ĠEi n
Ġde p
Ġsu ch
Ġs et
ak ing
ot her
o le
/ /
ĠI s
ri b
Ġag ain
ver n
Ġde c
il s
at her
id ent
ĠH er
Ġ '
Ġ201 9
ess ion
Ġun s
al k
Ġ #
v ol
a ve
oi nt
Ġd own
la y
e e
Ġd urch
l ass
Ġma de
is ter
ĠP h
olog y
u le
a ct
Ġserv ice
Ġs ol
ĠW h
O N
Ġv is
Ġein en
ĠJ an
Ġau x
Ġre ad
ic s
Ġgo od
Ġ201 6
Ġ X
: //
Ġb l
n o
oll ow
Ġd ass
ali ty
Ġus ed
ul l
r ent
ĠU S
r at
Ġo wn
Ġ1 1
Ġn ow
Ġp ass
ti que
lis h
Ġpla ce
l or
u di
Ġc ould
ĠR es
h t
ra g
et er
h l
ig en
ĠM it
Ġein em
ĠL es
p ort
Ġli fe
el y
ag n
A N
z en
es ch
y p
Ġma is
Ġh ome
Ġdes ign
Ġc li
c er
Ġman ual
ĠG u
Ġh and
Ġw ay
y n
Ġun ter
Ġp ra
ili ty
ĠE ur
a pp
ch es
- -
Ġw i
al le
ĠS te
Ġse e
we en
ĠI l
Ġ3 0
ĠA ll
Ġg rou
fer ences
ĠE ng
Ġc ap
Ġc or
D e
v ed
Ġbe ing
Ġs ystem
Ġs it
Ġ201 5
ĠJ e
ah l
Ġc al
as se
ĠP re
Ġde velop
ie ld
Ġte am
Ġd ay
it al
u la
ut s
ĠD er
ro ss
Ġm ain
2 2
fi n
ĠA us
Ġst ar
Ġsa id
li chen
m es
Ġt re
ĠH o
n ter
ur y
4 0
Ġe ar
ĠC an
Ġbe fore
ĠQ u
Ġe ven
an te
Ġh ist
oi re
il la
Ġad d
ĠM on
Ġf ound
r al
b y
iss ion
i o
" ,
Ġd oc
at z
Ġdiff er
st and
te t
E N
ic t
ĠC omm
Ġl ar
la ck
A R
Ġor gan
er en
" <
s h
D ie
Ġc our
ti k
tern ational
end en
ti ll
Ġsh ould
Ġw orld
de m
Ġg reat
is che
ĠRe g
Ġd id
S t
ĠP l
tic al
ĠZ e
li che
ail able
ĠC o
Ġbet ween
f a
c ou
ĠD es
nn en
b ar
n en
Ġre t
Ġpers on
Ġp op
Ġle ad
Ġb usiness
E x
je ct
ig i
2 1
ĠB u
Ġ201 4
Ġe mp
Ġm uch
2 5
ĠT ra
c le
o ci
Ġs ite
or m
ten d
om en
ta b
p ro
ar m
Ġpro gra
re i
Re ferences
a w
ri d
ĠU ni
ot re
ĠG o
al t
ction s
A r
Ġc are
Ġa ng
g t
le i
i or
um e
ĠC ent
Ġin formation
e ver
Ġc ur
ti l
Ġsec ond
ĠS he
Ġt em
u ally
ĠUnivers ity
Ġn om
Ĥ ¬
t he
p or
ĠA ug
Ġs ou
ĠS ep
ut sch
ĠG er
c l
Ġd uring
Ġk o
Ġ201 3
Ġp ost
Ġi de
Ġno ch
Ġf ollow
at or
ro l
an z
Ġwh ile
un k
Ġt out
Ġh ere
Ġpro duc
.. ..
ra te
A T
le ase
Ġan s
Ġc er
au f
en se
Ġav ailable
Ġre qu
Ġcl ass
Ġbe c
Ġg ro
Ġcon f
re en
tic s
Ġz w
Ġn ur
Ġ19 4
o ard
ĠAmeric an
om an
osi tion
en te
el d
W e
ĠM ay
nd e
Ġre ce
ear ch
ai nt
Ġspe ci
ĠI ns
en g
Ġta ke
u er
Ġ201 2
Ġk ann
ĠB ar
tem ber
Ġch ild
igi n
Ġa ct
Ġg ener
ĠM ed
Ġpar ti
ĠA ng
Ġli e
Ġ2 5
ein e
ri end
is ch
ed er
Ġth ree
an e
2 4
Ġm o
ĠG ra
Ġm et
rie d
or g
Ġg en
Ġsch ool
Ġpub lic
s te
Ġpro p
ĠD as
y le
Ġph ot
h re
Ġd ist
Ġ2 4
ers on
c cess
ut z
o ff
Ġal le
Ġb as
bur g
ust om
Ġe ach
Ġent re
ĠF i
ĠF eb
ĠS c
le ment
Ġf ree
ĠI f
ĠUni ted
Ġth ose
O C
Ġme hr
Ġp oss
ic i
Ġb oth
ot s
Ġon line
el n
le y
Ġcon n
re ich
li g
Ġdo es
k en
Ġri ght
w a
Ġf ran
lo ad
k a
Ġto p
ĠN o
Ġs ing
Ġ19 5
Ġg es
ĠA m
p l
Ġcon tin
ĠA t
it z
Ġc ount
Ġw ant
ĠC l
ck s
L a
Ġc as
Ġin f
Ġr un
Ġdis p
ĠL and
Ġimp ort
Ġb i
ĠC hi
Ġr en
Ġs ame
2 3
Ġb re
ier t
age ment
i ti
b um
ge b
6 0
v an
ir d
Ġp rom
ĠP e
o f
g y
at en
ĠM us
Ġth ink
Ġf l
Ġcom me
Ġsh ow
Ġd a
Ġa ber
Ġb ro
Ġa round
od y
Ġcon c
Ġinclud ing
ak es
Ġe v
Ġm en
Ġ201 1
m o
b ook
a f
Ġpro cess
ĠA pr
ar n
Ġ ;
ust ra
b or
ĠB l
Ġfil m
Ġbu ild
Ġc le
ber g
am i
Ġt ou
Ġ201 0
Ġst and
te ur
Ġ* <
Ġfam ily
Ġm ark
Ġd ri
Ġf re
al d
lis hed
U R
8 0
as ter
U n
ĠH ow
ul ation
Ġt ri
Ġnum ber
ĠT o
v is
Ġper form
h or
on y
ard s
ĠJan u
O n
ĠâĢ Ķ
id es
! !
Ġn on
ri ch
I S
O R
Ġv otre
Ġ x
9 9
ord s
ide o
Ġop en
Ġi hr
A n
l ess
ĠA ut
lo y
Ġres p
Ġm ach
Ġ1 00
ĠA uf
ove mber
Ġf un
ber t
ĠC ount
r end
la ce
Ġa ff
P ro
. ,
or te
ĠF u
Ġfa it
le ge
iv id
th s
ĠW ar
g ed
n et
ti ce
oot ball
Ġe as
Ġv e
am b
i ties
ĠSep tember
am m
g s
Ġw on
Ġc ette
at ter
Ġl ast
il m
C h
j ec
Ġs es
w are
Th is
Ġv ol
ĠCom p
Ġsta te
ĠThe y
Ġs om
Ġo per
r um
Ġf our
Ìģ ,
ĠP a
Ġl o
ĠAug ust
ct ure
Ġ2 1
Ġqu es
ĠF re
Ġs till
le x
Ġhab en
an ces
w ork
ĠG es
ĠApr il
Ġc a
re ad
Ġof fic
oc ie
Ġdiffer ent
Ġ ...
ÃŁ e
2 7
am s
Ġsm all
il t
ĠFran ce
ĠA pp
ĠI m
rai n
Ġpro ble
w ays
ĠS erv
an a
Ġs el
v ir
Ġprof ession
it a
st a
uss i
con om
ĠFeb ru
Ġde ux
ĠG ru
Ġserv ices
A L
Ġl ove
ĠS i
ĠS outh
ic he
u de
Ġp o
ire d
Ġn ous
tt p
Ġus ing
ĠY ork
ĠM o
9 0
ot t
Ġv o
tern al
> "
ÃŁ en
j a
Ġ2 3
re t
2 6
ĠN ovember
le t
Ġk e
Ġor igin
A S
Ġ19 3
Ġpri n
u en
ĠN ach
i nter
ric e
Ġpre m
ĠN ational
ĠP er
ĠW orld
Ġde v
Ġm ov
2 8
ain e
Ġin st
ĠSch ool
Ġg iv
ke it
I T
re g
Ġof fer
ĠB ut
is te
ell es
ĠCh ar
cha ft
W h
y pe
or ies
Ġ +
che d
Ġh um
Ġre la
Ġs ign
Ġis s
n z
Ġcomp any
m ed
ĠI I
j or
ĠB ri
Ġdis c
ĠB ro
w ar
g o
a x
ĠF ra
Ġpro te
Ġwe ek
ta ge
ĠA ss
Ġre ally
all s
on es
air es
i ence
ĠP oli
Ġare a
ar ch
ĠD i
Ġte chn
et t
ad a
ĠO ff
ri es
illi on
d it
ali te
e ur
Ġd ra
Ġser ies
Ġc ri
end er
ĠE s
ĠO ct
ww w
Ġ5 0
Ġ2 2
nd er
Ġ =
Ġa ir
ĠC he
o ber
Ġw ater
p iel
Ġ200 9
Ġg ame
Ġk m
li er
Ġh o
le v
op h
is m
Ġhe ad
ĠSt ates
ĠS an
Ġf ew
Ġagain st
ent ly
A l
ĠA u
al y
ĠN orth
ro s
y l
Ġp ower
ĠS er
ar be
Ġb ien
E n
7 0
id s
Ġinc re
Ġd ata
Ġor der
Ġa ussi
ĠN ot
Ġapp ro
are d
Ġo cc
Ġse ason
Ġc ustom
Ġhe alth
, <
r as
st s
im es
Ġo ld
v al
r ew
f ahr
Ġon t
ie le
ĠJ ohn
Ġpl an
Ġd am
Ġn ame
pp ort
Ġsi nce
omm en
ĠRe p
d es
Ġ200 8
and er
us h
Ġn ou
u it
I C
am er
U S
p i
te mp
2 9
ĠTh ere
Ġv om
Ġlin ks
Ġl ang
ub lic
pe c
ĠD u
R E
Ġm al
vern ment
d ing
Ġtra i
le ich
ie t
Ġcon ta
ut es
ĠL u
Ġb el
op p
we ise
Ġto o
Ġf riend
_ _
ult ure
Ġt it
eb en
ig er
ĠC ity
i um
4 5
Ġre f
ul ti
ĠK o
ĠH ar
ap er
Ġwe bs
ĠD is
ag ue
g u
enti al
Ġv al
Ġimport ant
Ġp ay
E i
ĠC or
m ail
ib t
one y
Ġgo ing
g ru
id ed
os ed
ric t
Ġha pp
f ol
Ġâ Ĥ¬
Ġsupp ort
ĠW eb
ag er
am ent
ĠD OC
r ont
Ġs k
Ġl ater
Ġla w
te ment
Ġwith out
Ġun til
m y
ro om
i no
ĠP ark
ĠCount y
Ġgrou p
ot es
ĠPar is
Ġf ut
ustra li
L es
A C
ri ght
Ġmus ic
Ġac cess
o o
Ġplay ers
ĠM y
Ġd ou
ch ie
b ed
Ġg ew
Ġse ver
i ge
ĠA ir
Ġne ar
3 5
Ġs ay
Ġb ed
qu i
ta li
Ġle t
ĠS pe
Ġkn own
Ġs ow
tt le
an de
g li
Ġt rou
ĠZe it
ĠFi n
Ġlar ge
tic le
I t
ĠW est
ĠMar ch
ĠF e
ĠM ark
ĠH a
ward s
duc ation
Ġwith i
Ġwithi n
Ġh ouse
und en
tern et
Ġs ci
th ing
d t
Ġl and
Ġ2 8
ate ly
" :
c ont
r ong
Ġf ull
ri n
Ġbe au
Ġan other
Ġprogra m
etz t
Ġin v
a e
Ġle vel
H e
7 8
lo ck
is cher
Ġ2 6
ĠB es
Ġw rit
n f
Ġsu ccess
Ġpar tic
Ġrec ord
g lich
L E
il es
ti me
Ġch ange
c ol
tis h
ur al
ĠJanu ary
os ted
Ġp oint
ĠS a
s er
ale ment
di n
Ġgu ide
Ġu ti
ĠV or
ce mber
m al
Ġg rand
Ġke ep
Ġli ttle
> -
Ġs oll
ĠA f
ch ni
um mer
ĠV i
Ġne xt
Ġ200 7
0 1
ĠW ith
ĠM u
Ġr est
Ġt ro
ten s
Ġf em
C om
ĠS aint
Ġm ust
Ġcom e
Ġ line
er ing
Ġth ings
Ġle g
ĠB ra
Ġ2 7
Ġf aire
ĠEur ope
Ġs y
am ed
el a
ill s
Ġvi ew
ĠJ une
Ġh ard
Ġ >
Ġd ays
Ġb ased
ĠK ar
Ġre l
Ġexper ience
lei n
Ġr ou
Ġpra c
ĠD o
ir es
ze it
Ġv ari
Ġal bum
] <
sch a
l os
Ġloc al
Ġpro per
Ġst ru
vir on
= "
Ġwie der
er k
z u
ĠH igh
ĠOct ober
c ing
enn e
all en
ck en
3 3
Ġ ess
r er
our ce
he it
ĠChr is
Ġcur rent
B e
Ġc ost
ĠE l
om i
Ġind ust
Ġcom pe
v ille
Ġe vent
u tions
9 5
Ġj us
Ġch o
A s
ier en
Ġpers onn
la g
en z
Ġal ways
Ġ .<
x im
Ġch ang
j et
Ġle ur
ich te
Ġf ootball
le g
Ġm ag
ĠA nn
ĠIn ter
Ġcon stru
em ber
Ġapp lic
ĠSt re
S ch
0 5
ind er
ar a
Ġind ivid
ĠJu ly
ĠFebru ary
Ġf ac
Ġb ig
it es
ĠS ec
ĠT er
l as
m et
th ers
b ack
Ġf ra
ap an
ĠK on
, "
. âĢĿ
y ing
pe ct
Ġj ed
eth ing
Ġde li
Ġ %
Ġbet ter
b st
Ġchild ren
vi ous
ĠH and
Ġb ir
Ġwebs ite
is on
Ġcons ider
Ġin te
Ġc amp
ta it
Ġro om
7 5
it te
Ġal ong
Ġsu per
ost en
Ġfil es
lu de
hr en
di tions
Ġfollow ing
v re
is ts
tin e
Ġfran c
ta ble
ul ts
Ġin t
fic ation
Ġ ?
L i
b es
u k
Ġne ver
bi n
Ġw ri
er y
Ġg ar
m ann
y d
Ġpe ut
ĠâĢ ĺ
iv ed
i x
A d
Ġd ar
0 3
Ġl ess
Ġad dition
ĠR a
u ck
oi ns
ress ion
Ġ !
Ġh ier
Ġm er
Ġ200 6
ĠDe cember
g a
ol f
Ġt ru
Ġc ity
Ġt ry
te i
ĠSp iel
0 6
ĠM al
Ġma jor
u ment
op s
Ġes tab
z ed
ĠM od
Ġcal led
Ġw omen
ra ft
0 2
Ġprov ide
la i
0 4
or i
d ic
em ei
at ures
Ġj ourn
Ġsever al
D er
ate g
gh ts
ha us
Ġb o
ĠF l
ĠV ers
ou ght
it t
e ment
âĢ Ķ
ĠSta te
Ġco ver
os p
ti er
ĠM c
min ist
u ation
am en
Ġd ann
ĠS w
am a
Ġs w
Ġe lle
hn e
E D
Ġb ar
> Â
iv ing
p is
amp le
Ġs ong
Ġe qu
Ġre view
u ter
Ġg row
m ar
Ġp ut
g est
0 7
ond on
Ġre le
ĠE d
Ġ ers
h and
hi n
ĠB re
Ġmem bers
Ġfa ct
0 8
our ces
gn e
ĠB as
pp e
Ġab le
ĠD av
Ġl ot
ore d
vel y
Ġse x
ag en
le b
ai ns
id en
ĠGer man
lo b
ĠA ustrali
ĠH ome
Ex ternal
Ġd ro
Ġw a
Ġs ure
ĠChr ist
n st
Ġ2 9
ub e
Ġc la
3 6
ĠPro du
g el
t al
Ġres earch
Ġp ou
um p
la ge
ir c
Ġposs ible
Ġg ot
Ġst art
com p
et work
s on
t te
Ġge gen
Ġg ive
Ġle ft
Ġp ie
Ġsom ething
w ick
Ġli st
h am
r t
ĠV ol
ab les
li ck
E L
ĠS m
art ment
l ung
ri er
S e
Ġcer tain
> âĢľ
oci ation
ĠD ep
A M
ti an
0 9
e ct
Ġst yle
Ġso cial
4 8
agn e
b u
Ġt our
Ġp age
f ts
Ġtra v
ĠG ro
z a
Ġpe u
Ġbe lie
Ġen c
Ġse hr
le c
Ġ ...<
O S
Ġw enn
Ġwork ing
Ġe lect
ograph y
F or
Ġm om
ess e
te il
iz ed
for d
ĠP ra
ail le
s y
Ġv iel
19 9
Ġde ath
st ra
ĠI S
ĠB o
k er
Ġchar ac
m on
ard i
Ġh al
r s
is se
ĠSch w
ĠD ies
Ġm aking
Ġbec ame
ĠH ol
Ġ: <
ir t
Ġear ly
3 8
T e
re is
Ġa li
ch i
ce pt
iss ance
es ts
d o
um b
ul es
Ġinc lude
Ġt yp
fer ence
Ġf ood
Ġh om
oin ts
re am
is ten
ra ge
Ġat ta
Ġs ans
k y
Ġcont rol
illa ge
n ner
Ġs ous
Y ou
vi n
ĠA g
ĠM ich
he im
i nn
i nes
Ġc ase
4 9
li ght
ĠB et
Ġcl ub
Ġwur den
Ġin ternational
I f
en de
ate ur
ĠMi n
Ġj ob
Ġcour se
ĠOn e
scha ft
ĠAr t
Ì ĥ
Ġcomple te
4 6
Ġstud ents
Ġm ili
ob ile
ch s
or ge
Ġi den
Ġdies e
ĠR ed
Ġs ide
eth od
Ġr is
ac y
ui n
Ġh i
ah n
Ġall ow
ĠCh amp
C on
Ġmod ern
Ġsing le
Ġhist ory
ur t
Ġemp loy
Ġf ol
Ġp ain
Ġsow ie
ĠG od
Ì Ħ
ti ge
Ġs ig
m ble
Ġas k
Ġof ten
Ġo ption
ĠP res
Ġm atch
n ow
5 5
ich er
om a
ĠM or
Ġt able
ric k
Ġ200 5
Ġm ight
ĠW ir
ĠF am
ĠK ing
Ġeff ec
g ie
ĠG ener
g ar
ĠK u
che i
r z
19 8
ĠB y
ĠR i
" .
O M
ĠO p
m as
Ġdire ct
tt ps
v o
ord ing
oc us
Ġt imes
ĠH ist
ĠR uss
Ì Į
Ġm ulti
Ġp a
ĠT rans
Ġbl og
Ġgo vernment
ere i
j oy
ĠW hen
al en
ĠB lack
ĠD an
ot o
Ġs l
ĠSta dt
Ġst ory
Ġto day
Ġen g
ĠL ondon
Ġv ideo
Ġe ing
Ġha ving
Ġimp ro
Ġl ui
Ġte ach
ze ich
Ġwe iter
or f
ĠIn ternational
ta ur
le cted
Ġp ot
ĠPro f
ĠC as
Ġdevelop ment
ĠE nt
Ġw el
ann e
Ġdies er
gin e
ĠHo tel
st u
Ġf ur
Ġt ype
r d
Ġcommun ity
fe ct
ti ques
Ġc es
un ic
ti gen
Ġf av
Ġre al
Ġ20 00
ĠM er
ft ware
ĠUn ter
Ġn ational
Ġph ys
Ġa way
u ge
Ġm ove
ve z
b and
Ġ4 0
c ell
c is
Ġth ough
3 9
E T
ĠBer lin
>| -
un ity
ent lich
ĠY our
olog ie
om b
4 4
Ġp ort
ou d
r ant
Ġli ve
z er
s ent
ah re
ly mp
I L
Ġli ght
ti re
ir m
Ġein es
b el
Ġi hre
3 7
ab ility
ill es
use um
i od
Ġt r
ĠA fter
ab ly
Ġde ta
r or
ier ung
u el
a ke
ĠDe utsch
ami n
ĠR u
Ġm or
a ff
ĠP ort
Ġg ames
Ġpri v
y e
Ġm ater
Ġaut hor
Ġresp ons
n ey
ĠC ons
hal ten
id ence
Ġqu ality
ur ity
D as
Ġf ar
ti sch
ĠLi n
Ġapp ear
s elf
Ġto ok
Ġl og
ass en
ĠH ouse
get her
u elle
ren ch
ce p
6 5
Ġto gether
Ġret urn
Ġg ibt
an ks
C H
ur b
> (
Ġt ous
ch ite
Ġar t
ce ption
Ġf er
I D
Â °
am men
Ġsch on
ĠA nt
Ġc i
ĠM ag
Ġvers ion
Ġmark et
ĠD on
Ġzw ei
ĠT ex
ent al
m ark
Ġim mer
Ġs av
p on
Ġlook ing
S h
Ġbec ome
igh ts
Ġsim ple
Ġproduc ts
Ġb ody
Ġpro ject
ting s
W eb
oh l
Ġm ess
i pp
3 4
Ġm oney
ur ance
Ġp ati
ĠU m
ta g
ĠG ar
ki n
end ant
b orn
o e
ĠAr be
f s
ar ie
ĠC e
ĠS al
Ġsi x
Ġrep res
h m
ure d
P h
. "<
v a
Ġstud y
ĠRe c
ĠL ou
Ġen viron
Ġcount ry
f l
hi le
Ġdu e
> âĢ
au te
ĠJ un
Ġunder stand
Ġab s
O T
ill er
ĠB el
Ġn a
ins i
. "
Ġ200 4
Ġcom ment
Ġac tiv
ri que
du ction
ĠTh at
im mer
ĠB r
Ġen s
ĠS ur
or en
b ut
ut en
Ġcon tra
ĠH is
Ġf on
ĠB est
ĠP ol
Ġfor mer
Ġb ring
o ver
Ġp ress
Ġfa ce
op y
Ġent er
20 18
og le
Ġ Ð
ab i
ĠJ oh
Ġm ir
n ia
ach t
Ġbuild ing
ĠB a
ĠW illi
rid ge
Ġt urn
S p
tell t
ĠP at
k o
ic a
3 1
Ġse em
ĠG eb
Ġz e
Ġparti cip
ab e
ess en
ali st
ra y
Ġfa ci
f ten
Ġfe el
Ġcon se
ven tion
ĠC our
Ġm id
ic ally
tell en
Ġar ti
Ġ20 20
Ġd ont
ĠD ist
rou p
ograph ie
ĠHow ever
H ow
Ġc ame
Ġpres ent
ĠS ci
Ġen gine
Ġb ra
ĠJ apan
Ġvis it
Ġyou ng
Ġf ield
es tiv
ig ital
4 7
Ġs us
l t
ck e
Ġwe b
ke ting
V er
Ġa ge
3 2
Ġ3 1
iv ision
ĠB i
vol ution
a el
Ġw he
k te
Ġm ind
or ted
ĠP erson
ch te
b a
od es
ĠL o
Ġk ind
ar ing
Ġ( *
ĠD r
Ġs ays
an ies
ĠB ur
ati s
b au
6 6
ri ve
Ġqu el
ĠD ire
Ġsein e
f ace
ĠWh at
ĠH am
und es
ĠM et
ĠNew s
ĠD em
land s
u ed
jec ts
u ff
Ġf lo
Ġhat te
f ach
A P
en a
w h
ĠFran k
P ar
udi o
ĠL ie
Ġorgan iz
c el
ĠEng lish
ing ton
Ġstar ted
ĠAf ric
im m
ais on
t ary
) :
ren ces
Ġb lack
u age
Ġorigin al
Ġmin utes
ĠBri tish
ti tion
n ah
Ġann e
end ing
Ġin vol
ÃŁ er
ith er
Ġhist or
Ġo thers
Ġfu nd
Ġt reat
Ġm iss
Ġl ow
Ġz us
Ġk ey
S o
c re
ĠTh ese
Ġmem ber
Ġle arn
Ġrele ased
ĠW ind
pe ci
Ġprin cip
ĠQ ue
Ġeas y
ĠCol lege
Ġwork s
Ġdes cri
ali for
z i
Ġm illion
ĠB ook
atur al
Ġplay ed
Ġwi n
Ġet c
li que
Ġdown load
al er
Ġbe k
Ġs ens
ir l
Ġb on
I ON
Ġl ors
ass er
ĠOn line
Ġan im
is ation
S u
ot or
Ġb ase
Ġrel ations
Ġs or
omi n
es ter
Ġb r
Ġw ind
Ġfin an
n y
Ġques tion
Ġhum an
an nt
Ġv ie
Ġche ck
as es
ĠPa ul
pr ise
ran ge
ĠLe ague
ĠK om
Ġp oints
7 7
Ġtra dition
Ġfi nis
Ġp at
s en
ĠJ ahre
Ġe ver
ur a
ra m
it ter
Ġcom mer
Ġhe ld
Ġb and
an ti
Ġch a
Ġan ti
ĠD ay
Ġloc ated
Ġf ocus
* *
ĠN ord
p o
n ers
Ġen joy
ĠT ag
Ġb ene
ten tion
f ort
Ġcare er
Ġprodu ction
m ost
al ys
ĠB en
Ġp osition
g alement
Ġbe im
d le
ĠServ ice
Ġwh y
Ġin iti
) ;
I I
ri g
n ig
Ġm ode
Ġn ight
Ġp ast
Ġtem ps
ĠC ont
ĠC ap
Ġper iod
Ġfi ve
l oss
Wh at
uch t
g ing
ĠR ich
ĠR ad
ĠT V
ĠB ay
ĠR oy
' m
Ġm is
Ġb ere
Ġt w
8 8
i ous
Ġme an
Ġneed s
ĠS y
ĠTe il
ens ion
ĠSt ra
meric an
ĠA k
Ġe dition
Ġc y
N ew
ille d
Ġac ross
Ġth ird
al og
ti ful
Ġrep air
ĠW i
Ġex tra
ĠCent er
ocie ty
ĠSt ud
Ġnom bre
Ġn ature
g round
Ġe conom
Ġo hne
Ġc all
Ġ !<
un ch
G e
, âĢĿ
ĠF ilm
Ġ200 3
hi ps
ac tion
O L
Ġg ran
th ough
ĠP ost
hr t
Ġconta ct
A D
ges ch
oun c
eh men
an i
Ġpop ulation
v or
b oard
Ġp ur
Ġn ation
us es
az i
il der
ĠAl s
b l
J e
ci n
c u
Ġcre ate
Ġf ore
g re
c or
es tern
b r
ĠS im
Ġe l
Ġh ttp
om as
E C
Ġt est
v ier
Ġp ack
Ġpartic ular
Ġsig ni
ĠDes ign
ĠA cc
Ġgiv en
n ed
read y
Ìģ .
ĠSu per
Ġm at
ru ck
y a
ĠA c
tic les
wo od
og en
Ġp osi
Ġfil ms
Ġspe cial
Ġm u
w end
Ġc m
ĠS ystem
p art
Ġin stru
ĠM at
co ver
Ġcomm on
M e
Ġhab e
20 19
Ġrec omm
Ġr ange
ĠK ir
M ar
ak en
ĠJe an
n ie
em p
Ġques tions
ĠJu li
Ġw ord
Ġta x
Å ĵ
Ġsei ner
it ch
z ie
Ġd ate
iv es
Ġto tal
tis che
Ġd one
ap s
Ġrece ived
hi li
Ġsp ace
ĠD a
ol s
1 00
Ġd om
lob al
Ġa insi
Ġex ample
Ġch amp
Ġm akes
A nd
Ġh old
Ġp or
ĠT ri
ĠS ing
ĠM ont
Ġa pre
Ġst ation
Ġprodu ct
Ġw ent
Ġperson al
or ing
Ġc ro
Ġt i
h ttp
Ġme ans
l am
ĠO ur
Ġapp e
ĠJahr en
av y
Ġs al
Ġcol lection
Ġint ro
us ion
ak er
li es
ĠSt ar
mb re
ĠCan ada
il ar
Ġmon ths
ell en
ĠT ur
Ġbu ilt
s ite
ĠF er
ic o
Ġth ing
ff en
Ġin form
Ġdiff ic
Ġli ving
ci es
S T
Ġprofession al
O U
H ist
Ġam ong
Ġk eine
ĠCl ub
7 6
Ġ200 2
Ġst rate
ali se
it ure
f ield
at ors
ti ves
ĠA ns
ĠW ork
ĠB au
m ission
Ġe ur
Ġc irc
A ll
i als
ĠS ex
a pe
ern e
Ġfin al
P e
Ġcon tre
Ġbe gan
Ġfut ure
ĠIns tit
ver t
20 17
ab y
Ġli k
Ġzw ischen
ĠG esch
Ġspeci fic
ĠS ol
Ġqu ick
ell s
Ġg eb
sy ch
Ġm ethod
g ion
Ġf ru
D es
k et
ĠO f
di o
uf act
Ġse it
S ee
á Ħ
ĠM ore
z on
Ġon ce
Ġ6 0
5 6
ĠE t
á ħ
id ing
ĠIn ternet
ĠP our
Ġbel ow
ta ins
Ġs outh
ĠK e
ĠT re
Ġreg ion
Ġprem ier
pp ed
r est
5 8
ĠO k
w as
ou l
Ġn orth
en ted
an o
c ar
' re
Ġle ast
Ġm uss
n ov
ic tion
5 9
Ġman agement
att le
Ġpub lished
ĠFor m
ĠW elt
ĠT our
hn en
Ġp urch
h ol
B N
led ge
Ġoff ice
A b
Ġmon th
Ġun ivers
c as
k u
Ġar ticle
ĠU hr
Ġad v
Ġqu ali
Ġb er
Ġmom ent
ag o
N otes
Ġal ready
Ġvari ous
Ġ200 1
I m
Ġperform ance
Ġm ass
Ġun ique
lin ks
Ġo pport
id a
ĠW er
Ġuti li
op a
d a
z y
Ġv ia
Ġen ough
ĠB ed
Ġj u
Ġb it
ĠStre et
ard en
alifor nia
estiv al
ĠP la
ĠPro gra
I l
Ġsim p
Ġm es
Ġnew s
Ġnot re
Ġh ours
Ġdep uis
ĠM ens
E M
Ġs ound
at re
Ġbe g
i ni
Ġtrai ning
Ġp uis
ĠD en
Ġpro b
Ġper fect
Ġwar en
i ques
Ġc ulture
ĠP al
Ġsp a
Ġcomp anies
ĠT op
Ġj ou
ĠDav id
lie ÃŁ
ĠF lor
ĠIn formation
pp er
Ġwh ite
ress e
Ġcla im
Ġv illage
Ġp ol
Ġf ois
Ġt en
Ġmed ia
P re
Ġcharac ter
p f
ad en
ng e
ĠS en
Ġj oin
Ġg re
ys te
es ting
ĠM ac
Ġt alk
r ise
4 3
ĠIn c
Ġbu y
Ġdisc uss
Ġi ll
d ie
is c
Ġfe atures
os es
Ġp ict
ch an
Ġco de
Ġp an
Ġfriend s
-- --
ĠM ai
nn ing
Ġn etwork
qui pe
Ġsi ze
hi nd
ĠJ ack
Ġrequ ire
7 9
Ġann oun
Ġsu ff
Ġp rice
ĠP lan
tell ung
ĠU p
n ung
Ġst rong
ĠTe chn
ari n
Ġv os
Ġte chni
tend ed
z w
f r
and s
ra b
h ab
ĠAmeric a
und e
ie f
ĠN or
hr er
ent re
j our
ĠS am
z ent
Ġb orn
d om
ĠO ut
Ġp aper
and id
Ġprom o
tei n
Ġsu g
Ġcle ar
Ġall er
Ġmon de
p ond
ich ts
Ġget ting
Ġle d
olog ical
Ġth ought
ĠB ei
Ġinclud ed
tis chen
Ġn orm
ĠC re
Ġg ut
Ġc ours
ounc il
ĠP f
Ġab ove
lev ision
he m
Ġprem ie
h ing
li t
4 2
ĠP art
Ġla te
Ġres ults
ĠG rand
i na
ĠC ou
b ild
Ġsh are
Ġindust ry
Ġcom es
u z
Ġg el
Ġpop ular
Ġen er
Ġd onne
ĠHe alth
Ġim m
Ġf it
Ġev ents
Ġproble m
Ġcont rib
Ġto wn
ri cht
it chen
ĠG emei
Ġcle an
ti vely
6 8
ew e
Ġreg ard
Ġe mail
Ġcommun ic
ĠâĢ ¢
Ġ ents
r us
ĠA lex
ot he
ĠGener al
g g
ĠC al
tim es
H E
Ġadd ress
ad s
Ġin ves
ĠP lay
Ġf ront
ĠZ u
ĠB ru
â Ĥ¬
g ress
au gh
Ġbe f
ab ei
Ġs che
IN G
Ġs ent
Ġc ra
Ġcre ated
Ġbook s
ant es
ĠLa w
Ġf ast
Ġhal f
is ed
Th ere
Ġi tem
ĠO b
ĠSt and
ĠInd ia
Ġ @
Ġcont ent
Ġpre vious
Ġfav or
Ġpar ty
ĠF rench
m ie
Ġc ook
z o
Ġal ors
ang er
Ġfe ature
ar ge
a ise
Ġare as
ign e
ĠV e
i ff
ĠChi na
4 1
Ġh on
is en
ier te
ĠE ast
pis ode
Ġav ant
Web links
ag ed
Ġand ere
Ġsu iv
Ġrem ain
ĠS il
Ġag o
Ġa me
ck ing
ĠInd ian
og ni
er ve
au er
ĠM ad
ell er
it ation
B C
Ġm ich
Ġo bs
st ag
Ġer st
Ġro le
Ġtra vel
A t
und er
Ġfam ili
Ġf ig
te ad
min e
Ġri ch
Ġe ducation
ĠChamp ions
Ġv ide
Ġfur ther
or es
Ġdo ing
b it
A merican
Ġre d
Ġwri ting
Ġenc ore
ch ts
he l
b ach
b o
Ġn amed
ĠU K
Ġtro is
ĠRi ver
ĠJ ames
ep end
Ġren cont
Ġtechn ology
ĠS k
Ġread ing
Ġj a
Ġad minist
Ð ¾
Ġ ?<
re ib
Ġnou ve
ĠI N
Ġo pp
ĠH all
Ġbre ak
ot a
E r
der n
p a
ann ing
ĠB undes
it ung
oli s
Ġiss ues
ĠI mp
li ed
c ur
A G
it ere
ol es
P S
Ġval ue
f it
am t
ie urs
Ġli s
Ġad van
ĠG roup
Ġgener al
ĠC alifornia
Ġb rand
6 9
Ġp ays
gen cy
ĠB usiness
' ve
ck er
tim m
un st
ol a
ĠF rom
un a
Ġcent ury
ens ive
Ġre ason
5 7
hi re
ĠF a
r ence
Ġact ually
Ġenviron ment
ĠG ew
Ġestab lished
os te
ĠH u
os er
un ter
Ġg er
ĠT or
Ġres ult
20 16
Ġdies em
Ġc aus
Ġt as
au pt
Ġse en
ir it
ĠW o
ĠI hre
Ð °
ĠE mp
ĠF ree
Ġide as
il os
hr end
Ġb lo
Ġsp iel
Ġr ound
ge ben
he ad
ut h
ĠMich ael
ĠC le
tel s
z ahl
o on
as ing
il ling
ĠDeutsch land
O r
Ġw alk
la d
eh ic
Ġt u
Ġs elf
Ġ199 9
azi n
k ing
Ġsigni fic
ph one
c ts
Ġa ction
ĠWh ite
Ġand eren
Ġdid n
Ġmod el
Ġb ox
ĠD el
ĠA ct
ili te
ĠE lle
Ġver b
Ġw o
ag i
chei n
li m
Ġse arch
N e
la bor
ĠR oman
Ġp lease
Ġbir ths
s ident
te urs
y m
ĠGru nd
ĠM en
Ġproper ty
ie der
Ġer sten
Ġou ts
Ġup d
ĠEx p
v oir
tit ution
ere ich
c ome
p ra
ro ll
ag ing
res h
ant as
g ew
I G
al a
ĠDist rict
Ġw en
Ġs il
Ġbeau tiful
Ġ199 0
Ġpri x
ĠO lymp
ĠServ ices
Ġfun ction
ĠT w
ĠF ace
Ð µ
Ð ¸
ĠCh urch
y er
i tion
I M
Ġsystem s
Ġwrit ten
qu er
ver age
ĠM id
Ġhow ever
lin es
ier re
ĠS ome
ĠEng land
Ġoff ers
ĠW al
ĠB and
ĠRo ad
om me
ĠP ress
ĠK inder
Ġconstru ction
m ary
T ra
Ġsel bst
ĠH aus
peci ally
.âĢĿ <
9 8
gen ce
end re
ĠC lass
", "
ĠComp any
ĠAustrali a
st ad
Ġn i
ran k
Ġy et
hal b
Ġte xt
ig t
Ġdon c
ing er
Ġchar ge
Ġex tern
ĠJahr h
un s
ĠA M
Ġme as
ti ci
ib li
ĠI ch
ĠPar ty
vel le
EN T
Ġm ai
Ġc ut
Ġre fer
ĠZ us
Ġc at
ris on
ĠF irst
Ġb en
um s
Ei nz
Ġh or
n te
6 4
ĠG reen
fol g
ss en
at us
ist ance
ou te
u c
I V
Ġca use
w ei
Ġcol or
Ġfaci li
ĠU s
Ġrecomm end
Ġpar tie
Ġplay er
ĠB ank
tain ed
Ġinclud es
Q u
Ġra p
ra it
ag s
ĠH el
Ġdesign ed
Ġe mb
ĠA re
l us
ĠC up
ĠH en
Ġe ither
ĠE ar
la gen
5 4
ĠC amp
ĠIS BN
Ġt aking
Ġserv ed
ĠE m
Ġb ad
Ei n
Ġc ard
n el
Ġrequ ired
iss ens
Ġdiff e
Ġv ille
' ll
ful ly
i ft
Ġcl ose
ĠE ins
B y
Ġphot os
rie b
ĠRo bert
ĠS on
Ġm oins
op er
f te
Ġcon ditions
Ġein fach
Ġme ille
alys is
t at
i ted
Ġd ur
Ġqu ar
ĠP i
ĠD E
Ġen tire
b t
6 7
Ġprov ided
m us
ri ff
h an
Ġsim ilar
ĠP an
Ġde fin
W hen
Ġhe art
au fen
ĠG re
ĠG old
ĠTe am
ai ent
Ġde ter
nis ter
p ris
ĠL ab
ĠW ash
ĠR ock
ven ue
ur z
ie ux
n c
Ġcom bin
Ġinv est
Ġevery thing
ĠMus ic
ĠTh omas
Ġm m
u als
| |
ĠUS A
T o
l uss
ĠChi n
Ġw ood
it ar
at o
Ġli gne
gli ed
ov ed
ĠP eter
A ut
unic ip
lai n
ve ment
ail y
Ġim age
Ġwho le
os ing
Ġfi re
u ite
at ory
Ġinst all
P osted
c ast
Ġb oard
Ġapp ar
hl en
Ġener gy
ĠChris tian
5 1
ro te
5 3
lich er
Ġpriv ate
ch ten
Ġv arie
ĠGo ogle
Ġk onn
Ġmi x
uts chen
ze ug
ĠN a
Ġde f
Ġw an
Ġaut om
ess er
Ġt aken
Â »
5 2
b on
Ġass oci
ĠP M
ob ili
C ar
ell ow
ĠN i
.... ....
Ġ199 8
A m
ĠP hili
ci ous
ĠK n
ur er
Ġc ann
ti vi
ati ves
ke iten
> [
ge me
ĠRe ad
ĠJ os
et y
Ġcent re
ra d
Ġhapp en
Ġprac tice
Ġch urch
Ġj our
h u
ib ility
es ted
Ġfind en
Ġb al
Ġd rei
Ġzur u
Ġge ho
ĠY ear
iss en
Ġwork ed
F i
Ġg em
or ie
ĠLou is
ec u
Ġd ivers
Ġle urs
ĠReg ion
Ġs ource
hal t
Ġappro ach
wer k
b our
U N
ĠAss ociation
Ġc iv
ĠO ber
ĠFam ili
Ġe le
ĠB ild
Ġk ein
R O
Ġloc ation
p hi
Ġacc ount
Ġle ar
g end
Ġci n
ic ro
pp en
li k
ĠWilli am
ff entlich
Ġk omm
Ġde utsch
Ġdoes n
tivi ties
oli c
ĠF ahr
Ġ18 8
ens ch
ip ment
cent ury
Ġide a
ĠM em
>âĢ ¢
ce ed
ĠL eb
ach weise
k tion
Ġav oir
Ġadd ed
Ġprov ides
ĠA ward
Ġn os
ĠM useum
ĠGe orge
Ġpar ts
p ru
Ġth er
ei nt
h av
ĠS ub
Ġen f
Ġw atch
M y
Ġw u
Ġsta ff
ri te
e ting
Ġsit es
ĠU r
st on
Ġlin k
ar ies
ĠPres ident
Ġ; <
on de
Einz eln
Ġg round
Ġsome one
Ġch er
Ġaut res
ĠC la
Ġres taur
Ġri ghts
el ves
f ied
ĠM iss
ve y
ĠM as
Ġst re
Ġfe e
i ent
ĠR em
ĠCh a
Einzeln achweise
Ġsta y
Ġs qu
ol le
Ġa chie
ĠUn tern
Ġ- -
> â
ĠLi fe
tic ally
com ing
ĠF ar
Ġst ock
Ġrep ort
Ġmach i
Ġe lection
Ġp ick
Ġdist rib
Ġeff ect
Ġal most
Ġv ac
ĠC D
j i
ĠÂ ·
Ġ8 0
pp ing
Ġexper ien
Ġag ree
ĠA N
or der
Ġman ufact
ad es
Ġg leich
Ġg anz
ll en
Ġle tz
ĠW il
Ġn atural
ĠI de
ep t
Ġdam it
N a
Ġjed och
Ġcontin ue
as ons
Ġb le
ĠJ ourn
Ġali gn
Ġso on
ĠL y
ĠL ib
I s
Ġp u
ĠMens chen
y ear
Ġso ftware
Ġpoli tical
Ġper met
el ling
Ġtit le
duc ed
ĠE v
w ir
Ġvi ol
Ġdoc ument
ng er
Ġro ad
Ġinf lu
ho od
Ġcli ents
. )
w est
i nf
I P
mit tel
ca dem
ĠT est
Ġfi x
I R
Ġex pe
Ġsh ows
Ġjus qu
__ __
ĠEurope an
un es
Ġiss ue
Ġse ction
H o
ĠM il
S ta
ran ce
7 4
Ġapplic ation
ĠAr ch
Ġa p
c an
z ing
re ment
Ġsub s
ĠI tali
Ġplus ieurs
ll es
w i
e ks
Ġsci ence
Ġh ope
Ġbere its
Ġne ue
Ġex tre
Ġtou te
ĠG reat
j ours
ĠR ob
em ple
Ġstand ard
T M
Ġso it
Ġl ost
omm es
Ġp i
ĠJ o
Ġ3 5
Ġein z
Ġre li
Ġc ross
ĠV is
Ġb ou
av ing
Ġcor re
Ġw all
Ġes pecially
ess or
ult ural
Ġwon der
> #
hr ung
Ġf ab
ab en
ð Ł
ĠP et
own load
20 15
Ġus er
Ġw or
Ġz we
Ġwhe ther
Ġi r
ĠS and
Ġde al
c rit
Ġg esch
ĠV ir
Ġiden tif
ch ange
ĠM ass
Ġproble ms
g leich
ra le
Ġsol ution
Ġdou ble
ers hip
Ġco ach
ĠIs land
I nd
Ġv ehic
Ġuns er
ir ls
Ġpur p
ĠT i
N o
ĠP o
la ub
Ġan ci
d s
Ġb ie
z ation
Ġst ra
l ang
Ġspeci es
Ġalle m
med i
vers e
azin e
erv ed
ĠG en
Ġsu ite
Ġar ri
Ġreg ular
ĠWash ington
ad o
Ġre cher
Ġa ward
g ang
Ġlang uage
or ial
r ist
ĠM ary
T E
Ġbelie ve
Ġ9 0
ke y
f ra
ĠRep ublic
M it
at est
or din
i ze
is ting
Ġso ci
Ġse par
Ġ )
ĠM ain
ĠN ow
Ġup on
Ġthrough out
Ġcomm une
ĠU nd
s c
ster reich
ĠP en
Ġsec urity
Ġsignific ant
b at
f eld
oc ra
Ġli ter
Ġm ein
ĠT ro
Ġac comp
Ġl oss
Ġb ur
ti en
Ġs ale
ĠM ex
ree k
Ġpla ces
Ġdie d
chie den
ep h
Ġw ww
at form
ta il
ĠMar tin
Ġind ic
Ġsci enti
Ġf la
ac es
Ġ199 7
Ġne cess
Ġbe hind
7 2
Ġt ourn
Ġv an
ĠC ouncil
R A
Ġc oun
Ġ199 6
Ġbes te
Ġphot o
ĠSch u
ĠW ei
Ġfor ce
uts che
Ġv en
fi ni
ĠÂ» ,
m l
S S
f ang
o lin
Ġuns ere
Ġconc ern
Ġg rat
ig ns
li te
Ġc andid
Ġr ather
as ion
f re
Ġinter est
ex t
ĠSp ort
te xt
yn am
; <
ĠRe view
air s
Ġst ri
Ġcou ple
stad t
Ġte levision
b les
p la
d y
Ġ198 0
l en
Ġneed ed
ri a
T S
ĠG et
Ġdescri bed
ĠC a
c tive
I E
" .<
l ar
un t
rit t
Ġin tern
d ers
Ġchang es
6 3
ĠChar les
r il
ĠB al
oi x
Ġabs ol
e z
Ġcustom ers
iv al
7 1
l ation
Ġpe tit
Ġf ather
Ġfinan cial
ct ors
Ġcurrent ly
7 3
z ug
M an
Ġouts ide
un kt
ash ion
oun tain
el es
ĠFace book
ĠB uch
Ġw ords
h ist
ĠRoy al
ri r
ĠUn ion
vi nce
m ic
Ġpar ents
Ġh ttps
ari o
Ġgra du
Ġre lease
Ġf ul
ist ry
Ġus ually
? ?
Ġtout es
ĠOr gan
Ġar chite
at u
Ġtra ck
ik an
Ġd im
Ġim ages
id ents
ĠW a
ĠO ri
ĠA v
Ġp rend
Ġt ur
F u
tel le
Ġmov ed
Ġper cent
ĠT od
ĠDep artment
k es
ict or
ali ta
Ġt akes
is es
unk tion
Ġzus ammen
Ġgrou ps
f ie
ĠF em
nd en
Ġpri or
Ġj ud
iter atur
az u
ĠMan agement
Ġl ay
a ign
Ġal tern
Ġcomple x
Ġac qu
O P
end s
ĠB ad
C C
Ġre ach
A B
Ġdist rict
ĠT u
Ġcent er
Ġhe ute
oc ation
Ġtru e
le ur
Ġdeta ils
Ġbe gi
th le
Ġs ti
Ġpoli cy
ĠH och
g ers
Ġpl ans
ĠR os
ĠR et
Ġat tra
und ert
Ġk om
or age
Ìģ <
>|- <
Ġ7 0
itte e
ĠIn f
6 2
Ġmess age
S ie
ro id
a ling
Ġat temp
6 1
Ġsit ue
z ei
ow ers
Ġv a
k on
Ġmen tion
Ġche z
ĠV an
Ġ5 00
ĠCour t
Ġo il
Ġany thing
Ġrun ning
ar ian
ĠC ur
il a
ew er
ut ter
Ġfon ction
e u
Ġlear ning
Ġra te
Ġat t
b ra
Ġet was
Ġoption s
u ti
ail s
Ġmain ten
Ġquel ques
Ġknow ledge
ĠP ower
Ġam az
Ġm obile
k n
20 14
Ġin j
Ġm ort
Ġmin im
ĠÂ £
ho f
Â ®
Ġme et
Ġwan ted
ĠD ou
ff ic
ad ian
A fter
Ġch allen
ot os
Ġtyp es
ĠMar i
Ġad ap
ĠOp en
Ġre mp
ĠP ub
ĠB ig
Ġf ai
ĠV o
ĠUn e
s ente
i nte
Ġbi n
ĠS om
Ġsch n
cri pt
oc al
um i
R es
ĠN ov
Ġcomp uter
Ġro ck
k la
ĠBl og
t ant
Ġph one
Ġd og
Ġ18 9
Ġac tivities
Ġbir th
Ġh ous
ci te
ĠL ove
Ġd igital
Ġmed ical
20 13
er re
Ġtreat ment
Ġcou p
velop pe
alt ung
om s
Ġam ount
ĠB on
Ġqu ite
Li ens
Ġrela ted
ov ers
Ġ199 5
h ouse
nis se
Ġav ait
l ot
Ġstru cture
Ġindivid ual
ed ding
Ġconn ec
Ġma xim
ĠH um
ardi n
Ġp m
hl t
Ġge ht
Ġsa f
Ġstud ent
rie ur
Ġw rote
ĠA cadem
A pp
eder al
Ġcom ing
ĠC ong
Ġm ois
5 00
hi bi
Ġst ore
ts chaft
Ġw ays
mi ted
Ġplay ing
Ġcont ro
alle y
ilos oph
Ġgrou pe
Ġmachi n
ad y
ĠT a
g al
ist ant
Ġevery one
b ox
g ung
Ġb ud
Ġno vel
w es
o ft
col or
ĠD ar
F F
Ġsimp ly
A A
v ie
temp or
h old
u ments
sh op
la uf
Ġrepres ent
Ġextern es
Ġsein en
Ġcon st
f its
Ġat tend
on ce
Ġce leb
Ġhigh er
Ġu l
Ġfor ward
ati que
ĠG a
Ġpoli ce
Ġh it
Ġmais on
ĠDe velop
ed s
ci pe
en k
cell ent
Ġestab lish
au d
ĠS el
Ġtou jours
ly ing
g ent
ĠP C
ed ia
ĠPl us
ĠSe e
Ġp le
": "
Ġsit uation
8 9
f alls
ĠE nde
y es
Ġto ld
ien n
ĠG i
Ġannoun ced
ĠP ublic
tik el
lein e
ĠW ohn
P our
we et
Ġsc reen
b uch
ite t
Ġe d
ĠSt u
Ġt rop
Ġd an
t ty
ur en
ĠInd ust
ĠW omen
ĠE ner
to ber
ĠW as
Ġst op
Ġli c
Ġtrav ail
ĠC ro
Ġd iv
Ġmachin e
ru g
Ġrece ive
Ġv iele
Ġ[ ...
er i
Ġsol utions
Ġlead ing
Ġter rit
Ġs ales
ĠPri v
Ġmar keting
ĠO s
C ol
Ġaddition al
Ġdra w
Ġ197 0
Ġwe eks
B i
am ment
cl us
Ġ199 4
cou p
Ġcour t
ali zed
ri ge
Ġp ric
ĠM el
ille t
Ġvers chieden
ĠS T
ĠInstit ute
gru nd
ĠL im
ĠWind ows
ar es
b ased
Ġb ank
osp ital
is me
Ġdeli ver
Ġins ide
Ġconsider ed
ĠC er
P ri
ĠE nd
ul ations
z immer
ĠA ma
o ke
ĠS ociety
Ġser a
20 12
t ation
Ġlie gt
Ġ20 21
ke hr
Ġt ell
Ġelect ric
li p
M S
te au
ĠSci ence
opp ing
Ġsta ge
alis ation
ĠH al
e au
ĠEur o
ĠJun i
Ġpas se
Ġb ath
Ġrec ogni
Ġ0 9
ĠD aten
k ar
il er
Ġv it
E s
erv ation
Ġsug ges
Ġ4 5
Ġprob ably
ĠRes earch
ti te
Ġgo al
Ġsu is
Ġsa w
Ġproduc ed
Ġj etzt
Ġlik ely
C E
Ġlong er
or ting
Ġm illi
Ġacc ording
h ttps
I ch
ain es
me ister
ĠCent re
ren g
av es
Ġp orte
Ġra ce
sp iel
Ġdevelop ed
Ġm other
ĠP as
Ġs old
Ġincre ase
Ġmater ial
Ġb lan
Ġn av
ĠO per
Ġcon dition
Ġcons um
ĠG ood
ind en
vi ent
ex p
e es
er o
ch st
ĠT om
ĠA li
Ġris k
uis i
ĠF ri
is piel
ig keit
Ġl ower
an cy
Ġans wer
ĠT rai
ĠJ ac
Ġk ids
j o
c la
ĠL ong
ĠGerman y
Ġil s
b et
Ġp sych
ĠÂ» <
Ġd abei
Ġ0 8
Ġma le
Ġtrans fer
Ġihr er
ĠB oard
ĠH i
Ġins urance
rie f
ĠH or
Ġet wa
Ġ199 2
Ġter ms
Ġh ot
T V
p es
f all
Ġmach en
Ġa verage
ĠTex as
Ġhab it
Ġsp orts
oll en
Ġn un
le ep
Ġyour self
he i
li eb
Ġs ummer
A us
Ġtry ing
p end
Ġbro ad
all ery
Ġdo ch
ta ire
Ġm atter
ĠB ack
Ġw ide
ĠFran cis
tai ning
ich tig
p lay
b res
Ġcount ries
ta te
ĠK ind
Ġk itchen
and a
ici n
ĠF ol
ĠMus ik
p m
Un ivers
Ġb us
ed y
ĠSch n
ÃŁ ball
oir es
Ġg ou
S i
ĠOff ice
ig ner
Ġter m
g ree
ĠS ti
G o
Ġper m
ĠOk tober
Ġnouve au
war z
ĠLa ke
Ġ3 2
fahr en
ĠD ivision
ĠFran c
Ġmili tary
ĠSch ul
ĠIs ra
ile d
Ġcommer cial
Ġde l
à ¤
Ġc ell
20 10
Ġno te
B A
eng th
ĠK unst
ĠC H
Ġcho ose
ĠL et
ĠF il
Ġinvol ved
Ġimpro ve
ĠF ried
Ġwi fe
t res
ĠV al
ĠL ang
Ġpl ant
o id
ĠE st
ĠG ames
ron ic
S P
di en
Ġr u
ate urs
ĠO ver
p lace
Ġad j
ti fic
Ġse p
ĠF estival
Ġm oi
Ġs ocie
amer a
p ut
Ġw est
rum p
ĠPl atz
Ġpro jects
ri ft
Ġb ott
Ġste p
ĠP ass
I ns
m ont
ann er
Ġcol labor
ĠV ideo
Ġle ave
ĠDe z
agi n
Ġex er
Ġso li
ĠW hile
ĠEng i
c ise
se mble
ĠS P
Ġdies es
ĠK a
ĠWeb site
Ġj ours
osten los
ĠC y
Ġb a
ĠCent ral
opy right
ĠJanu ar
ĠEngi n
oin ted
Ġhapp y
ri al
ĠR en
Ġcustom er
ĠW ood
Ġread y
Ġd augh
im p
Ġcann ot
Ġ199 3
Ġac cep
ond s
Ġparti r
Ġv oy
ĠI hr
aut res
Ġd est
ĠBl ue
Ġrencont re
Ġcre dit
ĠEngin e
ĠL og
ent en
Ġin tel
Ġins tead
E O
Ġgran de
c al
ĠProgra m
Ġfor t
O ur
Ġcas es
ĠD et
ir s
ĠDies e
Ġask ed
ĠT ime
Ġne uen
Ġtrou ve
Ġsk ills
ri m
Ġind epend
ci de
c s
id ers
ĠEin e
w ort
ĠHist or
Ġstud ies
ic ago
ĠM r
b ie
rou ght
Ġc op
n ier
ling s
Ġin ternet
Pe ople
or gan
Ġsein em
an ish
Ġli ves
urn iture
ĠW ater
ist an
on se
ĠJ ew
do or
Ġd ise
Ġrec ent
ĠAfric a
ol den
Ġâ Ĩ
Ġpersonn es
ĠE lect
N ach
ak ers
C an
ĠJ es
F A
qu ent
Ġmulti ple
Ġteam s
Ġde ep
Ġitem s
Ġv ier
Ġb all
ot en
Ġp ages
Ġp ath
ĠF all
U T
ta ct
Ġdis cover
> *
Ġre du
I A
Ġprote ction
d is
ult ur
on a
Ġi hn
Ġn u
Ġin nov
Ġe ig
Ġdec ided
is ing
ĠF ound
Ġd ort
ut t
Ġpati ents
Ġson dern
Ġschool s
Ġs en
Ġac tive
Ġuti lis
ĠG al
ĠH ere
tim ate
ĠM ais
Ġex tens
Ġdo or
p en
ili ties
b an
Ġens ure
Ġo w
Ġ199 1
fen se
Ġg ave
ĠC at
Ġsub ject
Ġdec or
Ġrou te
Ġw oman
ĠJ us
ĠC are
ĠAr my
B u
li st
Ġhe ar
Ġ0 1
Ġhi n
Ġcons tit
W ith
A cc
ĠJahrh undert
Ġe m
uisi n
Ġsh all
d ed
L iving
ĠB or
Ġ {
Ġch ance
âĢľ ,
Ġus ers
ã Ĥ
Ġm oy
rit er
us ed
u ted
Ġg irl
ct ures
ĠD ra
Ġits elf
is er
Ġm ission
ĠA bs
Ġra dio
ing en
w ahl
8 5
az z
Ġrep orted
Ġgrow th
Ġg old
ca pe
ula ted
Ġ ur
> >
Ġdisp lay
Ġ Î
On e
ĠChrist mas
ĠU nder
Ġe mer
ĠF C
Ġoffic ial
Ġme eting
ĠB ern
Ġde fe
Ġapplic ations
pec tive
ac te
oun ts
ĠO ld
li z
m od
ĠGe org
ud es
g ue
Ġd ess
ĠL os
ti fication
Ġcol lege
Ġprogra ms
E ur
m ore
Ġinter view
Ġf oot
c m
ul s
Ġcas ino
Ġat tention
n chen
tif s
Ġm ont
li ke
M on
Ġers te
Ġpl atform
ĠRich ard
uisin e
Ġcomple ted
st off
20 11
Ġte x
ĠM ost
ĠS un
ress ed
ĠB la
p ite
ati n
Na issance
re h
Ġs au
ri ate
ĠSh ow
ĠB ou
Ġpre mi
S E
Ġ196 0
Ġd it
Ġeffec tive
sch af
f el
D o
r ger
Ġsch o
ob s
Ġpot ential
Ġw ei
l ow
ĠE le
Ġn ut
ue il
Ġsy mp
Ġt ar
Ġleg al
ri k
Ġdire ctor
Ġpre tty
ĠU l
Ġkonn te
le gen
Ġvarie ty
Ġes p
G eb
ic ros
ĠS ite
M i
Ġopport unity
es te
ĠSe ite
v ision
os se
Ġi hm
Ġg ain
Ġp en
Ġh ar
ĠSt udi
Ġste ht
d ings
ĠH il
ion n
Ġnot hing
Ġins p
Ġdire ction
C hr
Ġs n
ĠK re
ĠD urch
Ġsur face
che id
Ġb lock
ĠU N
Ġsu c
Ġall es
Ġdec ision
ĠP lease
ĠH ill
V i
ĠS ar
ĠB ud
ĠS und
Ìģ .<
u li
r ass
Ġm unicip
Ġan alysis
F ilm
Ġnou velle
Ġre ve
ann el
Ġatta ck
Ġpre p
ci a
Ġg reen
n am
Ġge f
we g
Ġt om
ĠSc ot
t est
Ġf lu
ĠE ducation
ĠII I
ĠN et
Ġ3 8
ĠPro ble
Ġflo or
Ġset t
ĠM ur
Ġinves tig
Ġhim self
ĠJoh ann
e ut
Ġg lobal
C l
Ġsoll te
ĠPre is
Ġarti st
ĠA uch
h ere
ĠF ort
c raft
ĠMa x
Ġch ap
ĠAr ts
ment al
a ched
Ġaut re
ĠV ictor
Ġsu d
ĠSm ith
E ng
ateg ory
G B
Ġpro gress
Ð ½
li ance
ĠMi nister
Ġorganiz ation
Ġs yste
Ġs kin
Ġl atest
c ie
iel le
Ġdri ve
Ġel se
Ġf all
ck t
Ġg est
l og
ĠVir gin
Ġequ ipment
Ġbe gin
Ġim medi
Ġcomp te
se mb
ĠEx per
Ġwri te
Ġden n
ĠP ers
ĠW ill
oc ol
ĠV on
Ġsa ve
Ġn ice
rie ben
os a
Ġde i
ĠD am
ĠLeb ens
p ub
Ġcol lec
ĠGemei nde
ĠG ran
Ġst ories
ĠAl le
Ġp ap
Ġwe ight
Ñ Ģ
ale d
ĠW asser
tell er
an gen
Ġtrai n
ĠDez ember
Ġtrans port
r de
Ġm ys
Ġcomm it
tz t
ost er
O W
Ġj an
ĠHist ory
ĠA p
Ġw orth
B S
ĠSer ies
issens chaft
Ġrecher che
ĠD ans
ĠB rand
Ġp endant
k reis
ali sts
O D
Ġmar ried
ti se
ms elves
Ġquick ly
or a
Ġc ru
Ġposs ib
Ġmater ials
Ġlie u
ecu tive
Ġha ir
Ġsuccess ful
Ġimp act
S te
Ġh ost
h ui
L A
Ġ198 9
Ġw ish
ĠI hnen
ĠBe ach
Ġvol ume
B ut
enn en
Ġex act
Ġutili se
kt u
ff e
Ġcho ice
n eh
Ġsong s
Ġt al
ket ball
ro y
s u
ĠPri n
min al
nah me
an st
olog ies
Ġ3 9
Ġsh op
Ġsp irit
b us
Ġthe mselves
Ġm as
ent y
Ġw id
Ġst ates
ali gn
g as
Ġtou ch
ug end
i nst
Ġamaz ing
i fication
Ġprogra mm
ĠAcadem y
Ġfam ille
Ġrec ently
ĠB ew
ĠComm ission
Ġc ela
Ġconn e
ch ar
ĠS et
Ġd ark
ĠB ul
Ġse ule
Ġcli m
ĠFebru ar
Ñ Ĥ
oli d
Ġb an
ĠW inter
Ġpar f
ĠH y
Ġau di
om et
Ġn ive
g ies
ist re
Ġjoin ed
ell schaft
Ġseem s
Ġfor me
Ġen cou
D R
Ġad op
A ss
Ġk on
v est
mb H
Ġres te
Ġbeau coup
Ġ3 00
Ġihr en
>Â ©
ĠP ap
on i
ĠMed ia
ĠH aupt
Ġl assen
ĠC ra
Ġsu it
Ġany one
âĢĿ <
ĠCh ild
Ġf ish
ĠFra uen
ĠR ou
Ġmor ning
Ġrep re
Ġopen ed
or ter
Ġm ur
Ġ3 6
ach i
ich ten
ĠRe al
aut y
ĠT HE
ĠAustrali an
Ġposi tive
ĠM os
W ir
as i
M us
Ġs ag
be c
ĠAnd re
ĠF ern
res pond
alis m
Ġst att
s a
ĠB lu
Ġfa ut
ad er
for ce
h ard
sch n
ĠT r
ĠW estern
Ġ4 8
Ġe ben
Ġlevel s
Ġar ticles
ĠÂ ©
Ġ198 8
p lan
id ential
Ġwe itere
am ing
Ġcomm and
Ġto wards
w ell
on der
Ġcha que
Ġis n
Ġkomm t
à ¸
Ġtradition al
Ġab ility
Ġne u
v ous
Ġs ense
ra tive
Ġc el
r ary
s ult
ite l
Ġm ari
Ġc ad
ĠArbe it
Ġa im
Ġform ation
et en
ĠGro ÃŁ
Ġf resh
Ġv s
os en
C omm
Ġd av
Ġne igh
pl atz
ĠB ill
ul te
Ġan aly
ier ten
ĠR E
e ff
y ond
Ġk u
Ġ0 6
ĠL ive
tit ude
Ġrelations hip
Ġc u
at te
Ġhand s
qu ently
t or
D on
ĠAls o
ĠVi n
Ġc et
Ġdeutsch er
Ġprop os
ĠF lu
ĠL ist
Ġt un
Ġcontin ued
Ġsche du
is ions
Ġmov ie
Ġe igen
ĠV erei
um ber
je kt
ĠJ ud
Ġlook s
Ġsome times
ã ģ
Ġreturn ed
Ġcli ent
jour d
ĠC i
Ġs yn
Ġno ve
Ġg ru
Ġf al
ĠChin ese
s ur
v res
b ro
ĠS ummer
Ġg lass
ĠK l
ig an
Ġr oman
ĠI T
co le
w and
Ġown ers
du ct
Ġ0 7
Ġall ows
Ġdies en
Ġli mited
Ġdem and
ri an
am bre
op f
Ġcommunic ation
Ġc art
ĠR ei
Ġpoli tique
av en
ĠO ther
Ñ ģ
V D
ĠG mbH
Ġrem ember
Ġhigh ly
Ġex pect
Ġeas ily
Ġb zw
A u
ĠFlor ida
Ġgiv ing
ti st
al and
Ġfol g
Ġin ner
Ġpar ties
Ġex ci
em i
Ġprov iding
ĠA ff
Ġte il
Ġe dit
Ġtechni ques
Ġb ul
if ied
et tes
Ġfem me
Ġo ct
Ġreg ister
onn a
ĠRec ords
Ġv oir
Ġdo it
h y
ĠCh icago
Ġlar gest
Ġse m
sch ied
Ġm ise
ĠJos eph
Ġun it
nd ig
ol o
ond ers
Ġsa fe
cha ften
N E
ĠC ath
C he
ĠPh il
Ġus es
S c
ow ns
Ġnecess ary
Ġt on
Ġra il
Ġse ven
Ġal though
Ġfe ed
Ġmar s
Ġpurch ase
Ġprop ose
Ġdeath s
k l
f est
Ġh y
F C
A nn
Ġst reng
z z
oli day
ĠAfric an
M a
ac c
ĠF ru
icin e
ĠD uring
ĠWi n
g ment
tz en
Ġocc ur
Ġs um
rie l
s i
com es
ĠT im
es p
Ġex cellent
tion al
ula ire
Ġdiffic ult
Ġg as
um a
Ġar be
Ġm aster
Ġco ol
C T
Ġd aily
Ġfamili es
Ġpart ners
Ġsaf ety
Ġfinis hed
Ġang e
ob re
Ġcon vers
as tic
amp les
umi n
at ten
Ġdirect ly
ienn e
Ġv ic
Ġqu and
Ġqu alite
ĠN atur
at ers
Ġnot amment
Ġbl ue
Ġdaugh ter
par tement
ra tions
Ġfor ces
Ġn ar
Ġspe ed
v on
c les
ĠC am
p he
Ġbe ach
Hist ory
Ġc r
um es
Ġ( )
Ġfa ir
mit ted
ff er
ed i
Ġa f
Ġcent ral
Ġgo es
v rier
Ġtra de
ĠArbe its
om o
ali d
gen de
200 9
tic es
ĠS qu
ch o
ĠK omm
Ġs ort
wick lung
L iteratur
Ġk am
Ġpie ce
Ġc lin
on om
ĠAma zon
Ġbe hav
A ls
ĠSo cial
Ġs end
ĠE UR
Ġgiv es
lace ment
ous ly
he its
pi n
ci fic
Ġde gree
Ġser ve
Ġk lei
Ġ ðŁ
ĠGesch ichte
Ġbe iden
Ġ1 50
ĠV ous
Ġcomp ar
ĠBe it
Ġcamp aign
ĠUntern ehmen
Ġnom i
ĠK ore
Ġapp re
N A
ĠE very
Com p
ĠH ans
Ġ3 3
Ġde b
H ome
ver tis
Ġon es
Ġto ols
se ment
C e
ap on
8 6
ig ur
ont o
t ze
Ġcli ck
v ia
Ġres ources
U M
H er
Ġb rought
enn is
er ie
ir ing
Ġs atis
Ġs ac
r ast
Ġnomi n
Ġa fin
ĠL eben
ĠâĨ Ĵ
M od
Ġaus ge
tain ment
t d
la is
ĠJ ust
ĠM ann
ĠDevelop ment
chni k
Ġf arm
enn es
Ġsp ort
ĠH ier
Ġresp onse
ĠComm unity
ven ir
ĠK at
au ght
ation en
L C
ul ty
ĠP op
i nnen
Ġpeu vent
atur day
ap y
Ġme chan
for der
ĠKing dom
Ġa k
Ġh och
Ġne g
Ġbes ch
ĠC ook
red it
ĠLand es
ra ch
ĠJapan ese
i nt
ff ee
Ġbegi nning
ĠK ap
Ġwel che
Ġc ast
ĠA P
rit ten
Ġe th
ut y
Ġcap t
ĠSchw ei
Ġmar che
pec ts
S A
ĠAng eles
Ġenf ants
ca de
Ġstar ting
Ġgo als
Ġfavor ite
por ate
' ,
F L
d am
Ġche m
tem bre
Ġdem ande
ĠL iste
b ind
k ommen
ĠEn ter
lection s
ĠM iche
ĠOff ic
iel t
Ġcal c
ĠTe le
Ġget s
Ġf antas
ber n
lic ation
Ġspe c
e urs
m ond
R o
Ġn ord
Ġtri p
ĠTh er
ĠN ic
Ġfollow ed
Ġ198 7
Ġn or
Ġl y
Ġpl anning
Ġphys ical
ci er
9 3
Ġd azu
Ġblo od
Ġde ad
ĠC ette
S C
Ġj uin
Ġcontin u
f la
Ġser ious
ĠW u
Ġmet al
ĠM aster
Ġl as
ĠC O
ĠPe ople
i nc
ĠBro wn
Ġcl asse
M ed
Ġ 00
ĠCan adian
ab el
w ers
uf en
b ere
á Ĩ
Ġsel on
j ets
Ġpro jet
ĠCom ment
Ġsa ison
ad i
li min
ĠE ss
Ġcost s
p unkt
Ġdev ice
Ġpoli tici
reich en
Ġprogram me
ure au
ĠS us
ak s
ĠN ous
Ġtem per
Ġst orage
Ġc abi
Ġer halten
Ġf ond
us band
Ġlead er
Ġform at
Ġac ade
un ft
Ġ198 6
Ġsp ent
p et
c teur
200 8
Ġcontra ct
wi n
b ody
ĠGu ide
etz en
Ġprodu its
arbe it
Ġm otor
cha fts
ian o
9 2
ĠMit tel
un ities
re cht
ĠAng eb
la ted
Ġg ab
re land
Ġchang ed
Ġv rai
Fi n
for table
ĠW ie
tig t
gi ous
ĠD ownload
Ġcon cept
pi ration
Ġcol le
ock ey
ur g
ici ent
Ġje u
Ġli mit
Ġpict ure
ers ey
Ġv oll
V oir
g color
z ial
9 4
Ġcap ital
Ġre lig
Ġpro s
ens es
9 6
Ġn et
Ġt end
re z
arin e
D A
g ro
ĠM ond
/ <
ĠE as
Ġcor respond
Ġ198 4
Ġf irm
Ġeconom ic
Ġ3 4
ĠT able
os ting
Ġho tel
is ted
se e
ild ing
stra ÃŁe
tif ied
Ġpres ident
Ġs an
ĠJes us
ĠChampions hip
Ġcon tempor
m u
ick en
Ġv ict
Ġc v
Ġd oll
G u
ĠCol or
ĠFor um
w ide
itt le
Ġactiv ity
ĠNe u
9 7
er ed
ĠRad io
k ten
cin e
D E
P oli
n ement
St ar
o oth
z ens
Ġcomplete ly
Ġful ly
r lich
>Â «
Ġpartic u
Ġp il
tin a
ĠV alley
ĠA R
Ġess ay
zeich net
ĠL ord
ĠT wo
p ri
ĠFri day
Ġ19 50
ĠN E
s ide
ach en
m als
eb all
ris h
Ġindivid uals
Ġsur v
Ġsl ow
U E
ign ed
Ġ0 4
ĠUnivers ita
kt ur
it or
h ar
Ġcar ry
iz ation
Ġfab ric
Ġm ou
Ġsign ed
ĠF ootball
ĠDire ctor
Ġli m
Ġreview s
P ub
T C
ĠTrai ning
u a
che l
Ġsur round
Ġd ir
le e
Ġst y
Ġj am
Ġag re
al m
un te
r n
Ġch au
B er
Ġfin e
av a
z t
ĠW ien
ĠC ode
Ġcel ui
for me
ĠT it
Ġre i
b ru
ourn e
Ġwe il
ag ra
ĠL ight
ĠA L
stru ction
um en
Ġassoci ated
ound s
ĠWe ek
ra p
U ni
Ġ198 5
ce mbre
ĠZ we
le gt
Ġ0 2
Ġs un
Ġsh ip
g abe
ges tellt
Ġder nier
ĠHen ry
um ni
os ite
st an
Ġm icro
ĠS ong
ĠP ack
Ġdem on
Ġd ating
t op
Ġgu itar
Ġv ote
h men
ĠP ierre
ĠP ay
Ġeur ope
ĠE U
Ġpar k
us ch
AT ION
Ġrep la
S he
ah men
os ph
ĠP age
c are
icros oft
Ġcharac ters
ati v
ĠSp orts
ĠC ross
od en
Ġb atter
Ġcan cer
Ġmys elf
8 4
it ness
ĠTechn ology
Ġh ol
ei ner
Ġb aby
ĠCas ino
ĠSund ay
ĠA uss
Ġbene fits
Ġlis ted
M A
Ġnive au
Ġcl os
Ġvi n
ĠRe ich
b ahn
Ġgra ph
t ats
ĠFam ily
h aps
Ġr und
ĠOr t
Ì Ĩ
la h
Ġjan vier
Ġr ank
ĠVi ew
ĠEur opa
Ġwar m
c ting
Ġorgan is
la b
U L
ĠD at
ach sen
w an
r der
iv re
Ġb at
Ġfinis h
D is
Ġli br
Ġp osted
ĠG ame
Ġse ek
pris es
Ġsec ret
8 7
Ġf elt
Ġeffec ts
Ġt im
Ġv irt
orn e
Ġb ran
ĠN etwork
Ġre pe
j ou
Ġprodu it
f y
Ġgou vern
Ġarti sts
or igin
Ġ0 5
ab eth
Ġtit re
ã ĥ
m iss
Ġ 000
ĠMit glied
ĠK ra
w ith
Ġins tit
g is
ĠInformation en
Ġb gcolor
P er
par ation
ti ert
us er
ĠR ail
s se
ic ks
ak i
Ġ194 5
8 3
Ġfin ally
ĠF ood
Ġmean ing
Ġmov ing
Ġnorm al
Geb oren
ĠRuss ian
Ġsm art
il ly
Ġmove ment
ĠH ard
Ġi tali
ur i
G er
Ġallow ed
ok er
Ġlin es
am ps
ĠV en
wh ere
Ġrecord ed
ĠD eb
Ġfem ale
Ġsav oir
ĠN ame
ll er
ri age
ĠK en
Ġwh ose
Ġni n
Ġsh own
ĠW enn
C D
Ġcre ating
Ġop tim
Ġob jec
ĠCh ap
Ġinter esting
tiv ity
Ġrequ est
ĠW all
m el
Ġres pect
ĠW ed
9 1
Ġd ress
Ġw rong
P R
ĠA wards
ĠAt lan
ew ork
g le
ut ch
ĠS ud
f ass
Ġinte gra
Ġe mo
Ġf ail
200 7
ĠR om
ĠAut o
Ġch air
ĠB ox
Ġperform ed
. :
ol ution
em a
Ġthink ing
. )<
Ġpri mary
Ġst udio
ĠComm ittee
ĠTh en
I F
ĠA ber
ĠM ater
bild ung
o es
Ġappe ared
Ġsay ing
w or
d own
ri me
Ġder nie
Ġt ant
Ġs ce
Ġvehic le
es is
ĠGo vernment
fi que
ĠPri x
cent er
f urt
ĠâĢ ł
Ġextre m
ac tions
al ter
Ġg arden
Ġmod els
ĠO li
sch er
Ġnum er
li ament
y an
ĠS hi
ĠL ei
w ert
ĠW ild
Ġev idence
f o
m ier
Ġs li
Ġh uge
ĠW olf
T ER
ĠK rie
ĠDe c
ĠAr chite
etz ung
Ġpart ner
Ġh yd
t ter
Ġer folg
Ġpurp ose
D S
Ġocc asion
ĠI mm
Ġdro it
ĠPoli tik
. -
Ġd ry
Ġhigh est
ind et
Ġer h
ches ter
Ġent ry
Ġsh ot
chs el
Ġcompe tition
Ġsc ore
Ġsub st
Ġass ess
r ill
Ġ[... ]<
ta ges
Ġstreng th
Ġt ick
p age
Ġinst al
li a
ĠT hr
Ġex emple
Ġbud get
ĠF ore
Ġh our
ĠL as
ĠS aison
ĠItali an
c omm
Ġ4 00
Ġl ock
Ġpict ures
Ġtechni que
Ġ7 5
ation ale
eri n
ĠF ire
ĠB rit
ĠB ob
ĠW erk
Ġb ri
ro it
ĠSt ock
ran e
ce an
Ġli ber
ĠAb out
O UR
Ġsy mb
Ġre v
Ġl ength
oin e
B ook
ak a
t ten
te z
ĠAr tikel
P A
ĠB ilder
Ġar tis
Ġar m
Ġ0 3
ann ed
ĠFra u
F rom
ĠC li
Ġunderstand ing
ns on
ĠA G
ĠW ell
A uf
Ġar gu
Ġh usband
Ġincre ased
ĠT rump
T A
Ġoffer ed
ĠB ereich
Ġinter ested
ĠN ou
' d
Ġde dic
loss en
IN E
ĠH om
r ung
Ġv oc
l ant
ĠJourn al
k ir
ĠL A
ĠZe aland
Ġback ground
w ig
Ġmid dle
Ġ9 78
Åĵ u
Ġgrow ing
olin a
Ġdise ase
k lich
ĠSh op
Ġf urniture
ĠR el
Ġd omin
ĠH on
Ġinf o
Ġturn ed
la u
Ġ198 3
Ġsp ot
ĠV ide
Ġch i
Ġto ol
n elle
ĠSp ring
Ġm iles
ĠT as
ĠN Y
In ter
ht ml
ste i
Ġsta tis
ĠPro ject
ist es
ĠW el
Ġden en
ĠM P
ite ly
Ġsep tembre
Ġann ual
ĠK i
Ġd at
Ġeff ort
w u
Ġex ception
Ġ urb
Ġtrou ver
Ġfig ure
se c
ĠSec ond
ĠM otor
Ġpla ced
ĠApp le
8 2
all er
Ġr ules
Ġn ames
li ghts
ul ting
Ġappro xim
ac ity
Ġh op
Ġe pisode
ĠD ub
Ġunser er
Ġt rib
an c
ro ad
und red
Ġch ose
p g
T op
ĠT ru
ĠP R
os is
Ġocc up
Ph one
ici ans
un ction
Ġrespons ible
Ġin fe
d on
Ġinter pre
ĠVirgin ia
Ġth reat
ĠT al
Ġs leep
Ġ198 2
Ġpric es
ĠCath olic
Ġcons ult
Ġind e
ĠM ess
Ġmar que
ĠH aw
ens us
Ġnum e
lieÃŁ lich
Ġ6 5
Ġg emei
ĠDan iel
ĠSp a
x x
a um
Ġsit u
Ġbas ic
ĠM ili
st ar
Ġnum bers
Ġs ources
Ġaff ec
Ġun its
ĠHe ad
Ġman ager
erv ice
ĠT imes
og a
Ġlet ter
Ġbas is
ĠFor ce
Ġs ociety
Ġapp rop
Ġk ommen
Ġpress ure
Ø §
Ġgo vern
Ġbuild ings
ric ain
ĠAr m
un ning
Ġp ul
D ies
Ġe yes
Ġcl oth
ĠF ach
Ġd ig
Ġexpe cted
C o
Ġapp ly
Ġinc ome
Ġbe yond
Ġe ast
Ġpou voir
ĠB lan
Ġexp and
li fe
ĠAn ti
Ġein ige
Ġc ry
ĠH ei
P a
ĠJ ose
ĠOri gin
b ot
ĠF la
!! !
ĠMark et
se au
ĠC A
Ġdist ance
I B
Un e
Ch ar
Ġeff et
Ġrequire ments
Ġra di
s st
Ġst uff
k le
ĠEn ts
Ġn ie
Ġover all
Ġcorre ct
ĠPerson en
res ent
Ġsich er
el er
g or
rain e
ant ly
u chen
ant on
ns chaft
ĠJ im
Ġli sten
Ġdam age
Ġp rison
y ant
Ġhel ps
ĠH D
ĠD ata
ĠFound ation
Ġ198 1
Ġsch w
2 000
re y
ĠBer g
Ġst ress
ĠMar ia
A ng
ik i
f on
Ġcom ments
De utsch
ĠSo ftware
ĠSte ph
Ġopen ing
oh ner
E nt
di ted
Ġse lected
Ġbed room
ĠF und
semb ly
ĠMex ico
v oy
ol ar
Ġfe et
Ġalbum s
Ġbro ther
w ise
Ġparticular ly
ĠI ts
Ġview s
Ġt ried
d ate
ĠMar ie
ĠW ay
Ġs ell
ĠMan y
Ġn atu
Ġpa id
ĠGes cha
20 20
Ġg irls
Ġ4 4
Ġex c
Ġe ight
ĠS ale
Ġ3 7
200 6
ĠRe chts
id i
Ġform ed
ti ven
Ġc elle
Ġfound ed
ĠK unden
Ġoper ations
Ġbek annt
Ġv ent
ĠK er
Ġ4 2
ĠA ccess
c ons
ĠLi ber
ian a
ĠD om
Ġall en
ĠK ur
Ġk aufen
Ġtra ite
Ġear lier
Ġf est
Ġmethod s
r per
au p
veloppe ment
h ung
ĠN ight
ing e
ĠLe e
ĠJ ugend
ĠT em
Ġav is
stand ing
ti ty
Ġret rou
ĠG ren
Ġra pp
Ġop i
z es
hr te
ĠI reland
ĠD ien
Ġe ye
Ġk ostenlos
Ġconta ins
n ame
Ġe duc
Ġ197 9
ĠC ast
Ġcon cent
ĠTh anks
Ġli vre
Ġe u
ost on
ti eren
Ġdes tin
G ra
ĠH ear
p oli
qu el
ĠR ay
P C
Ġfa is
Ġexp l
Ġdra ma
Ġ197 2
Ġoct obre
Ġrap ide
Ġp ool
ĠL ig
i i
ĠSec ret
ĠCon ference
ĠOr der
Ġpou vez
M ann
ĠRes taur
Ġj eder
R ec
Ġdiffer ence
Ġdire cted
Ġnove mbre
ĠSu pp
ĠL ear
n ent
ĠO F
ĠI nt
Ġpe ace
ta kt
ĠS C
ĠSch la
8 1
Ġju illet
ĠS aturday
Ġgro ÃŁe
Ġk ing
Ġz ahl
Ġmag azine
ĠO x
T R
y o
ac tive
alis te
M er
piel er
Ġein mal
ģ Ħ
f as
ad el
ĠB lo
Ġhe ard
tai ent
r ings
l ers
Ġthe ory
i ting
s or
Ġc uisine
Ġg ep
U nis
Ġsoli d
âĢ ²
R ep
Ġvo ice
ĠT own
P erson
tiv ite
ĠS che
Ġcomp on
ĠAs ia
Ġes tate
Ġb onne
ra um
Ġgener ally
ĠIn st
Ġd ivision
ond ere
Ġ197 8
Ġde but
Ġar rive
ah a
Ġpo or
Ġte le
â ģĦ
Ġh arm
Ġla ck
Ġwrit er
iz i
hi o
Ġhelp ed
Ġsh i
kn own
uti lis
Ġk illed
ĠS onn
' '
Ġst at
ĠS n
igh ting
Ġemploy ees
Ġmus ical
c ular
Ġinc or
Ġto w
Ġletz ten
se x
ut o
j ahr
Ġav ril
ĠF ab
Ð¾ Ð
is ches
ĠB all
Ġf an
ĠK le
ach er
ĠMe hr
Ġse hen
ate l
Ġl ux
Ġst atus
k ins
ay a
Ġcon duc
Ġ197 5
ik a
Ġbest en
cur ite
ĠKir che
Ġincre asing
ĠF le
ll t
Ġschn ell
ik er
ĠE ven
Ġder en
Ġper man
Ġpersonn el
ĠP ak
ĠYou ng
h as
Ġw ild
ch est
la te
es en
Ġsou vent
ed om
ĠP ot
Ġz one
ĠTw itter
Ġmeas ure
ĠW he
Ġse a
Ġ197 6
ĠMa ke
bour g
ak ed
Ġs and
ĠT H
pre ch
Ġf le
yl van
sch ule
ar ante
ĠSi nce
Ġb ois
Ġg ene
Ġth ous
gli se
ĠP rom
ĠC her
ĠK ong
Ġp ris
hel m
. .<
f ilm
ĠG eld
ĠM A
k re
Ġag ric
Ġold er
Ġle ague
Ġdisp on
Ġa ctions
Ġw edding
ĠE conom
A lle
ĠB at
k m
âĢľ <
Ġnot es
ĠLib rary
Ġ5 5
T ags
ĠW ord
Ġimmedi ately
neh mer
ou ch
Ġnear ly
Ġmiss ing
por ation
Ġdar auf
Ġ196 8
al ten
ĠA rab
ĠL ux
Ġchamp ions
di re
r ents
Ġb row
Ġindepend ent
Ġeff ic
ĠSp anish
ĠC ustom
Ġb oy
au en
Ġbath room
Â «
Ġopi n
Ġgra de
onne ment
Ġcon cer
T H
hei n
Ġeff orts
ĠS av
ĠN utz
ear s
Ġis land
ĠZus ammen
Ġc ash
ann a
ĠCol umb
Ġow ner
Ġmilli ons
ĠW ahl
s che
ĠS ign
um n
C A
ĠZ ahl
ĠB ow
ze igen
lin k
Ġst ations
ĠB ir
Ġadv ice
Ġex clus
Ġch ois
Ġd ynam
ex es
Ġpro ced
Ġla un
Ġi ng
ĠMar keting
ĠCar olina
Ġdoc uments
ĠPhili pp
b ank
ĠS au
en ting
Ġmet tre
Ġsupp ly
Ġb ew
Ġla bor
Ġhe avy
st re
ĠC iv
ag ers
min ister
Ġlar ger
Ġprop rie
ĠH ein
Ġhe i
e v
Ġr an
ĠW ho
Ġhealth y
ĠH ot
Ġsp ring
Ġi ce
Ġdeli very
ess ions
tz lich
bur y
ist ent
ĠC amb
li gen
D ans
Ġ197 4
Ġm eine
ĠS ho
geme i
Ġra re
z ig
Ġau ÃŁer
Ġcl osed
Ġinvest ment
a che
k auf
ind e
ĠAn y
Ġpub lie
d orf
ĠSec urity
ĠPh ot
Ġf lex
ra ted
F e
Ġbusiness es
ĠSt art
T rans
se ite
ang es
Ġvide os
stei n
G et
Ġde utschen
Ġhe at
ĠIsra el
ĠPh ys
ph y
Ġhom me
Ġfor ms
Ġwonder ful
on ic
ĠHum an
b ung
minist ration
r te
Ġevent ually
ov a
ĠF ir
ra gen
ĠIt aly
Ġpol y
Ġ1 20
Ġv ision
Ġm ate
ĠS icher
itz er
Ġa mp
ov ing
Ġau c
ĠK la
Ġrestaur ant
Ġgrat uit
Ġb ass
ĠL E
Ġal one
Ġar ch
h ow
ic an
r asse
Ġsp read
Ġf ashion
Ġmach t
Ġsp end
b ei
m ens
Ġer n
e te
ĠHam burg
at ta
ĠC ost
p ren
Ġorganiz ations
ed en
ĠMed ical
ĠN u
ĠN av
Ġce ux
Ġcomm ission
ts ch
Ġw ai
ĠSte i
ĠG as
ans as
Ġd iss
Ġintro duced
Ġ197 1
Ġdis tin
k rie
Ġprodu ce
Ġrun s
Ġbie tet
Ġg l
Ġpati ent
ĠR am
ti ent
cou ver
Ġm ap
Ġapp ointed
ĠThe ma
ĠSpe cial
Ġof t
Ġfeature d
Ġph ilosoph
se z
Ġgro ÃŁen
Ġr ue
Ġm el
ra c
ĠWilli ams
ĠL td
ĠD ate
ĠE N
ateg ories
Ġra pport
ĠS ha
ĠD igital
Ġso le
Ġweek end
S pe
Ġhom es
ĠB ang
Ġmin or
b b
Ġ197 7
Ġav oid
Ġword en
Ġfem mes
Ġexp ress
gan gen
im al
ad ing
sch u
ru cture
Ġset ting
Ġele ments
Ġi ci
Ġb ag
ĠF rei
Ġv illa
ĠFamili e
ell o
rom e
ĠJ ersey
te ction
B est
Ġregard ing
Ġe lected
aler ie
Ġj ew
Ġwind ow
ĠWe g
Ġaltern ative
Ġcover ed
ĠPort ug
qu is
er te
Ġlead ers
B ei
Ġti ps
st o
Ġ197 3
ĠS or
Ġpres ented
z el
Ġrep orts
ĠS E
amp f
id enti
Ġs alle
Ġgu erre
---- ----
Ġwas n
nd et
Ġwe ather
ĠLin e
ers ch
ĠC onn
ĠSt ation
uss ures
hem ali
Th at
E ar
Ġphot ograph
n els
Ġexp lor
Ġmaxim um
3 00
j u
Ġachie ve
Ġre ached
Ġdi agn
ĠKar l
Ġdire kt
ĠW alk
Ġspiel en
Ġcomp ris
Ġt rend
Ġstre et
... .<
ĠM illion
as te
ĠP S
Ġr ates
an ie
w agen
Ġver fu
Ġste hen
Ġquar ter
AN D
Ġprevious ly
ĠC lin
Ġm ul
Ġprend re
ula te
Ġjam ais
te x
Ġc ards
ĠK ey
ĠR og
ĠO st
s ie
ann te
Ġw ait
Ġm il
Ġvoy age
Ġbe coming
s m
Ġteach ing
ib les
e ux
Ġcoun ter
Ġg ift
Ġret ur
Ġdev ices
u che
Ġpre fer
ca ted
p ons
200 5
Ġmon di
ĠL ittle
Ġrec ords
ĠJ ones
Ġcommun ities
Ġclass es
Ġcri tical
Ġcap it
Ġeben falls
ar re
Ġpass ed
ent er
es tic
Ġac cept
Ġent wick
ol as
li gence
f ast
ĠF air
ub s
Ġr ess
lass en
ĠT ar
M ay
sch utz
ali ze
he ma
or ien
ĠL au
ti le
ers e
w ord
Ġinflu ence
ĠI P
Ġconf ir
w ie
p ass
nn e
n ot
ĠRuss ia
Ġjob s
f il
Ġwork shop
Ġf ight
Ġexact ly
ch at
ron ze
Ġdri nk
Ġso ft
t ro
ĠK an
Ġchallen ge
Ġsen ior
Ġpower ful
ĠG ene
Ġdeter min
Ġ6 4
Ġex isting
us se
Ġf ans
Ġpost s
ad or
z ir
ĠCong ress
ĠN avy
Ġste el
Ġcon ven
Ġwi nning
ang ing
ĠN on
ĠFried rich
Ġopport unities
uts chein
ter e
ann ten
Ġrei n
Ġh undred
ĠR ose
ES T
âĢĿ ,
ug by
Ġf at
tt es
ĠEar th
Ġes c
amer ikan
is tic
Ġ196 9
f riend
ĠLi nk
A F
ri gen
ĠFu ÃŁball
ĠFrancis co
ĠJahr es
Ġfee ling
ili an
ĠJ on
Ġse at
Ġpe tite
ĠH an
Ġwi nter
p ack
Eur ope
Ġpers onne
Ġabsol ute
Ġthan ks
Ġd essen
Ġst ream
d ra
Ġcol on
lin s
ens ions
Ġqu atre
Ġdo ctor
Ġcon ten
ut lich
S ome
Ġre asons
Ġfam ous
ob i
ĠR od
Ġr end
out es
Ġre cip
Ġbene fit
Ġpre vent
er a
Ġre lev
h le
Ġcar s
Ġj ur
li ers
Ġear th
ĠL ook
ĠT O
s o
lin d
hist oire
U p
Ġend ed
n as
f ree
Ġth us
w elt
lo ok
C O
ol ars
b as
let ter
Ġcar acte
ĠR ights
Ġmainten ance
ur ther
ĠLe ist
ĠM ah
ĠVer tra
C re
= #
Ġd re
Ġsta ted
Ġstru gg
Ġcor ps
b ereich
Ġse lection
ĠAN D
ĠK reis
fini tion
f red
Ġr om
ĠE dition
S a
ĠMan ager
Ġcon ver
e ch
ocra tic
ĠJ a
ri p
Ġstra ight
Ġcaus ed
Ġv ir
Ġnombre ux
Ġfour th
fer n
men te
he iten
ul pt
Ġb ow
ti ni
ibli othe
ĠSan ta
Ġess ential
ession al
Ġk new
B as
x is
el ly
Ġlaw s
Ġp ense
Ġt ree
uin e
N ot
Ġp al
ĠL ast
ig ung
Ġ19 40
ĠI ran
ĠFem me
ĠA ust
Ġfl ow
Ġri ver
Ġst ars
Ġmeille ur
r one
Ġfore ign
\ /
Ġappre ci
ĠR ome
Ġri en
ĠP or
Ġf ederal
Ġa ur
ĠE sp
ĠCi n
g ic
ĠI V
ĠU k
Ġe p
ĠD ur
ch nis
ĠBe ispiel
Ġl ange
ĠK enn
ĠProf essor
ĠAnt on
as ure
u gen
ĠE th
ĠPoli cy
Ġmi ni
h ors
Ġsepar ate
F ran
ar en
Ġprote ct
Ġadvan ced
d ess
Ġu ng
h um
ER S
ĠMond ay
or ation
ĠG lobal
Ġpar c
vent ure
Ġes tim
Ġmin e
us ta
Ġdefin itely
rin e
haus en
Ġch at
Ġdistrib ution
ĠV ors
ĠP orn
le ist
et ter
ĠAl though
Ġsub se
j pg
Ġl oved
Ã Ĺ
ĠWh y
ĠR ot
ĠHer z
V ous
Ġ }
Ġgre ater
Ġpass ion
ĠJ er
ĠAir port
Ġtechn ical
ĠSm art
Ġnation ale
Ġs ets
Ġgro ÃŁ
Ġnav ig
ĠU se
ylvan ia
Ġoper ation
Ġcre ative
ĠPro duc
ig ration
we is
Ġjourn ey
li sch
Ġ196 7
ĠE qu
Ġre lie
Ġc ul
Ġgemei ns
Ġa che
ĠBe au
ĠSta ff
k an
ĠF our
Ġnumer ous
Ġpl ants
ĠP u
ĠF lo
Ġim agin
ÃŁ t
Ġorigin ally
Ġp eint
Ġv ou
Ġpla ys
qu en
Ġdei n
ĠN amen
Ġacc ur
ĠAlex ander
Ġp orn
di um
Ġav ons
ib en
Ġ19 30
Ġoffer ing
ĠMar c
Ġstrate gy
A c
Ġactiv ite
D i
g l
Ġno tice
uck y
Ġpri nt
h es
Ġf as
p her
Ġess enti
Ġredu ce
v rir
Ġwir klich
A U
Ġda fu
h ai
p ie
ĠG l
Ġconne ction
ĠSe iten
Ġw ohl
lis te
c ore
lig a
Ġcon ference
V E
rag on
ĠK il
la w
Ġfor um
lish ing
Ġpie ces
li x
id ae
Ġ2 50
ĠA D
v y
P ers
ĠO R
Ġor d
Ġengine ering
Ġ4 9
ĠS ac
spiel er
ĠI ls
ĠD VD
Ġf ont
ĠD amen
p iele
ĠZ ug
Ġ1 000
qu ence
Ġs ession
Ġpro vince
ĠI r
Ġa thle
Ġrec ru
Ġmem ory
wes ome
Ġau jourd
t ent
Ġn ichts
Ġa vez
ill on
Ġa ou
or ben
Ġev al
Ġcomp ared
ĠO t
ĠB oston
Ġsh ared
Ġcons ide
Ġb attle
Ġco ast
Ġl ots
P lease
and y
Ġexperien ced
ra cht
Ġuse ful
n os
Ġaut oma
Ġr ub
ond a
ĠWo chen
Ġ( âĢ
ĠEins atz
Ġapproxim ately
end ar
ĠH aut
at uring
Ġste ps
ĠHotel s
Ġst ark
ger y
Ġc opy
Ġstand ards
t out
ĠVol ks
Ġcon v
Ġteach er
ge fu
Ġcol d
E E
Ġwrit ers
Ġne ben
arbe iter
st att
Ġw ants
ern en
ĠHe im
Ġclass ic
Ġ4 3
Ġcer tains
Ġbott om
u ve
r un
t an
Ġc iti
l on
Ġa ktu
> âĢĵ
Ġinstall ation
ĠT age
os ure
ĠB oy
Ġ196 4
Ġc ore
Ġad vis
Ġal umni
Ġob lig
Å Ĥ
Ġ19 20
ĠHol z
ĠPro zent
ti ger
Ġdedic ated
w alt
v elles
ĠAcc ording
Ġviel en
ĠB ot
Ġche f
hibi tion
ĠBew ert
qu et
ĠM icrosoft
Ġs og
ĠS um
Ġf r
Ġra i
ĠIs lam
Ġmajor ity
Ġciv il
f oli
Ġad ult
tig keit
Ġsc en
ar o
Ġfa ith
r k
omm od
ĠI ng
ĠSc ott
qu ar
ric s
Ġres pec
gi ment
ĠI D
achi n
cle ar
aut re
ĠK h
ĠThe ir
ar ma
Ġp et
Ġrem ains
ĠF o
Ġaut o
ie ur
ĠOlymp ics
Ġm ieux
ĠReg ister
ĠN ieder
f am
Ġtra ffic
ĠAd d
chi n
ĠJ oe
Ġsh ipp
r ats
ĠVer lag
Ġk urz
bur gh
ĠMich igan
dien st
200 4
O ri
Ġb ird
ach ing
Ġb illion
ish op
ĠCo ast
ĠM ount
D u
ĠAnd roid
or al
Ġh inter
Ġco ffee
urs day
ub le
ĠSt an
Ġwh om
ĠS S
r ates
ĠSch o
Ġes pe
en ni
Ġb rain
Ġr ent
Ġresp ond
ĠT y
ig es
Ġihre m
ali zation
ĠQue en
Ġdep artment
u an
st one
G esch
Ġf o
M em
Ġbes timm
ac ter
Ġide al
vertis ing
Ġunivers ity
ark s
au ft
Ġf and
Ġch oix
m is
th ur
ch sten
A Y
ĠCon tin
ĠStand ard
lich t
ĠH ong
ĠMari n
j an
Ġlibr ary
nah men
ci o
Ġeigen en
ath an
Ġmo tiv
reib en
Ġre ference
ĠB us
ĠS ir
M ail
Ġc ells
s et
Ġcomm ence
ĠMid dle
alog ue
lin ois
w orth
le ft
ĠJoh nson
Ġthan k
B ar
Ġt ag
ĠChe ck
Ġli gh
im a
Ġcompe ti
Ġ196 5
ĠK auf
Ġaward ed
ĠB an
Ġs light
ab ase
Ġc amera
Ġun i
ĠS it
Ġers ch
Ġans wers
Ġaller dings
Ar ticles
Ġver o
Ġg an
und i
Ġappear s
Wh y
osp it
ĠSe a
ru p
pis odes
ĠM ode
Ġt ard
ti a
F il
ug s
se hen
Ġcad re
Ġhat ten
Ġlo an
Ġwen ig
ĠL ED
ĠCom ments
ĠBra z
ĠPro v
ĠOr ts
Ġ4 1
ĠJe ff
Ġtru ly
ĠR ahmen
et ts
ĠE ach
ĠH ers
Ġa head
Ġvers ch
Ġthere fore
Ġbe comes
Ġpay ment
ĠM ul
ĠTod ay
Ġc ris
Ġwe ar
Ġe at
Ġf iction
ĠÂ» .
uss ion
ĠDis c
ti li
ra u
ĠDe v
ns ylvania
ĠK ultur
Ġs weet
Ġstru ctures
Ġle aving
Ġoper ating
Ġa yant
M P
p ress
Ġwork ers
lich es
ĠN r
ĠEin w
Ġdes igns
ĠL ow
ur ies
ues day
Ġ196 6
ĠNorth ern
ĠSom mer
ĠL ud
w al
Ġc ities
ar ten
Ġmin ute
nn ers
ĠIn tel
form ations
isse ment
ĠF ull
Ġlead ership
Ġsqu are
f le
Ġcap acity
Ġc ultural
Ġgen au
un ion
ĠCon f
rie ure
Ġgouvern ement
gra de
we it
sult ats
ĠT itel
ĠA st
r ons
Ġhouse hold
Ġtar get
Ġown ed
ion e
O b
Ġse lect
Ġmost ly
Ġ4 6
Ġsa is
Ġwe gen
Ġsta b
u ting
Ġgen re
ES S
ten ir
ly wood
Ġha ut
gen er
el la
Ġfacili ties
ĠC ru
ĠA tt
Ġw ichtig
Ġland s
ali ties
b ens
Ġextrem ely
w ind
i ans
Ġf ro
Ġgu arante
z ep
uch te
ĠSu pport
Ġbes onders
k om
iet nam
Ġi Phone
nes day
Ġdav on
our t
Ġtr ust
Ġsi n
Ġar ts
ĠG ast
Ġhelp ing
Ġthe me
Ġneigh bor
Ġrepla ced
w ater
lic ations
ĠPre mier
ar f
ĠA ri
>â Ĩ
Åĵ ur
Ġm ot
Ġin tens
W est
J an
Ġsh opping
Ġk ept
ĠC es
Ġsc ene
li ss
b are
oh en
le ts
ri ting
Ġadminist ration
Ġher aus
Ġp urs
ĠF ind
Y our
Ġair craft
Ġra ised
Ġf rag
Ġcertain ly
P ost
th a
al o
d ite
en ess
Ġpla te
Ġrela x
ĠRo om
Ġaff ord
Ġsor ti
ch ter
Ġb ound
ate ver
ĠZ iel
Ġd rug
ĠN ation
Ġcar te
ool s
d d
ĠMi ke
ĠCon se
ĠD ri
i ers
ĠG h
schaf ten
osi tions
ov ie
ĠSt ory
Ġli ved
et ry
Ġserv ing
Ġexper i
ul f
Ġd anger
Ġreg ist
i us
ĠBook s
Ġstate ment
Ġche ap
ĠVers ion
Ġbef indet
ia le
Ġeconom y
Ġre ti
Ġb rief
Ġa st
Ġon to
ĠF R
L O
Ġla bel
M ore
Ġproper ties
H ere
Ġwe it
H i
Ġger ade
Ġg ilt
Ġret our
Ġsec re
Ġlaun ched
h ang
am mer
te ili
Ġiniti al
ĠM ot
Ġro y
Re g
ach s
Ġeas ier
ĠLi ke
at oire
or row
Ġg eben
Ġatt rib
ĠMont re
ole t
y c
c ision
G E
Ġex amin
Ġmay be
Ġleg is
Ġminim um
ĠJack son
Ġst one
ĠAut hor
Ġv ale
sch ul
ĠG ab
ĠS af
Ġmention ed
ĠAre a
ĠAl t
ĠE ff
ĠF ield
it age
ĠK ent
Ġprof ile
Ġs ki
ab s
Ġdri ving
Ġ( "
Ġval ues
ĠL is
ot al
n ar
Ġcon du
Ġg ing
ĠC all
Ġlook ed
Ġtr uth
Ġde vient
ĠAl bum
Ġla unch
Ġsh aring
ĠP ati
ĠA C
Ġupd ate
ĠSouth ern
Ġm oun
book s
qu oi
mer ce
ĠSta ats
ple x
ĠC ri
ĠA S
ony m
e li
Ġmus ique
ĠB aby
] ,
t udi
ĠCont rol
ĠR ab
se h
ay lor
um er
Eng lish
ĠG ed
co very
ĠBro ok
Ġm ac
i ra
ges amt
ĠDe utschen
ter m
nd ern
ĠW ales
Ġdri ver
ĠP sych
un ivers
Ġtrav aux
ĠG ot
Ġfootball ers
ri ode
olog ique
c lass
Ġje une
t udes
Ġde utsche
Ġli t
Ġwin e
Ð º
Ġappear ance
ĠAnd rew
ĠWe iter
ĠPart ner
ge ber
Ġcours es
ĠK ol
ĠP lace
ans ion
os it
ĠO hio
ĠB our
ĠAn th
Ġhistor ical
O ther
Ġc it
ĠTra vel
st ate
ism us
Ġjed en
ung e
Ġman aged
ĠP rice
ĠB esch
teil ung
G ener
Ġaudi ence
ĠN ik
ĠSe it
Ġdis app
ai de
ĠC ard
ĠSystem s
re f
Ġl ou
am an
Ġeing es
ĠTh ank
Ġexper t
ch arge
M o
z ogen
rit ann
au teur
Ġre ality
ĠMod ern
= =
f lu
s k
Ġar range
Ġver wend
Ġapprop riate
Ġprof it
form ance
ich en
Ġshe l
lin gen
ĠGar ten
oun ter
4 00
B ri
Ġperm ett
Ġser ver
ĠG olden
Ġseule ment
om eter
isten ce
Ġd ich
Ġexper ts
Ġattemp t
ĠPa cific
Ġimp lement
Ġacc ident
ĠHer ren
vert ure
Ġapp lied
C opyright
uch er
Ġfind et
tisch er
Ġout door
W ork
Ġremain ed
Ġdevelop ing
ĠPerson al
iv ely
Ġsupp orted
t ru
ĠG arden
Ġqu o
Ġsur tout
ĠMe ister
Ġk leine
Ġ )<
ĠStei n
C are
end ed
ĠSp ain
Ġens uite
Ġe c
st al
ĠN C
ĠZ immer
Th ese
v ant
" )
Vi ew
N ow
Ġl ance
Ġ194 4
Ġph ase
Ġag ent
ac ing
l n
iz es
Ġe lement
ĠA vec
ah m
D I
ĠEngine ering
unk te
ni n
ite te
ĠW ald
ĠF OR
Ġcon na
Ġsec ure
ov es
u ary
p ur
Ġ196 2
ĠCol lection
Ġse ul
Ġsmall er
ĠGe gen
ĠS ou
Ġres idents
Ġwei ÃŁ
Ġfriend ly
ri ger
ĠSt rate
A f
ĠTrans port
Ġ196 3
Ġp air
Ġs now
Ġm ut
geb iet
Ġexperien ces
g art
200 3
elle ment
ĠD og
Ġv ue
nst ler
Ġg la
ĠH ospital
ĠAut om
Ġper fe
Ġli qu
z us
Ġagree ment
Ġg am
ĠK im
ĠS her
S m
od ies
Ġtra vers
Ġ ~
on ia
ĠI rish
ffentlich t
Ġfind ing
b al
g yp
orn ey
rend re
Ġcom fortable
Ġmem bres
M E
ĠA T
ĠG allery
id den
Ġs ante
Ġclub s
ĠAs h
ag ner
Ġsatis f
te te
ĠMi ni
ĠA venue
ep endant
Ġsh ape
N ational
ti ers
> ...
H S
Ġd ru
Ġe hemali
Ġr ule
Ġcom bat
ĠAs ian
icht ung
ĠAnn e
Ġw ollen
ĠT ok
ĠZ w
ĠP oint
temp s
u ft
Ġ5 2
Ġyou th
rat or
Ġ4 7
ĠT ax
B ibli
Ġri de
O ff
The y
Ġp rou
Ġcor ner
l ker
Ġk g
he ast
ron om
ĠPoli ce
S ec
âĢľ .
ĠD C
Ġau dio
ĠC reek
achin e
ĠD or
ĠF ord
ĠM ountain
Ġfin ance
ad ies
ous se
Ġbal ance
Ġv alid
Ġadvan tage
ou re
Ġc up
p oint
ĠH as
e f
Ġd ream
Ġass ist
og n
yd ney
le ben
Ġcontempor ary
Ġter min
Ġanim als
p an
ĠProdu kt
ĠâĤ¬ <
en ced
ĠL am
ĠM obile
Ġjourn e
Ġact ual
Ġt esting
ĠP y
Ġle aves
Ġc atch
ĠPen nsylvania
Ġs ister
liz abeth
Ġdeux ie
Ġm and
oot s
ĠG las
Ġtalk ing
Ġh ospital
ĠCh o
ag og
ov iet
Ġh oliday
Ġd rop
ĠSil ver
Ġf ille
Ġsp i
B I
Ġwind ows
ĠSt udio
Ġman age
Ġinte g
od ge
ĠR is
} <
pon se
p ers
l ungs
AR T
Ġeng age
E l
O K
Ġb order
ien cy
ĠMc C
ĠAns ch
Ġqu anti
Ġjus tice
ĠEr geb
f rei
P l
v oll
y ers
ĠD im
ri ere
W hile
Ġroom s
ĠThe ater
Ġz una
F irst
iss ent
Ġg ard
Ġre ques
ĠE T
Ġfil s
Ġgew a
ts chafts
Ġt or
ier ungs
Ġcomp ose
Ġge hen
ĠB ran
ger a
ol y
n ic
L S
iss ant
Ġmar riage
c op
Ġro of
ĠCh ief
ĠVerei n
Ġsc ored
b lick
ĠA mb
Ġse mi
ĠOn ly
ĠK it
sp an
b ew
ĠS at
ĠK osten
W er
el ess
ran ts
Ġv end
ĠEd ward
Ġc alls
Ġanim al
ĠEr fahr
Ġbeste ht
Ġadv ance
Ġclaim s
n ch
Ġor din
ĠM ulti
d ent
un i
Ġsil ver
Ġmed ium
ĠSen ior
ĠZ ent
Ġh yp
Ġg erne
ou ts
hin e
Ġg au
Ġre tail
Ì Ĭ
ĠC ON
ĠKom ment
G es
ĠS up
ĠSch warz
le men
ow a
Ġvrai ment
Ġmain tain
Ġbe auty
II I
Ġnew sp
Ar t
____ ____
ĠCon tact
ta gs
Ġg ather
Ġd ance
v et
b ay
J ohn
ĠO N
schn itt
E t
Ġlearn ed
Ġprincip al
Ġverschieden en
ord an
pre is
Ġt es
ĠEmp ire
ĠH ann
ĠBel gi
origin e
Ġgu te
Ġsing er
Ġtem por
enn y
ĠChild ren
ĠOn ce
Ġrequ ires
pe cted
ĠRa um
utz t
wend ung
ĠGeb a
F re
Ġconnec ted
te en
F R
m ir
ĠFin an
mi le
g age
Ġno ted
ang s
Ġspe ak
ĠT ab
Ġunter schied
Ġro ll
at ric
Ġc ot
Ġloc ations
Ġ196 1
il en
ĠSp ace
C ont
qu elle
ĠD ann
ta ke
Ġtas k
Ġno ir
Ġoffic er
Ġprac tices
ĠT un
ĠEner gy
Ġcol ors
ĠU ns
Ġbas ketball
ĠGeorg ia
Ġacade mic
ach us
n ks
Ġsog ar
ĠGo vern
ils on
Ġen able
Ġg one
U P
ies en
ati f
ĠFran z
ĠMat th
Ġmes ure
Ġv ar
ed e
Ġk id
ĠK al
m ati
Ġfran zo
Ġreli gious
ĠBeit rag
ĠNi n
gli eder
ĠL ind
Ġregister ed
Ġt ut
ad ow
Ġb ought
ĠSci ences
Ġhon or
ĠS ky
Ġpres ence
Ġgem acht
Ġat tended
ollow ing
Ġp ush
ap ed
ĠSing le
Ġrelev ant
nn te
oc cer
ĠR ein
Ġbehav ior
p ool
ams ung
Ġdes pite
V or
ĠPre mi
ĠVictor ia
Ġg od
aly se
n ight
P oste
rick et
onn es
ment ation
oss ible
glich keit
ĠT ype
app y
Ġre b
ĠLu ft
ĠSch m
Ġl oi
Ġper haps
g ets
ag it
Ġandere m
m at
ĠP ie
Ġsp ons
ĠM S
ĠTex t
Ġbel ong
Ġrep ro
ap os
ĠN oir
Ġcontin ues
ri f
Ġh ommes
Ġra ison
Ġfact ors
ĠM ein
Ġman ie
ĠFrank furt
ĠQu alita
ta gne
w ald
Ġman if
ĠVer fu
E UR
Ġ193 9
ĠRe port
bur ger
ĠFl ug
tz ung
H L
if en
Ġcon tain
Ġspec ta
P ress
p orts
Ġbes oin
op en
dition al
Ð »
Ġpers o
Ġinstit utions
ĠAu ft
ĠS A
Ġ6 00
Ġc am
D ep
Ġte en
t u
Ġprocess ing
ĠS ound
for mer
St and
Ã ¸
Ġfl at
all ation
ĠL ar
u ps
rich ten
g ien
Ġt ests
B ack
ps on
ĠFra ge
ĠCh air
Ġnou velles
ĠD oc
ĠK now
Ġf rei
Ġh all
ĠW atch
Ġhappen ed
s ung
D r
ph a
ĠG irl
Ġarchite cture
au g
ĠF riend
ensch utz
S er
Ġrem ove
Ġbut ton
Ġcount y
Pro f
Ġc row
te ments
ent h
ĠSp iele
F ree
S ur
ow e
Ġro se
sch ung
L ist
ĠF A
o or
P lay
Ġi gn
ĠM es
G ru
uelle ment
ab et
Ġt iss
if ts
Ġtechn ologies
Ġcook ies
Ġother wise
Ġv ente
Ġli ste
Ġst udi
Ġb esser
ĠComm unic
l ungen
ĠMark t
Ġhous es
Ġdev ant
ors hip
Ġpro t
or b
Ġnut ri
Ġerh ielt
ĠStud ies
W ie
ÃŁ ig
w ich
ti ts
Ġex change
ĠD ort
Ġtri al
T ube
Ġlo ad
ĠOx ford
% <
1 50
ant wort
Ġr and
Ġtemper ature
ĠCount ry
Ġitali en
F am
ti al
I mp
ing t
s pe
ĠPh oto
Ġaff ili
Ġ195 6
Ġo pe
Ġfi f
S aint
ĠB ahn
Ġmatch es
Ġf ell
re di
opp el
ĠB ag
k ra
ĠB attle
ĠThe atre
ĠD ark
Ġjou e
ĠL ew
gesch ichte
Ġse ctor
ĠSte ve
ĠPri nce
ass i
po que
Ġp ied
âĢĿ .
achus etts
Ġchallen ges
ĠZ ur
Ġdiscuss ion
ul er
bl og
D P
Ġteach ers
** **
co de
ĠProgra mm
Ġ8 00
Ġne ur
per t
Ġrem oved
B l
ĠEr s
ĠX X
M C
Ġex am
Ġ/ /
ĠS eine
Ġfe u
B re
Ġill ust
Ġf estival
Ġtop ic
an che
we ight
Ġdest roy
Ġf light
200 2
a tic
Ġd rum
Ġjourn al
Ġsee ing
ĠBr un
Ġdiscover ed
Ġch ambre
Ġm ent
en en
C ons
Ġv endre
tell ungen
ge h
ĠN orm
gi o
Ġpublic ation
ĠIn te
ĠH ou
rib ution
Ġpoli tics
Ġp oste
ĠSel bst
V on
- ,
ĠR oll
Ġ195 8
ĠR ub
ocol ate
ĠJus tice
Ġin tended
te hen
Ġacc ommod
opp ed
end a
W as
ĠF un
Ġfra me
Ġj oint
ĠT ai
Ġk il
Ġcomp reh
ro g
00 3
Ġeven ing
ĠPol y
Ġb ord
mit t
ĠTor onto
Ġpro ceed
L and
Ġre tire
Ġdeter mine
ip es
reib ung
ĠG reek
Ġfai led
Ġw ich
on ie
Ġo x
m ing
re l
Ġthough ts
ĠN ote
ĠBro ad
ĠBe cause
g aben
uch s
Ġg un
ac ts
J u
Ġf ear
rou pe
Ġgener ation
ĠF eder
tab lis
Ġve get
oll ar
Ġass ociation
Ġer k
ĠColumb ia
Ġinter ior
Ġal t
Ġincre di
ĠAn fang
an ci
" |
D em
an ten
ĠPri me
Ġh ors
Ġschedu le
T er
Ġenter ed
r m
ĠS tern
!! !<
ĠIl linois
inf o
U B
am ber
Ġpack age
Ġp un
ĠComp uter
I X
ĠD re
Ġpri ve
i nner
ĠDien st
ĠP ict
ĠW and
l ose
i as
ĠT R
ĠHer r
Ġsing les
m eld
nt ario
Ġmur der
Ġhe ures
ber ry
Ġas pects
ĠJ r
p ark
B lack
Ġpromo tion
200 1
ĠH ay
Ġm ental
ut her
iv ent
Ġ195 9
ĠBer uf
Ġent stand
Ġcl oud
ĠB os
Ġann once
Ġn atur
N ous
Ġ194 8
ĠÂ §
Ġnom me
ĠF ront
Ġc ere
ĠElect ric
H igh
ĠL ady
Ġth row
Ġto t
ĠH art
Ġbig gest
ĠCor poration
Ġma il
Ab out
gen ommen
ĠN etz
Ġm useum
ct ural
Ġdis cip
Ġaut or
rie bs
ĠMar g
lud ing
ĠR oss
if y
V ers
Ġsouth ern
Ġintro duction
re iche
Åĵu vre
Ġzw ar
ĠC R
m or
Ġcomp li
Ġinj ury
alis er
Ġregion al
Ġchang ing
Ġver w
Ġdi ning
ĠD iv
Ġc rew
ĠP il
Ġrec on
Ġer kla
ĠS ain
Ġurb an
E d
P op
ĠLei p
h op
Ġsm ooth
ense mble
ĠTh ursday
Ġto ward
se i
Des cription
Ġnin e
ar me
ĠPar liament
Ġcar ried
Ġb ill
U s
sent ation
ap es
Ġrel ation
Ġang eb
g lichen
qu ie
ĠO u
ob by
Ġab and
c up
ĠB le
Ġdi am
c oh
Ġfund s
ĠR est
ar ticle
ĠZ um
Ġunter stu
Ġimport ance
Ġk it
Ġi ron
m ans
ĠIn n
Ġvehic les
ĠCar l
Ġsoll ten
en f
h il
b ourne
Ġges tion
ĠN ap
Ġ9 5
Ġrest ric
Ġch ief
Ġcollabor ation
Ġhand le
Ġexer cise
bind ung
ĠL em
Ġfor ced
ĠBrit ain
ĠF est
ĠS ab
ĠJew ish
Ġsu pe
Ġc overs
Ġpo e
Ġklei nen
utt gart
Ġtra ding
ph p
Ġse asons
ĠM and
Ġbie ten
ĠF arm
Ġp oll
ĠFra gen
re te
kt or
ĠS ydney
E mp
Ġlog ic
Ġa part
Ġmehr ere
Ġe limin
Ġviol ence
Ġcy cle
rent es
l ong
u fer
Ġprep ared
li ge
Ġz ie
Ġ5 4
Ġaut our
ro i
ĠR un
Ġshow ing
ĠSim on
Ġchar ges
ĠCh allen
Ġcombin ed
Ġclim ate
ĠMa jor
tie g
Ġconc ert
Ġfe aturing
Ġgu ys
Ġ194 2
Hist oire
le urs
Ġblan c
tig ung
Ġcomm ande
o tic
Ġpra tique
ĠD un
ĠMarin e
ĠH ung
Ġla b
end es
D uring
wh ich
J ou
Ġsom ew
Ġcould n
ĠBu ilding
Ġ5 1
Ġarri ved
ic ian
Ġw ire
pe ople
ĠLe on
ĠH ave
A ug
ĠM ir
ab ilities
L ast
qu ences
Ġshow ed
ĠV alen
Ġstar ts
t ude
Ġcri me
ĠR and
u ters
N ext
ĠT am
Ġanci ent
ĠP A
Ġpain ting
ĠChampions hips
glich keiten
* <
sch luss
al ty
Ġapp oint
ser ve
8 00
Ġinter ess
Ġcol lect
Ġpat tern
ĠE vent
let te
ĠW ars
ĠG olf
ĠT yp
ĠLab or
Ġw oll
Ġwel come
ni ers
ck ed
ĠProble m
ent lichen
ais er
Ġsc ale
Ġl ose
Ġtre es
it ts
Ġprop osed
ĠB ab
Ġto ile
ĠS itz
ĠT uesday
ar ily
n aire
ĠAl bert
Ġsem aine
ĠB ath
ograph ic
Ġb il
ĠE ric
on te
Ġtourn ament
richt ung
Ġar en
H A
Ġm ob
N C
h at
Ġ195 7
Ġtrans form
ĠR ap
ĠG lu
Ġsel ling
ĠN ick
se y
ĠS ohn
ock et
Ġ5 6
ap ore
g riff
u ages
mp h
z ept
Ein e
ĠWed nesday
Ġenvironment al
Ġa ctor
P L
ĠL iving
ran ken
g reg
ĠM eter
Ġ8 5
is her
Ġed ge
u alite
Ġm ountain
ĠTh ree
ĠW ol
Ġ194 6
Ġsur pris
C ette
D an
ĠEinw ohner
amm lung
Ġvol unte
ĠL an
Ġsuc ce
Ġtyp ically
ld er
un sch
Ġfru it
ge ment
ĠK lein
ĠBur g
c te
Ġcombin ation
ar p
Ġfocus ed
ĠCle an
ĠIs lands
L o
ot te
Ġhous ing
Ġdoll ars
Ġposi tions
Ġcol our
Ġinsp ired
Ġvers ions
Gesch ichte
ĠP ur
k omm
ar ia
Ġparticip ants
ĠHistor ic
Ġfacili ty
c tic
vir onnement
Ġ| --
Ġdon ner
Ġze igt
r den
ĠDis ney
Ġd ad
Ġcover age
ĠSch aus
ĠPat rick
it zen
ĠRe v
p ute
gra mm
Ġp ure
Ġpl ane
ich tet
g ens
Ġer re
U C
Ġremain ing
Ġde te
Ġweiter en
icher ung
Ear ly
ri ften
Ġindust rial
S outh
Ġopin ion
AN T
ĠA z
Ġr ing
W enn
M ark
ĠG em
it o
Ġliter ature
Ġconn exes
uf ig
Ġro w
ĠMi x
Ġinner halb
ĠF unktion
ĠMa ur
im age
Ġprofession als
ĠMag azine
ĠMi nn
F orm
Ġn ative
Ġprocess es
Ġp iano
Ġzwe iten
V ER
ber ger
Ġpro pre
ĠRegion al
ĠC ase
Ġch annel
Ġiss ued
ou x
Ġencou rage
od a
Ġsol di
Ġsch wer
bes ondere
ĠScot land
Ġneg ative
fol ge
Ġ195 2
Re ad
Ġbeg ann
ĠC V
Ġfa ctor
olog ist
Ġd ivid
Ġ195 5
Ġ194 3
ĠN eben
ĠB oth
aw a
Ġa gency
ĠL iter
Ġ194 1
Ġf ir
ĠG R
B O
ĠS earch
Ġupd ated
Ġ Ìģ
Ġmen u
Ġcre ation
av oir
pub lique
Ġnorth ern
Ġpro ce
Ġje unes
Ġprac tical
Ġr ew
ĠY es
ogra phi
ĠI hren
v as
ĠEnt wicklung
S w
ĠM un
F rance
Ġdes c
ien en
Ġass istance
Ġconn ect
v ra
Ġsus tain
ĠM ethod
lan de
R et
Ġk ur
un ting
ner gie
Ġkeep ing
Ġlong ue
ĠCiv il
ple te
g las
Ġcin e
Ġex cept
oun ting
Ġf oll
Su per
iss er
Ġc ategory
ress es
r ature
ci ence
isch of
alle t
K ar
Ġwai ting
ute t
lich keit
Ġrap id
Ġgu y
w eb
d chen
ĠF ox
ĠC lick
Ġpass er
ĠKore a
Ġcommun es
ĠSt ore
Ġ9 9
ionn at
Ġand er
ĠD abei
D a
Ġsus p
ĠMillion en
od er
en burg
Ġrecord ing
ab ilite
Su jet
ĠV ietnam
Ġb elle
R ed
Ġwen iger
ring en
Ġar my
Ġs enti
Ġadd ing
L ab
ĠAnn a
ĠSm all
ĠA pre
Ġinform ations
f al
Ġrelig ion
Ġrepres ented
Ġcon vention
li ct
Ġcaus es
P M
Ġthous ands
go ing
ak t
Ġ áĦ
ĠT aylor
ur ers
zon a
Ġverwend et
ĠQu ar
Ġmess ages
ĠMiche l
Ġpoli cies
F eb
ĠI ra
Ġ- <
Ġst ores
ĠM ind
Ġpurp oses
ĠB C
Chr is
ĠM ill
ik o
ub a
ĠI hrer
ĠWal ter
ad d
ĠB ell
ig keiten
Ġha ven
Ġbro wn
ĠPro vince
ac re
ĠFol ge
ri x
Ġmach ines
ĠLe ad
als o
s ki
ax y
Th anks
Ġer ror
y ou
Ġex ecutive
Ġrelations hips
m und
Ġallow ing
ei ns
Ġpar king
ĠAr gen
ĠF ederal
Ġter ror
erv es
Ġw estern
Ġrai n
n formation
ĠSp irit
ag a
Ġdo ors
ĠUntern eh
ak tion
Ġh ockey
ĠEle kt
ĠSch utz
is ters
ou ri
ĠReg el
ei le
Ġclean ing
ess el
ri ence
ĠHear t
Ġuns eren
Ìģ -
Ġpurch ased
il ton
Ġh ers
ĠF ut
ĠM om
gemei n
Ġzus a
ĠG el
chi nen
Ġrela tive
ĠS ales
ĠUS B
ĠS l
o line
Ġwi nner
ĠN ext
Ġvis ite
Ġfun ctions
ĠS yn
ĠAs sembly
ur ent
Ġj ump
Ġw ahr
Ġent fer
ĠO ption
Ġadminist rative
ĠV illa
Ex p
Ġf ill
ru ption
ĠRe volution
on ge
ĠHi n
ĠJun ior
fest yle
is tics
ali en
ĠF en
Ġa w
ap re
H ar
ĠPro jekt
lin a
ĠMass achusetts
ĠG reg
Ġth i
ĠGer a
Ġ195 4
Ġer fol
ĠComm on
Ġnombre uses
Ġfu el
Ġciti zens
>âĢ ŀ
Ġvict ory
Ġre ven
Ġgrand s
Ġtow ns
Ġsy nd
F ind
b ewer
Ġ194 9
Ġr ise
ĠT hi
Ġun ion
tai ner
Ġd ates
ĠN iger
Ġp aint
et her
ĠB M
and o
Ġacc ord
ĠSh ort
Ġ194 7
Ġg ross
Ġp p
ĠStra ÃŁe
ĠEn viron
ĠE is
ĠT ake
Ġas sez
be k
Ġcabi net
ĠN ar
Ġan sch
RE E
Ġproduc er
Ġpolitici an
u il
O ut
hn ach
go ti
Ġsw itch
gh an
D C
f ik
av i
Ġex tended
ti mi
Ġu pper
K E
ĠL or
f an
Ġchamp ion
ĠMin uten
n ach
Ġt aille
ins on
ĠChe m
op her
Ġbis her
ĠN am
ĠEas tern
ĠIn iti
un ately
Ġber u
G A
O ver
h aupt
Ġb out
au ch
C ha
stag ram
Ġ5 3
u ÃŁ
Q U
duc ing
Ġestablish ments
b ul
ch ing
Ġc ir
Ġbon us
Ġab ge
Ġein s
Ġsound s
ĠF ig
le ve
Ġc oin
ĠK ri
Ġa wesome
Ġwas te
ĠM ap
ĠDe utsche
Ġs oi
H and
ĠF L
rs g
Ġwebs ites
Ġsecond s
L eben
ĠS H
Ġs tim
ĠMar s
ĠT on
Ġexpl ore
ĠIn vest
ĠSch a
Ġprom ote
h ou
Ġsh oo
ĠPart ners
Ġda her
ĠE lizabeth
che m
Ġme ant
Ġb ru
ĠEst ate
Ġins titution
ĠVer anst
Ġoffic ers
Ġ193 8
AL L
Ġins piration
Ġcandid ate
etz te
Ġpot enti
ĠA ction
Ġmark ets
dic tion
n om
f ung
Ġe ux
ov al
Ġde gre
ĠL atin
Ġin ternal
Ġg a
ĠN ations
Ġe lles
Ġob vious
arbe iten
ans on
ogra pher
Ġpan el
Ġ195 3
Ġsign al
iz ing
Ġrestaur ants
Ġsur f
S ub
ĠS emi
ĠEnt re
Ġinstal led
âĢ ĺ
Ġa i
Ġsol o
ĠJ ob
c at
ĠRe ise
G est
E P
Ġbeg ins
Ġslight ly
ĠRe f
Ġle icht
Ġshipp ing
Ä ±
p erson
ĠD ruck
h ler
ft ung
Ġk ick
c ue
h ic
ĠBe gi
ĠKomm un
b est
an th
Ġv u
Ġro b
ĠPar ti
s weise
Ġgu est
ĠD orf
Ġcor porate
v it
de z
wir tschaft
us ter
Ġ5 9
Ġstrate gies
fa ult
ĠL ot
2 50
Ġs la
ĠPh otos
es ota
ĠP RO
ĠC u
ĠJac ques
ĠR ang
w en
ĠH inter
ĠVers and
ĠSt one
B o
phi a
ĠB it
it aire
ĠG ri
ĠKon takt
Ġrefer red
ĠM oh
Ġaccep ted
st yle
ĠOrigin al
Ġi hnen
Ġam bi
ĠJahrh under
Ġfact ory
Ġre form
Ġser ait
ĠK or
Ġ q
we hr
Ġ1 10
Ġpl astic
Ġvisit ors
i nformation
ĠC ulture
gru ppe
Ġe uch
Ġa id
ĠS oviet
ĠE P
ze uge
Ġscienti fic
ĠColor ado
ĠB ere
ĠB ridge
Ġa ware
li tz
Ġedit or
ti ges
Ġlead s
d re
R S
ur m
ĠI ll
nd ung
Ġmed icine
Ġex ist
ĠGes ellschaft
Ġperman ent
ow nt
Ġbu ying
j ack
ve au
ĠR on
Ġkn ows
ran g
zeich n
Ġor ders
ĠM ember
n age
] .
ma is
ĠSp ra
ĠGru ppe
B ay
ĠLand kreis
Ġpro xim
Ġfund ing
ch lich
ĠExp ress
je ction
he tic
ĠAss oci
ti ment
Ġp ose
el te
Ġpar alle
oc ated
L ou
Ġtrans ition
K e
ut ation
ĠEv ents
ĠAd am
ĠA thle
Ġgu ests
ver ein
Ġex tend
ĠT el
ĠSpiel er
ĠG ard
Ġjus te
Ġcy c
Ġhelp ful
ro t
H P
ĠB is
ĠD own
Ġs ommes
Ġrespons ibility
ĠB ah
P ort
qui n
tell te
c ard
Ġsur vey
or de
e ments
Ġcon text
K on
k unft
6 00
A re
ĠCon c
ĠFor est
ali er
Ġpers pective
ĠK y
ĠE p
V ol
M en
C lass
B on
Ġser ont
m agne
Ġ193 3
Ġh il
Bi ographie
Ġdur ant
id as
Ġf ly
Ġen semble
obili er
Com ment
fahr t
Ġg r
o ise
ro ph
H T
Ġdi pl
Ġex amples
Ġour s
Ġme isten
ĠB R
> @
use ment
- <
Ġsex ual
Ġcre am
cl usion
ĠMit arbeiter
ĠHar ry
char ger
pro du
Ġear ned
Ġgu ess
Ù Ħ
Ġkein en
>Â »
Ġb ridge
ĠC L
hab it
Ġenjoy ed
ĠO ntario
Ġmix ed
Ġd ens
a j
Ġwalk ing
ĠIns urance
te ile
ĠMa de
Ġsti ck
entre prise
ĠEner gie
k osten
Ġat m
Ġcap able
Ġn uit
Ġf illed
Ġ5 7
Ġa wards
ĠD ir
enn ess
Ġt ells
W orld
V is
Ġmain ly
I ER
p are
Ġre j
Ġpar ten
reg on
gen cies
u able
m and
Ġtra cks
os h
Ġco ordin
Ġidentif y
a ult
adel phia
Ġp od
Ġdeta il
Ġpi n
rus her
ĠÂ °
Ġprogramm ing
ĠSt uttgart
onn en
Ġfor get
ĠR ud
line d
d ruck
Ġeing e
T ag
ĠC EO
Ġpl anned
fic ations
ĠYou Tube
ster y
ons i
bar en
Ġ5 8
Ġnear by
Ġgar age
S port
Ġre cht
ĠP L
ais se
ach es
ogra fie
sch rift
n on
Ġmin istre
ĠLeip zig
ĠD rive
Ġges am
ili en
ly n
!! !!
Ġparticip ation
Ġhapp ens
ĠW ilson
ĠC ab
Ġb la
ĠH it
ĠAr ticle
Ġn urs
Ġoff re
ĠWil helm
ĠR ol
Ġm outh
ĠT urn
ĠE ig
ĠProduc ts
mer ikan
ĠEin zel
Ġsou hai
P lus
m lich
Ġeduc ational
Ġwh atever
Ġappro ved
Ġre duced
Ġb right
Ġbelie ved
Ġreve aled
ĠV ier
Acc ording
Ġje ux
Ġexclus ive
oi le
all eng
C ur
ĠE dit
ille urs
Ġvo it
Ġrecommend ed
ĠC ry
19 99
V o
ili s
nn y
ĠM achine
ti ble
S ep
na us
A nt
Ġfield s
Ġch art
Ġpar ent
Ġpass age
Ġde cide
Ġorgan ise
B M
zie h
Ġz a
L et
Ñ ĥ
x ie
Ġs ides
ĠSte el
Ġp osse
ĠK ateg
Ġsur ve
T re
h ance
ĠPak istan
Ġperform ances
ĠCha ussures
v ens
O G
Ġdec isions
Ġgood s
IL L
>| <
le itung
Ġs ample
fas st
lect ric
U m
Ġelect ronic
ĠGe or
Z e
ĠD utch
um ps
nis te
ĠProdu kte
o z
hand lung
ĠDem ocratic
imm ing
ĠT owns
f ted
z ess
Ġdro its
IT E
f ois
Ġauf ge
00 00
p ann
av or
Ġaut hen
S ing
an im
Ġfoll ows
C S
Ġconduc ted
Ġexp lai
ĠAlex and
Ġ195 1
ĠEx ecutive
ĠN S
imm t
ning s
ĠSecret ary
Ġj ack
a a
Ġbo at
ĠM aison
Ġ ..
mer cial
f ar
Ġther apy
Ġsc ulpt
ĠGran de
ĠAl tern
Ġt ab
ĠM ik
Ġinf rast
ĠCamb ridge
ĠC ore
tis te
Ġg ri
Ġdie t
Ġm anner
Ġmod er
Ġmov ies
Ġsh ower
Ġj ardin
Ġdeta iled
Ġspecific ally
onsi n
ã Ģ
Ġcirc um
ĠJ am
f rom
Ġ193 6
Ġter rain
Ġdi nner
ĠHil fe
atter ns
R em
Ġsuc ceed
Ġing redi
ro ck
Ġvoc als
ĠBri g
ĠAn other
fl uss
ewe ils
Ġag ents
ric aine
ĠV it
L ie
ĠH ind
D ate
Ġcompon ents
ĠT en
Ġge gru
ĠB ible
Ġbre ath
c oin
Ġy ellow
Ġr ural
Ġhold ing
ĠD I
ĠVide os
Ġobs erv
ĠPro per
Ġhon est
ĠM att
Ġoffic iel
lud ed
ĠJ azz
Ġprou d
AT E
Or gan
ĠSe ason
ĠA me
schaf ts
ĠGes und
Ġre ar
iv en
r ors
ĠS uch
Ġstud ied
Ġch ain
Ġintern ationale
ĠK itchen
S tra
mar ily
ĠC ot
Ġli ghts
ĠB row
Ġp it
Ġiden tity
J ust
gra m
ĠA qu
Ġgegen u
ĠMet al
Ġsu gar
ge hen
Ġc ate
Ġen em
Ġac ce
ĠK as
Ġrail way
Ġann ivers
Ġpor tion
ĠC OM
Ġad vertising
tif y
Ġfil ter
Ġparticu lie
isc onsin
Ġhor se
ĠV illage
Ġunsere m
ĠF al
V P
Ġpla i
Ġrich tig
E very
ĠB E
u gh
Ġsymp t
Ġqu oi
de te
Ġappe le
ĠThr ough
Ġsurround ing
Ġkann st
Ġb ureau
ĠPi n
ĠL ocal
ĠPra c
Ġverschieden e
Ġs we
Ġcom fort
ĠD ok
Ġb io
Ġco ck
Ġsch warz
Ġl os
ĠMod el
ather i
r ity
ĠSt unden
Ġm g
Ġ= >
Ġcin q
Ġclin ical
ĠA ge
Ġde utlich
W ar
Ġtw ice
de ck
Ġver k
ĠN ur
or ough
ari f
! !<
Ġp lein
Ġconcer ns
ĠIn nen
ta le
od i
Pers onn
em pl
are t
ra is
ĠSchwei z
Ġtas te
ĠE X
Ġfail ure
New s
om ing
ĠCou pe
ĠK ath
ĠCor ps
ais es
g ger
fu ge
ing ly
Ġpe tits
Ġprom i
eb e
c r
Ġdeliver ed
Ġ6 6
D en
atheri n
Ġpro ch
rit te
ĠâĢ º
ĠVer gleich
Ġe ating
N r
ĠV iel
ĠKir chen
ĠO il
ĠG il
ĠMit te
ĠB ol
ru pt
ĠM ission
Gest orben
Ġass istant
D av
ĠSen ate
Ġcou leur
ĠR ing
Ġg i
ĠLy on
P ublic
ĠC S
Ġtrou ble
ĠR oute
Ġc os
ew ay
Ġ7 2
ĠI ss
Ġcommit ted
Î ±
pond re
ĠClass ic
Ġg ed
C al
ĠN at
p ose
Ġdefin ed
Ġintro du
Ġlo vely
ĠB BC
ĠB lick
b ian
Ġdec re
Ġcri tic
inn ing
Ġvo iture
ha ft
ke e
atherin e
ch ant
Ġsupp le
ĠN OT
Ġle cture
W E
Ġcer tific
Ġli bre
Ġt ables
y ard
Ġdis ting
vis ed
Ġre tra
ĠR olle
Ġter re
re me
Pro du
Ġe her
ale m
ĠR ain
Ġsu jet
Ġbed e
Th ank
Ġoper ated
N orth
Ġcomp agn
ĠAl ter
ti ss
aille urs
ur l
ĠÂ» .<
jec ted
ni en
Ġindivid u
Ġal ter
ir ts
Ġidentif ied
mark t
th is
ant ry
e ign
Ġfig ures
oth ing
Ġsor tie
ĠWelt krie
ĠM ath
Ġclear ly
ed ing
Ġmodern e
Ġang lais
ĠâĨĴ <
Ġpremi ers
Ġimp ress
ĠQ ues
ri ques
Ġfl owers
amb res
Ġgreat est
ĠL age
Ġch osen
ĠDav is
bar a
vis or
Ġbas eball
fic ial
F l
ĠK opf
ĠAmeric ans
Ġinv ite
Ġdemon st
Ġma tie
Ġla quelle
ĠHein rich
ord on
Ġg rew
Ġt aught
ĠG irls
ĠB ewe
Ġdep end
ĠBern ard
ĠSqu are
Ġun less
Ġoffic ials
Ġth ick
L ocation
Ġcal ling
tra ck
O u
ĠS ocie
Ġfe es
Ġbe at
Ġcher che
ord nung
Ġs ons
oc cas
C or
W el
w altung
ge ord
O ct
Ġg olf
ric ks
ĠAr thur
v ar
M ag
ĠHel p
Ġcamp us
Ġcons erv
Ġmem bre
S an
Ġre cipe
ĠC P
ĠL ock
Ġer war
cont re
Ġlors que
ĠEr st
ĠDire ct
Ġsch olars
ĠLud wig
Ġfl ash
Ġbr ings
ĠP ays
Ġw alls
Ġg ay
Ġhi naus
Ġrep lace
ik es
Ġne hmen
Ġexp ensive
tim ately
Ġf ron
ĠD enn
Ġend s
Ġmuss te
Ġfre edom
Ġpa ar
k ur
Ġcons ists
iss on
ĠProf essional
sch ie
zei tig
Ġdi rige
ĠL auf
ĠRo ber
ul ted
ail and
ĠD ol
Ġgew ann
Ġpre d
Als o
ĠLie fer
w issenschaft
Ġbl ess
Ġagre ed
en cer
ĠRep resent
ĠFin anz
Ġvis ual
cep ts
ĠEnter tainment
Ġwatch ing
Ġpaper back
qu est
Ġ19 14
ri ers
g ot
Ġst ret
un ior
gar ten
ĠCo ver
Ġnouve aux
re lated
Ġelection s
Ġd ure
Ġentre prises
Ġcommer ci
ĠC irc
cri p
Ġi d
ĠP ain
ze iten
Ġs tellen
ĠGu ard
Ġsp ending
ra ce
Ġmainten ant
Ġin n
B R
Ġparticu lier
Ġmeas ures
Ġob ject
Ġwould n
Ġinst ance
' <
ma de
Ġ19 00
Ġmon it
ĠO cean
ac o
Ġneighbor hood
ĠN ature
le icht
ĠH ur
x e
du ate
Ġshi ps
ĠP od
Ġorder ed
st ream
f ront
Ġpar ce
ul ous
uten ant
ish ing
Ġsp or
meld ung
Ġro i
Ġass um
a way
Ġin vi
Ġth read
ati k
ĠT reat
Ġw illing
Ġsur gery
Ġpossib ly
Ġbe zeichnet
Ġsp lit
Ġfix ed
ĠInter view
igur ation
ĠM use
Ġad ults
ĠD J
ta ires
ri en
Ġstand ing
Ġhe ight
Ġiniti ally
ĠBay ern
Ġres ource
b ell
ĠT ier
Ġfon de
G en
Ġpl enty
ĠN otre
Ġv ib
Ġp rise
Ġj eweils
Ġo k
ali e
ĠSteph en
Ġextens ive
ĠJ i
Ġlis ting
Ġeig entlich
se ud
Ġpro ven
Ġdes igner
f ting
ĠRestaur ant
Ġmom ents
Ġtrans mission
i ally
Ġr uss
ĠFinan cial
ĠHo f
li r
Ġhist ori
te ilt
Mi n
Ġpap ers
Ġhistor ic
ĠDe ad
ĠBe fore
ĠVer kehr
ĠMater ial
Ġexci ted
Ġbro ken
Ġparf ois
Ġexp ression
Sp orts
Ġdetermin ed
at ung
ĠSer ver
Ġprof essor
rit z
U K
Ġsupp orting
> !
ar r
Ġdom aine
ĠSch loss
Ġsug gest
ĠF antas
Ġinter ests
ĠSta aten
Ġi P
ĠGu y
ĠLim ited
C L
Ġh ospit
Ġfolg enden
ord en
lis chen
ym nas
d el
Ġfac ulty
ĠK ids
Ġde bt
ĠT at
ow der
Ġbo ys
ĠSt yle
ĠBa um
ĠQ ui
Ġaccess ible
ĠPer formance
Ġdefe ated
Ġt ie
b ad
Ġsoll en
Care er
m ework
Ġabsolute ly
Ġ6 9
Jou eur
des h
Ġsei nes
Ġfantas tic
Ġacc ounts
ĠIn nov
min ation
Ġg ear
id o
Ġgrat uite
cou vrir
Ġrecogni zed
Ġfin ale
ĠSch iff
ĠPolitik er
st ances
Ġill ustra
Ġconf irm
loy ment
ous es
rop oli
Ġs ang
geb ung
Ġun ters
d ale
ĠK raft
ĠPla ces
Ġkonn ten
D ire
M et
C ap
ust rie
ĠDet ails
organ isation
assi n
w ing
Ġclaim ed
Ġauf grund
ri nt
ag on
Ġlic ense
ĠD S
ĠInd epend
v ise
ĠX V
Ger man
ous s
ĠS lo
Ġfran ch
Ġprote i
Ġorgan ized
b ing
ĠConse il
Ġ193 7
Ġaff ect
Ġg lob
ob ei
Ġs tellt
Ġprotei n
ett bewer
Ġres ol
Ġd ump
Ġf ellow
Ġemer gency
ĠS ant
oper ation
Ġa j
Ġmass ive
ĠO S
Ġn ahm
ĠE lement
Ġsch le
Ġa e
Ġread ers
ĠMed ien
Ġquali f
ĠK urz
oli e
ma tic
lie ÃŁen
A pre
ta k
ng en
th od
ĠFamili en
Ġhold s
Uni ted
zeich nung
C lick
Â §
Ġspe ct
Ġ19 18
ĠP au
mi que
Ġspe ech
hal ts
ex e
w id
por ated
en ed
Ġworld wide
om y
Ho tel
In ternational
Ġm ole
h omme
Ġze it
Ġtop ics
Ġpl ug
Ġter me
ĠW ert
ing ungen
ĠMed icine
V A
a cite
Ġs cript
Pa ul
ens ation
Ġlog o
Ġserv es
I O
ĠN O
Ġprote cted
Ġrou ge
Ġf lor
ĠK li
hi bit
Ġpri marily
Ġdom estic
Ġsur prise
Ġer a
ĠDon ald
ĠD ip
wor ten
ĠDe f
ur u
ĠOr d
ĠCh at
i ors
Ġbatter y
cri be
Ġb att
Ġdat abase
Ġ7 7
Ġorgan isation
av al
Ġt ail
Ġauthor ity
Ġcommun aute
Ġrece iving
1 20
ss el
ownt own
Ġac id
Ġver t
qu ant
ĠM utter
D ist
lieÃŁ end
ĠAngeb ot
ĠC orn
Ġinstru ctions
ĠE isen
Ġm einer
Ġtro tz
Ġch alleng
tic ed
ĠW es
Ġbek ommen
ĠR hein
ĠAr n
Ġg al
an es
ni k
B es
Ġe lev
Ġeff icient
che t
Ġins gesamt
Ġv ul
ĠWh ere
Ġse chs
Ġpla is
ens ed
ival ent
ĠDi am
W S
ren n
Ġer o
Ġ1 30
Ġlet ters
Ġphot ography
c ul
ĠF red
Ġsie ht
Fu ÃŁball
ĠT ipp
Ġne ut
S im
c os
i ness
ĠNach t
Ġeig ene
ĠB lock
Ġupd ates
A g
A ir
ĠJ ordan
ous i
ĠM ou
AR D
ĠPol and
Ġv ice
ĠArch ives
Ġmondi ale
ĠMinn esota
st ers
ĠPh ilosoph
M ost
ĠN atural
ĠTh om
f rage
tit led
Ġo lymp
ar on
Ġ6 8
em s
Ġtra ve
c tement
( '
Ġsci ences
ĠC C
um ie
a ur
Ġg az
Ġentre pren
ord re
ĠF oto
ĠO range
E lle
Ass ociation
b la
Ġm ote
Ġcont est
our se
l lig
ĠLe vel
ei er
H ol
Ġexci ting
li gh
h ome
ich ter
> +
Ġsou l
Ġv iv
ti r
ĠPriv ate
och ter
Ġh erv
ch ste
ĠTr ust
occas ion
Ġimpro ved
Ġpre gn
Ġr ough
Q ue
P art
b esch
Ġdestin ation
Ġrep lacement
Ġb ronze
Ġsig ns
ĠPortug al
199 8
b is
Ġap artment
Ġli es
Ġne ck
A pr
ĠHol y
di a
ĠD aily
ĠT ony
Ġdivers e
Ġer reich
la v
ĠSi x
Ġinnov ative
ĠAg ain
ĠR ound
Ġcons titution
n ehmen
Ġannoun ce
Ġwe alth
w ohl
ĠLew is
ĠCl oud
T P
nis chen
Ġbirth day
ĠLe ave
ĠO ak
ta lie
Ġcompreh ensive
k ung
Ġsag t
ĠIn stagram
ĠR id
ĠSing apore
abi n
N S
ĠM iller
Ġvis iting
pre chen
Ġre alis
Ġkom ple
Ġfund ament
ĠJahrhunder ts
Ġpl as
Ġne goti
Ġcabi n
x i
ĠSch ule
Ġhe aring
amed i
A v
Ġlang uages
ĠD och
b rid
Ġme ist
utilis ation
all as
Ġres erved
g ren
p les
Ġp ump
V ideo
Ġact ors
Ġar re
ĠN ag
ar is
ĠW y
ag ram
ĠNi ke
ĠGovern or
ĠR as
ĠCast le
Ġde fense
ĠQue ens
ĠTe ch
Ġcom edy
M ich
Ġmat hema
ag t
Ad d
ĠSt ru
Ġh ur
war eness
ti o
Si nce
Li fe
ĠB ase
ced es
ic y
ĠWo che
ĠD id
ĠW ein
ĠP ad
ĠDie go
kir che
ĠMin istry
Ġre volution
chest ra
je kte
ai led
ri ka
ĠPro cess
b ig
19 90
Ġk ill
Ġwhe el
Ġpl uto
OR T
p ost
ĠRail way
iss ions
ĠAn im
Ġfra is
ĠB ear
ci li
Ġp hr
Ġj oy
Ġfre quently
Ġdes ire
ĠFin al
ĠE mer
ab ha
miss ions
tain e
Ġv ary
Ġdec ades
Ġentre prise
m ain
ĠSp ie
R C
hl ung
Ġimp ossible
B ro
Ġrem ote
Ġsow ohl
ĠT rib
Ġextens ion
Ġput ting
H a
Ġus age
Ġ193 5
ĠR und
im s
it ations
Ġ6 2
ali a
ĠF ot
chei nt
B et
d its
tit ut
Gener al
Ġpriv acy
Ġren ov
h nt
Ġrapide ment
ĠAd v
Ġâ Ķ
ĠFrank reich
Ġbus y
ĠP ic
Ġs agen
lot te
ĠR at
ĠIn stru
Ġ6 3
v ors
k el
ts e
Ġd os
leg ant
Ġw elt
c ase
ta ils
uz z
ti ck
ren cy
Ġacqu ired
Ġgro s
oi ning
ĠThe men
le z
ĠJ ava
Ġar ms
it re
R L
bens o
ĠSup reme
Ġmanufact uring
la tive
u els
ĠJ obs
ĠScot tish
ĠBri an
ĠC os
B E
P E
od ing
Ġtraite ment
Ġconvers ation
L ook
Ġdep art
ĠPhil adelphia
Ġcapt ure
Ġatta cks
Ġdep ending
Ġreti red
Ġdri vers
Ġprincip les
Ġsupp orts
Ġcandid ates
Ġhistor ique
ty pe
ĠL icht
a uss
Ġl oin
Ġsuccess fully
fe fe
O h
Ġra d
ĠV ater
ĠE li
Ġhyd ro
ĠF eld
ĠB ody
ĠAri zona
ĠM icro
B el
ĠAd ministration
u its
. ):
ĠM D
Ġtru ck
Ġsitu ations
ĠEx tra
Ġproper ly
Ġs ad
le vel
vi ation
ĠF eh
Ġpremi um
ĠDies er
ĠIde as
Ġmo tion
Ð ²
Ġconf lict
Ġterrit oire
Ġf ourn
Ġbut ter
Ġ7 8
Ġde als
ĠR ight
Ġprov ider
ph ones
Ġquel que
Ġob tain
Ġv otes
Ġerst mals
ang le
Ġsub mit
Ġseek ing
e tings
Ġsuit able
M al
Ġins besondere
Ġtal ent
ĠSar ah
Ġbe ispiel
ĠV ene
ĠZ uk
p x
Fil ms
Ġtrans par
Ġz er
Ġmag ni
Ġtur ns
foli o
Ġl atter
ĠR ena
ke a
Ġc ensus
Ġe book
Ġhe ll
Ġch ac
Ġpar mi
Ġfor est
H z
Ġrec onn
ĠD ro
Ġt rat
rol og
che lor
ĠMo on
cre di
chin e
est en
AG E
ĠH ab
ĠEnts cheid
Ġâ ĸ
Ġligh ting
E sp
ĠFe uer
Ġbring ing
Ġse mble
ĠAu gen
Ġcar rie
ÌĢ -
Ġ193 4
Ġte a
ĠL LC
G ro
Al bum
ĠK os
c us
Pre vious
ĠB io
Ġsty les
ÃŁer dem
ĠMan chester
Ġexper tise
ĠDou ble
Ġm ig
ran ger
Ġis ol
im er
P at
Ġfif th
Ġhe u
Ġdom ain
ay er
Ġbe vor
S al
Ġsh oes
Ġwor ry
ĠS em
ĠSal z
Ġre de
ed u
ĠOb ama
gor ith
ĠIn ves
Ġob tained
. ),
ze ch
Ġge fa
ĠG la
z iel
ĠA y
Ġalong side
Ġrela tively
ĠJe ux
ag u
conom ie
O lymp
ĠO regon
ĠA th
Ġl osing
ĠW isconsin
hal f
ĠZ wei
ube ho
Ġra ise
199 7
v ard
el ma
Ġi con
Univers ity
Ġrec o
ĠInd ones
Ġ19 19
Ġdess i
oc o
Ġair port
Ġan zeigen
Ġla isse
oma tic
ib ilite
ens te
Ġcomp osition
we iter
ard o
ĠT ick
Ġexp lo
che iden
ag ues
Ġh aute
Ġc ult
ĠBraz il
Ġvac ances
ĠVe gas
ĠW or
ĠG ree
um ini
tern ehmen
ĠKre uz
Ġcol lected
ĠKe ep
lie fer
he ure
ĠBra d
Ġmili eu
Ġent h
ush ing
Ġdog s
Ġres olution
Ġt ac
ol en
w hile
ori n
Ġautoma tically
Ġassess ment
inter est
Ġcirc uit
ab ord
Ġconfir med
coh ol
ÌĢ ,
ĠHol lywood
ĠBar cel
le m
roll er
Ġro les
Ġob jects
old s
Ġres ulting
Ġso fort
Ġintel lect
M I
Ġal ten
p df
Ġfound ation
ĠE ver
Ġpour rait
ĠM E
d ru
ĠB ureau
Ġretrou ve
w asser
U nd
ĠEs c
enness ee
Ġeval u
ĠSta tis
cou vre
ĠT emp
ĠA h
ĠH ope
ĠD res
yd ro
ĠAb end
Ġtrois ie
ent es
Ġbi ke
Ì £
as k
ĠSchwei zer
\ "
N ote
oc a
Ġdec la
ĠSer ie
ateg or
Ġm ill
Ġen hance
Ġrec over
as ts
ke its
Ġregular ly
Ġcon j
Ġer mo
H rsg
Je an
ese hen
ob en
Ġstatis tics
tern oon
G O
ĠMem orial
Ġwid ely
Ġb ritann
Ġt ap
Ġmoy en
Ġh ast
Ġspiel te
ĠJohann es
en c
Ġask ing
yn as
Ġauc un
cont ent
Ġsugges ted
Ġg ens
ĠKore an
atel lite
E st
ĠP ed
B ra
Ġren ew
k mal
IS T
Ġhand elt
Ġbrand s
Ġver m
ti z
A V
Hist or
Ġmoy enne
Ġpre dic
vent ures
conom ique
Z u
ath on
Ġc aught
ap ie
Ġsta i
Ġtot ally
ĠI d
Ġspi n
ĠE he
force ment
ens is
Ġ6 7
Ġconc rete
Ġgemeins am
pla te
ĠV oll
ic ide
g on
ĠAd van
ĠT ourn
Ġgef unden
Ġp atterns
Ġt ough
Ġli tte
ĠOffic er
Ġbrow ser
U r
Ġm arine
ĠConn ec
ver tra
ĠM erk
Ġnewsp aper
ĠH ills
g les
Ġtem pe
Ġset tings
Ġf unktion
ĠLin ks
Ġemp has
Ġconse il
ul um
ak h
ĠSu che
ut or
Ġmod if
Ġyoung er
ound ed
IC E
Ġintel ligence
ov ic
Ġvi ent
ĠEl tern
U ns
Ġhe ure
r f
Ġc orn
Ġcommon ly
S y
w riter
ĠStra ÃŁen
Ġ ling
Ġse ats
ĠMi ami
ĠRepublic an
hy th
ĠP aper
F S
an ter
ver te
Ġp ron
{ "
Ġqu iet
ĠG r
Ġc ouncil
en ing
Ġsol ar
Ġprep are
ĠA udi
ĠC ann
ĠMa ÃŁ
ĠSaf ety
igh ter
Ġparticip ate
Ġle ather
G reat
Ġeng agement
ĠL ac
ĠWir tschafts
Ġ19 29
ĠOffic ial
Ġz ones
timm ung
J a
is hed
A ustrali
ĠS ki
Ġseem ed
199 6
U nter
fort unately
Ġd r
ĠRa j
Ġcomm ittee
Ġtra il
b n
ĠK ansas
it able
ĠD ank
Ġgrand es
ĠR yan
ak ter
ĠD ig
Ġ(âĢ ł
Ġ7 6
Ġun able
ik ing
Ġfeed back
ĠRe cht
ed ish
ĠB ass
p ed
Ġsit ting
Ġacqu is
1 10
cri re
te chnik
ĠE ing
ĠN ut
K om
Y ear
Ġ( ),
Ġwer de
col n
old ing
ĠF ro
n ements
Ġtick ets
Sie he
ĠAnton io
Ġdar u
Ġcertain es
Ġhabit ants
ĠL iv
ĠDe ath
G ar
Ġaffec ted
Ġgen annt
lan zen
ro lle
ĠD ating
ĭ áħ
gi ble
hal te
Ġk lar
ver band
Ġsign e
ĠCh ange
Ġexp lain
ĠG ott
ĠM B
Ġau pre
W ell
ten u
Ġstand s
ĠA B
Ġlim ite
ĠUS D
Ġfamili ar
ĠNet her
ĠHou ston
Ġencou rag
ĠMel bourne
S ource
ĠG lass
Ġ19 28
k h
Ġp ren
ĠP ru
f ind
ĠIhre m
ousi n
ric ts
Ġinvestig ation
R ad
ĠKe vin
an tie
ĠPriv acy
Ġble ibt
% )
ĠV ille
ĠG un
ĠChallen ge
Ġw es
ĠNe ed
Ġfer me
m outh
Ġ8 8
Ġass ure
I RE
Ġun known
Ġh osted
ĠJ ung
Ġf ighting
Ġretur ns
w orld
ĠIn tern
la it
ff net
umini um
Ġpolitici ans
id ung
iz za
Ġvis ible
Ġtit les
ra ting
ges etz
ĠS M
ner y
Ġin ten
nis h
cha e
ĠS ein
ĠU ms
Ġplai n
ck now
ĠBu y
Ġt ank
Ġv eter
ĠP om
ĠN umber
Ġcli mb
ati ble
Ġil leg
Ġmont re
ĠPro tection
Ġimp lemen
19 95
Ġcom te
Ġpou v
Ġnut zen
ĠAus wahl
x ic
Ġfal se
Ġp ull
ĠSo zial
as hi
Ġcar bon
ĠB onn
Ġhers elf
ĠSi ze
ĠBud d
Ġex cess
K o
Ġw issen
D isc
Ġinfrast ructure
Ġo ben
on ed
Ġ: :
ĠR ichtung
Ġbes cha
ĠK ont
i ver
gy pt
nd re
Ġsqu ad
ri nk
ĠE ro
tiv ita
Ġestim ated
s chein
ok ing
ĠT oy
Ġ' :
em eter
ĠIndian a
b oy
c ra
ĠPri ze
ĠN icht
Ġer ha
Ġex iste
Ġvale ur
eut ung
Ġbet ra
b ow
Ġex ec
Ġquali fied
Ġchap ter
new s
AS S
Ġsl ot
ĠT ochter
Ġ193 2
s hire
Ġf aster
F er
ver kehr
able ment
jou ter
An y
Ġu ps
hr lich
ein ander
Ġt ent
amerikan ischer
Ġw obei
Ġents prech
ĠM is
Ġpro vin
Ġth r
lang uage
Ġcon fe
k lus
rie den
o ter
Ġcris is
C ou
ari at
ĠS till
ro se
A lex
Ġcommunic ations
ath oli
Ġparti cipe
osph ere
Ġmat ters
at riate
ul d
cy cl
ĠTi ps
Ġge fu
Ġaur ait
Ġw itness
val ue
Ġbe ar
end ers
ĠO l
C hi
Ġ6 1
z ip
Ġna he
Ġentire ly
ĠH P
IV E
c ut
On line
Ġfe els
Ġenter tainment
an ia
ĠD ream
M ax
k tions
ĠBes te
Ġ18 0
Ġlie gen
m atique
s he
al bum
W omen
o it
erei n
Ìĥ Â
Ġges cha
lo be
Ġe pisodes
Ġconf idence
Ġreco very
Ġre duction
Ġele kt
ap ons
g bar
ir ie
Ġvilla ges
Ġmag ic
Ġind ex
m ment
Ġrem ind
Ġ[... ]
Ġmonth ly
Ġsh ares
ĠIm age
Ġrecip es
Ġrand om
tra i
ĠSol utions
ĠI ron
g orie
ĠChris ti
Ġorgan ic
ĠIra q
Ġb itte
Ġdou bt
ro duction
Ġve ut
Ġnetwork s
Ġp ens
ĠRog er
ac on
Ġcompeti tive
Ori gin
ap ers
iss es
Ġsal on
Ġdru gs
ĠSt rom
ĠH op
Ġy es
Ġequ al
lis che
Ġp oker
ĠOlymp ic
Ġhundred s
ĠOrgan isation
ĠMon th
c am
Ġu k
c ure
Ġprofession nel
Ġemploy ee
Ġac ting
ä ¸
m ony
Ġ9 8
Ġhist oire
Ġhy per
G R
e hen
b aut
enn ent
ĠTra de
Ġbe lieb
Ļ Ĥ
Ġsympt oms
Ġla c
ĠPet ers
Ġan th
ĠSte uer
Ġl unch
Ġben o
Ġtw enty
Ġvis ited
ĠG T
Ġtrai ned
cl ar
ĠC amer
ĠAr k
ĠC N
us st
ik ip
c ap
an lage
Ġcom b
uss y
Y es
Ġc odes
ĠE mail
Ġfav ou
t ler
Ġt aux
Ġnar row
ĠB oden
st ock
Ġp ed
Ġmi ner
ĠStud ent
Ġg allery
p ot
Ġr ugby
P lan
Ġsom it
ng lich
ĠM ang
vi nz
d agog
w ear
ĠMiss ouri
le tzt
Ġless ons
Ġreg ions
ai ling
tre ten
Ġwe ak
ĠC ome
ĠMad rid
ou est
G ood
ĠK aiser
tis m
Ġquo ti
ĠF as
ns tig
Ġres istance
Ġpre par
Ġtrav a
Ġsec teur
iter rane
ĠEi nt
ĠBewert ungen
ĠDe li
Ġpri vi
ĠLe g
el li
Ġafford able
Ġm ath
Ġvor hand
Ġbeispiel sweise
ĠC ape
ĠH omme
ĠAnd erson
ĠL un
Ġauthor ities
all o
Un ion
Ġeffec tively
arbe itung
ent o
ĠD ad
Ġt ran
rate ur
ĠUk raine
Ġb omb
Ġle b
el and
p ower
L og
Ġappoint ment
Ġnew ly
g ely
Ġtre ated
ack s
ĠPhili ppe
Ġ| <
T od
Ġperform ing
M T
ign ement
M O
Ġst ring
ind ex
U D
f ried
ĠStud y
Ġconsum er
Ġir gend
ĠF ashion
ĠTra il
Ġh u
ĠWei hnach
bie ter
ro ffen
Ġmed al
ĠI den
Ġschedu led
ĠLear ning
ment aire
cell ence
ĠLie be
ĠT rend
ti ous
ĠP r
Ġlands cape
zeich en
Ġ19 10
ĠM agn
Î ¿
Ġst opped
ĠDo ctor
ra ble
Ġsignificant ly
R uss
Ġmi ning
Ġs essions
ĠSe ction
ild et
Ġpar am
Ġe g
H is
k as
ing ham
ogra f
Ġsu chen
Ġspe aking
ti enne
av an
ĠA gency
ris ch
Ġar res
Ġliqu id
Ġde ck
ri mer
ĠSta dium
olid ays
et ten
ows ki
Ġany where
D ownload
ĠS amsung
Ġsupp osed
Ġman agers
Ġpro che
Ġcommer ce
ĠPro p
ĠCol omb
t ons
l ern
zir k
ĠPoli sh
ĠMal ays
Ġplan et
Ġ( )<
Ì ĩ
ĠComm un
Ġ ÃĹ
ĠBu ff
Ġachie ved
s es
ĠF alls
Ġb ot
univers ite
ĠV ar
ĠAl fred
Ġviel leicht
he t
ob il
ag an
se ille
Ġf alls
Ġcomp os
ĠC art
p it
Ġg ering
Ġli be
ĠTag ged
ater ial
Ġpresent ation
AC K
ron ics
us te
Ġapp are
Ġgau che
Ġli g
Ġeur os
aff en
y th
Ġt ub
ĠBe at
Mem bers
ĠAtlan tic
Ġor ient
Ġm use
ĠJ ay
ĠD ance
Bri tish
Ġaut hors
op ath
Con tact
Ġout put
yste me
ĠD ays
Ġp ale
i nos
ĠP ear
ron ique
des ign
back ground
Ġres idential
J apan
Ġas pect
i tive
ikip edia
ar gent
Ġbran ch
is ie
ĠTok yo
ĠBre ak
Ġreli able
ĠN eb
Ġapp s
Ġcri minal
ĠG ut
Ġingredi ents
ĠD U
Ġcho ices
Ġc ade
% ,
ĠG rat
ĠYou th
Ġwi nners
Ġmil k
l oi
Ġsag te
ĠL ater
ĠEr folg
ĠTri p
Ġat ten
Ġt el
ĠW edding
ĠU rs
ĠAll en
Ġa merican
Ġlang ue
s ence
ĠBet rieb
P ierre
Ġex ecu
ĠAl ber
ĠR an
ss eld
Ġoccur red
ac ce
L u
N ame
Go ogle
Ġsp aces
Ġf ich
am aha
Ġze igen
ig a
Ġsupp lies
Ġbroad cast
Mit glied
Ġdessi n
Ġdeli cious
C R
ĠK ris
Ġerfolg reich
Ġjud ge
ĠV ie
Ġver lor
ĠLe hr
Ġcook ing
room s
ĠAll er
Ġp ic
Ar ch
Ġk osten
ĠM O
Ġze hn
Ġcomp osed
Ġb lu
Ġm ile
ĠTur key
ĠHaw ai
Ġass igned
Ġsp ok
ter ior
Ġemo tional
Ġremp orte
ĠMem bers
li on
Ġwoll te
Ġeas tern
Ġregist ration
Ġoffic es
Ġt ennis
Ġpub lish
Ġex ternal
EL L
ĠW ieder
Ġenf ant
ĠB atter
la ys
R el
ĠAn aly
c en
ĠSpe ed
P res
Ġsecond ary
Ġra ces
or ce
Ġb odies
ĠS ri
Ġn one
ili e
abet es
Ġca fe
Ġinc ident
ĠU ser
Ġours elves
ĠM rs
ĠStud ents
vers ion
la den
Bibli ographie
nd ert
Ġdes k
ĠV og
Ġadv oc
Ġc able
Ġad venture
ĠL ok
ĠT emple
Ġg lu
n em
Ġc lo
Ġmy th
am ents
ig s
re ten
Ġcontro vers
ĠS now
og ether
ĠVerei nig
Ġ9 7
Ġor ange
or er
Ġemploy ment
ĠJ ul
Ġble iben
ĠAngeb ote
Ġch oses
ĠC el
els on
Ġdar f
Ġdispon ible
ĠR io
ĠC r
ĠProm o
Ġri d
ĠNether lands
Ġ10 1
ul ator
199 4
ed ition
Ġsh ock
Ñ ı
or ters
ĠEi nk
ĠMon te
Ġhe av
ĠBegi nn
I tali
il st
Ġconstit ue
p al
ĠP osition
W ind
Ġma x
ati ven
eint ure
Ġspirit ual
B B
ĠJac ob
uch ten
Ġinst ant
Ġconn u
Ġass ign
Ġ9 6
Ġa illeurs
Ġjed em
Ġa gencies
Î ¹
Ġhard ware
as ant
ĠB ird
ĠUnter stu
kt op
Ġexp ansion
Ġ7 4
ail ability
Ġdo ivent
ĠA le
ac tivite
gra tion
p el
tim men
f ers
ĠK am
Ġelectric al
ris che
Ġoffic ially
Ġchampions hip
Ġjou eur
ĠC op
Ġsuiv ant
Ġchar ged
olo ge
pro fit
Ġentfer nt
Ġrelie f
ester day
Ġsoldi ers
ĠT s
ĠGre y
ĠSe lect
ĠPremi um
zie hen
ank en
us ted
Ġpri me
b ly
Ġass ets
ber tra
ĠCl ark
m g
Ġmi nister
por te
Ġv oix
Ġ3 60
ĠH im
Ġgu ard
ster dam
ĠM ail
be ck
Ġmed ic
T wo
ĠD ach
ĠB ien
w el
Ġpro jets
Ġdis h
Ġy ards
Ġacc ue
ĠMar sh
Ġex hibition
ta h
ĠP ho
Ġ12 5
ĠRes ources
Ġconc ours
ĠF an
Ġtyp ical
v ain
H D
ĠCh an
Ġfood s
ĠL iteratur
Ġsch lieÃŁlich
Ġa ide
Ġre venue
Ġex istence
ĠKil ometer
ĠF ly
ĠDe cor
l ter
ĠCap tain
ric ulture
ĠAnth ony
A uch
amin e
S el
ĠC ass
se a
cy cle
W i
Ġrespec tively
ĠCont ra
kt uelle
Ġconstru cted
Ġde lay
Ġ19 24
pp y
quen cy
ĠT ages
w art
ĠS eb
th at
ĠT an
Ġbreak fast
Ġcr ash
it ten
P G
ta pe
Ġsubst anti
T ime
ĠMatth ew
qui pped
Ġ' ,
ĠDu ke
Ġcons omm
ĠCh annel
aire d
E X
Ġ193 1
M ain
Ġs od
id ance
Ġphilosoph y
ĠA V
Ġb ain
00 1
Ġch rist
Ġr endre
ĠD ES
Ġdegre es
ĠSi n
Ġen se
P DF
Ġintegra ted
ĠCa fe
ĠF otos
Ġg lad
Ġproced ure
Ġpress e
ĠK ons
ĠM ovie
Ġ19 27
Ġval uable
Ġinter face
us ing
Ġg rass
Ġcut ting
Ġc ab
ĠAut or
Ġb ond
Ġinnov ation
Ġmark ed
St ud
ĠY e
ĠNe ver
Ġconsum ers
lect rique
How ever
ĠR h
ĠG ib
Ġzwe ite
Ġatta ched
Ġ8 9
Ġlay er
Ġac ts
Ġra ting
ĠPhilipp ines
Ġcon cepts
du it
Ġla ke
Ġw et
Ġd uty
quar ters
ĠV I
ie ten
ri ble
Ġprov iders
Ġ19 25
Ġen reg
M at
ĠTur k
Ġdivid ed
ĠProdu ct
ĠD ave
ĠT oul
Chr ist
ĠReview s
ĠO bs
P al
Ġme at
ĠE mb
t rans
ĠHigh way
Ġv ois
Ġg ender
um m
ĠP ul
ĠL ic
Ġte eth
ĠRes erved
B D
Ġli vres
Ġ19 17
Ġs alt
ĠB art
ff t
ĠPoli zei
ĠMe er
ĠMary land
Ġen voy
C as
ĠCon struction
Ġaccur ate
Ġchi n
ĠEr d
Ġchem ical
E nd
p u
Ġtax es
ĠO cc
ĠFu ÃŁ
X X
Ġgan ze
ĠFin ance
ov o
Ġsk y
B en
Ġadj ust
nis che
ĠHal b
en ger
Ġoper ate
ĠCap ital
ĠCons titution
Ġt ours
Ġst orm
Ġimp ression
. âĢľ
Ġfind s
Ġhor iz
Ġdest ru
Ġw ins
Ġtourn e
Ġmari age
est ens
ĠH oll
ĠP ast
Ġear n
Ġrem ar
ĠS elf
gi nes
ank a
ĠItali en
cess aire
Ġli en
ord ers
Ġlar gely
olog n
Ġar me
Ġ14 0
ĠF ac
O pen
Ġin vent
ĠHeim at
ei ge
Ġroy al
B L
Ġgradu ated
ĠV ice
iv a
ei ling
ĠMili tary
( "
Ġproced ures
z an
rit ers
Ġtro ops
p our
Feb ru
Ġim per
Ġc Åĵur
ĠIndust ry
ula ting
ĠBed eutung
Ġmanif est
P T
Ġla g
lab ama
Ġr ental
up art
ad ed
C la
ĠBon us
ĠYear s
+ +
Ġra cing
Ġconcern ed
ĠFre der
Ġab use
Ġconn ai
A K
ĠS ens
Ġj em
ĠGes amt
Ġopp osition
ĠT ennessee
ĠS O
Ġris que
An other
att an
n u
Ġcou leurs
Ġ19 12
Ġpl upart
Mus ic
ĠB ry
Ġcon taining
Ġpartners hip
ĠAng el
ĠO h
qu ipes
Ġdisc ount
Ġshe et
G S
ĠV ill
Ġpar le
c ran
zent rum
sch la
Ġprof ess
Person al
Ġ( +
ĠN FL
ĠS ource
ĠA udio
ann els
hn lich
Ġadop ted
Ġappreci ate
Ġak tiv
. âĢľ<
ĠS ide
v ide
Ġpers ons
Che ck
Ġgro wn
Ġact ress
Ġimpro vement
j amin
arm ac
au ff
Ġsud den
Ġshoo ting
Deutsch er
ĠD omin
ĠCook ies
Ġnu clear
ĠGu erre
Ġcollection s
ĠLig a
pl us
ĠV ac
lic it
Ġprincip ale
Ġa uss
Ġtransfer red
Ġlux ury
ĠSur vey
Ġp hen
ĠG row
Ġgain ed
Ġk ennen
amp ton
Ġer ho
k or
ho de
ĠHam ilton
sh ops
il ation
ĠS telle
us hed
Ġmus icians
m ag
Ġpass ing
Ġman uals
ou e
tember g
ĠDat enschutz
na ting
le hrer
Ġclos ely
m aster
ĠS D
en ix
ter y
H ier
ens tein
ĠE pisode
ri fts
Ġpl ot
Ġtem ple
ĠQu ali
ĠD ick
ur f
Ġconc erne
> $
Ar ticle
ĠSchn e
itzer land
Ġprin ted
C I
ĠM oney
Ġconcern ant
Ġre alize
Ġmou vement
zi alis
V O
Ġgran ted
Ġli re
ĠSpe ci
o ted
rim oine
ĠB aden
I nt
per atur
Ġmeille urs
( )
t w
ĠP ick
Ġtex te
ien te
B au
Ġind em
h ost
ri ert
ap h
Ġhel fen
Ġra is
áħ ¡
ĠS ig
V ID
k g
own ed
R oman
Ġaf ternoon
ĠSh ould
H el
t ure
p at
lig ion
Ġfound er
ĠNou velle
xt ure
Ġk lass
ati e
ĠVol ume
ĠF urther
end orf
à ¥
V e
Ġrecogni tion
k al
ĠH eb
Ġgradu ate
Ġproxim ite
ab ad
Ġinstru ction
Ġinvi ted
w ohn
owe en
ĠC redit
. [
ĠBlan c
ĠMan ufact
uck er
w all
Ġpro por
c d
Ġp ink
g ate
ĠBas ketball
ent ral
199 3
Ġhal ten
Li n
ĠI st
ĠF arbe
ĠEr nst
ik ation
ĠH appy
ĠJ ur
Ġpay ing
ĠM unicip
L ear
ĠH at
Ġguarante e
Ġche ese
ĠFriend s
Ġpour quoi
oy al
Ġimagin e
pro f
o ting
k ets
ĠH air
ĠN AS
Ġpub lique
T our
Ġt ire
ĠBe vo
ĠOt to
Ġwe aring
Ġzu dem
ĠG est
ĠJu an
fi ques
Ġso ir
Ġb id
Ġk aum
Ġs izes
W a
Ġe li
s ky
ĠT rin
ĠEur op
emeter y
Ġb urn
Ġsubse quently
r ke
Ġfish ing
Ġgen us
Ġpe up
all es
ĠðŁ ĻĤ
lis her
Ġcou pe
Ġexplai ned
ou b
ra lement
ĠM ach
Ġjourn alist
Ġa de
g ues
Ġse ctions
Ġer rich
O f
ĠâĶ Ĥ
Ġ19 26
Ġme al
Ġretire ment
Ġun ver
Ġmein en
Ġf isc
ĠI ce
D ay
Ġfootball er
out ube
Ġeffic iency
Ġne ues
ĠGal axy
ĠWord Press
Ġbird s
u elles
Ġ8 4
Ġfl ower
c ro
N i
Ġcommit ment
Ġallem and
Ġ9 3
Ġein igen
li ve
h rige
Ġrencont res
Ġ urs
tablis sement
Ġweek ly
ĠAuf s
Ġdro pped
Ġde ven
t r
Ġdisp ose
ĠF I
Ġsett lement
s enti
199 2
Ġle quel
h igh
T ype
wer ke
ĠV oir
abi net
ĠAu ÃŁerdem
ĠH ub
ĠIndust rie
ĠWei ÃŁ
Ġdis par
Ġul timately
ent liche
ĠP ales
Wh ere
Ġkind s
Ġ7 00
Ġconst ant
F urther
Ġ7 3
Ġwe chsel
inc luding
Ġtrav aille
ĠN ich
Ġpar tage
ĠV el
Ġc ricket
ĠMit glieder
Ġj azz
tex te
c ter
Ġlaw yer
Ġch ambres
ĠðŁ ĺ
P ra
Ġ7 9
Ġde mi
IN T
Ġfru its
ĠV a
heim er
Ġch ocolate
Ġpil ot
ĠCons erv
ĠSchu he
gra d
tier te
Ġte chnis
Ġs ogen
ologn e
ĠH ai
Ġme etings
ĠMan nschaft
Ġpromi nent
Ġb anks
B usiness
id el
Ġwith dra
sy chi
ĠJan e
Ġbring en
u um
p ens
Ġdan ach
Ġca ke
ad ie
li cite
ĠCol on
ĠS ans
Ġ3 50
Ġle ider
F T
Ġdemon stra
Ġde le
g ression
ĠG ay
Ġm au
S et
p osition
Ġmili taire
ali tion
Ġfit ness
Ġh ook
ĠSw eden
or ph
ĠD ak
Ġsh ut
Ġp oin
M any
ere z
Ġp is
Ġ19 22
Ġpar is
i ens
k raft
Ġin put
ĠM illi
er ver
Ġcircum stances
Ġg olden
Ġmar ch
sch lieÃŁlich
Ġang es
ĠE ag
ĠT agen
Ġoff en
arch ite
ar de
Dav id
li ca
b urn
Ġe volution
Ġwel ches
Ġwood en
Ġg uten
dition ally
Ġeinz el
Ġutilis er
tik er
ni an
ĠB L
ill ance
ĠPlay er
Ġmiss ed
be y
Ġer reichen
ĠZuk unft
ocra cy
ĠDam it
Ġtem plate
Ġdiffer ences
ĠSchla f
ĠCour se
hol z
hr ungs
ĠT X
M u
Ġt ight
ĠUn ters
ade mie
Ġcap acite
ĠGeb urt
Ġmembers hip
Ġfonction n
Ġcontrib ution
Ġ19 21
tse ite
ĠD R
W u
Ġcl oser
ĠWh it
ai te
ĠC ow
Ġlo ans
ĠUs ing
Ġ9 2
p ublic
Ġjur is
ig ure
aut or
ĠAnn ual
Dies e
Ġv ais
Ġto i
r g
ĠTowns hip
qu ette
OR E
Ġla ugh
lie gen
Ġa cknow
Ġend ing
ats a
ĠHow ard
Ġlink ed
ap ter
ra cle
s ub
Ġpublic ations
ĠT out
W ho
c ow
Ġcomp rend
B ig
L ove
F a
ĠP ink
Ġgew esen
Ġherv or
Ġin tention
Ġch icken
ER E
Ġplais ir
Ì ¨
Ġenc ounter
ĠTer rit
Ġs at
ĠSp an
ĠF REE
ĠTh ings
we isen
ĠIde en
ĠSta d
Ġdraw ing
hr ten
199 1
F rench
Ġdro ite
ĠSie g
ĠAl b
as y
Ġ: )<
g enden
z og
rest ling
> .
ĠB ach
ogn e
>â ĸ
Ġmeille ure
p aper
Des ign
V C
Ġern eut
Ġo vers
Ġtra ins
Ġpar ish
P O
Ġtick et
Ġpoli tiques
Ġexpand ed
Ġinstru ments
rid ges
Ġv ast
ĠDie u
Ġjed e
Ġt all
Ġind u
ĠW H
Ġt ube
ĠSu ite
T able
ĠKrie gs
r fen
ĠB elle
ĠK elly
halt ung
ĠI M
ĠBe ck
or able
li sts
F ern
bers ch
Ġsoci ale
Ġa ges
sult at
E m
ĠSt ars
ĠQu ality
ĠReg ist
ĠO w
arn e
ĠRe is
gra ph
Ġhum ans
ci on
ĠSp rings
ĠC ole
gh a
ĠHen ri
ĠA ud
pru ch
ÃŁ ten
Ġcop ies
ĠI owa
ute ur
ĠChin e
Ġ19 23
ĠUn it
Ġquar tier
ĠBar on
end et
Ġdein e
Ġ7 1
Ì ¦
: #
t wo
les en
g eld
end ra
Ġpi pe
Ġprofession nels
f unction
ĠInf o
Ġli festyle
Ġg utschein
19 80
ĠC onne
Ġmanufact urer
... )
Ġpossib ilite
ĠL oc
M L
omm age
Ġsta ges
ok ra
Ġtur ning
ula ires
Ġcont rat
ĠSe attle
ĠL ager
ĠAus tin
Ġim me
ose x
ĠChamp ion
ĠAss istant
c ope
Ġbe er
ĠTh u
ng ig
P reis
Ġevery day
Ġter mine
ĠBar bara
Ġdam als
Ġe du
chn ung
el ry
kar te
Ġ8 6
ĠH ug
ĠSch wer
Ġpro test
Ġe di
Ġro l
ĠLe gis
Ġul timate
ĠK han
Ġle gs
w ords
ĠAff airs
ig are
Ġcloth es
Ġflex ible
ges ellschaft
ographi que
te uer
ĠT alk
S tre
Ġo d
ĠPe ak
Ġsuff ered
ÃŁ te
ĠFre und
Ġal te
Q L
Ġdire cteur
Aug ust
a ime
Ġro t
ropoli tan
re ibt
Ġh idden
Ġus ual
ĠDes pite
Ġa wareness
pe ction
ĠB ush
em an
Apr il
C er
ĠL ors
mer n
M ais
Ġdisp osition
la p
S k
vent h
Ī Ĵ
Ġb om
ken nt
ipp i
ai x
Ġk a
ĠIns el
Ġ8 7
ĠProdu ction
per or
Ġs aint
ĠUp date
i os
ĠS yl
ĠAus bildung
! )
Ġform al
Ġengine er
Ġsch u
S ervice
Ġes cape
Ġdestroy ed
Ġincredi ble
Ġreg elma
it ag
Ġmus cle
ĠK ranken
atch es
ĠM ol
ĠTe en
Ġinstru ment
ĠG B
Ġl oves
Ġk illing
ĠS old
Febru ary
sor mais
h rigen
olog ists
and i
ĠMa xim
ĠDem oc
onne ur
orge ous
ĠGew inn
Ġup load
Acc ueil
ann i
Ġcapt ured
ĠSh are
ĠRes ort
Ġauthen tic
Ġvin tage
ĠM ove
ĠGra mm
oc cup
ĠSchool s
ĠBir th
c ourt
statt ung
Ġauc une
Ġw al
out heast
Ġman aging
Ġven ue
Ġpor table
ex pe
ĠG ou
Ġfra mework
Ġcon tained
Ġw ave
Re view
We itere
Ġre chts
ĠG riff
n or
ĠUnterneh mens
Ġcomp are
tag on
Ġeur opa
rger meister
c est
Ġde finition
act ory
yn e
Ġcal endar
Ġimplement ation
Ġcri tique
ĠLin coln
Ġrepres ents
as ka
ĠAust ria
sseld orf
ĠDou glas
ap olis
Ġhi nz
ati sch
lin ge
Ġp ill
ĠF ili
ĠC ad
p op
ĠF itness
Ġver la
ĠPl ant
Cl ub
b ri
Ġcaus ing
av ant
d aille
Ġeng aged
ĠSicher heit
ĠPorn o
nd ige
Ġ9 4
Ġche v
ĠL ap
oun tains
ti ns
Ġ16 0
Ġcon duct
Ġn ations
ha w
ab a
Ġadap te
ĠAr me
ĠTer ms
S ystem
Ġperson ally
ĠDub lin
ĠL ane
ĠEar ly
Ġ8 2
ĠChap ter
ti sts
Ġpick ed
her r
Ġfaci le
); <
Ġhei ÃŁt
tin es
ĠG leich
ĠVer b
ĠFut ure
Ġlogic iel
ĠAtlan ta
Ġf lag
tic a
Ġfac ing
Ġrep orting
Ġdire ctement
ĠE C
Ġknow ing
geb ra
ĠW at
r ten
m eter
ac a
Ġbritann ique
lah oma
Ġda ÃŁ
Ġcontrol led
Ġout standing
Ġman ip
ĠEas y
Ġli sts
Ġ Ø
lker ung
Ġw ider
Ġtas ks
au re
Ġreg ulations
ĠM ig
geme inde
ĠM ak
H R
âĢĿ .<
A k
ger icht
m ut
ĠH aute
ĠMo ore
ve ux
ĠM AR
ĠO K
Ġa ura
ĠMag ic
Ġf t
ie te
Ġanci en
1 000
Ġch ale
ĠMor gan
ĠAf ghan
Ġcloth ing
Ġconsider ing
ati vely
izi n
Q UE
Ġth ro
Ġorganis ations
zie hung
Ġletz te
ĠC E
Ġen titled
p ati
Ġt elling
ach ten
Ġappear ances
Ġdur able
Ġro ads
Ġle ben
omi ni
H och
Ġche min
ĠComm and
ĠSam uel
ĠFi nn
ot yp
ere ins
f ly
ĠM other
al ph
Ġsk ill
board s
ĠSain te
un er
ck et
me hr
ĠCon vention
Ġpromo ted
Ġ( ,
ĠB ene
Ġsex y
id t
ĠRel ations
sch lag
nt on
asi n
ĠE ssen
Ġperfect ly
ĠR ace
uer to
Ġparticip ated
M arch
ĠR ene
Ġcontrib utions
ĠBo ys
Ġstre ets
ĠTh ough
ĠBas eball
ĠCl ar
ĠKent ucky
ĠV orte
Ġretur ning
o be
Ph oto
ĠDo es
ĠBeit ra
ĠRe giment
Ġou v
l la
T T
ĠV ic
walt ungs
ĠE D
ĠSil ber
Ġa ider
cla re
ĠWe ise
se ments
ĠL arge
ĠE gypt
ĠSw iss
bers icht
es pe
ĠC ash
Ġh its
ĠFl ash
ĠSpra che
ĠK ings
Ġg ifts
Ġa te
Ġj oining
Ġexp ressed
as tern
Ġk lein
12 5
qu ality
Ġse pt
U nder
wes en
Ġin e
Ġmer ci
pro chen
Ġop timi
Ġpro of
ĠB ron
ĠD allas
ĠTh ailand
val uation
ĠRep air
M r
Ġv ite
ĠDip l
Ġthe atre
Ġde vi
pf lich
Ġ19 13
ess es
Ġwe apons
ĠCur rent
ĠOk lahoma
Ġproduc ing
ĠAl an
ust and
im port
ĠL ocation
loy d
ĠMod ell
1 30
Ġsi nk
Ġconc ur
ul ent
Ġ8 3
ĠDis k
Ġpermett ant
ĠSt ew
Ġdim anche
Jan uary
Ġtrans lation
Ġcour ts
ci ple
cas ting
ĠM ey
ĠPro vinz
ĠZw ischen
ĠIm per
ĠRead ing
s erv
P D
n ant
ti ms
Ġass ocie
ĠF ollowing
Ġj uge
ĠFore ign
Ġ \
d ays
Ġh ire
Ġe vol
con tin
Ġj apan
ĠGeb iet
ĠR ick
Ġne uf
ĠFer ien
Ġbig ger
Ġ Åĵuvre
ĠAn alysis
ĠB ishop
ĠF r
Al though
Ġhead s
F rank
ĠIns tead
ap ing
r ales
Ġbre ad
Ġb ewe
ĠF on
Ġso il
Ġurs pru
a ume
Ġin ch
oc on
Ġt ack
Ġul tra
ĠBow l
nd igen
ĠHar ris
Ġri g
ĠL en
ie u
Ġer forder
zahl en
Ġde cade
ĠD oppel
d ou
je k
ĠL ess
Ġl u
ativ ity
lan ge
Ġsever e
ĠPre ise
Ġdanger ous
ge gen
ĠGra f
we gen
Ġver a
Ġh ung
rt temberg
ĠTh ose
t ar
Ġsp an
< /
Ch amp
ĠVin cent
Ġnovel s
ĠJ apon
ris tiques
ĠS EO
ĠY OU
al tet
B ox
be an
Ġf ou
ĠBul gar
Ġscen es
ĠRec ord
Ġge k
agne tic
ĠW ort
ĠG rant
ĠPar tei
at um
ĠF ast
ie z
Ġkeep s
Ġup coming
l f
Ġt arge
ĠS W
Ġpay ments
Ġqu ant
Ġc elles
gress ive
ĠKl asse
Ġp owers
ĠRei he
Ġocc urs
ment aires
S yn
Ġvirt ual
Ġa er
Ġw at
Ġh am
Ġindust rie
ĠI L
off s
ili ta
estiv als
Ġe benso
Ġsau ce
Ġh ate
Ġinter ven
ĠPe tit
Ġcons ist
Ġdecla red
ĠStudi os
ĠF ive
ges etzt
Ġerre icht
ns el
Ġtransport ation
er st
ĠG az
Ġtrend s
ĠC ir
ist ol
th es
D ec
gu lie
Ġresearch ers
ic ted
an cer
ric ulum
ĠW ahr
Ġre action
Ġcont rast
Ġent rai
ĠSpiel en
Ġen gines
Ġrepresent ative
Ġent rance
Ġterrit ory
Ġdra ft
lec ting
ĠS ony
Ġbe ide
K S
Ġb oi
om es
k ungen
Ġin aug
M ess
Ġer wa
Ġ19 11
ĠDies es
and en
ĠNutz ung
Ġdep th
ĠOut door
ĠJew s
Ġge geben
Se it
ĠUr laub
ĠWhe ther
Ġmote ur
ĠAndre as
n est
Ġeinges etzt
Ġcompon ent
w p
ĠRes erve
Ġp itch
Ġcamp agne
Ġh osting
Ġb ald
ĠZ o
nah m
al on
alt ungen
ĠMed al
Ġth ir
ĠAg ree
Ġc ite
od ie
ĠFil ms
Ġs our
ent wicklung
ĠSal on
Ġpo etry
Ġd rag
Ġm ic
h enden
ategor ized
ĠD DR
Ġzahl reiche
m t
ĠPict ures
Ġprogramm es
Ð ´
Ġrece ption
ĠWohn ung
Ġread er
lud es
T u
ĠC ut
Ġgre y
em b
j us
T ax
Ġsche me
Ġarbe iten
Ġm ots
w estern
ĠProble me
Ġfac ts
Ġbro ke
Ġclass ical
ĠKrie g
g ri
Ġinsp ire
Ġw ohn
ĠHo ff
198 9
Ġsta ble
R I
Ġnot able
ign on
Ġhealth care
F lor
teil en
Ġvoll sta
Ġe dited
ĠNic olas
ĠVer kauf
ĠB ischof
Ġaus gew
Ġful f
ro ke
ĠCom pe
Ġstrate gic
L D
ĠN ied
Ġbe ge
ch ron
ĠDres den
Ġpre paration
Ġw ing
Ġn am
Ġm l
Ġin ches
op ter
Ġa qu
E U
Ġan alys
Ġwe g
ĠA U
ĠC opyright
ĠCont ent
Ġappe al
ar te
Ġsav ing
Ġsec onde
tic ut
ĠW ander
is k
ux e
lin der
ĠUr ban
Ġobs erved
A ct
Ġdocument ary
ĠS U
Ġex ceed
Ġchois ir
te ch
a ver
ic ile
at ar
f lex
Te am
ĠJ ason
ĠVer bindung
at rice
Ġsou ff
ĠP un
ĠVer y
tig ation
L iste
ãĤ Ļ
ĠB il
bru ch
Ġdiffic ile
ĠDel hi
ĠG ordon
ĠChar lotte
Ġr outes
qu em
lig ent
a vec
f ire
Ġc ute
ĠP ool
Ġdistin ct
Ġfile d
ir y
Ġpra k
Ġand ers
Ġdi p
s id
ĠT isch
ĠEx change
7 00
Ġconst antly
s ol
ĠP osted
ĠBelgi que
Ġles en
ĠH em
Ġin her
Ġill ness
u ing
N et
at on
Ġdescri be
ĠG on
li ert
ĠU ng
ĠZ one
F M
Ġatt orney
ĠL iz
Ġdes cent
P an
ĠP av
IS S
Ġcompe ted
Ġarres ted
ĠL O
Ġra y
Ġmein em
Ġindust ries
Ġgar de
Ġpar ler
Ġmunicip ality
nder ungen
and is
ĠV ari
âĢ² âĢ²
Ġm agn
ĠHer aus
ow ing
mi ner
ou red
ĠSt o
ĠKom pon
Ġreason able
Ġh ohen
ĠAm t
Ġ19 15
d oc
ĠPe ace
ĠV ern
Ġd oss
ĠBas is
Ġn ieder
Ġj apon
Ġmanufact urers
ĠWork s
J une
Ġan ime
Ġ9 1
Ġfor th
Ġres ulted
du e
ĠAcc ount
Ġho tels
Ġge eign
ĠN ice
Ġarchite ct
os hi
h ig
Ġinvol ving
Sep tember
# #
C le
Ġfavou rite
Ent re
ĠM au
Ġwor se
ĠS ul
ĠAuft rag
os tic
Ġbef inden
ĠH ell
Ġtrans por
Ġde aling
Ġopp osite
ĠSw itzerland
Ġdefe at
ĠLe x
Me hr
Ġcer tified
Ġmar gin
ĠB od
Ġcon ce
Ġcol umn
ĠC zech
ĠChe f
ĠPh one
Ù Ĭ
Ġen fin
OS T
ĠCol le
Mer ci
m oire
ĠNo e
ci alise
Ġsign ature
sch ungs
ĠThi nk
fin ed
b ility
Ġchamp ionnat
Ġtrans formation
n ote
Ġdes halb
ĠHer itage
) )
Ġsus pend
Ġfol gende
b ird
ĠF M
org ung
Ġse ed
ze ugen
Ġvon t
im ages
nis hed
ĠM az
Ġe quipped
Ġnorm ally
ĠF ul
ub lik
ver sta
on ces
chen k
Ġchau ff
O nce
Ġc um
Ġal cohol
Ġres pective
ens chaft
Ġoff iz
de aux
ĠWolf gang
Ġ8 1
Ġaut ant
Ġc ategories
lec tive
Ġm ad
cu pe
ĠSit uation
ĠLang uage
vi ve
iss ippi
ĠBe auty
Tod ay
nde te
ĠTrai ner
Ġv illes
M arie
ent ure
le iter
ato es
ĠM ic
N on
Â ¿
.. ...
geb aut
ĠR acing
hl te
Ġdiscuss ed
ling ton
Ġam is
C P
ĠMex ican
ch tig
issens chaften
Ġch iff
Ġpar ad
ĠTag s
Ġconf iguration
Ġextre me
Ġdis cl
Ġref lect
be it
Ġentwick elt
ĠD NA
ĠL ag
Ġmind estens
Ġfin anz
al la
et ers
b ah
fi ance
Ġman que
la ins
b rand
ĠJ ak
Ġinter vention
ĠApp lication
Ġenth usi
W elt
thod ox
zi n
ĠHu gh
empl oi
Ġben ch
Ġpro tes
n lich
Ġch ronic
o a
nder ung
ĠS ter
u pe
Ġemp fe
Ġjou er
j s
ari um
ĠP ier
Ġla id
Ġbre ast
Ġper mission
ĠIm ages
ĠT ous
d iv
Ġvir us
op tion
Ġtit led
Ġapplic able
Ġrep utation
Ġb lieb
ĠB ap
ĠB h
Ġj unior
Lou is
Ġinc l
cher che
ĠD ynam
Ġscienti fique
ĠAng e
g liche
du ire
Ġre fuge
ich ert
h agen
Ġrem ark
ri o
Ġch annels
ĠF ather
Ġinform ed
Ġsw imming
Ġperm is
Ġf lying
Ġ19 16
Ġsimple ment
ri eren
ong s
ĠGes etz
Ġmass age
Ġconse ils
ier ungen
ĠFem mes
er ies
Ġt ested
Ġrem oval
Ġs ick
Ġme ets
on line
Ġincre ases
ĠArch ive
Ġex te
ĠR y
Ġdi x
ony me
S ite
Ġexp los
ff s
Ð ¼
Ġceleb rate
Ù ħ
ĠSw edish
K u
fl ug
ĠAm sterdam
w atch
g ow
r st
Ġho he
ff entlichen
sei n
ĠFeder ation
ĠBM W
AC T
a fter
ĠLear n
ali zing
ĠL ed
d as
N ovember
ĠD ragon
weg ian
ĠJ oy
d ig
16 0
ĠH ockey
ric a
ĠSch rifts
Ġbro thers
ĠPl anning
ĠOr le
Ġspiel t
ep ing
Ġgel ang
Ġgar anti
Ġalle ged
Ġh ang
Ġv ig
Ġaus gest
ĠA ve
Ġfranch ise
ĠA labama
Ġsitu ated
C OM
ĠHom es
ĠW E
ĠP unkte
ĠCo oper
ĠLi ver
ĠPf lege
Ġcare fully
ĠFir ma
g ard
Ġmunicip al
Ġ1 15
x y
I ES
Ġapp el
ĠW riting
pp ers
ĠKateg orie
b ilder
ni ge
hist or
la ger
ond res
d et
ĠTh ird
ob a
ĠGra ph
eng lisch
ĠTeil nehmer
ĠNe ue
N or
ĠD ress
Ġdist ricts
ĠF ur
v iter
Ġpo ids
ĠC ris
Ġb ars
L oc
it ze
F O
ud a
ĠH oliday
ĠM ans
Ñ ĭ
ĠCan cer
ĠEnt wick
ic ial
olog ue
omm y
Ġleg end
app ro
Ġres ume
" ).
ĠUm gebung
ĠB O
oir s
ĠAg ent
Ġn our
z uf
Ġto wer
Ġcover ing
Ġarbe itete
Ġmonit oring
Ġf allen
Ġto y
ĠPro te
ĠGeor ges
k ap
Ġy ard
Ġstream ing
Ġqu ote
A vec
Ġen tie
Ġinde ed
ĠAr men
g lement
rai ent
ĠJ ess
n nt
ĠBes uch
h ers
Ġon going
ĠH orn
Pri v
Ġimmedi ate
, -
Ġsearch ing
ĠM ut
ĠM ort
ĠG ang
ĠH av
ir ates
Ġmain tained
. ;
ĠT ree
St ation
ĠS ug
at rie
ra ire
ĠWe itere
Oct ober
Ġsav ed
D ou
S ources
ĠChrist opher
Ġt ip
hol der
Ho tels
p ing
Ġattemp ts
ric es
Ġra b
ĠTh us
ci en
ĠSqu ad
ĠCustom er
n ary
Ġb are
s burg
ĠS K
Ġp ad
Ġ19 08
ĠAli ce
ĠVer a
ĠBe griff
Ġstrugg le
ĠB ois
? âĢĿ
xie ty
Ġinvest ors
ĠS V
Ġscienti sts
Ġdeb ate
Ġflo od
Ġy eux
ĠCost a
ze igt
AN CE
ur ier
: :
ĠNord en
Ġal gorith
ĠE c
E v
Ġav aient
Mich ael
ĠLin ux
am ic
tempor ary
s idence
fi x
I K
ns ch
Ġhe aling
Ġpres ents
p as
rie ved
Ġdisp ute
hil fe
ĠSh an
ĠZ a
un al
ĠThere fore
Ġo ber
ĠVan couver
forder ungen
Ġro ot
AN S
Ġind ique
Ġy e
F OR
ĠL it
Ġcere mony
ktion en
ĠRober ts
Ġcomp orte
ĠGree ce
ĠS achsen
tin o
ĠR ent
ĠPh illi
ĠP rag
â ĸ
Ġg rant
Ġersch ien
M ont
Ġma tin
Ġjew ei
D et
ĠK ampf
ĠS li
ot ype
Ġs oph
Ġma je
tit ute
Ju ly
Ġb ab
ĠN ear
Ġs amedi
Ġvor her
g te
ĠP oste
ci ent
ĠHann over
ĠMens ch
Ġau g
áĦ ĭáħ
Ġsh oot
Ġch ante
Ġth orough
olog iques
Ġout re
T O
ĠReg ierung
Ġdim i
Ġappro val
Ġfun ny
Ġplatform s
ti ls
B ER
od or
pro gramm
Ġo cean
ng t
Aut hor
Ġrew ard
z iert
r ter
ĠT anz
ĠMus lim
f ound
g ime
Ġchac un
Ġt um
ĠInd ex
Ġe igh
ĠR O
ĠM aine
ĠIndust rial
u ille
Ġposs ibility
Wh ite
ie ÃŁen
ĠCom me
S il
Ġopp on
L Y
Ġcons istent
omo tive
obili en
Ġexp osure
âĢĻ ,
onym ous
Ġargu ment
Ġar ran
ĠMon ate
Ġl umie
ĠSy mp
ĠCre ative
ĠR ange
Ġpass es
az ines
Ġgu ides
ĠD reh
ĠW issenschaft
ĠSe ver
ĠA ra
ĠSu isse
m ess
ĠC ela
Ġexer cis
Ġv ital
ĠW oman
se ction
Lab els
Ġin se
p res
Ġerfol gt
Ġgleich en
ĠProper ty
Ġen de
o ling
able d
Ġgra ve
ss ig
Ġbo ost
Ġthe ore
cou vert
Ġmov es
Ġdra wn
n ster
h ot
Ġshe ll
Ġdou te
Ġgru nd
ĠEqu ipment
Ġwar rant
Ġpub lishing
ter re
Ġs tem
ber w
Ġperson ality
ĠZ er
et he
Ġchild hood
Ġsub jects
I d
ĠPal ace
Deutsch land
ĠD O
ĠE S
Ġbes oins
Ġmod ule
ĠA ch
G C
Ġdynam ic
Ġa mi
12 3
Ġno ticed
Ġher o
UR E
?? ??
din burgh
ĠPost s
Ġsel ten
AS T
Ġcomp oser
we alth
Ġdim ension
Ġsh ops
man uel
Ġag ed
ĠCent ury
ĠExp lor
Ġsem aines
Ġdisp os
Ġatm osphere
Ġti ny
Ġfac ed
ĠÎ Ķ
H ave
Ġsugges ts
) :<
Ġstri ke
14 0
s ing
Ġgroup es
Ġrec re
Ġmiss ions
ur o
ate au
Ġimm ig
n ous
ĠSol ar
ris chen
Ġdies el
ĠVertra g
Ġinj uries
wh ite
i nch
ma x
Ġrank ed
ĠT otal
z one
Ġcrow d
198 8
ĠNiger ia
Ġkn ock
am our
Ġgu idance
ĠBlu es
Ġun us
Ġannivers ary
Ġnot wend
Ġcontinu ing
av ais
ĠDe ep
f ish
ĠUl tra
ĠContin ue
Ġrepe ated
ĠEconom ic
Ġ ....
ting en
alis ierung
Ġbes ta
em ed
Ġsol che
Ġlegis lation
u ous
ĠPat ri
Ġtra cking
tens ion
ĠG utschein
Ġc rusher
Ġjed es
oun ted
Ġtal ks
L P
Ġbow l
20 21
Univers ite
part ner
Ġcons ervation
Ġder niers
Ġeffect ue
ĠCla ude
rei ber
Ġdar an
ks am
Ġe au
ĠDet roit
le ments
zahl ung
ĠBru ce
hand el
ĠHa use
ĠT ower
om on
pr ing
che ll
Ġ20 22
au c
im ed
bor ough
Ġsuff ering
ĠD y
rit able
Ġsie ben
> '
B ur
we gs
Ġch ai
ardin al
ren z
ĠPhot ography
Ġs ter
ĠH ad
G rand
Ġmon itor
ik on
ĠBu ild
l ast
Ġpres que
k at
Ġex tent
iction ary
Ġst amm
Ġenem y
de p
Ġlie ux
Ġte ch
Ġver gleich
Ġilleg al
Ġp y
Ġpri ze
m ate
oh nt
ĠAb d
Ġst unning
oy en
ĠPri nt
Ġsou ght
es a
ĠWalk er
Ġnavig ation
eng ers
Ġper c
ĠSta at
to o
ĠPrin cess
Ġv ivre
pro of
Ġintern ation
J o
stand s
Ġris ks
re c
Ġblo cks
F P
ĠNor way
enni fer
ĠSp i
ĠV irt
illi ant
Ġn ied
st lich
ul us
k unde
Tra ck
Ġent halten
Ġlik ed
Ġemploy ed
amm ad
ĠN ob
Ġs ending
ĠApp ro
S H
ĠK id
Ġl uck
Ġp r
ĠW etter
Ġsole il
ĠMi ner
Ġthi n
h s
Ġsh ift
Ġaccess ories
Ġg ent
Ġprin ting
ĠC ars
Ġpop ulations
Ġcre ates
f un
ĠChi le
ag ent
med ia
m ers
Ġdispon ibles
He alth
m d
ĠAl liance
19 70
Ġ ere
iss ons
A E
ĠS til
Ġb oss
ar tement
ay e
ĠE b
Ġimpress ive
Ġcompagn ie
Ġcomm ander
ĠLeist ung
Ġpetit es
u ality
Ġzu vor
lin ik
Ġcarry ing
ĠSt ri
Ġteil weise
Ġres erve
Ġw aters
L ink
Ġexpect ations
et a
? "
ĠZwe iten
Ġwor st
ĠL ate
couver te
ĠMalays ia
ĠT rain
tim ore
ig ar
par er
leist ungen
S to
ĠCom mercial
ĠiP ad
ĠBen jamin
ĠMay be
Ġent de
Ġmir ror
ĠAd ams
ĠAu ÃŁen
Ġly rics
un esse
Ġa cht
h ens
lic ate
ĠMe eting
man agement
ĠPub lishing
m aking
Ġstudi erte
Te chn
ren te
C i
ĠB ibliothe
Sh op
Ġex emp
ig lich
Ġc anton
Ġcomment aire
Ġt ort
ĠGru ppen
l fte
Ġphys ics
att form
lt nis
Ġconvers ion
Ġ19 05
ĠF it
C amp
Ġgen utzt
kl asse
M ac
TM L
Ġst rict
f es
vel and
ĠBerlin er
Ġsustain able
st ation
Ġcan cel
ĠTra ck
ĠA er
ĠT E
[ ]
Ġc raft
Ġparalle l
Ġple asure
Ġconcent ration
Ġdre ams
Ġsubse quent
hed ral
iz z
Ġjou eurs
c ount
alis me
it at
Ġview ed
is dom
is a
richt ungen
IT Y
lin ie
Ġres idence
- )
du le
Ġsy nt
ĠPhili p
vin e
Ġsuper ior
om er
as ions
Ġdise ases
ĠFar ben
ind ustrie
ĠLux em
ra li
el ve
Ġch an
P N
Ġvendre di
EN D
Ġerfolg te
ĠMil an
Ġchalleng ing
est one
Ġde fault
Ġdisc re
ĠIS O
V al
ĠBor deaux
ĠSing les
Ġch anson
Pub lie
ra e
el led
l amm
ari na
W illi
ang ers
ĠSo ci
Ġlisten ing
sp ort
re ens
Ġband s
ĠHon or
m ap
Ġiniti ative
li eben
s chen
ĠFahr zeug
>| }<
ĠF ame
198 7
Ġer g
Ġstai n
Ġh ole
iss an
Ġ7 50
Ġdam aged
ĠB ras
Ġlik es
Ġrep ly
Ġde venir
ĠBet riebs
f allen
Ġh off
Ġserious ly
Ġad min
Ġbe half
Ġsomew hat
Te il
Ġpain ted
ĠExper ience
Ġcon ception
ĠB rief
Ġmon ument
icht lich
Ġcombin e
Ġhappen ing
is ms
ĠKomment are
j ing
j on
ĠFen ster
Ġklei ner
ĠInstit ut
ĠWeltkrie g
K ey
Ġold est
ĠVis it
ul atory
Ġlors qu
ĠIsra eli
en nt
Ġprocess us
ĠM all
Ġp owder
F ra
S ign
ĠCh ambre
Ġ à¤
Ġa ime
schu he
ok al
f angen
ult ane
Ġacc ounting
ĠFern seh
Ġf inger
M ake
10 1
Ġincreasing ly
Ġphys ique
ĠT ry
Ġvac ation
ĠO tt
Ġs occer
ĠSc reen
yl on
cription s
ond issement
Ġpe au
ĠG alerie
Ġb ind
Ġcar re
Ġconne ctions
Ġdesign ated
ĠS ad
ign eur
li ving
ie val
si n
bl att
Ġc lock
un ite
es tab
gesch lossen
Ġc ependant
ĠMar seille
B log
Ġimpro ving
C ast
ĠG usta
Ġlet tre
ĠStudi en
Ġequ ivalent
Ġp ocket
Ġsuiv ante
urb an
k unden
Ġvo ie
E mail
ĠSong s
ĠMet ro
M c
Ġweiter hin
arbe itet
Ġcons cious
Ġbede utet
C ode
S erv
Ġinj ured
ĠCap it
Ġfee lings
ĠQu ad
schein lich
Ġam ateur
ĠE R
i op
ĠHers teller
tell ten
ei nd
oth y
se aux
Ġt atsa
H on
ĠDe fense
C onn
amer as
d ated
áĨ «
lin ary
ĠG ift
Ġcoup les
Ġverb unden
Ġb ande
Ġv el
ĠV oy
ĠImp ro
M B
Ġsub mitted
Ġwas h
Ġh ill
Ġt els
Ġir re
ba um
Ġd onn
cycl op
ar ts
Ġheu tigen
P ower
Ġb ist
Ġch airs
19 45
Ġache ter
cl ub
& #
Ġreach ing
s ischen
ĠSci enti
ĠCle ar
m ale
ĠT S
R ich
v d
S on
Ġdescri bes
v age
Ġprom ise
Ġconcern ing
Don ald
r me
geb a
ĠAm ts
ps y
Ġlie ÃŁ
Ġdep osit
ĠP AR
Ġslow ly
Ġvari able
ĠS id
ĠMili ta
Ġpro ve
et ooth
" -
ĠW ies
olog ische
S am
tei nt
Ġopp osed
la ut
ĠK och
l ent
Ġd ental
ĠL eder
ĠT rop
ĠBlo od
Ġarri val
ĠLaw rence
ĠCommunic ations
om at
Ġ18 90
Ġper ce
Ġsecre ts
P as
198 6
an ing
Ġsc oring
osp el
ak u
ĠConnec ticut
Ġcer tification
Ġra tio
hold ers
Ġsuiv i
Ġsp oke
Ġsatisf action
ĠAt ta
oph one
tend o
ĠS tellen
ĠAL L
Ġd rain
ĠH ir
Ġhousehold s
g ner
li eren
Ġcompar ison
Ġen han
lic al
ĠGra de
Ġb acter
ĠK olle
S en
De cember
Ġchem istry
Ġuni form
Ġcra zy
ĠM ali
d te
ĠCh art
lie f
ĠL ondres
ch ild
Ġaktu ellen
Ġcontrib ute
Ġpe ux
ĠHar vard
ĠR iv
ĠBarcel ona
f ris
z ub
Ġhand book
Ġpo et
Ġau gment
Ġrecogni ze
R u
st rong
W A
Ġob tenir
EC T
pri nt
us alem
n elles
Ins titut
Ġun be
Ġdes tine
ĠHer mann
Ġso fa
Ġsel ber
ĠW ider
Ġh ip
pec tives
Ġk ri
Ġdens ity
hi b
im i
esp ace
ĠC ategory
rder ung
ĠG ive
Ġp rest
Ġp ierre
he b
Ġli vra
Ġ19 07
Ġno ise
% .
ĠTe chnik
g un
Ġgam me
ĠRob i
Ġspeci alist
ĠAdvan ced
ur re
ĠTh ai
ĠQu ick
g ere
IG N
Ġdisplay ed
Ġpropos al
Ġlim its
ĠPri nz
Ġab stra
Ġm ens
ĠFin e
we ig
Ġpe ak
Ind ian
n ete
Ġt v
de utsch
ĠBa chelor
ra ges
Ġsou ha
Ġe ase
ĠC ool
ĠB alk
ar rive
ĠSon der
o ie
Ġdri ven
F I
Ġprogress ive
Ġfac es
ĠS z
' .
b ridge
198 5
y les
Ġextra ordin
an alyse
ĠD ars
ĠCons ult
ĠK lass
ĠLe o
ber haupt
Ġs amples
ĠâĢ ķ
ON E
f oot
ul u
ath le
am as
fer enz
op he
hn ung
t own
ok a
meric a
âĢĻ <
c ers
Ġpre ven
Ġcom ic
Ġle tt
Ġmit tler
Ġt y
Ġcult ures
Ġas sembly
ĠQueens land
Ġman us
ĠProgram me
Ñ Į
ĠC atherine
Ġ15 00
ĠMos cow
Ġre alized
ĠAn zahl
ĠChar lie
ĠH end
Ġbott le
w ho
ĠEv ange
ĠRe form
ĠLie b
Ġ ),
itts burgh
Ġcoach es
aup ts
Ġpain tings
Ġ19 06
Ġi OS
18 0
ĠPra xis
Univers ita
O rt
Ġz ero
n ungs
Ġ Ø§
Ø ±
ĠReg ie
ĠR ow
se ason
ĠCh amber
it ment
fl ow
ĠB eng
ĠTai wan
T ur
Ġn ick
âĢľ .<
Ġlas er
Ġun f
Ġcontro ls
Ġcoach ing
Ġesp agn
Ġhand ling
igen ous
ĠR S
Ġstate ments
Ġcollec tive
Ġchar ts
Ġdig it
Ġeinzel nen
Ġbes onder
R ock
J ack
ĠT ig
p ol
m oins
zu ki
ĠLig ue
Ġr ice
Ù Ĩ
ĠV ision
ie ll
ĠOli ver
L ong
Ġdistrib uted
ĠZent rum
ĠSch lu
ti tel
g us
US A
ĠRuss ell
ĠH ack
N D
Ġver d
Ġc riter
Ġm oth
Ġcas ual
u ell
ĠT eile
ra k
Ġprov ision
ĠW ass
Ġmark s
Ġb ay
ĠCe leb
Ġcom bi
ĠPri or
Ġg uns
ĠVer tre
oun ce
ĠKind ern
fass ung
ar u
ĠJon athan
u ent
Ġer fu
ĠMc K
r c
ĠV ik
app en
ĠBe k
Ġcomp lai
Ġ9 00
ps hire
ĠSicher heits
ĠAd minist
ĠMe chan
ĠP ath
cu tive
ĠB ond
ĠB B
ĠEar l
Ġdim ensions
ĠPrin cip
ĠF ell
ĠAuthor ity
A h
C ity
Ġvic tims
ĠN un
G reen
ĠSchaus piel
Ġra w
A li
ĠS R
Ġso zial
ĠMar io
ĠG au
ĠVers ch
P i
imm el
tiv ation
ĠS ay
C ho
ĠS ue
Ġfais ant
lo v
Ġvol umes
Ġser r
ĠErgeb nis
ĠN elson
Ġ( $
ĠBrook lyn
as er
Ġfair ly
ĠInd ivid
ĠSt rand
ĠSer ge
ĠB rew
ĠSo ft
ĠE hren
Ġemp ty
ĠM atch
ill ant
Ġmulti p
kar ten
ĠY u
ĠS oc
zeichn ungen
ĠKla us
ĠFor ces
at hi
ĠB ade
ĠO m
Ġrepres enting
c li
lis abeth
o que
Ġsh arp
Ġlic ensed
198 4
Ġl ut
O p
Ġmod ified
Ġsch la
ĠIndepend ent
lan z
Ġnach dem
A me
Ġsett led
U se
ĠPriv at
ĠW ire
Ġch ron
man nschaft
Ġpercent age
Ġ19 09
ĠVer t
unk el
st ore
b one
Ġt ill
Ġm os
ĠCh or
Ġc eiling
i our
ĠWeb seite
Ġb ags
Ġmo ist
A ff
Ġst ored
is hi
ĠG ary
ĠSt off
Ġhead ed
ĠS ach
Ġgener ated
Ġcent ers
Ġev il
ĠTh or
ĠY oga
og s
ĠDe an
ĠO wn
Ġs oire
ir us
oss en
Ġl undi
ĠO sten
Ġwh ilst
Ġeli gible
ĠRep ublik
Ġc au
Ġpermet tre
ro e
ĠL ion
Ad resse
Ġres ter
ĠAuf lage
Ġn immt
crip ts
m os
N T
u ese
Ġple ased
Ġgener ate
or tion
Ġup gra
ĠIslam ic
ĠH alle
Ġtrans action
ĠR d
ĠRou ge
D urch
ĠMiss issippi
Ġcho osing
g ut
Ġdar unter
Ġindic ate
nig s
Ġtrans l
li mited
fra gen
p ad
ĠS we
Ġanti cip
r ar
hol m
ĠLe ute
te ht
ter ed
ĠChe v
Ġf usion
Ġbe teili
ĠauÃŁer dem
Â» ,
ta ger
r ys
Ġsl ots
Ġne uer
Ġdad urch
poli tik
ĠP uerto
ĠB oot
ĠHand els
Ġca che
>âĨ Ĳ
ĠCo ach
Ġr um
Ġpar liament
Ġconsult ation
Ġst ood
mi x
sent ant
ĠAr tist
Ġcon clusion
ĠT ou
Ġer ster
ĠP ou
T it
Ġl ois
ĠGener ation
B ild
ang o
Ġchange ment
ru f
Ġy ield
Ġse gment
ĠAnd y
ungs ver
EN S
ĠG or
piel t
ĠMc G
Ġqu otes
Ġta pe
ss on
Ġang le
Ġaj oute
fin ale
Ġlong temps
asse ur
ĠS end
tali on
P ass
US T
ĠC ell
ĠC it
n av
Ġsc ope
Ġsou tien
Ġgraph ics
ĠB und
ĠAgree ment
s il
v ite
Ġdiff use
f tig
Ġapproach es
couvre z
Ġla pt
Personn alite
Ġy esterday
ĠJ etzt
ĠD al
ap i
Ġsouhai te
ĠT ak
Ġin ven
O ffic
ĠIndones ia
AC H
ĠUnivers al
re u
Ġu ms
Ġfore ver
Ġt andis
ĠBl ut
ohl en
Ġe legant
Ġsix th
Ġcomp osite
Ġguide lines
k und
Ġrep ris
ĠPort land
ce u
Ġcon d
Ġt at
ĠPer u
Ġqu ad
bre ak
S ex
Ġpu issance
ens chaften
Ġmem ories
Ġâ ĺ
v ada
ze hn
} }
Ġinvol ves
P ark
ĠSt ories
ley ball
Ġwid th
ind est
Ġcomp an
Ġv ors
aw are
ind re
ĠA insi
M or
Ġk i
ach at
cas ts
ĠUn c
Ġimport ante
uis hed
ĠY an
ch or
Ġali ve
ĠMer ci
ĠBu ck
Ġd owntown
ver tise
Ġb our
st ood
omm t
sch riften
ĠS es
ĠDiam ond
ĠPho enix
re m
Ġfinis hing
ĠSta ge
v ation
ĠInst allation
Ġcru cial
9 00
Ġpeint ure
Ġsol ve
ĠP ut
ĠErgeb nisse
Ġbur ied
b ass
ang a
ĠGes pra
Ġehemali gen
ĠF unk
Ġautoma tic
tit le
Ġcons ent
Ġchang er
ous ing
T i
Ġb ol
ĠÎĶ E
z ard
Ġnu cle
Ġk amen
geh end
Ġpat ron
Ġs mile
umin um
Ġchurch es
w illi
iche l
at tet
ew here
J oh
ĠSt r
Ġthem es
ĠHer bst
ĠN ep
Te le
ĠSeb as
Ġeg gs
Ġb ras
as che
as is
lo ve
Ġch ris
ĠAr ena
Ġdirect ors
ĠR ue
ĠK az
ium s
Ġcomple t
ĠAb schluss
ati ques
Ġri vie
ac le
^ ^
Ġmon te
ĠGra y
> âĢĶ
Ġrom ance
ĠP le
Ġrou tine
Ġw ra
Ġmoun tains
iz er
on ing
ĠMaur ice
Z um
>Â ·
Ġphotograph s
ĠBe handlung
ge geben
ĠC ob
Ù Ī
IT H
C a
Ã ¦
ĠO d
Ġverw enden
Ġgan zen
h ad
Ġinc om
che ment
v ideo
Ġassoci ations
Ġcart es
Ġor al
ĠP on
Be fore
oph ie
v u
l tig
ta c
ein en
ĠE dinburgh
hn liche
ĠBre men
Ġinten se
Pri x
ĠLe gend
Ġintegra tion
Ġfre quency
ĠS L
n ut
Ġtempor ary
u fe
Ġdrink ing
bed ingungen
C ount
b ound
x elles
Ġble u
Ġdep ression
H en
tiven ess
Ġfantas y
ĠT es
ĠH amm
Ġcompe tit
Ġref ers
p ouse
ĠOr chestra
ĠSte fan
ĠRos en
Ġreques ted
ien na
Ġmathema tics
Ġdev rait
ĠK urs
ĠU tah
ĠF ish
ort heast
j ust
Ġroman tic
till ery
cri bed
f ig
Ġvit esse
ĠDe ux
and ra
Ġedu cated
Ġenter prise
ĠT au
man de
Ġsing ing
K ir
Ġref use
ĠK ern
Ġfem ales
um an
I Z
Ġ19 04
ian ts
Ġune x
Ġch ances
Ġg ang
ĠCar los
Ġprivi le
Ġp osting
Ġsoci aux
ĠN ash
Ġstud ying
ĠMan ual
P H
Ġsch rieb
Ġphen omen
Ġcent res
EM ENT
Ġex hibi
Ġent ering
Ġheav ily
Ġfunction al
ĠM ust
we chsel
ĠB ib
Ġdi alogue
Ġerreich te
ĠAm ong
Ġvul ner
Ġlay out
Ġexp lan
Ġb ewer
ĠAv ailable
ĠC T
ĠF urniture
Ġenreg istre
et on
ĠSonn tag
m esser
irm ingham
nd ler
Ġliter ary
Ġsim il
hab ili
ĠKar riere
Ġtom be
ĠTe levision
ĠTer re
Ġfol k
ĠBewert ung
Ver o
Ġs atellite
L y
ĠVer wendung
And re
im g
ĠD azu
ec tive
ĠLa ur
it aires
Ġgew orden
Ġcou rage
Ġl ady
Ġges tellt
Ġper mit
[ /
Ġw and
ati fs
fr ast
Ġy oga
Ġou vert
ĠI C
k ers
fic tion
Ġsu cht
ic ed
Ġab ges
Ġeffic ace
ier ra
th en
ĠR oh
Ġre bu
rie be
ĠFe atures
ĠClin ton
ĠS tie
Ġto ll
Ġar ray
ĠVerkehr s
amb ling
ĠF oot
Ġgo ogle
ie ment
W ill
ĠW ard
ĠY ellow
Ġprefer red
tic o
Ġam ounts
Ġzu letzt
Cur rent
Ġcompe te
Ġliber te
ille ur
nt y
Ġbr ut
Ġsuiv re
Ġpap ier
ber ras
ĠH R
H u
ac ent
ĠS weet
ĠErfahr ungen
Ġmal gre
ĠUnters uch
Ġretrou ver
leist ung
ĠSn e
gra duate
ĠLab our
ĠM ons
Ġri ding
Ġâ ľ
198 3
ĠWith out
Ġrespons able
ĠA BC
ĠV as
ĠN ative
Ġclass ique
s ize
Ġp om
Ġna issance
ID E
ĠB ai
Fran c
che lle
lim ate
Ġshort ly
Ġse quence
ĠR ic
ĠT ool
ĠNews letter
Ġli eb
s am
ĠArbe iten
ul en
P eter
ĠC ock
Ġm aps
Wel come
L ive
li ques
piel en
Ġvict oire
ĠM ale
Ġtag ged
ĠH ud
ĠMa j
ĠZu dem
le itet
g iving
ĠSpa ÃŁ
Ġb one
ĠH unter
Ġou i
Ġfin alement
Ġven ir
ĠAk tion
ti ver
che z
Ġw issenschaft
her en
ĠKenn edy
li ances
N O
lec ts
ra ux
h arm
arma ceu
ĠTele fon
Ġpass word
Ġconten u
ĠV org
ĠIde e
ĠWest en
ĠCle veland
ograph ical
ĠFlo or
Ġ18 80
Ġmed ian
m ates
ĠB ett
ĠKir ch
ĠP unk
ri fic
ab is
ĠN ie
ĠMer cedes
ĠSy mb
erei nig
ĠGe fu
ĠLiver pool
e per
lan gen
ĠTechn ical
Fam ily
âĢ ¢
Ġexp osed
ĠP H
Ġref used
k ind
sp rach
Ġl un
mark et
Ġeng lish
Ġwire less
ĠElement ary
Bl ue
ib bean
! "
Ġal lein
B ad
Ġtrop ical
un ternehmen
Ġfir ms
Ġless on
leg te
w achs
Ġla ut
E G
Ġ19 01
Ġcontrib uted
Ġz o
ĠT ed
up load
ta kes
ĠG A
ve ur
Ġg esehen
Ġconsum ption
Ġhum or
ĠL uther
Ġg orgeous
Ġ18 70
Par is
L ors
Ġmehr eren
end ment
Ġphr ase
n orm
ĠG P
l at
gh ai
ĠT ools
ĠLouis iana
ser ie
ĠSu ccess
oy er
f ran
ĠBay er
tis me
Ġmor al
ew s
Ġstrong ly
art z
ĠLa ura
Ġse mb
Ġd ia
Ġcent uries
Ġbeste hen
Ġsh irt
ĠU RL
te ten
ĠG am
Ġdep loy
ops is
, ,
ta is
ue ur
schie den
Ġsav ings
Ġbring t
Ġcomp rom
Ġtri m
Ġkn app
Ġgreat ly
l ature
an ced
ill o
ĠL ati
d aten
Ġli ft
ĠPro s
Ġnutri tion
Ġtri gger
ing ers
ĠM ack
Ġgraph ic
n ull
v als
Ġop ens
rol led
Ġdestru ction
Ġfind e
Ġo re
Ġfol ks
ĠVer o
l ust
ĠC ul
Ġass ume
Ġle af
ĠA mp
Ġt ons
Ġher itage
Ġr it
N Y
ĠBe ing
Ġles qu
Ġobjec tive
Ġadd s
Ġcade au
Ġgi ant
Ġge legen
li ter
Ġj et
ĠN BA
ĠD ue
im o
ĠL av
Ġattra ctive
Ġver te
ĠPrac tice
ff el
ĠChe l
lection n
ĠHe il
ĠCar n
Ġfl our
le it
ĠThom pson
UN G
ok ed
Ġover w
Ġvorhand en
Ġexp lique
Ġmon uments
C y
Ġav ailability
Ġdo ctors
bra uch
ĠR av
Ġent ha
p resent
ci ers
Mar tin
sent er
Ġg ast
Ġihr es
Ġdevelop ers
Ġsurpris ed
T ex
ĠMet all
it ting
ĠW onder
ĠAb ra
ĠFran ces
lev ard
Ġbre aking
Ġgeb oren
ĠG ross
ĠN ad
ar ity
ĠStew art
stoff e
Ġown ership
b ou
ĠOper ation
ĠV A
J ames
h all
Ġbran ches
ĠCom merce
ĠHall oween
ĠAng aben
re ise
Ġtra ditions
ĠS ax
ĠTipp s
ath ers
P oint
Ġyour s
G H
u ÃŁer
Ġre ducing
ĠMo z
Ġmach te
R a
Ġelectric ity
Ġf oss
ĠToul ouse
Ġtele phone
Ġr ender
tis an
ĠM C
ĠRobi n
l ash
Ġsim ultane
g ov
Ġthous and
alis ed
Ġer za
h igkeit
k ri
S K
P o
ĠL at
Ġdis cri
Ġfor te
Ġwechsel te
ĠC old
An ti
fin als
Ġgeeign et
aut om
en o
Ġtom orrow
Ġexp lains
Ġmoy ens
sche ch
ĠJ ag
ĠWir tschaft
ĠS ei
fe cture
at al
ĠLis a
ĠJoh nny
Ġstay ed
S earch
Ġlivra ison
ĠL uis
Ġ19 03
ĠCh ance
an tage
Ġeval uation
E ducation
T yp
Ġexp enses
ĠFrank lin
ĠKon z
ĠPar ad
ie g
ma ÃŁ
Ġn erv
ape u
Ġc ow
an lagen
e g
Ġpul led
ĠRoy aume
ĠBelgi um
r r
Ġtrou bles
Ġinst alle
ĠCh am
Ġsc ores
ĠVin tage
AC E
ĠX L
Ġat titude
Ġground s
alist es
D ra
zw ischen
ass ociation
te am
Ġne ither
Ġer fahren
ob jet
ĠC AR
ĠN urs
ĠC M
gi que
Ġex ists
st op
Ġdiv i
Ġdes ired
ten ance
ĠEntscheid ung
Ġport folio
mi ns
Ġn ights
ĠRe lease
ĠS oul
ĠAr ten
Ġinter active
Ġgesch rieben
Ġbox es
ĠS ave
O s
pin e
T ake
li quer
ĠUm welt
Ġunivers ities
er al
Ġe aux
Ġren amed
Ġdom icile
FuÃŁball spieler
ĠGra ham
ĠPro t
ĠE rin
h h
g ins
Ġinc lus
Ġfal ling
Ġmotiv ation
Ġch im
m isch
In formation
ĠGab riel
Ġprov ed
GB T
198 2
ĠT ie
ĠReich s
T om
ĠBen utz
Ġgovern or
F ace
ĠPer fect
P rin
ĠCar ter
ĠForm at
mittel n
ĠF ile
oli a
ĠJer usalem
Ġ ).<
Ġp ione
Ġsc ol
ĠWeihnach ts
ĠBeau tiful
ĠLu ck
hi a
T hen
Ġoff res
ber nahm
hr ungen
ok o
pl ates
ĠAnt wort
ĠS ER
Ġcap s
OU T
Åĵu vres
b ett
ĠSex e
Ġtreat ments
Ġk la
Ġcons erve
cess ion
P hili
ser ver
ĠAcc ueil
ĠCommunic ation
Ġev ange
Ġinter action
h attan
Ġfre uen
a igns
ĠCamp bell
Ġh auteur
W o
th rough
om bre
ber ge
ath y
H aus
ĠAfghan istan
Ġs etzen
ĠKn ight
Ġl ucky
Ġsugges tions
or ten
Ġcomp rendre
Ġtw i
C ustom
ĠV ereins
Ġse es
L AN
j ar
ĠRes ults
ĠPub lik
ange b
Ġnomin ated
ĠIn formations
Ġnurs ing
ĠProf ile
ĠN R
Ġsta ke
el o
E ss
tisch es
ire ment
ta tive
ab out
Ġacc eler
Ġaccomp lish
Ġbere it
sh ow
ats u
ĠTe ams
tif ie
ĠHawai i
em e
Ġbelie f
et o
or ia
ub en
ĠDe ck
Ġp n
ĠPf lanzen
Ġchair man
ĠJim my
ĠH E
Ġabs ence
or ama
ĠT ennis
Ġl amp
ĠLe gal
Ġcl osing
qu iry
Ġex is
ile y
ĠNe ur
Ġconf ident
ĠVene zu
Ġla isser
ĠSt orage
M ad
ĠEr z
Ġhoch wer
le tz
Ġdis covery
Ġcu ir
Ġreques ts
or o
ĠTer min
im ir
ĠR T
I AL
ĠSch war
ĠN az
ĠDie t
ĠV eter
ant o
d west
Ġnature l
d an
Ġh olidays
ĠDak ota
Ġcap tain
ĠL oire
ĠH und
Ġbi ology
ĠLe hrer
Ġmat ern
ĠKar ten
as ta
g ame
Ġ !!
ĠHistor ical
ĠRestaur ants
Ï Ħ
Ġco al
etz ungen
ĠInter esse
ĠOlymp ischen
ĠErfahr ung
Ġconver ted
Ġclass room
ĠMon de
erse its
Ġs etzt
Can adian
Ġspe aker
ĠE ye
sch w
ĠC ependant
ĠFe ature
bi o
ĠBro thers
Ġsoi ent
h onneur
pl ant
ĠBahn hof
m ocra
Ġgew innen
ĠW A
clus ive
Ġcomple tion
ĠS amm
ĠInnov ation
to iles
ĠN y
Ġbelie ves
ok es
Ġto ta
Ġ10 5
ĠB aker
Ġdu al
Ġm ains
ed ic
mi nin
B rand
geme ins
ĠTe chni
ĠDo or
j ob
gion al
n agement
Ġson st
ĠG uine
Ġcomment aires
A ccess
Ġgleich zeitig
ĠI an
ettbewer b
Ġb oot
Ġfai ble
3 50
nd lich
A ma
Ġdesign ers
li est
ĠB ert
ĠMarg aret
ch mal
Ġrele ases
Ġattemp ted
d im
Ġfra ud
Ġf old
Ġim pe
ĠK ro
ĠSonn en
Ġposs ess
Ġconven ient
Ġpan els
Ġme uble
Ġvers us
Te ch
ĠAuf gaben
ĠK ab
ĠCom ics
ĠErs atz
c ule
Ġprincip alement
Ġsp ots
Ġesp ace
Ġris ing
Ġsum mary
ĠW unsch
ut ors
ro v
Ġins ight
ver ty
ĠL ith
Ġextern e
ĠF lex
Ġl umin
Ġh urt
ĠK ostenlos
19 79
Ġaut onom
Ġe gg
ĠS atz
wei le
ĠEnviron mental
v ity
Ġd ust
ir al
ol k
Ġpl at
ĠS ak
ĠT rou
ĠSt orm
Ġtiss ue
ĠT ib
Ġhead quarters
ĠOrle ans
J ac
Ġt one
Ġcot ton
Ġm obili
Ġou b
le terre
S M
Ġinterview s
ĠDes igner
Ġcon fiance
ĠK ate
T ro
Ġdep ends
st r
ĠBal timore
min a
Ġled iglich
rag t
ru nde
Ġad resse
bar keit
v ue
Ġste am
IS E
Ġg ym
R en
ĠAnsch luss
ass ung
ĠOper a
Ġb ug
s ystem
Ġpra yer
Ġun ite
Ġg rie
ĠLet ter
ĠDoc ument
P P
Ġvis its
Ġhistori ques
ink el
W ater
ĠP orte
ĠS icht
E ven
Ġport rait
ĠEd el
Ġver gangen
ĠGra ce
Ġcomp ensation
ĠB itte
Ġtable au
Ġ( =
othe k
ust ration
ĠMas ters
m acht
ess a
198 1
ĠK rank
ĠZeit punkt
ed a
ĠSe ven
ĠS co
ch anges
Ġvo ted
N ou
Ġgra b
ĠRe ligion
ub les
Ġact uellement
Ġche veux
Ġ19 02
," \
c ot
Ġt ension
IC H
ĠBe im
Ġ2 20
re ck
Ġpass enger
pe k
Ġestablish ment
ĠWork shop
Ġsomew here
Ġad s
Ġindepend ence
ĠSome times
ĠB illy
Ġsp ark
Ġme als
dess us
ĠTurk ish
Ġr ense
Ġder ived
Ġfix e
Ġsh ots
ov ies
ĠPl ans
ĠC et
Ġdivi n
qu ate
ĠZusammen arbeit
ĠN ancy
on en
ĠVer waltungs
Ġtrava iller
Ġun ten
ĠPark er
ab elle
Ġaccomp agne
ur st
O per
M ass
ĠH aving
sp ot
Ġcon vin
ĠRe por
Ġsu icide
lo ver
Ġpeup le
ĠSt at
ĠP unkt
il ty
j en
Ġauf genommen
ĠStan ley
ĠP fer
asse mble
ĠZ ubeho
t range
au di
ĠRid ge
Ġo verse
Ġabs or
ĠB enn
Ġm att
Ġcons ul
dem ic
ĠOrgan ization
gha fen
ĠHerz og
Î µ
ÌĤ âĤ¬
H ello
Ġmort gage
Ġdiscuss ions
ox y
Ġeth nic
Ġencourag ed
ĠB eth
ĠJose f
nd nis
ĠInter ior
Ġoptim al
is ant
ch ain
z n
Ġdocument ation
Ġan xiety
Ġpersonn age
c it
Ġs tellte
pr ung
Ġhost s
Ġflu id
Ġg aming
Li ke
Ġmove ments
T hr
Ġdiffic ulte
D ata
Ġmi xture
Ġdire ctions
Ġatta ch
ĠMar cel
Ġrequire ment
Ġautom obile
ia h
Ġcons acre
ĠNach richten
ĠL ost
Ġc ord
b rig
Ġmake up
tel n
Z ur
V illa
ĠFantas y
F E
Ġis lands
par ty
U l
f ier
Ġhop ing
Ġbl ow
ĠInf os
ĠD ru
ci ation
ĠBild ung
Ġindic ated
10 5
Ġprofess eur
ĠAtt orney
Ġcomp uters
Ġver re
Ġver g
M iss
Ġwel cher
} ,
bin ation
Ġpermett ent
ĠAd vis
ĠKon f
ig te
bet rieb
Ġer inner
Ġ> >
H C
ĠS alle
ap est
ti les
Ġrapid ly
ĠRob inson
Ġo ven
ĠMarsh all
B a
cr its
ĠBle u
Ġpri nce
leg ung
o ons
c ury
Ġcirc ulation
ĠAl ors
sch uss
Ġres erv
ĠCom plete
Ġat te
Ġ1 12
ĠF ak
ĠW right
Ġathle tes
C ri
ang ed
Ġcomp liance
ĠFor schungs
ĠAl aska
us a
ier ter
Ġtrans actions
ĠDok ument
ĠQues tions
19 50
Ġdu ties
Ġdiv orce
Ġpower ed
P la
ĠBri ght
Ġpack ages
ĠBeruf s
ĠKar ls
as a
Ġstat ut
Ġ(âĢ ŀ
Ġsmart phone
Ġwelt weit
ĠVer antwort
Ġwalk ed
Ġmet ers
ĠK aff
enn ung
pl atte
Ġg are
Ġart work
ĠAd el
ĠMon at
ĠBut ter
we ek
ON T
Ġh ired
tili ty
Ġjewei ligen
ĠH ob
Ġinfe ction
pf lege
Ġspe zie
omet ry
Ġpo verty
m useum
ĠSch lag
ĠDi ffer
Ġexp ose
Ġmet res
Ġcomp atible
av ier
Ġp on
ĠMontre al
Book s
Ro bert
Ġl oving
F ar
r gen
Ġcriter ia
er ts
itz t
19 60
ĠTourn ament
Ber lin
ss er
ĠMor ris
ix el
ĠWel come
Ġr usse
ĠNav ig
Sec ond
olog ischen
ĠCamp us
ĠB urn
Ġfaci lement
Ġpis cine
ĠC uisine
vi an
Ġrec yc
ĠN J
Ġpres idential
Ġnature lle
ĠG round
Ġde fini
f ond
en be
sch t
F ull
oles ale
Ġform ula
ĠB ewer
ĠS olid
ĠGeb ra
ĠOs car
Ġup grade
end u
IL LE
Ġfle et
mitt lung
Ar chite
fa x
Ġremp lace
h orn
Ġde leg
ĠIn ner
ĠChair man
Ġfor got
Ġclass ification
Ġre ferences
at he
; "
Ġcap abilities
J os
im b
Ġsupp lement
p ay
O k
Ġer rors
Ġb ap
Ġunique ment
Ġres ort
Ġp ole
re al
Ġacc um
ĠCro wn
et ch
Ġbegin nt
Ġerrich tet
Ġde me
Ġsuff icient
Ġver me
Ġs ew
Ġbas es
Ġclasse ment
Ġunus ual
F ri
Ġdrum s
Ġocc asions
ĠBet ween
Ġanci enne
1 12
i fications
Ġmain taining
Ġsens itive
ĠD ial
Ġan alog
ĠM L
ass el
Ġp f
ĠCo ffee
Ġsie he
Ch ild
ĠHer bert
ĠHor se
Ġobs erve
Ġrepresent ation
ĠF resh
IN D
à ¹
Ġphot ographer
Ġri val
Ġver tra
ar c
re ct
Ġacc used
ci fique
ĠDen ver
ĠDis play
ĠE M
Ġstret ch
ĠA part
row s
ĠLand s
Ġ ]
Ġmoun ted
Bi ography
tab les
f are
ĠUnc ategorized
G old
fra u
meister schaft
acc ord
chn et
akes pe
Ġex e
Ġbat aille
Ġf illes
Ġwhen ever
ĠL anka
ĠR unde
ul le
Ġtrave ling
P rice
ĠK redit
ari ties
es h
Î ½
en cing
Ġren dez
Ġress ources
ĠCommon wealth
f ia
vol le
Ġposs ession
> ,
ond o
lieÃŁ t
ru re
tudi ants
M ENT
Olymp ic
ĠK ay
Ġhe ating
Ġf ought
Ġsent ence
ert ation
Ġmi niste
ĠF el
on ly
ĠWork ing
ĠWay n
l asse
Ġmechan ical
Ġp ois
ĠKomment ar
Ġjem and
ĠP ant
p unkte
ĠG ir
Ġgen ommen
Ġp seud
ul p
h our
ĠWh ich
ĠR ugby
ok u
ta us
ĠStudi um
19 78
c f
f ur
ĠP ittsburgh
Ġcri mes
an while
Ġtwi n
Ġse eds
Ġfocus es
ĠB og
Be it
Ġcan ad
Ñģ ÑĤ
d ata
Ġpost er
ĠWer ner
ĠSing h
ĠSim ple
Ġexp atriate
T w
ĠFre ib
Ġstar ring
Ġa merikan
ĠM ountains
ĠSte ven
Ġm ature
cor ation
Ġfolg ender
s ungen
Ġf lights
f ab
Ġsurv ival
Ġc oll
pie ce
Ġcomp et
ĠWayn e
ĠC ler
ynas ty
Ġsimp li
Ġnatur ally
Ġv ain
ort ant
Ġtou che
19 75
Ġc ub
Ġdis miss
u ÃŁen
Ġolymp iques
gel o
Ġgro ÃŁer
ten ant
ĠT ours
Ġconsider ation
Ġver sta
Ġautom atique
Ġcri tics
Im age
Ġra c
Ġlife time
et ta
Ġin habit
ĠL ay
W ei
b lo
N ord
c amp
A wards
k urs
H ot
ĠDub ai
Ġe Bay
Ġgra ce
um ble
um ph
ĠLe iter
Ġtra ce
Ġcat alog
Ġr as
ĠP ale
e a
Ġcommunic ate
p richt
ĠD rag
Ġgel ten
h ill
Ġmy stery
ĠOff iz
Ġas ide
Ġliter ally
Ġk inder
ĠArgen tina
ĠReg ierungs
an on
Ġver tical
stan tin
M ili
Ġperiod s
ĠAd ditionally
Ġ4 50
Ġs ight
ĠFlor ence
Ġbook ing
ĠEnter prise
ĠNe ck
Ġan sehen
ĠNach dem
Ġg ren
f unktion
b ran
Ġpra tiques
Ġges etz
ĠKar te
ess i
it ude
M id
Sta te
and al
ĠLu c
ĠF avor
ff i
ĠTra dition
di as
Ġcomp act
Ġpass engers
ĠB irmingham
H ey
un n
be ing
ĠMur ray
Ġhigh way
ĠF ischer
ri na
Ġp uzz
Ġany way
Ġ Ã
R T
Ġsch reiben
Ġan cest
ati a
ĠGot tes
ĠSau di
iz on
k ed
Ġess ays
ĠSam stag
ĠC emetery
ĠMay or
Ġappar ently
ing o
ĠB ott
Ġin kl
Ġpat rimoine
Ġunivers e
amp a
ĠOper ations
man ns
laub t
Ġb lind
Fern seh
De ath
Ġab road
Bu ild
G L
Ġqu asi
Ġprop ag
Wi n
Ġdoll ar
Ġe cht
Ġcro wn
At lan
ĠWin e
Ġtri es
Dep uis
Ġmes ures
ĠSt op
wid th
Ġregard less
s ites
ol ly
Ġver z
Ġloss es
Ġbed s
friend ly
Ġmy ster
t rop
Ġsynd ic
Ġsa it
Ġopin ions
Vi n
ĠLin ie
els h
Ġz og
Ġcertific ate
C ategories
r ts
e le
ĠL ad
Ġ1 14
ill ers
ĠF ed
u he
Ġh os
Ġdem ands
F ollowing
Ġse ien
Ġc opyright
Ġpropor tion
ĠFre itag
Ġthe ater
Ġjur id
Ġp ace
Ġg li
app lication
ĠG len
cri vain
Ġattend ing
ĠB ronze
ĠAd ult
Ġspe akers
S D
Ġdivers ity
b ag
mati ques
Ġformer ly
app el
land o
Ġch est
ĠRuss ie
ĠBang la
Ġsurf aces
Ġp ier
Ġper ception
ĠRes pons
ĠFeh ler
Ġpotenti ally
glich er
ĠHam pshire
Ġwrit es
ĠG ros
H or
ĠEv ans
it ate
ĠD j
Ġcol ours
Ġarran ged
re ll
Ġorigin ale
ĠArk ansas
ĠL P
ĠInvest ment
Ġoper ator
p y
Ġj ung
Ġexamin ation
Af rique
Ġpl u
M ari
Ġ18 00
Ġspeci fied
que z
Ġw orship
P age
k op
ĠEmp loy
re ts
col es
Ġm ales
ĠNor wegian
ra h
ĠSP D
Ġm ood
Ġro ots
n issen
b ai
Ġ18 98
Ġpop ulaire
urb o
E le
Ġb rick
ĠG O
ir er
fahr er
rai ning
ĠD ame
Ġchar ity
Ġph il
r atch
que ur
Ġkomple tt
ĠZeit ung
tific ations
Ġblog s
Ġincor porated
Ġcontinu ous
ĠA ur
1 15
Ġt ile
c teurs
... )<
Ġcli p
ĠS ites
ric ane
Ġum fass
iz iert
sh irt
Ġmar ie
Ġ3 000
Ġdump ster
D oc
Ġv oi
ta wa
Ġnet to
Ġt we
ĠFl uss
Ġpric ing
ĠInd e
ĠKl oster
Ġ1 17
ian e
Ġimplemen ted
Ġemo tion
ĠFre edom
Ġeinz ige
Ġaccord ance
ou verture
Ġfundament al
an ied
19 77
d ri
Ġp up
Ġbas ket
Ġind oor
pe z
rz te
ult an
ogni tive
rat en
Ġan z
ĠB rid
ĠR A
Ġappar tement
Ġc atholi
Ġdurch gefu
ĠMom ent
hum an
ĠFol gen
ĠSchaus pieler
Ġg ere
ol z
ĠQue bec
Ġas semble
Ġbra ucht
ĠD ry
W atch
Ġfut ur
Ġto oth
ĠProdu ktion
F ollow
t l
ĠMan uel
Ġconcer ts
Ġmusic ian
A ber
Ġparc ours
ĠKom p
ĠDen mark
ĠFi x
Ġ18 60
th ode
i est
Ġprior ity
Ġbou tique
anci en
Ġtit res
O ld
Ġen forcement
Australi an
ĠG PS
ĠR oth
Ġmag azines
qu ili
Ġmit tel
] .<
Ġ _
Ġrela ting
Ġv alle
Ġcabin ets
Ġsur vive
Ġs orte
ĠP red
ĠðŁĻĤ <
Ġland ing
Ġwe igh
Ġsusp ension
tis sement
r hein
Ġst uck
Ġ18 99
Ġnecess arily
Ġer ziel
ĠComm ander
zir ks
ĠG ulf
Ġfur ent
ĠBud get
ĠSp ar
ĠN os
ti ere
AS E
f alen
Ġangeb oten
ĠSy mph
ah oo
f unk
tes te
Ġlow est
ĠPl as
elf are
ĠLe ather
ĠP E
Ġpsych ology
b ane
ĠPlan et
Ġt ari
Ġbas ically
pf licht
ĠM I
Ġsuff er
ur ation
Ġg ap
ta kte
Ġb rig
ĠSch le
est re
cy c
Ġanim aux
Ġsurv iv
k rank
ĠP ope
Ġconta cts
for um
ah o
Ġtre ffen
ho ch
Ġsou p
ĠF ron
Ġproduc ers
Ġa x
Ġcamp ing
g ions
Ġco eur
ĠW W
Ġmo on
ni fe
Ġav o
Ġacquis ition
Ġwar s
Ġimprove ments
ĠDes igns
ĠRena issance
Ġaccommod ation
b ear
chei nen
Ġcir cle
ĠSi nn
G emei
S piel
it sch
Ġengine ers
Ġartis tic
ĠIn form
ĠAl ten
F ootball
ĠSen ator
Ġset up
Ġgesam te
st he
Ġenjoy ing
cyclop edia
ĠB Y
Ġnews letter
n ke
Ġaband oned
T ri
19 76
ĠIntel ligence
Ġau dit
lis on
Ġe lder
Ġsign ing
Ġwar ning
Ġpublic s
ex per
te chn
19 0
ĠC rime
ĠH ood
ĠAll gemein
ĠJuli a
Ġwen ige
Ġvari ables
Ġform ations
Ġhors es
Ġapp ren
ĠC av
Ġcomp lain
Ġfi ni
Ġport es
Ļ ¥
D el
Ġoff ensive
/ -
Ġb orrow
ĠT ouch
li cken
s uch
OR D
ĠGemei nden
Ġl en
ti tions
k ov
W he
Ġc rise
ER T
ĠM ong
ĠBes ucher
Ġc av
Ġempfe hlen
Ġnou vel
t ri
min ute
Ġpersonn ages
Ġun cer
ich i
Ġj unge
ĠMein ung
es c
ĠMen ge
p rin
H y
C ro
Ġprof onde
ĠI van
b lock
19 74
Ġt ied
In ternet
Ġven ues
om ed
ĠFar b
wh at
he ll
Ġje udi
iss ances
Ġh onda
ali sten
Ġref und
P lace
Ġciv ili
Ġre ct
ĠChristi ans
IC K
Ġfla vor
Ġvolunte ers
schul lehrer
sm ith
ĠL ower
lo is
ens burg
Su pp
Ġfarm ers
hu a
clar ation
Ġ1 16
ĠToy ota
Ġc d
s ume
ĠLu ke
Ġs ah
Ġt ue
ans ch
air y
ĠP resse
d lich
) (
medi ate
Ar tikel
Ġp ounds
M aster
ĠTru e
Ġdu o
ĠDe al
Ġverb ess
ĠSie d
Ġinflu enced
v ic
hic ule
ĠFe ed
ĠChr on
Ġ: )
n eur
ĠBar ry
ph en
ĠRen contre
ĠBrun o
umb ai
K n
ION S
ĠWer ke
Ġres ident
S or
Ġdec line
Ġar bit
N ET
ĠR s
Ġl ernen
ig o
Ġvi agra
Ġwar um
Ġsc ru
Ġceleb ration
ri tion
Ġc ardi
Ġb elt
u ant
Ġger man
S cript
ĠN as
Ġd ose
Ġs lee
ric ains
ĠProf ession
oc ese
Ġcent rale
ĠHand y
ab er
Ġind is
ĠFir men
H am
Ġcin ema
mas chine
Ġbestimm t
We ek
Ġrespons es
ĠBrig ade
Ġes time
ĠDI Y
ien nes
Ġsor ry
Ġents cheiden
tz liche
ĠA K
E ach
ĠDes cription
ĠHome page
ĠSh opping
ĠR C
ĠK un
Ġagric ultural
s us
ls ewhere
Ġpre v
am o
ĠQu el
av ait
ĠBes itz
hab er
Ġtri ps
ĠAus gabe
m ack
Ġc and
ĠX i
is tique
Ġadap tation
Ġra ted
St art
ĠY et
Ġdesc end
i ents
rn berg
ĠBit coin
2 20
ĠW are
Ġsc rew
G roup
er b
ĠC lay
rop ort
ath olis
Ġunder stood
Ġdis order
ag re
ber icht
ĠPh D
ann on
ĠCor p
st ud
em ble
ĠPati enten
Ġst u
Th omas
ĠBet ter
Ġp ru
illa ume
ĠB ased
S I
Ġattack ed
Ġpar a
ad ministration
Ġad mitted
ĠN an
Ġen ables
geord net
ĠMit chell
Ġbr ush
Ġboard s
Ġmajor ite
en viron
C all
gru ppen
ĠGesund heit
S R
ert es
auf s
ĠA ld
Ġqu elle
r ungen
Ġpurch asing
ĠPal m
Ġ1 13
ou v
ĠVereinig ten
Ġgesam ten
ĠTechn ologies
Ġh orm
Ġwhe els
ĠCon ditions
ĠArchite cture
Ġle ts
ad resse
w inning
ĠEn joy
Ġtw elve
ĠIniti ative
ĠGh ost
and ers
Ġst range
ĠT aille
" ),
ĠCor porate
Ġlig nes
Ġt elle
ĠM aking
c ules
ĠV arian
v ais
ĠG ymnas
ĠVer ha
Ġwat ched
ĠAltern ative
i at
qu ire
Ġra ising
Ġfound ing
hal le
og an
ĠAr ticles
s ervice
oh le
F em
Ġdevelop er
L ang
ĠF iction
ĠM uch
atis che
ĠV ale
Ġport ra
Ġc ali
hyth m
ac ted
ĠNov a
Ann e
Ġat teint
ĠI tem
Ġeconom ics
Ġrela tiv
ger ufen
le tt
ĠAnt worten
ĠM T
ari tion
Ġto ler
Ex per
ĠSch ritt
ĠGeburt stag
Ġl ens
Ġexperi ment
f lix
habili tation
sch au
Ġfait es
ĠWar ren
ĠPri mary
ve ments
laub en
Ġcur riculum
li orer
de cin
ĠNC AA
ĠNe vada
Ġob jets
ten ces
ĠLead ership
ĠS occer
Ġamong st
mus ik
ĠWien er
Ġshould er
Ġmal adie
f ather
Ġv alley
Ġgem a
fts fu
Ġsex e
Ġpour su
T or
Ġbe gru
ĠVer d
Ġport ray
ĠMot ors
Dist ribution
Ġoper a
cri te
Ġsti r
ĠH essen
b ol
ĠSch les
rat ors
ĠP oker
Ġdiscip line
ĠNot es
iden cy
ĠPro test
ĠB ac
ta king
din and
Ġbr illiant
ad ows
Ġs ail
ĠM s
Ġaff ir
ĠGra b
Ġsurround ed
itz ender
k ampf
all ow
ell ers
Ġk re
Ġtra gen
) -
ĠSho es
ĠSta hl
ĠU pper
hi ver
Ġph ones
tes y
ĠD ollar
Ġgeb ra
Ġfind ings
ĠE re
on ner
Ġsubstanti al
ĠR ank
ĠRay mond
acc ueil
Ġind ire
ĠClean ing
ges cha
Ġfew er
ĠFl at
G M
Ġcompeti tions
bin e
ĠF isher
ĠR ico
onna issance
Ġflo ors
the less
Ġvic tim
nis ters
Ġag greg
ĠFreder ick
ĠSex y
ĠGlas gow
ĠPar te
ma link
Ġd ritten
19 73
ĠNach bar
ĠT ank
ĠD ich
ĠAn bieter
ie use
Ġar med
Ġoper ators
Ġpati o
19 72
>< /
ĠG U
f ait
Ġp eine
Ġander er
ĠJ oin
Ġfer tig
Ġout come
rai ner
Ġ18 95
ĠSus an
op les
l est
M as
ud en
Ġmer credi
g ood
ĠMor ning
ĠPoli tical
Ġlaw yers
ĠSchm idt
Ġemail s
Ġstrong er
ĠAm ateur
Ġs oins
Ġevery where
7 50
Ġb rew
Ġpain ter
ri or
ĠG rie
Ġexplor ing
Ġs cheint
Ġcur rency
ign ant
Ġcou ch
ĠRud olf
P rom
Ġsur ge
ĠV iv
ĠZusammen hang
Ġm ene
Ġrespons abilite
am el
O O
velop per
Ġpromo ting
Ġc amps
S peci
ĠGrat uit
F B
Ġen vironnement
Ġh oney
Ġsta ying
Ġcamp aigns
ĠMas chinen
Ġarrange ment
ie ger
lin ien
ĠE ugen
Ġiniti atives
ie llen
Ġconc luded
ĠMon aten
Ġintellect ual
mo tion
akespe are
ĠBru xelles
ess els
Ġoccup ied
Ġtext ure
ĠNap ole
less ly
Ð¾Ð ²
Ġc ater
ĠBru der
Ġimm obilier
ug os
w riting
ĠE L
ĠGesund heits
aut hor
ĠK el
st ahl
id ad
Ġdoss ier
Ġprincip aux
Ġhop es
Ġm ardi
Ġprepar ing
ĠEm peror
Ġcre dits
Ġf onds
ĠCol lins
mon th
Ġli ability
Ġno v
Ġoper ates
ĠCar ibbean
Ġfor d
Sh ow
Ġco at
w s
ont al
Ġmod ification
th an
ĠRos a
ĠMan hattan
tel la
Ġconse cutive
ĠB A
Ġmed alists
th y
S ty
is ta
fol ger
Ġh anging
ionn e
fic ie
Ġprin ciple
b ia
Ġgen ug
Ġbl end
Ġillustra ted
J oin
ment ary
Ġ2 40
Ġf ame
igh ters
Ġbek ommt
ĠZus ch
Ġcast le
Ġcontra cts
Ġagric ulture
Ġarrange ments
ĠP ow
Ġdef end
ĠB d
Ġkil ome
Ġf ri
Ġpar ks
ĠCh en
oi ndre
Ġ189 6
ĠHist oire
fa che
I EN
Ġ1 18
og o
ĠO der
ĠP el
ĠApp e
ĠBill board
Ġparticip ating
Ġ- --
Ġstar b
ro d
ti ties
Ġloc aux
Ġpo em
b lack
Ġconse quences
ĠC row
Ġsymb ol
ĠQu elle
Ġde fic
Ġcomp ren
Ġy amaha
age gen
Ġaim s
ogra phe
y u
Ġexception al
exp lo
Ġrestric tions
he ld
Ġout comes
ĠKi n
fra id
OM E
Ġfunktion iert
ĠInstit ution
ĠTick ets
Ġd ys
Ġconstit uen
ĠFin land
ĠEd ge
Ġsch a
P ack
ĠM acht
Ġincredi bly
ĠMar vel
lu ence
Ġents prechen
Ġconstru it
di ge
Ġsp ray
19 68
ci per
Ġs omm
ĠH onda
Ġder rie
onn ie
ĠW ach
Ñ ĩ
f lo
Ġke ys
ĠCon temporary
Ġunex pected
ric an
Ġtemper atures
ul ties
Ġ âĢĻ
al z
Ġconna issance
Ġre tre
AL E
ĠJe u
ĠJ ar
reg ion
ĠO P
Ġking dom
es ta
im ar
ĠA i
Ġmus cles
ĠPh ase
B orn
Ġc uts
ĠE ve
Ġman ger
ats on
ling er
Ġmas cu
us che
duc ational
mark s
Ġentstand en
ĠKli ma
ĠCer tific
ous tic
ĠTrans fer
Ġgra tis
ĠF ritz
Ġstru ck
h on
Ġs uns
ĠC uba
ĠH arm
ns che
ĠEvery thing
Ġf ene
tru e
ĠMon tag
Trans port
for schung
ĠB ris
Ġle gi
Ġwich tige
Ġmechan ism
ĠAk ademie
Pro duct
Ġaddress es
ĠW M
Ġansch lieÃŁend
Ġfa hren
Ġgovern ments
ĠNin tendo
Ġsens or
ien st
ĠV ehic
ĠVo ice
Ġp ig
aus ch
ĠSebas tian
Ġder zeit
Â ·
iterrane an
IG HT
ĠEdit or
ĠL ire
Ġlapt op
ĠNE W
Ġutili ty
Ġcolle agues
Ġa ustrali
he ur
ĠDep uis
ĠGe ist
c ta
Ġcri min
Ġbehav iour
is tik
Ġ- >
Ġex terior
ĠS ili
ĠFin ally
Be au
ĠBroad way
ĠMen u
um ar
Ġwichtig sten
ver b
B undes
Ġou tils
Ġg ate
ĠRe chte
ĠS omm
a o
Ġdri nks
I mm
Spe cial
Ġapp lying
Ġav ance
qu id
Ġs ili
Ġfocus ing
ign y
ĠAn imal
ĠD rum
ĠAir lines
Ġad m
Ġt ente
id al
Ġquali fie
Ġvor bei
fe hl
en vironnement
oc y
Ġbuy ers
ĠF isch
ĠSal v
look ing
âĢĻ .
19 69
en cy
Ġcont ents
oles c
ĠC abinet
Ġlo op
ns te
Ġcour ant
p ent
ĠB ull
Ġcan on
Ġcheck ing
Ġh alt
Ġp atch
ĠQ U
ĠVer arbeitung
ici ently
Ġretra ite
LE D
ĠR alph
Ġg ris
H al
Ġw ick
Ġb ons
kre uz
ĠX box
Ġ( ;
Bon jour
Ġdipl om
Ġnar rative
n ummer
Ġk an
Ġp ression
Ġa fraid
ĠD inge
ĠStre cke
li ms
ĠBirth day
ĠB omb
ĠHug o
ĠL amp
Ġno tion
ĠC iti
ĠC ali
Ġhor ror
Ġvent ure
ĠJus tin
inst allation
vis ions
Ġsw ing
ĠCan al
Ġloc ale
te enth
Ġar che
une hmen
Ġcompli cated
ĠLa urent
lo e
Ġqu itte
ib ilities
Ġaccur acy
1 14
Ġtex ts
Ġoper ational
Ġox y
il de
re chen
Bu y
Ġdis hes
ĠR au
Ġw ard
Ġfabric ation
Ġdou ce
ber pru
ini ti
Ġreve al
ĠC ub
Ġc ousin
ĠJud ge
ĠVer waltung
ĠNou veau
S un
ĠU V
Ġwir tschaft
ĠHe idel
Ġadminist ra
ĠH TML
Ġa ver
rig ue
Ġter minal
k us
ĠSp rach
Ġa ra
ĠJ ennifer
Ġ ><
ĠG y
Ġpro ches
n kt
Ġpl ates
st ory
Aus wahl
ĠV ente
B ien
Ġo m
ĠW ikipedia
ĠV ienna
ber zeug
ĠHoll and
Ġindic ates
Ġsurve illance
Chi na
Ġceleb rated
h stu
ur ities
Ġsol s
Ġbet re
Ġcons ole
' ).
Ġpen alty
ĠC ultural
di er
Chris tian
ÑĢ Ð°
Ġcou pon
Ġgeb aut
Ġver hind
j ud
Ġsch war
th ouse
ĠAd venture
Ġview ing
Ġde cent
ĠO H
Ġre bel
ass ion
ĠBe zug
Ġa ktuelle
ill en
Ġveget ables
o ce
ĠT ob
ĠNav al
ĠApp s
che ck
Ġreg ulation
Ġren ou
ĠBas ic
co ck
s ar
Ġerk ennen
>âĢ ĺ
ĠPro zess
Ġlett res
Ġh ind
Aut or
Ġpopular ity
ĠHy per
Ġquoti dien
Ġb asse
- )<
Ġsom me
Ġter rasse
hard t
g ten
Ġk einer
ĠKen ya
ĠEnviron ment
ĠMun ich
ĠM ate
g ian
Ġsudden ly
19 71
ĠNe ub
Ġpre ced
Ġleg acy
Ġsp ati
ĠS ow
17 0
ĠMe g
ĠEin fu
ĠS uns
E tat
Ġcon tainer
an as
m arine
ĠNor man
ĠBes cha
ch ner
g reen
Ġj ury
ĠSel on
ĠD M
tell ungs
Ġdem ander
au ber
ci um
men ted
I nnen
Ġass assin
Ġcare ful
rai nian
C at
Pro v
Col or
Ġaccomp anied
Ġk or
Ġconnec ting
ie gel
Ġfran ce
ent ation
ĠTem peratur
Ġ189 7
other apy
s igne
Ġsubst ance
Ġs ke
Ġstab ility
ĠK ai
pro duc
Ġfinan cie
ĠBer atung
ĠP D
áħ µ
ish ment
upload s
bed ingt
F rau
Ġres cue
Ġbu ff
Ġattra ctions
Lear n
Ġentrepren eurs
Ġfi de
ĠG ris
ĠCra ig
. /
wer te
Ġas ks
Ġgu it
B and
tit udes
mas chinen
ĠK urt
Ġtarge ted
ĠTreat ment
Ġcra fts
h yd
ĠH old
und ers
Ġtra iler
Ġenviron ments
Ġsynd rome
Ġcan al
b age
Re f
ĠW ould
Ġmay or
B r
Ġmin istry
ĠLe op
ren nen
Ġw ert
ĠHe avy
Com me
Ġd ank
Ġany more
n ome
ac cess
stan bul
ĠPortug uese
fal se
ĠE igen
ĠW ing
Ġdefin e
Ġg agne
Ġper d
ĠAl ban
ĠFrei zeit
ĠDon ner
ĠE lles
g r
Ġst o
g la
Ġdeep ly
iss ue
Ġpregn ancy
nn ten
ĠAn lage
w urf
ĠEng agement
back s
Ġocc upe
ĠRich mond
ĠH S
lin er
Ġter rible
ort on
ĠN ummer
ĠLie utenant
Ġconvention al
ĠRep ly
Ġh ide
g au
Ġtrans lated
Ġun abha
cast le
Ġ18 50
H O
ĠMan ns
Ġsucceed ed
B ru
Be cause
ĠH yp
Ġhy brid
ĠLe ader
R ob
ĠSch olar
ĠV ent
erk la
s istance
Ġtra dem
ĠSt atus
Ġb old
ĠVer band
ĠF ans
Alle magne
Ġpuis que
ĠB ald
Ġver antwort
ran gers
ck lich
ĠW end
Ġcorrect ly
ĠGe fa
ahr en
ĠSp ot
Ġfon ctions
Ġc ure
g ments
Ġsupp orters
Ġor n
10 2
Ġvolunte er
R ail
Ġfam illes
ĠF light
Ġappar ai
ĠR ath
Ġhe aven
ĠHinter grund
pp s
ĠBran ch
Ġdip lo
Ġad vertise
ĠT ac
Ġaim ed
glich t
p ic
Ġstri p
g mail
ĠF ollow
Ġmais ons
Ġre vol
ĠDemoc rats
ĠAlle magne
ĠHe ute
ĠFin ale
en i
s ort
us tin
Ġpers pectives
ĠImper ial
Ġphys i
E nter
st rom
ci nn
Ġd ub
ach ers
Ġmer ch
Ġdam ali
at ra
ay an
bild ungs
ĠSp ac
ĠLeist ungen
ĠAr zt
ĠM ob
Ġn ic
vertra g
Ġemploy er
Ġg agner
esp rit
ĠW id
Ġ !!!
U X
ĠC ours
L ib
Ġcommission ed
âĢľ )
ĠM und
ĠSquad ron
s identi
ĠTur ner
Ġstain less
ĠSch olars
Ġpor ter
Ġinvol vement
pro duct
ĠBlu etooth
ĠKri tik
Ġrare ly
isse ur
| <
ann y
Ġprom pt
ĠV iele
ĠW C
ĠInf antry
Ġens uring
Ġpri de
g ories
Ġcro issance
Ġintrodu ce
Ġverlor en
ach im
Ġadj us
Ġlic ence
ĠM AN
Ġp ussy
Ġexp ort
ru he
Ġrest oration
" ]
Ġly ce
ĠWe ight
amb ig
mer z
Ġguarante ed
bor o
ĠPark s
G od
ĠBas el
ĠIn frast
ĠH A
Ġanim ation
S chn
fer nung
K ing
Ġc igare
Ġemer ging
ĠFlu ghafen
ge legt
ĠPap ier
Ġh es
ocon ut
r iss
P ay
ĠT ap
form es
Ġpour tant
ĠE ind
Ġrough ly
Ġh uit
Ġsw it
Ġs etzte
ras bourg
Ġw isdom
Ġinstall ations
ĠHa ar
Ġg rid
ĠWohn zimmer
if s
Ġhead ing
u lier
ĠSi nne
mic als
. ).
Ġpour s
if ier
ĠSy ria
Ġedi ting
Ġp au
n ves
ĠArn old
Ġto ys
Ġdan se
Ġp el
ah me
ĠComm ons
wie gend
Ġb lin
Ġlut te
Look ing
ĠTit le
Ġpack aging
Ġen vie
Ġwa ke
ann es
ĠG E
c z
p rice
ta ille
ac co
I QUE
om ic
cal led
av ed
che ter
Ġarchite ctural
p os
Ġen orm
ĠR he
Ġemb ar
ĠDan ach
p ted
pre ad
>âĨ ĳ
Ġsupp liers
ĠA I
ĠE gyp
op es
ju ana
ĠBro ther
Ġfre und
Ġcapit ale
Ġad mit
ĠMor gen
Ġve ux
ĠCirc uit
p ire
ĠF lag
e ing
Ġstat ue
g ation
Ġback ing
In st
Ġther ap
im en
Ġdeven u
at ri
ĠJer ry
ĠF itz
ĠShan ghai
Ġobvious ly
ĠCry stal
Ġk ar
enn a
UL T
Ġdis aster
ĠRich ards
, ...<
vers ch
st age
f ile
ĠLook ing
ĠF at
Ġdis orders
Ġrecomm ande
g rand
f irst
ur ant
Ġfi red
ĠChr ome
Ġw ings
Ġn an
c onn
Ġd or
Ġp sychi
vis ible
ĠE g
ĠTra v
tudi ant
æ ľ
is piele
Ġu nge
S ti
mir al
Ġfu ck
Ver lag
- /
ĠFA Q
C ra
ou i
Ġgeb racht
ĠBraz ilian
Ġrepair s
m aker
C ategory
nd ing
fre und
ĠPol en
Ġgene tic
we ite
D ern
Ġadj acent
Ġges agt
J ourn
ac ed
Ġconsomm ation
ĠAm y
geb nisse
s ome
T est
2 40
Ġtar gets
ar us
Ġbe h
ĠRe gen
AN C
v oi
nd ischen
ou le
ĠBr istol
lect or
ĠRe fer
ho ck
Ġminim al
Ġprodu ces
i nves
), <
Ġar rest
Mess age
arm acy
ĠSub s
ph ase
ĠLas er
Ġh unting
ĠSchrifts teller
dess ous
Ġgard ens
Ġvari ations
Ġconsult ant
ĠSti ck
ĠAller dings
ph on
Ġadap ted
Ġgent le
ati le
Ġre verse
ĠMu h
Ġab ilities
ĠP ont
ap or
u ern
ĠZe iten
Ġcons isting
Ġpeint re
ĠCon st
ĠMad ison
e ck
ĠComp anies
Ġhigh lights
ri enne
jec tif
Ġtalk ed
g ia
Ġform es
Ġal arm
Ġeing eb
land ais
ĠS alt
te c
ĠRad i
M ode
ĠJ ere
Ðµ Ð½
Ġ Åĵuvres
Ġtri als
Ġperson enbe
ĠSte p
Ġfre quent
c art
ĠL yn
Ġbank ing
Ġwe apon
Off ice
Ġsc reens
t v
Ġintel ligent
Ġjew elry
ĠZ ustand
Ġwork shops
k au
ĠU E
od ed
ĠFa ith
ĠMat hema
ĠZ uf
n al
ĠS leep
Ġb illi
G T
ĠR ib
ionn ats
Ġcomp ilation
ĠAll es
Ġrub ber
Ġre vised
ĠC ards
ĠD ise
k opf
ro be
Ġaktu ell
Ġvis u
born e
b ewe
Ġexercis es
Ġspok en
Ġbes tellen
ĠB ug
ĠEconom ics
ĠW ang
E ff
s ische
Ġb ills
ĠB ord
ass y
Ġsm oke
re chts
Ġ12 8
Ġphys ician
t our
Ġste ts
w itz
T ext
Ġland sc
Ġdiagn osis
Ġregard ed
Ġling uis
Ġhabit at
ĠBundes liga
ors che
Ġbreak s
Ġper du
Ġmod es
" ;
Ġeng aging
Ġoccasion ally
Char les
ĠK ost
ĠSim p
se iten
T el
lis ation
ĠUns ere
Ġanim ated
ĠT ut
Ġcop per
fi ant
agra ph
le ger
Ġfolg te
og ene
Ġsp iele
enf ant
d ans
lin ing
J uli
Ġaff airs
ĠA x
T HE
O ber
av is
as chen
Ġmeas ured
Ġsecret ary
ĠGar age
hol t
G i
fefe fe
ĠT ests
ĠIs a
Ġloc ally
Willi am
Ġwan ting
ol er
Ġfunction ality
le tin
Ġzahl reichen
oth s
u aire
ach te
ĠU g
Ġne un
Ġb ub
Bibli ography
E ast
Ġou ter
ĠZ uge
Ġprof iter
ĠG rill
ĠFI FA
Ġdef ensive
Ġh ay
Ġre ly
ĠR ES
Ġlo gement
as ted
Ġab und
Ġbe hand
ĠW ant
m ind
Ġordin ary
ul se
Con tin
Ġsatis fied
om aten
w alk
Ġ189 3
Ġprop oser
ins ula
le ton
ĠS kin
Ġf ung
Ġargu ed
Pop ulated
st ro
ĠHand el
Ġwhere as
Ġenable d
Ġg rain
Ġinter actions
S om
19 67
ĠH az
Ġlabor atory
Ġreve als
Ġfonction nement
Ġcolle ges
Ġcry stal
Ġc einture
pe g
Ġend lich
ĠE ck
ci le
Ġrob ust
ras ka
ĠR ost
Ġlay ers
Ġj ungen
So cial
oun ced
ta usch
ĠImm obilien
Ġcar pet
ĠRet rieved
ĠMove ment
j ourn
ring e
Ġbed eut
Ġde vis
umb ing
Ġrela tives
M ulti
i alien
ars h
fol k
klus ive
m ay
aff aires
ĠHal f
Ġla p
ĠEx tre
Ġdiv isions
B al
Ġsp ann
Sta dt
ĠAndre a
ĠIn v
Ġch asse
Ġdevelop ments
ĠR och
bew ert
Tag ged
ĠMey er
G P
Res ults
Ġre jected
al led
Ġp anne
Ġiden tification
Ġp ointed
Ġline ar
Ġco operation
ĠP O
li o
Th ree
ĠMet ropolitan
ĠD up
Ġgesch lossen
Japan ese
Ġst amp
qu it
ĠArch iv
Ġvo ting
ur us
Ġwahr scheinlich
Ġc ave
Ġpers u
tin um
ĠI talie
uf s
AN G
Ġprov isions
Ġi kea
ĠK ick
ĠAb u
ĠM ason
Ġarti ficial
lect ronique
Ġdivers es
Ġre vers
Ġp c
ĠD h
Ġtri ple
ĠEm ma
Ġemo tions
Ġmatch s
ĠC F
w he
uls ion
K inder
Ġd arin
Ġmeille ures
Ġass et
Ġt rick
Ġcre ativity
ĠMass age
Ġdisp lays
ĠCru z
ta ken
Ġcritic ism
Ġbes ondere
ĠValen tine
S O
est he
as en
ĠAn wendung
Ġh oles
Ġsil ence
ĠPict ure
C es
ĠS N
Ġum fasst
ĠVers icher
Ġp ont
ĠDra ma
er c
Ġharm on
Can ada
Ge ography
y re
ĠTer ror
Ġmer ely
Ġc ant
ĠU pon
We iter
Back ground
abin e
ĠC ardi
ĠChr onic
ĠK ie
ame ister
Ġpo ems
F ahr
Ġzer sto
ĠVer fahren
ĠCar oline
Ġt ired
ĠLuxem bourg
Ġc oins
ch ern
Ġfin est
ĠA ub
10 4
ĠB orn
Ġentrepren eur
n ario
ĠCar ol
ĠV lad
Ġl oud
le ased
ĠQu and
Ġph armac
Ġkey board
Ġ10 2
og nis
ti ens
Ġsepar ated
lan e
AR E
Re al
Ġrecher ches
le ucht
ĠA ktu
ĠTe a
Ġbest and
Ġar chae
Ġsch olar
r ard
Ġw orn
S it
Ġcons olid
ĠR ules
Ġdi abetes
Ġpied s
Ġ188 9
1 16
od ore
k ok
ĠFre unde
ĠAu ff
rou vez
ĠN AT
olis hed
ric he
Ġdirect ory
D im
an moins
âĤ¬ <
ĠSc ar
ri ors
cor porated
qu a
M AN
ĠSep t
ĠYork shire
Ġver bre
or ro
Ġsing ers
Ġprin cipe
ĠFor schung
Ġbatter ies
Ġwarrant y
Ġp uts
Ġdiffic ulty
ler i
sh ot
wer ks
Sel on
b ungen
is ure
ĠAc tive
Ġgra des
ve ille
ĠP interest
ĠCH F
Ġspecta cle
> {
ĠK G
oc ent
In te
Ġcor ruption
C M
ĠS low
ĠSo le
ĠShi pping
ĠS ierra
p ng
Rel ated
rop he
ĠCan on
Ġemp loi
Ġnomin ation
Ġprop res
Ġâĸ ·
l ew
Ġam en
ĠK B
Ġto xic
sta at
ĠÐ ¿
Ġor ien
Ġneigh bour
Ġequ ally
Ġb onnes
li se
h d
F iled
ĠAP I
Ġe lsewhere
Ġgra mm
Ġtra verse
Web site
vers icherung
ĠPop ular
Ġv ocal
Ġausge zeichnet
ĠBra un
Ġclass ified
ĠThe ory
Ġc ameras
Ġemp f
Ġse min
ĠRem ember
ĠVenezu ela
i tions
ĠDep uty
Ġde eper
ĠPer ry
ĠMed ium
s peci
p ir
Ġgu ilty
z um
tab ility
Ġcal m
ĠL ES
Ġvers e
ĠGre ater
enti er
Ġpurs ue
ĠDi agn
ro let
timm t
Vers ion
ĠK ann
ĠStand ards
kir chen
Ġartist es
à ®
ath lon
an walt
w eder
Ġg ras
Ġgra y
v ac
Ġessenti ally
Ġfil ling
Ġlo ose
c end
ĠTam il
Ġm ild
form ing
Ġ10 4
Ġdiam eter
Ġpoll ution
ĠTre k
Ġvisit or
ĠPre vious
ows hip
] [
Sing le
ent a
ĠFer dinand
Ġh ub
ew atch
Fin al
Ġg lace
ĠHoch schule
Ġsod ass
Ġvergangen en
ĠV II
IN S
Offic ial
l ament
Ġsign als
ĠS ons
n osa
ro ir
Ġpour ra
Origin al
Ġshould n
ĠSa ar
ĠK op
H allo
ex ion
ta x
he alth
M el
Ġun mittel
stand en
Ġque en
di ate
ĠGard ens
T out
Ġeff ets
b alle
Ġ12 00
Ġdri ves
Ġzum indest
ĠLar ry
19 65
c ity
S ol
Ġf ei
eth yl
ĠCas inos
ĠW orth
Ġassoci ate
Ġcon dam
Ġprin cess
Ġcolon ial
ĠS ophie
Ou est
Ġob tient
ĠAr c
Ġenvoy e
Ġis lam
Ġsal arie
Rad io
Ġtour ism
ĠGe gens
Ġelect ro
ĠL odge
ĠMark en
3 60
ĠE V
Ġplace ment
Ġris ques
Ġr anging
ĠTer ry
ĠL er
Ġl our
Ne u
ĠB om
fam ily
ke ley
Ġinterpre tation
! âĢĿ
ver la
ĠSever al
G ew
ff nung
gemei nen
ĠNutz er
Ġ17 0
Ġbar re
Ġanci ens
h art
Ġautor ite
Ð ·
Ġb ess
it ant
ĠVer la
ĠR ural
n at
Ġlis tings
ĠP ages
g roup
ĠLou ise
as aki
ĠGi ov
Ġmoi tie
I talie
ĠA lain
ĠK itt
Ġbe ant
Ġru led
ĠAk tivita
ĠRol and
Ġbes itzt
Ġsurv ived
Ġb unch
> ^
com merce
Ġsouhai tez
ĠCir cle
Work s
Ġpoli tischen
ĠGu est
Ġrej oint
Ġme urt
ond es
H ouse
Ġcat alogue
ĠW ords
4 50
Ġass urance
Ġtrotz dem
ĠRec ru
ĠSchlaf zimmer
ĠEin fluss
1 17
L ondon
Ġviol ent
For mer
Ġl angen
Ġparti ciper
ĠJu lie
A p
Ġcom ics
Ġs ain
Ġrich tige
Ġcar rier
ĠD A
mp fe
ĠE ns
Ġpregn ant
ĠG M
ĠAlber ta
Ġ189 2
Ġun n
F our
Ġin tra
I de
ti ments
Ġh ref
ĠS la
Ġhistor ian
g irl
ss ystem
Ġcoast al
Ï ģ
Ġun re
ver waltung
p ired
rz t
ĠTi ere
et ti
ĠDan ish
Ġ189 4
Ġrece voir
ge m
f ying
d ates
ĠBangla desh
ĠF ocus
bs p
M edia
am on
Wind ows
us age
Ġ2 30
n itz
zep te
ĠHit ler
Ġclim at
ĠChris tine
sident en
hic ules
ĠCli ent
Ġemp ower
Ġden ied
og y
Ġcri tici
H appy
cinn ati
K W
De velop
Ġexclus ively
Ġg ue
Ġf es
D id
Ġpra y
Ġquali fy
li ft
Ġhigh ligh
Ġreg ime
Ġcomple ting
Ġv as
Ġsta ting
ĠBla u
ĠWith i
ur gie
us k
r ari
Ð ³
ĠBest and
nk en
ĠGro ve
ĠEig ent
Ġh inge
Ġdemonst rate
ĠC and
z ell
Ġemploy e
Ġes timate
ĠMont ana
origin al
Ġrecord ings
ĠUn fortunately
n ation
L aw
y age
ense ignement
g ical
1 18
P alm
Ġfron tie
Ġapp le
ĠWithi n
~ ~
19 66
Ġvale urs
ĠKe ith
m mer
ĠS CH
Ġch re
Ġ188 5
Ġdeliver ing
S U
pre cher
ĠK eller
ug g
quipe ments
Ġde bu
Sch ool
ĠT ogether
Ġpro sec
rou le
og ue
ĠO pp
ĠC ensus
rou ps
Ġhapp iness
Ġcl er
ĠMal er
essi n
Ġaff aires
ĠDel ta
Ġse venth
ĠBuff alo
ĠIn halte
w y
Ġde vez
ĠPoli tics
X L
Ġassum ed
ch y
ru e
alen ted
Ġb ibliothe
ori als
ĠForm ation
p ital
l oc
amm ed
gu ard
nig reich
Ġconse iller
Ġjud ges
Ġinv itation
enz o
ĠD ennis
im um
Ġreg ret
ill ons
Ġcon vert
oli tion
ĠEngine er
ĠL igne
D B
Ġvers ucht
Ġp ian
AB LE
Â» <
ĠH IV
ĠP enn
ĠL G
ĠWar ner
ver fahren
Ġins ights
omet ric
ĠLiber al
cel and
ar zt
Ġfol gt
Ġsculpt ure
ĠBed room
ĠR unning
Ġf ence
ĠL oss
he astern
ĠL INE
Ġcal me
Ġp ics
Ġaffili ate
Ġmanufact ured
Ġpla ge
fin e
ĠCho ice
A tt
ĠPear l
Ġm aire
Ġex hibit
Ġch rom
Ġm ouse
ĠCho ose
ĠSe an
Ġbel ge
ĠJ oint
ĠU mb
Ġw aves
d h
Ġf its
Ġkil omet
Ġst ops
Ġr us
ĠPan el
Ġtex tes
Ġprac tition
Ġan t
. '
ĠU C
Ġa ired
ĠA vis
Ġhear ts
ĠFil ter
ÌĥÂ ©
Ġri vers
leb nis
V R
um my
Ġcons cience
B ahn
ĠVal ue
re tt
Ġexperi mental
Ste p
ĠSch reib
stu hl
Ġinvest ments
ĠR aw
iv i
ff nen
ĠTod d
ĠAuf gabe
Ġe books
Ġperfe kt
Ġcontin ent
hab en
lan c
th al
19 20
ite i
ĠZ y
Ġju ice
ĠChrist oph
Ġreview ed
ĠH unt
Ġfl ows
quipe ment
ĠE du
Ġsk illed
Ġgra te
enz a
Ġrou lant
Ġt ags
dite ur
ĠCong o
occup ation
r sten
rer a
Ġp he
do ors
ĠMin ute
mar che
quis ition
ĠPort al
Ġzu erst
gemeins chaft
R ay
Ñ ĸ
ane ous
up id
ĠL ub
ĠR itter
S us
Ġlongue ur
le is
ĠPales tini
Ġobjec tives
Ġvin yl
Ġthir ty
Esp agne
â ĺ
ĠL ille
li ty
ti de
d or
Ġde fi
la c
ta gen
s w
ĠBrow ser
crit ure
ĠNik ol
ci ale
ens on
Ġch ien
Ġf estivals
ĠW ITH
b ase
Ġp aix
ĠP it
11 1
mm et
Ġn it
ĠBour g
ĠPl atform
as ures
alis ateur
ĠEn semble
ĠIns piration
ĠTest ament
ach ung
) "
Ġs hr
ĠB oots
op i
Ġflo oring
ĠB ec
Ġover view
Ġa chat
Ġmar ques
ĠZ oll
ann ers
Ġspeci alized
ĠW it
ĠI R
Ġwork er
ĠLu cas
Ġmi nes
mer zen
ĠLe itung
Ġpe pper
Ġcheck ed
ĠLog o
Ġob st
bl ast
ag ar
ĠMar x
di ent
play er
Ġimp ressed
ĠMar co
as ia
ĠEr sten
ĠN omin
Ġl ok
Ġsi nn
Ġanaly se
Ġpre is
Ġmix ing
Ġhard er
ĠJ ardin
Ġ189 1
Ġall gemein
Ġ18 88
ĠE lisabeth
ĠAf rique
ic ke
Ġg lobe
ĠArme e
ĠGed anken
alis mus
ĠLe it
Ġmon tagne
oc at
Ġac res
Ad visor
iel en
rei n
Ġo s
ĠSh ah
Ġo dd
Ġrest ored
ir th
Ġsupp ose
ĠK art
Ġdo ct
Ġconfir me
ĠF if
zer bai
Ġmis take
kle idung
Ġpour rez
at oires
any on
Ġp ension
ĠM ei
ĠN athan
anth rop
ä º
ĠB ak
ĠCO VID
ĠD ivers
Ġra tings
ĠSch luss
Ġd agegen
ag as
N otre
N ic
f ru
Ġst roke
st art
lan te
off re
10 3
Ġpar tager
ĠD arm
Ġconsider able
Ġrepla cing
ĠCamp ing
Ġper te
Ġpri est
Ġbo ats
ins el
Ġmet ab
Ġf ati
ĠRuss land
Ġsupp lied
d urch
ĠAuf ent
Ġm ount
onne ct
Ġob wohl
is tischen
ĠP ump
Res taur
bar er
Ġbrief ly
pec ting
Ġins pection
T im
Ġfit ted
get ragen
In c
Ġmunicip alite
Ġexamin e
Ġparf ait
Ġd auer
Ġco oper
Ġcons isted
Ġdes ktop
ĠEx am
ĠL ied
ro du
ĠB oli
ĠGemei ns
mittel t
K at
w ill
Ġt ric
ĠSte vens
Ġter mes
Ġapp lies
g om
igh ty
ĠHar rison
th esis
Ġbil den
ĠPub lished
ĠM umbai
ĠTh under
Ġast ronom
k it
Ġg le
Ġbi ological
19 64
ĠInt roduction
ens ing
ĠAn meldung
Ġw are
Pub lished
Ġunder ground
Ġtend ance
ĠS ara
Ġschw ier
ĠY OUR
ĠâĢ Ŀ
ĠFac ulty
ha ve
Ma jor
st ab
ĠAd idas
pub lik
Ġpn e
ou che
K O
la us
ch ard
m akers
zieh ungs
Uns ere
ĠG ali
Ġt ier
Sch w
Ġpe ur
Ġn ai
Ġdaugh ters
" >
Ġexecu ted
na ke
ĠD rei
ted t
Ġje unesse
ĠGra d
ĠCon dition
v c
Ġpres cription
19 40
ĠG ela
Ġf osse
ĠR SS
Ġsus pect
Ġdisp osi
Ġph ilos
nis ch
Ġverk auft
Ġwen igen
M obile
Ġstru ctural
ĠS op
Ġshe ets
Ġbur ning
Ġconta cter
Ge orge
ĠSa fe
ĠK amp
M M
S eine
ĠU TC
ĠC rew
Ġl oy
ĠMar oc
ak tiv
ĠCh and
Ġsenti ment
ĠE uch
Ġ ×
ĠEl li
Ġnetwork ing
O cc
ĠE lite
ĠG ol
Ġr ug
Ġn ose
Ġcra ck
inn ers
ag h
Ġinv asion
Ġb ac
L ES
Ġrun ner
ĠQ uin
Ġc ats
ot ten
Ġhil ft
! "<
bu ilding
ace ae
leb t
el ten
ĠBar n
y outube
ick t
Ġp orts
Ġw ed
T unes
ĠSpac ewatch
ID S
Ġrol ling
Ġerforder lich
Ġform ats
is ent
ĠBre tagne
Ġfa ke
ĠG at
Ġoblig ations
Ġsh aped
Ġgener ations
Ġexec ution
f our
los en
Ġdemonstra ted
Ġcross ing
Ġrais ons
ox id
Ġrank ing
Ġkn ee
ĠT ruck
Ġpla que
AT A
Ġdiagn ostic
Ġimm igration
ĠG roupe
ĠPar ts
ov ation
Aut o
Ġarch ives
Ġpack ed
ĠAthle tic
ĠAnt oine
ĠHe at
ĠAl ger
ĠA W
am pe
Ġfle urs
augh ter
== ==
ha fte
Ġunivers al
Ġbestimm ten
m ischen
mit glied
ĠAss ess
if ted
Ġcom for
ver gleich
Ġtoute fois
ĠStand ort
b org
t ung
Ġlang ues
ĠBap tist
Ġserv ers
": {"
ĠJ ub
lin i
Ġaddress ed
ĠT iger
ĠBi n
Ġar rie
ĠF ee
Ġdi agram
ĠE aster
B ank
Sh irt
Ġmag asin
Ġt an
Se lect
ĠIns ide
ali zes
Ġenhan ced
Ġentsprech end
fin al
Ġspe z
ui tion
Ġgratuite ment
ĠLiter ature
tik eln
Ġen cl
Ġmondi al
n ungen
Ġround s
ĠOrts teil
l ernen
ĠI BM
cess ite
ĠTas chen
Ġsil ent
Ġt rom
t ations
ĠF ond
ĠFunktion en
ra tet
Ġspons ored
ĠVer te
Ġ18 48
Ġdecre ase
t ur
A z
ar ctic
Ġper mitted
Ġtoile t
ĠK iel
Ġapp orte
Ġinvent ory
tern eh
Ġdeli ght
Y S
itei n
Ġsorti r
ac les
19 18
hl ten
ĠBat talion
Ġth esis
Ġacknow led
Ġdrama tic
Ġd ars
Ġ( @
Ġbedroom s
Ġaus ges
che tte
ĠAus fu
sterreich ischen
ĠWe ather
and ie
Ci n
la ch
ĠNep al
ĠMar ke
ĠR ivers
te aux
Ġlie fer
g ungs
os ystem
Ġver lassen
ĠR ide
ce let
ĠAng st
Ġh ills
Ġli ens
ĠWe chsel
m ill
ĠMus ical
Ġacc ent
L ocal
ĠS F
de v
ĠBei jing
Ġex haus
ĠWir kung
ĠJ et
ĠLem mon
D M
Ġtre m
ĠPre mie
ĠBrand enburg
Ġoccup ation
áĨ ¼
ĠThe me
Ġv essels
ĠRe li
10 8
Ġsch affen
Ġv essel
ĠK ob
ĠWell ness
d ae
Ġrest ore
ĠTransport ation
Ġsel ben
ĠSum mit
Ġcou nsel
Ġface book
Ġstamm t
Ġpublic ly
Ġpub lisher
ĠSp ark
Ġ1 19
c one
ĠConf eder
ĠSp ann
Ġus w
ĠBere its
wert ung
ĠNich olas
ĠÐ ²
ĠGil bert
ĠL ip
Ġgather ed
ĠS ous
Ġb elles
ĠRang ers
ĠProdu ctions
m ant
Ġpl antes
Ġbeau te
Ġcompetit ors
ĠDen kmal
Ġdi ver
g ary
Ġdesign ing
ĠHud son
Ġen vir
Ġan tique
Ġwild life
F ort
Ġann ually
Ġadvan tages
ĠStrate gy
ÃŁ ere
ĠPar ish
M ex
Ġchin ois
ok i
Ġflex ibility
ĠL ing
Ġent ries
ĠF actory
zogen en
ĠImp act
Ġli ebe
Ġbene ficial
Ġout let
ĠA round
tit ule
ĠAnd ers
b onne
Ġsur name
Ġreg ards
Itali an
ĠW en
ver a
ĠZeit schrift
st ern
ĠR AM
ĠZ en
Ġhigh light
P I
Ġmittler weile
Ġconf ort
n aires
ĠH yd
ĠSa che
f ood
Ġvo ters
** *
ĠTra um
ĠHung ary
Ġequ ity
ĠSch rift
c ost
ĠG aming
Ġparten aires
mi ni
ĠSpiel othek
ar an
Res earch
ĠD omini
mer ksam
ĠRon ald
Ġjeder zeit
Ġgener ic
ĠRe ce
ess ed
k oh
ĠCompe tition
ĠCla ire
Ġg all
ĠW agner
Ġto lle
ĠâĢ ļ
Le ave
ĠSain ts
wohn ung
ei ro
ĠDort mund
ĠLe h
gew icht
ĠRa chel
ĠA ux
Ġsoph istic
Ġs co
arch y
n lichen
de cine
Ġimm obili
ic on
ĠJ as
Ġattra ct
ĠRich ter
j k
ĠK anton
C hin
ĠBlo om
Ġfand en
me tic
ĠC AN
ic tions
id y
ec ts
os o
O rd
f ox
ĠQuar ter
b ors
Ġum fang
Ġa it
Ġear liest
ĠG ate
Ġs tere
Ġ10 3
I r
ambig uation
ĠLeist ungs
M il
Ġbeg un
ĠVer bre
b ien
He ad
Ìģ :
ĠDig it
Ġac teurs
ĠChel sea
Pro duction
Ġn as
? )
adi n
Ġsc ra
od s
wind igkeit
Ġgen uine
pl ore
Ġton ight
2 30
ĠAuss tellung
Ġcla ir
ĠW ohl
ĠTra ding
Ġhas n
ĠB ent
ut a
L ien
Ġpat ri
gener ation
ran o
ĠZent ral
ĠFreib urg
ĠAn a
Ġd ated
Ġtranspar ent
glich st
Ġk W
Ġcol oring
? "<
anz er
ĠStaff el
Sports people
R oyal
ĠProgra ms
ĠT ang
Ġref riger
Mus ik
wir kungen
bay e
Ġinvol ve
a illes
ud ie
ĠGou vern
Ġtour ist
ri aux
ĠW elsh
Ġd ick
Ġha ck
Ġwonder ing
iss a
Ġbl oc
Ġver pflich
Ġappar ent
Ġeing er
li b
ĠFran co
H ER
Ġdan cing
ĠPf ar
ol ph
m aterial
ĠGe heim
ĠT oute
ph ant
Ġporn o
ĠPar c
Ġmotor cycle
ĠIn halt
Ġadop tion
Ġin tend
Ġmedic ation
Ġsh apes
rie urs
ĠErin ner
Ġpre vention
ĠA aron
lis ted
Ġlab els
Ġrespond ed
Ġprovin cial
Ġres ear
Ġcomm encer
h te
ĠOption s
Ġst om
ĠKir k
Ġra ck
te lier
ĠVis ual
Ġschle cht
eur os
For um
ch air
z iale
F ab
Ġsh ore
ling t
Ġ10 6
Ġad ventures
li de
Ġn aked
Ġcli cking
Ġt alented
ĠS hip
tin y
Ġro cks
ĠPro vin
own ers
je ctions
ra ment
ĠC ov
qu ali
ĠHel en
ĠSpan ien
Ġmatch ing
à ¦
Ġl adies
M ary
ĠStock holm
Ġ å
Europe an
ĠRet urn
m ath
V ide
ĠSh akespeare
pro ble
Ġ10 8
Ġfai te
Ġsta dium
Ġok ay
rder t
D eb
ĠRoman ia
ig ungs
al am
Ġdem ocracy
ĠCre ate
ise x
ĠS G
á ĥ
Ġex it
ĠAbra ham
em on
Ġpassion ate
ry ing
app e
Ġp ushed
ĠMin or
ĠC ream
Sc ot
Ġeinz eln
sh ore
10 6
ĠSp ons
p ap
Ġfour nisse
Ġmeasure ment
ru ktur
ĠHeidel berg
Ġp leine
Ġstock s
Ġacqu ire
ĠL GBT
ĠOr lando
K A
Ġin zwischen
ĠUs ed
Ġrece ives
if ie
ĠBath room
Ġrev ue
angeb ote
oc co
Ġa rom
ĠEr de
Ġander es
ĠL ions
Ġchois i
Ġse ar
Ġs q
Ġre ign
ĠL atest
Ġman ga
mp fen
ĠPf arr
Ġchi ps
Ġhospit als
Ġgu ided
ter en
ĠAd olf
Ġla bour
Ġac tively
Ġun like
Ġp s
Ġehemali ge
Ġou til
Ġrec ognis
Ġ18 65
Ġ3 65
p id
Ġra cial
ĠDri ver
Ġtun nel
ĠI F
ĠW ick
V I
Ġmus sten
Ġdiff usion
Ġ( âĢľ
Ġover come
icy cle
ĠAn at
ĠAt m
Ġfisc al
ĠSt rasbourg
Ġreg ulatory
Ġsubs idi
Ġform ing
ĠS MS
em ail
ĠTher apy
? !
Ġtes tim
ption s
ĠGrow th
ĠOr thodox
Ġch ocol
Ġsec ured
Ġvers tehen
Ġcorrespond ing
Ġtechn ologie
L ight
Ġrad ical
D am
c ale
10 9
19 63
ign ation
Ġfund ed
19 62
Ġr ings
Ġbe ans
Ġsu pre
ĠE SP
ĠL ivre
Ġaccommod ate
ĠRail road
d b
al an
end or
A ns
Ġconf ron
ĠG ur
c lick
ĠTit an
at tra
Ġfollow ers
Ġ ^^
o ble
Ġen zy
olis m
pons es
ĠDeli very
S W
Ġannounce ment
Ġt ale
y r
ĠAl pha
zus tellen
Ġtrans it
Ġsor gen
ielle icht
Ġs ed
ĠI g
rd igkeiten
ĠEss ay
ver anst
st udi
Te levision
Ġmind s
agin e
y me
v id
k ammer
Ġg host
ab end
ĠB enz
Ġbe aux
Ġf aud
amin ation
Ġmed ieval
áħ ®
Ġzus ta
Ġthi nks
Ġfi ber
pend ance
W ood
ab ling
pra che
V ery
Ġemphas is
B esch
Ġaus fu
ĠN antes
Ġchauff age
ĠM etz
Ġparam eters
Ġobserv ations
ec onom
C ong
Ġb its
ĠZe ichen
Mili tary
ĠMur phy
u lin
Ġre mb
ĠR ie
ra z
Ġpod cast
kee per
Ġcor por
ĠSe g
Ġb ildet
Ġintern e
ĠPra desh
int es
Ġsch aff
Ġf ot
qu ot
ĠO FF
ong ue
ar ms
r ondissement
Ġeur o
Star ted
ĠBesch reibung
Ġge o
ĠVi ol
Ġproch aine
Ġcru ise
19 30
Ġk os
OC K
tier ten
ĠV il
Ġk ont
Ġgew u
ĠNet flix
Ġunter wegs
K reis
ĠF ellow
ci an
ĠSw itch
att ung
Ġer weit
Ġpla cing
ges ehen
ĠD ia
li us
ĠGew icht
ĠNied ers
ass urance
gram me
Ġdep ot
ĠT ell
ĠR ate
A bs
19 39
ĠJ uin
t le
Organ isation
w au
spe ed
Ġ5 000
Ġobjec tif
ĠY ang
Ġaccep te
lie u
ĠS tim
áħ ©
en os
ĠSti ftung
> /
ĠBewe gung
Ġconven ience
Ġbro ker
b ring
F ore
ĠFurther more
ĠCamp aign
ĠP s
ĠH ousing
ĠMaÃŁ nahmen
ĠUl timate
ĠS mo
Ġ13 5
ĠW issen
Ġpoli tische
rie ures
p ak
Ġs tell
Ġoverse as
Ġmont ant
Ġm asse
Ġautom atisch
wend ungen
Ġj ohn
gar de
ĠRe cherche
ass o
mes ter
Ġwork place
ĠD ein
ĠVer sta
n liche
V an
ĠS lot
u u
b iz
Ġor chest
ĠM are
th on
ĠS ed
ĠGu illaume
ĠMed iterranean
Ġmid field
anter ie
>âĸ ·
lie hen
Ġman chmal
ĠOber fla
Ġad minister
Ġfr ustra
Ġas h
Ġnewsp apers
ro gen
w issenschaften
ĠR ating
ĠMater ials
c ott
ĠB ier
ĠR uth
Ġcompan ion
ex tre
ĠJ ama
Ġ18 71
ĠL loyd
ho e
g os
Ġremark able
ow ed
ki na
Å Ĵ
l ug
ĠB un
ĠM ys
f inden
Ġ188 6
ĠEr na
Ġher unter
em or
Ġcompe ting
ĠRe cent
ust y
ĠA de
Ġfav our
Ġra con
b ritann
Ġex cellence
ĠE ls
oy a
Ġb aking
ik h
Ġcro is
Ġau ction
Ġmis takes
ustra lie
ĠSpie gel
Ġcomp uting
Ġdess us
ign es
ĠC ricket
Ġbesch rieben
c il
cre te
ĠStu art
D ER
ĠSt y
ci nes
ĠW iki
bro ok
M ein
Ġass ault
Emp ire
N G
Ġres id
vol ue
Ġbes uchte
we chs
liefer t
oph ys
isten z
Ġins crit
aller ies
Ġinhabit ants
F ood
ĠTi n
s im
Ġbound aries
Ġ188 7
Ġsu cre
j n
Ġinf lamm
Ġam bass
S emi
ĠVirt ual
Ġbet a
rei he
Ġproceed ings
mi ning
m ali
sen al
Ġexplan ation
T otal
Ġanth rop
Ġsleep ing
ĠV R
ress um
Ġwer en
our g
ai k
ĠBe zeichnung
ĠAccess ories
cont res
ĠH T
Ġproch ain
ĠAnaly tics
Ġgu er
Ġor ig
Ġneut ral
Ġdis ability
Ġpas st
pel lier
ĠTo o
Ġra tion
Ġbi ento
ĠBen ed
ĠP oints
ĠS onne
ĠWeek ly
ĠSchne ider
ĠSt ro
Ġcl ari
T her
t ranger
ici ens
S che
ĠD iss
ĠDies el
Ġverk aufen
d les
n ite
Ġar c
Ġargu ments
Ġang ek
Ġquali fication
( );
Ġg ern
Ġbacter ia
Ġvari ation
hal ter
ĠH un
Ġo pt
leucht ung
Ġo z
urch ase
mo ign
il o
r ath
CH E
Ġmod ifications
Ġprof its
Ġg ambling
C AR
Ġf us
ĠFa cili
ĠSmart phone
H ard
Ġimp ose
Ġblan che
Ġad vers
ĠV ict
rie ux
S ar
ĠHe aven
ĠInd ians
Sh ort
Ġconsist ently
ĠBud apest
ĠS ante
b ischof
ĠSy nd
f aut
Ġtra uma
ans ons
dis cip
Ze it
Ġexplor ation
Ġwe ird
Ġhand y
ĠB oss
ĠMarc us
ĠColon el
ili a
land es
ab we
qu ip
ĠTw i
ĠN azi
Ġ1 11
isse z
je uner
st es
ĠProf il
anci enne
ĠOr te
ĠE ST
Ġhard cover
Ġconvers ations
ĠB ist
Ġau ft
Ġutilis ateurs
3 20
ĠCin ema
F igure
fin ite
ĠVol k
Ġle bt
rd lich
Ġextraordin ary
itar ian
Ġeing esch
d ies
ĠAn alyse
Ġarbe itet
ĠHe ights
ĠK ant
n zen
A Z
ug el
Ġproduc tivity
B T
ĠEag le
ĠG ear
ĠPeters burg
ĠIss ue
er ted
ĠL akes
Jos eph
Ġse al
cer y
Ġen tity
On ly
Ġci ted
Ġgen annten
ĠMe et
Ġle ase
ĠLiber ty
ĠS ind
Ġzie mlich
Ġtable t
In f
Ġt elles
re chte
Ġfab ulous
ĠTr uth
Ġdist ra
ĠRe z
ĠEmer gency
Ġou verte
Ġ12 3
Ġsigni fie
p endant
Ġrepe at
ari os
ĠR ice
ock en
ĠGew a
Ġen gli
ĠDen is
ĠSch ra
IM E
ĠC amera
sch ool
Ġb und
Ġf aute
Ġjourn alists
Ġto tale
ĠTh an
ĠLe ft
Ġrem oving
s isch
ti ner
ange bot
ĠM ovies
Ġstrugg ling
Ġj o
Ġs ab
Ġan at
Ġents cheid
O H
h end
ĠApp lications
cou te
ĠSp re
ho le
ĠK ino
Ġge kommen
ti um
reg ierung
x it
Ġrep as
ĠCom par
ater al
ĠCare er
ĠD rug
v ale
ĠI A
Russ ian
Ġshe d
ĠElekt ro
ver ts
ru gu
Ġdi z
Ġra us
ĠRe ed
ĠAuf bau
ON S
is co
Ġsuiv antes
ari ous
Ġsignific ance
Ġwish es
Ġartis tique
D igital
Ġang er
Ġcul tiv
ĠTib et
ma ke
ci aliste
ĠF E
H il
Ġve ctor
ĠKommun ikation
it as
Ġquanti te
ab lo
Ġch amber
laut omaten
Ġback up
ator en
Ġh iring
che f
Ġdu c
ĠLegis lative
ĠEvery one
ĠOli vier
Ġjapon ais
ĠT ube
m ode
Ġhab its
hei ratet
Ġcon tient
Ġvol onte
Teil nehmer
Ġgather ing
Ġspect rum
Ġm igration
ĠCat hedral
ĠShe l
ĠLind a
ĠW restling
Ġcan ada
ĠA CC
Ġpersonn alite
ha use
E dit
? âĢĿ<
Ġdiffic ulties
re view
ĠEm ily
ac comp
Ġro bot
cess aires
Ġdessin e
ĠA e
Ġhol der
ĠKar en
g elt
Ġdur ation
W H
Ġin k
Ġconfirm ation
ĠBe yond
Ġevery body
lap se
Dies er
Ġact uelle
ĠNAS A
em ade
Ġas ia
ĠSta b
D D
em en
ĠJos h
osph a
Ġbal con
ai tement
Ġfore x
pt on
Ġgra phi
ĠB S
Ġad mission
ĠPa ar
are il
t oile
Ġsol chen
W C
ĠK ru
sc ale
ed ar
app ar
pro b
Ġsaf ely
Ìģ )
ĠAns pruch
ĠL isten
Ġvis age
Ġr entre
Ġscholars hip
Ġt ief
lan ts
ass is
Ġsubs cription
Stand ard
ĠApp ly
Ġbou che
Ġm old
ĠZe ich
ĠV ort
Ġqu it
ĠNeb raska
ĠNe il
Ġtota lement
ĠGuine a
Ġausgew a
tin ct
Ġ18 61
ĠRog ers
Ġa merica
ĠGrund lage
ĠD od
ĠSl ots
13 5
ĠOp tim
Ð ¿
ac ting
Ġtr usted
Ġ18 64
ĠWe hr
Ġincor por
ĠUnter kunft
Ġver treten
Ġshel f
Ġworld s
dis ambiguation
Ġcar b
vo que
Ge ographie
Ġtr ash
ĠRep orts
atel li
Ġvers uchen
Ġcry pt
Ġfast est
ograph ics
ĠW atson
ĠGer ichts
Ġinflu ences
ĠC BS
ci nating
Ġser ial
Ġfla v
ffentlich te
ĠH ass
ĠD ental
c ool
ĠWe ge
Ġdecor ation
Ġla und
Ñģ Ðº
Ġlie utenant
orne ys
Ġacc idents
k w
ĠC au
p to
k ord
Ġru ling
wachs ene
quili bre
Ġb ib
Ġimm un
ĠOt tawa
Ġdepart ure
Ġbelie fs
ĠC anyon
l li
Ġdomin ant
Ġf aux
Ġout fit
ĠMed izin
Ġi i
Ġti ers
Ġl ol
Ġti ent
amb a
op oli
Ġr yth
Ġconf lic
ĠS per
ber atung
Ġor g
ĠO z
Ġd au
ĠPed ro
Sta tis
Ġindivid uelle
ĠF irm
iv il
Ġv ole
Ġzie hen
la ps
las tic
ĠP ure
ĠAl ong
emp loy
ĠPer haps
rif ice
ĠTe e
Ġ188 1
al ous
icher heit
est yle
f rieden
Ġmagni fique
ug u
C ome
E ins
Ġbatter ie
Ġ% ),
sterreich ischer
Ġs isters
ĠC ord
Ġelimin ate
ĠP endant
ren e
count ry
ĠPers o
ave z
ĠVictor ian
ĠPla za
ĠEng el
lan k
con f
Ġdestin ations
A cade
ĠR app
19 61
ĠS oll
Sm all
oure ux
Ġsh adow
ĠJ ed
Ġwal ks
hand lungen
Ġh orn
Ġve gan
ens er
Ġgrate ful
ĠI stanbul
st own
ring ton
ali ers
ĠGro ÃŁe
Ġ188 4
ienn ent
Q uel
ĠJeff erson
ronom ie
Ġents tehen
Ġch ip
Ġc ush
ĠArab ia
wau kee
ĠAust rian
L INE
ĠRe cip
ĠZ ahn
ĠSupp ly
Ġdenn och
ck len
lip se
ĠEn f
Ġconserv ative
Ġsu isse
ĠDi ning
Ġb alls
Ġj ail
ĠOp fer
Ġpe er
f ice
b ott
Ġb ikes
explo itation
ĠGren ze
Aut res
ĠHer o
unic ations
Ġre tain
ĠDat abase
ĠV otre
Ġers cheint
ĠElect ronic
ĠV om
ad ier
ĠB ie
Ġoblig ation
Ġausgest attet
ĠL ights
19 58
ĠVis ta
Ġsupp lier
Ġal ph
n formations
M otor
ĠC OL
ĠAs k
ĠW ells
Ġvo ices
Ġquanti ty
ari us
ĠC ond
ĠTex te
Ġgre c
ĠAnn ivers
Ġsp rechen
ew o
or p
Ġprincip ales
J ud
Ġdef ence
nis cher
ĠCh ester
Ġr he
ĠD auer
Ġinves ting
Ġfra mes
t ube
n ist
amp ire
Ġpart out
ĠE pis
Ġesc ort
m other
ok ia
ĠDem on
Ġr iche
ber blick
form en
ĠV alle
ĠPan ama
ari ans
ass es
T a
be zirk
Ġconstru ire
ĠLiefer ung
ĠJe ans
Ġresol ve
ĠEt ats
pi ra
ĠEr nest
ĠU P
Ġpsych ological
om ie
Ġag enda
ĠH aup
Ġge a
Ġr ally
zei ge
ĠGu itar
z we
sch rank
aut o
ĠV W
Ġprob ablement
ĠDar u
ro le
sp ru
li van
Ġfla gs
Ġm agnetic
Ġno ble
ĠP ir
Ġw ides
Ġsuff it
D om
Ġpre c
Ġpar tis
ĠNash ville
O li
áħ ³
Ġworks he
ĠO hne
Ġoption al
ĠPro jects
ĠPrag ue
Ġle ctures
Ġs ert
Ġgar c
Ġd ot
Prof essional
Ġcon vey
ep lay
ĠComment aires
Ġbi ens
Ġsa x
Q uelle
ĠSalz burg
ho tel
ĠInte gration
ĠHar bor
w iki
Ġinc idents
ul k
ge ma
etz ten
und ai
illi r
ĠK amera
T ous
Ġchale ur
ĠS ammlung
Ġp izza
Ġtru cks
ĠN othing
Ġaccomp any
ish ops
10 7
ĠM ills
Ġh p
Ġdistin ction
Ġexperi ments
Ġmod ules
ilis ation
ill ard
fic i
Ġdon ation
Ġtra duction
Ġfich ier
ĠØ§ ÙĦ
Ġbet roffen
Ġvie ux
pp ich
Ġun bedingt
Ġ10 7
ĠGh ana
Ġla v
ĠR ess
Ġsty lish
ĠSan ti
tim edia
Ġsor gt
ĠNach folger
G ame
K ultur
aut en
W ohn
imp ression
W il
ns chen
ĠFab ric
Ġcar go
ĠPot ter
ĠPhilipp i
ĠB rain
Ġc iel
Ġge halten
Ġbe quem
Ġal uminum
Ġre vient
ĠTro phy
ĠBe zirks
lt lich
ĠRis k
Ġg ains
Ġcit oy
Ġsocial es
Ġgradu ally
om ens
h im
reg ist
Ġor th
ĠRet ail
tablis sements
din e
r se
ia o
Ġappear ing
conom iques
Ġpri nter
Ġradi ation
ĠEng lisch
D U
Ġde aler
ĠBi ke
ï ¸
AS H
Ġde ar
ĠAssoci ate
bo ys
ĠVeranst altung
qu ettes
ĠTig ers
Ġp airs
Ġfa ult
li en
ĠN ah
Ġm p
Ġinvestig ate
AM P
ĠA j
ĠS hin
Ð ±
an er
it he
G lobal
s ong
Ġsole ly
lectionn e
ĠColumb us
W ed
ĠF ou
C ook
ĠN HL
Ġachie vement
ĠDeutsch lands
senti ert
Ġfor ests
ĠJess ica
B ou
Ġy a
Ġcook ie
ten ed
ĠA CT
S ongs
ĠFle et
A mb
ĠL T
Ġfol gen
g ab
b oden
ĠTrin ity
Ġprocess ed
ĠR ental
an cing
Î ·
Ġuni n
Ġbestimm te
h is
Ġfem i
ĠStar tseite
i nformations
AM E
ĠRe b
12 8
work s
ĠCar bon
Ġbe ob
Ġpermet tra
LE CT
ĠSoc orro
Ġann onces
Ġblu es
ĠVertra gs
Ġvent es
Ġapart ments
Ġchrist mas
ĠMod er
Ġoxy gen
am az
Ġauthor ized
ĠWe ber
ik en
Ġdepend ent
Ġsp richt
Ġvirt ually
Ġimp acts
ĠE mm
Ġso ap
Ġv enti
Ġvi olin
ĠCons ider
Ï ħ
Ġbeach ten
meister schaften
Ġscreen ing
19 59
nd ers
ath a
AN K
Ġgro sse
Ġfulf ill
fe ction
Ġdepart ments
lectric ite
ad ap
enn ame
ĠBe er
Ġin vention
Face book
Ġla tin
ĠBer keley
ĠCer tified
ĠJ ou
Ġcost ume
Ġb oots
ĠTro tz
ĠEx cel
rupt cy
z ier
ĠA mer
uli ers
F ru
ĠM eine
Ġconf used
Ġadvan ces
Ġ10 9
l ength
ĠNetz werk
Ġprin ts
ter a
ĠInte gra
Ġde tection
ĠExplor er
P lot
tac tez
Ġchris tian
ĠAr tists
Ġj aw
hem ati
ut zen
ĠMuh ammad
Ġreg roupe
Ġamp li
unders cho
Ġsynt he
pl atten
min ster
ĠCot ton
me ga
ĠAh med
ĠB av
tic ing
Ġdam ages
ĠWood s
ul ta
Ġpat ent
Ġn ude
Ġvers te
Ġparf aitement
Ġt ies
m w
ĠCamer on
Ġbul k
im porte
d r
ound ing
ĠL amb
ĠG an
g am
Ġal gebra
ai ro
u ish
ĠEd wards
un fts
Ġen que
ĠO blast
at tend
ĠM iles
Ġcon texte
ĠF O
E lect
Ġrem ise
Ġges pielt
g ale
ed ded
Des pite
ĠSh adow
m ons
Ġco ope
ĠTe acher
d ist
Vis it
Ġma j
f ug
Beit rag
Thr ough
ĠAg riculture
Ġanswer ed
ĠSp ider
ĠS timmen
P RO
k unst
L ittle
W inter
Ï ĥ
Ġmer ged
itein ander
Ġs am
; "|
D ame
ĠLINE AR
B aby
um ente
ĠBau ern
ĠVer mont
ĠConc ert
op ing
ĠM end
Ġvo ila
um per
ffe kt
st ung
ĠR ac
Ġv olet
lik ely
Ġer ga
S L
ĠVertre ter
Ġdis k
ĠGra fik
ĠCommission er
utt le
tik en
Ġex ami
uri n
App le
Ġ188 2
Rich ard
ĠK ult
ĠMar ina
Ġfinan cing
Ġse am
zeich nis
ĠBreak fast
ĠCal endar
Ġcons ulting
ĠD oll
ĠH ed
Ġac teur
' :
l r
Ġres erves
Ġport ug
ĠG all
ĠCertific ate
is i
I nn
ĠO pport
c reen
and ro
val u
le cht
Ġp ear
pert oire
ĠMiche lle
c opy
Ġp ets
ĠT ommy
Ġab sch
Ġle ver
Ġpro fi
ĠPla te
ich ern
ĠMe illeur
Ġdimi n
ric al
Ġch ant
ĠNic ole
ĠW oh
lin ess
ĠGiov anni
Ġimm une
W ash
Ġvis a
Ġsta at
ĠP T
m art
B ed
P rop
ĠArchite ktur
Ġprote ins
M ichel
Ġexpand ing
te or
ĠSt ress
Ġsuiv ants
Ġco alition
Ġ18 62
Ġlet ting
ĠGegens atz
ĠFil me
ĠIndust ries
P ol
Ġalle mande
Ġb auen
Ġinteg rity
Ġemploy ers
ĠSt rong
ĠK und
ĠCom plex
ff entliche
al te
ec ess
ĠS ah
Tra vel
Ġmechan ics
Ġsuspend ed
ĠSt unde
Do es
Ġtax i
Ġthreat s
Ġb iss
Ġv oire
ty p
tier ung
chnis che
me i
Ġexp ense
Ġmole cular
ĠH ydro
Ġaltern atives
gh ted
Ġal liance
Ġprote cting
ç ļ
Ġpay er
b lich
j ab
ĠRab att
Ġg ig
Ġfor g
Ġocc ident
ns tige
ĠHar vey
Con f
Ġlas ting
b ling
Ġc oi
Ġnotwend ig
Ġg our
ĠNS W
ĠBe am
Ġm ud
Ġ18 63
Ġver n
Ġv ise
ĠDann y
par ent
Ġsp ell
aus o
Not able
Ġconf usion
Ġed ges
ĠCl ose
Ġpossib ilities
IC S
Ġillustra tions
ĠZahl ungs
ĠSta y
Ġtrans mit
Ġar tic
6 50
balle ur
Ġvou lez
Ġvoyage urs
Ï Ĥ
Ġher z
ep s
vra ges
as st
Ĺ ı
re publik
ĠT N
ĠProv ence
ĠBut ler
Ġun ited
Ġpur ple
ĠBris bane
o ge
ĠGuard ian
ul ates
er be
ra ison
ra ising
ĠHam mer
ĠPl ug
ĠR enn
Ġper dre
s ischer
hu ile
ĠS cript
Ġde emed
u pp
ĠX P
Ġhom osex
Ġspe aks
Ġsus cep
Ġau teur
C ross
anz a
Ġh ence
Ġelement ary
ĠPlay ers
Ġdiam ond
kt uren
Ġgot ten
20 1
j er
ĠSol o
Ġrenov ation
tain able
Ġl ad
Ġb ild
19 56
ĠB am
+ []
ck land
Ġsp ont
Ġmus ik
ĠN BC
ĠChe ap
Ġcon temp
ĠC ategories
ĠC ould
B us
kal ender
Ġs tit
ĠBob by
es us
Ġâ ĪĴ
ĠP RE
ĠP ok
Ġla it
f und
ful ness
ĠCom edy
ĠDire ction
tai nty
Ġdi ent
ĠK iss
Ġfa its
E vent
ma jor
Ġprom ised
Je u
Ġthreat ened
alis tic
d ure
Ġdiffer enti
Ġen tier
ĠMin e
ĠZug ang
iel s
ĠMus ter
ĠEsc ort
Ġsome how
l ou
Ġan ten
ĠM ent
Ġweiter er
Ġn oire
fer red
Ġgrow s
Ġdes per
ĠMem ory
an zeigen
lies en
ĠH ommes
re ur
ĠVol unte
Ġsal ary
% .<
ĠHei z
Ġrich tigen
N eben
Ġindis pens
igne ments
pe ctor
Ġciv ile
M D
ĠV O
ĠH ours
ĠCh au
ĠWar en
u ves
ĠHe y
par tition
Ġcha ussures
ĠPaul o
Ġrecip ient
Ġdon ated
ĠA ben
Ġcy ber
Ġbuy er
Ġimagin ation
Ġent lang
ĠMain z
ĠMed ic
Ġexperien cing
ver tre
ĠLe icht
B uch
ck te
sent ent
Ġd rew
Ġsc ratch
Ġsli de
ÌĪ Â¿
uns wick
ĠSchul en
Ġmor ce
ĠTrend s
Gru nd
pre uve
ĠCons ervation
Ġrend u
Us ing
ĠDef ence
ern et
uss ure
ĠBild ungs
kle id
Ġprof il
OS S
ĠCu ir
Ġent gegen
l arge
M ur
Ġsn ap
end rier
an ischen
Ġcom ite
se ling
Ġsn e
Le ague
Ġentwick elte
ni fic
Ġnom s
the y
Ġspecta cular
ĠBe zirk
xt ures
Ġi Tunes
19 57
ĠHein z
ĠCin cinnati
ĠS aw
Ġvoit ures
Ġess ence
Ġv es
Ġpa iement
ĠQues tion
ĠCy ber
Ġv erein
ie ÃŁ
B is
Ġbut s
Ġcoun ties
Or der
Ġf ingers
Ph ot
Sh are
Ġsm oking
Ġ6 50
Ġnav al
19 55
Ġ18 67
Ġm orts
atis chen
Ġf rench
jou x
chn en
Ġenem ies
asse ment
ĠCh icken
un ate
Ġlong est
19 44
Ġ18 76
Ġsogen annten
ĠQu ellen
Ġp oser
te le
ĠAl ters
ĠM oyen
ĠVog el
P s
S und
Ġem ig
Ġcar ries
ĠMus lims
he iz
Ġestim ates
ĠBal ance
Ġbra chte
reu ung
Ġin h
ĠD ual
Sm art
ĠCla udi
nd eten
K an
Ġp os
p rom
Ġamaz on
Ġfer a
Ġ18 75
ĠPro phe
um ns
be ho
cks ichtig
19 19
la de
ns tein
Ġdis estab
ĠD raft
Ġdeli vers
sch iff
Lin e
ĠR D
Ġs auf
bere itung
ĠHard ware
h ir
atter ed
ĠChar akter
ote chn
um bers
face book
Ġverm utlich
ĠCont est
Ġbord ers
ĠTro is
ĠMon ster
ĠHigh er
Ġri b
ra di
aupts a
Ġm ensch
ĠGesch ichten
ĠDer by
Ġind ia
ex tra
Ġsp are
Ġtem plates
Ġqualif ying
Ġt iles
1 19
ĠH os
fl ower
t um
Ġbatt les
che ts
ĠS ession
er er
is tische
ĠMain tenance
ĠRes erv
ĠE va
Ġbind ing
and re
ib ly
ĠTwi n
Ġnerv ous
Ġabsol vier
2 12
zieh ungen
Ġcur ious
Ġterrit oires
ĠS ang
lain e
Ġf als
Ġign ore
Ġja une
Ġprodu ctions
ĠBas kets
ĠH ost
ĠRu he
ĠReg ard
ear ing
In fo
Ġra mp
od ia
Ġquel qu
Ġfais ait
Ġo ak
Ġover night
Ġgel esen
Ġmit tels
ĠR ho
Ġret ro
Ġ19 0
Ġ18 40
ĠRepublic ans
ĠSt amm
ĠDa her
Ġk ra
Ġins cription
r ous
Ġpla teau
ĠVor auss
et ary
u y
Ġgirl friend
Ġche fs
par ts
Ġc rus
Ġpouv ait
Ġw ise
Ġpar agraph
jec tive
ĠFe lix
Ġwall paper
ren nt
utilis er
ĠA id
Ġcatholi que
uss ions
ĠG anz
ĠFeuer wehr
cklen burg
elling ton
ĠAgain st
ye z
+ <
Ġload ed
Ġ188 3
V ille
ĠBe ge
t tingen
Ġcontra ire
r ken
U G
Ġview ers
legen heit
âĢ º
k ette
ĠW ide
ĠSymph ony
ĠH our
nf te
Ġdurch aus
Ġco ff
ĠPod cast
Ġexp licit
ĠFl ower
Ġdis que
gest altung
ĠNew ton
ĠSemi nar
Ġmen ace
N ov
Ġpro hibi
Sto ck
Ġtrou pes
ap a
ĠE volution
Ph ys
ĠS EC
ĠM N
ph is
dim ension
D VD
Ġse ctors
Ġco oling
fass ungs
ĠStatis tics
ĠSomm ers
Ġan al
Ġacade m
ĠG L
ĠCh ocolate
Ġdec lined
Ġrep orter
Ġs lip
ĠB anks
Ġprop osition
Ġdis abled
Ġ18 78
Ġal uminium
ĠR it
Ġdynam ics
Ġquoti di
V ereinig
Ġfort une
ens en
Ġgest alten
alis iert
u ce
Ġgu ter
Ġattemp ting
Ġerwar tet
Ġappreci ated
oth ic
Ġassign ment
iff er
ik ations
Ġ18 79
FOR M
m ac
Ġzu frieden
rab les
ht m
ĠExper t
li gne
um ented
rup ted
Ġb rid
ĠR uf
Ġange geben
ĠE ston
K a
mod ern
Ġo ils
ĠUk rainian
> --
Q ues
As semble
ĠSh ar
Ġbe aring
Ġcomp ter
Palm are
Ġer w
aw i
Ġk iss
t to
Ġjud gment
Ġm amm
Ġinst ances
ent ry
Ġaus reich
I tem
Ġm aker
Ġscol aire
Ġaccess oires
ĠSo on
Ġe b
Ġciti zen
ĠAlexand re
Ġclaim ing
ĠH ang
ĠIhr es
qu alita
ani n
ĠPromo tion
Ġple asant
Ġlog i
Ġlie ber
Ġr anks
Ġl obby
A thle
i nary
id d
ol ation
ec ted
ad van
ĠKunst stoff
Ġbab ies
ĠGusta v
Ġdiscri mination
ĠS AP
Ġsh orter
undi n
Ġpass ant
ĠDe k
B ud
ĠM ie
th ere
est ation
ĠAng riff
ĠSha w
M ix
Ġmilli ards
ĠW agen
Ġnur se
ĠDars tellung
Ġwir ing
ĠChristian ity
amm ens
Ġear ning
Ġphys ically
Ġsens ible
Ġprison ers
Ġrec ense
ĠCD U
Ġfacili tate
Ġb ibli
Ġass urer
P et
ĠScienti fic
ĠLux ury
Ġin titule
sh aped
os ch
Ġges pe
ĠWochen ende
Ġent weder
t lich
Ġro be
ĠZahl en
Ġact resses
Ġ Ñģ
Ġre icht
Ġen v
ĠM old
Ġtut orial
Ġgep ra
ĠW ays
um ann
ĠC able
berras ch
import ance
ĠÎ ¼
gi na
ĠW an
ĠAl uminium
pp t
pe kt
X T
Ġer heb
ĠDisk ussion
Ġevalu ate
el en
ĠP iano
ĠJ ules
G allery
ĠEgyp tian
os ion
Ġr ush
Ann exes
Ġbra uchen
ĠAir es
ĠA Z
pro zess
Ġauf s
F ire
ĠAd obe
Ġtal ents
ĠK abel
Ġkur ze
Ġsubs titute
hren de
ĠDel aware
Ġv ingt
US E
Ġ18 30
Ġtran qu
t udie
Ġc out
Ġadvis ed
tra ge
ĠK aufen
Ġtravel ling
So ftware
est hetic
ĠRena ult
Ġprovin ces
ids on
ed it
Ġlarge ment
ĠD rop
**** ****
ock s
OL D
ĠBou levard
enden cy
ĠLeon ard
row ave
Ġe lite
Ġden tist
Ġep ic
Ġend roit
ffentlich ung
bers etzung
ĠOver all
limin ary
Ġrestric ted
r ker
ou f
ick ing
Ġlo ge
ĠS Y
F oot
Ar gen
ĠCor ner
ĠP rest
d ela
ĠS oli
Ġpre cious
ĠForm ula
ĠK ron
ĠSh irt
ĠSch wa
Ġl ancer
Ġinter act
d action
Ġconse ille
Ġhe t
ĠD B
ĠMi o
Al ors
ĠD eine
ĠStud enten
Ġactiv ist
ĠDonner stag
Ġch ic
ĠAthle tics
Car rie
Ġli ps
Ġfor ums
S erie
Ġdec lar
Ġlibr aries
T em
g ly
Ġche cks
.... ..
Ġvulner able
Ġcan vas
Ġoverw helm
ĠSch on
ĠM am
Ġwieder um
ĠS QL
Ġunder lying
Ġph osph
Ġli ver
ĠCom ic
ĠSug ar
Ġrep lied
ĠMit two
Ġnew est
Ġeinz igar
ĠMod erne
Ġob jet
ĠUl rich
ĠPar am
Ġres igned
Ġlogi n
Ġcontrovers ial
... ]
ĠExper i
we iler
ast es
Ġp alm
ĠZwe ck
Ġche micals
Ġpra ised
ĠTh read
ĠCo lin
Ġinflu ential
r ust
ĠT oi
ĠSn ap
ĠDel uxe
Ġdev oted
Ġfati gue
K i
open hagen
ĠS r
ji n
ĠSim ilar
ĠD ump
Ġpens er
ï¸ ı
Ġaus dru
Ġimmig rants
ĠStre it
ĠAl ph
Ġconf ig
Ġang ene
p us
Ġex isted
ĠFahr rad
Ġparti al
ĠRo che
Ġaudi ences
ĠCons ulting
P ak
Ġw under
ĠMi ning
Ġdest ro
bertra gen
Ġ ÌĦ
ĠL ak
ĠAbd ul
Ġinst antly
ĠMar ion
ĠAn forderungen
ch ent
Ġo h
Ġre ich
ĠPhilli ps
ro ge
ign et
ir its
Ġsim ulation
ĠH ook
Ġf leur
Ġmodif ier
Ġiden tical
Ġsh ield
Ġemer ged
ta pes
Ġdro ps
sp ace
Ġwh is
Ġze ich
ĠT ip
ĠPhilosoph ie
Ġnear est
ĠDeutsch er
av ance
Ġfriends hip
for ced
ĠAn k
Ġt orn
ĠAus land
g ungen
Ø ª
Ġpromo tions
Ġsh ade
ĠS ag
ĠY am
y our
Ġwides pread
B ased
ĠV ER
en tin
ro b
Ġun er
E is
ces ter
Ġdei nen
Ġst ones
Ġopp ose
Ġw ounded
Ġgar antie
Ġre tained
ini n
ĠColomb ia
ĠKateg orien
ĠAd resse
uc ci
mus ic
bere it
Ġestablish ing
Ġapp lique
Ġ18 66
Ġpres erve
ĠE ben
ĠF BI
Ġs le
gri ffen
ĠRes ource
Ġorient ation
ĠAuf nahme
Ġrec ette
L R
ite z
Ġcont roller
cis ions
ĠBer icht
mel den
Ġrec onnaissance
ol ute
M ade
ĠD um
ĠauÃŁer halb
Ġfor der
ĠCon ver
uss els
ill ot
ca ke
Ġobjec tifs
A I
Ġdro ve
ĠLab el
b aden
ĠDem okra
Ġcap ability
ĠSec onde
ĠCas ual
G re
Ġdev ait
Ġutilis ant
ĠHealth care
Ġers etzt
Ġisol ated
ĠA F
ĠPhys ical
Ġadop te
tig te
b und
ent hal
Ġb ite
ĠR us
ho ff
Ġimp rison
Ġe y
Ġcl uster
Ġa xe
Ġs que
ph an
ĠA viation
Ġc ust
Ġign or
Ġsu jets
Ġcontin uer
Ġman che
19 38
Ġla wn
Ġpro cure
Ġun bek
ĠR V
l z
n atural
Ġch ines
ĠGu ild
v iv
Ġau teurs
ĠTre ffen
ĠG iants
Ġsimultane ously
ĠHung arian
gom ery
imm ers
C li
h p
Ġmis es
ent rai
Ġsch loss
ur ious
ĠC B
ĠSu ff
Ġgef allen
ĠðŁĺ ī
Ġhe im
Ġb ible
C her
ew ise
Ġs amm
Ġelect ronics
Ġ2 10
p ace
ĠEin z
Ġexc av
g old
çļ Ħ
Ġref us
hib its
ES CO
Re ception
Ġsc an
Ġdisc ours
Ġbot an
ĠJourn ey
Ġt ricks
ĠJava Script
Ġt anks
Ġmag ical
Ġattra cted
Ġpurch ases
Cl oud
ĠPro jekte
ĠOtt oman
d ied
Ġaccep table
Ġro ya
Ġs eller
ĠTer rasse
Ġautor ise
Ġents pricht
Ama zon
Se ason
Ġin tim
ĠAnt rag
Ġass isted
ĠJuli us
U k
bern ommen
Ġpe oples
labor ation
it ent
Ġinform atique
G al
ĠL ob
ĠFre ude
Ġfun eral
Ġentwick eln
ois se
Ġfin ances
b f
Ġfol der
pann age
Ġearth qu
ĠG and
K omm
Ġreach es
lit ter
Histor ique
Ġdes ert
ĠZ ucker
ti bles
ĠBar b
Ġang em
ĠF ass
ĠEre ign
Ġ3 20
ĠPe te
oli th
M useum
cu ador
Con c
Ġutilis ation
Ġcompris es
ĠAmb ass
ĠI celand
, .
Ġprot oc
ress er
ĠMore over
Ġdou bles
ach tet
ĠAdd ress
ĠUnivers e
Ġch ir
Ġrein e
Ġmodern en
ĠWe il
ĠC rusher
19 46
Ġjuris diction
end i
Ġn erve
s el
ĠPlay Station
is ations
Ġz entral
Ġ18 74
Ġemp ire
ĠC limate
Ġthe ories
Ġcollec ting
Ke ep
G ER
o tion
ĠClin ical
ĠL ust
Ġges und
M ond
ĠMar athon
ĠF alk
ĠP eng
Ġag gressive
ĠGer hard
Ġem issions
tw itter
Ġav an
Ġveter an
L im
ibliothe k
Ġscen ario
g eln
ĠMon aco
ĠMon tage
Ġse igneur
Ġsm ell
ĠPra k
ĠH oney
ĠBe ho
merikan er
Ġpremi ere
ĠM ON
ĠR ah
ĠCommun ist
ten ing
b ruck
Ġind igenous
or um
ĠH ERE
Ġaffili ated
Ġstudi os
Ġqu atrie
Ġro tation
Ġperfe ction
Ġter ra
Ġinstru ctor
ver e
ĠBat man
cover ed
11 3
tz er
ĠR ig
Ġjack et
Ġh ood
ĠSchauspiel erin
ĠR ams
oph y
tiss age
Ġaug mente
Ġviol ation
Ġsens ation
ĠAu ckland
S hi
k ow
Ġmodif ie
Ġmain stream
ĠDe te
Ġarch ive
ĠAk tien
Serv ices
ĠSchles wig
S ave
19 53
Ġb ell
> :
G N
Ġw rest
ĠNe ues
Ġv ali
ĠH ip
Ġar gue
ĠBe teili
ĠTun is
Ġc ognitive
ĠW ish
ĠZ oo
ĠP ER
edi atric
H ab
F lu
as m
ĠB ain
Ġrec all
Ġaccept ance
ĠGem u
Ġz wo
ĠC orne
n tend
e lection
amerikan ische
ĠUni que
22 5
Ġl ob
Ġten u
n ational
ĠP ig
ĠH C
Ġspeci alists
Ġu ph
Ġsur rend
ĠB aus
ĠBene fits
Ġpol ar
ĠSpe ct
haus es
ĠNY C
Ġ18 68
ge ois
j ah
Ġwas hing
Ġ18 77
Ġnot ably
Ġintens ive
Ġbal anced
C ulture
d auer
g alite
Ġcomplai nt
ĠCer tain
Ġgran ts
as ters
ĠBed ingungen
Ġsla ve
ĠV III
Ġeng ag
ĠPhilosoph y
Ġpe tition
ĠFahr zeuge
ĠGu er
Ġcou verture
Ġport ant
ut ton
Ġtra ils
ex te
ak ia
end ung
J im
ad ers
Ġparticip ant
23 3
Ġmuseum s
f tigt
ĠG um
Ġche aper
Ġr ang
ag ree
ad os
Ġm eter
ĠM isch
ĠMus ique
zep tion
Ġfo am
19 36
ene z
ive au
britann ien
ĠD IN
ĠD ass
and es
ew an
Ġt ender
> âĤ¬
Ġbon heur
Ġimportant ly
Sp anish
Ġentde ckt
oud re
19 54
pe au
Dan iel
Ġagree ments
Ġv orn
zeichn ete
and ise
ĠBro s
Ġpre cise
ash es
ĠGro ÃŁen
Ġattend ance
Is ra
ĠRegist ration
bau er
ast urb
B itte
i ntend
Ġs its
Ġdivin e
Ġrej oindre
Ġchap ters
ĠVor der
Ġnorth west
P ER
Ġn ortheast
oc ate
C ON
g ain
Fri day
form ed
off ice
ĠH ale
19 33
ĠGe fahr
cl am
ĠDirect ory
Ġdecor ating
ĠR ennen
ĠO uts
Ġtrave led
aly mp
av as
scha fter
Ġbase ment
ab ul
oin te
tab lir
ĠC AP
19 49
19 14
C entral
ĠHa fen
ĠCom ple
ĠF inger
iz ard
Ġd ying
r liche
ĠStadt teil
19 52
ĠWild life
Ġafter wards
ĠIsa ac
Ġlimit ations
ĠAd ventures
ĠD aw
mp f
Ġunser es
Ġph armaceu
cons cious
Ġrece pt
ĠSch ro
ĠRepresent ative
ĠAut ob
Ġal ert
ĠKon zept
G a
c ler
Ñ ħ
Ġserv ir
Ġcondu it
li ts
Ġ18 72
Ġgrie ch
ĠTru ppen
ĠS UR
Ġpick ing
ĠMod elle
unk er
Ġfeed ing
ap ur
Ġrequ iring
Ġwor ried
Ġwind s
Ġle mon
Ġrece ip
ĠAn teil
men se
ĠLabor atory
Fernseh serie
S n
Ġattra ction
ici ous
ĠUm gang
Ġen vis
Mod ern
Ġvo ter
ch ster
Sch wei
Ġeth ics
lic ity
å ¤
Ġann oy
al ore
ĠVerte id
Ġjourn als
ĠL och
ichte te
Ġers tellen
ĠG rass
arch iv
ci enti
Ġbeach es
19 48
ĠA w
Ġcross ed
Ġro d
17 5
ĠAnt arctic
Ġc oh
Ġorgan ised
Ġmeasure ments
Ġst rain
ĠCo ordin
ĠP oll
ĠRo of
ĠEx hibition
ph ys
tern e
ho ven
ĠAv ant
ĠUn fall
ĠEins ch
P f
can ique
ress ant
ĠEag les
D ar
ĠFahr er
Ġentsprech enden
Ġpersonn alise
ri tis
ĠUE FA
Ġcook ed
k tiv
ĠVier tel
H K
D O
Ġcontra ctor
ili on
ĠM w
ĠD ale
Ġdel la
ĠChap el
F ol
oph on
ograph ies
ti ma
ĠVe get
Ġgen es
Ġval ve
ason ic
Ġge zeigt
Ġverg essen
Ġsubs cri
ĠP ent
bed arf
B ill
áĦ Ģ
n eter
Ġpou vant
ĠWire less
ĠB rie
ic ien
C ent
Ġg ly
Ġqu est
ĠD IS
site z
Ġb aisse
ĠParti cip
Ġabsolvier te
Ġ ).
ĠJuli an
qu enz
Ġch aud
ĠTri ple
p unk
Ġwes entlich
ĠL adies
Ġp unk
ĠFem ale
E pisode
ĠRe y
Ġop tical
ch ir
ĠHoch zeit
ĠZ ero
lis ion
Ġs oin
c ano
ĠSol ution
Ġpro gression
liss a
ĠJo an
ĠDet ail
Ġg onna
ĠObs erv
Ġsure ly
Ġmoder ate
Ġverantwort lich
ver ha
ĠP HP
Ġconn ue
2 10
Ġbound ary
M ER
glicher weise
Ġmeaning ful
Ġobs ervation
ak o
Ġhuman ity
Ġaccomp lished
ĠBe gle
a ft
Ġ17 5
une hm
S ou
Ġinter f
ic z
ĠS pec
m ass
F iction
ĠV ia
it ures
Ġwir kt
Ġbl esse
Ġfab rique
Ġex t
Ġ( -
S at
k ens
ĠTre as
qu ired
rab ble
Ġmari time
ph oto
ĠSp encer
Ġcomp assion
ĠJo achim
Ġsett le
ĠAl ways
Ġutili ze
Ġsc ar
ĠTeil en
Ġher b
ot ti
Ġinsp iring
Ġ( Â«
mi um
lic an
ĠMittwo ch
fre ie
Ġadd iction
ĠL ars
ĠDire ctors
e it
19 42
! )<
Ġw eder
ĠR ica
Ġcri tiques
Ġparti ally
Ġeffec tiveness
ĠFle isch
Ġdou che
ĠgroÃŁ es
Ġfin als
Ġsophistic ated
speci fic
n se
Ġers tellt
Ġmanufact ure
tein e
Ġcour te
ĠSchla cht
ĠW arm
ĠAdvis ory
Ġri dic
ĠB I
ang ere
ĠS ask
Ġmili taires
Ġdep uty
pie gel
Ġ !!!<
ĠN est
Ġren owned
Ġdom aines
it ur
iel ten
atis ation
Ġfavor able
bind ungen
pp i
Build ings
nd ische
riter ien
Ġcro ise
ĠSh ield
N os
Ġali en
ĠPower ed
fini tive
ĠCOM P
ĠK linik
W O
u vre
ĠB ark
Ġcomm ented
ĠEsp agne
lec omm
Ġw elfare
ĠStan ford
Ġd irt
Ġste ep
Ġsh oe
th odes
entre tien
minister ium
ĠSign al
Ġmode ling
ok ol
Ġm ille
Ġhistor ischen
ĠTemp late
ĠHugh es
Ġsymb ols
Ġang ew
ĠAn cient
ĠPark ing
Ġ18 73
ĠT ran
Ġo live
Ġsp aren
Ġgrund sa
Ġk enn
ĠEd die
ĠF oster
Ġnive aux
ĠGrund stu
J ew
p il
p ath
ĠT OP
Ġartis an
ĠFig ure
ĠA ou
Ġcart oon
Ġmechan isms
ib el
Ġdele te
. âĢĻ
Ġsch reibt
Priv ate
Ġachie ving
ys on
per c
ĠD rit
ek ing
Ġsymb oli
iz ations
ĠW ool
ĠP uis
hav en
Ġl ying
ĠBo at
ĠB elf
West falen
Ġpre view
sec ond
Com merce
ĠAma zing
Ġpil ote
Ġd ragon
ĠAg ric
um ed
Mod el
ĠWas ch
reis en
work ing
ra che
unsch weig
Ġb ishop
ĠIng en
sie he
Ġcontrib uting
ĠCar lo
k k
Ġrep ar
Ġthorough ly
G U
Ġfonctionn e
ĠUns er
B ob
ich es
Ġnorm ale
R ou
p rop
Ġbene ath
Ġdem o
man i
Ġbeteili gt
ch ers
áħ ¥
Ġconvin ced
ĠRe covery
Ġcre dited
Ġfoot age
W D
les h
ĠNo vel
nov ation
Ġvib rant
Ġactiv ists
ĠH O
Ġtri fft
Ġrencont rer
ĠS hen
ĠH app
ĠBang kok
ĠMP s
ĠEr za
ĠS tain
Ġsoldi er
ĠPro z
Ġespagn ol
v able
ate mal
Ġvar ied
Ġg lor
ĠS ultan
Ġshipp ed
ĠFore x
Ù ĩ
f alt
on ial
m id
ĠE co
rate te
Ġprin temps
a ci
g ern
ĠGet ting
g ou
Ġautom ated
Ġwork out
I ng
Ġer laubt
ĠTechn ologie
ĠMunicip al
Ġfire place
ĠDiv i
Ġexcess ive
ĠLa uren
ĠLe eds
ry lic
Ġrela te
p ore
? ?<
ĠGes chenk
Ġim aging
n ze
Chin ese
ff ield
Ġtim ing
ĠMo tion
ĠM Y
ĠT ub
Ġm icros
Ġscienti st
ĠA A
R om
Ġra dic
Ġtra ces
Ġter res
ĠBet a
ĠNor folk
ĠP ologne
Ġtack le
Ġa ch
Ġbek annten
Ġs org
ati se
ĠRed e
ĠLic ense
n etz
Ġelekt ron
ow ner
ĠRes ume
ĠStud ie
Ġh auptsa
L ux
sei tig
ro che
Ġt une
Ġp ant
for ward
Ġges etzt
Ġint ri
Ġcri te
Ġvol tage
Ġcontra ctors
ger ichts
imb abwe
Ġhinge gen
acht ung
ĠWhe el
s ized
ĠRe isen
Ġob tenu
Ġtim ber
Ġla ufen
ĠE y
osi tive
j as
Ġtrib ute
Ġd ynasty
Ġgesch u
d isc
Ġgard er
w l
ful l
timm ungen
ner ge
Ġatta que
Ġens ures
az a
ĠNorm al
la f
k ma
o tive
Ġgen ieÃŁen
L ow
app rop
S ubs
Ġk its
Ġacknow ledge
OR S
gien e
Ġgod s
Ġfas cinating
Ġs ib
Ġbesonder en
or us
ĠEm manuel
ĠE llen
ĠNurs ing
Ġtrans ports
Ġs orts
d essen
ĠDes halb
Ġeinge fu
Ġki n
Ph il
vers ammlung
ĠAng els
Ġse ating
M ini
M aison
f ont
v iel
Ġbeautiful ly
ĠTeil nahme
Ġch ore
Ġfu cking
ĠR ally
Ġorig ins
ĠLa us
Ġtrouver ez
Ġcli ps
Ġdess ert
be itung
Ġqu ot
Ø ¯
ĠCh es
Ġgl uten
Ġr anges
ip her
ann ah
ĠChamp ionnat
ĠPublic ations
Ġher gestellt
rier te
19 00
ĠHar old
â Ķ
ais ons
J etzt
ĠK ammer
ĠNew castle
AD E
ĠBu enos
ĠMatth ias
ĠMark us
áĦ ī
le id
ĠGu ys
Ġsogen annte
Ġcl an
ĠK lei
w riters
ĠNob el
ĠP is
ĠR ush
Ġ{ {
Ġdon ations
Ġun lock
ĠH als
ĠKaff ee
I st
Y e
ĠH unde
Ġben annt
ĠW issens
ĠPro b
19 47
Ġcontrovers y
Ġth y
Ġprot ocol
ĠArab ic
fel der
Ġch ute
ĠVer gangen
ĠRe yn
ĠUn like
row ing
Ġvac uum
ĠHei ligen
ĠProdu ktions
ĠR icht
Pres ident
ab o
ic ap
ĠN A
Ġk nife
Ġmeas uring
les te
pa id
off er
19 37
ĠSh ore
Ġpain ters
Ġjourn aliste
Ġhit ting
Ġec osystem
Ġfarm ing
met ure
ro ider
Ġfourn ir
Ġapp liances
ĠGra duate
Ġerst es
u h
ĠDou g
Ġj oli
ĠTy ler
ĠGra z
us ern
Ġpin e
Ġpartic uliers
Ar ts
Ġdecor ative
ĠBatter y
ĠNam ens
Ġv aut
Ġde ce
Ġb iz
Ġun likely
Ġre actions
m ari
ho fen
erse ys
ĠBereich en
ĠAth ens
ica cite
ĠPo etry
ĠMig uel
ĠSte am
ĠAp artment
Ġint ent
Ġgen res
Ġdisc ounts
Ġdar um
Ġmas k
ĠInd ien
Ġstom ach
Ġcor poration
M R
ĠLa ut
Ġport al
ĠCro ix
Ġoppon ent
be au
osi um
Ġre ag
uch i
ĠAng ela
rate urs
â ĪĴ
exp osition
ĠAssoci ates
Ġpro long
rif ier
P or
Ġdistin ctive
ĠConserv ative
vi ennent
å ı
ĠPas cal
B ern
w ander
ĠN och
ĠM IT
Ġb ones
ĠH aven
Ġw ander
Ġaffec ts
ĠPar lement
Ġide en
Ġlux e
ĠGren zen
ĠKnow ledge
Ġbe ef
ĠAdel aide
ĠS ure
Ġs outheast
j ay
ĠAcadem ic
Ġn uts
Ġs ung
Ġhand led
ber all
ĠCh ain
Ġverbess ern
Ġuti le
âĢ Ĳ
ĠMont pellier
ĠPhys ics
ĠY a
Ġfi fte
Ġf li
rol ling
ĠV iz
Ġdress ing
ĠB ring
it an
Ġproduc tive
te ils
od on
Ġcomment ary
Ġsyn chron
Ġvo ici
b lichen
ĠL ack
ĠF ay
Ġprop he
ĠNorth west
alis ations
Ġtravel s
l ord
ĠM its
et ragen
Ġliber al
d ivision
H F
Ġt au
Com pe
ric ia
ann en
Ġgovern ance
ĠSchw ester
ĠHeb rew
ĠCons umer
Ġch ansons
Ġpuis se
Â ¬
ĠG lad
M ap
B oth
B lo
Ġshel ter
K ateg
ĠA ven
chn e
ĠPal mer
Ġi phone
ĠLu ci
An im
Ġbe ating
ĠPer th
ĠRe ally
Ġsau ve
Ġx xx
b ringen
Ġcondam n
oc ity
p fe
ĠG ue
b ute
g ations
urn ier
ĠEth iop
Ġpre uve
L ire
Ġread s
ĠT odes
Ġacc la
Ġclos ure
Ġsta de
27 0
Ġhon our
h jahr
lest on
ĠAn ha
áĨ ¯
å ħ
N ER
N orm
Ġpre de
Ġang ry
ol ved
ĠOw ner
ĠWer bung
Ph otos
ĠT rus
ere ur
ro st
un ted
ĠC ay
Re chts
greg ation
Jac ques
ĠFahr t
he y
OT E
Ġcare ers
se iti
iss ante
m me
ĠV ib
19 51
Ġordin ateur
oca ust
Ġreported ly
O ui
Ġpush ing
ur ring
ĠH ors
Ġbr ass
ĠSanti ago
ĠGra u
ĠC SS
Ġb lau
Ġautom otive
ite ment
ter mine
B enz
Ġvend ors
Ġpl ante
Ġhe lic
cheid ung
ost al
Ġhoriz ontal
Ġinterven tions
Ġclin ic
ĠB onne
Ġges ucht
Ġsal ad
Ġsuccess ion
ang ular
Ġglass es
m oi
Ġcharacter ized
Ġab geschlossen
Ġrep rise
Ġden ke
ĠM obil
ĠWind ow
Ġkomm un
met tre
ĠKind le
ĠWin ters
iz ieren
ĠHaupt stadt
Ġt ellement
99 9
Ġla i
chn itten
12 4
ĠS outheast
Ġcancel led
Ġg utes
ut able
Comm unity
ce y
ĠR ew
ĠDise ase
ash ing
ĠHol mes
ĠÐ ¸
Ġstatis tical
ĠPort o
rke i
ĠCor re
alt ungs
Ġt omb
ĠDes ert
Ġchar ter
Ġou ght
Ġloc ales
ier ry
Ġmed i
Ġdo zen
Ġ18 69
Ġcandid at
Ġn at
Sty le
far ben
Ġbut tons
Ġspa cious
Ġre mer
Ġelimin ated
ock ets
iv eness
Ì Ľ
ĠBeng al
omb ie
ti ennent
ĠBern hard
Ġcu ps
Ġcomm od
ĠAnsch lieÃŁend
ĠGe off
Ġpar lement
Ġstri king
Ġlight weight
ĠD ob
ĠM ole
Ġrefer ring
ĠHar per
Ġexer c
ĠBl umen
Poli tical
Ġoppon ents
Ġbei n
ĠGreg ory
Ġdav antage
m il
Ġad he
ĠN ahr
p c
ilder ness
W alk
Ġsep tique
Ġlang sam
nie ur
Ġd unk
19 41
Ġhol y
Ġhum aine
Ġcomplain ts
gh ter
Ġwh ats
Ġrad ar
Ġf ried
Whe ther
zug s
Ġrec ou
Ġem pe
Ġcat ast
Ġabs orb
ĠEnt ry
ĠS achen
ĠMess age
rich ter
Ġcomp ly
Sch o
ĠExper ten
Ġcalc ulated
ĠSur gery
Ġse gments
Ġinter section
r mer
19 35
Ġspons or
ĠPales tine
ĠE k
Al pes
Ġb ridges
ĠEig enschaften
ĠWal lace
Ġrecon stru
V ictor
ĠA way
mon ie
geb iete
Ġbri tischen
andi nav
B ul
ct u
r chen
Ġri des
Ġattrib ue
Ġpromo tional
wor tet
ĠT U
dem ain
ĠSp itze
ĠR ai
Ġsouth west
Ġade quate
ĠProf ess
ĠGew alt
ĠPal ais
Ġp ix
z hou
ĠPl attform
exp ression
' .<
ĠKom bination
Ġcar ing
H uman
Ġ! !<
ĠN atu
Ġthro wn
ĠK ok
ĠT ren
ros se
Ġinstru mental
rau lic
Ġesp aces
ĠInter pre
Ġ ]<
Ġcompos ers
Ġver heiratet
Î ¼
to ires
h ydro
Ġern annt
F un
Ġ16 00
he ben
Ġther apeu
ĠEn fin
W R
ĠP orsche
lauf en
Ġun pre
ĠCal gary
ex istence
ĠDien stag
Ġrece iver
F K
19 29
Ġenter taining
ĠC BD
A ction
Ġpen et
d ical
F oto
Ġair line
li ce
ĠAll tag
Ġen rich
Ġfre el
ĠKarls ruhe
Ġannivers aire
ĠEconom y
Ġsepar ation
iss ait
ĠV os
V ir
Ġminer al
Ġinfe ctions
ĠW als
ĠP izza
ĠK oh
k ont
b ishop
N ur
ĠSalv ador
Ġcon dem
comm on
ord onne
m are
Ġcann abis
o il
ĠD ictionary
Su pport
Ġminor ity
Ġback ed
Ġun w
ĠZ i
ĠEdel stahl
Ġsum mit
Ġor b
âĢĿ )
Ġups et
S V
Ex tra
ĠAut oren
ĠKompon ist
ist on
ĠSche dule
Ġs alles
Ġrecover ed
gis la
ĠSk ills
ĠS UP
ĠT ampa
zuf u
d l
ĠClin ic
ĠT ue
Ġaus z
Ġsuff is
ĠT ief
ĠDad urch
Ġm iteinander
Ġpris es
ĠJere my
Ġst upid
Ġfai ling
ĠUnivers ite
B ot
uf u
vi na
wei ÃŁ
ĠHam burger
ĠKen nt
Ġeigh th
Ġther mal
ĠG ent
u ccess
ĠInst all
ĠSpe aker
ĠAus gang
Ġamen ities
at aire
ĠJak ob
Ġten ue
ĠK ali
Ġci alis
ĠLith uan
fil ter
ĠK eine
de ment
Ġcor on
Ġmulti ples
Ġdeli ber
anc en
j ew
Ġch ina
m un
ac teur
Ġersch ienen
ĠW ett
Ġs icht
M os
Sp ace
ati o
ĠLebens mittel
ĠDis covery
ĠK ais
ĠO thers
we ge
Ġcher cher
ĠI kea
n stru
n an
eld et
Ġcomp ound
Ġc rop
zw ei
ĠEi nige
ĠPack age
S aturday
ĠIran ian
kre ta
Ġpri ma
Par ti
Ġmus ul
Ġgradu ation
ag le
om ber
n tel
Ġh ielt
ĠPsych ology
ĠEntwick lungs
Ġche val
Ġkosten lose
Ġprom ises
Wh ich
ĠMuseum s
I hr
Ġbl onde
ĠG itar
ĠOffiz ielle
ĠAt las
ĠMy th
ĠKon zer
Ġe ditions
Ġrep rend
Ġmat he
ng ere
Ġforgot ten
h ls
vel t
Ġhad n
jo ys
v s
ĠMad ame
ĠId aho
ĠQuali fik
Ġfa veur
ĠY ard
Ġdir ty
ĠBel gian
ĠBor ough
Ġfil mm
Ġsurv iving
inter pre
hol en
zahl t
Ġun cle
Åĵ urs
Ġprocess or
Ġod ds
Ġpart ly
R ei
Ġch lor
geb racht
ĠAd ditional
lass es
ci ns
em ann
Ġbare ly
ov an
ĠMe anwhile
ĠWork ers
ĠM t
or tive
anim ation
ati an
Ġt arif
M icrosoft
Ġe ld
Ġform ally
f inder
child ren
Ġber ichtet
Ġvol on
Ġsc rap
ĠA zerbai
ie ht
Ġdig es
ĠN Z
ĠLa z
Ġcomplex e
ĠFran zo
Ġzu gleich
Ġappro che
Ġf ed
n us
Ġkom bin
Ġsc al
Ġsee ks
Ġc ass
L arge
Ġthere by
s ource
Ġsports people
lad ung
Ġst opping
Ġimp rime
ar ound
Ġgen auso
Ġweiter es
roll en
ĠSER V
Ġt ales
ĠS tell
ĠGes ell
Ġbe ein
etz ter
Ġdamali gen
onna ie
h ier
L eb
ĠAb bey
Ġm agne
ĠVen ice
Ġord re
ĠTe aching
ĠT ore
Ġrem et
Pro gramm
Ġti n
Ġconstituen cy
Ġsepar ately
pan ic
Ġabstra ct
Villa ges
pro jekt
Ġbin ary
Ġterrit orial
Ġv erei
Ġbiss chen
Ġhand ed
Ġspecific ations
ĠCom ite
Ġpeace ful
Ġcertain e
Ġor chestra
Ġdecor ated
Ġprof iles
ĠMc Donald
ĠSold aten
19 43
Ġz unehm
Ġst ammen
Ġen roll
Ġeinges tellt
Ġdo te
ĠSimp ly
Ġb ains
Ġ2 25
Ġrun ners
Ġbass i
Ġfavor ites
ĠP ots
14 5
ĠM aps
ĠÃ ĺ
li um
ĠBer ger
Ġc lay
t rise
ĠInstru ment
ĠL CD
Ġinc on
Ġmar tial
ĠVorg a
Ġacc oun
er tion
mit tag
ĠXX e
oll er
ĠSta tement
ĠBe ziehung
un en
ent rum
ĠF res
ĠUs ers
ĠN one
ss te
Ġconf ront
ĠC ounter
ille ts
Ġdraw ings
ĠSw an
Ġl us
Ġlo ads
gesch rieben
ĠB oul
S ummer
ĠPe tite
Ġpros per
Ġextra ct
Ġwar ten
ĠSe at
Ġte ens
ch al
or tage
Ġas c
ĠK ot
Ġcol ored
th ink
Ġan zu
Ġblog ging
ĠW OR
st lichen
Ġex ac
brig ens
he bung
i quer
Ġtourn oi
ho oting
ĠI X
ĠP oe
Ġsac rifice
Exp atriate
wer den
ĠMal ta
ĠInter essen
Ġnegoti ations
Ġsand wich
Ġn ail
an mar
ĠVorte ile
ĠJe anne
ĠW ellington
Ġv ende
Form at
ĠCh ase
ĠBrook s
ĠP am
ĠLink ed
Ġv arian
ĠIss ues
Ġinc onn
ĠDomini que
E conom
Ġd il
Ġconv icted
as ive
ĠMil ch
Al tern
ĠN ass
as ha
ĠG lobe
ĠTra iler
Ġmem orial
Ġp av
ĠSer bia
Ġsw im
b w
Ġpass iert
Ġdes erve
Ð ĵ
c ross
ĠT rag
ĠPer iod
ĠTerrit ory
H aving
ĠH immel
ĠStru ktur
Ġag ing
or gt
ons o
ĠâĢĵ <
Ġfro zen
K K
Ġmatt ress
ĠCh ang
ĠPort rait
ob jectif
ĠThanks giving
ĠAssess ment
Ġpri m
ter ie
ĠDi ff
ite m
Ġtw itter
ĠBed u
w hen
er es
ov as
H ers
ĠStern e
ieren de
omb ier
ĠIntern ationale
ĠAn frage
ĠLe af
Ġt urb
cion al
Ġnach hal
e ven
L L
r ze
Ġp icks
Ġf ails
Ġrelax ing
ĠAnnivers ary
Ġgar ten
Rail way
Ġdisting uished
ĠGen re
Ġw rap
nor me
Â £
lker ungs
s ti
em er
ĠB T
Qu ick
ĠJam ie
Ġmor ph
ĠGe gner
d ar
ĠC ohen
N R
Ġlo ver
; "<
aval ry
ĠLy nn
d omin
Ġ" <
: \
Ġal titude
le ver
f ashion
hi nk
Ġh unt
ĠB och
Ġpol on
Ġz ip
ain ed
ĠVors itzender
Ġaltern ate
" )<
Ġrepris es
un tary
gesch oss
' )
ĠPunk ten
ĠT outes
Dies es
Ġper pet
ĠWar um
Ġmyster ious
Cla ude
S ize
D ig
Ġgra u
ĠMar ti
aster y
ĠO ster
m c
Ġdifferent ly
Fin ally
Ġcal ories
ai ting
an ta
Ġk iller
ĠMon ument
Ġe cc
ĠBade zimmer
Ġb anned
Ġencourag ing
ard ins
ke ep
e use
Det ails
ĠR oma
Ġpub liques
Ġouv rage
Ġincor rect
Ġrepro duction
Ġconscious ness
ur gence
Ġexp edition
Ġidentif ying
12 9
ĠF igur
ox ide
Ġass ists
Ġgl ory
Ġorgan ize
ĠT ol
s ervation
Ġear nings
ĠEint rag
Ġgr ille
ĠAp ost
Ġanaly tics
19 28
rat ulations
ĠG le
ĠPort ra
Ġperson alized
Ġbef and
Ġsp rach
Ġser rure
Ġsow eit
Ġf oster
Ġsc ulp
ite ten
Ġlo ading
k amp
ĠD uch
Ġrealis tic
wissenschaft ler
Ġimp lications
Ġtub es
V otre
ĠV ul
ĠNo tice
Ġc ens
Ġmed itation
ll o
ĠWe iss
ĠCor i
Ġcon ferences
Uns er
ĠTit re
ĠEinwohner n
s olution
ĠEin richtung
Ġdescri bing
aw asaki
ere k
ĠEx cellence
Ġbege ister
Ġtrem end
ok us
Ġsub tle
Ġregard er
N av
Ge org
Ġbre it
Ġr hythm
Ġcoup ons
ĠG illes
p annt
Ġmention n
ĠR F
s ha
ĠPil ot
Ġthr iller
form at
Ġisol ation
L iv
ĠMusik er
Ġt ang
z ern
Ð½ Ð¸
b ungs
du ctions
iction naire
ĠMil waukee
Ġent schieden
I e
Ġbi ography
Ġmoist ure
m obile
Ġer leben
p om
Ġali ke
Ġsound track
19 34
Ġpremier ed
hock ey
ĠSole il
Ġto ps
ĠA chie
ĠY ale
Ġgener ous
diate ment
ĠNut rition
Ġ, <
ĠN ak
OW N
ĠL aden
Gru ppe
Ġportra its
per i
ĠBla ke
Ġcat he
inn e
Ġst olen
enni al
ct uary
ym n
ĠL anc
â Ĩ
Ġw ann
Ġdec ides
W ow
Ġf iel
ĠView s
Ġcomplex ity
Ġschn eller
Ġcustom ized
bre cht
ro ff
Ġrec ettes
Ġge h
s ay
Ġgau ge
ĠK ub
C ost
Ġu mb
ĠPay Pal
b rane
ord able
Ġadvoc ate
Ġintens ity
ĠDi nner
Ġle gen
Ġ5 50
Ġbelong ing
Ġt ome
est o
Ġg ree
og h
trai ner
à¤ ¾
ĠLu cy
Ġban que
J us
Ġb ush
ĠRead y
Ġac ted
Ġperc ussion
ĠManufact uring
ĠOrd nung
ti gious
ĠV IP
Ġins pi
e ast
H om
Ġs amp
v odie
ĠBe hav
Ġklei nes
ĠM BA
ĠMons ieur
Ġand roid
Ġdurch schnitt
Ġnomin ations
R ES
Ġk atholis
ĠAut os
f em
Ġroya ume
ĠBer ry
ar ite
Ġliter acy
ĠDom ain
ĠP VC
ĠBe ob
ce mment
M AR
Ġli v
IS H
ande z
Ġmut ual
ĠVergangen heit
g oci
ĠS ets
Ġsugges tion
Ġpra ise
Ġre lay
Ġyoung est
ĠSlo ven
m otor
ar ische
ĠBel ow
ĠVehic le
Ġboy friend
b ene
ers et
ĠFer rari
Ġstab ili
et ra
Ġconf identi
ĠC lo
I ran
Ġanalys es
Ġmed izi
d lichen
P ing
k lass
Ġf ighter
12 1
Ġdis contin
ĠBot an
u ka
ed ed
ĠAN Y
ĠF eier
di enste
ĠK no
m ung
Ġpar as
or ous
N atur
Ġref lects
Pub Med
ĠCann es
Ġtre ating
ĠF lying
Ġarri ves
ĠMet ern
Ġprotes ts
U F
Ġim agi
ĠC ake
N P
Ġredu ces
emp loyment
ĠVis a
ON G
Ġclos est
f els
ĠW alt
C ard
Ġcon form
Ġicon ic
Ġcur ve
ic ing
Ġalgorith m
d iterrane
P ad
r ens
Ġcondition ing
Ġcons ulte
ĠFor mer
ĠW ave
ĠAd ap
IS BN
Ġhope fully
Ġdu p
Ġitali enne
j un
ven ant
Ġro ller
ti mer
Ġvic times
Ġins uff
ĠReg ular
ĠY i
ĠOr gel
Ġan te
b il
ĠS ke
Ġtra its
Ġtour isme
ras er
h auer
T alk
Ġpres erved
Tit le
Hel p
Ġhe ir
Vo ici
ĠCh uck
ĠDep ression
la cer
W ild
ĠIN TER
Ġmathema tical
ie ts
Ġevol ved
c ret
Inter view
Ġme ubles
ĠSymp t
ac tiv
Ġimport ants
Ġm s
Ġt ears
Ġr up
uss en
ĠMit arbeit
T ick
ĠBenn ett
Ġretre at
A X
Ġhum id
Ġke en
ĠG ospel
Ġcoordin ation
Ġcandid ats
be e
schul en
ndig ung
Ġincor porate
Ġtri o
ĠB ars
Ġache te
i nstru
Ġparten aire
ha ften
ĠTour ism
og ie
Ġad vent
Ġfich iers
Ġgle iche
Ġlesqu els
ĠBry an
ĠDisc ussion
ĠLand schafts
Ġlegis lative
Ġac oustic
Ġchange ments
Ġcomm emor
Ġs able
Ġs ati
ĠN ationale
ĠL ighting
Ġbegi nners
Ġlaund ry
ah u
[...]
