#version: 0.2
i n
l e
o n
e n
Ġ p
Ġ a
t e
o u
Ġ c
Ġ s
a n
in e
e r
t i
Ġ e
Ġ l
i s
e w
l ine
n ew
new line
q u
Ì Ģ
a r
u r
Ġ le
Ġ m
t r
en t
o r
u n
Ġ r
a i
qu e
ti on
Ġl a
â Ģ
Ġ v
Ġ f
c e
i e
ou r
Ġe t
o m
âĢ Ļ
i l
Ġ n
m e
Ġ en
s e
a l
tr e
Ġ C
v e
Ġ un
Ġr e
m ent
Ġp r
g e
a s
c h
Ġ b
a u
i r
s t
d u
Ġ L
Ġle s
Ġ t
i t
Ġ P
Ġ S
a tion
Ġ 1
Ì Ĥ
. <
Ġ 2
an t
u s
Ġ M
i te
Ġ A
ou s
e l
Ġp our
Ġ j
Ġa u
a t
Ġp ar
Ġ qu
an s
Ġ du
a is
Ġ D
e t
d i
s i
. .
Ġ (
e u
Ġc on
o l
p e
Ġ B
i c
le s
o s
a c
te r
Ġ que
Ġ :
Ġ g
a ge
Ġs e
Ġ E
Ġc h
ai r
a m
Ġc om
on t
Ġs ur
Ġ -
Ġp l
Ġ T
0 1
a b
0 0
p r
Ġ R
Ġ in
Ġ F
air e
ur e
Ġun e
Ġpr o
i m
Ġe st
d ans
Ġ dans
i er
te s
ch e
on n
f f
Ġm e
i que
Ġ h
u e
o ir
an d
ai t
Ġp as
o c
i en
Ġ tr
e m
a p
i g
i d
s s
d r
Ġqu i
a le
Ġ V
Ġ G
Ġ I
o t
Ġ N
Ġ ou
u l
on s
is e
Ġc e
an ce
a g
l le
b r
ve c
a in
Ġ Â
e st
ĠL e
a v
ur s
Ġpl us
Ġ J
er s
il le
h e
o p
o is
Ġa n
Ġa vec
Ġ2 01
Ġv ous
i v
Ġ H
or t
Ġs u
a te
Ġpr e
a d
Ġn e
o i
Ġ 3
e c
Ġg r
Ġ te
Ġv o
a ti
Ġt ou
o g
r i
br e
p l
o d
Ġa v
onn e
b le
Ġ il
dr e
c i
Ġe x
un e
o b
ou v
p ar
ĠD e
Ġ O
au x
c tion
ou ve
el le
eu x
ce s
in g
t en
a y
Ġ 0
id e
Ġj e
me s
pr e
ĠC h
o in
u m
.. .
on d
ab le
Ì §
ar d
Ġ 4
Ġ |
r o
Ġs ont
L e
ig n
et te
t u
l i
a ce
u is
ation s
Ġs er
or m
Ġ 5
Ġ di
an c
en d
Ġa c
t s
Ġp e
Ġm ais
U n
Ġp eu
Ġs on
ĠÂ »
u b
ĠL a
c r
que s
r ie
d is
ĠR e
u t
our s
Ġ !
Ġvo tre
Ġf r
u i
o se
i on
s se
Ġa r
) <
e z
er t
Ġ o
Ġm ar
p le
a ine
er n
Ġau x
g r
oir e
Ġ1 9
od e
Ġ W
or e
o y
en ce
tre s
o it
Ġn o
p s
or d
Ġn ous
Ġa p
Ġc r
ant s
Ġ dis
and e
Ġ im
ĠÂ «
or s
f e
u x
v i
c om
Ġb e
aire s
ir e
Ġcom m
Ġ 6
p ort
ti c
Ġ "
ai l
ment s
ĠE n
Ġs a
Ġp er
ĠF r
Ġ âĢ
c on
e x
s er
ti l
Ġ ,
is t
Ġ y
Ġ ?
ure s
si on
ĠLe s
Ġb ien
i b
en te
Ġ 7
Ġ K
an te
Ġtou t
i le
Ġ w
il l
ti f
2 01
ag n
an g
tion s
ti que
Ġc ette
Ġc ar
2 0
ĠI l
o le
te l
s p
> <
te ur
v r
Ġ on
ch er
j et
Ġen tre
Ġcom me
Ġr en
Ġ /
Ġf ait
ĠM ar
Ġ tre
Ġ 8
s te
ĠP ar
ti e
Ġp ers
.. .<
Ġa l
i x
ou t
Ġ ge
Ġc l
ĠI n
ign e
Ġ 9
en s
v er
Ġm on
as se
age s
al l
Ġ k
Ġf aire
al ite
Ġc ou
i f
Ġcom p
v en
is te
an n
us si
ub l
or te
ģ ,
Ì ģ,
p er
Ġ â
Ġse s
au t
E S
f r
ie s
our n
u it
on e
Ġ Un
Ġcon s
iv r
1 0
Ġ ont
Ġ1 0
c t
Ĥ ¬
) ,
Ġ2 00
ique s
e ment
ter n
c l
Ġs t
te ment
Ġm a
m bre
Ġt he
t t
Ġn ouve
se s
Ġtr av
O N
ond e
Ġf or
E R
ent s
r a
Ġc o
ĠJ e
Ġa ussi
Ġs i
u til
ale ment
ve s
Ġpeu t
e ss
ĠC om
e p
s c
f orm
as s
L a
Ġf in
Ġ2 0
b e
Ġs ou
d eux
en n
ĠA n
Ġ Q
Ġp h
al le
ff r
Ġan n
e ur
Ġn om
Ġ deux
Ì Ī
on c
t at
ĠP r
is ation
Ġ ter
ad e
p on
an ge
Ġle ur
ai lle
t h
en dre
p h
o w
ti r
1 9
Ġpro du
ĠG r
Ġs ans
er r
5 0
ier s
on g
p o
Ġ or
en tre
Ġa t
Ġc ol
1 2
Ġte m
ais on
Le s
Ġm in
ĠâĢ ĵ
a les
Ġpr em
A N
Ġcr e
.. ..
ol og
o k
Ġ1 8
f in
Ġb r
Ġt ous
oin s
i ve
in s
Ġp os
ate ur
a me
c ou
p tion
Ġs ite
Ġce s
is se
Ġpe ti
) .
Ġque l
3 0
Ġc el
om me
ivr e
Ġcon c
Ġdi ff
g n
Ġv e
ie u
Ġr ap
Ġa m
en se
U R
om e
Ġp o
D e
le c
Ġ1 2
E n
v ite
E N
oc i
ou l
le r
Ġa d
Ġf i
Ġj u
1 1
Ġan s
d em
che s
Ġ U
it s
e v
Ġau t
Ġe ff
Ġ <
Ġ ob
ain t
w w
_ _
ai ent
- -
Ġno tre
Ġv os
is s
en ti
ic ation
Ġ [
l a
il s
ĠFr ance
Ġ ;
i a
si d
I N
Ġm an
Ġ1 5
me t
pr ise
ar ge
n t
ĠT r
c u
" :
ĠA r
Ġs y
ain s
R e
is er
am p
ĠM e
t ait
ol u
A R
Ġj us
Ġpro p
Ġf ac
ĠP our
ic i
d ou
Ġp ubl
Ġ dr
d ir
Ġb l
Ġre m
Ġcon n
ĠB r
tr u
00 0
Ġa ss
Ġâ Ĥ¬
" ,
c ore
qu i
Ġe lle
Ġf e
i ce
ie ux
o v
Ġtem ps
s si
el les
Ġcon f
er ci
o pe
ĠP l
Ġ1 4
m ble
Ġv is
gr e
Ġ util
il ite
Ġc a
m in
agn e
a z
ue s
ouv er
Ġcon tr
Ġ ti
Ġ1 6
Ġ1 7
Ġ *
1 8
ar r
u d
ģ .
Ì ģ.
ve l
ĠC e
k e
Ġ dem
1 5
j our
Ġl ui
em me
u me
1 4
ie l
Ġ dir
ĠA l
ance s
Ġs ous
ve z
a que
d it
enn e
ar e
u se
an e
Ġp uis
au te
/ /
Ġser vi
Ġpr ix
Ġt h
in si
Ġre c
ar t
Ġ .
Ġ1 3
s ti
ou pe
Ġ! <
el s
Ġc as
d ern
Ġm o
ati que
Ġtr ans
Ġp ol
ay s
C h
Ġb on
u ite
ais e
l o
ffr e
1 6
Ġ dern
Ġc our
ien n
I S
Ġf il
Ġs pe
s ent
1 3
e au
i me
ce ss
g er
d ep
: //
L E
l les
1 7
v is
! !
2 2
Ġv ie
Ġ dou
Ġter r
Ġe m
Ġc or
Ġk m
ac k
t ure
d onne
ĠE t
ĠS e
Ġav ant
ĠC on
T I
qui pe
Ġme s
d onc
on ction
Ġ Y
ch n
Ġen core
Ġo f
r ap
R E
Ġs eu
Ġpar t
Ġin ter
Ġf ois
Ġ is
Ġh e
Ġ donne
Ġren con
Ġv i
Ġ donc
a ch
Ġ dep
Ġcon t
am bre
Ġm ode
ab les
Ġn os
T E
Ġm et
ĠS t
onne s
Ġm al
ou le
Ġn on
ien s
Ġ &
Â °
Ġf orm
Ġgr at
ĠA u
ĠB l
g an
Ġin te
sc ri
Ġs im
Ġ #
ĠS aint
Ġfr anc
I n
Ġgr and
Ġt u
ci p
Ġ1 1
Ġj our
Ġl ors
s pe
Ġen v
a k
4 0
te urs
Ġl igne
v ent
a se
m an
Ġa insi
i ch
at s
Ġdep uis
Ġph ot
pr o
ouv r
t te
Ġa pre
di c
aine s
Ġbe au
Ġch au
d ont
e b
Ġan d
le ction
di tion
al ise
s tion
Ġm oins
Ġ: <
oc ie
Ġp ie
an tes
lec tr
ĠPar is
m er
d ev
av oir
Ġann e
c o
Ġm il
Ġc v
h o
n er
y pe
Ġpl ace
t o
g l
2 5
end ant
Ġcon tre
os te
Ġre l
Ġm onde
ĠP ro
Ġ dont
Ġ X
e d
ti ve
a ur
Ġ oc
j ours
Ġsu is
ai te
Ġp oin
m is
Ġ? <
Ġme ille
Ġ201 7
cr e
Ġen f
Ġper met
2 4
Ġ ...
Ġl oc
Ġ201 8
ĠQ u
o ok
om mes
J e
p or
po si
Ġpro fe
c ue
ti s
Ġc ert
vel op
oi x
Ġcon se
r ai
Ġa b
Ġ dev
Ġre cher
ĠD E
Ġch er
ienn e
in te
Ġse c
Ġv er
Ġdiff e
b er
6 0
ouve z
b l
Ġtou tes
Ġdir ec
ar i
Ġtou te
tu d
Ġt o
le ment
ti ques
Ġl ong
j a
ann e
ou te
ti vite
Ġ Z
Ġle urs
2 00
d om
ang er
r ic
ine s
> -
Ġ3 0
9 9
tic le
ĠC l
Ġc an
ssi onn
Ġm ain
a tr
Ġc ap
d er
Ġ >
Ġcomm un
at h
2 3
Ġav oir
is me
r en
at ure
i p
ate urs
) .<
c le
c ur
Ġs oit
a pe
Ġs it
ĠO n
ie urs
Ġm ai
vr e
Ġ +
d o
2 7
8 0
A r
I l
a h
Ġfi les
qu er
Ġgr ande
a x
il les
Å ĵ
Ġmais on
Ġp ays
Ġcom ple
et s
Ġs ol
Ġap par
Ġser a
Ġin tern
ĠP e
Ġte chn
iv ers
Ġj ou
e e
oc k
P our
si ble
Ġm ois
cou p
Ġch ez
ĠT he
i ons
s ance
Ġau tres
au se
9 0
ĠC r
Ġp ouv
ĠA c
Ġ op
f or
Ġal ors
v al
en e
O U
Ġs h
c ien
Ġs oci
Ġpar tie
Ġ =
p te
ac te
err e
2 6
Ġpr in
3 3
ur ope
Ġ201 6
* *
Ġf er
Ġ %
u le
Ġpro jet
ati f
Ġ2 4
ĠV ous
Ġf aut
Ġcom pr
Ġv rai
tat s
tud e
l y
2 8
t ant
ĠT e
d ess
ĠCh au
A L
r ation
h t
Ġv en
Ġpar ti
Ġ201 9
Ġv ers
â Ĥ¬
Ġcel a
og rap
u p
g ie
D F
Ġ2 1
Â »
ti er
s tr
j e
ist oire
ĠUn e
ĠN ous
Ġ x
Ġj ours
si gn
Ġ2 5
Ġ z
4 5
Ġs al
O R
i z
Ġc li
", "
Ġv a
ge s
Ġf am
Ġpro f
s ul
ĠE x
u c
r ence
Ġ dom
on ce
e f
am me
Ġsu iv
Ġprem ie
tic ul
in d
con om
h ui
2 9
Ġpas se
Ġdr oit
i o
Ġm oi
Ġp orte
em ple
ag er
Ġa ff
p os
Ġsu p
Ġ2 3
ĠM ais
7 0
v ous
ĠN o
Ġ2 2
ier r
o x
A n
s sion
uis ine
Ġil s
a di
ati ve
ite r
Ġpr om
ĠP h
el on
Ġse m
velop pe
rie ur
Ġtr ois
Ġv oir
p ose
C om
Ġav ait
tt p
P ar
i k
em mes
ĠM on
Ġv ille
Ġje une
ss ures
ourn e
ĠB e
b les
Ġpeti t
Ġvo y
Ġb ou
ĠC ar
p t
P r
Ġau tre
du ction
j ec
a ve
Ġpar f
an che
ab it
ille t
Ġm us
Ġm ise
Ġre tr
3 5
Ġg ar
Ġj eu
cue il
Ġ201 5
u g
olu tion
Ġm oy
A S
! <
Ġ dit
Ġ $
g ion
o tel
ĠT h
i ble
Ġqu and
I L
Ġl i
Ġav is
ĠG e
Ġl ivre
Ġc et
Ġre ste
Ġpour r
Ġjus qu
Ġa lle
Ġtr ouve
Ġm om
Ġbe s
le t
an v
Ġsy ste
C H
le ur
Ġgr oupe
ob il
Ġmar che
au tres
7 5
l u
Ġpubl ic
Ġa me
m a
Ġsu ite
Ġin form
ation al
Ġp ouvez
ri ve
s ente
0 5
d f
7 8
ograp h
en tr
ac t
g ard
Ġtr a
is tes
ĠO r
d ire
A c
Ġch aque
S u
ern e
u te
u el
ĠC o
ĠC ol
cr it
is tr
0 6
ti t
onn er
Ġn ive
el l
Ġch ose
Ġin di
Ġg u
Ġ201 4
par t
eu se
Ġpro ble
Ġm er
Ġtr op
ww w
Ġcomp te
Ġpar tir
ot s
c as
0 3
ĠÂ» ,
d oc
ierr e
d oit
m ar
im ite
4 6
Ġ ide
__ __
t ab
ĠFr anc
olog ie
Ġ doit
au l
Ġsim ple
Ġm is
ti en
A l
Ġpol i
Ġ201 3
A u
Ġs avoir
2 1
Ġn ot
Ġre t
p orte
Ġm at
Ġat ten
m o
s h
c ouvr
is c
4 8
Ġt en
Ġc ours
Ġnom br
jour d
E L
di f
": "
Ġpro te
c ul
oire s
Â «
Ġs or
iv er
ĠP DF
it al
r ement
Ġ201 2
Ġ1 00
0 4
Ġin st
U S
Ġim port
Ġe ss
Ġt ype
Ġs ouv
Ġa ur
in t
ĠPr e
0 7
ĠS i
l s
O M
am ment
Ġ i
ĠE lle
Ġth is
P oste
3 6
Ġv ide
as si
3 8
ac tion
C e
9 5
ĠG u
Ġvo it
it h
0 8
y n
e sp
at ur
a ff
is tre
A C
ĠDe s
a che
Ġa fin
0 2
Ġor gan
r al
Ġv ol
du c
tif s
i tion
r er
Ġf emme
ĠF emme
g or
Ġmom ent
Ġb onne
Ġex pl
Ġc ul
er e
Ġs ocie
tr a
A T
m p
Ġch arge
Ġav ons
i ge
Ġdis pon
Ġr ou
Ġprop os
Ġ '
ĠS h
ĠJe an
j ou
ģ .<
Ì ģ.<
d ur
ais se
Ġrap ide
anv ier
ph one
Ġt our
Ġmet tre
Ġpro gr
Ġo ffre
g u
Ġp ort
Ġf ond
c is
ĠD ans
g ent
Ġo ff
e scri
0 9
c ol
Ġp le
y le
d escri
Ġa vez
ard in
si ons
Ġfil m
t on
il i
ite s
i che
, "
om m
4 4
tr o
Ġju in
Ġre st
i ti
Ġar r
Ġmar s
Ġj am
ĠC an
op h
Ġsou h
ce ption
Ġ descri
Ġnive au
A U
Ġ2 8
m i
Ġ0 6
3 9
5 5
d ie
ar s
I C
al y
Ġl ieu
l us
in ter
âĢ Ŀ
y r
pl ace
u ation
T r
) ;
> âĢ
Ġh o
Ġ2 6
Ġb ase
t tes
3 4
ic k
Ġc al
7 6
ct ure
] <
di d
ten ir
en ter
r ien
ģ <
Ġ dire
Ġf ile
A M
di tions
ol l
Ì ģ<
Ġ ici
n ement
r ique
te m
com m
Ġ dur
Ġ do
ĠP as
I T
Ġm en
ic iel
tel s
Ġmil li
cur ite
ĠS u
Ġpoin t
ten ant
ou n
ce mbre
V ous
ĠF e
z e
I E
op ul
tu di
ĠV e
Ġ5 0
Ġac ce
Ġr ien
Ġf ourn
ve mbre
O S
vr ier
a f
Ġeff et
ch ar
Ġcor r
m on
Ġfor me
Ġdern ie
r il
au d
or ation
Ġt able
Ġs elon
Ġ 01
ri x
U E
it y
r is
c ord
ĠA p
ĠM an
Ġp ense
v oir
Ġs alle
v o
u er
r on
d ec
prise s
dre sse
D E
Ġ2 7
TI ON
pr ie
Ġp df
ise s
Ġch ois
ec t
Ġl og
Ġ dess
4 9
Ġf l
tt ps
Ġb ois
Ġ ...<
vi ent
Ġn ume
F r
Ġ doc
Su jet
Ġb i
Ġm ieux
o f
l ig
3 7
ap p
or i
ille r
id er
d s
tab l
Ġ201 1
> Â«
Ġnom bre
Ġa g
Ġf ais
Ġs our
Ġre sp
t ail
Ġin c
Ġp or
Ġin s
ale ur
v ers
Un e
t out
y l
ati e
Ġc m
Ġpl an
Ġc ode
com p
N E
ĠJ u
Ġal l
Ġenv ir
Ġgr os
Ġch oix
Ġre ce
Ġf ut
ĠS er
Ġg l
Ġser r
uit s
Ġc entre
ati ques
Ġre pre
Ġme ss
sid ent
Ġs ign
am b
Ġau c
pte mbre
to bre
v ir
ar ie
ĠC ette
le x
at t
Ġcont in
Ġs p
Ġjam ais
ĠD u
ob e
Ġm ag
5 6
, <
en c
4 7
ĠS ur
Ġs ie
-- --
Ġprom o
Ġfr e
Ġm ont
f ic
ou se
v ille
pl oi
Ġcel ui
Ì ĥ
b ut
Ġ 000
Ġb as
Ġc eux
er m
Ġ2 9
Ġh um
Ġb ec
Ġap pl
ul ti
en ces
Ġch ange
Ġe u
arr e
Ġim m
Ġa che
ine r
Ġp age
ĠI m
Ġr o
Ġt oi
ĠPl us
Ġsh ort
ven ir
Ġsu per
Ġ201 0
ĠA m
ig in
ser v
EN T
s on
Ġsit ue
Ġav ril
Ġme mbre
sid e
Ġh abit
r it
o te
le urs
ro y
le u
Ġin f
Ġgr a
Ġcl asse
tr er
Ġch e
Ġ* <
Ġs au
ut o
Ġt ot
s ur
Ġac tu
R O
Ġen se
e g
ot o
ser ve
Ġap p
Ġcom b
age ment
Ġsu b
o h
ul te
ati s
Ġpro pre
Ġre f
ouv ert
3 2
as h
Ġbes oin
Ġvoy age
201 7
qu oi
Ġca dre
Ġv endre
Ġr is
u tes
it aire
ĠÂ» <
Ġg en
us s
ad a
3 1
Ġl it
in st
Ġcou p
ĠN oir
d os
ur er
Ġ0 9
Ġp opul
tion n
ig ht
Ġs ais
cas ion
Ġf emmes
? <
C E
ab ilite
5 8
pe s
ĠQ ue
u elle
Ġfac ile
el a
Ġmar que
Ġf ace
e vr
Ġm od
in i
om b
Ġf ai
ĠL E
Ġv ente
d evr
du str
ĠM er
ai d
Ġpeti te
d ure
Ġ devr
ouv ern
O L
Ġm ate
im er
a ces
Ġ0 8
char ger
5 9
Ġex pe
ĠâĢ ľ
ous se
ac ite
Ġte x
N ous
ib u
Ġa sse
Ġphot os
Ġt ant
on te
Ġe sp
A G
min istr
o ge
t al
Ġs ens
ĠM ont
for me
port s
si b
ac ances
di a
Ġn atur
Ġv eu
c ole
ĠA vec
Ġtr ai
ill age
r ents
7 7
s y
Ġcar te
b our
or ite
P ro
eu ses
al is
a e
Ġ ent
Ġpas s
Ġt on
Ġv ue
ic ile
ĠD i
Ġc i
Ġ19 9
eu f
Ġs ante
as t
in c
et t
Ġs tr
Ġb y
s ter
> #
Ġsu jet
ĠF or
o ot
I I
ar m
tic les
b ook
M e
Ġn i
ce lle
Ġv ite
ĠAn n
r ent
Ġre gard
4 3
l ab
ch at
e ff
e urs
Ġ dos
Ġ .<
Ġc elle
Ġre ss
or k
Ġ us
Ġphot o
Ġt a
Ġpo si
Ġh omme
d ate
in form
au tre
ie z
Ġpr is
d onner
Ġf ab
iv ent
ti sse
e y
S E
ar ch
Ġs ommes
u ir
Åĵ u
Ġr end
ambre s
D ans
l in
Ġl ib
I R
sul tats
ven tion
s uite
Ġcom pe
Ġmo dif
ai e
par e
6 6
ul l
Ġ200 9
8 8
ter ie
r os
= "
Ġ u
S i
ide s
d a
ale n
N o
ĠL A
al iser
C l
u ment
Ġn oir
E x
Ġa ou
cl us
Ġc er
in o
Ġpar c
Ġhe ures
p en
pon dre
Ġ4 0
in f
Ġutil is
ĠC or
Ġ0 7
Ġet c
ĠC H
an ti
w e
p les
ĠC he
: <
ail l
k et
A P
ic t
E t
and er
obil ier
Ġg ard
O r
me tt
ĠCh ar
ĠB as
or er
5 7
or g
Ġc ir
ti tu
S e
Ġpas ser
Ġ20 20
Ġj ourne
Ġre spe
ction s
Ġe urope
Ġn ation
d ite
Ġbl anc
u y
Ġun ique
oin t
E T
al on
h ttp
x e
ĠIn tern
ol i
in a
ĠCom m
y p
Ġc amp
O UR
ĠâĢ ¢
4 2
in ation
ar if
Q u
Ġcr ois
ar n
Ġaut om
te ments
Ġcon ten
O n
ow n
Ġ donner
ĠC V
Ġb elle
ĠM o
ĠN ew
alle r
Ġe ur
ĠN ouve
rien ce
ĠF l
ob ile
se au
ist or
oy er
Ġti tre
ay er
Ġchau ff
Ġm ort
Ġpro ch
ure au
Ġh aut
ĠD r
Ġf ont
Ġv al
ĠN e
Ġcontr o
ard s
g le
ay e
Ġjus te
a tre
du it
P h
Ġman ie
mis sion
ĠH e
ĠA d
k i
ĠG o
5 4
ap h
ĠV o
Ġseu l
Ġl arge
ĠCr e
ar b
eu ble
ande s
c an
dr a
Ġap pr
Ġh ttp
Ġmes ure
ĠIl s
ĠH otel
Ġb a
ci al
Ġser ont
Ġj ardin
ur g
ic ite
er c
ge t
Ġan ti
at a
Ġ200 8
ot he
Ġasse z
ĠH omme
id s
ubl ie
Ġl um
O T
Ġl ang
8 6
oc ation
4 1
t aient
g ul
Ġsu c
Ġ3 1
ar ticle
Ġb at
ib les
e sign
Ġs ce
201 8
oy e
Ġt aille
ĠP o
201 9
201 6
Ġp u
Ġs cien
gn e
Ġcor ps
d esign
ord e
D I
R I
l and
ati ves
et tes
Ġvis ite
T e
Ġcol lec
Ġfr ais
d ent
couvr ir
Ġpar ce
M E
Ġ {
ti m
ĠP rix
Ġv u
t ur
os se
au teur
il a
Ġse mble
Ġl iste
" <
v ert
Ġa gre
Ġre v
d est
ourn al
c a
8 9
Ġqu oi
Ġpoin ts
Ġa s
ĠM a
le ve
Ġan im
Ġpar ten
d en
Ġpro ce
at oire
n ov
pon se
Ġre comm
b all
av ant
Ġpl u
Ġpr ive
ĠR en
i ke
H o
rie ure
Ġr ue
o ti
o les
Ġ tes
Ġa i
Ġm m
5 3
ĠB ou
Ġl un
Ġl oi
i ance
ole il
7 9
Ġs oi
Ġr om
sti tu
f ace
m m
Ġser ait
Ġ ord
Ġs aison
ud e
Ġbl og
R A
ag it
Ġ Ð
Ġo pe
Ġw ith
i di
Ġf eu
p as
Ġm ulti
> (
Ġs ac
Ġaut our
al og
Ġdev ant
Ġ id
r eg
por ter
ĠC our
Ġ tir
Ġz one
du l
o ite
Ġar rive
Åĵu vre
is h
Ġle t
Ġc ade
Ġdis t
Ġa y
rie l
Ġmar i
Ġr aison
aid e
Ġh ommes
an a
ĠU S
Ġn uit
ĠO u
te au
Ġad ap
or n
' ,
ren ces
Ġjeune s
Ġ dest
p end
C on
' s
ĠS am
6 9
Ġch amp
Ġw eb
Ġb out
Ġl ie
Ġb ut
ec tion
s ence
Ġst yle
h ic
M ar
ri ode
Ġrec onn
ti le
er a
Ġs o
ĠH o
Ġpl ais
Ġc le
Ġv oul
ĠE m
ĠC as
ig ine
une s
ĠM al
jou ter
Ġm atie
ĠÂ» .
8 5
Ġpos te
Ġ design
S t
tr ait
ch arge
1 00
Ġfin anc
Ġp ap
Ġpo st
ĠR o
Ġfor ce
Ġterr e
Ġor igin
in ce
te x
ac ce
p ubl
tude s
am a
y si
Ġm ot
Ġch em
a w
og le
an o
Ġen g
Ġr ac
Ġsu ff
on y
m en
n i
\ /
ĠR ou
Ġ date
Ġs us
Ġe ux
ren tes
> "
ur b
bre s
s ite
enne s
Ġsite s
B r
ĠGr and
Ġpubl ie
Ġe lles
Ġma x
ĠS ac
ri f
ot t
or me
Ġ 00
Ġl ivr
Pr e
V oir
Ġin d
Ġ }
s pr
Ġeff ic
Ġ; <
Ġpeti ts
t oi
onn el
Ġ6 0
ĠL un
v ant
Ġma ch
pr ime
Ġc ause
en f
ĠE T
Ġat te
Ġj eux
r ale
eu ve
t aire
ch ange
ĠM aison
c ar
b ec
A p
ĠÂ ·
que l
5 2
Ġs en
ĠB el
if ie
o od
Ġret our
Ġar tis
ĠE UR
in ture
Ġf ort
pl o
ĠV oir
Åĵ ur
Ġl ance
un g
ig ue
ti ent
Ġ0 4
C I
Ġ )
5 1
Ġa j
ur ance
m l
o o
au che
6 8
Ġmon di
Ġ dure
6 7
ĠCon se
os s
vi du
Ġl imite
Ġalle r
Ġpr ise
ie ur
u les
or gan
ti ers
ch i
Ġa li
ci pe
i les
Ġterr it
du ire
id ent
ĠM ode
ol d
te z
ĠS te
Ġg ens
Ġ200 7
aul t
e sse
Ġsor tie
Ġc ri
vi ew
Ġm or
an k
m ine
en ir
at ten
ĠCe s
Ġdou ble
Ġb ain
ĠL y
Ġque s
ex e
G r
Ġp ose
Ġmoy en
Ġch ef
ĠCh er
ul aire
s ie
vis ion
pr imer
Ġay ant
ĠB ar
ur ent
er ce
o e
Ġ0 5
ĠC ons
ĠV en
C ette
cu pe
ĠI s
ĠâĢ Ķ
r ite
ow s
. ,
Ġb al
ap pl
Ġpl uto
Ġch ar
Ġlong ue
ĠA ir
6 5
Ġou til
ot te
Com ment
B on
ticul ie
ĠM ich
ag r
r ist
Ġeur os
** **
be s
ĠP oste
V o
Ġf ix
Ġy ou
gl ais
isc ine
oti di
r ess
Ġf ille
ern ant
Ġh y
Ġchose s
ner gie
ĠA ss
Un is
Ġrem pl
Ġpar le
Ġple in
Ġsoci al
Ġcon st
l as
[ ]
Ġqu atre
qu ent
A TION
en g
Ġou vr
im um
Ġl ire
anc er
ĠS p
Ġcan did
Ac cueil
Ġn u
aly se
> â
Ġqu ar
Ġc in
Ġauc un
y ste
ie lle
b um
g ue
ĠA b
er te
c teur
on ge
Ġgar an
ar a
Ġ[ ...
ĠM ai
l ic
ais s
du e
Ġt om
ot h
ĠL ou
Ġo ffr
ĠP ierre
A B
Ġb an
ist ance
Ġau g
Ġob jec
ĠR E
ti v
cr an
8 7
ve ux
Ġ! !!
ĠC a
Ġveu t
he ur
cr ire
av ais
k a
P E
? ?
Ġac comp
me di
ĠE l
ĠE N
Ġ Î
av or
Ġgrand s
dr oit
Ġ0 3
ir a
Ġg az
ai me
Ġs oir
A d
Ġfr om
Ġl oge
ul t
it ation
ac er
A D
ar y
g ique
aise s
Ġdroit s
Ġh aute
Ġa ider
Ġfi ch
ĠE urope
cre di
par er
Ġla isse
au v
agn er
Ġp en
enti el
Ġc entr
man che
ĠP ol
sy ch
Ġ0 2
Ġpr end
Ġch ac
ĠBl anc
> [
Ġind e
sul tat
Q UE
im age
Ġa tt
Ġv aleur
Ġp atr
c s
f s
e ments
spr it
Ġn ature
esp ond
Ġn av
si er
h ttps
l an
ĠS a
Â ©
7 4
Ġpro x
Ġre ven
ain te
V E
i ment
Ġse in
Ġris que
Ġgu erre
y s
ĠâĤ¬ <
cis ion
f ort
Ġh ttps
Ġen tr
v ie
Ġvi ent
c our
ð Ł
ĠP er
is ser
I G
ade s
T he
i quer
Ġseu le
6 4
ĠEn tre
ee k
Ġl oin
ĠB on
sp ir
ach at
Ġap pro
ĠP ort
ab e
i onn
" .
Ġch i
au me
tu alite
ĠV ille
y e
Ġconn ai
ter r
aur ant
Ġac c
P S
Ġenf ant
dition n
Ġb ord
in aire
bour g
Ġcl ub
ĠV er
Ġp ou
Ġc ate
Ġsu pe
Ġpos sib
Ġm erci
ĠD ou
m b
Ġma j
s que
Ġfor um
Ġ3 5
c ide
ĠD is
ti ce
Ġs tru
c or
Ġt ard
ĠA ut
Ġpl ate
P lus
om bre
Ġla que
l l
R AN
conom ie
qu ie
Ġe spe
vi ce
ĠF emmes
I M
Ġren dre
Ġrou ge
Ġl ien
Ġs igne
ĠD U
Ġim age
ĠC ap
Ġ der
at ch
I ER
our ce
8 4
s u
Ġeff ec
ĠS on
ÌĢ ,
Ġf au
P ublie
pe le
on ique
ig h
C r
k ing
Ġ3 9
l d
t ape
ven ue
atif s
Ġgen r
Ġgenr e
iss ant
ou p
jet s
m and
201 5
Ġt arif
er ie
oy age
en tes
ille urs
Ġp ati
ĠPr em
b at
Ġdeux ie
Ġt aux
ĠCan ada
it aires
f ois
of t
qu ant
qu is
Ġr oute
Ġau pre
Ġmat ch
Ġsy mp
ĠT out
Ġp ai
c m
M erci
th ode
Ġcon v
M ais
ap on
ale r
Ġdis c
Ġte lle
De s
ĠD im
ĠV i
r ature
en tif
ou e
ĠI N
Ġcli ent
ib li
our ces
n o
Ġcl assi
con tre
ec te
ti ves
Ġter me
Ġem pl
Ġph ysi
it ter
Ġmon tre
8 3
Ġm ouve
Ġsec ond
or igine
Ġv ais
ĠA pre
in dre
ĠP age
ce p
Ġdis tr
a pre
ser ver
Ġ| --
ic ol
ĠT ri
p g
Ġcl im
h omme
Ġb ureau
7 3
ir me
Ġb ar
Ġs tre
Ġli bre
P e
l im
Ġm as
z z
ag ue
ar k
og r
il m
à ¸
en vir
a tes
Ġ8 0
ous s
Ġp eux
ĠPh il
p is
u il
Ġan c
Ġcar r
Ġh istor
Ġp ot
Ġp an
Ġcade au
ex pl
Ġa ide
i ces
Ġstr ate
m oire
L A
Ġpos se
C ar
ĠM ag
t in
Ġst ock
Ġt end
I D
Ġsa medi
Ġfer me
em ploi
u st
ĠF in
le nt
ul ture
I B
tern e
am m
' '
f ait
Ġac cord
ac ter
7 2
S aint
gor ie
ci f
U N
O P
Ġpie d
Ġou vert
Ġsal on
tem ps
ienne s
Ġn orm
ĠC am
ĠS al
ab ord
S T
Ġ4 5
Ġc y
p our
r op
ĠB er
fr ique
g les
ap os
ons able
t age
enn ent
ĠC entre
Ġarr e
Ø §
Ġp ierre
Ġlivre s
ĠL i
h um
d on
t a
vite r
M ENT
Ġsour ce
ģ -
Ì ģ-
Ch au
tail s
Ġt ourn
Ġcol le
ĠJ eu
Ġsup ple
ĠS ch
Ġaur a
ĠW eb
Ġin ves
g o
Ġ7 5
v id
le n
Ġim ages
Ġqu al
ĠS tr
Ġchau d
Ġv ois
b i
g al
Ġ Åĵuvre
O C
> >
ub e
pos er
ing s
( '
Ġaut ant
p he
ce l
201 3
Ġs av
y th
ieu se
Ġoffre s
b ou
Ġn euf
ex pe
Ð ¾
on ces
Ġs oleil
ill a
201 4
Ġpro che
C ont
Ġc iv
in k
ĠM erci
ĠC al
Ġex iste
6 3
Ġrespe c
Ġre pr
Ġpar mi
o ie
d el
201 2
ind ows
IN E
ail les
ac c
ĠA t
H otel
Ġc Åĵur
u ments
ĠN ord
b y
Ġpar ler
ĠS E
agn if
Ġadap te
h en
ver se
ĠMar ie
ĠR ob
Ġlun di
Ġe sti
Ġf avor
M A
Ġv ir
ĠS ud
ĠT our
An n
Ġsuc ce
og n
ĠD ieu
u al
Ġauc une
Ġb el
Ð ¸
on om
Ġ9 0
Ġc at
Ġaur ait
9 8
gl ise
Ġmag as
Ġv ia
ĠBl ack
Ġ ir
m age
Ġv ont
ibu tion
Ġc am
Ġpe au
Ġf ig
Ġh or
o ise
Ġ5 00
a j
Ġte st
Ġmat in
j pg
Ġcol lab
lo ad
Ġf orte
Ġa gr
ĠV ente
Ġr ais
in ateur
asse ur
ip pe
pis ode
m ie
Ġass ure
ot tes
Ġsy n
ĠD ES
{ "
Ġm ic
asse s
Ġpo ids
ienn ent
Ġac cue
Ġt op
Ġa ime
aille r
ĠC ode
ĠTr e
6 2
ĠS ep
ur ier
I TE
c ri
ĠB our
m ont
e sc
ĠNo tre
Ġm ots
Ġmal ad
t ent
Ġman que
Ð °
pe c
Ġpre sse
Ġpr est
n ements
ff e
S ur
m art
k ets
tit ue
rit able
ĠG ar
ĠB eau
Ġspe ct
am ique
Ġj ur
Ġtex te
ĠC ela
Ġm ur
Ġs omme
Ġp il
Ġc ine
a ter
ois ir
ten tion
Ġou i
ĠR oy
cess us
Ġob lig
Ġim me
Ġ200 6
ag s
us ion
Ġs port
Ġpr en
c ise
couvr ez
>âĢ ¢
ap pe
ĠB en
is ter
g lement
oun d
im o
Ġtr i
Ġy eux
ÌĢ -
ou tes
8 2
Ġim p
g a
ĠM in
tu elle
Ġp a
ĠB leu
oin dre
Ġc it
Ġpar is
oc r
Ġvi ole
ill on
i tre
p endant
d an
p ann
ar ite
ale nt
7 1
ĠD ir
Ġp ages
I RE
Ġex te
n ce
a ment
ĠB ois
sti val
ĠT ous
r ations
Ð µ
che z
ĠS ec
tie s
ad er
Ġam is
di ere
as te
Ġg ou
adi o
9 6
ĠÂ» .<
as tique
am mes
Ġ7 0
Ġe au
Ġv ivre
n et
oi le
ĠTr ans
Ġat tr
ĠGr e
Ġe s
ac le
Ġgard e
ou x
Ġdou te
Ġsu d
ĠA lle
Ġtem pe
ĠL ong
Ġjou e
op he
po que
T S
Ġm euble
oir s
pl ique
Ġm un
Ġass oci
ĠC ont
ĠT V
Ġg amme
ĠL ivre
9 3
Ġl ut
oh n
n ous
em pl
ĠT aille
Ġp sych
Ġ| |
am ing
am our
ac cord
Ġmus ic
ul ation
e me
one s
Ġdur ant
dr o
Ġg auche
Ġchac un
Ġf ils
Ġcom par
an ie
Ġper mis
Ġmil ieu
ĠJ ac
Ġh au
d onn
Ġapp el
z a
or r
Ġmo teur
F F
9 4
ĠS A
Ġap pre
Ġr oul
iss ent
Fr ance
an ch
ro w
i i
Ġlum ie
ĠFr e
Ġdi vers
á Ħ
Ġen fin
n age
ac r
Ġv oix
ci alise
y m
t he
orm ais
ar gent
Ġjou er
ĠS and
Ġf ene
iv ant
R ES
h abit
Ġlet tre
Ġc op
c ouver
ac tions
ĠCom me
ier e
Ġm auv
Ġappar e
ux e
ap par
á ħ
it te
i um
c al
ĠA U
Ġs oire
c ie
ol ie
S S
A pre
s ormais
ĠF ace
Ġ3 2
k m
Ġs atis
e vient
8 1
t or
G E
Ġâ ĺ
d evient
Ġ3 6
ffre s
sid ence
are s
ĠO ct
ib ilite
onde s
Ġdi ver
a une
i ent
ĠCh ine
ĠB ien
ine t
si bles
Ġpro v
Ġs col
ir t
Ġtr aite
ĠP ie
Ġsu ivre
M on
ĠT able
ĠS cr
ĠS im
Ġcon fe
Ġte l
tr ice
Ġl u
ic o
Ġno te
ĠE sp
du s
E urope
9 2
az on
Ġdir ige
own load
Ġen reg
aud e
ĠV al
ar me
ic a
cl ar
ici p
rie s
n om
ĠMon tre
i an
g h
ĠF orm
Ġam our
c er
se aux
a mes
\ "
9 7
Q U
Ġjeu di
ge ment
ĠW e
Ġtr ain
l ier
ĠD om
ai gn
ti tion
u ff
Ġc ro
ti ste
cl air
s enter
Ġpro gre
Ġc uir
Ġre ster
end e
p ert
cr et
Ġcin q
ĠM ac
se ille
Ġou ver
ise z
s ir
Ġw ww
e spe
ĠA g
Ġaj oute
ĠLy on
Ġs por
B l
ik i
inst all
on dre
Ġse x
Ĩ Ĵ
Ġ it
00 00
Ġven ir
alog ue
ht ml
Ġm ine
Ġdr oite
( "
ĠDe sign
ur n
c ont
un is
P l
Ġh ors
20 20
us ine
ON T
n el
p ute
atr ice
ĠA ff
Ġm agnif
k y
ect ue
ĠB al
ĠD an
ĠS alle
Ġab s
m atique
ĠE st
Ġmar di
Ġaut or
and onne
Ġa ir
+ []
pre ss
Ġa e
] ,
acte z
un ion
G e
Ġre j
k er
ĠN ike
Ġs olu
Ġrem ar
mett ant
e ven
ĠCh rist
g ime
toi les
Ġcel les
ĠM us
le y
C o
je un
Ġcul tur
b ert
al ie
ĠR om
Ġco eur
Ġv erre
u ses
Ġs ort
F R
al s
Ġcomp os
che ter
ĠP C
Ġb ud
or y
ow er
f l
Ġb leu
T ER
6 1
ĠI I
ap pr
Ġpo e
d am
i cher
201 1
tif ic
is ant
Ġle quel
eu vre
m ail
o ve
Ġin iti
Ġ @
Ġs enti
S I
A vec
Ġle n
A ss
Ġin vite
Ġap pele
ic s
ĠSu per
Ġc ab
Ġrap p
ĠBr e
Ġen tie
se l
L ES
Ġm obile
ten u
ĠL ire
Ġim pre
9 1
enc er
Ġw as
Ġmoy ens
did as
Ġ ðŁ
Ġex per
Ġfix e
ĠC ou
ĠP AR
agn ie
Ġv ari
ique z
c les
O u
ĠV ol
or dre
Ġtot al
ĠGr at
Ġc ur
arm ac
ass age
Ġsuiv i
f ense
i or
Ġcou pe
Ġrel ig
ĠJ an
Ġlang ue
Ġsou l
ĠD el
f i
Ġl ist
air ie
Ġ new
Ġv arie
ate au
ric ain
Ġple ine
Ġfai tes
ĠB o
Ġf ore
om pe
ou er
m agne
Ġch ev
erci al
cl are
m ente
ĠCom p
Ġv it
en er
gul ie
Ġ donn
ĠM ax
Ġv in
E tat
ĠJ ul
!! !!
v ol
Ġst and
ar rive
r y
Ġl y
Ġgu ide
Ġre gr
I V
Ġgr aph
Ġw eek
Ġar e
que t
ĠM A
Ġ3 3
di o
ĠS ite
ten ces
ter s
Ġpr iv
vi ces
Ġch a
g is
f er
al se
ĠMich el
C O
Ġac cess
ĠS T
Ġ200 5
ĠC onc
im m
Ġform at
ĠI d
P rix
Ġ3 8
in on
Ġ200 0
ĠA N
Bon jour
o ff
> |
ĠCh a
ot on
ot os
Ġdirec t
cu p
Ġf our
ĠÎ Ķ
Ġch oc
E UR
Ġv ar
ou d
Ġre cr
Ġs an
p uis
ĠS port
Ġch ance
us tr
Ġre le
Ġsoi ent
ĠO b
l ie
il li
Ġt oit
Ġou bl
Ġw h
ac cueil
Ġs ang
Ġque lle
Ġ q
Ġnav ig
Ġv end
I d
d even
or ld
A F
Ġs ait
00 3
ĠM as
>âĢ ĵ
Ġn ett
mett ent
ĠP orte
p ond
ĠM or
cu le
ve ille
ĠÎĶ E
Ġr ose
e vez
ti tude
ĠP al
aite z
U M
d evez
Ġpap ier
i al
U L
et h
Ġh eur
Ġc u
ĠN on
Ġcal me
Ġ devez
ro id
" -
D u
ab ble
Ġlib e
esp ace
y d
he ure
met tre
ĠCh amp
Ġn ord
orde aux
Ġrend ez
e venir
b o
A m
b on
Ġrom an
Ġa chat
r ant
Ġm anger
ax e
ĠS pe
ĠG l
d evenir
Ġren for
ir m
cien ce
in ge
n ie
otidi en
Ġtype s
b ar
ĠV is
201 0
Ġesp ace
ĠAl ors
ĠGo ogle
cher che
ĠNo e
Ġtr ouv
un ivers
ig er
Ġaut o
ĠR ec
Ġv ert
p ital
ti ment
ist ant
Ġ ine
Ġl ieux
ĠS ocie
s ume
us te
hic ule
a vec
Ġb oi
S h
Ġfr ance
d yn
p x
Ġdis par
du its
tex te
ĠB i
IL LE
Ġdi v
Ġb ook
ĠS ol
Ġst at
Ġf oot
Ġ deven
ĠR ose
Ġoutil s
av id
Ġappl ic
Ġv eux
Ġlors qu
li orer
T C
ĠF ab
ĠC uir
Ġ3 4
rop ort
Ġca fe
celle nt
Ġdiff ic
Ġenv ie
f lex
tem por
Ġ3 00
Ġtou che
om p
Ġchem in
AN T
ate d
oule ur
uis se
ĠW h
ur a
om o
ĠA vr
sse s
b a
ĠP aul
T h
ti me
aur ants
Ġv ic
il an
ĠIn ter
g y
ĠP ers
Ġ4 8
ĠS ans
Ġin cl
k s
ĠT err
and r
sse mble
ari at
T M
em ment
se igne
id ite
l ais
ve ment
oule z
ch ite
du ite
Ġa dul
Ġcap it
Ġv illes
Ġs oins
ss ure
fin i
ch au
B e
m s
Ġla b
Ìĥ Â©
our t
i ant
un ite
... )
Cr e
Ġr ob
c teurs
ign er
ure z
Â» ,
ĠR ue
ti se
un d
Ġr iche
C ol
ct ures
jeun er
; <
Ġconn u
IN G
Ġhe ure
Ġc ent
Ġgr e
if est
Ġre pas
ĠM ic
ĠL ES
Ġal tern
Ġbr e
av is
Ġs c
AG E
Ġpro b
ĠP RO
ib ue
olog ue
vo que
Ġloc al
ĠP ays
tru ire
A t
ern ie
o si
gor ies
m ment
ic ien
ĠA R
E U
Ġs ix
Ġagr ic
terr e
ĠJu in
Ġb ons
ĠA me
ket ing
Ġem ploi
Ġcour se
Ġs orte
ĠL ors
Ġpuis s
oc al
ur ant
Ġr u
Ġb our
eu ille
Ġam b
Ġ dyn
ol f
un ction
ĠT op
M ess
Ġg agner
Ar ticle
ĠH aute
ard e
Ġti ss
ol s
t y
Ġ dec
O G
ĠM AR
ab il
olog ies
acr e
n aire
Ġsol d
dustr ie
Ġâ ĨĴ
fr ic
Ġeng age
Ġ4 4
Ġpour ra
ĠAn d
ĠD ec
pann age
al a
ve ur
Ġmal gre
Ñ Ĥ
Ġr a
ti te
H e
ten ce
Ġper man
Ġsim il
c ons
Ġm ent
ĠJ ohn
ass oci
ch ant
Ġdev is
Ġte ls
u ler
Ġcou ple
ĠA insi
g ies
Ġe sc
v u
us h
Ġn our
ue st
at ures
isse z
Ġdou ce
Ġp al
eu bles
qu ili
E m
Ġatten d
200 9
qu ence
sse ur
ĠLou is
l on
u els
pr en
r esse
ĠH er
l ange
u ts
c k
us er
Ġ Ì
Ġpl age
ĠIn st
p ens
ĠT oul
us se
Ġch at
ol a
Ġfilm s
Ġa ction
U B
ĠC OM
ĠV ie
Ġlit te
C T
O B
Ġal bum
di que
ĠCl ub
c ent
Ġ3 7
tudi o
ĠR em
Ġ4 2
Ġfam ili
au g
Ġam i
Ġpor tes
ĠN ov
di as
ĠP ubl
o ffre
Ġ iss
ĠR obe
pon ses
ĠRou ge
ĠÂ °
Ġ da
Ġb onnes
d ata
ĠP eu
Ġ1 50
d anger
ti les
Ġg o
d eb
Ġm u
Ġch ai
= =
ĠL ib
ĠGr ande
Ġr ay
p ing
icol as
ve ill
tr age
ci per
Ġcr ise
Ġl im
Ġac ces
Ġk il
ĠA M
Â ®
am i
m oins
ogn e
Ġ4 3
tr ange
urg ence
ĠQu el
t ais
Ġh as
ri ce
cip al
h y
AR D
m ocr
onn age
Ù Ħ
dre ss
ĠVo tre
olu me
Tr e
ĠL u
ĠTe chn
Ġcour t
Ġcon ce
ĠT u
Ġoff ic
Ġ danger
en ch
Ġcons ul
tionn e
E M
iciel s
S A
ĠPl an
Ġil lus
ur ation
quipe s
tal ie
p in
Ġcl air
S er
Ġgl ob
av ait
si f
Ġcar tes
Ġconc ur
ĠGr is
o z
Ġpe ine
ill iers
mar che
Ġ200 4
am s
ĠN os
ĠL igne
ai tes
ĠP atr
ent o
IN T
Ġv ict
Ġb roy
an im
Ġentr ai
li ge
Ġsatis f
pl ay
v age
t ation
ĠE tats
ph p
Ġcomb at
Ġmon te
as tr
Ġv oulez
Ġb io
ĠF er
oy ez
cou nt
ĠC et
Ġpl at
h or
n elle
ag on
Ġ dan
or mes
st u
Ġe lectr
Ġt ourne
Ġav ance
a dresse
ons ieur
il d
is ateur
imo ine
ath er
c y
tel lig
v it
ĠT w
ĠS an
Ġcar rie
o om
ĠM od
les s
V e
Ġ5 5
Ġles que
Ġ/ /
ĠO ff
Ġob jets
Ġse p
ĠComm un
ic al
v a
y a
ari o
ĠM ad
ch age
ole t
sti ques
c te
Ġex tre
m ps
Ġth at
E lle
ouver ez
Ġm ains
o st
ĠJ ardin
Ġm i
h r
ĠH ommes
E st
Ġcit oy
Ġsuff it
ĠS tre
T out
Ġtoi le
^ ^
un n
Ġfai ble
Ġpe ur
j u
h a
ob jet
tu er
ale urs
Ð ½
v ue
dess ous
Ġsor tir
Ġpie ds
is tique
ti enne
Ñ Ģ
ĠC D
ign on
Ġdi x
Ġfond s
ec teur
I P
Ġ- -
En tre
dess us
oph ie
b as
um er
I A
Ġpr im
Ġch ans
ore s
Ġad op
... .<
f t
Ġe aux
as ser
am en
ort h
in ique
anti te
Ġvo ie
l ande
jec tif
v olu
ĠG ra
Ġjur idi
ou ille
Q ue
Ġ[... ]<
ĠEn f
l am
r oule
tel ier
ol ation
our d
Ġph il
ģ :
e sprit
Ì ģ:
Je an
H E
ĠM ain
ĠM use
inte mps
A g
dec in
ex te
id enti
Ġm y
ien te
I s
Ġ ital
ĠM en
in n
C A
Ġdess us
200 8
d esc
ĠMe s
ĠPe tit
onom ie
ad ap
~ ~
N ouve
r s
Ġm ir
Ġex clus
a a
ire s
Ġco ord
if ic
en du
s il
Ġdi men
ĠÂ ©
Ġm use
Ġpol ice
F A
Ñ ģ
ale rie
% <
im port
chi ves
ĠP S
Ġf isc
r u
ĠS n
ĠR est
ĠMar tin
uss ie
Ph one
ch et
ĠA lex
Ġtom be
it ch
" .<
Ġm ob
Ġ urb
ĠA ou
co les
ĠA L
cou te
Ġju ge
dic al
tif ie
ĠC er
Ġfil les
ĠB ern
Ġparf ai
iv ie
Ġb anc
Ġb elles
ar g
an ches
Un ivers
ane s
Ġper te
Ġdem i
Ġgr is
ĠH D
Ġsu cre
d oll
ĠS alon
Ġloc aux
Ġpr os
ĠG al
Ġin dis
Ġc uis
all on
Ġp ois
A lle
ĠC O
Ġb ande
Ġch ap
is ent
Ġch r
Ġ[... ]
ĠY ork
Ġl ic
Ġ if
ĠS k
Ġbe aute
N e
at or
B ien
Ġmin i
Ġtr ou
ĠQu and
terne s
Ġp au
c it
at ing
r ateur
am an
at he
Ġeff ets
s tru
Ġgros se
} ,
Ġpor ter
Ġv ou
Ġin ten
ch elle
ber g
ol y
at te
Ġins tru
Ġmode le
cess ite
li p
s tes
ĠC amp
C omme
oisir s
Ġcarr e
l ai
Ġw e
vre s
f le
enf ant
im pre
ĠT ra
Ġc ite
Ġrem ise
ra e
C C
Ġh ab
Ġmic ro
Ġvo ila
usine ss
ĠY ou
au s
Ġr obe
ill y
di ate
ouvr e
ĠB y
hic ules
Ġ doll
ĠTr av
Ġ del
Ġc oin
ort s
Ġn ais
Ġar me
ĠAp par
im ages
Ġvo te
Ġse pt
Ġmar ch
Ġre pro
ĠD oc
and is
Ġper dre
AN D
Ġf all
Ġ )<
ĠE r
app el
im porte
Ġim pos
ĠP L
erci ce
Ġpeu ple
eur os
Ġop tim
et our
Ġnom me
ĠC ON
IL L
ss age
ig r
A Y
ĠV ide
site z
V D
line s
ĠO f
âĢĿ <
I X
ĠC oupe
ĠFor um
I m
agn os
CH E
Ġvo let
ur l
Ġf ant
ti an
en v
D ep
ĠSu jet
in ois
m enter
Ġh ui
ap is
ograp he
Ġch ien
Ġquel qu
anne s
ct or
Ġan cien
ĠF ond
or ie
ces se
onn ages
Ġpol y
et agne
b it
ĠM euble
ĠGe or
ĠAr t
ĠC le
Ġy our
ĠD avid
ĠIn form
Ġbud get
ĠS uisse
ĠM onde
oi ff
O ui
r ou
S P
t op
Ġcon ver
ĠT ur
No tre
Ġfab ric
Ġcomm is
Ġdem and
ĠM et
Ġv ent
in ves
dr ait
Ġp i
s us
ĠA vis
Ġpour su
c at
am ps
> *
Ġb ains
tr op
Ġven tes
end s
T A
cip ale
Ġpos er
r ir
Ġb oule
ĠM y
gis l
at aire
t aille
Ġ4 6
d eme
ĠPh oto
ĠÌ ģ
Ġmo tiv
Ġbi ento
ĠAl l
andr e
ĠG R
Ġou tre
yr e
is mes
ĠMe ille
ĠS ainte
s ons
b ox
n a
d ela
Ġ4 9
tir e
ĠS ante
jou x
Ġr oy
3 00
Ġf aite
ro che
Ġm g
onn elle
Ġcan al
Ġf ou
E sp
Mess age
Ì Į
M o
P L
O D
Ġder rie
ĠT o
or a
P as
n ull
P ierre
ĠE ur
celle n
Ġ deme
D ate
im p
du le
ĠJ eux
tr y
l ant
u ations
Ġpl aces
Un ion
al ons
Ġf aute
sign e
Ġpr i
Ġth erm
ĠQ ui
Ġcir cul
Ġb ibli
uite s
Ġti t
ĠCh ris
Ġ1 20
Ġs te
ĠJ ose
Ġp ayer
hui le
Ġ6 5
Ġ200 3
ag og
ĠP ant
ol at
er se
ĠAnn e
A V
Ġt ente
ĠD en
ĠCh em
ĠB an
Ġ4 1
st in
iv ier
in di
ĠDe puis
Ġtr ib
ĠD em
Ġâ ľ
Ġvo ici
ri aux
l og
Ġter mes
c ident
Ġr ange
Ġdou che
Ġchaud e
Ġu tile
sp ire
Ġe l
ag ra
ĠC E
s ol
er ts
ĠF ilm
Ġfr uits
ĠG i
Ġpen ser
a el
d ois
Ġ4 00
it a
Ġvis age
o que
Ġfin ale
Ġzone s
T ype
T T
Ġ! !
Ġca che
Ġmise s
al d
ĠL et
ĠM E
ass in
os er
Ġfer a
No tes
Ġ desc
ĠE ss
ĠS ou
g i
m ais
r aire
Ġtarif s
ĠE d
al iste
rie ux
onn aie
a vez
C he
] .
Ġchois i
nt he
Ġpas si
armac ie
Ġnouve l
ap er
Ġcl aire
n ey
ĠD eux
L ors
om as
om n
ĠO l
ten d
e h
Ġl iens
ĠCl assi
ondre s
ric aine
Ġl ait
ĠR el
ĠA li
ĠH en
it t
ssi ons
P R
ĠH y
at oires
Ġalle z
m iner
Ġlut te
Ġ deb
onne ur
b ack
at tr
ac ts
Fr anc
OU S
Ġch ron
ĠC ep
Ġv err
) :
int age
Ġp ert
ti ble
ti mes
rif ier
inf o
Ġm obil
Ce s
ome s
ing t
Ġar t
T ous
Ġs oin
expl oit
du ct
ux elles
Ġen tier
Ġf osse
m as
Ġbou che
dro id
Ġim ag
d its
h iver
ite z
( );
ĠC L
200 7
stitu t
am ine
sent ant
ail s
te ction
av ier
Ġim pl
ĠO p
se t
ĠD ro
L ire
Al ors
ĠVo ici
A b
>â Ĩ
di v
Ġesti me
ĠS c
ĠJ apon
Ġgard er
d y
r able
O b
Ġf onde
Ġ6 4
Ġt ent
Ġp ens
au tes
an i
tif ique
A ff
ou che
Ġb aisse
" ).
' ).
Ġh ar
ĠA didas
Ġfr ee
ort able
Ġr oule
err y
Ġfor mes
Ġsy mb
Ġ ^^
ĠH ar
Ġprof il
g in
m ir
ind ex
ĠL uc
tis me
ay ant
. )
le ts
an dic
em ples
ĠA v
Ġser vir
Ġligne s
u aire
t aires
or is
Ġf leurs
D i
Ġ err
ol ique
ĠP uis
Ù Ĭ
cip aux
Ġn et
ra les
Ġla c
ĠS y
ĠA chat
Q uel
ĠM ur
ĠPro v
ĠE lles
ini um
ill ir
] +
Ġar rie
Dep uis
h i
Ġ ....
vis or
UR E
Ġ5 9
Ġjou eur
g ions
Ġm and
ĠE sc
/ <
qu ences
cr its
M S
j i
Ġfin al
fic ier
Ġren tre
tr ine
P A
Ġcon j
az ine
ĠS or
Ġs aint
p age
at in
ã Ĥ
Ġ4 7
ĠG ir
ĠU N
ind e
Ġper du
Ġdi min
F i
on ter
Ġr av
ex t
iz e
De scri
ER S
b an
and a
ĠT outes
Ġan aly
Ġ200 2
Ġhy dr
ĠIn f
Ġfab r
ĠS il
ĠGr oupe
ĠBl og
Ġpl ane
l is
ten sion
ĠL ab
av al
ĠRob ert
ĠId e
Ġqu ant
k o
ti ens
D is
Ġsu g
Ġst age
g en
l or
Ġk g
lu ence
ĠO ui
Ġr oi
Ġs ent
Ġli qu
ĠT oute
Ġau th
ourn er
ĠMar oc
u ble
Ġte le
ĠS w
les se
an alyse
isse urs
it ann
. -
ĠAn dre
ĠIn d
isse ur
l ing
ĠS yste
Ġm ens
si ve
Ġb us
on ie
5 00
Ġ die
Ġco ok
L iens
c olog
ch an
a ke
h er
Ġb asse
al i
ĠL um
ĠF R
ĠPro fe
ĠM aur
Ġv ise
Ġcr ite
Ġ2 50
Ġgr ave
mo ign
Ġ ul
OR T
ĠFl or
m arr
ri ge
ĠS ign
Ġban que
Ġ use
Ġin nov
ĠB ain
Ġr yth
I F
ĠM c
ille ts
omb ier
ĠL o
>âĢ ľ
Ġ ..
ĠM ay
di er
Ġren du
Ġre d
d agog
Ġv iv
Ġpl ans
g ues
ang ers
| |
ais sent
ĠAm azon
av ance
t all
Ġb le
ĠL ivr
od y
om ber
tr anger
r iques
um inium
ar o
Ġsol id
d ing
al ien
Ġoffr ir
Ġcir c
p ie
ro om
ch ent
Ġfut ur
âĤ¬ <
ĠMar c
ich el
dite ur
l it
Ġly ce
Ġon line
n alite
ign y
ĠL og
bour se
ĠC ab
Ġm ac
d avant
ent ure
Ġar gent
Ġte lles
Ġch an
ionn at
ĠG en
tir er
Ġ- <
tr ise
Ġgar c
ĠAn ti
Ġbr as
Ġa it
ch o
Ġse cre
ros oft
ress ant
A me
B as
ch ets
ĠB ottes
Ġs mart
Ġch ante
met ure
ĠSt ar
Ġ davant
ĠMar s
ĠH aut
Ġt andis
IS E
á Ĩ
u k
ĠS elon
ĠT ype
Ġb o
ĠS up
m y
p ell
Ġl uxe
us sion
& #
ten ance
ã ģ
c ier
rie urs
Ġsau ve
Vo ici
ch on
ĠMar i
pr im
T u
Ġrecr u
Ġa spe
B N
con tr
mer ce
Ġen que
Ġpuis se
Ġm ix
ĠB at
posi tif
Ġr adio
Ġen j
eu il
f alse
Ġt ab
w are
Ġfor ces
s ole
ouvr ir
al iment
s tre
Ġ9 5
Ġfait s
onc er
Ġenv oye
": {"
ĠS U
Ġpai x
s or
Ġm ene
Ġv oire
Ġbl oc
Ġ ~
Ġphil os
Ġf ide
ES T
agne s
ony me
all y
ĠK ar
Ġdi plo
Ġv aut
ti ss
Ġconn ex
n ame
ĠL am
an moins
... )<
ĠAn ge
Ġdan se
Ġ5 4
Ġ7 7
Ġvis ion
Com m
ĠC ert
ĠP la
Ġex ist
ogr amme
ĠL ang
z er
el age
Ġkil ome
di um
h am
val ue
g ant
pr is
Ġfi che
Ġex e
C L
u elles
Ġf leur
ĠT erre
Ġb ac
alen dr
crit ure
sid enti
tr uit
Ġsujet s
t ures
f aut
iller s
ann once
ĠI S
pr ix
C ode
in aires
ĠD ie
Ġ5 6
In ter
I QUE
if i
Ġa br
as c
Ġ don
ĠS UR
Par is
anc ien
i fe
ch ir
ag ers
Ġ20 01
G u
F or
Ġj apon
au ts
Ġv an
Ġbien s
Ġcal cul
Ġc ame
Ġtr an
r et
Ġ er
Ġg agne
Ġh er
A vis
200 6
Ad visor
ĠTri p
p it
Ġcar b
Ġin dic
Ġpr euve
ĠH ome
en ant
Ġc iel
Ġtex tes
Ġch im
m or
M aison
Ġsim pl
en tres
E C
ĠM me
ĠM ess
az z
Ġm ail
w ay
ĠJ ack
a o
ner ge
ĠP or
ew s
Ð¾ Ð
4 00
Ġfin i
Ġten u
Ġ5 7
Ġcom pl
ĠC arr
ĠVe ste
Ġpr on
ve t
Ġmar ie
A frique
av o
F orm
< /
a dr
Ġin scri
Ġv olume
f ond
C ons
( )
ĠP OUR
ĠS au
t ine
Ġ6 00
im g
ig u
ap pro
ĠC ity
Ġabs olu
Ġs il
dec ine
cif ique
n orme
Ġph ase
Ġsau f
ou b
Ġo euvre
s a
Ġprof it
igue ur
> +
Ġco te
il y
fr e
d ay
Ġi Phone
ĠC i
ĠM is
un al
mon ie
A ut
Ġcon ven
Ġv ieux
Ġn uits
n ome
Ġ8 5
u che
Ġ1 000
ĠV ict
ĠJ us
d in
ad ore
thode s
Ġac tive
ache ter
Ġbe aux
Ġv iens
Vo tre
M ode
Ġp anne
ĠGu ide
ĠD on
jec t
Ġ6 9
Ġconf ig
s is
cr iv
ĠB elle
t ype
pr un
n g
fic ie
am er
tu el
C an
Ġache te
Ġ5 2
d ents
A A
iel d
Ġj aune
Ġpan ier
p a
oin ts
Ġcom pre
Ġten ue
ĠâĢ ĺ
Ġb oul
pe ler
r aux
Ġno ter
Ġsus pen
m oi
Ġg ue
iv i
ĠSe ine
ĠBr un
p ut
M P
ĠB ook
st ation
os ite
Ġf roid
qu in
Ġsou ffr
ĠRe d
Ġin fe
ĠP an
Ġcan adi
Ġsuff is
Ġp ur
on tie
v in
d iter
omm age
Ġr asse
Ġdeven u
um a
a ques
Ġb arre
Ġr adi
Ġg a
> ...
si ers
Ġm assi
Ġ: :
v ise
tr on
in scri
Ġco ope
D A
d d
av enir
ag o
ing ue
os c
ĠV an
id a
ass urer
oul in
ĠM ou
ce mment
ke y
ĠV ers
r im
ĠM i
Ġ dois
ic tion
ill ant
Ġh andic
Ġv as
Ġf lu
Ġmoi tie
1 01
ĠL oire
D S
op tion
ĠAc cess
ĠN ice
on or
g ar
ag u
Ġtot ale
tudi ant
Ġl ancer
Ġp n
ĠT em
Ġti tres
d action
ĠE lectr
AN S
ĠL ac
ĠX V
p i
Ġch o
d ente
ĠX X
Ġl ouer
Ġcom e
ĠM ir
ĠT E
ĠS ource
il ie
ai mer
ĠC N
oy en
r ef
arn e
Ġp he
ĠR ap
Ġrec ue
Ġfau dra
Ġcorr ec
Ġten ir
M er
ĠC at
om en
Ġin clus
ir it
Ġex tra
Ġir r
b u
Ġor dre
ord s
oc o
Ġsor ti
ĠR ome
P P
ĠC li
Ġun ite
Ġn ul
ati c
e ak
Ġti ent
Ġpar ame
Ġa urez
Ġp ous
Ġve ille
s o
ĠLE D
oc cup
ain isse
Ġ up
ĠE X
Ġl ourd
Ġp ont
r an
Ġgar age
âĢ ĵ
enn is
Ġcon dam
f aire
Ġt ue
iki pe
Ġc au
as y
Ġpr ises
Ġh ier
Ġ7 8
ĠEn fin
tr ation
ĠOn e
Ġr am
envir on
oc at
cis ions
. .<
ulte z
Ġdem ain
ci ale
me ment
C et
omn e
M arie
Ġp ousse
Ġsal les
M ont
vis ions
out h
ĠâĢ º
Ġst ars
ã ĥ
th is
atr ie
m os
, ,
Ġv ingt
ĠG ene
Ġmor ce
Ġsyn dic
sent ent
ĠS m
w ork
ĠS av
y cl
ĠJu il
D C
ĠA V
n aires
j o
Ġloc ale
s k
Ġtiss u
ĠCh ap
ar te
u ge
O IR
ON S
ĠBl ue
ĠS P
ĠS ous
ĠL in
ieu ses
Ġex posi
T ags
pl us
ĠR os
ad o
>< /
d ef
cu ter
on i
Ġen n
ame di
ch ette
ive ment
ĠM ini
O W
toi le
Ġpr ol
Ġad he
Ġh om
H ome
IS T
rien ces
Ġ5 3
Ġpl aque
ĠF oot
Ġti ers
t ons
Ġcon cl
p asse
Ġag ence
Ġcl o
n b
al isme
Ġch asse
Ġb is
ER T
ĠB ureau
ĠI II
Au tres
qu iv
cip ales
duc teur
In form
b ien
che urs
Ġtr uc
ĠPh otos
Ġt axe
g ation
al ier
g alite
w id
f ert
g oci
Qu and
sp an
p an
terie ur
N os
Ġan ime
ĠUS B
ĠP ap
st a
ĠR ussie
ĠF RAN
Ġg are
N ais
inc ent
r ons
Ġnorm al
ĠM ate
ou bl
O Y
Ġdis que
Ġsold e
Ġ5 1
Ġtir e
D ernie
F e
eu ves
d eh
Ġre b
v ente
oy eur
is tence
r og
ĠP ublie
Ġr ig
gu mes
n ess
Ġs able
l age
che ur
tr ie
M al
Ġem pe
ais ser
Ġr ide
g ale
Ġ5 8
ĠPar c
ati ble
s ents
B A
AU X
ĠCon tr
Ġser t
ac teur
bl og
U C
Ġqu as
n d
ĠOn line
Â ·
rie ures
ĠW al
a ments
ĠQ U
ang le
u ent
Ġâ ĸ
Ġall ons
ĠA vant
cien ces
ac les
II I
if ier
Ġc oton
s ou
Ġc ant
cr ite
br ique
or ama
Ļ ¥
ag ent
Ġc asse
Ġc roy
ke a
Ġr i
Ġent our
ĠPar ti
P ers
Ġus age
ĠG ab
um p
omber ie
C D
ĠPro f
rap ie
g ers
ĠU l
Ġdess in
qu it
Ġrem erc
iel s
agn ol
Ġ9 78
I DE
Ġob jet
Ġmin im
aisse z
ĠS oleil
Ġb aign
pell ier
t able
' t
AS S
Ġn ormes
f ici
Ġop tion
ĠV ir
tape s
ĠF am
Ġa fric
c ouvert
e gre
ter mine
ĠL iste
pare il
Ġsymp a
ĠN et
m ique
c un
O K
ĠF C
Ġac ier
deh ors
me lle
ov is
co ol
ĠP ic
Ġf ar
ĠV ert
Ġlum ine
" ]
ĠC A
ĠF ont
Ġg agn
Ġj oli
ad is
Ġstat ut
Ġciv il
Ġbout on
Ġdi z
Ġâĺ İ
d egre
f ec
U T
Ġl o
ĠN orm
ĠR ay
in tes
orn e
ign ant
pr endre
Ġs ile
M I
Ġab onne
it ue
ac o
ec ter
ri ent
gl ish
gion al
) )
m pe
x x
ĠR ich
xe s
ĠIn n
E D
p au
ac comp
di ge
Ġgo ogle
ad s
cu se
tex t
tel iers
V ente
ot a
ing ton
ĠD ate
ĠB ur
Ġsy nthe
ĠAn im
ĠP ont
op ping
Ġu tiles
ati se
l ation
ÌĢ .
ou is
an y
P age
ci a
ĠU til
ais ons
Ġpro ven
Ġex ig
ĠD VD
s w
Ġsou ff
ĠIn te
Ġem b
oth er
V A
Ġvrai e
Ġen vis
t n
EL LE
Ġ19 99
} ,"
ĠP oli
Ġon e
ag ence
se c
ĠA C
ou est
Ġb u
gr ation
ante au
D im
Ġs k
ĠFr ee
r ance
ĠN i
Ġs ki
it z
Ġre pe
ab y
obil ie
ĠB onne
m ann
Ġc ible
di ci
ĠM ath
en a
Ap par
ĠB ay
Ġtr ait
B O
Ġ degre
C a
Ġdi g
Ġhau sse
can ique
R en
ĠCar te
ĠS ar
di en
cip ants
ĠM ul
ĠB L
Ġn oire
> .
tic s
tabl ir
Ġ dehors
l ite
osi tion
Ġ den
ģ )
ĠF our
Ġno tes
ĠPo st
in tern
Ġme me
m at
Ì ģ)
publ ic
s n
change s
Ġsug ge
Ġma je
Ġchr e
Ġex pose
ĠT ou
1 12
Ġ Ø§
igne ur
Ġm ul
Ġryth me
ĠI talie
ĠSe s
as bourg
ĠJ o
Ġ tres
alle n
ill ages
c ite
ber ge
ĠS oci
Ġpro t
ay a
ĠPl ace
ĠM ach
ĠPar k
Ġma tern
Ġb ul
Ġ6 6
Ġpar e
ur y
Ġf it
mes tre
ĠM at
Ġl ook
cont ent
Ġ1 01
Ġm oto
P H
ĠCh aque
ĠIm m
> âĤ¬
exe s
Ġoc cupe
Ġtran qu
AR T
A dresse
ĠD onc
Ġen d
Ġmen u
yn e
S C
flex ion
z y
p tions
onde ur
Ġin tro
ume ur
Ġs inon
ac tive
en ez
ĠB u
le ver
Ġh otel
Ġou t
S elon
Ġj olie
ĠL igue
er o
ĠW orld
urer ie
Ġb ilan
ex posi
te aux
Ar t
" >
d ens
Ġpuis qu
ĠL it
Su per
ĠTh omas
ĠGr en
ĠRe s
erne s
ĠL ux
arch ite
Ġfig ure
Ġp ale
B C
ch a
ĠP a
h an
Ġre que
ox yd
Ù ħ
Ġ6 2
h onneur
ĠA D
Ġpol ic
our ir
Ġb ox
on a
P art
ti lle
) [
on iques
Ġc os
Ġ Ø
u a
Ġm ille
S al
ov ie
ĠH um
u ant
anc y
ĠT or
ti ments
Ġpl af
tis an
ĠMar ine
Ġm aire
Ġh os
Ġper c
r ier
Ġs el
ite ur
Ġdo te
ĠO c
ĠM il
tionn el
Ġp ompe
Ġ6 8
ĠF il
Ġen cour
ĠLivre s
ĠU r
P C
ĠH or
Ġcom ite
Ġin fr
Ġfr ont
Ġs cr
Ġre p
ĠTh is
O I
ĠS o
Ġ8 00
Ġcr u
U X
Ġfr ai
Ġcou l
ĠS ant
ĠC R
le ctor
n on
ter a
clus ion
entr ai
Ġ!!! <
ond isse
G o
ĠMar che
Ġcr oire
ĠLa ur
ace let
Ch ar
ĠB a
Ġpar ai
pro duct
Ġmen ace
ĠM ot
Ġor ient
c ieux
ĠC onn
Ġoubl ie
H omme
Ġp at
Ġm ou
Ġmus ul
Ġchar me
ĠN antes
roy able
Ġ= >
Ì Ħ
ĠC el
con tres
s olu
C ate
Ġ7 2
av ons
due s
ol o
1 50
ĠD os
at o
ou i
av a
ĠO ut
form er
ur r
uss ite
pon ible
Â» <
ĠC ore
I ON
Ġl ot
agr e
ag a
ĠC ate
ec k
! +[]
te d
ir st
Ġ data
onn ance
Ġh ave
mi di
i onne
Ġdev ait
Ġs tudio
ho e
ĠBour g
Ġmax im
Ġc oiff
p u
us age
a ure
ĠWh ite
Ġp ure
r r
â ĸ
Ġdis pos
v an
rie z
Ġne ige
Ġsu it
m ond
ac ute
Ġse cret
B E
N on
gard e
Ġser ez
in iti
it ure
ĠM u
Ġhum ain
ai der
m ons
ĠF OR
v ier
ĠM el
Ġm asse
Ġre pos
ĠP erm
ip p
Ġqu itte
ĠP H
se mble
B i
he im
r em
ou til
p ir
ti ver
ard ins
ĠOr igin
im ag
Ġce ci
Ġcel l
it ude
c ap
ter min
ag ir
ue ur
u tion
Ġcon ge
Ġciv ile
and ie
Ġce sse
âĢ ²
S ite
unn ing
ure aux
Ġv ues
ot al
Ġph ra
ĠP E
Ġreven u
Ġlab or
am in
Ġ6 7
and s
Ġf uite
Ġter min
tu be
ĠB E
ave ur
aine r
man uel
Ġ9 9
Ì Ĩ
k r
Ġsem bl
ĠPr in
aut ant
om be
Ð »
ab r
at aires
Ġob lige
ĠP M
ain tes
que tte
til l
Ġch ir
id ation
v ide
c d
ric ains
Ġadop te
ĠF aire
M a
Ġdou x
f ont
ĠAr gent
Ġgl ace
ff age
Ġbr u
Ġ! !<
Ġpl onge
ĠK e
Ġ7 6
ĠS eu
C onc
Ġus ine
ĠT unis
P rice
!! !
Ġpoin te
Ġex pre
f ile
Ġf ine
Ġdest in
Ġob ten
Ġs ing
um b
1 20
Un i
Ch ambre
Ġob tenu
av r
g ales
ĠP en
Ġ6 3
ĠW i
Ġsen sib
ĠI t
Ġno v
tr ouvez
âĢ ¢
Ġver se
Ġm ore
Ġmort s
pe ct
ĠF ac
cu tion
ĠA uto
ĠAr r
ĠM em
m ber
In f
d et
ĠTr ois
o ble
Ġrou e
Ġr are
ĠL ille
Ġâ ĩ
ad y
ist an
ec i
uc k
tic al
ĠH ol
IS S
D R
Ġ _
A LE
ien dra
ib uer
Ġfin ir
ten te
tr ent
16 0
Ġpe in
p ers
let tes
Ġun d
ģ (
Ġab ord
Ì ģ(
M an
Ġre g
ĠGu erre
ĠN ation
ĠN E
ĠN om
Ġh ome
I EN
Ġfr anch
ad ing
f u
ien ce
A h
Ġdo ig
Ġ1 10
Ġret ard
], [
Ġcy cle
Ġre la
ĠAl ain
ĠGu y
Ġh yp
Ġa imer
Ġex ac
Ġme ur
Ġg ood
ale t
aff aire
rit ure
par ent
Ġstre ss
iss ante
lu les
ad d
ĠC op
ĠV os
ĠCh r
Ġid enti
V is
ĠE U
Ġin tr
Ù Ī
z o
pen ses
id ge
ex per
ĠE ff
Ġdev oir
Ġm urs
Ġb ack
U r
Ġpar tis
it o
com pl
dic ale
li bat
olog n
Ġnom s
Ġo ver
ĠSA INT
Ġr ond
ok e
ĠAp ple
dif ie
olog y
TE UR
phone s
cou ter
m bl
ĠJ ou
Ġfr ag
it ant
C S
ĠC ur
aill ot
Ġm l
AN CE
Ġle c
- <
ĠCl aude
tr ique
Ġl is
ĠN av
ri ch
ak i
2 50
}, {"
ĠV endre
ĠVict or
Ġb ateau
Ù Ĩ
Ð º
Ġ \
r ane
Ġ Ã
Ġclim at
n ent
Ġ our
inst ant
cur ise
rap eu
Ġf an
erci ces
Ġp aye
f ord
F in
ĠC entr
Ġb illet
Ġpar ole
h al
r ente
aut or
ch ats
an ite
ĠSam s
onn ant
ĠCom ple
ouv ent
S up
AL L
Ġ14 0
Ġirr e
arr y
ces sion
ĠNew s
n ite
Ġouvr ir
pon du
IC E
Ġ199 8
Ġcl ass
p df
. "
Ġrel ie
Ġau teur
Ġz e
Tr ans
pr euve
ĠA mer
ĠBe ach
W h
m n
Ġse xe
for mes
Ġcou che
ab sence
Ġpr ati
con c
14 0
c ents
Il s
ob tenir
ĠP au
av er
Ġw c
Ġf aux
ax y
ĠB ac
ĠG ard
Ġst ar
Ġpe int
OU T
Ġr usse
ĠSt yle
ci pes
Ġv r
Ġs ale
O ff
agr am
c ts
Ġtem por
j us
rie use
Â ¬
Ġf aveur
ash ion
oi ent
Ġplu ie
Ġvo tes
ich age
Ġb oute
ann eau
Ġcou ps
Ġmon ter
Ġchev al
Ġcy cl
as tru
Ass oci
IG N
ĠS ex
v c
ĠN or
Ġ19 90
ĠA s
B ook
ri me
Ġa ler
In tern
h ab
erci ale
ĠAp pl
] [
oit ure
Ġrev ue
ro ge
Ġn eu
ab l
ch ou
Ġil l
Ġre ve
ĠG er
ĠS yl
Ġim pose
sh irt
Ġbl ack
ĠP R
Ġf oi
Ġch ute
di ents
ul aires
Ġin quie
ic ole
ĠðŁ ĺ
Ġac quis
ĠR ock
6 00
cu ler
Ġvoul u
k in
or ies
T R
IN S
Ġpl ante
v as
Ġr ivie
ologn e
ĠN eu
ĠA S
ĠP le
ĠCol le
h ar
ĠS ports
ĠB R
op le
] .<
Ġar abe
ĠMan ual
c ure
Ġcan ape
m ande
Ġm ange
l os
Ġbr ef
Ġc ouver
et a
Ġtom ber
Ġsu isse
Ġmar oc
f a
19 0
in ten
eff et
ign ants
r ez
Ġg out
p aisse
ĠM un
ĠA ux
P ER
al able
lle c
Ġau dio
ĠL ot
Î ±
che ment
OS T
200 5
Ġactu el
> Â»
Ġrap pro
cri pt
Ġg our
e te
titu le
row n
p ic
ĠS we
N om
T outes
ol is
C F
Ġerr eur
m ise
ĠDou ble
Ġtes te
Ġ[ #
ES S
Ġj ob
and o
Ð ĵ
En fin
Ġc ath
arb on
Ġnew s
Ġvol s
Ġcro ise
Ġe sprit
u et
v ar
uss ir
enti els
te st
Ġresp ir
Ġref use
ussi ons
Ġp ub
Ġh a
h ier
st on
Ġper d
. "<
Ġf ame
Ġpil ote
Ġex ige
C ap
Ġsp irit
ag iste
ic iens
A v
1 10
Ġv ain
n y
Ġr ot
Ġag ents
in aison
onn els
ĠW illi
h ou
ouv oir
ilite r
em pe
ĠDan iel
pec tive
al bum
P I
Ġmin ute
} }
ou ge
ĠInd e
G ER
ĠS ue
Ġre qu
Ġper f
en ue
ap pre
ĠL is
Ġau di
Ġw ill
ten dre
Ġ18 0
Ġparf um
âĢĿ ,
ill aume
i j
Ġdevr a
ori ent
aut o
ĠM ore
Ġju dici
M M
Au teur
Ġr ab
Ġp ain
Ġcol or
Ġnu cle
l oc
ĠM oi
oph one
Ġc out
en que
ch en
se arch
o ver
Ġ7 4
dec ins
as on
ĠB arb
ĠT est
T able
Ġf ro
Ġtest s
Ġsen tir
i as
Ġp ay
di ction
f ig
C ou
ott ines
v ac
atten d
ar c
app elle
Ġsou mis
Ġm aman
ĠF A
Ġ( +
V er
u alite
Ġvol ont
ĠOr ange
EN D
ĠTe le
r c
Ġten ter
s en
ven u
Ġav ions
Ġpert in
ĠO pen
ude s
Ġf us
Ġda tes
un a
Ġh uit
8 00
Ġt ome
Ġw ord
Ġc ancer
dem ain
B ou
as in
Ġt w
Ġ9 2
Ġpl ac
Ġgen er
o ce
ĠPl ay
w ood
ĠS N
ape au
d at
ser vez
el lo
ĠCh aise
Ġpr ie
fin ir
gr er
ĠJose ph
Ġp ack
ov a
ĠW ord
un k
Ġrapp el
Ġâĩ Į
Ġsa vez
ĠH am
ĠN atur
b us
ir mer
Ġv ivant
O uest
Ġ$ ('
Ġb ag
Ġcour te
M B
Ġpou dre
Ġm yste
I O
ĠS ie
Ġpar ent
Ġr ang
or ce
ĠGre en
ĠMar que
ar mes
st ances
ĠC ir
o bre
ĠT om
v oile
Ġterr or
fait s
QU ES
ex pre
cr ets
Al pes
Ġdis cip
TE L
eff ec
c onn
Ġl ois
ti bles
u u
Ġpl ats
ĠT er
ģ ...
Ì ģ...
lle ment
tu i
Ġst ade
Ġg al
Ġcon fr
en reg
V ER
Ġe tre
Ġou vre
Ġs core
J eu
d ette
Â» .
tit le
Ġman ip
C al
Ġin con
b onne
ĠH igh
Ġcar t
P o
>âĨ ĳ
ci fic
ĠHotel s
en tique
euille z
Ġch aise
ĠSn eak
ine l
oy ant
ve urs
p ter
Tr ouvez
y les
ĠM O
ĠT ome
un i
ĠS C
ĠL oi
d ose
li ance
enir s
Ġb lesse
Ġgr an
er ces
cu per
iti me
c art
ill ons
Ġt apis
p ense
Ġtes ter
ĠRe ce
ĠO U
ĠR adio
Ġop port
Ġess aye
col or
igne s
ĠD er
Ġun iver
e us
Ġla v
G B
F l
M ichel
ĠN ume
ĠG au
cu te
Ġla ve
ĠL ie
Ġk it
sh ow
tr av
C OM
Ġp iste
n ager
Ġam p
Ġseu ls
Ġ8 9
Ġen ce
Ġbi joux
Ġf u
Ġ1 30
droit s
ĠW ar
ĠM P
Ġf ati
Ø ±
Ġin ge
F OR
trait s
tr ue
ond on
Ġt yp
Ġt ube
Ġh iver
L T
o tes
p ins
Ġgr av
ĠAu teur
Ġre par
tr i
ĠG ue
Ġv aste
Ġâĺ ı
ĠF i
N A
ĠC AR
og a
Ġ6 1
ĠS err
j s
Ġbr uit
E AN
aur ais
Ġpris on
Ġb arb
Ġob serv
ai gne
ap s
Ġen trer
Ġg uit
Ġle ader
Ġ om
Ġem ail
ĠR etour
ĠAss oci
Ġb est
Ġp ic
e k
R S
a ou
ĠB ul
ic acite
Ġj ui
ĠBan que
j on
Ġul tra
Ġim pe
p ouse
he d
Ġpr ime
Ġ7 9
en sions
H A
stu ces
In d
Ġ8 3
ĠPe tite
y o
ĠB est
ierr y
Ġp m
d ore
F P
Ġy a
id entif
Ġ8 8
Ġhui le
ĠB out
+ +
Ġis ole
di aire
T op
Ġ9 3
Ġ9 4
Ġfin s
ĠA B
ĠC ine
ate ll
AN C
ign ons
Ġ> >
ĠCom ite
ĠFr ench
g ende
Ġgen til
Ġcon cep
pr ice
ic an
Ġoff ert
Ġr ur
ĠA G
n ieur
G ar
r oi
t d
ĠB oul
tr ition
ĠHen ri
ch t
ĠA ub
Ġhy per
Au jourd
Ġâľ Ĩ
ĠD I
% ,
im a
Ġviole n
Ġ* ****
Ġsus cep
ĠK it
ib e
P aul
Ġtr oupe
Ph oto
ĠSac s
Ġch ers
Ġest he
Ġsol ide
l at
Ġs cul
ĠM ulti
yl indre
o ol
Ġre port
r ienne
Ġm idi
ĠC ro
ĠH oll
ĠP u
s ine
Ġ16 0
ĠM os
ori al
Ġj oie
di al
Ġvou dr
Ġdom in
ĠBar cel
Ġt ar
og ue
V i
ball age
ĠK ing
ĠJ ames
Ġ8 4
ĠV oyage
Ġ199 7
r as
ie ment
Ġem prun
Ġadul te
e acute
comm un
ang a
w p
ĠW est
ĠN u
cour t
h n
ĠV in
ine ment
or ge
o ter
Ġt or
ĠDe ss
ĠUS A
Ġmod ern
ĠOr gan
Ġin spir
ad ers
in age
Ġpense z
old e
oul ie
v ard
v oit
ĠCh am
te mbre
.... ..
Ġv illa
ĠU p
ĠS un
ĠBas ket
cle n
enf ants
Ġpau vre
ch ons
port ant
os h
ĠPeu t
D eux
Car te
ĠL av
ĠP i
E E
ĠC y
F emme
Ġqu in
ĠD ur
D r
ffr et
B y
Ġs ports
A vant
ern ier
eu t
ĠT TC
Ġp ire
* <
b el
Ñ ĥ
vo quer
ĠT H
ĠMas ter
jec tion
ud o
land ais
t our
ph ane
n ario
ĠB ig
E l
Ġ} );
Ġrec ons
Ġf ur
chau ff
d ites
util ise
Ġf alse
un di
âĢ Ķ
Ġac tes
Ġt ac
Ġm airie
t w
Ġ| <
Ġ8 6
c c
ĠP ower
et on
ab elle
ĠF ort
Ġt ur
T V
M C
Ġb allon
d un
ĠRoy al
Ġpatr on
us ter
ang lais
hen sion
l ist
Ġbr ut
ath ique
Ġ7 3
dif ier
f il
Ġlog o
ĠI P
ĠB ri
fr ance
end a
urr e
F C
rif ie
ag i
Ġver y
Ġinf os
Ġconf ie
Ġ8 7
f euille
Ġven u
in ion
od ie
J ou
k g
ĠM oyen
in nov
ai m
G U
ĠPar t
Ann e
Ġpo che
Ġbi olog
B ay
Ġmas que
Ġterre s
ĠS em
Ġpou ces
ĠV alle
Ġver te
ĠEnf ant
M O
ĠPh ot
0 01
Ġman ife
Ġcon cre
Ġoc t
w eb
ĠCl asse
Ġsac r
gr ound
ĠV I
ĠC C
ĠL as
ĠT i
Ġs n
ois se
Ġl ine
com me
Ġpos tes
Ġvir us
ĠAl pes
' );
ĠS l
Ġref us
tud ie
Ġb er
Ġfl ux
Ġv alle
u ie
s ch
Ġac te
ce d
ve au
ĠK o
Ġp ant
n eur
U IT
Cl ass
K E
u z
ĠPort ug
R ec
U til
r ise
Ġsur f
g ence
ac tif
ĠM ise
Åĵ il
Ġsou ci
Ġch ant
ag ric
Q ui
Ġt ort
ĠN ombre
Ġf ume
> @
P er
ĠF ig
B L
Ġenj eux
ĠR ennes
ĠPr omo
em bourg
ten ue
gu er
tif ier
m une
it ent
ĠL oc
Ġa ffr
s ous
ĠPrem ie
Ġ dore
ON NE
S ac
Ð ²
i ves
cul aire
f ul
L ivr
s ant
ĠF err
ive au
te c
Ġtra fic
aller y
sou dre
12 3
Ġmir oir
ĠMar ron
Ġval or
Ġ ore
m ans
Ġch iens
onn ier
ad el
âĢ º
Ġgr ille
EN CE
u f
+ !+[]
à ¹
S ource
Ġenv ers
AC E
ow e
Ġ( ...)<
o ffr
Ġ12 5
) {
Ġb en
im po
Ġa qu
gard er
ĠB and
ĠV illa
ade au
d j
ond s
ĠA j
V ille
ov ation
Ġp el
pl ate
ic on
d ures
Ġ19 95
T H
st ar
Ġinc onn
gn y
ĠB ibli
L ouis
F ilm
Ġ199 6
I talie
ĠAu tres
Ġar mes
Ġtu y
ĠE ric
Ġs tim
oin te
" );
sh op
ĠBer lin
Ġsp ac
R est
Ġsou cis
t v
er v
dr ont
d orm
ĠNo te
ise aux
Ġvi tre
ĠR ho
Ġp ole
ĠS O
ĠA h
T O
Ġcomp et
S on
ager ie
Ġvi agra
Ġcode s
tr ans
Ġad j
M W
an z
vol ue
Ġaur ont
ĠQ ues
ĠH all
Ġ dose
ar tiste
E P
ib ex
istr er
ĠB ro
ob al
oot h
m ax
ĠSt ock
Ġall ant
w n
Hotel s
Ġf lex
ĠCan ape
om an
li x
Ġv aisse
!! <
r ateurs
avr e
ĠD iv
ur gie
ces si
couvr e
Ġsomme t
M art
Ġ9 8
c f
ĠLet tre
Ġab us
t ing
ĠB O
Ġch ou
pren eur
', '
ĠPAR IS
iss ait
bar que
Ġor ange
ĠDe bou
ĠC ours
ĠP oint
ĠStre et
Ġf ans
um ule
Ġl its
en is
V al
ĠAvr il
Esp agne
Vo ila
": [
ct ur
Ġb oite
tific at
en sion
ame l
mos phe
Ġv ins
o euvre
la h
ar rie
Ġco he
N ume
ar is
ĠGr os
ic ot
ĠO N
ĠS ER
up ture
b ute
b arr
p el
ĠI V
ĠA ustr
ĠM ex
Ġ8 2
Ġba ses
Ġar ts
port ent
ĠAn gle
ĠF ant
Ġent end
li ore
Ġan gl
ĠCh at
C ela
Ġs che
Ġtir er
ĠM ON
Ġquel s
t ar
tu eux
si m
T P
ĠJ un
Ġp oule
ĠIn c
R em
ĠMon te
n at
s ac
s ert
EL L
Ġcol on
ler s
che c
vid ence
ri ble
7 00
er ies
th er
oly mp
Ġr ock
Ġgr ec
r ec
Ġ dorm
ist ante
ti g
TI C
aie s
att ache
Ag ence
am ple
au jourd
aw a
P DF
ĠF leur
Ġhas ard
200 4
Ġtr ace
x t
s entes
ĠD o
ont ourn
Ġfil tre
si ze
ke d
Ġac tif
Ġa lent
inf os
th le
en u
Ġti me
ab o
Ġvi ande
Ġbl oque
Ġcol ore
Ġfr appe
ĠDro it
hoe s
ĠAr ts
arge ur
Ġbr on
Ġserr e
Ġt ax
ĠA dul
Ġp ul
ĠTV A
c ate
c ente
ĠL uxe
Ġ ur
ass ins
ĠE p
im s
m ite
V ide
icip al
V ol
tes te
E X
Poste d
ong o
ait s
ri o
or igin
ĠP ou
= \"
Ġ< /
Î ¹
Ġchef s
Ġ9 1
T RE
ille z
iss age
Ġ7 1
Ġvis ant
ĠP RE
ĠT ex
IS BN
ĠS yn
A jouter
Me s
ap per
com ment
ais ses
ol les
V C
Ġpol lu
Ġcir con
G A
ĠO R
Ġval ide
Ġ9 7
ad or
ĠR ab
ĠMa dr
Ġl in
ĠR am
ĠE le
Ġdi pl
Ġv ice
ĠFr ank
ĠQu elle
gion ale
ist a
ĠF it
P ubl
Ġaux que
d aille
ĠP ack
D ir
ur ances
j eu
g g
Ġ$ (
Ġp istes
S te
D ES
?? ??
T aille
entif ie
ĠØ§ ÙĦ
if orn
Ġ7 00
h ouse
Ġc ad
ill ard
Ġre ad
l ivre
erre urs
ord er
C onn
L uc
n once
L ocal
ve il
Ġac cr
ĠT im
Ġr ues
Ġoc cas
Ġl ive
ti ts
Ġa chats
ver sion
ori age
Ġbe urre
G R
Ġl ing
2 000
tudi er
ĠH ug
Ġaut on
g as
Ġch amps
ag en
pl acer
os ter
Ġno w
ĠH ouse
Ġsacr e
ed er
pl an
l ot
ex emple
N ote
ĠM oh
Ġex p
ĠMac ron
r ard
ape ur
Ġad ore
Ch rist
B eau
ĠN ap
st al
ci ales
av ion
Ġex pert
vir onne
v oi
S D
]+ (
ĠAn to
Ġpour s
ĠW ikipe
oul d
ĠZ e
ĠSt and
N ombre
Ġform er
ri p
ĠI r
Ġsur v
is on
1 30
al ph
ci ent
Ġr ares
Ġ dat
Ġw ork
ri au
ĠAc ce
al th
M AN
Ġ( ...)
ĠChe z
ĠE v
gr id
w a
Ġmode s
ĠG T
ĠGal axy
P ort
s ace
ĠCan al
Ġrou ges
ĠB asse
g ler
qu ot
ĠCon fe
S itue
ci ation
Ġex tr
ĠC AN
Ġf urent
g age
h in
Ġv el
Ġmand at
Pr em
ch ers
c ode
f um
Ġch arm
Ġa gent
min in
Ġco ach
ci alite
Ġdi ame
Ġn ette
ac tu
ĠW C
ok er
y on
val uer
tis tes
Ġab out
Ġ^^ <
Ġ3 60
cou pe
erm ain
Ġdr o
" )
Ġ olymp
Ġ ]
imp act
k en
Ġvide o
P uis
Ġappr is
ĠD ig
Ġ dress
B en
qui p
ĠH T
Ġl ou
b urg
ind le
C as
Ġst ati
ĠH auts
ĠD ernie
Ġt ours
ie tte
end er
Ñ ı
Ġg ale
Ġr ent
ay ez
Ġconn ue
Ġa im
ak er
Ġp oi
alen ce
S U
Ġla st
s m
Ġrec ord
am ant
ic one
ĠCh ic
c ro
aque t
12 5
op ie
Ġp c
O rient
Ġar bres
ĠT arif
UR L
t anche
Ġsymp to
vidu el
Ġf le
Ġs oyez
ah a
ã Ģ
gor y
onn et
Ġ ign
Ġmo tif
c une
tr ole
Ġm it
Ġm ousse
att a
ĠS mart
d b
M oi
N ew
A ir
b ul
ĠJe une
Ġh el
br i
me dia
Ġ199 4
Ġinf o
P G
p ng
ĠT R
ĠTr ai
st ume
ĠAu cun
ĠD am
s ans
ĠK n
ac ques
ĠJul ien
Ġcas ino
E B
Ġac tifs
Ġimp act
sse urs
ĠA z
Ġeur o
ĠH P
I mage
Ġ[# ]<
ĠA gr
17 0
M ari
si a
Ġcop ie
onn ie
Ġmar ine
ĠS pr
ĠH istor
pisode s
ĠL os
og er
Ġall ait
Se ine
Ġann uel
C or
Ġv ul
Ġ9 6
Ġ9 00
ĠAl bert
in spir
Ġmassi f
ter ies
t ache
li a
ĠG ener
ĠAu tre
ĠV ar
ĠCr oix
' :
ĠI tal
OU L
af t
ĠS aison
F L
t aux
Ġh ref
op posi
Ġ* *
ouss in
w ard
Ġli br
Ġsa ur
p ide
Ġau quel
ĠF ille
n ez
as ter
T ra
n elles
Ġa str
Ġj a
Ġphra se
Ġmen er
Ġ: )<
ĠEm ploi
>â ĸ
mand s
Ġgr as
cesse ur
Ġmatch s
ĠE s
Ġex empl
Ġsou d
In st
S M
Or gan
h and
ai x
ĠC M
e venue
S a
ert y
Ġm agne
bo ard
Ġsigne s
ass ure
iere s
TI F
p c
ĠðŁ Ļ
um ber
ais ie
Ġsour is
Ġdyn am
ĠN euf
Ġblanc s
mon tre
Ġvo lets
ĠG az
ord an
ign an
ĠR i
A chat
Ġoc cup
ĠS en
Ġt v
Ġ19 80
ĠB ra
D em
Ġco ffre
G O
C our
ĠPl at
Ġre con
ĠB io
Ġpl ai
ĠDe scri
ĠRe cher
k n
EN S
et ter
c os
Cl asse
ĠS H
ĠCa fe
X X
P T
A nt
agn ies
ĠJ ourne
ĠY e
TI QUE
ĠIn di
and ez
ol it
2 20
ph oto
Ġbel ge
Ġb ap
Ġy e
end ie
ĠEx pl
ĠC ast
Ġl ai
Ġpl as
Ġno tion
rie ls
Ġad oles
Ġp op
le d
Ġcant on
ĠS tudio
ĠC enter
ĠF L
Ġ* **
id ay
Pe tit
tic ol
bas tien
ong er
!! !<
un ique
ĠL ight
ins tru
ose arch
mar ches
d c
H z
ĠC u
ĠAl ge
per me
C ON
Ġsign al
Ġfl or
Ġch ino
P lan
Ì Ĭ
ĠP in
Ġsh ow
Ġ dent
en droit
ĠEx pe
mo tions
âĢ ĺ
Ġsc and
d evenue
ch appe
ĠOff ice
tn am
par gne
end ez
ĠF aites
ĠMadr id
Ġ dents
Ġf ie
Ġl inge
Ġvi ew
Ġc ouvr
ui le
ĠB ox
Ġdu e
Ġvi ol
Ġs et
SI ON
Ġ199 2
ug by
A z
id ents
u plo
Ġb uts
allen ge
ĠG old
ici les
Ġqu art
ge ot
Ġun s
ĠP ot
Ġvi tr
m od
Ġcom te
Ġven du
L ivre
v oire
S H
ĠT ar
ģ Ħ
h ip
ĠPubl ic
ĠIs rae
oub li
ir o
ĠMus ic
criv ain
M arne
Ph il
Ġanim al
C R
Ġin gre
ĠG U
Ġv s
ĠC os
ĠM id
P ub
ĠR ac
ĠUn ite
d v
Ġ8 1
ĠFRAN CE
Ġf ier
ĠB ut
ĠM iss
ĠSp a
b s
ss ons
ĠRe sp
T o
ĠIm age
Ġr onde
av i
P AR
ĠM ix
d ac
Ġne ur
ĠAr n
ĠDen is
ĠV el
Ġk e
gy pte
ĠH ong
Ġre me
ĠF ore
ĠA e
ON E
ild e
h h
Ġbal con
he s
h yp
Ġdis ent
Ġa f
Ġclub s
Gr and
m erci
sid ente
. )<
Ġc ann
Ġca se
onne z
e sti
ĠB ob
Ġall ie
r ob
v ues
att aque
ĠCh i
c am
f is
z en
Ã ·
B R
ig ar
Ġret urn
Ġsac s
Ġmaj eur
Re cher
â ģĦ
vidu s
B el
Ġ% <
p al
t ain
Ġc ole
M AR
iz on
ĠPar mi
ca dre
Ġbud ge
ni al
Ġam ie
Ġa ve
ier ge
e stru
id o
erci aux
ate aux
Ġfab ri
c ade
f en
ĠN ath
ect or
ĠCel ui
ĠK h
er oun
me uble
A lex
ag as
Ġre voir
Ġsem i
Ġvo ies
le tte
ri a
M ER
Ġs in
ĠB A
ĠGeor ge
ĠC ul
om a
ģ /
f ield
Ì ģ/
Ġf once
al k
at ation
(" #
r el
Ġpo igne
f rige
c enn
Ġ3 50
entr er
Ġdi abe
ap port
ĠL ive
ĠSec r
ati vite
Ġpre sti
r up
ly mp
ate lier
T itre
Ġl ol
ĠLe ur
uet ooth
sid ents
l its
ro se
Ġb less
Ġm ass
view s
ĠD j
R el
nb sp
in quie
Ġpl ages
ĠC P
ex iste
Ġquas i
Ġcr im
h as
Con se
ĠU s
Ġg on
Ġvi br
ri ment
AR L
Ġb ie
ur i
o line
Ġb all
ene urs
Ġenn em
op er
S L
d estru
li or
ace ment
ĠN ature
Ġli bres
Ġv on
O l
ust om
yr ight
i ale
ĠC OL
ĠL ove
u ary
ar th
Ġcar di
po st
ches tre
ot age
ab eth
S pe
ac quis
Ġprop or
og o
Ġs w
rie lle
D oc
N ES
ĠE P
Ġbi ais
En f
tab li
In te
pau le
ĠD C
ĠMad ame
Ġb ro
m ain
ĠBe s
ĠS uite
Ġ199 3
ĠL and
Ġmat he
Ġli ke
av ir
Ġj anv
at ou
Ġbon us
m al
ĠG ol
Ġne z
P ad
Ġv oc
Ġb assin
ĠB ag
Ġpre s
r atures
G ra
ĠIm ages
oc ier
tr ant
Ġv oile
Ġapp uy
marr age
ĠRes ort
Ġm igr
u di
Ġmo tifs
ĠH al
ig o
D onc
ĠF ourn
Ġad e
Ġre pose
ĠðŁĻ Ĥ
dic aux
h au
eng age
im pl
ĠC ather
h ol
ĠBe ige
oy ers
os a
Åĵ urs
Ġav er
Ġs m
ĠPas cal
ĠPe ter
cr im
Ġgr en
1 000
> Â©
Ġn ai
ath ie
Ġcol is
L C
ĠJe ans
Ġv entre
v ale
atr ic
ĠRo che
ĠMar n
Ġa spir
lo que
M ain
Ġin t
Ġpr ome
ĠS ing
Ġaspe ct
onne x
ĠP ale
lig ht
ĠR ene
dr ome
y cle
Ġglob al
til lon
ĠL er
E ur
ĠB ase
ĠB ir
od ge
w an
ond a
alen ts
Ġn orme
Ġa ise
iss ons
ĠB D
Ġhum an
ĠI ci
ĠW ash
ĠSt ore
Ġfr uit
ĠM r
ĠN O
Ġbou cle
tr ices
ĠTr ump
ĠM ass
Ġv ern
Ġen ch
01 0
ye ster
Ġman uel
ĠM obile
Ġlut ter
Ġ19 70
Nouve au
Ġ: )
le m
ĠD istr
Lors que
Ġcol l
Ġac cuse
Ġb and
Pro v
olde s
-- -
r om
ĠE au
Ġr ire
Ġb arr
Ġma qu
U P
aut omne
ab el
Ġcr ist
st yle
st at
Ġ destru
Ġri ches
it ale
ĠC G
ss er
o tique
ĠM ER
Ġ199 1
Ġsolde s
Ġj et
ad em
ait ent
Ġop en
s iste
st en
Ġp aie
L oire
mo tion
S alle
ver gne
Ġav ent
Ġex erc
Ġfourn i
m ages
ĠP at
no ve
Ġsouh ai
Ġtour is
ĠTem ps
Ġco que
27 0
" ;
AB LE
ĠA y
ou f
ĠB le
Ġp s
Ġa sc
ĠAn ton
L iste
Ġcou per
2 30
ex tre
c iser
Ġfi able
ti a
Ġf oule
b iz
S p
te lle
m us
ve iller
Ġcas que
Ġad min
ĠJ on
Ġpl acer
Ġdeb ou
let ter
au di
Ġan te
Ġdis cre
Ġvr ais
or ges
n els
ĠA P
Ġprodu c
AC K
in ent
pose z
Ġ1 15
ĠA che
2 40
om mer
pro prie
Ġs ince
Ġtra jet
A IRE
ĠFr ont
ark oz
Ġsau ver
ĠT ab
Ġdev ons
Ġcor por
Ġ2 33
Ġesti m
j an
onner ie
mp ire
ge l
Ġin vit
ĠG ame
ĠCas ual
ĠA venue
= >
ent in
ir l
Ġbis ous
q w
D V
E ss
ĠV ale
C entre
it or
Ġ os
D om
iss ue
Ġrem is
Ġred e
ĠA f
Ġcer tes
ĠB all
Ġv apeur
en ay
ĠG are
volu er
ann age
Ġmo dule
200 3
lo igne
omb ie
ĠP err
ins titu
m it
Y S
Ġa ssi
2 10
en dr
ĠC ler
n ant
ĠC eci
c ler
ob serv
A K
Ġp se
ĠChe f
ER E
f endre
N oir
Ġe Bay
fr anc
ĠD ub
Ġv acc
ĠA ussi
a qu
ĠS ub
onn ais
ti d
c ologie
b al
o ch
is tres
ĠR oi
Ġin com
ste in
>âĢ Ķ
pl y
Ġre s
h ome
Ġro om
LE T
du les
F I
Ġr us
pas ser
ĠS M
' <
Ġju il
tic k
r ay
Ġrela x
ĠV oy
Ġs atell
Ġiss us
Ġt endre
ĠW ork
Ġr iv
ĠB ad
t an
ĠF ar
Ġsol s
b en
se lle
$ [
ĠAut om
Ġr aff
ĠRe al
l icite
45 6
ir ts
ĠFor ce
Ġh igh
ch anger
ĠB ud
D enis
ĠD ure
al cool
Ġac teur
ĠMar k
Ġinf lu
âĢ ľ
Ġrou tes
L ong
Ġla mpe
in ite
ak a
ĠL ien
ol le
ie d
A cheter
ĠJ une
h op
is co
Ġ- >
Ġpn eu
Ġge l
Ġ ÌĪ
ĠCol lec
Ġf asc
ce ment
ĠPal ais
f aite
Ġb att
util is
]+ $[
S au
Ġmil it
ĠP AS
ĠBrun o
qu able
is hed
Ġsav ent
ĠV au
em p
oy s
ĠM and
til les
Î ¿
Ser vice
ef our
bl anc
Al l
o ine
n is
Ġven til
Æ Ĵ
ile t
Ġâ Ļ¥
ĠMarn e
TION S
O c
ĠG as
que ur
Ġcl in
g on
C ES
Ġp p
ĠL ondon
Ġ áĦ
Ġmaj or
s ante
titu ent
g t
RAN D
Ġi phone
ner gies
ĠG h
P O
rim ente
Ġin u
c aire
Ġto x
ĠJ am
Ġg i
trop ole
J ul
I CH
tr ont
Ġc orde
arkoz y
h s
p oint
A uc
Ġn er
ann a
Ġmet s
Ġar gu
igh ts
p ent
Ġfort s
vis ible
Ġla ine
ĠâĨĴ <
ar pins
it ures
ĠAg ence
b ats
Ġaj out
our eux
Ġr iz
ĠCol or
ri phe
ĠVo ila
b ilite
Ġhau ts
Ġp ommes
Ġmag ie
ur ite
ange s
let in
ĠUn ique
ĠR a
ĠC oton
b ig
ĠFr ais
Ġl ux
Ġ2 20
Ġoff ice
ĠPar ce
ĠOu vert
ouvr age
y ou
P orte
ĠH el
Ġt alent
b in
ĠP opul
Ġre leve
Ġexpl ic
ĠDis ney
ĠA ide
ann er
Ġ: -
Ġex ce
l t
ĠE L
Ch er
Ġfor tes
Ġje an
ÌĤ âĤ¬
atten te
vo ie
an tie
ĠS us
B ibli
M ots
ĠPl age
Ġpl ay
r ait
ab a
Ġla te
OU V
Ġ7 50
Ch aque
ĠA si
A j
Ġdipl om
aill ant
A insi
Ġride au
Ġat tire
Ġim po
T oute
ĠS he
w q
r aires
ic ale
ĠMar ch
ĠP A
Ġt ables
ĠL im
Ġauth or
ĠO util
if t
Ġprot oc
aut om
ĠGR AT
ĠEn er
Ġs ch
S K
ten us
n euve
Ġp ince
ĠC AP
ĠLam pe
Ġop pose
ĠPr op
y an
Ġpi ano
ĠAn th
l ang
Ġ0 75
Ġrepr is
ĠG el
Cl aude
Ġap erc
adap ter
Ġwh ich
P N
ĠRe f
ĠQu ant
ĠJus qu
Ġdoig ts
ĠTri b
ĠCom par
c ale
ori ale
Ġ19 89
2 12
Ġcon du
m g
od a
ing er
ĠG all
J acques
ĠM ade
An dre
ur iers
Ġac qu
ĠM ah
ĠO uest
Ġa xe
ĠG PS
x y
end eur
Ġfl ash
aute uil
ond er
[ /
Ġt ennis
v oyer
ser voir
Ġco ol
di ger
S tr
Ġ det
Ġpren ez
ĠD ay
Ġg er
fu gie
ĠT alon
ĠP O
Ġp un
Ġm ons
Ġkm Ho
gr and
titu er
Ġj ourn
ses sion
F ace
ine z
ĠT oile
dresse s
d or
N ame
ph on
ume urs
ĠS et
t ale
ac if
Ġan gle
ul a
S ous
l ivr
b is
iss aire
qu ite
th ique
ĠF ord
Ġven ue
ĠLe d
ĠCh ron
i tions
~~ ~~
s tern
Ġr achat
Ġfil ie
ac y
tif ul
Mart in
k h
ĠH iver
charge z
F E
b aye
ĠX IX
Ġi kea
te chn
H D
asse urs
ĠF u
ĠT ags
ouve l
Q uelle
ĠCas ino
oute z
ci o
c ider
AN G
Ġb iz
ĠI le
Ġp vc
Ġf oyer
ĠR EN
: \
Ġfut ure
ĠA pr
c us
ĠP op
s ar
C ert
M ise
em b
m ois
ĠD un
d as
ibu teur
Ġci alis
at ar
at ine
ĠSim on
lo ge
A Z
ĠH ousse
ĠB oi
ĠEsp ace
Ġcom ble
Ġsau ce
Ġc ous
Ġp ath
c ir
ĠR ide
Ġcau ses
Ġstr ic
Ġp aire
ĠSy rie
ver y
ig ines
oe il
ie t
ra ke
hy dr
ĠM az
Ñ Į
Ġbr un
9 78
ĠR ien
on al
ĠX L
out chou
ĠC annes
Ġ19 60
for um
Ġg astr
Ġs om
ĠMal gre
m ode
ot ype
Con tr
Ġb ad
ĠFond s
ĠW ith
Ġt onnes
[] +[]
je te
E ff
ĠM ONT
z i
Ġcadre s
ĠP os
Ġit ine
ob lig
v oy
O O
b d
pte z
m ai
Ġv ivent
ari um
ĠCan adi
ĠN orth
ĠB asses
v ident
ĠLang ue
ĠLum ie
ĠT alons
ĠP ay
st ant
D T
L L
Ġad vers
ĠP uma
am po
a jouter
Ġroue s
OR D
ĠTr ain
A I
>âĨ Ĳ
Ġtiss us
ĠDr e
ign ez
b ie
ĠUl tra
ĠB ell
ĠTh r
ser tion
, ...
Ch a
Ġav enir
p ass
tru ite
g ou
AM P
Ġc aisse
23 3
Ġsup pre
C P
Ġre ct
an isme
al m
tr ai
ĠV ern
Ġg olf
N O
ĠLi br
ĠD ar
Ġ dette
ĠB ang
ĠC art
. ),
ĠP ER
ģ ...<
pl i
Ì ģ...<
ĠM ans
dis play
is ion
m oires
ĠMar cel
ĠD ark
anc ourt
Au tre
ĠP U
d ant
Ġb alle
Ġv id
g ente
ĠMic ro
ti tes
B onne
ĠT am
H er
ĠCour se
ail able
10 5
ĠK r
ĠK en
Ġ ode
atr ices
ĠV olet
env oi
ĠAr rive
Ġpn eus
Ġtra ces
Ġs age
ĠC ase
Ġav enue
ar ement
ĠT F
ĠMan uel
Ġm ette
ĠT ourn
ik a
ĠPar fum
Ġcou pon
Ġ( -
IN I
n ier
e view
Al ge
Ġprom en
ĠB is
qu ait
gr ade
Ġp omp
IS ON
M us
Ġch ic
r iennes
ĠB os
ci le
W e
tes se
S ou
Ġci tron
Ġno el
r eview
ĠGr ey
An gle
ĠS ony
ĠForm at
Ġray on
S ans
.. ...
Ġb il
Ġfro ide
ĠIn scri
D G
ĠM B
Ġav ion
Ġ, <
Ð ¼
Ġarr iv
i quent
Ġem p
ĠR ol
ĠH ard
eff e
S ign
Ġm oulin
Ġser vie
olog ues
Ġpro cur
Ġb ol
Ġv olu
Ġn oc
E lement
ĠP sych
Ñ ĭ
Ġprov in
M T
ol k
Ġess ais
ĠC arre
ol ive
t ou
ill is
Ġla ver
op s
Ġrec ul
Ġar che
icol age
Ġh all
Ġad mir
ĠChau d
ĠBr u
em place
Ġin dem
n ique
ĠAr ch
ĠT ours
":" ","
Ġab ou
ĠG illes
b n
Mar c
ĠW all
Ġsais ir
ex amen
Ġs and
F aire
Ch amp
ĠY ves
Ġcu ivre
ĠCH F
3 50
Ġlab el
a ses
J u
ĠC elle
Ġg ain
Ġex am
ĠAu di
Ġconn us
ess ayer
st an
P RO
cl aire
ame d
Ac ce
R C
ced e
s ist
ra k
ĠT it
s ire
and ises
aug ment
ac ier
wid th
st ance
ten ez
aut aire
Ac cess
aille nt
ĠT RA
ois ie
ĠF ire
ĠS ab
Ġ4 50
ĠG olf
age ux
ĠRe g
Ġav ocat
Ġrece vr
ĠJ our
le vage
ĠB rown
dr ale
Ġmar ron
onn able
> /
Ġle ve
Ġper ce
Ġlourd e
% )
ĠT ok
ĠCor se
Ġj o
18 0
ĠR T
qu are
Re ce
Ġsp ati
Ġ" <
Mo difie
Ġtuy au
br er
ĠB MW
áħ ®
ĠM oto
ĠLi fe
Ġcr oix
Ġfame ux
ĠL ar
in tro
id th
oc us
ar ts
c in
ĠDec o
oubl iez
OUR S
book s
ment al
ĠTe am
ole r
ĠE S
r us
ess er
Ġam ene
ĠD ata
F er
uplo ads
Ġre tire
Ġhor iz
gl ome
l arg
H or
ĠMar ia
in ant
Ġav r
ĠL O
V I
ĠS ophie
r ete
iss on
f et
Ġsou ple
Ġg ame
Ġin se
Ġsou pe
ĠJ aune
Ġpal ais
Ġpl omb
ĠF ou
qu a
Ġs l
s l
Ġ( Â«
one y
h ib
Ġh ouse
Ġacce pt
l ique
av ie
Ġfi bre
B ar
Ø ª
Ġurb ain
ien d
un t
Ġam bi
h ous
d ar
au m
uff et
or ise
Ġs ond
Ġfar ine
Ġdr am
Ph otos
oll ow
ĠW ater
r in
ĠB ol
ap in
r ure
il ier
Ġm n
F O
Ã Ĺ
ec tions
ĠAu gu
Ġag ir
iss u
% .
ch al
Ġf onc
Ġf a
Ġal ge
ho tel
m ag
Ġp ause
Ġv ac
orr aine
Ġti ens
9 00
ec ue
aff iche
Ġess ai
ĠB us
oc ats
c op
v ain
ĠM ilan
ĠRe vue
b ours
d ieu
Ġ dites
Ġex erce
ĠF iche
Ġven us
oc cupe
v y
Ġtaxe s
3 20
ĠSu pe
Ġa si
p ine
agn on
ard o
ĠV ill
h istor
Re f
ad he
ĠL ace
Ġab orde
vi ous
Ġc oc
an aly
ci aux
est he
ut or
ĠU K
Can ada
iv ing
ĠA VE
en dra
ĠIs land
g s
w h
ĠLong ue
ac tifs
ĠLi bre
ĠB arr
avir us
ĠG E
ĠR et
Ġmur ale
Ġve sti
B ois
Ġm ut
Ġpl ant
ĠN ett
tu al
Ġ19 88
e le
Ġm ole
Ġth r
Ġle ver
D ame
Ġla ser
Ġv ig
y pt
Ġ75 01
h u
Ġh al
Ġjam bes
aur ait
X L
Ġt unis
Ġboul ot
ĠSim ple
s istant
ub a
lim iner
Ġta ches
ATION S
Ġm p
br ite
ĠC ant
Ġf asse
Ġn a
C M
ĠMal i
Ġprend s
Ġs ombre
Ġau par
C er
ee s
Ġcon te
ol ies
ĠT HE
ĠF au
ym n
form ite
ĠPr ogr
ĠBr ef
ĠC out
Ġcar ton
d il
w ar
ite m
ad aire
cr ites
om i
ile r
ĠD isc
Ġmod el
g end
ĠUS D
Ġr alen
ĠA ix
A TE
ab ri
ĠB ill
ĠN ot
ĠJ oe
N ike
app y
ĠCl im
um ul
Ġm os
Ġan g
A li
Ġar bre
Ġven ez
Ġbas ket
V ILLE
ĠC ONT
offr ir
n ot
pr euves
Ù ĩ
oge ment
cede s
, ...<
ĠI kea
Ġdorm ir
Ġex amen
Â ¢
r amique
Ġsor tes
ĠD R
f ice
d al
fr ai
Ġapp els
Ġmix te
Ġ ille
ouv erne
as er
l ire
Ġb oire
ĠR h
ĠU NE
ag rap
ĠM ons
ch y
E r
ale m
th od
F T
iel les
f am
Ġs ouver
ĠP ME
ten due
par is
Ġdiv ise
ĠP RI
Ġcas ser
ĠRe ad
ĠA fin
lab ore
R etour
l ay
tr iche
Ġref le
J eux
Ġa didas
ĠR ES
Ġre z
Ġv ive
os ses
ĠC v
ph ine
ĠH a
v us
ĠS amedi
Ġad mis
Ġj oint
Ġn euve
ĠV ue
ĠRom an
: :
m aison
ant ane
H y
Ġh onor
C ours
ĠE tat
B D
d ez
Ġneuf s
Ġv ag
Ġmin ce
ti tudes
n n
P oint
Ġ2 40
m ises
Ġ dun
ĠCor r
as p
Ap p
M in
e a
Ġ Ï
un ions
Ġv ague
ĠH il
Ġdi gne
Ġso igne
as is
Ġa igu
th ur
ob i
ess ai
Ind e
d ating
riode s
ĠC oul
ĠP yre
e dans
ĠS D
Ġp in
min aire
Ġs tu
Ġm iel
qu ente
W E
CH AR
ĠâĤ¬ /
At lan
tr and
20 01
ĠL em
Ġ[ "
ke s
Ġk n
str ong
ĠH ot
ĠA k
ĠP VC
m ol
om pes
dou n
ÌĢ <
ĠN ancy
ĠAu g
Ġl istes
â ĺ
Ġpl i
d l
Ġ? ?
et tre
Ġqual if
IS SE
Ġis rae
ĠP ass
as pect
oc key
ģ "
4 50
d ame
Ì ģ"
am is
AR E
ion e
ĠðŁĺ ī
ĠGr oup
ti tions
M ag
ĠC AS
Ġim prim
ĠS ir
ĠR A
ose s
ign ent
cons cri
ĠM oc
d edans
s ource
pr em
\/ \/
ord on
ĠB oule
Ġp ape
T our
Ġbr ill
Me ille
C N
ĠCh arge
ĠA ction
li be
3 60
Ġsp a
ĠR O
Ġ dite
Ġp omme
dress er
âĢ ļ
di ct
R ho
OM E
n s
Ġmar ge
ĠSor tie
iz za
l ar
am or
orr e
Ġp ique
Ġpoly v
M ax
cl ame
I voire
u ki
e al
ĠD ol
Ġlong s
A fin
V AL
Ġr all
ĠT el
ĠE ST
Off ice
T err
ĠW omen
ĠT a
can isme
f ilm
ĠVen ez
Ġcer cle
z ie
ab i
ĠO ffre
id on
I LE
Ġb it
Ġpro jec
ad ie
ĠS um
T ube
Ġnoir s
b or
Ġac que
m ate
AU D
ĠP il
ĠLer oy
app ui
te ch
EN E
R IC
M ES
g out
t onne
d ons
Ġtr ente
f eu
l otte
Ġli tres
Ġprin ce
ac cess
ĠS oft
ill s
R ob
d oul
ĠC RE
Ġ10 5
99 99
art he
Â» .<
Ġsh irt
ĠSm ith
Ġsex y
el la
ĠP ul
ang o
Ġposte d
h ommes
Ġins uff
pos ant
we ar
V O
or ique
ment ale
Ġcab ine
aj oute
Ġt ole
onn iers
l ien
fec ture
ĠS outh
ĠCh ange
ĠR oger
Bl anc
ĠV iv
Ġ19 86
Ġ$(' #
2 60
ĠV F
Ġfut urs
ĠK ey
p ad
ĠM AN
itt le
Ġn ull
Ġ orth
Ġpar l
enc ent
Gr e
AF P
ĠV ER
ä ¸
ar l
Ġcon gre
s ub
Ġren se
Ġ its
ense ur
I Z
U p
ĠA T
Ġpr ud
Ġm yth
ĠW in
C ouleur
di vers
me l
op tim
Ġmal ade
ass o
ĠN ik
ĠH and
D D
ĠL ion
c ut
ĠV ienne
ĠS K
ĠR ub
G S
M is
ĠXIX e
g iques
> Â·
ĠS uites
Ġex ten
Ġcl ic
ven us
ĠV u
c line
Ġal li
Ġrel ais
new s
Ġver tu
esp oir
ĠFl ash
n omme
Ġcos me
az e
M ate
le ct
Com p
Ġtr ompe
j amin
pr ov
cl at
ĠO x
tre sse
OS S
enc y
Ġ Åĵu
we et
Ġj oy
op te
Ġg end
ĠS hoes
ĠDe vis
ar ise
ĠB la
ul um
st ock
ĠD J
Ġver ts
ĠPol y
10 6
ĠD a
am as
Ġr it
ĠF ly
alent in
Ġl une
Ġr ub
um ine
Ð ´
em bl
Bl ack
n oc
oc cuper
Ġdu o
Ġ dente
tern ite
Ġc ock
Ġcan ada
Ġ ),
ĠO ce
Ġabs or
I e
ĠF ull
$ $
# #
ĠPro jet
ĠC ite
Ġmo tive
c p
be au
Ġa le
Ġtr ue
ĠB au
t ateur
anc a
Ġpar as
Ġesp agn
A E
p us
ĠCon f
ati o
ĠT oy
ĠMon aco
L oc
Ġf un
Ġco tis
st ine
t le
Ġre ine
ap tiste
ĠT ir
pr op
itch en
er mo
Ġr ate
Ø ©
B B
Ġm out
tisse ur
O RE
w in
== ==
por teur
Ġvie ill
f ac
Ġdis ant
ĠM au
Ġm ade
aur a
agn y
ĠCon gre
ĠÐ ²
n ouve
Ac ade
Ġh onne
ti p
Ġst op
Fr e
vi a
ox y
ĠCont in
ĠC ah
TM L
Ġt omb
fin d
Ġn au
end ance
eu ts
Ġa ides
ĠPre sse
el ly
cr ans
c entes
Ġst yles
r esp
man ie
Ġfin it
tu elles
ĠM idi
ster dam
10 4
ĠP ois
Ġge ste
ign ac
ul sion
ĠC S
ĠPol o
in se
ĠCh an
doun e
Cl iquez
ĠT apis
In scri
Ġj un
arge t
ĠC DI
c au
par ence
Ġar ti
err eur
qu ante
ĠL ocal
Ġm ay
y er
ON D
Ġ19 78
Ġb asses
Ġ19 87
Ġ ds
el d
car te
Car acte
Ġch ats
ĠV all
ĠRo ad
ĠCour t
p ol
Ġt urb
Ġve ste
Ġad or
ĠR ange
L i
Ġl ove
Ġ dens
V endre
ĠCOM P
ex p
ht m
h ai
ĠG L
M ic
Ġn or
od er
ĠCl aire
di ens
n ale
Ġpro vis
ĠRe ss
Ġble ue
L o
yp to
ĠL an
ĠAdul te
La urent
s che
Gr oupe
Ġsign if
ĠDi dier
Ġmar e
s ki
ĠS lim
Ġdis ait
min ine
Ġs pr
R obe
Ġlic enc
Ġ ulte
oph ones
ĠL ic
gr ad
ch amp
B o
ĠB ack
00 7
ĠAVE C
Ġl anc
br a
Ġgra ves
ĠÂ ¤
ĠJ ordan
Ġpos ter
ON G
Î µ
ĠP ull
s oci
j or
Ġal im
que ment
out ine
Ġ19 85
ine tte
200 2
t ages
S amedi
i quant
â Ļ¥
ub les
Ġvo le
euf s
An im
ĠAn sw
b ach
ĠR H
Ġray ons
Ġal so
F iche
ĠIN TER
ĠD or
Ġex cl
ĠF eu
ra me
ĠDi ff
ĠPl ate
Ġ19 84
L ien
ĠA ur
Ġor g
AM E
Ġca ve
ic ide
ĠK m
p ot
Ġs oc
D M
in verse
ob iles
di ff
qu age
d og
Ġtu er
ĠMar y
Ġrob ot
Ġc iter
env oyer
marr er
Ġst able
Ġbron ze
cu les
ĠP ose
ode s
si les
ĠCli ent
p ais
ĠS el
Ġc oco
f ast
Ġbl inde
M em
ĠSant a
S ec
ĠPr ess
G en
al ia
ar iste
Ġcli p
ĠR oute
c oin
ĠH an
Ġst art
se m
ĠSoci al
G l
S UR
Ġmor ale
ar bre
ou ts
om ie
ĠC ongo
B S
Ġa id
w orld
dite urs
Em ploi
For um
ien dr
gl able
H T
Ġk i
ĠH os
ec tive
ĠGr aph
lin k
Ġin v
ad ou
Ġson ore
ĠS oldes
Ġ ×
ĠS olu
O X
ph onie
AS SE
ĠEn core
d own
... ).
and on
ou gh
n al
S im
Ġfer ont
vas ion
S yste
. :
pr i
C TION
ĠVide o
oule urs
ov ic
Ġs rc
n try
s it
ĠV it
S or
Ø ¯
Ġle d
... ),
Ġc ouvre
ont o
Ġsol o
n ote
ĠSer ies
ub er
ci pl
r obe
ĠC ook
Ġle roy
col te
ON U
ĠC ri
Ġ' '
ot ation
I ES
ĠT ER
ĠF ene
L ib
11 5
11 6
Ġmer lin
Ġconj ug
om is
ab onne
A IR
om s
Ġcr a
dou ard
ĠS oire
ar che
Ġb andes
An ti
Ġbr ise
Î ½
ĠS ce
Ġ dame
Ġpl ur
ĠIn tro
Ġthe ir
gl age
dem ment
n il
Ġju me
ĠBour se
c iter
Ġtr iste
ous ses
e par
ssi ve
b uts
Ġcro it
Ġcon que
c ois
Ġb aie
gul ier
que ttes
elle r
Tr av
g ine
tur n
E cole
Ġ0 46
ii ii
T U
Ĺ ı
t ue
O p
Ġ din
ĠDir ect
Ġm am
ox e
H P
, .
tr oit
22 3
Ġman che
l amm
E glise
T w
ĠS exe
ionn ats
Jou eur
ĠRou en
ĠPro te
s al
aille ur
Ġp onc
Go ogle
ĠV erre
14 8
G L
Ġp aquet
Ø ¨
b io
M en
ĠB ah
ĠEur o
Ġbat tre
en ses
ĠO K
Ġem br
Ġja unes
ĠN EU
áħ ¡
ĠM anger
Ġper tes
inten do
p ou
ĠR OU
Ġcam ion
De vis
dou te
E sc
Ġ1 12
ĠSex y
do or
Ġs ue
Ġn oix
av en
ĠBi joux
cy cl
al ors
ĠT on
Ġdec o
im ie
Ġla me
Ġf av
il ation
Ġcour ts
Ġav ais
M ai
l ieu
":[ "
ĠR un
T em
ĠUnite d
T i
s au
st ore
J us
Ġco qu
ic tions
U NE
Ġpar u
Ġ( )
ĠUn ion
cu tif
Ġge t
C amp
10 9
ay on
i ors
Ġl isse
ĠAn dr
ris tian
ĠE u
ob er
Ġst ore
l anger
ĠK im
ĠIm pre
onn aire
ise ment
ĠSer ge
ĠCo que
ack ing
Ġb acte
ig ation
ĠT ime
ul teurs
cl am
r ative
ĠD ANS
b f
r d
ĠMer lin
fic iez
AM B
Ġjus que
Ġfer mer
ĠPo ids
Ġdiff er
ĠJ oh
ad os
ĠS tud
Ġai ment
ress er
ve lines
áħ® áĨ
Ġatt a
Ġplan if
ec y
Id e
I K
b ois
as tre
A IS
ĠÂ £
ĠGo od
P a
P ie
ĠSt an
ic tionn
L M
ĠC OR
10 8
Ġjou ets
ĠG il
ĠRe ims
Ġhe b
n ac
ĠO lymp
>| -<
d ys
ĠC F
ous on
áĦ Ĥ
ĠAt lan
iss a
R oom
ĠSil ver
ĠFr om
Ġeff ort
Ġbour se
Ġle v
ĠE th
aiss ant
Ġso eur
r ight
ak ar
ĠH ou
ĠB ach
Sal ut
C op
ĠE duc
ĠY our
Ġm ig
ann ing
3 13
ĠAr c
iss an
ĠFab ric
Ġ dedans
Ġ day
lic ieux
ric ulum
Ġress or
ĠC yr
f ore
ĠW ars
ĠB OU
Ġ dil
ĠPo e
el se
ĠW ood
ĠL imite
ĠAc tu
p m
n c
ĠM S
Ġfig ur
Ġten ant
Ġvo ter
ind ow
igr e
T arif
Ġa ustr
our g
w atch
ĠCas tel
our euse
tic ules
am pe
ph a
zz i
âĢĿ .
Ġe ut
i us
ĠCon ver
30 6
ser ves
Ġs Åĵur
V os
ĠK er
ĠO P
Ġâ Ķ
Ġaime z
11 4
Ġin aug
ĠN uit
Ġcu ille
ĠH u
H O
ĠC iv
Ġcer tif
f it
u age
Å Ĵ
h el
Ġm oul
m ane
Ġar ch
G N
Ġin oxyd
qu ier
ĠAn g
ad ame
un s
ĠI T
Ġc igar
ĠD ame
Ġw ere
Ġpare il
oy enne
ĠR u
G P
ar tier
Ann once
ge d
spe ct
ĠIn spir
g iti
r ac
n ages
tr iser
p tif
d une
o che
Ġm ang
Ġcomp t
AU T
def ault
ve tte
Ġ3 000
Ġmas cul
e il
ven ant
c entr
h om
AU LT
D ou
3 01
00 2
Ġf irst
III e
le z
Ġh ad
ur ie
Ġ20 21
ĠK i
ĠCr oss
ches ter
vide o
anti ers
14 9
Ġvi ews
Ġla m
Ġsav ons
M L
ĠR UE
Ġn arr
lo ve
Ġs ir
Ġs ain
Ġsing ul
Ġ19 81
Ġfi ches
Ġfix er
ons oir
ĠâĢ Ŀ
g ate
Ġan y
Ġven ant
Y L
Az ur
ĠChe val
Ġet udi
Ġfisc al
Ġl ots
W eb
Ġne ed
ĠE li
Ġun der
O k
Ġ} ,
ĠO S
P endant
Esp ace
ĠSecr e
ĠW eek
13 5
ib er
un it
me d
ill ac
ams ung
ss on
ĠC eux
Ġenv ies
ENT RE
Ġr h
ĠF I
off ice
Ġpr ouve
av ril
Ġac ade
hum our
f ices
00 6
and y
Ġtir age
Ġiss ue
Ġ19 82
ĠM oulin
ĠCor n
ĠV olume
li ve
ĠV ent
rake ch
W S
ui vez
S inon
ĠR is
ail y
I tem
S uite
Ġre str
Ġ1 16
Ġpse udo
b b
Ġf usion
FOR M
ĠP inter
x im
Ġbal ade
V EN
Ġcat he
Ġ15 00
Ġ17 0
Ġmas ter
ĠPr ince
iforn ie
Ġpar ts
> ,
r ine
Ġfranc s
tic ule
ĠL or
ĠXX e
tion ner
Ġob st
ĠP ur
in tr
Ã Ł
ysi que
Ur l
Ġw ifi
ĠT ag
dr en
ĠVi ew
ĠDi jon
di ques
m arre
Ġse g
Ġvol ant
Ġhar mon
aj out
in os
ĠH ow
par ti
Ġiss u
Ġst ay
ain cre
gr ale
ĠL ag
le in
pl ie
Che z
m ograph
w iki
ce pt
Ġr ace
ere s
ĠMos cou
Ġ dating
Ġhau tes
us ant
ĠJ ui
P oli
ĠC m
ĠMe dia
ĠCh ois
t onn
ĠAn aly
turn e
ul ter
Ġ2 30
Q L
10 3
Ġp aille
13 6
ac teurs
pen ser
* ,
Ġpoule t
ti ge
if s
Ġfau sse
Ġis lam
op inion
L ang
ĠJu les
Ġgre at
r eux
L ot
ers on
ĠSwe at
r est
ĠSh er
ja x
IER S
Ġb ig
Ġpap a
le v
V ie
n ation
O ise
Ġc ass
M od
n in
ĠD um
oun g
Ġ? ??
enf ance
ate l
Ġtab ac
ĠAN D
ol iques
Ġver tic
St ock
Ġsang u
Ġc av
Ġ19 50
ise ur
am o
Ġag o
n ieurs
ĠJ O
Ġ0 48
ĠG od
le e
r ables
2 90
Ġra frai
A che
av aient
ĠE conom
ĠV id
Ġfai m
ite urs
ĠLe ague
op a
H istor
Ġsal ut
ac que
Ġpers o
owe en
ĠC ra
Ġci ment
Ġ ).
li me
ĠA sie
r one
ĠS oul
age z
Ġscul p
ĠBo ots
ĠSol id
E d
B I
Ġh ousse
\ '
r iens
ut in
Ġform id
Ġm ourir
Ġbre ak
Ġ1 18
duc ts
al istes
ĠTh ai
ER N
ĠL aval
Ġser ais
ĠMet z
Ġt ag
im mer
Am azon
M y
kr aine
Ġ1 14
D an
ig a
le ine
Ġ1 11
Ġan th
tern el
Ñģ ÑĤ
ĠR io
yr ock
ĠE c
T ou
ok o
ĠP uy
Ġmon e
form ant
ente z
O h
Ġ ol
Pro ble
C uisine
per c
en ri
Gu ide
ar mer
Ġhab ite
ĠB lo
omm aire
ĠMou nt
ĠF ut
erse y
ann y
Ġdist in
G V
ĠQ UE
Ġst ages
ĠðŁĻĤ <
Ġpr ior
ob s
ole n
tro ite
Ġh is
amb ou
ĠVir gin
Ġar te
ulti me
Ġcre dit
ĠPS G
ĠZ one
ĠCl air
r ain
Ġcons ol
Ġin i
z aine
Ġ dune
fr ed
ret urn
ov o
ĠC ame
ĠN am
Ġbook s
ĠLib e
te le
ĠD ivers
ĠG our
ĠN iveau
Ġine x
Ġfant as
F il
av oue
un ir
Ġn uis
B elle
Ġmur al
P U
Ġ19 83
ĠM oins
ĠD H
br ide
ĠPL US
ĠW il
ĠA FP
ĠC in
tic a
x ie
in ts
ĠA tt
Ġ dys
Ġparc s
enti er
par ole
p p
1 19
Ġn oires
ĠE ast
is si
ĠSh ow
ģ İ
Ġp ower
as o
ĠAp p
ĠR ew
ĠB AR
OU VE
L u
ett a
10 7
Ġs ons
ĠC it
ĠG ro
Ġann ule
Ġalbum s
10 2
p ices
Â §
ron ique
Ġver ra
Ġ other
Ġ$ ("#
ins on
Ġo ce
ĠN oire
ĠJ E
ĠGar age
3 40
m ic
c ours
ĠC oun
se e
ĠQu els
ĠU V
12 4
ĠVen ise
Ġhui les
ĠJ ava
ac on
gr ir
T F
cent age
Ġt ap
anger ie
ĠF N
L un
Ġass or
ĠA SS
ar in
ĠBe aute
ĠV ieux
ĠGu ine
B at
ten du
v ais
IN ES
l ong
Ġcomb us
Q ues
g ht
Ġqu an
Ġempl oy
Ġ19 75
o ffres
Ġâ Ī
ĠB ab
par ts
arch ie
AN E
Ġven dus
is lam
ins crit
Ġam azon
Ġvois in
Pers onn
cre en
Ġsi ze
A ux
ĠE DF
ĠH ai
ĠS omme
enti ste
Ġ1 19
t z
fer ence
Ġh orm
ĠB ert
ĠD S
aill on
Ġrom ans
ten n
Te chn
A ustr
ĠT ennis
Ġ tic
eur euse
Ġjur y
r entiel
Ġin ox
en vie
Ġper les
ĠFor me
ser ie
D U
Ġâ ģİ
Ġst abil
M euble
" },"
d n
ĠMuse um
ĠSch ool
Ġmen uis
ĠS L
F M
ett y
Ġb ur
im per
C i
oc ke
Ġn ice
S port
ĠI D
Ġcu ire
Ġp av
af il
Ġc ore
ĠHug o
Ġm orte
Ġf eux
chau sse
Ġgr ise
ĠP ompe
Ġp end
ĠT ai
Ġmor al
mar k
Y N
ar que
el li
ime tie
ĠLun di
n av
di at
Ġdoc tor
ger ie
ĠL itte
ĠCon tro
Ġpe ople
tudi os
om on
c li
Ġb ottes
od ite
ĠBl u
tru c
Ġide e
ar di
Pro f
A X
Ġenv ah
nt ario
I r
ĠT ro
im i
ĠP oser
du m
com e
r ange
7 50
arn ing
Ġvoy ant
abr e
ĠR C
Ġre met
op tions
di ce
rou gh
w agen
ĭ áħ
( {
a ffr
UB L
ĠRobe s
12 8
ĠW ik
Ġroy al
p ente
Ġconn ec
Ġconcl u
2 80
Ġo k
Ġ; -
ern er
p pe
Ġser ai
ĠL une
pl oye
ĠL en
ĠD onne
Ġad o
Ġtri ple
nier ie
c ss
ou pon
OT RE
ĠBr est
ro vi
ais ant
Ġp ix
ĠL ut
ĠH arry
Ġp ig
ĠC adeau
Ġseu les
ĠK ir
ĠCor ps
Ġw orld
ĠSu z
ĠCa dre
ose lle
pos ants
l igne
ev ille
), <
ĠSh op
Ġ urg
A sie
j ac
Ġtruc s
Ġapre s
ite rie
ĠCh ir
C ep
ĠDon ald
av as
Ġvoy ez
lic it
vo les
Ġte inte
ard ie
ĠT ay
Ġ12 8
ĠStr ate
ĠA fric
con que
ank s
outil s
ĠT itre
pl ier
F aites
in fr
per eur
ir d
ult ane
ĠSt ade
Pr op
Ġje ter
Inf o
ĠPro ble
3 30
c ence
osc ope
ĠS inon
ex tr
ãĤ Ļ
r age
Ġcl os
ĠTok yo
onn a
g ance
yl on
R Y
z ac
ĠR ot
Ġh ere
De sign
Ġref er
A ug
RE T
Ġe Pub
us tre
ir mie
Ġh ie
Ġb ann
ĠJeu di
Pr ess
h ad
J ose
Ġdevr ez
"] ,"
and ra
ĠFer me
AG NE
cip ant
ĠS ix
R oy
ony mes
Ġprop ag
ĠChe v
Ġly on
Ġinc ap
le ft
ĠO rient
Ġven ait
acce pt
l amique
Ar gent
Ġ19 45
ĠJe anne
w i
uy er
agas car
Ġp ir
ĠAd ap
00 8
ĠGr an
ģ !
L O
UL T
Is rae
Ì ģ!
X T
Ġb ail
00 5
Ġj azz
leu ve
B er
i osite
ven ants
ĠAsi cs
wid get
Ġtr ains
ĠO h
Ġp ist
Ġkm s
ĠT otal
cou le
ĠV AL
Ġspe c
ĠFilm s
N ews
ĠSN CF
ĠR od
ĠC au
; &
ĠH i
ĠA dr
l ue
12 6
Ġcli che
Ġ1 17
ant h
ĠH ab
ÌĢ .<
ĠJul ie
ĠB ande
t ariat
oc oll
AG ES
R ev
Ġsau v
ĠAr d
b elle
Ø ³
aur er
Ġ19 0
Ġar bi
Ġv oient
gl ises
m ile
im pos
> \
Ġw ell
ĠCh oc
US T
Ġp ayant
ho o
Ġvern is
u ter
P ost
Ġ ).<
** *
Ġge stes
we i
att le
ĠHen ry
Ġh on
cr is
ĠN a
ap or
D H
ĠÐ ¿
ģ )<
ĠAr m
AN TE
en cre
tu els
Ì ģ)<
ath an
tu euse
ĠInf o
s up
ĠF ur
ace u
f ox
Ġso ign
ï ¸
den tes
ĠA ge
gr al
Ġs ome
Ġdom ine
Ù ģ
ĠA le
R P
Ġi Pad
R apport
ssi f
Ġ19 68
Ap ple
Ġet hn
ĠAu cune
Ġ1 13
ĠMo teur
Ġtex t
ĠL ine
ĠCom pt
ĠSte ph
g lige
" ><
cl in
or ange
ĠÃ Ĺ
C le
ente lle
acc ent
c ine
gr alite
Ġal u
Ġdou ze
Ġvul n
Ġb orne
ul f
Ġgl ac
ĠChr ome
Ġai ent
Ġbl o
tenn e
ĠC uis
ch apper
ans ion
f ie
Ġcul te
ti gny
Ġpr ice
tic o
on ais
C at
ĠS OL
or ia
ĠMat th
ĠS ky
ĠM airie
ĠC ass
. Â»<
Ù İ
11 8
ĠR ond
z on
P oser
Ġpro pr
Ġin dir
ante aux
Par mi
... ]
Ġag it
)[ +!+[]
ĠR S
ĠE cole
ĠC OU
Ġbar rie
Ġrec ycl
ont ane
ĠC up
Cont act
Ġgl isse
4 20
ass ade
ĠK y
b ay
ĠRom ain
qu o
ĠA w
IN D
Ġper pe
am ar
stu mes
ĠDr agon
Ġh ect
b alle
ĠCa en
ĠM ort
Ġord in
cl ick
Tem ps
eb ok
Ġ19 79
ĠS of
ĠDe v
par ez
tra vel
ĠEx per
ÑĢ Ð°
in ie
n u
f end
mar s
ĠBr ig
hous ias
ĠIS O
N I
} <
ĠE C
oc tobre
ĠC oiff
ĠAu dio
Ġvuln e
A telier
ĠM ots
Ġpros pe
ac un
Ġ def
I mm
g yp
Ġfre in
ad ow
Ġ( @
ĠAut hor
Ġfr an
MENT S
arm aceu
en ser
ĠL ui
& &
ĠM ol
ĠL ap
and ant
Jeu di
h l
il dren
ograph y
aus anne
fr ee
ce au
im pose
ĠL amb
D ernier
Ġâĸ ·
tic ite
ĠMar di
Ġv ies
12 7
B U
âĢĻ âĢĻ
ks wagen
ĠG AR
A ide
Ġrem or
ĠLy ce
Ġdi ct
S av
d ome
P ol
p ice
Ġpar ois
Ġb et
CH ER
ĠV rai
Ġaider a
adap te
qu ants
R ON
eu l
ĠO k
ĠH onda
Ġsa ura
Ġprom et
ĠG a
LE CT
ĠI ss
ĠN an
Ġfranc o
ĠTr ail
op port
m iques
ĠAc ier
Ġ= =
Ġjou ent
c uit
est in
gor ge
Ġen dom
Ġbr avo
m oin
E mpire
om bes
an ique
Ġ! )
agrap he
ĠT issu
g ing
Ġch air
ar tisan
ĠB it
al o
OS E
ĠH abit
w ell
ĠCl oud
oo oo
ell ow
ing uer
ĠR DV
Ġtem ple
4 01
ĠC dis
Ġiss ues
c ope
mble r
ĠS tu
ch ron
e tic
Ġun if
L ist
ĠL ow
ev in
alog ues
ĠN iger
At tr
Ġprom is
ĠX avier
n eu
ru ption
Ġfl ot
Ġbr osse
ĠF ern
OB IL
st one
ĠG arde
ub ert
ĠFr ed
et z
Ġmus cul
Ġla vage
ĠSh ort
sec tes
Ġsign er
11 1
Ġte am
ĠLaur en
ĠP RES
Auc un
and ons
rit age
25 5
Å Ĥ
Ġcour ir
t onnant
P atr
Ġinf irm
ĠR alph
w ays
vent ure
ĠA PP
Ġinter v
ĠSav oie
Ġr ad
ĠS ale
Ġs tud
R ue
Ġju st
ĠM ak
h ide
Ġ13 5
ĠBre ak
ps on
Ġa thle
Su ivant
an as
Ġc ure
UR S
ĠD yn
N S
our et
A H
fin ie
ĠS ize
ĠA qu
ĠV O
ĠPr iv
Ġn age
ix e
lo e
Ġle x
Ġcor on
ce mber
ĠMet al
ers er
he ight
3 80
ĠPle in
Ġgar s
S yn
gr aph
ĠY ann
S ocie
3 10
ĠLe on
Ġf oie
Ġg ir
tid e
Ġex port
ĠM anche
ĠÂ» )
inter me
ho st
ĠChem in
Ġrobe s
Z E
ĠZ oom
ĠP el
Ġfr ac
but ant
Ġ0 49
ĠMot or
Ġexpl o
sul te
' )
c enter
ĠOu tre
P M
ĠIl lus
u ption
Ġrempl i
L og
ĠM ET
Ġstr ing
i at
ĠB or
Ġth ere
Z e
se o
Ġcons tr
tr ich
Ġmo dul
R om
cl ub
Ġfi bres
ge ois
anc ier
ĠCol l
ĠR iver
n ig
Ġh and
Ġdoig t
abil ity
N T
im pe
ir s
icip ale
ĠK ong
ĠSh irt
ĠK indle
in vite
ĠJ ones
g atif
ĠH autes
h on
Ġ19 76
o vi
ĠL ieu
al ade
ĠPar tie
Ġus ages
Ġvar ier
y t
Ġy oga
o on
g th
Ø ¹
id ence
Par ti
11 7
oi ce
ĠLe e
ol t
ĠIS BN
gi mes
ol ais
s ister
ï¸ ı
com TM
ĠF osse
ĠF un
ert o
aut y
m w
ĠV S
22 5
ive z
Ġlivr er
ad eur
Ġre quis
15 6
Ġa ge
spr its
Ex pe
Ġon ly
ami tie
ĠCr ist
e ad
bl ock
4 60
Ġsing le
ĠF ich
Ġnav ire
ĠG B
4 80
11 3
ly se
ĠB ible
ple x
ophe s
ab is
D ro
Ġfore x
ĠS ens
alle t
av ocat
gh an
Ġe mble
r eur
C V
ĠSpe ed
Ġou est
iz ed
ille nt
D ata
ĠT an
Tr ouver
cenn ies
sse ttes
dic ales
g ante
Ġso ie
Ġar c
14 5
ĠA part
Ġv ire
Ġtr ous
Ġop posi
ad j
y lo
Ġsuiv ie
plo ie
lim ine
00 9
O pe
ĠT v
em br
Ar r
ĠM am
ath on
Ġm ous
ĠO s
OC K
St ation
Ġr as
ile ts
Ġj olies
Ġm oule
am ines
Com te
Ġheb dom
Ġcri me
Ġsou pc
qu at
Ġon gles
Ġgu ider
ĠX box
Ġcor n
Ġca cher
ĠT O
ĠY a
ĠLe g
L undi
on ic
12 9
ĠC ov
Ġf ull
Ġe p
ĠDr ess
Th is
Ġen tite
Ġlav abo
A s
Ġfall u
Ġn at
Mar di
sc ar
ĠOu vr
ĠP OL
ay age
od o
ĠH ill
ent end
En core
Ġc enti
or ateur
N orm
P ays
Ġ doul
ou nt
D L
c v
En suite
i ff
gor ith
Ġb ob
ĠO tt
qu ation
Ar c
cri vez
is a
ĠO pe
Ġsur vie
Ġsur e
ict ures
Ġaler te
enn y
E sprit
ir ent
k ina
Ġl ow
ori ales
Ġpo ches
Ġaff ich
ĠTr op
c able
Ġw ay
T ext
Ġb ug
ĠP ink
ac ces
ĠB aby
ĠRe p
NE T
ati bles
Ġautom n
Y ou
aa aa
sh ip
ĠO ffres
tr iques
Ġp oupe
Mon tre
R o
Ġan ge
hy per
Ġro che
ĠB oy
00 4
m br
ĠM aire
ly n
ĠM ouve
ĠK ur
av ent
Te ch
âĢ² âĢ²
Ġoff er
fr ica
ĠCOM M
Ġr ugby
d ed
Ġma ke
Ġbour g
Ġcar n
Ġabs ol
Ġseu il
oc s
lic ate
C ur
Ġc ut
our e
du isant
sir ez
di ation
ĠMo z
m atch
sc o
Ġ12 00
te ux
Ġâ Ĩ
Ġtit le
ĠAU X
Ġpl ain
aiss ait
f b
Ġ19 77
Ġpou ce
ĠCo sta
M ac
ois elle
ĠN ight
m ore
gion aux
Ġg orge
Ġroy ale
B ER
vel y
N ext
Au di
ĠC all
Ġ0 47
u eux
ĠB TS
Ġno tice
po ol
Ġp air
M ET
S ep
Ġann onc
fin it
Ġpl ume
armer ie
in cl
ong s
k u
ĠTe ch
ch ettes
Ġport ug
ĠCom b
rap h
H um
ai tre
____ _
Ġt asse
Ġverr ou
____ __
f ault
ĠPap ier
v p
ch el
" },{"
ors che
Ġwh ite
ĠB rie
ĠCan on
Ġ iv
Mar que
V OIR
Ġ19 73
Br ef
F ab
ĠO FF
ĠA F
ĠN at
M use
Ġsub i
Ġ12 3
7 20
ouv ant
Ġaff irm
Ġtr o
oul ant
ĠR ic
em i
d eal
ouver a
alise s
k el
Ġfer ait
Ġforum s
Ġs oft
br ah
d t
empl ois
in al
ĠBen oi
C AR
Qu els
ĠM ens
= '
ĠE quipe
Ġar b
Ġca hier
i onner
Ġprop he
Ñ ĩ
EL LES
Ðµ Ð½
ĠGl obal
Ġm s
C B
Ġ; )<
Ġel se
ore ille
Ġrose s
vir on
tw itter
Ġverre s
ott om
ĠRac ing
Ġ dieu
13 9
Ġr ive
Ant oine
Ġar m
ob jets
ĠS AL
ic ier
iv ite
16 5
R ouge
eng ager
V oyage
ren ch
rapeu te
eff ort
C Y
01 5
til ite
tor al
Ġw ho
ĠSyste m
E quipe
Ġprim or
Ġ... .<
ob a
Ġ19 72
au cun
par tie
sse mbl
cueil li
Ġp ts
Ġb ars
Ġ19 20
"] =>
ĠQu al
q x
ĠH ors
r at
atis me
ĠSER V
Ġs avais
l ag
ĠG ou
ĠY am
Ġk Wh
op athe
a dre
Ġ19 40
) -
Ġb ra
Ġr ame
Ġs oph
ĠD ames
Ġflu ide
Ġla tin
Ġvis uel
Ġtax i
D on
S y
ĠEx te
Ġf une
assi f
. ).
ĠIn ge
Ġab ond
ĠToul on
Ġcon ti
pit aux
ĠAl sace
o ivent
aur ai
ĠMix te
Ġh ard
II e
ou les
U K
ĠL ittle
in ave
Ġm ath
gr ave
Ġem pre
ĠCon tre
ĠB ank
Ġatt ent
Ġin time
Z Z
Ġque ue
uy e
ĠSt age
ĠC oc
Bl og
Ġin spe
ĠCH AR
Ġac cou
cr ivant
Ġcam ar
Ġnour r
ce tte
Ġen rich
Ġg ig
in ale
ĠL ady
ong let
I ran
ou ches
IG NE
ĠD IS
Ġquin ze
T ime
Ġpre ss
Ġ dome
16 8
Ġcou le
loc u
ĠP oi
ĠA str
ser vice
Ġh onte
ĠI mp
ĠCom pte
Ġen c
ĠRe v
ĠRide au
ĠF al
Ġbe en
K ey
Ġim pec
B ox
Ġm ines
ge ts
Ġtop ic
4 40
Ġni ke
ĠC U
mes ure
Mal gre
ĠLa w
, '
ess ence
Ġh aine
Ġbr ou
TI L
Ġcon tes
Ġsav ait
ĠCom e
h os
ĠX P
Ġ19 74
Ġfin d
did e
use ment
ĠAm b
ĠLe x
ĠL arge
pe tit
et ti
yl ique
op ter
P eut
Form at
anim al
Ġl ight
ĠVe stes
no ver
ĠO ver
ĠM ille
T ag
mas ter
ĠS ki
cas t
Ġt un
fici ent
Ġt as
G ros
Ġ19 71
Ġ10 6
scri pt
Ġper se
Ġtr adi
ĠR ousse
C am
Inst all
Ġbi jou
ĠDE L
ĠNor ve
ĠâĶ Ĥ
abl anca
ch os
Ġin to
Ġre jet
Ch ap
ĠPr enez
tis h
i Phone
bours er
di g
Ġfi oul
ise xe
Ġpl ug
13 8
ĠF ils
ĠC ent
Ġmar bre
Ġtr onc
ĠM atch
col le
di ale
Ġbe ige
is m
ĠG EN
N icolas
Ġn oy
OL OG
Ġj ac
uy ant
tr ol
ĠJ ane
Ġsy m
if y
Ġc ac
ĠToy ota
elle nt
Ġ dons
ier t
17 5
ple n
au pe
Ġg ly
di enne
Ġv ign
L ieu
our ds
Ġvis u
Ġcan on
ic ule
Ġg lu
G i
Ġar tif
> $
F S
Ġg ay
. Â»
Ġtr ent
isc ines
Ġacc ent
atten ds
Ġt ape
Ġ$ <
ve y
iv ern
Ġvig il
ĠSyl vie
IE U
b out
Ġcr ypto
h aus
6 50
ĠJ et
Ġw idth
ĠV as
Ġj al
r ault
cip it
Ġf olie
ock et
ĠI M
Ġma ter
Ġqual it
Ġt am
B M
un der
Ġmar gin
fr ont
Ġr attr
] ;
em in
ĠLin ux
bl ure
Ġf err
je an
ati tude
Ġa xes
ĠMar io
ge stion
Ġre stre
TI E
Ġport s
ĠL ist
ai ement
uil ding
Ġcl ics
Ġ10 4
ĠG ames
k t
ĠS ah
99 9
cos yste
ĠTerr it
r t
15 8
ĠR oule
OR S
dr ic
Ġn ave
Ġpl ait
ĠM ine
01 6
pren ant
si onne
ĠApr il
p op
Ġ dresse
s d
G M
ach ine
12 1
Ġress en
ĠCH E
Ġam pl
Ġcy ber
Ġrou tie
Ġ10 2
AT S
20 5
ĠB I
ĠI MM
Ver sion
/ ?
Ġch aine
ĠGar c
Ġb ot
sign er
ĠIn tel
c ors
ral iste
Ġpri ori
A ge
M or
ill ie
ĠM agn
Ġser v
ĠFranc k
Ġh ow
Y ves
k ins
Ġthe y
M aur
k k
ab ie
Ġhum ide
Ġs aut
ĠS AS
ĠS itue
Ġm ol
15 9
onnaie s
ak u
pl ic
Ġc ense
IT ES
78 8
L I
ĠGrand s
ĠDou che
Ġk o
19 99
Ġdr ogue
O ffre
Ġabr ite
Ġrur al
Ġs co
ar ia
cr aft
t ales
c b
eu d
Ġam or
ĠM oul
ĠP asse
17 6
m ac
H aute
15 16
Ġimp ati
Ġsu pre
ĠE book
ĠC oin
G ES
ĠL ook
ĠArr e
mo igne
26 4
alise z
ĠD uc
lo ok
ira tes
Ġcar net
Ġc oins
imo ges
agn ons
Ġt alons
tic ien
top tv
ĠM AT
12 2
ant aine
ĠB ow
ic ia
Ġenv oie
Ġmeur t
hor izon
Ġarabe s
Ġf leuve
stu ce
ĠP oin
ĠA ri
Cl ub
Ġdr ame
Ġs ainte
15 5
AG N
Ġor n
ĠR adi
ĠAU T
ĠF all
M me
in vent
ĠQu atre
ĠJ er
tr ier
Ġap port
ĠLors qu
U D
ĠB ed
Ġju ger
ĠF E
14 4
v oye
Ġb ati
Ġcri mes
Ġs aine
fer ts
ĠK u
inn e
rif iez
f iles
ĠAr thur
ĠB ord
Ù Ķ
Ġ dv
{ }
r ig
15 7
ue z
V EL
Ġti m
O f
ent al
Ð ·
d ex
ĠS S
gn er
ĠS MS
ap an
ĠP av
ĠT ch
Ġbord s
Ġess ay
you tube
ĠL td
M ONT
rem ove
bon jour
ĠK a
A ction
ĠP ense
P or
s agre
ĠC ad
Ġn ame
+ <
Ġst atis
ĠV TT
Ġpo ign
P an
Ġ% ,
om per
ĠM ois
ĠG on
e i
a urez
th umb
a ves
Ġ19 67
at uit
St yle
âĢ Ĳ
M IN
ĠLa f
Ġ10 8
Ġblog s
ĠM b
ul le
ĠRol and
d omes
Fr om
Ġpost al
ĠRe gard
ve mber
Ġst agi
ĠS IM
ĠB roche
ĠNav y
ĠG ui
ph anie
ĠR AM
Ġcl ose
Ð ¿
Ġami tie
ĠCH A
Ġcons ac
F err
av y
Ġ19 69
CHAR GER
un o
D ec
ĠEn ter
P yre
ouv ille
g aux
pond ent
iti ge
Ġre jete
Ġg au
v ance
13 14
em ark
ing en
Gar onne
Ġs ab
ĠSt ory
ĠI CI
n w
d ine
ĠCh ant
H S
w ord
ĠAn s
x ite
Pro fe
Ġdeb out
Ġrus ses
01 8
Ġ2 24
ĠM M
F rench
St ore
jec tifs
Ġpan or
Ġb aby
j ourne
Ġlib ert
Ġwh at
f auts
ĠSar ah
Ġpo ivre
Ġac ous
3 90
ĠP ure
li b
Ġe ffr
ac io
ĠC ath
Ġâ Ļ
or age
Ġb uffet
ing le
ĠLab or
Ġer g
ath lon
Ġm el
ĠP aper
Ġ10 9
sif ie
G I
ĠCom pe
ch ard
A uto
( ".
ĠAnn a
f an
ve st
Ġre view
ul se
br idge
in der
Ä ±
Ġmy the
aill ons
Ġt alon
Ï ħ
ĠAn c
14 6
Ex press
sti ve
ist ent
pann eur
fic it
pen sion
G ermain
P al
ĠEx posi
ĠV E
g ier
ĠW atch
ĠVis ite
ĠC av
Ġdu quel
arr iver
ĠS por
ĠAugu st
20 8
tel les
ph otos
Ġkil os
Ġ5 000
l uc
n est
od erie
ig le
Ġ dela
endre z
C oll
Ġ- ----
t ang
ĠGau lle
in dic
ĠF IN
Ġsub ir
d ays
ĠH avre
ĠF leurs
Ġ6 50
S ch
trav aux
Ġi OS
ĠV ic
iz er
Ġgenre s
Ġjus tif
ĠH E
ac tiv
Ġ domes
ole ts
iv a
ner a
Ġf umer
Ġm eu
: \/\/
Ġl onge
' m
Pe tite
umer o
tr aite
la di
ĠS af
78 9
F emmes
Ġdie sel
ĠB ains
Ġordre s
ĠMode le
g itime
Al ain
Ġte int
mon te
ĠD ra
G C
ĠDan se
Ġob e
ĠG O
m ur
bu ter
Ġc ire
Ġp ut
3 70
ĠL CD
EN NE
Ġt chat
US E
ĠP ages
iz ation
al iers
4 30
ass ent
r am
Ġesp oir
a dul
ĠZ en
Pl ace
ĠMar e
Ġs am
b ag
ĠCh ai
c tes
op athie
u an
ĠS tat
Ġen cas
ĠS om
áĦ ĭáħ
ĠSte ve
Char les
ie f
Cal ais
Ġman us
ari ats
D istr
con se
Ġh umeur
Ġth em
ĠPe tits
AN N
K it
ĠB il
Ġf at
ĠT urb
Ġ ]<
ĠD up
com pte
AN TS
Ġn ob
pro fe
D ess
p y
lec ted
Ġ19 14
Ġtou l
rus alem
Ġla ce
b order
A e
ac ent
air ies
Ġdu c
ĠPort o
22 9
ĠQ C
ĠD oll
S am
ĠF ait
ĠGir l
ex port
Ġsp he
em ail
Ġsal ade
ĠðŁĺī <
ĠSec ret
N ord
Ġbloc s
pau les
Ġph ases
or o
Ġple ins
Ġ3 20
ĠJ oy
Ġ2 10
Ġph are
c entre
ĠJ EAN
Ġ10 3
Ġbou ge
Ġs oix
d x
n it
st and
ĠD urant
pie d
ĠE sprit
ĠL au
c orer
clen che
V M
tabl ie
Ġmat ine
25 6
ff er
am ide
Ġla ure
EN TE
ua wei
ĠInf os
ĠH un
ili aire
Ou vert
k an
hyp othe
ach ette
Ġsais ie
w ikipe
Ġp ile
Ġ Ñģ
ĠC oup
ĠSc ott
OT O
aul ique
ur ch
ĠD au
li ant
g uster
Ġe le
Ġass is
s in
Tr ois
ol ite
13 7
Ġb omb
s oit
Ġfl am
ĠLa ke
C art
c ises
m ation
E au
Ġdess er
imm ig
ori an
ar on
we en
âĤ¬ /
ĠUn der
Ġment al
ĠRem ise
23 5
IS TE
Ġce st
ĠF lex
ĠF lu
Ġl oup
ent a
Ġen sole
os ph
br is
co ver
ssion al
I le
ĠL at
); <
ak istan
Ġacc us
An ge
Ġcap s
op sis
ĠM it
ĠB B
O ut
tr al
iz z
Ġc ustom
m ap
Ġhel p
c out
Ġfile t
Ġcan aux
ern ent
ĠAlle r
Ġl oue
ĠâĤ¬ .
Ġtw o
as a
oc age
Ġw hen
Î ·
im b
Ġini tie
m ire
ĠB roy
Qu ant
âĺ ħ
in ner
... ).<
en ger
ĠL ink
ame au
ad al
Ġp on
ont ent
ĠJ azz
ang ent
ĠT A
d h
Ġ19 44
gr oupe
mon ter
i ches
Ġs ovie
Ġat outs
Ġsec s
enti s
qu oise
ĠD OM
ĠJun ior
Ġ!!! !
Ï Ħ
pond ant
el y
ose x
Ġ URL
ĠT al
Ġdys f
ĠCor por
ĠOutil s
ĠL G
ac a
IC ES
19 5
ĠC are
RI P
ti eux
ev ie
ĠPar ten
TI ER
Ġco st
ug u
Ġ$(' .
il ise
ĠM iche
F RAN
Ã ¦
ic ales
Ġfl otte
St ar
ĠC amb
he ad
Ġgu ides
ite sse
20 6
Ġr ass
Ġp inter
ĠJu an
01 9
p ignan
tem ber
Ġten ues
b ase
che ck
Inf os
v ari
Ġsol lic
al ign
Br e
Ġl oyer
l ock
Ġbou ger
ĠVi olet
ER IE
Ġmar in
": []
en fin
Ġsoci o
ĠK at
ĠLou ise
ĠPor tes
AL ES
vidu els
n oir
ac ide
Ġst ocke
ĠE ve
ĠF el
l ow
ĠT emple
Ġs he
ĠH onor
ĠAr me
Ġpo il
ag isse
ĠCar n
3 75
yr on
ģ ),
A f
Ì ģ),
m are
J E
ĠP N
mon trer
les te
Ġn az
ĠS ARL
ve d
Ġsal ons
ern ard
Ù Ĥ
Qu elles
Ġv if
Ġdi gn
ik o
ĠÃ ĺ
V ES
Ġ12 7
ĠE co
ĠCo ver
ĠAli ce
Ġchar te
onn ette
w en
t ch
alis ant
Ġsub ven
ib a
Ge orges
ĠArn aud
Ġ10 7
18 5
ĠCh amps
d ale
" }
int he
b lo
Ġmic r
Ġchr ome
Ġtrait s
ĠP orn
l ac
m ati
su per
Ar me
ĠK on
m u
x q
Com ple
ĠBr avo
Ġm me
Q uer
comm od
Ġenf er
F am
oe s
ĠP rice
Ġp ais
Ã ¸
6 40
cip ent
F ac
Ġst yl
P od
ĠI R
A gr
Ġpar ad
hy gie
ĠPr est
Ġcher ch
Ġh ol
e aux
Ġpro vo
ĠB ie
UR ES
Ġa line
Ġimm un
b ons
IER E
vol te
AC T
O IRE
ĠJ ur
D P
Ġ19 30
ĠR endez
D UC
Ġ ondes
C ine
ĠK ab
C oupe
01 4
ss is
qu ine
w er
ĠM IN
ou m
S alon
ord onne
ag ing
Ġtr am
cd n
ag an
ĠR on
p oux
14 7
tr ons
if er
ec do
ĠGard en
Ġo eufs
Enf ant
b ard
Ġch alet
ex plo
ch ain
ĠTE CH
adi ent
it ine
ĠPar ty
L S
ĠOr le
Ġm anga
anim aux
Ġam er
ĠLe v
sid er
ĠBook s
is ance
onn ent
Ġf oc
porter s
em prun
% .<
Ġpar v
len gth
Ġen che
Ġr ation
ĠFr an
ans on
20 4
ĠJ U
13 4
till ons
Or dre
Ġpu ce
Ġt che
Ġse e
land s
P la
Ġab at
il ity
I EL
: "
ab out
b erry
vers er
ĠF illes
pr ouve
Prem ie
ĠS W
Ġf al
AS T
K S
ĠNEU F
ĠMem bre
Ġ19 62
ly wood
ev a
dr y
Ġmet al
IS ATION
c amp
n euf
P OS
30 5
U s
br ation
ĠTh erm
oo st
Ġsu ivez
IN A
ĠSa o
Ġam ple
ĠV ia
ĠR oc
ĠS ang
par k
anc iers
O pen
vr y
ig ues
T est
ĠW ay
ĠP LA
ĠMe d
ĠSer ver
ti tre
len a
ĠF ER
ule ux
tick ers
H ar
ĠA x
ap our
pan ou
indi ce
amm aire
li on
oi les
27 5
man i
ĠTay lor
sy ste
ĠPo che
ob by
ri al
Ġgl uc
cycl ope
S ainte
r epar
R ep
Ġpo dium
ĠE SP
01 7
Ġ ip
F oot
13 3
T rip
lab el
ĠK am
Ol ivier
pu ise
ĠB az
D ure
ou fl
p ap
ĠV OUS
il ia
A mb
ig an
P ont
Ġ url
E duc
ien ter
oph ique
ul ateur
B est
Ġtr ac
O ct
inc er
36 5
ĠS V
Ġc ity
op en
habit at
con f
2 16
V IS
urg ien
ach el
ĠH aw
g io
D isc
OUR G
ri ons
mer ge
ĠC ole
Ð¾Ð ²
ti ez
Ġp leur
Ġl uc
01 1
/ -
Ġat tir
ĠMi ami
ti ser
Ġsh op
ss ent
c n
Ġp iv
qu al
den tif
Ġl ink
V ID
Ġpar a
ĠFab r
ģ ?
d B
Ì ģ?
Ġh op
f emme
iv al
Ġ17 5
signe s
L Y
Col or
gr en
d au
umule z
ĠS in
compl ir
R U
ĠHer ve
Ġpe s
ĠPr im
ON N
R T
ĠCo eur
Po ids
ym ph
par ents
19 9
ye s
Ġban lie
Ġbre vet
50 5
Ġre tenu
ec tez
ĠD onner
D avid
ak h
Ġh ockey
ins pe
W indows
Ġfr aude
ĠA i
Ġ ____
n em
r acite
Ġsav on
Ġvers er
Ġ& #
22 4
uss ito
alen te
ĠNap ole
B leu
N et
z an
Ġpar ait
ĠE asy
Ġme et
Ġgran di
Ġrej o
H ER
S and
Ġp ull
be d
ĠCr u
Ġacc ro
c its
ĠEn gine
guer ite
áĨ «
O F
ack s
ĠL ance
au cune
sh irts
Ġ{ "
t otal
ĠF RE
23 6
ĠA quit
L AN
Ġp ente
33 5
al tern
Ġ10 80
x l
com bre
ĠF M
Pr ogr
Ġth an
En reg
d ense
Ġdir ais
Ġmar r
pic erie
il ton
eur o
Ġview ed
a fric
Al bum
Ġbl ue
âĢ ł
Par ce
p ays
20 9
w ich
ĠV a
ĠS I
ape aux
ĠC lo
M ini
Ġver be
ff f
Ġam ovi
b ord
un ier
rog er
ĠP un
22 6
od or
al ition
ul ant
j eux
ĠP ir
ĠH om
ĠAd am
Ġs aute
V ers
ĠGu adel
24 6
ĠF ri
D el
dagog ie
ĠS ites
Ġcon duc
ĠBr on
Ġth ermo
BO OK
ĠR usse
lin ge
m il
e ja
v aisse
Ġa part
Ġw ould
fense ur
n ume
at on
ĠH U
Ġdi am
Ġinc or
O IS
Ġ19 65
ĠB AS
Ġbl anch
B ains
ĠT own
r inaire
c ieuse
pr end
Ġc all
ic aine
Ġac tiv
Ġtube s
ĠMod el
Ġl ourds
Ġho st
ĠB ot
else a
24 5
R ay
ĠIn stru
Ù ĥ
2 11
50 6
Ġhe in
ĠSh ang
B al
ois y
Par king
Ġverr ez
ĠP ape
A didas
Ġa z
ĠD A
Ġ0 60
X z
euts ch
M ot
ÌĢ ...
ĠEur os
am y
ol ler
ĠF IL
Ġf lo
ch oires
Ġc d
l ateur
zz le
E lectr
cr oi
ĠN issan
S F
in dique
17 8
Ġqu it
2 15
ĠRe ine
Bas kets
Ġvin ai
Ġf on
sel f
ĠR ivie
] ]
Ġf ines
Ġref uge
yd e
h ard
ĠTra vel
ĠJac ob
ass ine
ĠLace ts
ĠD al
do ise
L y
J ET
ĠH on
ĠP AC
ĠB onn
Ġcour be
ĠM ig
Ġamb iti
ĠC ycl
2 18
A y
Ġspe ed
ĠCo ol
ak o
alle z
alis ent
ĠNouve l
D VD
dif ice
AT A
ĠO ld
ĠDe ad
ĠLib an
Ġbr ig
war z
ie ttes
Ġal t
LE C
appl ic
Ġren dus
Ġmet all
Ġ dam
Ï ģ
C ir
Ġl armes
em a
Ġz oom
d ettes
Ġcr oss
qu entes
Ġ6 01
ĠHe alth
ill o
p elle
Ġmus cle
r atif
ĠA CC
Ġe te
ĠS ON
ad ine
' ;
Ġdat ant
ach a
S ol
n ose
p ant
n os
Ġf ri
Ġla s
ourd e
ĠA ct
ĠCl ar
IC A
gul ar
Ġaff ec
ĠS quare
d eja
Ġ Ùħ
E v
te cteur
g mail
ĠA ud
ern et
Ġap pe
ait ons
ĠS tru
ĠR aph
Ġe asy
a jax
our is
ĠI f
Ġsp ons
16 6
ĠFig aro
ĠEx pert
oun e
ĠH O
ili ps
Â ¿
Ġ14 5
ol did
ĠDi am
ĠD in
J our
Ġbe d
Pr omo
Ġlarge s
id get
P ap
! )
ĠE h
Ġp yr
AP P
exper ts
Ġw all
V u
.< /
Ġf oyers
16 9
Ġal cool
ĠAl bum
me ts
ĠA sh
W D
Ġw ater
Ġ ultime
H I
ĠSeu l
br uary
Ġis ol
Ġno e
Ġvo ler
U ITE
pele z
P ant
ĠK al
ct ant
ĠE dit
ĠO ur
Ð ³
N P
ut h
h ors
Ġgl oire
ĠPr ise
h abil
Ġ% )
22 8
is ante
Ġp od
Ġtre sse
Ġus b
Ġmax i
Ġ19 64
Ġ2 70
.... ...
ant a
ĠB aller
ĠCul tur
Ġn an
B a
ĠR DC
Ġent ame
A DE
hou ette
ĠJe unes
an ime
Ġ19 66
ĠCap it
ĠB P
ĠPr om
ju in
Ġe c
ill ante
ish er
Ġsuite s
ĠP omp
20 7
Ġmul tif
Ġe v
K O
Ġ ico
Ġt atou
Am our
ĠM ieux
Se s
AIR ES
ĠSt ate
dre y
ĠW at
tabl it
ĠV end
appe ler
ĠG ale
Ġme x
ĠF air
Ġb isc
ui les
Ġli fe
Ġsp ace
Ġ" ,
Livre s
Ġ2 25
19 8
ten ues
p ur
ĠC ond
ĠJ a
O ffres
Ġhar ce
ĠÅĵu fs
Ġju ges
Ġem me
and ir
Ġcar ros
ĠCom te
Ar d
ĠP on
si fs
Ġ2 80
ur ity
Ġar g
Ġdir ait
g ative
ad oles
ĠP y
TI T
d ll
Ġqu adr
Ou tre
il iser
Ġstock s
Ġrab ais
ence z
Ġnul le
br iques
eu ters
Ġ2 60
ģ ]
ĠBer ger
pl it
Ġ$ .
Ì ģ]
ĠFac ile
Ar rive
ess a
ĠC IT
M D
f avor
4 10
ĠA mp
Jus qu
14 3
Ġ/ >
n orm
Ġme c
o a
te cte
UN ES
Ġv f
ĠC ER
Ġhum our
er ing
Ġmette z
ope s
Ġneu tre
mar que
L ab
Ġab str
Ġrob ots
ĠT RAN
Ġb ombe
ĠW ell
oph y
ace lets
Ġti mbre
ick el
Conse il
Ġ& &
ve u
I ci
ĠOr d
Ġgr effe
âĢĶ âĢĶ
pec ts
à ¤
uf act
Ġode ur
26 5
ĠT OUR
ĠW ish
Ġcr ypt
ob ation
28 9
tr as
ĠCr ois
AT T
ande ur
ob el
Ġp oker
ĠO F
ĠOb ama
Ġcol ler
ord ogne
20 3
Ï ĥ
01 3
s crit
Ġje te
Ġx D
Ġtr ah
Ġg ab
Ġc ube
b ot
Ġpert ur
Ġ. .<
ĠF ai
ann i
15 4
Ġb v
Ġcu ve
Ge stion
Ġ UR
Ġt al
Re view
ain cu
pare ils
D o
ĠGol den
u zzi
P eu
P OST
By Id
is ier
Quer y
ĠL ind
Ġavis No
k it
Ġfac il
ÌĪ ,
ĠRap ide
19 98
Ġr anger
ĠP ix
Ġstat ue
ĠP rime
ache z
p ts
cler c
Ġ$( ".
":[] ,"
Ġ19 61
as k
ou z
Ġsal ue
17 9
ĠUn ies
A i
Ġkn ow
Ġl oint
Ġe ven
cho ol
ill as
ĠV ende
Ġdur er
r ad
pe d
g ocier
Ġpe aux
ex celle
l c
Pro duit
n um
ch r
aiss ons
ĠA ure
S ub
T it
Ġjui fs
ĠG P
Ġo v
() {
V ols
Ġm aux
ĠR us
en aire
S ud
f ique
cl ate
ris on
ill ite
Ġb la
stival s
che veux
ĠT ony
ve illes
ĠSe arch
ĠP ier
Ġlum in
Ġe d
Pro fil
Ġfr ench
ĠT OUT
Ġcorde s
Ġ dj
ĠS oit
oit ou
Ġb ic
E s
tel la
c roche
... ,
Ġvis a
te il
Ġmo st
um in
ad ies
Ġ5 50
ĠTi mes
R ose
ĠCi tro
H aut
ise au
r ection
Î ¼
p ous
C once
G EN
ĠL ud
ĠAm our
ed e
ĠUr ban
uss it
at u
ou k
19 6
ĠS CI
Ġtr s
Ġsau ter
Ġn um
ou illes
av age
ĠB ody
ĠS PE
ĠCer tes
ĠR oll
Ġgr ade
Ġpasse z
ĠM I
Ġ deja
Ġc dis
h em
ĠVe gas
ol io
aill ots
ac cue
Ġm ust
Ġai les
tu me
ĠIn nov
ĠG ri
ĠDess in
ardin al
23 2
um i
ar ine
cl use
Ġvag ues
ĠJ ud
Ġcle an
Ġt uto
ĠG S
ar ies
Ġt utor
p ierre
ĠPr ague
P oints
ĠS auv
ĠC ell
Ġim pr
ouss ins
as tes
yl and
Ġs aga
Ġg enti
Ġu k
st atic
au dit
Pr in
ash i
n atur
imag ine
Ġbap te
al t
g ien
ou ement
Ġciv ils
D B
Ġtou ch
S ante
Ġ19 00
oni ale
cep teur
ss ant
Ġache ve
Ġrig ide
ĠVi agra
b ite
ho ot
Ġcl aque
n cieux
r iter
L ac
en z
ĠO per
ack er
23 8
U I
cat o
Ġc enter
bl ack
ĠF irst
ET TE
al te
Ġsyste m
Ġen leve
ĠHy dr
ĠL Y
Ġam ont
au tique
sti tue
clar er
Åĵu f
Ġl ar
g iment
ĠBes anc
Ġm ignon
av ane
Ġ; )
ce lles
m ot
Ġar om
chau ffe
ĠTem pe
Ġda mes
Ġglu ten
g if
ĠF RA
Ġj ack
ine d
Ġ( "
d eg
er y
g atifs
Ġnu ages
duc atif
ĠH ay
ĠGre at
sau f
ĠB et
AL ITE
18 6
29 7
Ġmon op
ĠL ing
uisine r
m ens
od ay
Ġh i
ĠCov id
ĠR y
2 14
oy ens
b nb
ĠZ ip
Ġat out
ĠR ad
m ulti
Ġc oi
Ġper le
Ġdis s
F ig
ĠH ans
or olog
Ġ days
Ġl igue
Ġcr euse
cr ivent
Ġch ine
Ġfixe s
Ġg ains
ĠM C
. âĢĿ<
Mar che
H enri
Ġ19 58
.. ...<
ĠBr and
ĠJui fs
ori asis
EU X
j ourner
onn alis
Ġaf ter
ĠQu oi
p ages
Ġh its
ĠIn iti
ag one
Ġ% .
ch elles
ĠT aux
Ġbl ind
orr eur
mbl age
ĠW ed
Â° Â°
Ġsug ges
b oy
tr act
âĢĿ .<
ĠR SS
tec ter
Ġus ines
ĠJ uste
ĠÐ ĵ
ĠF ood
ĠRen ais
24 9
uil d
22 7
Ġye ars
TI VE
g ro
ap erc
tr os
d ol
ĠE M
ĠC iel
n ik
tr ic
Ġpr it
Ġchim ie
br age
ar ra
B LE
Ġser e
P iscine
par tis
ĠN ext
asser ie
ĠDie sel
Ġave ug
Ġbat tu
el ing
C ulture
Ġ% ),
ĠC ot
R hin
Ġc ic
l imite
att ants
Ġpl ut
in ier
M eta
ĠD rive
b ody
>> >
ap pes
Ġsa chez
Ġc umul
Ġa ro
ĠBou cle
ĠD akar
ail ly
ĠP inel
AM A
ĠSE C
ĠS lip
Mus ique
s am
c ard
vir us
A ub
Ġord er
16 7
23 9
Ġoff en
Ġmar ins
enf er
inst ar
ish ing
ĠG RAND
Ġp atch
i ous
p ist
cher a
Ġgon fl
tel l
ĠE V
... ]<
ĠV ues
Ġpers u
ĠV alen
s iter
Ġl os
Ġla t
Ġver tes
30 8
ĠF lo
Ġcr ises
Ġa h
Ġb ib
ĠP ri
. (
?? ?
Ġincl ut
S O
gl ages
ĠL oir
Ġpl ates
Ġvoc ab
Ġtr ip
Ġtoi les
H L
n ombre
ĠPhil os
roport s
Ġrelie f
ĠBe aux
Ġfor ge
atise ur
2 13
ĠR P
em on
Mem bre
Ġcas tor
18 9
ĠP ac
ĠSn ow
oy ons
Ġw ar
ĠC aisse
( $
U V
ici al
Ġren due
ĠV ILLE
ĠDre am
di athe
B onsoir
cr ase
Ġrou ler
Ġf aune
Cou cou
Ġbe be
ĠB ec
p ure
ĠA ve
ĠEx cel
ich t
ul i
und ai
ol aire
du ites
Ġv us
uel a
u ils
ĠLa ura
ro e
ul ar
ti ces
a line
ĠAn gers
11 00
ĠÐ ½
Ġmot or
Ġann exe
ĠSam uel
ĠN I
ĠCal ais
lab orer
id ae
me lles
ade aux
sche ma
min i
ĠA sse
ĠMun ich
Ex posi
s inf
or ter
ĠCh ili
19 4
Ġcam ps
app uie
Gr ande
Ġw el
b ies
Ġgr ain
Ġarb ore
im al
N D
g b
ĠMax ime
ĠXV IIIe
P ack
f ect
Attr ib
Ġsp ir
Prem ier
ĠM AG
Ġsu ffr
m bles
> :
12 00
Ġgar n
Y R
30 4
ogn ac
ait ant
ĠQU I
J ardin
76 7
li ce
qui page
Ġcar e
ill ustr
m andes
en ix
Vi ew
in ions
oy a
ath le
ĠG ay
dou ble
Ġindi ce
im poser
17 7
Ġsac rif
ĠCar tes
ĠY oga
con fort
i tres
ag ons
Ġb ague
or al
heur eux
Ġ- --
Ġrub an
ot ti
ĠS at
om ac
Ġ12 9
Ð ±
ĠB aie
Ġmet h
omm y
g os
ĠAw ards
as i
ph in
Ġ ><
c osse
ven ez
Ġg ants
omm ier
an que
× Ļ
Ġpo ils
ĠNo el
ĠB ON
ibu ent
ĠK l
25 9
enti al
ĠM atie
Ġbou e
ĠV ierge
eur ope
ĠA gent
ĠAc adem
ĠT arn
Ġ ÙĪ
V ict
E lles
18 4
Ġm our
Ġjou et
p ack
ffe s
Ġm anne
unn y
Ġ dau
Ġo wn
ĠDro its
sp ot
ĠM ike
Ġpat tes
ĠSal v
ick s
br and
Eur o
Ġs ois
ĠJ enn
her be
[]+[] )[
27 6
e velop
ic ots
ros s
ĠIn vite
f lix
f y
u h
ous in
Ġpix els
T Y
ĠMen u
r ol
ĠSp ace
go ogle
ici ent
ĠPRI X
ĠH au
æ ľ
onn al
ĠM OD
ĠJ OUR
gr a
46 7
ĠPe ople
an terie
Ġcr aque
f ou
bl age
ĠJul y
d evelop
ĠAb del
ĠF an
ĠT y
ov olt
Ġb rie
travel q
23 7
ĠF aso
in tre
f ab
as pir
r euse
K K
19 95
J ohn
ol in
ĠMar ket
di an
29 8
Ġm aille
as ie
but ants
Ġ19 63
28 6
all o
Ġfav ori
ĠIn ves
D os
Ġmin ie
ik h
ĠPie d
gul iers
gre s
Åĵ ud
ocr e
Comm un
v l
f aill
ande urs
Ġag ain
, -
ĠEN TRE
ĠH uile
yth ing
D et
N ett
Ġpar i
Ġher bes
ĠMod ern
Ġ16 5
n oncer
Ar ts
ĠCh oix
ĠK an
util ite
arr os
Ġ19 39
Re sp
ÌĢ ...<
ĠC ard
br ook
23 4
Ġsh ampo
Ġf ollow
L yon
az ing
ĠSE O
Ġcl oud
w x
15 3
em ble
fin is
OUVE AU
ess on
ĠJ ob
19 97
ĠMo tif
Ġcal i
Ġt arte
ĠF ox
40 4
ĠL ast
T otal
Ġb oy
Ġe in
ĠMag ic
Ġb ody
S n
Ġ ut
ĠP rive
M as
ses pe
M i
Ġfer m
ĠD ore
se pt
Ġca dr
il o
S o
ĠMar ti
---- --
y me
f o
fic tion
Ġval oir
ĠD et
ĠS che
ĠE ver
ch ure
press o
ĠR ain
V en
CH A
D W
28 8
Ñ ħ
L INE
ĠS oins
ĠRec ru
ovolt ai
Ġabr i
ouve ler
IER RE
Ġper due
in dem
ber land
porte z
ĠC AL
Ġsex uel
Î »
quer a
ĠW ind
ot oc
ĠM AL
S tre
ĠBo ston
ĠP EU
ĠR onde
ĠP oints
En glish
v oyez
se ur
ĠMir oir
z el
17 4
ĠB ond
ĠPro ce
ou dite
ĠCh acun
ĠN ar
ach ant
n iste
Y E
Ġti ge
ĠSpe ct
ĠT en
ĠW ill
Ġrev ues
ĠW ild
im on
porter a
ĠF aut
x i
16 4
S c
d ot
P RES
ĠCh arm
19 7
ouve le
Ġv ierge
' .
an cher
ĠRe ebok
ĠÐ ¸
Ġph one
m ence
ĠH arr
ex pert
l iste
ni ents
u ch
â ĨĴ
S l
ĠB U
H ors
ĠV OL
H ol
om y
ĠP ho
ob ie
bles se
Ġa us
Ġhotel s
Ġvert us
27 9
Ġdou tes
Ġble us
Ø§ ÙĦ
ĠN icole
Ġa pr
Ġsa veur
13 2
ĠJu st
C umulez
24 7
ĠN ic
Ġl and
) (
Ġsou le
Ch arge
ĠMet tre
ari os
Ġ7 20
iv ial
24 8
Ġst aff
cl asse
od yn
att an
ach t
V IE
ti st
oise au
OUR T
ĠEn d
tt a
DI A
Ġv ien
25 8
ĠPla ces
0000 00
Ġench ai
Ġp uits
IL LES
ģ ).
agr amme
ode ur
t c
Ì ģ).
UM P
ĠChau ff
US S
j ournal
enc our
az ines
ĠValle y
Ġac r
Ġmo elle
Ġ15 5
ment ent
k ok
ĠK evin
fin ies
ib ou
3 45
ĠM ust
di m
30 7
Ġac ide
Un ite
Ġs ide
) |
Ġsal ari
Ìĥ Â¢
av ille
ĠV IE
on se
26 6
C ab
S w
Ġe en
ĠG et
e sque
ĠMar t
ĠUn is
On e
C x
oit ures
r ep
Ñģ Ðº
ay ak
ven dre
ac cou
ĠU E
f our
Ap pl
V F
Al sace
Ġk ey
Ġno tif
ag glome
5 50
tis ans
Be s
ĠW ifi
at z
Ġmin u
IN TER
d le
CI AL
L ec
30 9
ail li
for ce
Ġm ale
Ġch eck
Ġf ood
Ġp ave
id ou
n eurs
ĠF O
ir r
ĠPol ice
pr a
Ġf aill
ĠPr int
i ges
anc tu
Ġpar ap
we s
Ġce sser
di ve
are d
Ġab and
en h
Ġbre ve
â Ī
ern iers
ĠH ier
Ġ!!! !<
Ġbarre s
qu ide
ĠSpr ing
ĠJu pe
ĠAl ger
ĠR CS
e o
Ġqu ai
amb a
Ġbv seo
Ġorn e
Ġes cl
un aux
ĠL T
Jose ph
Ġe ver
ĠT ah
ende s
di le
Ġcam bri
ĠCi alis
ĠC AD
Com bien
E tienne
or f
IT RE
log o
EL S
til ly
z one
t urer
ĠTou ch
29 6
M ON
99 0
ĠLa ve
vi tra
ĠS ig
ur age
ĠAut hen
D ie
g ov
ac tuel
ĠB uc
ĠE R
Ġsymb ol
char pe
Ġpron os
LE X
Ġen le
ĠGen r
A vez
he ures
A quit
Ġla pin
ssi er
ĠCG T
ĠS oyez
h ot
C K
Ġc age
ĠH TML
O FF
ĠGenr e
a un
s rc
Ġju pe
Ġg as
b et
Ġval ue
N H
Ġay ez
ĠTh om
ig ence
adi um
ĠRe port
ir i
ala ure
ĠT ube
eb er
16 3
Ġin ven
p il
at ant
ĠAl tern
Or le
Ġm iss
serv ant
r ev
Ġare a
ig i
ar ly
ap o
ais er
ent on
og ues
Ġg n
pos ent
anc ie
cher ie
18 7
ĠN AT
r ed
ĠC ord
org ue
ĠM T
ĠUn iver
Ġbour ge
Ġdis sim
ĠPot ter
ĠT ax
d angers
Ġe very
ok ia
ĠB aign
ĠF le
ĠAppl ic
to x
18 8
26 8
ĠH op
AU L
Ġsix ie
Ġ4 000
T exte
Ġrac ine
Ġhy gie
ĠGu st
Ġwh ere
n uit
Ġvi tres
Ġe book
ette z
29 5
ĠCr y
Ġr ois
Ġ dc
act ory
Ġapp ui
ĠMo tiv
ĠP ierr
s ites
ĠF F
s ors
f leur
di men
ing o
ĠP oke
Ġex ces
r etour
all ier
T ri
Ġjou ant
int ures
f c
Ġre al
ĠS co
el in
ĠT ac
K indle
ĠL OU
ĠBr as
ĠR oss
Ġb aies
oxyd e
26 9
Ġhe ight
Ġ13 6
tiss ant
Ï Ĥ
ĠB arre
Ġad ep
IT S
ĠÐ º
impl ant
stan bul
ĠRE G
erc er
28 5
H abit
ĠPal ace
ĠA thle
ir ment
U l
pe ur
4 70
Ġsp ot
Ġp cs
ain ts
tr ov
Ġ3 65
Ġtri om
Ġa ident
+[] +[]
Ġtr icot
Ġp izza
ÅĴ u
Ġg ol
20 2
ĠCh ina
30 3
B our
Ġtr io
Ġo eil
Br avo
ver g
ils on
ĠDub ai
u line
DI O
Ġneu tr
Ġ9 11
che cs
Ġlivr et
ĠS ai
st ad
Ġf o
Ġg ymn
De fault
par ente
Lib elle
[ '
adi a
all a
01 2
erc y
ĠJ ersey
ĠTr aite
ĠC onnex
l ore
i ales
Ġ12 6
Ġg ene
p endre
ĠM AC
ĠCas a
ĠLa ine
ĠNE W
Or ange
ĠSal ut
ĠRob in
qu ins
ĠJou ets
Ġb its
ĠL ouvre
Ġgout te
Ġ um
un tu
13 1
t arif
Ġune s
Ġser ons
Ġ ose
ĠRe ste
Ġz en
Ġuse d
ĠEn reg
d acteur
ample ur
trav ail
ĠCl ark
ĠAB S
Ã Ĳ
Ġrang s
AN A
Ġr ides
ang ile
ĠG arn
k w
ĠJ im
ĠN ou
ĠTh ib
stitu te
Ġdi oce
ar et
ĠR iv
Ġf onte
ro tique
>[ ...]
ĠH uawei
d urs
s me
ĠLuc as
Ġp acif
ĠL iens
it age
ĠY oung
ĠOx ford
Ġviole t
z abeth
B ureau
TE MENT
Ġgen ou
ĠE D
Ġl oisir
ĠW ol
Ġtrop he
Ġc ens
ac ion
Ġh ot
rie uses
S ie
g ame
ti mis
Ġfant o
ĠB ik
ĠC AM
Ġsa me
ĠI ran
19 96
ur ich
S k
ĠW olf
sul t
ĠV ari
du isent
áħ µ
sc ape
vise ur
A CH
ĠC B
ç ļ
ĠF ay
pro ch
ĠI MP
Ġbou les
Ġn ie
aler te
Ch em
ĠJohn ny
e tre
Ġin jec
ĠT oi
Ġ19 59
T rai
Ġs cript
en o
ĠHum an
ĠG uit
I t
Ġre pl
cu tive
ĠAr e
R ien
p se
om ique
Ġin j
able d
oc y
s aint
Ġla mes
sil ien
Ġdi m
S cript
ĠSp irit
ph ot
Ġ9 25
24 4
Ġconf on
V incent
Ġcou d
lic opte
Ġign or
E le
Ġmen us
dic o
ĠAc tive
76 8
ĠHy per
sti er
Ġp inel
sul ts
cure ur
ex ce
ĠC ache
AN NE
m onde
ĠSau f
pr ud
Ġtr aum
ĠM ail
ĠÐ ¾
t aph
ĠC uba
m ene
ĠV IS
ĠV il
ĠWi Fi
ĠT OP
ro sion
27 8
im ard
ĠLog o
ĠP IB
Ġf ly
Ġ ours
ach i
s ocie
oc on
ish i
vent ail
ĠP li
S tat
age ant
av ions
lic at
ĠSc and
Ġp aque
ĠSep t
di aires
V ue
Ġcau ser
Ġon ze
aimer ai
D O
15 2
Ìĥ âĢļ
ann el
ĠJ ura
Ġun is
; &#
us ure
40 6
ĠR av
ĠH ir
Ġ... )
X Z
balle ur
% ),
>âĸ ·
ĠMar co
tic ides
Ġex act
Ġp ompes
ĠU k
pl ois
ĠLe urs
um age
ĠB ull
ĠMo on
Ġign ore
tr able
ĠP DG
vis ite
ĠA IR
s ab
ĠK az
Arr e
Ob serv
Ġ durs
ĠV err
Ġmine ur
Ġcr eux
Ġrom ain
Ġnu age
ĠEp ub
Ġmas cu
ĠB EL
ĠAr abe
Ġbal les
Ġnu tri
ai a
R AP
ĠAl b
ĠL ens
ĠW E
ER A
Ġcle f
Ġvas que
ä º
ĠM aine
ble u
Ġt ache
f lo
à¸ ²
c ache
ier a
IN TE
c id
Ġam end
ĠV alent
yp ique
U LE
ĠJ up
ul u
Ġr af
Ġ14 9
d A
oph er
ouf les
s ili
ach ing
ok a
\" \
ĠMo dif
Ġir an
Ġfr igo
33 6
cit anie
v oyage
K A
T el
M ath
Ġz o
bi han
ĠF EM
G T
ar gu
od ies
ud a
V illa
Ġdonne z
40 5
ĠB art
i ano
dic at
al arme
ĠH it
ĠT s
enti te
p oli
14 1
50 4
Ġf aille
Ġop us
ĠN ie
S eu
Ġadap t
Ġ19 56
on sive
} .
Ġpor c
ĠS it
r q
Ġv amp
ĠAlle z
Ġsau mon
id jan
24 3
ĠHe ad
Ġa pe
b li
ĠX IV
Rel ated
ques tre
Book ing
ģ ;
Ġla tine
Ì ģ;
ĠI L
ĠS ile
p ati
Ġj oints
Ġ12 2
An onyme
Ġche vel
l ux
ipp ines
Ġmonde s
ĠDI Y
Ġ13 9
ĠM ill
Ar chite
id is
Ġ12 4
ĠBes oin
ĠCh ab
Ġb ah
in v
Ġex cur
sul tant
i tr
çļ Ħ
ĠDen im
Ġpie ce
A INE
J ourne
ĠL ew
An cien
Ġn ight
P RE
60 6
) ...
ci um
cr ois
ĠMar ion
H R
l ate
ĠD own
M ars
ĠD og
ac cio
AY S
Ġq q
att ent
ais ir
ĠF ix
38 6
ch oue
Ġo x
ĠN ON
Ġcr is
ab ou
Al bert
ati can
p ay
aiss ais
c ass
lin qu
Ġ Åĵil
Ġp is
ler c
AC C
un ch
ĠT P
ient o
17 3
CH ES
Ġfr a
H Y
Ġpr et
v ole
ĠR ois
RI G
Ġ dog
Ġen gl
Ġse ine
Ġgr ains
ĠKar l
Ġ19 48
om ens
2 99
Ġfonc ie
Ġ18 00
Ġc ale
Ġtir oir
ĠS AM
ĠT roy
ĠC FA
Ġn b
Ġ3 30
vite z
ĠK lein
gende s
Ob jet
st ate
ĠCh al
ĠS F
Ġob sc
oun ge
Ġm agn
. âĢĿ
J S
Ġh d
p at
ĠT arget
isser ie
ĠTex as
Ġp ots
ĠP acif
Ġam ener
ĠS G
ĠAR T
Ġph ares
ak ing
26 7
Ì £
P opul
d ieux
Ġbr ique
Ġor ale
d ark
Or igin
60 8
ĠW inter
OU X
28 4
ĠIm ag
ĠA mis
Ġf use
; "
a q
i ac
Ex pl
ĠR af
J O
ĠSt one
az ar
ĠPro che
ung en
ĠTer min
Ġ das
ic ain
ĠProf il
d ors
ĠRe par
ĠW o
Ġcour ge
fer me
e place
O PE
se ill
E ric
la ve
r ante
Ø Ń
B ase
ĠV ista
an ia
T TE
IC ATION
Ġal te
Table au
Ġ20 5
48 5
Ex emple
ĠN y
pre sse
Ġso bre
er on
Ġh t
tim ite
ti quer
Ġcre er
ho tes
mo tionn
ĠS oph
Ġsur r
rie d
sti ge
Ġdr agon
AA AA
ĠM auv
f ection
d euil
we at
trer ie
Ġf olk
Ġb os
Ġad os
ff ee
Ġin vent
Ġge le
cou ntry
co st
ag h
Ġpl aire
Ġur gent
ĠV OTRE
qu ables
Ġh ivern
od s
Ġcamp us
Ou vr
US D
34 9
90 6
ĠTh ere
Ġs plen
NE W
O LE
Ġm ap
25 3
inn y
ĠMar ina
b ury
ĠC ay
b ur
19 2
ĠB uy
at ti
Ġbe fore
ĠT ee
Ġz u
ĠC ustom
v ation
cap it
C ONT
ĠS avoir
ĠPla za
V enez
ĠQue en
22 2
Ch ange
t us
Ġte te
us ions
cel aine
ĠV inc
hol m
g ir
ĠAub er
R ap
ĠFOR UM
ien ds
Enf ants
Y e
ples se
ÆĴ A
Ġsu ch
Ġten eur
ade d
ment aux
Ġf irme
ĠTh or
ich ael
Ŀ ¤
Ġma tr
ĠGue ss
g are
ĠL yn
ag ique
Ġpont s
Ch ois
orer ie
27 7
form at
ĠO ise
v aux
ĠL il
ĠV ans
Ġau f
Ġhom oge
ĠFOR M
crim in
ĠP UBL
Ġr hum
ĠGu er
Ġ19 57
Ġess aie
que st
ĠS oc
IDE O
ut ant
Ġs onde
Ġal arme
ĠS TE
is ons
ĠN in
14 2
ĠCar los
ĠP ointe
âĤ¬ ,
Ġle vier
ĠL P
Ġmos que
ah n
kr ain
ĠS uc
ĠBl oc
aque tte
Cl im
br ou
ĠS FR
25 7
Ġus er
j onc
p aper
dd h
Cl asses
Ġv ot
Ġf ound
Alle z
ĠH Y
Ġind ex
ol age
25 4
ĠM ousse
je ter
me ssage
iti mes
P ES
Ġtr u
an chi
ar u
ĠOp tim
e lectr
d alle
og ie
ĠâĪ Ĵ
b c
Ġrece v
ĠPr os
cl ass
Ġj olis
art z
Ġstre et
n ormes
ĠA frica
Ġcoud e
f ly
S ER
ĠB allon
si me
is n
40 9
Ch oisir
Ġac ides
Ġ ist
ĠM our
t x
ic y
op pose
Ġ{ {
l av
d esque
Ġam en
ĠS car
Ġun i
ank a
Ġp iles
Di ff
vit able
t ous
Ġr ight
ĠâĤ¬ ,
oc cur
Ġ19 55
Ġs elle
ĠAc cord
Ġcomb in
O util
li o
Ġa ire
Ġtr ott
b ai
W A
Ġcon fre
tr ale
an et
od age
ÑĢ Ðµ
Ì ĩ
ĠP IE
U G
ĠS OU
d ad
Ġbr et
â Ķ
ĠM aman
lip se
ĠL IV
Publ ic
ĠCol umb
Ġmic ros
nt y
nom s
pe g
vi ation
22 1
â Ļ
Ġr at
Ġe vier
ĠId ee
ais ance
o ises
Ġ desque
ĠP end
ĠPos sib
ĠBro ok
Ġet ait
Ġar ra
Ġan ce
Ġnoy au
Ġp ionn
Cl ick
C eci
Ġvit ae
qu ons
ve ments
Ġjun ior
Ġthe se
ĠSum mer
com ple
Ġse arch
ĠRe tro
ĠC I
Ġc bd
amb our
ch im
ĠP ERS
ĠM ob
H C
Ġ `
ĠBud get
ip el
Ġ down
Ġp y
Ġfil me
Agr ic
Ġbl ock
Ġtuy aux
adi er
Ġlam pes
P ose
d ance
pren ez
ĠF once
la ces
Ġvis it
Ġ dettes
ENT S
40 8
Ġfl ore
Ġcop ier
F ont
ille tte
ĠB anc
ari ot
ĠG RE
Ġall ume
tic iens
Ġno stal
Alle r
se ction
L D
Ġindi en
ĠChar le
erci ons
Ġtr omp
ĠWh at
si le
Jul ien
ar ma
j oint
Ġp ande
n ariste
ĠM ik
v iser
Ġcut ane
ĠL ite
le ase
Ġ dors
ĠP OR
Ġfer ai
Ġ19 54
Ġen ri
D urant
ĠEl ite
ĠSe a
op ard
ph ant
n ay
18 3
46 5
An g
esti me
Ġ12 1
l iens
anv ille
35 5
ĠLib ye
Ġass ist
Ġcoin ce
Ġviol on
OBIL IER
. /
ĠO ak
Ġ( )<
Ġcou lis
en core
ĠLa ure
s ky
ĠF aux
!!!! <
ill ies
33 9
50 7
Ġjam be
Ġv au
Ġco e
ĠS R
Ġper dus
gr ite
33 3
uc ci
C AN
ĠL I
Ġdis per
18 19
Ġlace ts
N B
Ġh ache
Ġ dieux
Ġcan ard
+ {}
Ġsoud e
ĠSec ond
+ "
l ast
35 9
S an
Ġf uir
ren dum
Ġop er
pon ge
bou cher
ĠV W
oph onie
: -
ois on
Ġc ance
Ġr ache
Ġg irl
ĠT ant
l ations
27 4
flex e
ĠMa j
RI QUE
ach ats
oule t
Ġc aval
tage z
Ġju dic
ĠVos ges
et o
R IE
Ġcl ique
ĠB oute
Ġinc ons
ĠPl ac
' ]
si onn
ĠJ ours
OU PE
28 7
ich ier
r ating
s cl
B ut
2 17
AR S
ĠS OC
c ot
ĠSal les
Ġfier te
Ġ18 5
ĠM ap
O ce
J A
END RE
wes ome
ou ch
S ports
V ir
alog ie
co ce
Ġl us
ĠTe s
ĠH ER
Ġpl a
15 1
Ġindem n
Ġh et
Ġj ai
Ġcou pes
am user
ĠSy nthe
ju dice
Ġgu ilde
br eux
20 21
ĠT T
ti k
]+( !!
Ġ ira
cur iser
ĠBE AU
Ġc ub
Ir lande
Ġs ulf
ĠW el
AS H
ĠB uff
l ui
iend ly
ens us
19 3
men u
em ont
= &
ĠS age
ĠNo tes
Ġr ousse
ĠDir ec
c isse
og ni
ick er
AR I
verg ure
ĠD G
ĠN OIR
Ġ14 4
g ouv
ĠV ivre
enc adre
O V
ĠCar l
r anda
Ġmoy enn
An d
ĠCN RS
ĠM ules
ĠAl fred
ul ly
Ġlit tle
il ic
x w
k un
Ġsy l
ĠP elle
L P
mar gin
ĠP od
\" ;
vo ila
pe z
erre s
i os
ĠPRO F
que ts
60 5
ac tes
rou ge
Ì ¨
ander ie
50 8
ev ent
h ac
Ex trait
Ġ.. ...
har mon
v ois
Ġtun nel
ĠS ont
agn ac
ĠB ER
OST FR
imm y
Ġcl an
r ais
r alise
ĠI ce
dep uis
in y
Ġ19 47
ain dre
ĠBr ad
Ġpost s
ape st
ĠL andes
pr int
Ġcy cles
is prud
L OG
Ġn iche
ĠR ET
46 8
id den
voi ler
10 01
ĠAn ime
: #
bou che
Pl ay
ager e
50 3
qu and
N iveau
IC S
ĠCin q
ĠPla que
tr ui
sol us
Ġw ant
Ġs Åĵurs
J o
Ġgr oup
gl as
Ġ19 46
Ġcon tem
tiss ent
Ġun ies
ge ance
70 8
an at
urn e
ott age
ĠP AT
ĠD ix
Ġdi able
ĠCan did
ĠCar ai
ĠRe spir
D J
Ġb erce
Ġprom os
Ġtir s
Ġ deuil
Ġs apin
ĠG auche
ĠV II
ĠMag as
ĠD est
jus qu
que z
Ġmin uit
Ġdou ces
u mes
Pro jet
ĠV R
b ell
ĠT ogo
Ġb d
Ġn id
end ent
38 5
J PG
ĠA vez
f ai
C OL
ĠT RI
ress ent
cht ones
P V
A ix
ĠLion el
li ch
ĠD ut
T RA
en di
Ġsold at
80 6
Ġmar t
p eut
Ch i
ĠF eder
li fe
Lang ue
Ġ0 78
M R
Ġsen ior
Ġbann ie
ament al
Ġpo ivr
46 6
Ġch ore
Ġm itige
Ġz inc
j k
Ġ13 8
s r
ĠP AL
ĠK ids
ob o
ra el
S yl
M at
ĠPh ysi
36 4
onn aise
29 4
Ġl ith
met teur
cro cher
B F
ĠSe e
Ġch utes
Ġmet tra
ine use
ĠM AS
anc ers
e scl
an ine
Ġ dense
ows ki
p and
Ġsa una
i onnel
Ġass ise
ur ine
Ġtic ket
ĠM eur
Ġbul le
h igh
B ernard
P os
35 6
ĠMes ure
Ġab i
33 7
m ari
Ġ19 5
OU SE
Ġcr aign
% )<
g ol
ĠFam ily
Ġ dor
H el
(' .
ĠOb serv
Ġfour r
Ġlu cr
ir ont
ĠInd one
br o
ĠD ell
en le
ĠAut ant
ĠE mpire
80 5
il ion
dis tr
ĠRen aud
T on
Ġsub it
hum ain
ok u
ten s
H ello
cal age
ĠX ia
F K
Ġcir que
ac trice
ĠCh o
Ġsm all
A mer
ont al
se x
b ol
ond euse
Ġl ip
h orreur
Port ail
ĠD aily
Ġal igne
Ġno ble
Ġcou te
arde s
Ġfau tes
H ommes
C RE
Ġchoc s
p cs
fin ance
ĠL IB
ph y
ps y
y gues
ĠS uivez
70 5
Ġsais i
ĠA ler
80 8
ab baye
qu ents
f ils
ĠT ak
ĠM ICH
inf lamm
U tile
ff ff
U ser
Ġman y
ye ar
AP E
Ġtom ate
ģ !<
For ce
Ġred out
Ì ģ!<
ĠM OR
Ġf ous
Ġp ouss
asse z
ĠA gne
v rie
Ġ2 15
ĠP ad
Ġ0 22
en vis
suite s
Ġerr or
sent ait
ĠF ax
diere s
on line
35 4
3 15
op oli
F ourn
au ville
ĠSur f
ra di
Ġ0 01
voy ance
uer a
? )
isn e
Ġm adame
be ille
c uisine
123 456
ĠT che
ĠC T
m id
Ġ ile
ĠC RO
D IC
Ġgu ise
19 90
ĠLou p
Pro duct
ĠD aim
iser a
Ġl an
l oi
Ġjui f
Ġn Åĵud
ex trait
ĠG RAN
V R
ĠL uis
ie ments
Ġreb ond
46 9
L ou
Ġop te
Ġdir a
ape s
Ġab sent
d p
Ġim mer
r ome
Sh irt
Ġin tui
yd ney
Ph ot
ke chers
fini tif
Ġcou ld
ĠB ug
H ier
Ġref ait
v ens
Ġten us
Ġn ue
Ġfr ustr
Ġ19 42
Ġcr ayon
li ons
M and
th an
OM ME
aine te
er ont
Ġre vers
ĠS ouv
f oot
pr omo
ĠVis ion
Ġcas h
17 1
to o
18 15
ĠTurb o
ĠMA X
ĠAL L
40 7
ju ge
ĠA gre
ĠM ince
ĠC ann
ĠGab on
m c
... âĢĿ<
sp er
d ise
A ussi
mar ie
21 00
F lor
A vr
ĠGr ec
th i
ĠGer man
v ados
Ġ19 53
35 8
oc aly
Ġanti d
Ġau dit
19 94
ĠVen tes
. |
Ġun ion
Ġg ang
33 8
au be
less is
and ise
pr ic
Åĵuvre s
Ġfil ter
Ġacc id
ĠA mi
ĠAl pha
ad en
esse s
ĠOr e
Ġch arn
RE G
s an
mo dule
ĠC OUR
Ġje ans
iss ants
c ond
