{"<s>":0,"<pad>":1,"</s>":2,"<mask>":3,"<newline>":4,"<unk>":5,"!":6,"\"":7,"#":8,"$":9,"%":10,"&":11,"'":12,"(":13,")":14,"*":15,"+":16,",":17,"-":18,".":19,"/":20,"0":21,"1":22,"2":23,"3":24,"4":25,"5":26,"6":27,"7":28,"8":29,"9":30,":":31,";":32,"<":33,"=":34,">":35,"?":36,"@":37,"A":38,"B":39,"C":40,"D":41,"E":42,"F":43,"G":44,"H":45,"I":46,"J":47,"K":48,"L":49,"M":50,"N":51,"O":52,"P":53,"Q":54,"R":55,"S":56,"T":57,"U":58,"V":59,"W":60,"X":61,"Y":62,"Z":63,"[":64,"\\":65,"]":66,"^":67,"_":68,"`":69,"a":70,"b":71,"c":72,"d":73,"e":74,"f":75,"g":76,"h":77,"i":78,"j":79,"k":80,"l":81,"m":82,"n":83,"o":84,"p":85,"q":86,"r":87,"s":88,"t":89,"u":90,"v":91,"w":92,"x":93,"y":94,"z":95,"{":96,"|":97,"}":98,"~":99,"¡":100,"¢":101,"£":102,"¤":103,"¥":104,"¦":105,"§":106,"¨":107,"©":108,"ª":109,"«":110,"¬":111,"®":112,"¯":113,"°":114,"±":115,"²":116,"³":117,"´":118,"µ":119,"¶":120,"·":121,"¸":122,"¹":123,"º":124,"»":125,"¼":126,"½":127,"¾":128,"¿":129,"À":130,"Á":131,"Â":132,"Ã":133,"Ä":134,"Å":135,"Æ":136,"Ç":137,"È":138,"É":139,"Ê":140,"Ë":141,"Ì":142,"Í":143,"Î":144,"Ï":145,"Ð":146,"Ñ":147,"Ò":148,"Ó":149,"Ô":150,"Õ":151,"Ö":152,"×":153,"Ø":154,"Ù":155,"Ú":156,"Û":157,"Ü":158,"Ý":159,"Þ":160,"ß":161,"à":162,"á":163,"â":164,"ã":165,"ä":166,"å":167,"æ":168,"ç":169,"è":170,"é":171,"ê":172,"ë":173,"ì":174,"í":175,"î":176,"ï":177,"ð":178,"ñ":179,"ò":180,"ó":181,"ô":182,"õ":183,"ö":184,"÷":185,"ø":186,"ù":187,"ú":188,"û":189,"ü":190,"ý":191,"þ":192,"ÿ":193,"Ā":194,"ā":195,"Ă":196,"ă":197,"Ą":198,"ą":199,"Ć":200,"ć":201,"Ĉ":202,"ĉ":203,"Ċ":204,"ċ":205,"Č":206,"č":207,"Ď":208,"ď":209,"Đ":210,"đ":211,"Ē":212,"ē":213,"Ĕ":214,"ĕ":215,"Ė":216,"ė":217,"Ę":218,"ę":219,"Ě":220,"ě":221,"Ĝ":222,"ĝ":223,"Ğ":224,"ğ":225,"Ġ":226,"ġ":227,"Ģ":228,"ģ":229,"Ĥ":230,"ĥ":231,"Ħ":232,"ħ":233,"Ĩ":234,"ĩ":235,"Ī":236,"ī":237,"Ĭ":238,"ĭ":239,"Į":240,"į":241,"İ":242,"ı":243,"Ĳ":244,"ĳ":245,"Ĵ":246,"ĵ":247,"Ķ":248,"ķ":249,"ĸ":250,"Ĺ":251,"ĺ":252,"Ļ":253,"ļ":254,"Ľ":255,"ľ":256,"Ŀ":257,"ŀ":258,"Ł":259,"ł":260,"Ń":261,"in":262,"le":263,"on":264,"en":265,"Ġp":266,"Ġa":267,"te":268,"ou":269,"Ġc":270,"Ġs":271,"an":272,"ine":273,"er":274,"ti":275,"Ġe":276,"Ġl":277,"is":278,"ew":279,"line":280,"new":281,"newline":282,"qu":283,"ÌĢ":284,"ar":285,"ur":286,"Ġle":287,"Ġm":288,"tr":289,"ent":290,"or":291,"un":292,"Ġr":293,"ai":294,"que":295,"tion":296,"Ġla":297,"âĢ":298,"Ġv":299,"Ġf":300,"ce":301,"ie":302,"our":303,"Ġet":304,"om":305,"âĢĻ":306,"il":307,"Ġn":308,"me":309,"Ġen":310,"se":311,"al":312,"tre":313,"ĠC":314,"ve":315,"Ġun":316,"Ġre":317,"ment":318,"Ġpr":319,"ge":320,"as":321,"ch":322,"Ġb":323,"au":324,"ir":325,"st":326,"du":327,"ĠL":328,"Ġles":329,"Ġt":330,"it":331,"ĠP":332,"ĠS":333,"ation":334,"Ġ1":335,"ÌĤ":336,".<":337,"Ġ2":338,"ant":339,"us":340,"ĠM":341,"ite":342,"ĠA":343,"ous":344,"el":345,"Ġpour":346,"Ġj":347,"Ġau":348,"at":349,"Ġpar":350,"Ġqu":351,"ans":352,"Ġdu":353,"ais":354,"ĠD":355,"et":356,"di":357,"si":358,"..":359,"Ġ(":360,"eu":361,"Ġcon":362,"ol":363,"pe":364,"ĠB":365,"ic":366,"les":367,"os":368,"ac":369,"ter":370,"Ġque":371,"Ġ:":372,"Ġg":373,"age":374,"Ġse":375,"ĠE":376,"Ġch":377,"air":378,"am":379,"Ġcom":380,"ont":381,"Ġsur":382,"Ġ-":383,"Ġpl":384,"ĠT":385,"01":386,"ab":387,"00":388,"pr":389,"ĠR":390,"Ġin":391,"ĠF":392,"aire":393,"ure":394,"Ġune":395,"Ġpro":396,"im":397,"Ġest":398,"dans":399,"Ġdans":400,"ier":401,"tes":402,"che":403,"onn":404,"ff":405,"Ġme":406,"ique":407,"Ġh":408,"ue":409,"oir":410,"and":411,"ait":412,"Ġpas":413,"oc":414,"ien":415,"Ġtr":416,"em":417,"ap":418,"ig":419,"id":420,"ss":421,"dr":422,"Ġqui":423,"ale":424,"ĠV":425,"ĠG":426,"ĠI":427,"ot":428,"ĠN":429,"Ġou":430,"ul":431,"ons":432,"ise":433,"Ġce":434,"ance":435,"ag":436,"lle":437,"br":438,"vec":439,"ain":440,"ĠÂ":441,"est":442,"ĠLe":443,"av":444,"urs":445,"Ġplus":446,"ĠJ":447,"ers":448,"ille":449,"he":450,"op":451,"ois":452,"Ġan":453,"Ġavec":454,"Ġ201":455,"Ġvous":456,"iv":457,"ĠH":458,"ort":459,"Ġsu":460,"ate":461,"Ġpre":462,"ad":463,"Ġne":464,"oi":465,"Ġ3":466,"ec":467,"Ġgr":468,"Ġte":469,"Ġvo":470,"ati":471,"Ġtou":472,"og":473,"ri":474,"bre":475,"pl":476,"od":477,"Ġav":478,"onne":479,"ble":480,"Ġil":481,"dre":482,"ci":483,"Ġex":484,"une":485,"ob":486,"ouv":487,"par":488,"ĠDe":489,"ĠO":490,"aux":491,"ction":492,"ouve":493,"elle":494,"eux":495,"ces":496,"ing":497,"ten":498,"ay":499,"Ġ0":500,"ide":501,"Ġje":502,"mes":503,"pre":504,"ĠCh":505,"oin":506,"um":507,"...":508,"ond":509,"able":510,"Ì§":511,"ard":512,"Ġ4":513,"Ġ|":514,"ro":515,"Ġsont":516,"Le":517,"ign":518,"ette":519,"tu":520,"li":521,"ace":522,"uis":523,"ations":524,"Ġser":525,"orm":526,"Ġ5":527,"Ġdi":528,"anc":529,"end":530,"Ġac":531,"ts":532,"Ġpe":533,"Ġmais":534,"Un":535,"Ġpeu":536,"Ġson":537,"ĠÂ»":538,"ub":539,"ĠLa":540,"cr":541,"ques":542,"rie":543,"dis":544,"ĠRe":545,"ut":546,"ours":547,"Ġ!":548,"Ġvotre":549,"Ġfr":550,"ui":551,"ose":552,"ion":553,"sse":554,"Ġar":555,")<":556,"ez":557,"ert":558,"Ġo":559,"Ġmar":560,"ple":561,"aine":562,"ern":563,"Ġaux":564,"gr":565,"oire":566,"Ġ19":567,"ode":568,"ĠW":569,"ore":570,"oy":571,"ence":572,"tres":573,"oit":574,"Ġno":575,"ps":576,"ord":577,"Ġnous":578,"Ġap":579,"Ġcr":580,"ants":581,"Ġdis":582,"ande":583,"Ġim":584,"ĠÂ«":585,"ors":586,"fe":587,"ux":588,"vi":589,"com":590,"Ġbe":591,"aires":592,"ire":593,"Ġcomm":594,"Ġ6":595,"port":596,"tic":597,"Ġ\"":598,"ail":599,"ments":600,"ĠEn":601,"Ġsa":602,"Ġper":603,"ĠFr":604,"ĠâĢ":605,"con":606,"ex":607,"ser":608,"til":609,"Ġ,":610,"ist":611,"Ġy":612,"Ġ?":613,"ures":614,"sion":615,"ĠLes":616,"Ġbien":617,"ib":618,"ente":619,"Ġ7":620,"ĠK":621,"ante":622,"Ġtout":623,"ile":624,"Ġw":625,"ill":626,"tif":627,"201":628,"agn":629,"ang":630,"tions":631,"tique":632,"Ġcette":633,"Ġcar":634,"20":635,"ĠIl":636,"ole":637,"tel":638,"sp":639,"><":640,"teur":641,"vr":642,"Ġon":643,"cher":644,"jet":645,"Ġentre":646,"Ġcomme":647,"Ġren":648,"Ġ/":649,"Ġfait":650,"ĠMar":651,"Ġtre":652,"Ġ8":653,"ste":654,"ĠPar":655,"tie":656,"Ġpers":657,"...<":658,"Ġal":659,"ix":660,"out":661,"Ġge":662,"Ġcl":663,"ĠIn":664,"igne":665,"Ġ9":666,"ens":667,"ver":668,"Ġmon":669,"asse":670,"ages":671,"all":672,"Ġk":673,"Ġfaire":674,"alite":675,"Ġcou":676,"if":677,"Ġcomp":678,"ven":679,"iste":680,"ann":681,"ussi":682,"ubl":683,"orte":684,"ģ,":685,"Ìģ,":686,"per":687,"Ġâ":688,"Ġses":689,"aut":690,"ES":691,"fr":692,"ies":693,"ourn":694,"uit":695,"one":696,"ĠUn":697,"Ġcons":698,"ivr":699,"10":700,"Ġont":701,"Ġ10":702,"ct":703,"Ĥ¬":704,"),":705,"Ġ200":706,"iques":707,"ement":708,"tern":709,"cl":710,"Ġst":711,"tement":712,"Ġma":713,"mbre":714,"Ġthe":715,"tt":716,"Ġnouve":717,"ses":718,"Ġtrav":719,"ON":720,"onde":721,"Ġfor":722,"ER":723,"ents":724,"ra":725,"Ġco":726,"ĠJe":727,"Ġaussi":728,"Ġsi":729,"util":730,"alement":731,"ves":732,"Ġpeut":733,"ess":734,"ĠCom":735,"ep":736,"sc":737,"form":738,"ass":739,"La":740,"Ġfin":741,"Ġ20":742,"be":743,"Ġsou":744,"deux":745,"enn":746,"ĠAn":747,"ĠQ":748,"Ġph":749,"alle":750,"ffr":751,"Ġann":752,"eur":753,"Ġnom":754,"Ġdeux":755,"ÌĪ":756,"onc":757,"tat":758,"ĠPr":759,"isation":760,"Ġter":761,"ade":762,"pon":763,"ange":764,"Ġleur":765,"aille":766,"th":767,"endre":768,"ph":769,"ow":770,"tir":771,"19":772,"Ġprodu":773,"ĠGr":774,"Ġsans":775,"err":776,"50":777,"iers":778,"ong":779,"po":780,"Ġor":781,"entre":782,"Ġat":783,"Ġcol":784,"12":785,"Ġtem":786,"aison":787,"Les":788,"Ġmin":789,"ĠâĢĵ":790,"ales":791,"Ġprem":792,"AN":793,"Ġcre":794,"....":795,"olog":796,"ok":797,"Ġ18":798,"fin":799,"Ġbr":800,"Ġtous":801,"oins":802,"ive":803,"ins":804,"Ġpos":805,"ateur":806,"ame":807,"cou":808,"ption":809,"Ġsite":810,"Ġces":811,"isse":812,"Ġpeti":813,").":814,"Ġquel":815,"30":816,"Ġcel":817,"omme":818,"ivre":819,"Ġconc":820,"Ġdiff":821,"gn":822,"Ġve":823,"ieu":824,"Ġrap":825,"Ġam":826,"ense":827,"UR":828,"ome":829,"Ġpo":830,"De":831,"lec":832,"Ġ12":833,"En":834,"vite":835,"EN":836,"oci":837,"oul":838,"ler":839,"Ġad":840,"Ġfi":841,"Ġju":842,"11":843,"Ġans":844,"dem":845,"ches":846,"ĠU":847,"its":848,"ev":849,"Ġaut":850,"Ġeff":851,"Ġ<":852,"Ġob":853,"aint":854,"ww":855,"__":856,"aient":857,"--":858,"Ġnotre":859,"Ġvos":860,"iss":861,"enti":862,"ication":863,"Ġ[":864,"la":865,"ils":866,"ĠFrance":867,"Ġ;":868,"ia":869,"sid":870,"IN":871,"Ġman":872,"Ġ15":873,"met":874,"prise":875,"arge":876,"nt":877,"ĠTr":878,"cu":879,"\":":880,"ĠAr":881,"Ġsy":882,"ains":883,"Re":884,"iser":885,"amp":886,"ĠMe":887,"tait":888,"olu":889,"AR":890,"Ġjus":891,"Ġprop":892,"Ġfac":893,"ĠPour":894,"ici":895,"dou":896,"Ġpubl":897,"Ġdr":898,"dir":899,"Ġbl":900,"Ġrem":901,"Ġconn":902,"ĠBr":903,"tru":904,"000":905,"Ġass":906,"ĠâĤ¬":907,"\",":908,"core":909,"qui":910,"Ġelle":911,"Ġfe":912,"ice":913,"ieux":914,"ov":915,"Ġtemps":916,"ssi":917,"elles":918,"Ġconf":919,"erci":920,"ope":921,"ĠPl":922,"Ġ14":923,"mble":924,"Ġvis":925,"gre":926,"Ġutil":927,"ilite":928,"Ġca":929,"min":930,"agne":931,"az":932,"ues":933,"ouver":934,"Ġcontr":935,"Ġti":936,"Ġ16":937,"Ġ17":938,"Ġ*":939,"18":940,"arr":941,"ud":942,"ģ.":943,"Ìģ.":944,"vel":945,"ĠCe":946,"ke":947,"Ġdem":948,"15":949,"jour":950,"Ġlui":951,"emme":952,"ume":953,"14":954,"iel":955,"Ġdir":956,"ĠAl":957,"ances":958,"Ġsous":959,"vez":960,"aque":961,"dit":962,"enne":963,"are":964,"use":965,"ane":966,"Ġpuis":967,"aute":968,"//":969,"Ġservi":970,"Ġprix":971,"Ġth":972,"insi":973,"Ġrec":974,"art":975,"Ġ.":976,"Ġ13":977,"sti":978,"oupe":979,"Ġ!<":980,"els":981,"Ġcas":982,"dern":983,"Ġmo":984,"atique":985,"Ġtrans":986,"Ġpol":987,"ays":988,"Ch":989,"Ġbon":990,"uite":991,"aise":992,"lo":993,"ffre":994,"16":995,"Ġdern":996,"Ġcour":997,"ienn":998,"IS":999,"Ġfil":1000,"Ġspe":1001,"sent":1002,"13":1003,"eau":1004,"ime":1005,"cess":1006,"ger":1007,"dep":1008,"://":1009,"LE":1010,"lles":1011,"17":1012,"vis":1013,"!!":1014,"22":1015,"Ġvie":1016,"Ġdou":1017,"Ġterr":1018,"Ġem":1019,"Ġcor":1020,"Ġkm":1021,"ack":1022,"ture":1023,"donne":1024,"ĠEt":1025,"ĠSe":1026,"Ġavant":1027,"ĠCon":1028,"TI":1029,"quipe":1030,"Ġmes":1031,"donc":1032,"onction":1033,"ĠY":1034,"chn":1035,"Ġencore":1036,"Ġof":1037,"rap":1038,"RE":1039,"Ġseu":1040,"Ġpart":1041,"Ġinter":1042,"Ġfois":1043,"Ġis":1044,"Ġhe":1045,"Ġdonne":1046,"Ġrencon":1047,"Ġvi":1048,"Ġdonc":1049,"ach":1050,"Ġdep":1051,"Ġcont":1052,"ambre":1053,"Ġmode":1054,"ables":1055,"Ġnos":1056,"TE":1057,"Ġmet":1058,"ĠSt":1059,"onnes":1060,"Ġmal":1061,"oule":1062,"Ġnon":1063,"iens":1064,"Ġ&":1065,"Â°":1066,"Ġform":1067,"Ġgrat":1068,"ĠAu":1069,"ĠBl":1070,"gan":1071,"Ġinte":1072,"scri":1073,"Ġsim":1074,"Ġ#":1075,"ĠSaint":1076,"Ġfranc":1077,"In":1078,"Ġgrand":1079,"Ġtu":1080,"cip":1081,"Ġ11":1082,"Ġjour":1083,"Ġlors":1084,"spe":1085,"Ġenv":1086,"ak":1087,"40":1088,"teurs":1089,"Ġligne":1090,"vent":1091,"ase":1092,"man":1093,"Ġainsi":1094,"ich":1095,"ats":1096,"Ġdepuis":1097,"Ġphot":1098,"pro":1099,"ouvr":1100,"tte":1101,"Ġapre":1102,"dic":1103,"aines":1104,"Ġbeau":1105,"Ġchau":1106,"dont":1107,"eb":1108,"Ġand":1109,"lection":1110,"dition":1111,"alise":1112,"stion":1113,"Ġmoins":1114,"Ġ:<":1115,"ocie":1116,"Ġpie":1117,"antes":1118,"lectr":1119,"ĠParis":1120,"mer":1121,"dev":1122,"avoir":1123,"Ġanne":1124,"co":1125,"Ġmil":1126,"Ġcv":1127,"ho":1128,"ner":1129,"ype":1130,"Ġplace":1131,"to":1132,"gl":1133,"25":1134,"endant":1135,"Ġcontre":1136,"oste":1137,"Ġrel":1138,"Ġmonde":1139,"ĠPro":1140,"Ġdont":1141,"ĠX":1142,"ed":1143,"tive":1144,"aur":1145,"Ġoc":1146,"jours":1147,"Ġsuis":1148,"aite":1149,"Ġpoin":1150,"mis":1151,"Ġ?<":1152,"Ġmeille":1153,"Ġ2017":1154,"cre":1155,"Ġenf":1156,"Ġpermet":1157,"24":1158,"Ġ...":1159,"Ġloc":1160,"Ġ2018":1161,"ĠQu":1162,"ook":1163,"ommes":1164,"Je":1165,"por":1166,"posi":1167,"Ġprofe":1168,"cue":1169,"tis":1170,"Ġcert":1171,"velop":1172,"oix":1173,"Ġconse":1174,"rai":1175,"Ġab":1176,"Ġdev":1177,"Ġrecher":1178,"ĠDE":1179,"Ġcher":1180,"ienne":1181,"inte":1182,"Ġsec":1183,"Ġver":1184,"Ġdiffe":1185,"ber":1186,"60":1187,"ouvez":1188,"bl":1189,"Ġtoutes":1190,"Ġdirec":1191,"ari":1192,"Ġtoute":1193,"tud":1194,"Ġto":1195,"lement":1196,"tiques":1197,"Ġlong":1198,"ja":1199,"anne":1200,"oute":1201,"tivite":1202,"ĠZ":1203,"Ġleurs":1204,"200":1205,"dom":1206,"anger":1207,"ric":1208,"ines":1209,">-":1210,"Ġ30":1211,"99":1212,"ticle":1213,"ĠCl":1214,"Ġcan":1215,"ssionn":1216,"Ġmain":1217,"atr":1218,"Ġcap":1219,"der":1220,"Ġ>":1221,"Ġcommun":1222,"ath":1223,"23":1224,"Ġavoir":1225,"isme":1226,"ren":1227,"ature":1228,"ip":1229,"ateurs":1230,").<":1231,"cle":1232,"cur":1233,"Ġsoit":1234,"ape":1235,"Ġsit":1236,"ĠOn":1237,"ieurs":1238,"Ġmai":1239,"vre":1240,"Ġ+":1241,"do":1242,"27":1243,"80":1244,"Ar":1245,"Il":1246,"ah":1247,"Ġfiles":1248,"quer":1249,"Ġgrande":1250,"ax":1251,"illes":1252,"Åĵ":1253,"Ġmaison":1254,"Ġpays":1255,"Ġcomple":1256,"ets":1257,"Ġsol":1258,"Ġappar":1259,"Ġsera":1260,"Ġintern":1261,"ĠPe":1262,"Ġtechn":1263,"ivers":1264,"Ġjou":1265,"ee":1266,"ock":1267,"Pour":1268,"sible":1269,"Ġmois":1270,"coup":1271,"Ġchez":1272,"ĠThe":1273,"ions":1274,"sance":1275,"Ġautres":1276,"ause":1277,"90":1278,"ĠCr":1279,"Ġpouv":1280,"ĠAc":1281,"Ġop":1282,"for":1283,"Ġalors":1284,"val":1285,"ene":1286,"OU":1287,"Ġsh":1288,"cien":1289,"Ġsoci":1290,"Ġpartie":1291,"Ġ=":1292,"pte":1293,"acte":1294,"erre":1295,"26":1296,"Ġprin":1297,"33":1298,"urope":1299,"Ġ2016":1300,"**":1301,"Ġfer":1302,"Ġ%":1303,"ule":1304,"Ġprojet":1305,"atif":1306,"Ġ24":1307,"ĠVous":1308,"Ġfaut":1309,"Ġcompr":1310,"Ġvrai":1311,"tats":1312,"tude":1313,"ly":1314,"28":1315,"tant":1316,"ĠTe":1317,"dess":1318,"ĠChau":1319,"AL":1320,"ration":1321,"ht":1322,"Ġven":1323,"Ġparti":1324,"Ġ2019":1325,"Ġvers":1326,"âĤ¬":1327,"Ġcela":1328,"ograp":1329,"up":1330,"gie":1331,"DF":1332,"Ġ21":1333,"Â»":1334,"tier":1335,"str":1336,"je":1337,"istoire":1338,"ĠUne":1339,"ĠNous":1340,"Ġx":1341,"Ġjours":1342,"sign":1343,"Ġ25":1344,"Ġz":1345,"45":1346,"Ġsal":1347,"OR":1348,"iz":1349,"Ġcli":1350,"\",\"":1351,"Ġva":1352,"ges":1353,"Ġfam":1354,"Ġprof":1355,"sul":1356,"ĠEx":1357,"uc":1358,"rence":1359,"Ġdom":1360,"once":1361,"ef":1362,"amme":1363,"Ġsuiv":1364,"Ġpremie":1365,"ticul":1366,"ind":1367,"conom":1368,"hui":1369,"29":1370,"Ġpasse":1371,"Ġdroit":1372,"io":1373,"Ġmoi":1374,"Ġporte":1375,"emple":1376,"ager":1377,"Ġaff":1378,"pos":1379,"Ġsup":1380,"Ġ23":1381,"ĠMais":1382,"70":1383,"vous":1384,"ĠNo":1385,"Ġ22":1386,"ierr":1387,"ox":1388,"An":1389,"ssion":1390,"uisine":1391,"Ġils":1392,"adi":1393,"ative":1394,"iter":1395,"Ġprom":1396,"ĠPh":1397,"elon":1398,"Ġsem":1399,"veloppe":1400,"rieur":1401,"Ġtrois":1402,"Ġvoir":1403,"pose":1404,"Com":1405,"Ġavait":1406,"ttp":1407,"Par":1408,"ik":1409,"emmes":1410,"ĠMon":1411,"Ġville":1412,"Ġjeune":1413,"ssures":1414,"ourne":1415,"ĠBe":1416,"bles":1417,"Ġpetit":1418,"Ġvoy":1419,"Ġbou":1420,"ĠCar":1421,"pt":1422,"Pr":1423,"Ġautre":1424,"duction":1425,"jec":1426,"ave":1427,"Ġparf":1428,"anche":1429,"abit":1430,"illet":1431,"Ġmus":1432,"Ġmise":1433,"Ġretr":1434,"35":1435,"Ġgar":1436,"Ġjeu":1437,"cueil":1438,"Ġ2015":1439,"ug":1440,"olution":1441,"Ġmoy":1442,"AS":1443,"!<":1444,"Ġdit":1445,"Ġ$":1446,"gion":1447,"otel":1448,"ĠTh":1449,"ible":1450,"Ġquand":1451,"IL":1452,"Ġli":1453,"Ġavis":1454,"ĠGe":1455,"Ġlivre":1456,"Ġcet":1457,"Ġreste":1458,"Ġpourr":1459,"Ġjusqu":1460,"Ġalle":1461,"Ġtrouve":1462,"Ġmom":1463,"Ġbes":1464,"let":1465,"anv":1466,"Ġsyste":1467,"CH":1468,"leur":1469,"Ġgroupe":1470,"obil":1471,"Ġmarche":1472,"autres":1473,"75":1474,"lu":1475,"Ġpublic":1476,"Ġame":1477,"ma":1478,"Ġsuite":1479,"Ġinform":1480,"ational":1481,"Ġpouvez":1482,"rive":1483,"sente":1484,"05":1485,"df":1486,"78":1487,"ograph":1488,"entr":1489,"act":1490,"gard":1491,"Ġtra":1492,"istes":1493,"ĠOr":1494,"dire":1495,"Ac":1496,"Ġchaque":1497,"Su":1498,"erne":1499,"ute":1500,"uel":1501,"ĠCo":1502,"ĠCol":1503,"crit":1504,"istr":1505,"06":1506,"tit":1507,"onner":1508,"Ġnive":1509,"ell":1510,"Ġchose":1511,"Ġindi":1512,"Ġgu":1513,"Ġ2014":1514,"part":1515,"euse":1516,"Ġproble":1517,"Ġmer":1518,"Ġtrop":1519,"www":1520,"Ġcompte":1521,"Ġpartir":1522,"ots":1523,"cas":1524,"03":1525,"ĠÂ»,":1526,"doc":1527,"ierre":1528,"doit":1529,"mar":1530,"imite":1531,"46":1532,"Ġide":1533,"____":1534,"tab":1535,"ĠFranc":1536,"ologie":1537,"Ġdoit":1538,"aul":1539,"Ġsimple":1540,"Ġmis":1541,"tien":1542,"Al":1543,"Ġpoli":1544,"Ġ2013":1545,"Au":1546,"Ġsavoir":1547,"21":1548,"Ġnot":1549,"Ġret":1550,"porte":1551,"Ġmat":1552,"Ġatten":1553,"mo":1554,"sh":1555,"couvr":1556,"isc":1557,"48":1558,"Ġten":1559,"Ġcours":1560,"Ġnombr":1561,"jourd":1562,"EL":1563,"dif":1564,"\":\"":1565,"Ġprote":1566,"cul":1567,"oires":1568,"Â«":1569,"Ġsor":1570,"iver":1571,"ĠPDF":1572,"ital":1573,"rement":1574,"Ġ2012":1575,"Ġ100":1576,"04":1577,"Ġinst":1578,"US":1579,"Ġimport":1580,"Ġess":1581,"Ġtype":1582,"Ġsouv":1583,"Ġaur":1584,"int":1585,"ĠPre":1586,"07":1587,"ĠSi":1588,"ls":1589,"OM":1590,"amment":1591,"Ġi":1592,"ĠElle":1593,"Ġthis":1594,"Poste":1595,"36":1596,"Ġvide":1597,"assi":1598,"38":1599,"action":1600,"Ce":1601,"95":1602,"ĠGu":1603,"Ġvoit":1604,"ith":1605,"08":1606,"yn":1607,"esp":1608,"atur":1609,"aff":1610,"istre":1611,"AC":1612,"ĠDes":1613,"ache":1614,"Ġafin":1615,"02":1616,"Ġorgan":1617,"ral":1618,"Ġvol":1619,"duc":1620,"tifs":1621,"ition":1622,"rer":1623,"Ġfemme":1624,"ĠFemme":1625,"gor":1626,"Ġmoment":1627,"Ġbonne":1628,"Ġexpl":1629,"Ġcul":1630,"ere":1631,"Ġsocie":1632,"tra":1633,"AT":1634,"mp":1635,"Ġcharge":1636,"Ġavons":1637,"ige":1638,"Ġdispon":1639,"Ġrou":1640,"Ġpropos":1641,"Ġ'":1642,"ĠSh":1643,"ĠJean":1644,"jou":1645,"ģ.<":1646,"Ìģ.<":1647,"dur":1648,"aisse":1649,"Ġrapide":1650,"anvier":1651,"phone":1652,"Ġtour":1653,"Ġmettre":1654,"Ġprogr":1655,"Ġoffre":1656,"gu":1657,"Ġport":1658,"Ġfond":1659,"cis":1660,"ĠDans":1661,"gent":1662,"Ġoff":1663,"escri":1664,"09":1665,"col":1666,"Ġple":1667,"yle":1668,"descri":1669,"Ġavez":1670,"ardin":1671,"sions":1672,"Ġfilm":1673,"ton":1674,"ili":1675,"ites":1676,"iche":1677,",\"":1678,"omm":1679,"44":1680,"tro":1681,"Ġjuin":1682,"Ġrest":1683,"iti":1684,"Ġarr":1685,"Ġmars":1686,"Ġjam":1687,"ĠCan":1688,"oph":1689,"Ġsouh":1690,"ception":1691,"Ġdescri":1692,"Ġniveau":1693,"AU":1694,"Ġ28":1695,"mi":1696,"Ġ06":1697,"39":1698,"55":1699,"die":1700,"ars":1701,"IC":1702,"aly":1703,"Ġlieu":1704,"lus":1705,"inter":1706,"âĢĿ":1707,"yr":1708,"place":1709,"uation":1710,"Tr":1711,");":1712,">âĢ":1713,"Ġho":1714,"Ġ26":1715,"Ġbase":1716,"ttes":1717,"34":1718,"ick":1719,"Ġcal":1720,"76":1721,"cture":1722,"]<":1723,"did":1724,"tenir":1725,"enter":1726,"rien":1727,"ģ<":1728,"Ġdire":1729,"Ġfile":1730,"AM":1731,"ditions":1732,"oll":1733,"Ìģ<":1734,"Ġici":1735,"nement":1736,"rique":1737,"tem":1738,"comm":1739,"Ġdur":1740,"Ġdo":1741,"ĠPas":1742,"IT":1743,"Ġmen":1744,"iciel":1745,"tels":1746,"Ġmilli":1747,"curite":1748,"ĠSu":1749,"Ġpoint":1750,"tenant":1751,"oun":1752,"cembre":1753,"Vous":1754,"ĠFe":1755,"ze":1756,"IE":1757,"opul":1758,"tudi":1759,"ĠVe":1760,"Ġ50":1761,"Ġacce":1762,"Ġrien":1763,"Ġfourn":1764,"vembre":1765,"OS":1766,"vrier":1767,"af":1768,"Ġeffet":1769,"char":1770,"Ġcorr":1771,"mon":1772,"Ġforme":1773,"Ġdernie":1774,"ril":1775,"aud":1776,"oration":1777,"Ġtable":1778,"Ġselon":1779,"Ġ01":1780,"rix":1781,"UE":1782,"ity":1783,"ris":1784,"cord":1785,"ĠAp":1786,"ĠMan":1787,"Ġpense":1788,"voir":1789,"Ġsalle":1790,"vo":1791,"uer":1792,"ron":1793,"dec":1794,"prises":1795,"dresse":1796,"DE":1797,"Ġ27":1798,"TION":1799,"prie":1800,"Ġpdf":1801,"ises":1802,"Ġchois":1803,"ect":1804,"Ġlog":1805,"Ġdess":1806,"49":1807,"Ġfl":1808,"ttps":1809,"Ġbois":1810,"Ġ...<":1811,"vient":1812,"Ġnume":1813,"Fr":1814,"Ġdoc":1815,"Sujet":1816,"Ġbi":1817,"Ġmieux":1818,"of":1819,"lig":1820,"37":1821,"app":1822,"ori":1823,"iller":1824,"ider":1825,"ds":1826,"tabl":1827,"Ġ2011":1828,">Â«":1829,"Ġnombre":1830,"Ġag":1831,"Ġfais":1832,"Ġsour":1833,"Ġresp":1834,"tail":1835,"Ġinc":1836,"Ġpor":1837,"Ġins":1838,"aleur":1839,"vers":1840,"Une":1841,"tout":1842,"yl":1843,"atie":1844,"Ġcm":1845,"Ġplan":1846,"Ġcode":1847,"comp":1848,"NE":1849,"ĠJu":1850,"Ġall":1851,"Ġenvir":1852,"Ġgros":1853,"Ġchoix":1854,"Ġrece":1855,"Ġfut":1856,"ĠSer":1857,"Ġgl":1858,"Ġserr":1859,"uits":1860,"Ġcentre":1861,"atiques":1862,"Ġrepre":1863,"Ġmess":1864,"sident":1865,"Ġsign":1866,"amb":1867,"Ġauc":1868,"ptembre":1869,"tobre":1870,"vir":1871,"arie":1872,"ĠCette":1873,"lex":1874,"att":1875,"Ġcontin":1876,"Ġsp":1877,"Ġjamais":1878,"ĠDu":1879,"obe":1880,"Ġmag":1881,"56":1882,",<":1883,"enc":1884,"47":1885,"ĠSur":1886,"Ġsie":1887,"----":1888,"Ġpromo":1889,"Ġfre":1890,"Ġmont":1891,"fic":1892,"ouse":1893,"ville":1894,"ploi":1895,"Ġcelui":1896,"Ìĥ":1897,"but":1898,"Ġ000":1899,"Ġbas":1900,"Ġceux":1901,"erm":1902,"Ġ29":1903,"Ġhum":1904,"Ġbec":1905,"Ġappl":1906,"ulti":1907,"ences":1908,"Ġchange":1909,"Ġeu":1910,"arre":1911,"Ġimm":1912,"Ġache":1913,"iner":1914,"Ġpage":1915,"ĠIm":1916,"Ġro":1917,"Ġtoi":1918,"ĠPlus":1919,"Ġshort":1920,"venir":1921,"Ġsuper":1922,"Ġ2010":1923,"ĠAm":1924,"igin":1925,"serv":1926,"ENT":1927,"son":1928,"Ġsitue":1929,"Ġavril":1930,"Ġmembre":1931,"side":1932,"Ġhabit":1933,"rit":1934,"ote":1935,"leurs":1936,"roy":1937,"leu":1938,"Ġinf":1939,"Ġgra":1940,"Ġclasse":1941,"trer":1942,"Ġche":1943,"Ġ*<":1944,"Ġsau":1945,"uto":1946,"Ġtot":1947,"sur":1948,"Ġactu":1949,"RO":1950,"Ġense":1951,"eg":1952,"oto":1953,"serve":1954,"Ġapp":1955,"Ġcomb":1956,"agement":1957,"Ġsub":1958,"oh":1959,"ulte":1960,"atis":1961,"Ġpropre":1962,"Ġref":1963,"ouvert":1964,"32":1965,"ash":1966,"Ġbesoin":1967,"Ġvoyage":1968,"2017":1969,"quoi":1970,"Ġcadre":1971,"Ġvendre":1972,"Ġris":1973,"utes":1974,"itaire":1975,"ĠÂ»<":1976,"Ġgen":1977,"uss":1978,"ada":1979,"31":1980,"Ġlit":1981,"inst":1982,"Ġcoup":1983,"ĠNoir":1984,"dos":1985,"urer":1986,"Ġ09":1987,"Ġpopul":1988,"tionn":1989,"ight":1990,"Ġsais":1991,"casion":1992,"Ġfemmes":1993,"?<":1994,"CE":1995,"abilite":1996,"58":1997,"pes":1998,"ĠQue":1999,"uelle":2000,"Ġfacile":2001,"ela":2002,"Ġmarque":2003,"Ġface":2004,"evr":2005,"Ġmod":2006,"ini":2007,"omb":2008,"Ġfai":2009,"ĠLE":2010,"Ġvente":2011,"devr":2012,"dustr":2013,"ĠMer":2014,"aid":2015,"Ġpetite":2016,"dure":2017,"Ġdevr":2018,"ouvern":2019,"OL":2020,"Ġmate":2021,"imer":2022,"aces":2023,"Ġ08":2024,"charger":2025,"59":2026,"Ġexpe":2027,"ĠâĢľ":2028,"ousse":2029,"acite":2030,"Ġtex":2031,"Nous":2032,"ibu":2033,"Ġasse":2034,"Ġphotos":2035,"Ġtant":2036,"onte":2037,"Ġesp":2038,"AG":2039,"ministr":2040,"oge":2041,"tal":2042,"Ġsens":2043,"ĠMont":2044,"forme":2045,"ports":2046,"sib":2047,"acances":2048,"dia":2049,"Ġnatur":2050,"Ġveu":2051,"cole":2052,"ĠAvec":2053,"Ġtrai":2054,"illage":2055,"rents":2056,"77":2057,"sy":2058,"Ġcarte":2059,"bour":2060,"orite":2061,"Pro":2062,"euses":2063,"alis":2064,"ae":2065,"Ġent":2066,"Ġpass":2067,"Ġton":2068,"Ġvue":2069,"icile":2070,"ĠDi":2071,"Ġci":2072,"Ġ199":2073,"euf":2074,"Ġsante":2075,"ast":2076,"inc":2077,"ett":2078,"Ġstr":2079,"Ġby":2080,"ster":2081,">#":2082,"Ġsujet":2083,"ĠFor":2084,"oot":2085,"II":2086,"arm":2087,"ticles":2088,"book":2089,"Me":2090,"Ġni":2091,"celle":2092,"Ġvite":2093,"ĠAnn":2094,"rent":2095,"Ġregard":2096,"43":2097,"lab":2098,"chat":2099,"eff":2100,"eurs":2101,"Ġdos":2102,"Ġ.<":2103,"Ġcelle":2104,"Ġress":2105,"ork":2106,"Ġus":2107,"Ġphoto":2108,"Ġta":2109,"Ġposi":2110,"Ġhomme":2111,"date":2112,"inform":2113,"autre":2114,"iez":2115,"Ġpris":2116,"donner":2117,"Ġfab":2118,"ivent":2119,"tisse":2120,"ey":2121,"SE":2122,"arch":2123,"Ġsommes":2124,"uir":2125,"Åĵu":2126,"Ġrend":2127,"ambres":2128,"Dans":2129,"lin":2130,"Ġlib":2131,"IR":2132,"sultats":2133,"vention":2134,"suite":2135,"Ġcompe":2136,"Ġmodif":2137,"aie":2138,"pare":2139,"66":2140,"ull":2141,"Ġ2009":2142,"88":2143,"terie":2144,"ros":2145,"=\"":2146,"Ġu":2147,"Si":2148,"ides":2149,"da":2150,"alen":2151,"No":2152,"ĠLA":2153,"aliser":2154,"Cl":2155,"ument":2156,"Ġnoir":2157,"Ex":2158,"Ġaou":2159,"clus":2160,"Ġcer":2161,"ino":2162,"Ġparc":2163,"Ġheures":2164,"pen":2165,"pondre":2166,"Ġ40":2167,"inf":2168,"Ġutilis":2169,"ĠCor":2170,"Ġ07":2171,"Ġetc":2172,"ĠCH":2173,"anti":2174,"we":2175,"ples":2176,"ĠChe":2177,":<":2178,"aill":2179,"ket":2180,"AP":2181,"ict":2182,"Et":2183,"ander":2184,"obilier":2185,"Ġgard":2186,"Or":2187,"mett":2188,"ĠChar":2189,"ĠBas":2190,"orer":2191,"57":2192,"org":2193,"Ġcir":2194,"titu":2195,"Se":2196,"Ġpasser":2197,"Ġ2020":2198,"Ġjourne":2199,"Ġrespe":2200,"ctions":2201,"Ġeurope":2202,"Ġnation":2203,"dite":2204,"Ġblanc":2205,"uy":2206,"Ġunique":2207,"oint":2208,"ET":2209,"alon":2210,"http":2211,"xe":2212,"ĠIntern":2213,"oli":2214,"ina":2215,"ĠComm":2216,"yp":2217,"Ġcamp":2218,"OUR":2219,"ĠâĢ¢":2220,"42":2221,"ination":2222,"arif":2223,"Qu":2224,"Ġcrois":2225,"arn":2226,"Ġautom":2227,"tements":2228,"Ġconten":2229,"On":2230,"own":2231,"Ġdonner":2232,"ĠCV":2233,"Ġbelle":2234,"ĠMo":2235,"ĠNew":2236,"aller":2237,"Ġeur":2238,"ĠNouve":2239,"rience":2240,"ĠFl":2241,"obile":2242,"seau":2243,"istor":2244,"oyer":2245,"Ġtitre":2246,"ayer":2247,"Ġchauff":2248,"Ġmort":2249,"Ġproch":2250,"ureau":2251,"Ġhaut":2252,"ĠDr":2253,"Ġfont":2254,"Ġval":2255,"ĠNe":2256,"Ġcontro":2257,"ards":2258,"gle":2259,"aye":2260,"Ġjuste":2261,"atre":2262,"duit":2263,"Ph":2264,"Ġmanie":2265,"mission":2266,"ĠHe":2267,"ĠAd":2268,"ki":2269,"ĠGo":2270,"54":2271,"aph":2272,"ĠVo":2273,"Ġseul":2274,"Ġlarge":2275,"ĠCre":2276,"arb":2277,"euble":2278,"andes":2279,"can":2280,"dra":2281,"Ġappr":2282,"Ġhttp":2283,"Ġmesure":2284,"ĠIls":2285,"ĠHotel":2286,"Ġba":2287,"cial":2288,"Ġseront":2289,"Ġjardin":2290,"urg":2291,"icite":2292,"erc":2293,"get":2294,"Ġanti":2295,"ata":2296,"Ġ2008":2297,"othe":2298,"Ġassez":2299,"ĠHomme":2300,"ids":2301,"ublie":2302,"Ġlum":2303,"OT":2304,"Ġlang":2305,"86":2306,"ocation":2307,"41":2308,"taient":2309,"gul":2310,"Ġsuc":2311,"Ġ31":2312,"article":2313,"Ġbat":2314,"ibles":2315,"esign":2316,"Ġsce":2317,"2018":2318,"oye":2319,"Ġtaille":2320,"ĠPo":2321,"2019":2322,"2016":2323,"Ġpu":2324,"Ġscien":2325,"gne":2326,"Ġcorps":2327,"design":2328,"orde":2329,"DI":2330,"RI":2331,"land":2332,"atives":2333,"ettes":2334,"Ġvisite":2335,"Te":2336,"Ġcollec":2337,"Ġfrais":2338,"dent":2339,"couvrir":2340,"Ġparce":2341,"ME":2342,"Ġ{":2343,"tim":2344,"ĠPrix":2345,"Ġvu":2346,"tur":2347,"osse":2348,"auteur":2349,"ila":2350,"Ġsemble":2351,"Ġliste":2352,"\"<":2353,"vert":2354,"Ġagre":2355,"Ġrev":2356,"dest":2357,"ournal":2358,"ca":2359,"89":2360,"Ġquoi":2361,"Ġpoints":2362,"Ġas":2363,"ĠMa":2364,"leve":2365,"Ġanim":2366,"Ġparten":2367,"den":2368,"Ġproce":2369,"atoire":2370,"nov":2371,"ponse":2372,"Ġrecomm":2373,"ball":2374,"avant":2375,"Ġplu":2376,"Ġprive":2377,"ĠRen":2378,"ike":2379,"Ho":2380,"rieure":2381,"Ġrue":2382,"oti":2383,"oles":2384,"Ġtes":2385,"Ġai":2386,"Ġmm":2387,"53":2388,"ĠBou":2389,"Ġlun":2390,"Ġloi":2391,"iance":2392,"oleil":2393,"79":2394,"Ġsoi":2395,"Ġrom":2396,"stitu":2397,"face":2398,"mm":2399,"Ġserait":2400,"Ġord":2401,"Ġsaison":2402,"ude":2403,"Ġblog":2404,"RA":2405,"agit":2406,"ĠÐ":2407,"Ġope":2408,"Ġwith":2409,"idi":2410,"Ġfeu":2411,"pas":2412,"Ġmulti":2413,">(":2414,"Ġsac":2415,"Ġautour":2416,"alog":2417,"Ġdevant":2418,"Ġid":2419,"reg":2420,"porter":2421,"ĠCour":2422,"Ġtir":2423,"Ġzone":2424,"dul":2425,"oite":2426,"Ġarrive":2427,"Åĵuvre":2428,"ish":2429,"Ġlet":2430,"Ġcade":2431,"Ġdist":2432,"Ġay":2433,"riel":2434,"Ġmari":2435,"Ġraison":2436,"aide":2437,"Ġhommes":2438,"ana":2439,"ĠUS":2440,"Ġnuit":2441,"ĠOu":2442,"teau":2443,"Ġadap":2444,"orn":2445,"',":2446,"rences":2447,"Ġjeunes":2448,"Ġdest":2449,"pend":2450,"Con":2451,"'s":2452,"ĠSam":2453,"69":2454,"Ġchamp":2455,"Ġweb":2456,"Ġbout":2457,"Ġlie":2458,"Ġbut":2459,"ection":2460,"sence":2461,"Ġstyle":2462,"hic":2463,"Mar":2464,"riode":2465,"Ġreconn":2466,"tile":2467,"era":2468,"Ġso":2469,"ĠHo":2470,"Ġplais":2471,"Ġcle":2472,"Ġvoul":2473,"ĠEm":2474,"ĠCas":2475,"igine":2476,"unes":2477,"ĠMal":2478,"jouter":2479,"Ġmatie":2480,"ĠÂ».":2481,"85":2482,"Ġposte":2483,"Ġdesign":2484,"St":2485,"trait":2486,"charge":2487,"100":2488,"Ġfinanc":2489,"Ġpap":2490,"Ġpost":2491,"ĠRo":2492,"Ġforce":2493,"Ġterre":2494,"Ġorigin":2495,"ince":2496,"tex":2497,"acce":2498,"publ":2499,"tudes":2500,"ama":2501,"ysi":2502,"Ġmot":2503,"Ġchem":2504,"aw":2505,"ogle":2506,"ano":2507,"Ġeng":2508,"Ġrac":2509,"Ġsuff":2510,"ony":2511,"men":2512,"ni":2513,"\\/":2514,"ĠRou":2515,"Ġdate":2516,"Ġsus":2517,"Ġeux":2518,"rentes":2519,">\"":2520,"urb":2521,"bres":2522,"site":2523,"ennes":2524,"Ġsites":2525,"Br":2526,"ĠGrand":2527,"Ġpublie":2528,"Ġelles":2529,"Ġmax":2530,"ĠSac":2531,"rif":2532,"ott":2533,"orme":2534,"Ġ00":2535,"Ġlivr":2536,"Pre":2537,"Voir":2538,"Ġind":2539,"Ġ}":2540,"spr":2541,"Ġeffic":2542,"Ġ;<":2543,"Ġpetits":2544,"toi":2545,"onnel":2546,"Ġ60":2547,"ĠLun":2548,"vant":2549,"Ġmach":2550,"prime":2551,"Ġcause":2552,"enf":2553,"ĠET":2554,"Ġatte":2555,"Ġjeux":2556,"rale":2557,"euve":2558,"taire":2559,"change":2560,"ĠMaison":2561,"car":2562,"bec":2563,"Ap":2564,"ĠÂ·":2565,"quel":2566,"52":2567,"Ġsen":2568,"ĠBel":2569,"ifie":2570,"ood":2571,"Ġretour":2572,"Ġartis":2573,"ĠEUR":2574,"inture":2575,"Ġfort":2576,"plo":2577,"ĠVoir":2578,"Åĵur":2579,"Ġlance":2580,"ung":2581,"igue":2582,"tient":2583,"Ġ04":2584,"CI":2585,"Ġ)":2586,"51":2587,"Ġaj":2588,"urance":2589,"ml":2590,"oo":2591,"auche":2592,"68":2593,"Ġmondi":2594,"Ġdure":2595,"67":2596,"ĠConse":2597,"oss":2598,"vidu":2599,"Ġlimite":2600,"Ġaller":2601,"Ġprise":2602,"ieur":2603,"ules":2604,"organ":2605,"tiers":2606,"chi":2607,"Ġali":2608,"cipe":2609,"iles":2610,"Ġterrit":2611,"duire":2612,"ident":2613,"ĠMode":2614,"old":2615,"tez":2616,"ĠSte":2617,"Ġgens":2618,"Ġ2007":2619,"ault":2620,"esse":2621,"Ġsortie":2622,"Ġcri":2623,"view":2624,"Ġmor":2625,"ank":2626,"mine":2627,"enir":2628,"atten":2629,"ĠCes":2630,"Ġdouble":2631,"Ġbain":2632,"ĠLy":2633,"Ġques":2634,"exe":2635,"Gr":2636,"Ġpose":2637,"Ġmoyen":2638,"Ġchef":2639,"ĠCher":2640,"ulaire":2641,"sie":2642,"vision":2643,"primer":2644,"Ġayant":2645,"ĠBar":2646,"urent":2647,"erce":2648,"oe":2649,"Ġ05":2650,"ĠCons":2651,"ĠVen":2652,"Cette":2653,"cupe":2654,"ĠIs":2655,"ĠâĢĶ":2656,"rite":2657,"ows":2658,".,":2659,"Ġbal":2660,"appl":2661,"Ġpluto":2662,"Ġchar":2663,"Ġlongue":2664,"ĠAir":2665,"65":2666,"Ġoutil":2667,"otte":2668,"Comment":2669,"Bon":2670,"ticulie":2671,"ĠMich":2672,"agr":2673,"rist":2674,"Ġeuros":2675,"****":2676,"bes":2677,"ĠPoste":2678,"Vo":2679,"Ġfix":2680,"Ġyou":2681,"glais":2682,"iscine":2683,"otidi":2684,"ress":2685,"Ġfille":2686,"ernant":2687,"Ġhy":2688,"Ġchoses":2689,"nergie":2690,"ĠAss":2691,"Unis":2692,"Ġrempl":2693,"Ġparle":2694,"Ġplein":2695,"Ġsocial":2696,"Ġconst":2697,"las":2698,"[]":2699,"Ġquatre":2700,"quent":2701,"ATION":2702,"eng":2703,"Ġouvr":2704,"imum":2705,"Ġlire":2706,"ancer":2707,"ĠSp":2708,"Ġcandid":2709,"Accueil":2710,"Ġnu":2711,"alyse":2712,">â":2713,"Ġquar":2714,"Ġcin":2715,"Ġaucun":2716,"yste":2717,"ielle":2718,"bum":2719,"gue":2720,"ĠAb":2721,"erte":2722,"cteur":2723,"onge":2724,"Ġgaran":2725,"ara":2726,"Ġ[...":2727,"ĠMai":2728,"lic":2729,"aiss":2730,"due":2731,"Ġtom":2732,"oth":2733,"ĠLou":2734,"Ġoffr":2735,"ĠPierre":2736,"AB":2737,"Ġban":2738,"istance":2739,"Ġaug":2740,"Ġobjec":2741,"ĠRE":2742,"tiv":2743,"cran":2744,"87":2745,"veux":2746,"Ġ!!!":2747,"ĠCa":2748,"Ġveut":2749,"heur":2750,"crire":2751,"avais":2752,"ka":2753,"PE":2754,"??":2755,"Ġaccomp":2756,"medi":2757,"ĠEl":2758,"ĠEN":2759,"ĠÎ":2760,"avor":2761,"Ġgrands":2762,"droit":2763,"Ġ03":2764,"ira":2765,"Ġgaz":2766,"aime":2767,"Ġsoir":2768,"Ad":2769,"Ġfrom":2770,"Ġloge":2771,"ult":2772,"itation":2773,"acer":2774,"AD":2775,"ary":2776,"gique":2777,"aises":2778,"Ġdroits":2779,"Ġhaute":2780,"Ġaider":2781,"Ġfich":2782,"ĠEurope":2783,"credi":2784,"parer":2785,"Ġlaisse":2786,"auv":2787,"agner":2788,"Ġpen":2789,"entiel":2790,"Ġcentr":2791,"manche":2792,"ĠPol":2793,"sych":2794,"Ġ02":2795,"Ġprend":2796,"Ġchac":2797,"ĠBlanc":2798,">[":2799,"Ġinde":2800,"sultat":2801,"QUE":2802,"image":2803,"Ġatt":2804,"Ġvaleur":2805,"Ġpatr":2806,"cs":2807,"fs":2808,"ements":2809,"sprit":2810,"Ġnature":2811,"espond":2812,"Ġnav":2813,"sier":2814,"https":2815,"lan":2816,"ĠSa":2817,"Â©":2818,"74":2819,"Ġprox":2820,"Ġreven":2821,"ainte":2822,"VE":2823,"iment":2824,"Ġsein":2825,"Ġrisque":2826,"Ġguerre":2827,"ys":2828,"ĠâĤ¬<":2829,"cision":2830,"fort":2831,"Ġhttps":2832,"Ġentr":2833,"vie":2834,"Ġvient":2835,"cour":2836,"ðŁ":2837,"ĠPer":2838,"isser":2839,"IG":2840,"ades":2841,"The":2842,"iquer":2843,"Ġseule":2844,"64":2845,"ĠEntre":2846,"eek":2847,"Ġloin":2848,"ĠBon":2849,"spir":2850,"achat":2851,"Ġappro":2852,"ĠPort":2853,"abe":2854,"ionn":2855,"\".":2856,"Ġchi":2857,"aume":2858,"tualite":2859,"ĠVille":2860,"ye":2861,"Ġconnai":2862,"terr":2863,"aurant":2864,"Ġacc":2865,"PS":2866,"Ġenfant":2867,"ditionn":2868,"Ġbord":2869,"inaire":2870,"bourg":2871,"Ġclub":2872,"ĠVer":2873,"Ġpou":2874,"Ġcate":2875,"Ġsupe":2876,"Ġpossib":2877,"Ġmerci":2878,"ĠDou":2879,"mb":2880,"Ġmaj":2881,"sque":2882,"Ġforum":2883,"Ġ35":2884,"cide":2885,"ĠDis":2886,"tice":2887,"Ġstru":2888,"cor":2889,"Ġtard":2890,"ĠAut":2891,"Ġplate":2892,"Plus":2893,"ombre":2894,"Ġlaque":2895,"ll":2896,"RAN":2897,"conomie":2898,"quie":2899,"Ġespe":2900,"vice":2901,"ĠFemmes":2902,"IM":2903,"Ġrendre":2904,"Ġrouge":2905,"Ġlien":2906,"Ġsigne":2907,"ĠDU":2908,"Ġimage":2909,"ĠCap":2910,"Ġder":2911,"atch":2912,"IER":2913,"ource":2914,"84":2915,"su":2916,"Ġeffec":2917,"ĠSon":2918,"ÌĢ,":2919,"Ġfau":2920,"Publie":2921,"pele":2922,"onique":2923,"igh":2924,"Cr":2925,"king":2926,"Ġ39":2927,"ld":2928,"tape":2929,"venue":2930,"atifs":2931,"Ġgenr":2932,"Ġgenre":2933,"issant":2934,"oup":2935,"jets":2936,"mand":2937,"2015":2938,"Ġtarif":2939,"erie":2940,"oyage":2941,"entes":2942,"illeurs":2943,"Ġpati":2944,"ĠPrem":2945,"bat":2946,"Ġdeuxie":2947,"Ġtaux":2948,"ĠCanada":2949,"itaires":2950,"fois":2951,"oft":2952,"quant":2953,"quis":2954,"Ġroute":2955,"Ġaupre":2956,"Ġmatch":2957,"Ġsymp":2958,"ĠTout":2959,"Ġpai":2960,"cm":2961,"Merci":2962,"thode":2963,"Ġconv":2964,"Mais":2965,"apon":2966,"aler":2967,"Ġdisc":2968,"Ġtelle":2969,"Des":2970,"ĠDim":2971,"ĠVi":2972,"rature":2973,"entif":2974,"oue":2975,"ĠIN":2976,"Ġclient":2977,"ibli":2978,"ources":2979,"no":2980,"Ġclassi":2981,"contre":2982,"ecte":2983,"tives":2984,"Ġterme":2985,"Ġempl":2986,"Ġphysi":2987,"itter":2988,"Ġmontre":2989,"83":2990,"Ġmouve":2991,"Ġsecond":2992,"origine":2993,"Ġvais":2994,"ĠApre":2995,"indre":2996,"ĠPage":2997,"cep":2998,"Ġdistr":2999,"apre":3000,"server":3001,"Ġ|--":3002,"icol":3003,"ĠTri":3004,"pg":3005,"Ġclim":3006,"homme":3007,"Ġbureau":3008,"73":3009,"irme":3010,"Ġbar":3011,"Ġstre":3012,"Ġlibre":3013,"Pe":3014,"lim":3015,"Ġmas":3016,"zz":3017,"ague":3018,"ark":3019,"ogr":3020,"ilm":3021,"à¸":3022,"envir":3023,"ates":3024,"Ġ80":3025,"ouss":3026,"Ġpeux":3027,"ĠPhil":3028,"pis":3029,"uil":3030,"Ġanc":3031,"Ġcarr":3032,"Ġhistor":3033,"Ġpot":3034,"Ġpan":3035,"Ġcadeau":3036,"expl":3037,"Ġaide":3038,"ices":3039,"Ġstrate":3040,"moire":3041,"LA":3042,"Ġposse":3043,"Car":3044,"ĠMag":3045,"tin":3046,"Ġstock":3047,"Ġtend":3048,"ID":3049,"Ġsamedi":3050,"Ġferme":3051,"emploi":3052,"ust":3053,"ĠFin":3054,"lent":3055,"ulture":3056,"IB":3057,"terne":3058,"amm":3059,"''":3060,"fait":3061,"Ġaccord":3062,"acter":3063,"72":3064,"Saint":3065,"gorie":3066,"cif":3067,"UN":3068,"OP":3069,"Ġpied":3070,"Ġouvert":3071,"Ġsalon":3072,"temps":3073,"iennes":3074,"Ġnorm":3075,"ĠCam":3076,"ĠSal":3077,"abord":3078,"ST":3079,"Ġ45":3080,"Ġcy":3081,"pour":3082,"rop":3083,"ĠBer":3084,"frique":3085,"gles":3086,"apos":3087,"onsable":3088,"tage":3089,"ennent":3090,"ĠCentre":3091,"Ġarre":3092,"Ø§":3093,"Ġpierre":3094,"Ġlivres":3095,"ĠLi":3096,"hum":3097,"don":3098,"ta":3099,"viter":3100,"MENT":3101,"Ġsource":3102,"ģ-":3103,"Ìģ-":3104,"Chau":3105,"tails":3106,"Ġtourn":3107,"Ġcolle":3108,"ĠJeu":3109,"Ġsupple":3110,"ĠSch":3111,"Ġaura":3112,"ĠWeb":3113,"Ġinves":3114,"go":3115,"Ġ75":3116,"vid":3117,"len":3118,"Ġimages":3119,"Ġqual":3120,"ĠStr":3121,"Ġchaud":3122,"Ġvois":3123,"bi":3124,"gal":3125,"ĠÅĵuvre":3126,"OC":3127,">>":3128,"ube":3129,"poser":3130,"ings":3131,"('":3132,"Ġautant":3133,"phe":3134,"cel":3135,"2013":3136,"Ġsav":3137,"yth":3138,"ieuse":3139,"Ġoffres":3140,"bou":3141,"Ġneuf":3142,"expe":3143,"Ð¾":3144,"onces":3145,"Ġsoleil":3146,"illa":3147,"2014":3148,"Ġproche":3149,"Cont":3150,"Ġciv":3151,"ink":3152,"ĠMerci":3153,"ĠCal":3154,"Ġexiste":3155,"63":3156,"Ġrespec":3157,"Ġrepr":3158,"Ġparmi":3159,"oie":3160,"del":3161,"2012":3162,"indows":3163,"INE":3164,"ailles":3165,"acc":3166,"ĠAt":3167,"Hotel":3168,"ĠcÅĵur":3169,"uments":3170,"ĠNord":3171,"by":3172,"Ġparler":3173,"ĠSE":3174,"agnif":3175,"Ġadapte":3176,"hen":3177,"verse":3178,"ĠMarie":3179,"ĠRob":3180,"Ġlundi":3181,"Ġesti":3182,"Ġfavor":3183,"MA":3184,"Ġvir":3185,"ĠSud":3186,"ĠTour":3187,"Ann":3188,"Ġsucce":3189,"ogn":3190,"ĠDieu":3191,"ual":3192,"Ġaucune":3193,"Ġbel":3194,"Ð¸":3195,"onom":3196,"Ġ90":3197,"Ġcat":3198,"Ġaurait":3199,"98":3200,"glise":3201,"Ġmagas":3202,"Ġvia":3203,"ĠBlack":3204,"Ġir":3205,"mage":3206,"Ġvont":3207,"ibution":3208,"Ġcam":3209,"Ġpeau":3210,"Ġfig":3211,"Ġhor":3212,"oise":3213,"Ġ500":3214,"aj":3215,"Ġtest":3216,"Ġmatin":3217,"jpg":3218,"Ġcollab":3219,"load":3220,"Ġforte":3221,"Ġagr":3222,"ĠVente":3223,"Ġrais":3224,"inateur":3225,"asseur":3226,"ippe":3227,"pisode":3228,"mie":3229,"Ġassure":3230,"ottes":3231,"Ġsyn":3232,"ĠDES":3233,"{\"":3234,"Ġmic":3235,"asses":3236,"Ġpoids":3237,"iennent":3238,"Ġaccue":3239,"Ġtop":3240,"Ġaime":3241,"ailler":3242,"ĠCode":3243,"ĠTre":3244,"62":3245,"ĠSep":3246,"urier":3247,"ITE":3248,"cri":3249,"ĠBour":3250,"mont":3251,"esc":3252,"ĠNotre":3253,"Ġmots":3254,"Ġmalad":3255,"tent":3256,"Ġmanque":3257,"Ð°":3258,"pec":3259,"Ġpresse":3260,"Ġprest":3261,"nements":3262,"ffe":3263,"Sur":3264,"mart":3265,"kets":3266,"titue":3267,"ritable":3268,"ĠGar":3269,"ĠBeau":3270,"Ġspect":3271,"amique":3272,"Ġjur":3273,"Ġtexte":3274,"ĠCela":3275,"Ġmur":3276,"Ġsomme":3277,"Ġpil":3278,"Ġcine":3279,"ater":3280,"oisir":3281,"tention":3282,"Ġoui":3283,"ĠRoy":3284,"cessus":3285,"Ġoblig":3286,"Ġimme":3287,"Ġ2006":3288,"ags":3289,"usion":3290,"Ġsport":3291,"Ġpren":3292,"cise":3293,"couvrez":3294,">âĢ¢":3295,"appe":3296,"ĠBen":3297,"ister":3298,"glement":3299,"ound":3300,"imo":3301,"Ġtri":3302,"Ġyeux":3303,"ÌĢ-":3304,"outes":3305,"82":3306,"Ġimp":3307,"ga":3308,"ĠMin":3309,"tuelle":3310,"Ġpa":3311,"ĠBleu":3312,"oindre":3313,"Ġcit":3314,"Ġparis":3315,"ocr":3316,"Ġviole":3317,"illon":3318,"itre":3319,"pendant":3320,"dan":3321,"pann":3322,"arite":3323,"alent":3324,"71":3325,"ĠDir":3326,"Ġpages":3327,"IRE":3328,"Ġexte":3329,"nce":3330,"ament":3331,"ĠBois":3332,"stival":3333,"ĠTous":3334,"rations":3335,"Ðµ":3336,"chez":3337,"ĠSec":3338,"ties":3339,"ader":3340,"Ġamis":3341,"diere":3342,"aste":3343,"Ġgou":3344,"adio":3345,"96":3346,"ĠÂ».<":3347,"astique":3348,"ammes":3349,"Ġ70":3350,"Ġeau":3351,"Ġvivre":3352,"net":3353,"oile":3354,"ĠTrans":3355,"Ġattr":3356,"ĠGre":3357,"Ġes":3358,"acle":3359,"Ġgarde":3360,"oux":3361,"Ġdoute":3362,"Ġsud":3363,"ĠAlle":3364,"Ġtempe":3365,"ĠLong":3366,"Ġjoue":3367,"ophe":3368,"poque":3369,"TS":3370,"Ġmeuble":3371,"oirs":3372,"plique":3373,"Ġmun":3374,"Ġassoci":3375,"ĠCont":3376,"ĠTV":3377,"Ġgamme":3378,"ĠLivre":3379,"93":3380,"Ġlut":3381,"ohn":3382,"nous":3383,"empl":3384,"ĠTaille":3385,"Ġpsych":3386,"Ġ||":3387,"aming":3388,"amour":3389,"accord":3390,"Ġmusic":3391,"ulation":3392,"eme":3393,"ones":3394,"Ġdurant":3395,"dro":3396,"Ġgauche":3397,"Ġchacun":3398,"Ġfils":3399,"Ġcompar":3400,"anie":3401,"Ġpermis":3402,"Ġmilieu":3403,"ĠJac":3404,"Ġhau":3405,"donn":3406,"Ġappel":3407,"za":3408,"orr":3409,"Ġmoteur":3410,"FF":3411,"94":3412,"ĠSA":3413,"Ġappre":3414,"Ġroul":3415,"issent":3416,"France":3417,"anch":3418,"row":3419,"ii":3420,"Ġlumie":3421,"ĠFre":3422,"Ġdivers":3423,"áĦ":3424,"Ġenfin":3425,"nage":3426,"acr":3427,"Ġvoix":3428,"cialise":3429,"ym":3430,"the":3431,"ormais":3432,"argent":3433,"Ġjouer":3434,"ĠSand":3435,"Ġfene":3436,"ivant":3437,"RES":3438,"habit":3439,"Ġlettre":3440,"Ġcop":3441,"couver":3442,"actions":3443,"ĠComme":3444,"iere":3445,"Ġmauv":3446,"Ġappare":3447,"uxe":3448,"appar":3449,"áħ":3450,"itte":3451,"ium":3452,"cal":3453,"ĠAU":3454,"Ġsoire":3455,"cie":3456,"olie":3457,"SS":3458,"Apre":3459,"sormais":3460,"ĠFace":3461,"Ġ32":3462,"km":3463,"Ġsatis":3464,"evient":3465,"81":3466,"tor":3467,"GE":3468,"Ġâĺ":3469,"devient":3470,"Ġ36":3471,"ffres":3472,"sidence":3473,"ares":3474,"ĠOct":3475,"ibilite":3476,"ondes":3477,"Ġdiver":3478,"aune":3479,"ient":3480,"ĠChine":3481,"ĠBien":3482,"inet":3483,"sibles":3484,"Ġprov":3485,"Ġscol":3486,"irt":3487,"Ġtraite":3488,"ĠPie":3489,"Ġsuivre":3490,"Mon":3491,"ĠTable":3492,"ĠScr":3493,"ĠSim":3494,"Ġconfe":3495,"Ġtel":3496,"trice":3497,"Ġlu":3498,"ico":3499,"Ġnote":3500,"ĠEsp":3501,"dus":3502,"Europe":3503,"92":3504,"azon":3505,"Ġdirige":3506,"ownload":3507,"Ġenreg":3508,"aude":3509,"ĠVal":3510,"arme":3511,"ica":3512,"clar":3513,"icip":3514,"ries":3515,"nom":3516,"ĠMontre":3517,"ian":3518,"gh":3519,"ĠForm":3520,"Ġamour":3521,"cer":3522,"seaux":3523,"ames":3524,"\\\"":3525,"97":3526,"QU":3527,"Ġjeudi":3528,"gement":3529,"ĠWe":3530,"Ġtrain":3531,"lier":3532,"ĠDom":3533,"aign":3534,"tition":3535,"uff":3536,"Ġcro":3537,"tiste":3538,"clair":3539,"senter":3540,"Ġprogre":3541,"Ġcuir":3542,"Ġrester":3543,"ende":3544,"pert":3545,"cret":3546,"Ġcinq":3547,"ĠMac":3548,"seille":3549,"Ġouver":3550,"isez":3551,"sir":3552,"Ġwww":3553,"espe":3554,"ĠAg":3555,"Ġajoute":3556,"ĠLyon":3557,"Ġspor":3558,"Bl":3559,"iki":3560,"install":3561,"ondre":3562,"Ġsex":3563,"ĨĴ":3564,"Ġit":3565,"0000":3566,"Ġvenir":3567,"alogue":3568,"html":3569,"Ġmine":3570,"Ġdroite":3571,"(\"":3572,"ĠDesign":3573,"urn":3574,"cont":3575,"unis":3576,"Pl":3577,"Ġhors":3578,"2020":3579,"usine":3580,"ONT":3581,"nel":3582,"pute":3583,"atrice":3584,"ĠAff":3585,"Ġmagnif":3586,"ky":3587,"ectue":3588,"ĠBal":3589,"ĠDan":3590,"ĠSalle":3591,"Ġabs":3592,"matique":3593,"ĠEst":3594,"Ġmardi":3595,"Ġautor":3596,"andonne":3597,"Ġair":3598,"+[]":3599,"press":3600,"Ġae":3601,"],":3602,"actez":3603,"union":3604,"Ge":3605,"Ġrej":3606,"ker":3607,"ĠNike":3608,"Ġsolu":3609,"Ġremar":3610,"mettant":3611,"even":3612,"ĠChrist":3613,"gime":3614,"toiles":3615,"Ġcelles":3616,"ĠMus":3617,"ley":3618,"Co":3619,"jeun":3620,"Ġcultur":3621,"bert":3622,"alie":3623,"ĠRom":3624,"Ġcoeur":3625,"Ġverre":3626,"uses":3627,"Ġsort":3628,"FR":3629,"als":3630,"Ġcompos":3631,"cheter":3632,"ĠPC":3633,"Ġbud":3634,"ory":3635,"ower":3636,"fl":3637,"Ġbleu":3638,"TER":3639,"61":3640,"ĠII":3641,"appr":3642,"Ġpoe":3643,"dam":3644,"icher":3645,"2011":3646,"tific":3647,"isant":3648,"Ġlequel":3649,"euvre":3650,"mail":3651,"ove":3652,"Ġiniti":3653,"Ġ@":3654,"Ġsenti":3655,"SI":3656,"Avec":3657,"Ġlen":3658,"Ass":3659,"Ġinvite":3660,"Ġappele":3661,"ics":3662,"ĠSuper":3663,"Ġcab":3664,"Ġrapp":3665,"ĠBre":3666,"Ġentie":3667,"sel":3668,"LES":3669,"Ġmobile":3670,"tenu":3671,"ĠLire":3672,"Ġimpre":3673,"91":3674,"encer":3675,"Ġwas":3676,"Ġmoyens":3677,"didas":3678,"ĠðŁ":3679,"Ġexper":3680,"Ġfixe":3681,"ĠCou":3682,"ĠPAR":3683,"agnie":3684,"Ġvari":3685,"iquez":3686,"cles":3687,"Ou":3688,"ĠVol":3689,"ordre":3690,"Ġtotal":3691,"ĠGrat":3692,"Ġcur":3693,"armac":3694,"assage":3695,"Ġsuivi":3696,"fense":3697,"ior":3698,"Ġcoupe":3699,"Ġrelig":3700,"ĠJan":3701,"Ġlangue":3702,"Ġsoul":3703,"ĠDel":3704,"fi":3705,"Ġlist":3706,"airie":3707,"Ġnew":3708,"Ġvarie":3709,"ateau":3710,"ricain":3711,"Ġpleine":3712,"Ġfaites":3713,"ĠBo":3714,"Ġfore":3715,"ompe":3716,"ouer":3717,"magne":3718,"Ġchev":3719,"ercial":3720,"clare":3721,"mente":3722,"ĠComp":3723,"Ġvit":3724,"ener":3725,"gulie":3726,"Ġdonn":3727,"ĠMax":3728,"Ġvin":3729,"Etat":3730,"ĠJul":3731,"!!!!":3732,"vol":3733,"Ġstand":3734,"arrive":3735,"ry":3736,"Ġly":3737,"Ġguide":3738,"Ġregr":3739,"IV":3740,"Ġgraph":3741,"Ġweek":3742,"Ġare":3743,"quet":3744,"ĠMA":3745,"Ġ33":3746,"dio":3747,"ĠSite":3748,"tences":3749,"ters":3750,"Ġpriv":3751,"vices":3752,"Ġcha":3753,"gis":3754,"fer":3755,"alse":3756,"ĠMichel":3757,"CO":3758,"Ġaccess":3759,"ĠST":3760,"Ġ2005":3761,"ĠConc":3762,"imm":3763,"Ġformat":3764,"ĠId":3765,"Prix":3766,"Ġ38":3767,"inon":3768,"Ġ2000":3769,"ĠAN":3770,"Bonjour":3771,"off":3772,">|":3773,"ĠCha":3774,"oton":3775,"otos":3776,"Ġdirect":3777,"cup":3778,"Ġfour":3779,"ĠÎĶ":3780,"Ġchoc":3781,"EUR":3782,"Ġvar":3783,"oud":3784,"Ġrecr":3785,"Ġsan":3786,"puis":3787,"ĠSport":3788,"Ġchance":3789,"ustr":3790,"Ġrele":3791,"Ġsoient":3792,"ĠOb":3793,"lie":3794,"illi":3795,"Ġtoit":3796,"Ġoubl":3797,"Ġwh":3798,"accueil":3799,"Ġsang":3800,"Ġquelle":3801,"Ġq":3802,"Ġnavig":3803,"Ġvend":3804,"Id":3805,"deven":3806,"orld":3807,"AF":3808,"Ġsait":3809,"003":3810,"ĠMas":3811,">âĢĵ":3812,"Ġnett":3813,"mettent":3814,"ĠPorte":3815,"pond":3816,"ĠMor":3817,"cule":3818,"veille":3819,"ĠÎĶE":3820,"Ġrose":3821,"evez":3822,"titude":3823,"ĠPal":3824,"aitez":3825,"UM":3826,"devez":3827,"Ġpapier":3828,"ial":3829,"UL":3830,"eth":3831,"Ġheur":3832,"Ġcu":3833,"ĠNon":3834,"Ġcalme":3835,"Ġdevez":3836,"roid":3837,"\"-":3838,"Du":3839,"abble":3840,"Ġlibe":3841,"espace":3842,"yd":3843,"heure":3844,"mettre":3845,"ĠChamp":3846,"Ġnord":3847,"ordeaux":3848,"Ġrendez":3849,"evenir":3850,"bo":3851,"Am":3852,"bon":3853,"Ġroman":3854,"Ġachat":3855,"rant":3856,"Ġmanger":3857,"axe":3858,"ĠSpe":3859,"ĠGl":3860,"devenir":3861,"Ġrenfor":3862,"irm":3863,"cience":3864,"inge":3865,"nie":3866,"otidien":3867,"Ġtypes":3868,"bar":3869,"ĠVis":3870,"2010":3871,"Ġespace":3872,"ĠAlors":3873,"ĠGoogle":3874,"cherche":3875,"ĠNoe":3876,"Ġtrouv":3877,"univers":3878,"iger":3879,"Ġauto":3880,"ĠRec":3881,"Ġvert":3882,"pital":3883,"timent":3884,"istant":3885,"Ġine":3886,"Ġlieux":3887,"ĠSocie":3888,"sume":3889,"uste":3890,"hicule":3891,"avec":3892,"Ġboi":3893,"Sh":3894,"Ġfrance":3895,"dyn":3896,"px":3897,"Ġdispar":3898,"duits":3899,"texte":3900,"ĠBi":3901,"ILLE":3902,"Ġdiv":3903,"Ġbook":3904,"ĠSol":3905,"Ġstat":3906,"Ġfoot":3907,"Ġdeven":3908,"ĠRose":3909,"Ġoutils":3910,"avid":3911,"Ġapplic":3912,"Ġveux":3913,"Ġlorsqu":3914,"liorer":3915,"TC":3916,"ĠFab":3917,"ĠCuir":3918,"Ġ34":3919,"roport":3920,"Ġcafe":3921,"cellent":3922,"Ġdiffic":3923,"Ġenvie":3924,"flex":3925,"tempor":3926,"Ġ300":3927,"Ġtouche":3928,"omp":3929,"Ġchemin":3930,"ANT":3931,"ated":3932,"ouleur":3933,"uisse":3934,"ĠWh":3935,"ura":3936,"omo":3937,"ĠAvr":3938,"sses":3939,"ba":3940,"ĠPaul":3941,"Th":3942,"time":3943,"aurants":3944,"Ġvic":3945,"ilan":3946,"ĠInter":3947,"gy":3948,"ĠPers":3949,"Ġ48":3950,"ĠSans":3951,"Ġincl":3952,"ks":3953,"ĠTerr":3954,"andr":3955,"ssemble":3956,"ariat":3957,"TM":3958,"emment":3959,"seigne":3960,"idite":3961,"lais":3962,"vement":3963,"oulez":3964,"chite":3965,"duite":3966,"Ġadul":3967,"Ġcapit":3968,"Ġvilles":3969,"Ġsoins":3970,"ssure":3971,"fini":3972,"chau":3973,"Be":3974,"ms":3975,"Ġlab":3976,"ÌĥÂ©":3977,"ourt":3978,"iant":3979,"unite":3980,"...)":3981,"Cre":3982,"Ġrob":3983,"cteurs":3984,"igner":3985,"urez":3986,"Â»,":3987,"ĠRue":3988,"tise":3989,"und":3990,"Ġriche":3991,"Col":3992,"ctures":3993,"jeuner":3994,";<":3995,"Ġconnu":3996,"ING":3997,"Ġheure":3998,"Ġcent":3999,"Ġgre":4000,"ifest":4001,"Ġrepas":4002,"ĠMic":4003,"ĠLES":4004,"Ġaltern":4005,"Ġbre":4006,"avis":4007,"Ġsc":4008,"AGE":4009,"Ġprob":4010,"ĠPRO":4011,"ibue":4012,"ologue":4013,"voque":4014,"Ġlocal":4015,"ĠPays":4016,"truire":4017,"At":4018,"ernie":4019,"osi":4020,"gories":4021,"mment":4022,"icien":4023,"ĠAR":4024,"EU":4025,"Ġsix":4026,"Ġagric":4027,"terre":4028,"ĠJuin":4029,"Ġbons":4030,"ĠAme":4031,"keting":4032,"Ġemploi":4033,"Ġcourse":4034,"Ġsorte":4035,"ĠLors":4036,"Ġpuiss":4037,"ocal":4038,"urant":4039,"Ġru":4040,"Ġbour":4041,"euille":4042,"Ġamb":4043,"Ġdyn":4044,"olf":4045,"unction":4046,"ĠTop":4047,"Mess":4048,"Ġgagner":4049,"Article":4050,"ĠHaute":4051,"arde":4052,"Ġtiss":4053,"ols":4054,"ty":4055,"Ġdec":4056,"OG":4057,"ĠMAR":4058,"abil":4059,"ologies":4060,"acre":4061,"naire":4062,"Ġsold":4063,"dustrie":4064,"ĠâĨĴ":4065,"fric":4066,"Ġengage":4067,"Ġ44":4068,"Ġpourra":4069,"ĠAnd":4070,"ĠDec":4071,"pannage":4072,"ala":4073,"veur":4074,"Ġmalgre":4075,"ÑĤ":4076,"Ġra":4077,"tite":4078,"He":4079,"tence":4080,"Ġperman":4081,"Ġsimil":4082,"cons":4083,"Ġment":4084,"ĠJohn":4085,"associ":4086,"chant":4087,"Ġdevis":4088,"Ġtels":4089,"uler":4090,"Ġcouple":4091,"ĠAinsi":4092,"gies":4093,"Ġesc":4094,"vu":4095,"ush":4096,"Ġnour":4097,"uest":4098,"atures":4099,"issez":4100,"Ġdouce":4101,"Ġpal":4102,"eubles":4103,"quili":4104,"Em":4105,"Ġattend":4106,"2009":4107,"quence":4108,"sseur":4109,"ĠLouis":4110,"lon":4111,"uels":4112,"pren":4113,"resse":4114,"ĠHer":4115,"lange":4116,"uts":4117,"ck":4118,"user":4119,"ĠÌ":4120,"Ġplage":4121,"ĠInst":4122,"pens":4123,"ĠToul":4124,"usse":4125,"Ġchat":4126,"ola":4127,"Ġfilms":4128,"Ġaction":4129,"UB":4130,"ĠCOM":4131,"ĠVie":4132,"Ġlitte":4133,"CT":4134,"OB":4135,"Ġalbum":4136,"dique":4137,"ĠClub":4138,"cent":4139,"Ġ37":4140,"tudio":4141,"ĠRem":4142,"Ġ42":4143,"Ġfamili":4144,"aug":4145,"Ġami":4146,"Ġportes":4147,"ĠNov":4148,"dias":4149,"ĠPubl":4150,"offre":4151,"Ġiss":4152,"ĠRobe":4153,"ponses":4154,"ĠRouge":4155,"ĠÂ°":4156,"Ġda":4157,"Ġbonnes":4158,"data":4159,"ĠPeu":4160,"Ġ150":4161,"danger":4162,"tiles":4163,"Ġgo":4164,"deb":4165,"Ġmu":4166,"Ġchai":4167,"==":4168,"ĠLib":4169,"ĠGrande":4170,"Ġray":4171,"ping":4172,"icolas":4173,"veill":4174,"trage":4175,"ciper":4176,"Ġcrise":4177,"Ġlim":4178,"Ġacces":4179,"Ġkil":4180,"ĠAM":4181,"Â®":4182,"ami":4183,"moins":4184,"ogne":4185,"Ġ43":4186,"trange":4187,"urgence":4188,"ĠQuel":4189,"tais":4190,"Ġhas":4191,"rice":4192,"cipal":4193,"hy":4194,"ARD":4195,"mocr":4196,"onnage":4197,"ÙĦ":4198,"dress":4199,"ĠVotre":4200,"olume":4201,"Tre":4202,"ĠLu":4203,"ĠTechn":4204,"Ġcourt":4205,"Ġconce":4206,"ĠTu":4207,"Ġoffic":4208,"Ġdanger":4209,"ench":4210,"Ġconsul":4211,"tionne":4212,"EM":4213,"iciels":4214,"SA":4215,"ĠPlan":4216,"Ġillus":4217,"uration":4218,"quipes":4219,"talie":4220,"pin":4221,"Ġclair":4222,"Ser":4223,"Ġglob":4224,"avait":4225,"sif":4226,"Ġcartes":4227,"Ġconcur":4228,"ĠGris":4229,"oz":4230,"Ġpeine":4231,"illiers":4232,"marche":4233,"Ġ2004":4234,"ams":4235,"ĠNos":4236,"ĠLigne":4237,"aites":4238,"ĠPatr":4239,"ento":4240,"INT":4241,"Ġvict":4242,"Ġbroy":4243,"anim":4244,"Ġentrai":4245,"lige":4246,"Ġsatisf":4247,"play":4248,"vage":4249,"tation":4250,"ĠEtats":4251,"php":4252,"Ġcombat":4253,"Ġmonte":4254,"astr":4255,"Ġvoulez":4256,"Ġbio":4257,"ĠFer":4258,"oyez":4259,"count":4260,"ĠCet":4261,"Ġplat":4262,"hor":4263,"nelle":4264,"agon":4265,"Ġdan":4266,"ormes":4267,"stu":4268,"Ġelectr":4269,"Ġtourne":4270,"Ġavance":4271,"adresse":4272,"onsieur":4273,"ild":4274,"isateur":4275,"imoine":4276,"ather":4277,"cy":4278,"tellig":4279,"vit":4280,"ĠTw":4281,"ĠSan":4282,"Ġcarrie":4283,"oom":4284,"ĠMod":4285,"less":4286,"Ve":4287,"Ġ55":4288,"Ġlesque":4289,"Ġ//":4290,"ĠOff":4291,"Ġobjets":4292,"Ġsep":4293,"ĠCommun":4294,"ical":4295,"va":4296,"ya":4297,"ario":4298,"ĠMad":4299,"chage":4300,"olet":4301,"stiques":4302,"cte":4303,"Ġextre":4304,"mps":4305,"Ġthat":4306,"Elle":4307,"ouverez":4308,"Ġmains":4309,"ost":4310,"ĠJardin":4311,"Ġmi":4312,"hr":4313,"ĠHommes":4314,"Est":4315,"Ġcitoy":4316,"Ġsuffit":4317,"ĠStre":4318,"Tout":4319,"Ġtoile":4320,"^^":4321,"unn":4322,"Ġfaible":4323,"Ġpeur":4324,"ju":4325,"ha":4326,"objet":4327,"tuer":4328,"aleurs":4329,"Ð½":4330,"vue":4331,"dessous":4332,"Ġsortir":4333,"Ġpieds":4334,"istique":4335,"tienne":4336,"ÑĢ":4337,"ĠCD":4338,"ignon":4339,"Ġdix":4340,"Ġfonds":4341,"ecteur":4342,"IP":4343,"Ġ--":4344,"Entre":4345,"dessus":4346,"ophie":4347,"bas":4348,"umer":4349,"IA":4350,"Ġprim":4351,"Ġchans":4352,"ores":4353,"Ġadop":4354,"....<":4355,"ft":4356,"Ġeaux":4357,"asser":4358,"amen":4359,"orth":4360,"inique":4361,"antite":4362,"Ġvoie":4363,"lande":4364,"jectif":4365,"volu":4366,"ĠGra":4367,"Ġjuridi":4368,"ouille":4369,"Que":4370,"Ġ[...]<":4371,"ĠEnf":4372,"lam":4373,"roule":4374,"telier":4375,"olation":4376,"ourd":4377,"Ġphil":4378,"ģ:":4379,"esprit":4380,"Ìģ:":4381,"Jean":4382,"HE":4383,"ĠMain":4384,"ĠMuse":4385,"intemps":4386,"Ag":4387,"decin":4388,"exte":4389,"identi":4390,"Ġmy":4391,"iente":4392,"Is":4393,"Ġital":4394,"ĠMen":4395,"inn":4396,"CA":4397,"Ġdessus":4398,"2008":4399,"desc":4400,"ĠMes":4401,"ĠPetit":4402,"onomie":4403,"adap":4404,"~~":4405,"Nouve":4406,"rs":4407,"Ġmir":4408,"Ġexclus":4409,"aa":4410,"ires":4411,"Ġcoord":4412,"ific":4413,"endu":4414,"sil":4415,"Ġdimen":4416,"ĠÂ©":4417,"Ġmuse":4418,"Ġpolice":4419,"FA":4420,"Ñģ":4421,"alerie":4422,"%<":4423,"import":4424,"chives":4425,"ĠPS":4426,"Ġfisc":4427,"ru":4428,"ĠSn":4429,"ĠRest":4430,"ĠMartin":4431,"ussie":4432,"Phone":4433,"chet":4434,"ĠAlex":4435,"Ġtombe":4436,"itch":4437,"\".<":4438,"Ġmob":4439,"Ġurb":4440,"ĠAou":4441,"coles":4442,"ĠAL":4443,"coute":4444,"Ġjuge":4445,"dical":4446,"tifie":4447,"ĠCer":4448,"Ġfilles":4449,"ĠBern":4450,"Ġparfai":4451,"ivie":4452,"Ġbanc":4453,"Ġbelles":4454,"arg":4455,"anches":4456,"Univers":4457,"anes":4458,"Ġperte":4459,"Ġdemi":4460,"Ġgris":4461,"ĠHD":4462,"Ġsucre":4463,"doll":4464,"ĠSalon":4465,"Ġlocaux":4466,"Ġpros":4467,"ĠGal":4468,"Ġindis":4469,"Ġcuis":4470,"allon":4471,"Ġpois":4472,"Alle":4473,"ĠCO":4474,"Ġbande":4475,"Ġchap":4476,"isent":4477,"Ġchr":4478,"Ġ[...]":4479,"ĠYork":4480,"Ġlic":4481,"Ġif":4482,"ĠSk":4483,"Ġbeaute":4484,"Ne":4485,"ator":4486,"Bien":4487,"Ġmini":4488,"Ġtrou":4489,"ĠQuand":4490,"ternes":4491,"Ġpau":4492,"cit":4493,"ating":4494,"rateur":4495,"aman":4496,"athe":4497,"Ġeffets":4498,"stru":4499,"Ġgrosse":4500,"},":4501,"Ġporter":4502,"Ġvou":4503,"Ġinten":4504,"chelle":4505,"berg":4506,"oly":4507,"atte":4508,"Ġinstru":4509,"Ġmodele":4510,"cessite":4511,"lip":4512,"stes":4513,"ĠCamp":4514,"Comme":4515,"oisirs":4516,"Ġcarre":4517,"lai":4518,"Ġwe":4519,"vres":4520,"fle":4521,"enfant":4522,"impre":4523,"ĠTra":4524,"Ġcite":4525,"Ġremise":4526,"rae":4527,"CC":4528,"Ġhab":4529,"Ġmicro":4530,"Ġvoila":4531,"usiness":4532,"ĠYou":4533,"aus":4534,"Ġrobe":4535,"illy":4536,"diate":4537,"ouvre":4538,"ĠBy":4539,"hicules":4540,"Ġdoll":4541,"ĠTrav":4542,"Ġdel":4543,"Ġcoin":4544,"orts":4545,"Ġnais":4546,"Ġarme":4547,"ĠAppar":4548,"images":4549,"Ġvote":4550,"Ġsept":4551,"Ġmarch":4552,"Ġrepro":4553,"ĠDoc":4554,"andis":4555,"Ġperdre":4556,"AND":4557,"Ġfall":4558,"Ġ)<":4559,"ĠEr":4560,"appel":4561,"importe":4562,"Ġimpos":4563,"ĠPL":4564,"ercice":4565,"Ġpeuple":4566,"euros":4567,"Ġoptim":4568,"etour":4569,"Ġnomme":4570,"ĠCON":4571,"ILL":4572,"ssage":4573,"igr":4574,"AY":4575,"ĠVide":4576,"sitez":4577,"VD":4578,"lines":4579,"ĠOf":4580,"âĢĿ<":4581,"IX":4582,"ĠCoupe":4583,"ĠForum":4584,"Im":4585,"agnos":4586,"CHE":4587,"Ġvolet":4588,"url":4589,"Ġfant":4590,"tian":4591,"env":4592,"Dep":4593,"ĠSujet":4594,"inois":4595,"menter":4596,"Ġhui":4597,"apis":4598,"ographe":4599,"Ġchien":4600,"Ġquelqu":4601,"annes":4602,"ctor":4603,"Ġancien":4604,"ĠFond":4605,"orie":4606,"cesse":4607,"onnages":4608,"Ġpoly":4609,"etagne":4610,"bit":4611,"ĠMeuble":4612,"ĠGeor":4613,"ĠArt":4614,"ĠCle":4615,"Ġyour":4616,"ĠDavid":4617,"ĠInform":4618,"Ġbudget":4619,"ĠSuisse":4620,"ĠMonde":4621,"oiff":4622,"Oui":4623,"rou":4624,"SP":4625,"top":4626,"Ġconver":4627,"ĠTur":4628,"Notre":4629,"Ġfabric":4630,"Ġcommis":4631,"Ġdemand":4632,"ĠMet":4633,"Ġvent":4634,"inves":4635,"drait":4636,"Ġpi":4637,"sus":4638,"ĠAvis":4639,"Ġpoursu":4640,"cat":4641,"amps":4642,">*":4643,"Ġbains":4644,"trop":4645,"Ġventes":4646,"ends":4647,"TA":4648,"cipale":4649,"Ġposer":4650,"rir":4651,"Ġboule":4652,"ĠMy":4653,"gisl":4654,"ataire":4655,"taille":4656,"Ġ46":4657,"deme":4658,"ĠPhoto":4659,"ĠÌģ":4660,"Ġmotiv":4661,"Ġbiento":4662,"ĠAll":4663,"andre":4664,"ĠGR":4665,"Ġoutre":4666,"yre":4667,"ismes":4668,"ĠMeille":4669,"ĠSainte":4670,"sons":4671,"box":4672,"na":4673,"dela":4674,"Ġ49":4675,"tire":4676,"ĠSante":4677,"joux":4678,"Ġroy":4679,"300":4680,"Ġfaite":4681,"roche":4682,"Ġmg":4683,"onnelle":4684,"Ġcanal":4685,"Ġfou":4686,"Esp":4687,"Message":4688,"ÌĮ":4689,"Mo":4690,"PL":4691,"OD":4692,"Ġderrie":4693,"ĠTo":4694,"ora":4695,"Pas":4696,"null":4697,"Pierre":4698,"ĠEur":4699,"cellen":4700,"Ġdeme":4701,"Date":4702,"imp":4703,"dule":4704,"ĠJeux":4705,"try":4706,"lant":4707,"uations":4708,"Ġplaces":4709,"Union":4710,"alons":4711,"Ġfaute":4712,"signe":4713,"Ġpri":4714,"Ġtherm":4715,"ĠQui":4716,"Ġcircul":4717,"Ġbibli":4718,"uites":4719,"Ġtit":4720,"ĠChris":4721,"Ġ120":4722,"Ġste":4723,"ĠJose":4724,"Ġpayer":4725,"huile":4726,"Ġ65":4727,"Ġ2003":4728,"agog":4729,"ĠPant":4730,"olat":4731,"erse":4732,"ĠAnne":4733,"AV":4734,"Ġtente":4735,"ĠDen":4736,"ĠChem":4737,"ĠBan":4738,"Ġ41":4739,"stin":4740,"ivier":4741,"indi":4742,"ĠDepuis":4743,"Ġtrib":4744,"ĠDem":4745,"Ġâľ":4746,"Ġvoici":4747,"riaux":4748,"log":4749,"Ġtermes":4750,"cident":4751,"Ġrange":4752,"Ġdouche":4753,"Ġchaude":4754,"Ġutile":4755,"spire":4756,"Ġel":4757,"agra":4758,"ĠCE":4759,"sol":4760,"erts":4761,"ĠFilm":4762,"Ġfruits":4763,"ĠGi":4764,"Ġpenser":4765,"ael":4766,"dois":4767,"Ġ400":4768,"ita":4769,"Ġvisage":4770,"oque":4771,"Ġfinale":4772,"Ġzones":4773,"Type":4774,"TT":4775,"Ġ!!":4776,"Ġcache":4777,"Ġmises":4778,"ald":4779,"ĠLet":4780,"ĠME":4781,"assin":4782,"oser":4783,"Ġfera":4784,"Notes":4785,"Ġdesc":4786,"ĠEss":4787,"ĠSou":4788,"gi":4789,"mais":4790,"raire":4791,"Ġtarifs":4792,"ĠEd":4793,"aliste":4794,"rieux":4795,"onnaie":4796,"avez":4797,"Che":4798,"].":4799,"Ġchoisi":4800,"nthe":4801,"Ġpassi":4802,"armacie":4803,"Ġnouvel":4804,"aper":4805,"Ġclaire":4806,"ney":4807,"ĠDeux":4808,"Lors":4809,"omas":4810,"omn":4811,"ĠOl":4812,"tend":4813,"eh":4814,"Ġliens":4815,"ĠClassi":4816,"ondres":4817,"ricaine":4818,"Ġlait":4819,"ĠRel":4820,"ĠAli":4821,"ĠHen":4822,"itt":4823,"ssions":4824,"PR":4825,"ĠHy":4826,"atoires":4827,"Ġallez":4828,"miner":4829,"Ġlutte":4830,"Ġdeb":4831,"onneur":4832,"back":4833,"attr":4834,"acts":4835,"Franc":4836,"OUS":4837,"Ġchron":4838,"ĠCep":4839,"Ġverr":4840,"):":4841,"intage":4842,"Ġpert":4843,"tible":4844,"times":4845,"rifier":4846,"info":4847,"Ġmobil":4848,"Ces":4849,"omes":4850,"ingt":4851,"Ġart":4852,"Tous":4853,"Ġsoin":4854,"exploit":4855,"duct":4856,"uxelles":4857,"Ġentier":4858,"Ġfosse":4859,"mas":4860,"Ġbouche":4861,"droid":4862,"Ġimag":4863,"dits":4864,"hiver":4865,"itez":4866,"();":4867,"ĠCL":4868,"2007":4869,"stitut":4870,"amine":4871,"sentant":4872,"ails":4873,"tection":4874,"avier":4875,"Ġimpl":4876,"ĠOp":4877,"set":4878,"ĠDro":4879,"Lire":4880,"Alors":4881,"ĠVoici":4882,"Ab":4883,">âĨ":4884,"div":4885,"Ġestime":4886,"ĠSc":4887,"ĠJapon":4888,"Ġgarder":4889,"dy":4890,"rable":4891,"Ob":4892,"Ġfonde":4893,"Ġ64":4894,"Ġtent":4895,"Ġpens":4896,"autes":4897,"ani":4898,"tifique":4899,"Aff":4900,"ouche":4901,"Ġbaisse":4902,"\").":4903,"').":4904,"Ġhar":4905,"ĠAdidas":4906,"Ġfree":4907,"ortable":4908,"Ġroule":4909,"erry":4910,"Ġformes":4911,"Ġsymb":4912,"Ġ^^":4913,"ĠHar":4914,"Ġprofil":4915,"gin":4916,"mir":4917,"index":4918,"ĠLuc":4919,"tisme":4920,"ayant":4921,".)":4922,"lets":4923,"andic":4924,"emples":4925,"ĠAv":4926,"Ġservir":4927,"Ġlignes":4928,"uaire":4929,"taires":4930,"oris":4931,"Ġfleurs":4932,"Di":4933,"Ġerr":4934,"olique":4935,"ĠPuis":4936,"ÙĬ":4937,"cipaux":4938,"Ġnet":4939,"rales":4940,"Ġlac":4941,"ĠSy":4942,"ĠAchat":4943,"Quel":4944,"ĠMur":4945,"ĠProv":4946,"ĠElles":4947,"inium":4948,"illir":4949,"]+":4950,"Ġarrie":4951,"Depuis":4952,"hi":4953,"Ġ....":4954,"visor":4955,"URE":4956,"Ġ59":4957,"Ġjoueur":4958,"gions":4959,"Ġmand":4960,"ĠEsc":4961,"/<":4962,"quences":4963,"crits":4964,"MS":4965,"ji":4966,"Ġfinal":4967,"ficier":4968,"Ġrentre":4969,"trine":4970,"PA":4971,"Ġconj":4972,"azine":4973,"ĠSor":4974,"Ġsaint":4975,"page":4976,"atin":4977,"ãĤ":4978,"Ġ47":4979,"ĠGir":4980,"ĠUN":4981,"inde":4982,"Ġperdu":4983,"Ġdimin":4984,"Fi":4985,"onter":4986,"Ġrav":4987,"ext":4988,"ize":4989,"Descri":4990,"ERS":4991,"ban":4992,"anda":4993,"ĠToutes":4994,"Ġanaly":4995,"Ġ2002":4996,"Ġhydr":4997,"ĠInf":4998,"Ġfabr":4999,"ĠSil":5000,"ĠGroupe":5001,"ĠBlog":5002,"Ġplane":5003,"lis":5004,"tension":5005,"ĠLab":5006,"aval":5007,"ĠRobert":5008,"ĠIde":5009,"Ġquant":5010,"ko":5011,"tiens":5012,"Dis":5013,"Ġsug":5014,"Ġstage":5015,"gen":5016,"lor":5017,"Ġkg":5018,"luence":5019,"ĠOui":5020,"Ġroi":5021,"Ġsent":5022,"Ġliqu":5023,"ĠToute":5024,"Ġauth":5025,"ourner":5026,"ĠMaroc":5027,"uble":5028,"Ġtele":5029,"ĠSw":5030,"lesse":5031,"analyse":5032,"isseurs":5033,"itann":5034,".-":5035,"ĠAndre":5036,"ĠInd":5037,"isseur":5038,"ling":5039,"ĠSyste":5040,"Ġmens":5041,"sive":5042,"Ġbus":5043,"onie":5044,"500":5045,"Ġdie":5046,"Ġcook":5047,"Liens":5048,"colog":5049,"chan":5050,"ake":5051,"her":5052,"Ġbasse":5053,"ali":5054,"ĠLum":5055,"ĠFR":5056,"ĠProfe":5057,"ĠMaur":5058,"Ġvise":5059,"Ġcrite":5060,"Ġ250":5061,"Ġgrave":5062,"moign":5063,"Ġul":5064,"ORT":5065,"ĠFlor":5066,"marr":5067,"rige":5068,"ĠSign":5069,"Ġbanque":5070,"Ġuse":5071,"Ġinnov":5072,"ĠBain":5073,"Ġryth":5074,"IF":5075,"ĠMc":5076,"illets":5077,"ombier":5078,"ĠLo":5079,">âĢľ":5080,"Ġ..":5081,"ĠMay":5082,"dier":5083,"Ġrendu":5084,"Ġred":5085,"dagog":5086,"Ġviv":5087,"Ġplans":5088,"gues":5089,"angers":5090,"||":5091,"aissent":5092,"ĠAmazon":5093,"avance":5094,"tall":5095,"Ġble":5096,"ĠLivr":5097,"ody":5098,"omber":5099,"tranger":5100,"riques":5101,"uminium":5102,"aro":5103,"Ġsolid":5104,"ding":5105,"alien":5106,"Ġoffrir":5107,"Ġcirc":5108,"pie":5109,"room":5110,"chent":5111,"Ġfutur":5112,"âĤ¬<":5113,"ĠMarc":5114,"ichel":5115,"diteur":5116,"lit":5117,"Ġlyce":5118,"Ġonline":5119,"nalite":5120,"igny":5121,"ĠLog":5122,"bourse":5123,"ĠCab":5124,"Ġmac":5125,"davant":5126,"enture":5127,"Ġargent":5128,"Ġtelles":5129,"Ġchan":5130,"ionnat":5131,"ĠGen":5132,"tirer":5133,"Ġ-<":5134,"trise":5135,"Ġgarc":5136,"ĠAnti":5137,"Ġbras":5138,"Ġait":5139,"cho":5140,"Ġsecre":5141,"rosoft":5142,"ressant":5143,"Ame":5144,"Bas":5145,"chets":5146,"ĠBottes":5147,"Ġsmart":5148,"Ġchante":5149,"meture":5150,"ĠStar":5151,"Ġdavant":5152,"ĠMars":5153,"ĠHaut":5154,"Ġtandis":5155,"ISE":5156,"áĨ":5157,"uk":5158,"ĠSelon":5159,"ĠType":5160,"Ġbo":5161,"ĠSup":5162,"my":5163,"pell":5164,"Ġluxe":5165,"ussion":5166,"&#":5167,"tenance":5168,"ãģ":5169,"cier":5170,"rieurs":5171,"Ġsauve":5172,"Voici":5173,"chon":5174,"ĠMari":5175,"prim":5176,"Tu":5177,"Ġrecru":5178,"Ġaspe":5179,"BN":5180,"contr":5181,"merce":5182,"Ġenque":5183,"Ġpuisse":5184,"Ġmix":5185,"ĠBat":5186,"positif":5187,"Ġradio":5188,"Ġenj":5189,"euil":5190,"false":5191,"Ġtab":5192,"ware":5193,"Ġforces":5194,"sole":5195,"ouvrir":5196,"aliment":5197,"stre":5198,"Ġ95":5199,"Ġfaits":5200,"oncer":5201,"Ġenvoye":5202,"\":{\"":5203,"ĠSU":5204,"Ġpaix":5205,"sor":5206,"Ġmene":5207,"Ġvoire":5208,"Ġbloc":5209,"Ġ~":5210,"Ġphilos":5211,"Ġfide":5212,"EST":5213,"agnes":5214,"onyme":5215,"ally":5216,"ĠKar":5217,"Ġdiplo":5218,"Ġvaut":5219,"tiss":5220,"Ġconnex":5221,"name":5222,"ĠLam":5223,"anmoins":5224,"...)<":5225,"ĠAnge":5226,"Ġdanse":5227,"Ġ54":5228,"Ġ77":5229,"Ġvision":5230,"Comm":5231,"ĠCert":5232,"ĠPla":5233,"Ġexist":5234,"ogramme":5235,"ĠLang":5236,"zer":5237,"elage":5238,"Ġkilome":5239,"dium":5240,"ham":5241,"value":5242,"gant":5243,"pris":5244,"Ġfiche":5245,"Ġexe":5246,"CL":5247,"uelles":5248,"Ġfleur":5249,"ĠTerre":5250,"Ġbac":5251,"alendr":5252,"criture":5253,"sidenti":5254,"truit":5255,"Ġsujets":5256,"tures":5257,"faut":5258,"illers":5259,"annonce":5260,"ĠIS":5261,"prix":5262,"Code":5263,"inaires":5264,"ĠDie":5265,"Ġ56":5266,"Inter":5267,"IQUE":5268,"ifi":5269,"Ġabr":5270,"asc":5271,"Ġdon":5272,"ĠSUR":5273,"Paris":5274,"ancien":5275,"ife":5276,"chir":5277,"agers":5278,"Ġ2001":5279,"Gu":5280,"For":5281,"Ġjapon":5282,"auts":5283,"Ġvan":5284,"Ġbiens":5285,"Ġcalcul":5286,"Ġcame":5287,"Ġtran":5288,"ret":5289,"Ġer":5290,"Ġgagne":5291,"Ġher":5292,"Avis":5293,"2006":5294,"Advisor":5295,"ĠTrip":5296,"pit":5297,"Ġcarb":5298,"Ġindic":5299,"Ġpreuve":5300,"ĠHome":5301,"enant":5302,"Ġciel":5303,"Ġtextes":5304,"Ġchim":5305,"mor":5306,"Maison":5307,"Ġsimpl":5308,"entres":5309,"EC":5310,"ĠMme":5311,"ĠMess":5312,"azz":5313,"Ġmail":5314,"way":5315,"ĠJack":5316,"ao":5317,"nerge":5318,"ĠPor":5319,"ews":5320,"Ð¾Ð":5321,"400":5322,"Ġfini":5323,"Ġtenu":5324,"Ġ57":5325,"Ġcompl":5326,"ĠCarr":5327,"ĠVeste":5328,"Ġpron":5329,"vet":5330,"Ġmarie":5331,"Afrique":5332,"avo":5333,"Form":5334,"</":5335,"adr":5336,"Ġinscri":5337,"Ġvolume":5338,"fond":5339,"Cons":5340,"()":5341,"ĠPOUR":5342,"ĠSau":5343,"tine":5344,"Ġ600":5345,"img":5346,"igu":5347,"appro":5348,"ĠCity":5349,"Ġabsolu":5350,"Ġsil":5351,"decine":5352,"cifique":5353,"norme":5354,"Ġphase":5355,"Ġsauf":5356,"oub":5357,"Ġoeuvre":5358,"sa":5359,"Ġprofit":5360,"igueur":5361,">+":5362,"Ġcote":5363,"ily":5364,"fre":5365,"day":5366,"ĠiPhone":5367,"ĠCi":5368,"ĠMis":5369,"unal":5370,"monie":5371,"Aut":5372,"Ġconven":5373,"Ġvieux":5374,"Ġnuits":5375,"nome":5376,"Ġ85":5377,"uche":5378,"Ġ1000":5379,"ĠVict":5380,"ĠJus":5381,"din":5382,"adore":5383,"thodes":5384,"Ġactive":5385,"acheter":5386,"Ġbeaux":5387,"Ġviens":5388,"Votre":5389,"Mode":5390,"Ġpanne":5391,"ĠGuide":5392,"ĠDon":5393,"ject":5394,"Ġ69":5395,"Ġconfig":5396,"sis":5397,"criv":5398,"ĠBelle":5399,"type":5400,"prun":5401,"ng":5402,"ficie":5403,"amer":5404,"tuel":5405,"Can":5406,"Ġachete":5407,"Ġ52":5408,"dents":5409,"AA":5410,"ield":5411,"Ġjaune":5412,"Ġpanier":5413,"pa":5414,"oints":5415,"Ġcompre":5416,"Ġtenue":5417,"ĠâĢĺ":5418,"Ġboul":5419,"peler":5420,"raux":5421,"Ġnoter":5422,"Ġsuspen":5423,"moi":5424,"Ġgue":5425,"ivi":5426,"ĠSeine":5427,"ĠBrun":5428,"put":5429,"MP":5430,"ĠBook":5431,"station":5432,"osite":5433,"Ġfroid":5434,"quin":5435,"Ġsouffr":5436,"ĠRed":5437,"Ġinfe":5438,"ĠPan":5439,"Ġcanadi":5440,"Ġsuffis":5441,"Ġpur":5442,"ontie":5443,"vin":5444,"diter":5445,"ommage":5446,"Ġrasse":5447,"Ġdevenu":5448,"uma":5449,"aques":5450,"Ġbarre":5451,"Ġradi":5452,"Ġga":5453,">...":5454,"siers":5455,"Ġmassi":5456,"Ġ::":5457,"vise":5458,"tron":5459,"inscri":5460,"Ġcoope":5461,"DA":5462,"dd":5463,"avenir":5464,"ago":5465,"ingue":5466,"osc":5467,"ĠVan":5468,"ida":5469,"assurer":5470,"oulin":5471,"ĠMou":5472,"cemment":5473,"key":5474,"ĠVers":5475,"rim":5476,"ĠMi":5477,"Ġdois":5478,"iction":5479,"illant":5480,"Ġhandic":5481,"Ġvas":5482,"Ġflu":5483,"Ġmoitie":5484,"101":5485,"ĠLoire":5486,"DS":5487,"option":5488,"ĠAccess":5489,"ĠNice":5490,"onor":5491,"gar":5492,"agu":5493,"Ġtotale":5494,"tudiant":5495,"Ġlancer":5496,"Ġpn":5497,"ĠTem":5498,"Ġtitres":5499,"daction":5500,"ĠElectr":5501,"ANS":5502,"ĠLac":5503,"ĠXV":5504,"pi":5505,"Ġcho":5506,"dente":5507,"ĠXX":5508,"Ġlouer":5509,"Ġcome":5510,"ĠMir":5511,"ĠTE":5512,"ĠSource":5513,"ilie":5514,"aimer":5515,"ĠCN":5516,"oyen":5517,"ref":5518,"arne":5519,"Ġphe":5520,"ĠRap":5521,"Ġrecue":5522,"Ġfaudra":5523,"Ġcorrec":5524,"Ġtenir":5525,"Mer":5526,"ĠCat":5527,"omen":5528,"Ġinclus":5529,"irit":5530,"Ġextra":5531,"Ġirr":5532,"bu":5533,"Ġordre":5534,"ords":5535,"oco":5536,"Ġsorti":5537,"ĠRome":5538,"PP":5539,"ĠCli":5540,"Ġunite":5541,"Ġnul":5542,"atic":5543,"eak":5544,"Ġtient":5545,"Ġparame":5546,"Ġaurez":5547,"Ġpous":5548,"Ġveille":5549,"so":5550,"ĠLED":5551,"occup":5552,"ainisse":5553,"Ġup":5554,"ĠEX":5555,"Ġlourd":5556,"Ġpont":5557,"ran":5558,"Ġgarage":5559,"âĢĵ":5560,"ennis":5561,"Ġcondam":5562,"faire":5563,"Ġtue":5564,"ikipe":5565,"Ġcau":5566,"asy":5567,"Ġprises":5568,"Ġhier":5569,"Ġ78":5570,"ĠEnfin":5571,"tration":5572,"ĠOne":5573,"Ġram":5574,"environ":5575,"ocat":5576,"cisions":5577,"..<":5578,"ultez":5579,"Ġdemain":5580,"ciale":5581,"mement":5582,"Cet":5583,"omne":5584,"Marie":5585,"Ġpousse":5586,"Ġsalles":5587,"Mont":5588,"visions":5589,"outh":5590,"ĠâĢº":5591,"Ġstars":5592,"ãĥ":5593,"this":5594,"atrie":5595,"mos":5596,",,":5597,"Ġvingt":5598,"ĠGene":5599,"Ġmorce":5600,"Ġsyndic":5601,"sentent":5602,"ĠSm":5603,"work":5604,"ĠSav":5605,"ycl":5606,"ĠJuil":5607,"DC":5608,"ĠAV":5609,"naires":5610,"jo":5611,"Ġlocale":5612,"sk":5613,"Ġtissu":5614,"ĠChap":5615,"arte":5616,"uge":5617,"OIR":5618,"ONS":5619,"ĠBlue":5620,"ĠSP":5621,"ĠSous":5622,"ĠLin":5623,"ieuses":5624,"Ġexposi":5625,"Tags":5626,"plus":5627,"ĠRos":5628,"ado":5629,"></":5630,"def":5631,"cuter":5632,"oni":5633,"Ġenn":5634,"amedi":5635,"chette":5636,"ivement":5637,"ĠMini":5638,"OW":5639,"toile":5640,"Ġprol":5641,"Ġadhe":5642,"Ġhom":5643,"Home":5644,"IST":5645,"riences":5646,"Ġ53":5647,"Ġplaque":5648,"ĠFoot":5649,"Ġtiers":5650,"tons":5651,"Ġconcl":5652,"passe":5653,"Ġagence":5654,"Ġclo":5655,"nb":5656,"alisme":5657,"Ġchasse":5658,"Ġbis":5659,"ERT":5660,"ĠBureau":5661,"ĠIII":5662,"Autres":5663,"quiv":5664,"cipales":5665,"ducteur":5666,"Inform":5667,"bien":5668,"cheurs":5669,"Ġtruc":5670,"ĠPhotos":5671,"Ġtaxe":5672,"gation":5673,"alier":5674,"galite":5675,"wid":5676,"fert":5677,"goci":5678,"Quand":5679,"span":5680,"pan":5681,"terieur":5682,"Nos":5683,"Ġanime":5684,"ĠUSB":5685,"ĠPap":5686,"sta":5687,"ĠRussie":5688,"ĠFRAN":5689,"Ġgare":5690,"Nais":5691,"incent":5692,"rons":5693,"Ġnormal":5694,"ĠMate":5695,"oubl":5696,"OY":5697,"Ġdisque":5698,"Ġsolde":5699,"Ġ51":5700,"Ġtire":5701,"Dernie":5702,"Fe":5703,"euves":5704,"deh":5705,"Ġreb":5706,"vente":5707,"oyeur":5708,"istence":5709,"rog":5710,"ĠPublie":5711,"Ġrig":5712,"gumes":5713,"ness":5714,"Ġsable":5715,"lage":5716,"cheur":5717,"trie":5718,"Mal":5719,"Ġempe":5720,"aisser":5721,"Ġride":5722,"gale":5723,"Ġ58":5724,"ĠParc":5725,"atible":5726,"sents":5727,"BA":5728,"AUX":5729,"ĠContr":5730,"Ġsert":5731,"acteur":5732,"blog":5733,"UC":5734,"Ġquas":5735,"nd":5736,"ĠOnline":5737,"Â·":5738,"rieures":5739,"ĠWal":5740,"aments":5741,"ĠQU":5742,"angle":5743,"uent":5744,"Ġâĸ":5745,"Ġallons":5746,"ĠAvant":5747,"ciences":5748,"acles":5749,"III":5750,"ifier":5751,"Ġcoton":5752,"sou":5753,"Ġcant":5754,"crite":5755,"brique":5756,"orama":5757,"Ļ¥":5758,"agent":5759,"Ġcasse":5760,"Ġcroy":5761,"kea":5762,"Ġri":5763,"Ġentour":5764,"ĠParti":5765,"Pers":5766,"Ġusage":5767,"ĠGab":5768,"ump":5769,"omberie":5770,"CD":5771,"ĠProf":5772,"rapie":5773,"gers":5774,"ĠUl":5775,"Ġdessin":5776,"quit":5777,"Ġremerc":5778,"iels":5779,"agnol":5780,"Ġ978":5781,"IDE":5782,"Ġobjet":5783,"Ġminim":5784,"aissez":5785,"ĠSoleil":5786,"Ġbaign":5787,"pellier":5788,"table":5789,"'t":5790,"ASS":5791,"Ġnormes":5792,"fici":5793,"Ġoption":5794,"ĠVir":5795,"tapes":5796,"ĠFam":5797,"Ġafric":5798,"couvert":5799,"egre":5800,"termine":5801,"ĠListe":5802,"pareil":5803,"Ġsympa":5804,"ĠNet":5805,"mique":5806,"cun":5807,"OK":5808,"ĠFC":5809,"Ġacier":5810,"dehors":5811,"melle":5812,"ovis":5813,"cool":5814,"ĠPic":5815,"Ġfar":5816,"ĠVert":5817,"Ġlumine":5818,"\"]":5819,"ĠCA":5820,"ĠFont":5821,"Ġgagn":5822,"Ġjoli":5823,"adis":5824,"Ġstatut":5825,"Ġcivil":5826,"Ġbouton":5827,"Ġdiz":5828,"Ġâĺİ":5829,"degre":5830,"fec":5831,"UT":5832,"Ġlo":5833,"ĠNorm":5834,"ĠRay":5835,"intes":5836,"orne":5837,"ignant":5838,"prendre":5839,"Ġsile":5840,"MI":5841,"Ġabonne":5842,"itue":5843,"aco":5844,"ecter":5845,"rient":5846,"glish":5847,"gional":5848,"))":5849,"mpe":5850,"xx":5851,"ĠRich":5852,"xes":5853,"ĠInn":5854,"ED":5855,"pau":5856,"accomp":5857,"dige":5858,"Ġgoogle":5859,"ads":5860,"cuse":5861,"text":5862,"teliers":5863,"Vente":5864,"ota":5865,"ington":5866,"ĠDate":5867,"ĠBur":5868,"Ġsynthe":5869,"ĠAnim":5870,"ĠPont":5871,"opping":5872,"Ġutiles":5873,"atise":5874,"lation":5875,"ÌĢ.":5876,"ouis":5877,"any":5878,"Page":5879,"cia":5880,"ĠUtil":5881,"aisons":5882,"Ġproven":5883,"Ġexig":5884,"ĠDVD":5885,"sw":5886,"Ġsouff":5887,"ĠInte":5888,"Ġemb":5889,"other":5890,"VA":5891,"Ġvraie":5892,"Ġenvis":5893,"tn":5894,"ELLE":5895,"Ġ1999":5896,"},\"":5897,"ĠPoli":5898,"Ġone":5899,"agence":5900,"sec":5901,"ĠAC":5902,"ouest":5903,"Ġbu":5904,"gration":5905,"anteau":5906,"Dim":5907,"Ġsk":5908,"ĠFree":5909,"rance":5910,"ĠNi":5911,"Ġski":5912,"itz":5913,"Ġrepe":5914,"aby":5915,"obilie":5916,"ĠBonne":5917,"mann":5918,"Ġcible":5919,"dici":5920,"ĠMath":5921,"ena":5922,"Appar":5923,"ĠBay":5924,"Ġtrait":5925,"BO":5926,"Ġdegre":5927,"Ca":5928,"Ġdig":5929,"Ġhausse":5930,"canique":5931,"Ren":5932,"ĠCarte":5933,"ĠSar":5934,"dien":5935,"cipants":5936,"ĠMul":5937,"ĠBL":5938,"Ġnoire":5939,">.":5940,"tics":5941,"tablir":5942,"Ġdehors":5943,"lite":5944,"osition":5945,"Ġden":5946,"ģ)":5947,"ĠFour":5948,"Ġnotes":5949,"ĠPost":5950,"intern":5951,"Ġmeme":5952,"mat":5953,"Ìģ)":5954,"public":5955,"sn":5956,"changes":5957,"Ġsugge":5958,"Ġmaje":5959,"Ġchre":5960,"Ġexpose":5961,"ĠTou":5962,"112":5963,"ĠØ§":5964,"igneur":5965,"Ġmul":5966,"Ġrythme":5967,"ĠItalie":5968,"ĠSes":5969,"asbourg":5970,"ĠJo":5971,"Ġtres":5972,"allen":5973,"illages":5974,"cite":5975,"berge":5976,"ĠSoci":5977,"Ġprot":5978,"aya":5979,"ĠPlace":5980,"ĠMach":5981,"ĠPark":5982,"Ġmatern":5983,"Ġbul":5984,"Ġ66":5985,"Ġpare":5986,"ury":5987,"Ġfit":5988,"mestre":5989,"ĠMat":5990,"Ġlook":5991,"content":5992,"Ġ101":5993,"Ġmoto":5994,"PH":5995,"ĠChaque":5996,"ĠImm":5997,">âĤ¬":5998,"exes":5999,"Ġoccupe":6000,"Ġtranqu":6001,"ART":6002,"Adresse":6003,"ĠDonc":6004,"Ġend":6005,"Ġmenu":6006,"yne":6007,"SC":6008,"flexion":6009,"zy":6010,"ptions":6011,"ondeur":6012,"Ġintro":6013,"umeur":6014,"Ġsinon":6015,"active":6016,"enez":6017,"ĠBu":6018,"lever":6019,"Ġhotel":6020,"Ġout":6021,"Selon":6022,"Ġjolie":6023,"ĠLigue":6024,"ero":6025,"ĠWorld":6026,"urerie":6027,"Ġbilan":6028,"exposi":6029,"teaux":6030,"Art":6031,"\">":6032,"dens":6033,"Ġpuisqu":6034,"ĠLit":6035,"Super":6036,"ĠThomas":6037,"ĠGren":6038,"ĠRes":6039,"ernes":6040,"ĠLux":6041,"archite":6042,"Ġfigure":6043,"Ġpale":6044,"BC":6045,"cha":6046,"ĠPa":6047,"han":6048,"Ġreque":6049,"oxyd":6050,"Ùħ":6051,"Ġ62":6052,"honneur":6053,"ĠAD":6054,"Ġpolic":6055,"ourir":6056,"Ġbox":6057,"ona":6058,"Part":6059,"tille":6060,")[":6061,"oniques":6062,"Ġcos":6063,"ĠØ":6064,"ua":6065,"Ġmille":6066,"Sal":6067,"ovie":6068,"ĠHum":6069,"uant":6070,"ancy":6071,"ĠTor":6072,"timents":6073,"Ġplaf":6074,"tisan":6075,"ĠMarine":6076,"Ġmaire":6077,"Ġhos":6078,"Ġperc":6079,"rier":6080,"Ġsel":6081,"iteur":6082,"Ġdote":6083,"ĠOc":6084,"ĠMil":6085,"tionnel":6086,"Ġpompe":6087,"Ġ68":6088,"ĠFil":6089,"Ġencour":6090,"ĠLivres":6091,"ĠUr":6092,"PC":6093,"ĠHor":6094,"Ġcomite":6095,"Ġinfr":6096,"Ġfront":6097,"Ġscr":6098,"Ġrep":6099,"ĠThis":6100,"OI":6101,"ĠSo":6102,"Ġ800":6103,"Ġcru":6104,"UX":6105,"Ġfrai":6106,"Ġcoul":6107,"ĠSant":6108,"ĠCR":6109,"lector":6110,"non":6111,"tera":6112,"clusion":6113,"entrai":6114,"Ġ!!!<":6115,"ondisse":6116,"Go":6117,"ĠMarche":6118,"Ġcroire":6119,"ĠLaur":6120,"acelet":6121,"Char":6122,"ĠBa":6123,"Ġparai":6124,"product":6125,"Ġmenace":6126,"ĠMot":6127,"Ġorient":6128,"cieux":6129,"ĠConn":6130,"Ġoublie":6131,"Homme":6132,"Ġpat":6133,"Ġmou":6134,"Ġmusul":6135,"Ġcharme":6136,"ĠNantes":6137,"royable":6138,"Ġ=>":6139,"ÌĦ":6140,"ĠCel":6141,"contres":6142,"solu":6143,"Cate":6144,"Ġ72":6145,"avons":6146,"dues":6147,"olo":6148,"150":6149,"ĠDos":6150,"ato":6151,"oui":6152,"ava":6153,"ĠOut":6154,"former":6155,"urr":6156,"ussite":6157,"ponible":6158,"Â»<":6159,"ĠCore":6160,"ION":6161,"Ġlot":6162,"agre":6163,"aga":6164,"ĠCate":6165,"eck":6166,"!+[]":6167,"ted":6168,"irst":6169,"Ġdata":6170,"onnance":6171,"Ġhave":6172,"midi":6173,"ionne":6174,"Ġdevait":6175,"Ġstudio":6176,"hoe":6177,"ĠBourg":6178,"Ġmaxim":6179,"Ġcoiff":6180,"pu":6181,"usage":6182,"aure":6183,"ĠWhite":6184,"Ġpure":6185,"rr":6186,"âĸ":6187,"Ġdispos":6188,"van":6189,"riez":6190,"Ġneige":6191,"Ġsuit":6192,"mond":6193,"acute":6194,"Ġsecret":6195,"BE":6196,"Non":6197,"garde":6198,"Ġserez":6199,"initi":6200,"iture":6201,"ĠMu":6202,"Ġhumain":6203,"aider":6204,"mons":6205,"ĠFOR":6206,"vier":6207,"ĠMel":6208,"Ġmasse":6209,"Ġrepos":6210,"ĠPerm":6211,"ipp":6212,"Ġquitte":6213,"ĠPH":6214,"semble":6215,"Bi":6216,"heim":6217,"rem":6218,"outil":6219,"pir":6220,"tiver":6221,"ardins":6222,"ĠOrigin":6223,"imag":6224,"Ġceci":6225,"Ġcell":6226,"itude":6227,"cap":6228,"termin":6229,"agir":6230,"ueur":6231,"ution":6232,"Ġconge":6233,"Ġcivile":6234,"andie":6235,"Ġcesse":6236,"âĢ²":6237,"Site":6238,"unning":6239,"ureaux":6240,"Ġvues":6241,"otal":6242,"Ġphra":6243,"ĠPE":6244,"Ġrevenu":6245,"Ġlabor":6246,"amin":6247,"Ġ67":6248,"ands":6249,"Ġfuite":6250,"Ġtermin":6251,"tube":6252,"ĠBE":6253,"aveur":6254,"ainer":6255,"manuel":6256,"Ġ99":6257,"ÌĨ":6258,"kr":6259,"Ġsembl":6260,"ĠPrin":6261,"autant":6262,"ombe":6263,"Ð»":6264,"abr":6265,"ataires":6266,"Ġoblige":6267,"ĠPM":6268,"aintes":6269,"quette":6270,"till":6271,"Ġchir":6272,"idation":6273,"vide":6274,"cd":6275,"ricains":6276,"Ġadopte":6277,"ĠFaire":6278,"Ma":6279,"Ġdoux":6280,"font":6281,"ĠArgent":6282,"Ġglace":6283,"ffage":6284,"Ġbru":6285,"Ġ!!<":6286,"Ġplonge":6287,"ĠKe":6288,"Ġ76":6289,"ĠSeu":6290,"Conc":6291,"Ġusine":6292,"ĠTunis":6293,"Price":6294,"!!!":6295,"Ġpointe":6296,"Ġexpre":6297,"file":6298,"Ġfine":6299,"Ġdestin":6300,"Ġobten":6301,"Ġsing":6302,"umb":6303,"120":6304,"Uni":6305,"Chambre":6306,"Ġobtenu":6307,"avr":6308,"gales":6309,"ĠPen":6310,"Ġ63":6311,"ĠWi":6312,"Ġsensib":6313,"ĠIt":6314,"Ġnov":6315,"trouvez":6316,"âĢ¢":6317,"Ġverse":6318,"Ġmore":6319,"Ġmorts":6320,"pect":6321,"ĠFac":6322,"cution":6323,"ĠAuto":6324,"ĠArr":6325,"ĠMem":6326,"mber":6327,"Inf":6328,"det":6329,"ĠTrois":6330,"oble":6331,"Ġroue":6332,"Ġrare":6333,"ĠLille":6334,"Ġâĩ":6335,"ady":6336,"istan":6337,"eci":6338,"uck":6339,"tical":6340,"ĠHol":6341,"ISS":6342,"DR":6343,"Ġ_":6344,"ALE":6345,"iendra":6346,"ibuer":6347,"Ġfinir":6348,"tente":6349,"trent":6350,"160":6351,"Ġpein":6352,"pers":6353,"lettes":6354,"Ġund":6355,"ģ(":6356,"Ġabord":6357,"Ìģ(":6358,"Man":6359,"Ġreg":6360,"ĠGuerre":6361,"ĠNation":6362,"ĠNE":6363,"ĠNom":6364,"Ġhome":6365,"IEN":6366,"Ġfranch":6367,"ading":6368,"fu":6369,"ience":6370,"Ah":6371,"Ġdoig":6372,"Ġ110":6373,"Ġretard":6374,"],[":6375,"Ġcycle":6376,"Ġrela":6377,"ĠAlain":6378,"ĠGuy":6379,"Ġhyp":6380,"Ġaimer":6381,"Ġexac":6382,"Ġmeur":6383,"Ġgood":6384,"alet":6385,"affaire":6386,"riture":6387,"parent":6388,"Ġstress":6389,"issante":6390,"lules":6391,"add":6392,"ĠCop":6393,"ĠVos":6394,"ĠChr":6395,"Ġidenti":6396,"Vis":6397,"ĠEU":6398,"Ġintr":6399,"ÙĪ":6400,"zo":6401,"penses":6402,"idge":6403,"exper":6404,"ĠEff":6405,"Ġdevoir":6406,"Ġmurs":6407,"Ġback":6408,"Ur":6409,"Ġpartis":6410,"ito":6411,"compl":6412,"dicale":6413,"libat":6414,"ologn":6415,"Ġnoms":6416,"Ġover":6417,"ĠSAINT":6418,"Ġrond":6419,"oke":6420,"ĠApple":6421,"difie":6422,"ology":6423,"TEUR":6424,"phones":6425,"couter":6426,"mbl":6427,"ĠJou":6428,"Ġfrag":6429,"itant":6430,"CS":6431,"ĠCur":6432,"aillot":6433,"Ġml":6434,"ANCE":6435,"Ġlec":6436,"-<":6437,"ĠClaude":6438,"trique":6439,"Ġlis":6440,"ĠNav":6441,"rich":6442,"aki":6443,"250":6444,"},{\"":6445,"ĠVendre":6446,"ĠVictor":6447,"Ġbateau":6448,"ÙĨ":6449,"Ðº":6450,"Ġ\\":6451,"rane":6452,"ĠÃ":6453,"Ġclimat":6454,"nent":6455,"Ġour":6456,"instant":6457,"curise":6458,"rapeu":6459,"Ġfan":6460,"ercices":6461,"Ġpaye":6462,"ford":6463,"Fin":6464,"ĠCentr":6465,"Ġbillet":6466,"Ġparole":6467,"hal":6468,"rente":6469,"autor":6470,"chats":6471,"anite":6472,"ĠSams":6473,"onnant":6474,"ĠComple":6475,"ouvent":6476,"Sup":6477,"ALL":6478,"Ġ140":6479,"Ġirre":6480,"arry":6481,"cession":6482,"ĠNews":6483,"nite":6484,"Ġouvrir":6485,"pondu":6486,"ICE":6487,"Ġ1998":6488,"Ġclass":6489,"pdf":6490,".\"":6491,"Ġrelie":6492,"Ġauteur":6493,"Ġze":6494,"Trans":6495,"preuve":6496,"ĠAmer":6497,"ĠBeach":6498,"Wh":6499,"mn":6500,"Ġsexe":6501,"formes":6502,"Ġcouche":6503,"absence":6504,"Ġprati":6505,"conc":6506,"140":6507,"cents":6508,"Ils":6509,"obtenir":6510,"ĠPau":6511,"aver":6512,"Ġwc":6513,"Ġfaux":6514,"axy":6515,"ĠBac":6516,"ĠGard":6517,"Ġstar":6518,"Ġpeint":6519,"OUT":6520,"Ġrusse":6521,"ĠStyle":6522,"cipes":6523,"Ġvr":6524,"Ġsale":6525,"Off":6526,"agram":6527,"cts":6528,"Ġtempor":6529,"jus":6530,"rieuse":6531,"Â¬":6532,"Ġfaveur":6533,"ashion":6534,"oient":6535,"Ġpluie":6536,"Ġvotes":6537,"ichage":6538,"Ġboute":6539,"anneau":6540,"Ġcoups":6541,"Ġmonter":6542,"Ġcheval":6543,"Ġcycl":6544,"astru":6545,"Associ":6546,"IGN":6547,"ĠSex":6548,"vc":6549,"ĠNor":6550,"Ġ1990":6551,"ĠAs":6552,"Book":6553,"rime":6554,"Ġaler":6555,"Intern":6556,"hab":6557,"erciale":6558,"ĠAppl":6559,"][":6560,"oiture":6561,"Ġrevue":6562,"roge":6563,"Ġneu":6564,"abl":6565,"chou":6566,"Ġill":6567,"Ġreve":6568,"ĠGer":6569,"ĠSyl":6570,"Ġimpose":6571,"shirt":6572,"Ġblack":6573,"ĠPR":6574,"Ġfoi":6575,"Ġchute":6576,"dients":6577,"ulaires":6578,"Ġinquie":6579,"icole":6580,"ĠðŁĺ":6581,"Ġacquis":6582,"ĠRock":6583,"600":6584,"culer":6585,"Ġvoulu":6586,"kin":6587,"ories":6588,"TR":6589,"INS":6590,"Ġplante":6591,"vas":6592,"Ġrivie":6593,"ologne":6594,"ĠNeu":6595,"ĠAS":6596,"ĠPle":6597,"ĠColle":6598,"har":6599,"ĠSports":6600,"ĠBR":6601,"ople":6602,"].<":6603,"Ġarabe":6604,"ĠManual":6605,"cure":6606,"Ġcanape":6607,"mande":6608,"Ġmange":6609,"los":6610,"Ġbref":6611,"Ġcouver":6612,"eta":6613,"Ġtomber":6614,"Ġsuisse":6615,"Ġmaroc":6616,"fa":6617,"190":6618,"inten":6619,"effet":6620,"ignants":6621,"rez":6622,"Ġgout":6623,"paisse":6624,"ĠMun":6625,"ĠAux":6626,"PER":6627,"alable":6628,"llec":6629,"Ġaudio":6630,"ĠLot":6631,"Î±":6632,"chement":6633,"OST":6634,"2005":6635,"Ġactuel":6636,">Â»":6637,"Ġrappro":6638,"cript":6639,"Ġgour":6640,"ete":6641,"titule":6642,"rown":6643,"pic":6644,"ĠSwe":6645,"Nom":6646,"Toutes":6647,"olis":6648,"CF":6649,"Ġerreur":6650,"mise":6651,"ĠDouble":6652,"Ġteste":6653,"Ġ[#":6654,"ESS":6655,"Ġjob":6656,"ando":6657,"Ðĵ":6658,"Enfin":6659,"Ġcath":6660,"arbon":6661,"Ġnews":6662,"Ġvols":6663,"Ġcroise":6664,"Ġesprit":6665,"uet":6666,"var":6667,"ussir":6668,"entiels":6669,"test":6670,"Ġrespir":6671,"Ġrefuse":6672,"ussions":6673,"Ġpub":6674,"Ġha":6675,"hier":6676,"ston":6677,"Ġperd":6678,".\"<":6679,"Ġfame":6680,"Ġpilote":6681,"Ġexige":6682,"Cap":6683,"Ġspirit":6684,"agiste":6685,"iciens":6686,"Av":6687,"110":6688,"Ġvain":6689,"ny":6690,"Ġrot":6691,"Ġagents":6692,"inaison":6693,"onnels":6694,"ĠWilli":6695,"hou":6696,"ouvoir":6697,"iliter":6698,"empe":6699,"ĠDaniel":6700,"pective":6701,"album":6702,"PI":6703,"Ġminute":6704,"}}":6705,"ouge":6706,"ĠInde":6707,"GER":6708,"ĠSue":6709,"Ġrequ":6710,"Ġperf":6711,"enue":6712,"appre":6713,"ĠLis":6714,"Ġaudi":6715,"Ġwill":6716,"tendre":6717,"Ġ180":6718,"Ġparfum":6719,"âĢĿ,":6720,"illaume":6721,"ij":6722,"Ġdevra":6723,"orient":6724,"auto":6725,"ĠMore":6726,"Ġjudici":6727,"MM":6728,"Auteur":6729,"Ġrab":6730,"Ġpain":6731,"Ġcolor":6732,"Ġnucle":6733,"loc":6734,"ĠMoi":6735,"ophone":6736,"Ġcout":6737,"enque":6738,"chen":6739,"search":6740,"over":6741,"Ġ74":6742,"decins":6743,"ason":6744,"ĠBarb":6745,"ĠTest":6746,"Table":6747,"Ġfro":6748,"Ġtests":6749,"Ġsentir":6750,"ias":6751,"Ġpay":6752,"diction":6753,"fig":6754,"Cou":6755,"ottines":6756,"vac":6757,"attend":6758,"arc":6759,"appelle":6760,"Ġsoumis":6761,"Ġmaman":6762,"ĠFA":6763,"Ġ(+":6764,"Ver":6765,"ualite":6766,"Ġvolont":6767,"ĠOrange":6768,"END":6769,"ĠTele":6770,"rc":6771,"Ġtenter":6772,"sen":6773,"venu":6774,"Ġavions":6775,"Ġpertin":6776,"ĠOpen":6777,"udes":6778,"Ġfus":6779,"Ġdates":6780,"una":6781,"Ġhuit":6782,"800":6783,"Ġtome":6784,"Ġword":6785,"Ġcancer":6786,"demain":6787,"Bou":6788,"asin":6789,"Ġtw":6790,"Ġ92":6791,"Ġplac":6792,"Ġgener":6793,"oce":6794,"ĠPlay":6795,"wood":6796,"ĠSN":6797,"apeau":6798,"dat":6799,"servez":6800,"ello":6801,"ĠChaise":6802,"Ġprie":6803,"finir":6804,"grer":6805,"ĠJoseph":6806,"Ġpack":6807,"ova":6808,"ĠWord":6809,"unk":6810,"Ġrappel":6811,"ĠâĩĮ":6812,"Ġsavez":6813,"ĠHam":6814,"ĠNatur":6815,"bus":6816,"irmer":6817,"Ġvivant":6818,"Ouest":6819,"Ġ$('":6820,"Ġbag":6821,"Ġcourte":6822,"MB":6823,"Ġpoudre":6824,"Ġmyste":6825,"IO":6826,"ĠSie":6827,"Ġparent":6828,"Ġrang":6829,"orce":6830,"ĠGreen":6831,"ĠMarque":6832,"armes":6833,"stances":6834,"ĠCir":6835,"obre":6836,"ĠTom":6837,"voile":6838,"Ġterror":6839,"faits":6840,"QUES":6841,"expre":6842,"crets":6843,"Alpes":6844,"Ġdiscip":6845,"TEL":6846,"effec":6847,"conn":6848,"Ġlois":6849,"tibles":6850,"uu":6851,"Ġplats":6852,"ĠTer":6853,"ģ...":6854,"Ìģ...":6855,"llement":6856,"tui":6857,"Ġstade":6858,"Ġgal":6859,"Ġconfr":6860,"enreg":6861,"VER":6862,"Ġetre":6863,"Ġouvre":6864,"Ġscore":6865,"Jeu":6866,"dette":6867,"Â».":6868,"title":6869,"Ġmanip":6870,"Cal":6871,"Ġincon":6872,"bonne":6873,"ĠHigh":6874,"Ġcart":6875,"Po":6876,">âĨĳ":6877,"cific":6878,"ĠHotels":6879,"entique":6880,"euillez":6881,"Ġchaise":6882,"ĠSneak":6883,"inel":6884,"oyant":6885,"veurs":6886,"pter":6887,"Trouvez":6888,"yles":6889,"ĠMO":6890,"ĠTome":6891,"uni":6892,"ĠSC":6893,"ĠLoi":6894,"dose":6895,"liance":6896,"enirs":6897,"Ġblesse":6898,"Ġgran":6899,"erces":6900,"cuper":6901,"itime":6902,"cart":6903,"illons":6904,"Ġtapis":6905,"pense":6906,"Ġtester":6907,"ĠRece":6908,"ĠOU":6909,"ĠRadio":6910,"Ġopport":6911,"Ġessaye":6912,"color":6913,"ignes":6914,"ĠDer":6915,"Ġuniver":6916,"eus":6917,"Ġlav":6918,"GB":6919,"Fl":6920,"Michel":6921,"ĠNume":6922,"ĠGau":6923,"cute":6924,"Ġlave":6925,"ĠLie":6926,"Ġkit":6927,"show":6928,"trav":6929,"COM":6930,"Ġpiste":6931,"nager":6932,"Ġamp":6933,"Ġseuls":6934,"Ġ89":6935,"Ġence":6936,"Ġbijoux":6937,"Ġfu":6938,"Ġ130":6939,"droits":6940,"ĠWar":6941,"ĠMP":6942,"Ġfati":6943,"Ø±":6944,"Ġinge":6945,"FOR":6946,"traits":6947,"true":6948,"ondon":6949,"Ġtyp":6950,"Ġtube":6951,"Ġhiver":6952,"LT":6953,"otes":6954,"pins":6955,"Ġgrav":6956,"ĠAuteur":6957,"Ġrepar":6958,"tri":6959,"ĠGue":6960,"Ġvaste":6961,"Ġâĺı":6962,"ĠFi":6963,"NA":6964,"ĠCAR":6965,"oga":6966,"Ġ61":6967,"ĠSerr":6968,"js":6969,"Ġbruit":6970,"EAN":6971,"aurais":6972,"Ġprison":6973,"Ġbarb":6974,"Ġobserv":6975,"aigne":6976,"aps":6977,"Ġentrer":6978,"Ġguit":6979,"Ġleader":6980,"Ġom":6981,"Ġemail":6982,"ĠRetour":6983,"ĠAssoci":6984,"Ġbest":6985,"Ġpic":6986,"ek":6987,"RS":6988,"aou":6989,"ĠBul":6990,"icacite":6991,"Ġjui":6992,"ĠBanque":6993,"jon":6994,"Ġultra":6995,"Ġimpe":6996,"pouse":6997,"hed":6998,"Ġprime":6999,"Ġ79":7000,"ensions":7001,"HA":7002,"stuces":7003,"Ind":7004,"Ġ83":7005,"ĠPetite":7006,"yo":7007,"ĠBest":7008,"ierry":7009,"Ġpm":7010,"dore":7011,"FP":7012,"Ġya":7013,"identif":7014,"Ġ88":7015,"Ġhuile":7016,"ĠBout":7017,"++":7018,"Ġisole":7019,"diaire":7020,"Top":7021,"Ġ93":7022,"Ġ94":7023,"Ġfins":7024,"ĠAB":7025,"ĠCine":7026,"atell":7027,"ANC":7028,"ignons":7029,"Ġ>>":7030,"ĠComite":7031,"ĠFrench":7032,"gende":7033,"Ġgentil":7034,"Ġconcep":7035,"price":7036,"ican":7037,"Ġoffert":7038,"Ġrur":7039,"ĠAG":7040,"nieur":7041,"Gar":7042,"roi":7043,"td":7044,"ĠBoul":7045,"trition":7046,"ĠHenri":7047,"cht":7048,"ĠAub":7049,"Ġhyper":7050,"Aujourd":7051,"ĠâľĨ":7052,"ĠDI":7053,"%,":7054,"ima":7055,"Ġviolen":7056,"Ġ*****":7057,"Ġsuscep":7058,"ĠKit":7059,"ibe":7060,"Paul":7061,"Ġtroupe":7062,"Photo":7063,"ĠSacs":7064,"Ġchers":7065,"Ġesthe":7066,"Ġsolide":7067,"lat":7068,"Ġscul":7069,"ĠMulti":7070,"ylindre":7071,"ool":7072,"Ġreport":7073,"rienne":7074,"Ġmidi":7075,"ĠCro":7076,"ĠHoll":7077,"ĠPu":7078,"sine":7079,"Ġ160":7080,"ĠMos":7081,"orial":7082,"Ġjoie":7083,"dial":7084,"Ġvoudr":7085,"Ġdomin":7086,"ĠBarcel":7087,"Ġtar":7088,"ogue":7089,"Vi":7090,"ballage":7091,"ĠKing":7092,"ĠJames":7093,"Ġ84":7094,"ĠVoyage":7095,"Ġ1997":7096,"ras":7097,"iement":7098,"Ġemprun":7099,"Ġadulte":7100,"eacute":7101,"commun":7102,"anga":7103,"wp":7104,"ĠWest":7105,"ĠNu":7106,"court":7107,"hn":7108,"ĠVin":7109,"inement":7110,"orge":7111,"oter":7112,"Ġtor":7113,"ĠDess":7114,"ĠUSA":7115,"Ġmodern":7116,"ĠOrgan":7117,"Ġinspir":7118,"aders":7119,"inage":7120,"Ġpensez":7121,"olde":7122,"oulie":7123,"vard":7124,"voit":7125,"ĠCham":7126,"tembre":7127,"......":7128,"Ġvilla":7129,"ĠUp":7130,"ĠSun":7131,"ĠBasket":7132,"clen":7133,"enfants":7134,"Ġpauvre":7135,"chons":7136,"portant":7137,"osh":7138,"ĠPeut":7139,"Deux":7140,"Carte":7141,"ĠLav":7142,"ĠPi":7143,"EE":7144,"ĠCy":7145,"Femme":7146,"Ġquin":7147,"ĠDur":7148,"Dr":7149,"ffret":7150,"By":7151,"Ġsports":7152,"Avant":7153,"ernier":7154,"eut":7155,"ĠTTC":7156,"Ġpire":7157,"*<":7158,"bel":7159,"Ñĥ":7160,"voquer":7161,"ĠTH":7162,"ĠMaster":7163,"jection":7164,"udo":7165,"landais":7166,"tour":7167,"phane":7168,"nario":7169,"ĠBig":7170,"El":7171,"Ġ});":7172,"Ġrecons":7173,"Ġfur":7174,"chauff":7175,"dites":7176,"utilise":7177,"Ġfalse":7178,"undi":7179,"âĢĶ":7180,"Ġactes":7181,"Ġtac":7182,"Ġmairie":7183,"tw":7184,"Ġ|<":7185,"Ġ86":7186,"cc":7187,"ĠPower":7188,"eton":7189,"abelle":7190,"ĠFort":7191,"Ġtur":7192,"TV":7193,"MC":7194,"Ġballon":7195,"dun":7196,"ĠRoyal":7197,"Ġpatron":7198,"uster":7199,"anglais":7200,"hension":7201,"list":7202,"Ġbrut":7203,"athique":7204,"Ġ73":7205,"difier":7206,"fil":7207,"Ġlogo":7208,"ĠIP":7209,"ĠBri":7210,"france":7211,"enda":7212,"urre":7213,"FC":7214,"rifie":7215,"agi":7216,"Ġvery":7217,"Ġinfos":7218,"Ġconfie":7219,"Ġ87":7220,"feuille":7221,"Ġvenu":7222,"inion":7223,"odie":7224,"Jou":7225,"kg":7226,"ĠMoyen":7227,"innov":7228,"aim":7229,"GU":7230,"ĠPart":7231,"Anne":7232,"Ġpoche":7233,"Ġbiolog":7234,"Bay":7235,"Ġmasque":7236,"Ġterres":7237,"ĠSem":7238,"Ġpouces":7239,"ĠValle":7240,"Ġverte":7241,"ĠEnfant":7242,"MO":7243,"ĠPhot":7244,"001":7245,"Ġmanife":7246,"Ġconcre":7247,"Ġoct":7248,"web":7249,"ĠClasse":7250,"Ġsacr":7251,"ground":7252,"ĠVI":7253,"ĠCC":7254,"ĠLas":7255,"ĠTi":7256,"Ġsn":7257,"oisse":7258,"Ġline":7259,"comme":7260,"Ġpostes":7261,"Ġvirus":7262,"ĠAlpes":7263,"');":7264,"ĠSl":7265,"Ġrefus":7266,"tudie":7267,"Ġber":7268,"Ġflux":7269,"Ġvalle":7270,"uie":7271,"sch":7272,"Ġacte":7273,"ced":7274,"veau":7275,"ĠKo":7276,"Ġpant":7277,"neur":7278,"UIT":7279,"Class":7280,"KE":7281,"uz":7282,"ĠPortug":7283,"Rec":7284,"Util":7285,"rise":7286,"Ġsurf":7287,"gence":7288,"actif":7289,"ĠMise":7290,"Åĵil":7291,"Ġsouci":7292,"Ġchant":7293,"agric":7294,"Qui":7295,"Ġtort":7296,"ĠNombre":7297,"Ġfume":7298,">@":7299,"Per":7300,"ĠFig":7301,"BL":7302,"Ġenjeux":7303,"ĠRennes":7304,"ĠPromo":7305,"embourg":7306,"tenue":7307,"guer":7308,"tifier":7309,"mune":7310,"itent":7311,"ĠLoc":7312,"Ġaffr":7313,"sous":7314,"ĠPremie":7315,"Ġdore":7316,"ONNE":7317,"Sac":7318,"Ð²":7319,"ives":7320,"culaire":7321,"ful":7322,"Livr":7323,"sant":7324,"ĠFerr":7325,"iveau":7326,"tec":7327,"Ġtrafic":7328,"allery":7329,"soudre":7330,"123":7331,"Ġmiroir":7332,"ĠMarron":7333,"Ġvalor":7334,"Ġore":7335,"mans":7336,"Ġchiens":7337,"onnier":7338,"adel":7339,"âĢº":7340,"Ġgrille":7341,"ENCE":7342,"uf":7343,"+!+[]":7344,"à¹":7345,"Source":7346,"Ġenvers":7347,"ACE":7348,"owe":7349,"Ġ(...)<":7350,"offr":7351,"Ġ125":7352,"){":7353,"Ġben":7354,"impo":7355,"Ġaqu":7356,"garder":7357,"ĠBand":7358,"ĠVilla":7359,"adeau":7360,"dj":7361,"onds":7362,"ĠAj":7363,"Ville":7364,"ovation":7365,"Ġpel":7366,"plate":7367,"icon":7368,"dures":7369,"Ġ1995":7370,"TH":7371,"star":7372,"Ġinconn":7373,"gny":7374,"ĠBibli":7375,"Louis":7376,"Film":7377,"Ġ1996":7378,"Italie":7379,"ĠAutres":7380,"Ġarmes":7381,"Ġtuy":7382,"ĠEric":7383,"Ġstim":7384,"ointe":7385,"\");":7386,"shop":7387,"ĠBerlin":7388,"Ġspac":7389,"Rest":7390,"Ġsoucis":7391,"tv":7392,"erv":7393,"dront":7394,"dorm":7395,"ĠNote":7396,"iseaux":7397,"Ġvitre":7398,"ĠRho":7399,"Ġpole":7400,"ĠSO":7401,"ĠAh":7402,"TO":7403,"Ġcompet":7404,"Son":7405,"agerie":7406,"Ġviagra":7407,"Ġcodes":7408,"trans":7409,"Ġadj":7410,"MW":7411,"anz":7412,"volue":7413,"Ġauront":7414,"ĠQues":7415,"ĠHall":7416,"Ġdose":7417,"artiste":7418,"EP":7419,"ibex":7420,"istrer":7421,"ĠBro":7422,"obal":7423,"ooth":7424,"max":7425,"ĠStock":7426,"Ġallant":7427,"wn":7428,"Hotels":7429,"Ġflex":7430,"ĠCanape":7431,"oman":7432,"lix":7433,"Ġvaisse":7434,"!!<":7435,"rateurs":7436,"avre":7437,"ĠDiv":7438,"urgie":7439,"cessi":7440,"couvre":7441,"Ġsommet":7442,"Mart":7443,"Ġ98":7444,"cf":7445,"ĠLettre":7446,"Ġabus":7447,"ting":7448,"ĠBO":7449,"Ġchou":7450,"preneur":7451,"','":7452,"ĠPARIS":7453,"issait":7454,"barque":7455,"Ġorange":7456,"ĠDebou":7457,"ĠCours":7458,"ĠPoint":7459,"ĠStreet":7460,"Ġfans":7461,"umule":7462,"Ġlits":7463,"enis":7464,"Val":7465,"ĠAvril":7466,"Espagne":7467,"Voila":7468,"\":[":7469,"ctur":7470,"Ġboite":7471,"tificat":7472,"ension":7473,"amel":7474,"mosphe":7475,"Ġvins":7476,"oeuvre":7477,"lah":7478,"arrie":7479,"Ġcohe":7480,"Nume":7481,"aris":7482,"ĠGros":7483,"icot":7484,"ĠON":7485,"ĠSER":7486,"upture":7487,"bute":7488,"barr":7489,"pel":7490,"ĠIV":7491,"ĠAustr":7492,"ĠMex":7493,"Ġ82":7494,"Ġbases":7495,"Ġarts":7496,"portent":7497,"ĠAngle":7498,"ĠFant":7499,"Ġentend":7500,"liore":7501,"Ġangl":7502,"ĠChat":7503,"Cela":7504,"Ġsche":7505,"Ġtirer":7506,"ĠMON":7507,"Ġquels":7508,"tar":7509,"tueux":7510,"sim":7511,"TP":7512,"ĠJun":7513,"Ġpoule":7514,"ĠInc":7515,"Rem":7516,"ĠMonte":7517,"nat":7518,"sac":7519,"sert":7520,"ELL":7521,"Ġcolon":7522,"lers":7523,"chec":7524,"vidence":7525,"rible":7526,"700":7527,"eries":7528,"ther":7529,"olymp":7530,"Ġrock":7531,"Ġgrec":7532,"rec":7533,"Ġdorm":7534,"istante":7535,"tig":7536,"TIC":7537,"aies":7538,"attache":7539,"Agence":7540,"ample":7541,"aujourd":7542,"awa":7543,"PDF":7544,"ĠFleur":7545,"Ġhasard":7546,"2004":7547,"Ġtrace":7548,"xt":7549,"sentes":7550,"ĠDo":7551,"ontourn":7552,"Ġfiltre":7553,"size":7554,"ked":7555,"Ġactif":7556,"Ġalent":7557,"infos":7558,"thle":7559,"enu":7560,"Ġtime":7561,"abo":7562,"Ġviande":7563,"Ġbloque":7564,"Ġcolore":7565,"Ġfrappe":7566,"ĠDroit":7567,"hoes":7568,"ĠArts":7569,"argeur":7570,"Ġbron":7571,"Ġserre":7572,"Ġtax":7573,"ĠAdul":7574,"Ġpul":7575,"ĠTVA":7576,"cate":7577,"cente":7578,"ĠLuxe":7579,"Ġur":7580,"assins":7581,"ĠEp":7582,"ims":7583,"mite":7584,"Vide":7585,"icipal":7586,"Vol":7587,"teste":7588,"EX":7589,"Posted":7590,"ongo":7591,"aits":7592,"rio":7593,"origin":7594,"ĠPou":7595,"=\\\"":7596,"Ġ</":7597,"Î¹":7598,"Ġchefs":7599,"Ġ91":7600,"TRE":7601,"illez":7602,"issage":7603,"Ġ71":7604,"Ġvisant":7605,"ĠPRE":7606,"ĠTex":7607,"ISBN":7608,"ĠSyn":7609,"Ajouter":7610,"Mes":7611,"apper":7612,"comment":7613,"aisses":7614,"olles":7615,"VC":7616,"Ġpollu":7617,"Ġcircon":7618,"GA":7619,"ĠOR":7620,"Ġvalide":7621,"Ġ97":7622,"ador":7623,"ĠRab":7624,"ĠMadr":7625,"Ġlin":7626,"ĠRam":7627,"ĠEle":7628,"Ġdipl":7629,"Ġvice":7630,"ĠFrank":7631,"ĠQuelle":7632,"gionale":7633,"ista":7634,"ĠFit":7635,"Publ":7636,"Ġauxque":7637,"daille":7638,"ĠPack":7639,"Dir":7640,"urances":7641,"jeu":7642,"gg":7643,"Ġ$(":7644,"Ġpistes":7645,"Ste":7646,"DES":7647,"????":7648,"Taille":7649,"entifie":7650,"ĠØ§ÙĦ":7651,"iforn":7652,"Ġ700":7653,"house":7654,"Ġcad":7655,"illard":7656,"Ġread":7657,"livre":7658,"erreurs":7659,"order":7660,"Conn":7661,"Luc":7662,"nonce":7663,"Local":7664,"veil":7665,"Ġaccr":7666,"ĠTim":7667,"Ġrues":7668,"Ġoccas":7669,"Ġlive":7670,"tits":7671,"Ġachats":7672,"version":7673,"oriage":7674,"Ġbeurre":7675,"GR":7676,"Ġling":7677,"2000":7678,"tudier":7679,"ĠHug":7680,"Ġauton":7681,"gas":7682,"Ġchamps":7683,"agen":7684,"placer":7685,"oster":7686,"Ġnow":7687,"ĠHouse":7688,"Ġsacre":7689,"eder":7690,"plan":7691,"lot":7692,"exemple":7693,"Note":7694,"ĠMoh":7695,"Ġexp":7696,"ĠMacron":7697,"rard":7698,"apeur":7699,"Ġadore":7700,"Christ":7701,"Beau":7702,"ĠNap":7703,"stal":7704,"ciales":7705,"avion":7706,"Ġexpert":7707,"vironne":7708,"voi":7709,"SD":7710,"]+(":7711,"ĠAnto":7712,"Ġpours":7713,"ĠWikipe":7714,"ould":7715,"ĠZe":7716,"ĠStand":7717,"Nombre":7718,"Ġformer":7719,"rip":7720,"ĠIr":7721,"Ġsurv":7722,"ison":7723,"130":7724,"alph":7725,"cient":7726,"Ġrares":7727,"Ġdat":7728,"Ġwork":7729,"riau":7730,"ĠAcce":7731,"alth":7732,"MAN":7733,"Ġ(...)":7734,"ĠChez":7735,"ĠEv":7736,"grid":7737,"wa":7738,"Ġmodes":7739,"ĠGT":7740,"ĠGalaxy":7741,"Port":7742,"sace":7743,"ĠCanal":7744,"Ġrouges":7745,"ĠBasse":7746,"gler":7747,"quot":7748,"ĠConfe":7749,"Situe":7750,"ciation":7751,"Ġextr":7752,"ĠCAN":7753,"Ġfurent":7754,"gage":7755,"hin":7756,"Ġvel":7757,"Ġmandat":7758,"Prem":7759,"chers":7760,"code":7761,"fum":7762,"Ġcharm":7763,"Ġagent":7764,"minin":7765,"Ġcoach":7766,"cialite":7767,"Ġdiame":7768,"Ġnette":7769,"actu":7770,"ĠWC":7771,"oker":7772,"yon":7773,"valuer":7774,"tistes":7775,"Ġabout":7776,"Ġ^^<":7777,"Ġ360":7778,"coupe":7779,"ermain":7780,"Ġdro":7781,"\")":7782,"Ġolymp":7783,"Ġ]":7784,"impact":7785,"ken":7786,"Ġvideo":7787,"Puis":7788,"Ġappris":7789,"ĠDig":7790,"Ġdress":7791,"Ben":7792,"quip":7793,"ĠHT":7794,"Ġlou":7795,"burg":7796,"indle":7797,"Cas":7798,"Ġstati":7799,"ĠHauts":7800,"ĠDernie":7801,"Ġtours":7802,"iette":7803,"ender":7804,"Ñı":7805,"Ġgale":7806,"Ġrent":7807,"ayez":7808,"Ġconnue":7809,"Ġaim":7810,"aker":7811,"Ġpoi":7812,"alence":7813,"SU":7814,"Ġlast":7815,"sm":7816,"Ġrecord":7817,"amant":7818,"icone":7819,"ĠChic":7820,"cro":7821,"aquet":7822,"125":7823,"opie":7824,"Ġpc":7825,"Orient":7826,"Ġarbres":7827,"ĠTarif":7828,"URL":7829,"tanche":7830,"Ġsympto":7831,"viduel":7832,"Ġfle":7833,"Ġsoyez":7834,"aha":7835,"ãĢ":7836,"gory":7837,"onnet":7838,"Ġign":7839,"Ġmotif":7840,"cune":7841,"trole":7842,"Ġmit":7843,"Ġmousse":7844,"atta":7845,"ĠSmart":7846,"db":7847,"Moi":7848,"New":7849,"Air":7850,"bul":7851,"ĠJeune":7852,"Ġhel":7853,"bri":7854,"media":7855,"Ġ1994":7856,"Ġinfo":7857,"PG":7858,"png":7859,"ĠTR":7860,"ĠTrai":7861,"stume":7862,"ĠAucun":7863,"ĠDam":7864,"sans":7865,"ĠKn":7866,"acques":7867,"ĠJulien":7868,"Ġcasino":7869,"EB":7870,"Ġactifs":7871,"Ġimpact":7872,"sseurs":7873,"ĠAz":7874,"Ġeuro":7875,"ĠHP":7876,"Image":7877,"Ġ[#]<":7878,"ĠAgr":7879,"170":7880,"Mari":7881,"sia":7882,"Ġcopie":7883,"onnie":7884,"Ġmarine":7885,"ĠSpr":7886,"ĠHistor":7887,"pisodes":7888,"ĠLos":7889,"oger":7890,"Ġallait":7891,"Seine":7892,"Ġannuel":7893,"Cor":7894,"Ġvul":7895,"Ġ96":7896,"Ġ900":7897,"ĠAlbert":7898,"inspir":7899,"Ġmassif":7900,"teries":7901,"tache":7902,"lia":7903,"ĠGener":7904,"ĠAutre":7905,"ĠVar":7906,"ĠCroix":7907,"':":7908,"ĠItal":7909,"OUL":7910,"aft":7911,"ĠSaison":7912,"FL":7913,"taux":7914,"Ġhref":7915,"opposi":7916,"Ġ**":7917,"oussin":7918,"ward":7919,"Ġlibr":7920,"Ġsaur":7921,"pide":7922,"Ġauquel":7923,"ĠFille":7924,"nez":7925,"aster":7926,"Tra":7927,"nelles":7928,"Ġastr":7929,"Ġja":7930,"Ġphrase":7931,"Ġmener":7932,"Ġ:)<":7933,"ĠEmploi":7934,">âĸ":7935,"mands":7936,"Ġgras":7937,"cesseur":7938,"Ġmatchs":7939,"ĠEs":7940,"Ġexempl":7941,"Ġsoud":7942,"Inst":7943,"SM":7944,"Organ":7945,"hand":7946,"aix":7947,"ĠCM":7948,"evenue":7949,"Sa":7950,"erty":7951,"Ġmagne":7952,"board":7953,"Ġsignes":7954,"assure":7955,"ieres":7956,"TIF":7957,"pc":7958,"ĠðŁĻ":7959,"umber":7960,"aisie":7961,"Ġsouris":7962,"Ġdynam":7963,"ĠNeuf":7964,"Ġblancs":7965,"montre":7966,"Ġvolets":7967,"ĠGaz":7968,"ordan":7969,"ignan":7970,"ĠRi":7971,"Achat":7972,"Ġoccup":7973,"ĠSen":7974,"Ġtv":7975,"Ġ1980":7976,"ĠBra":7977,"Dem":7978,"Ġcoffre":7979,"GO":7980,"Cour":7981,"ĠPlat":7982,"Ġrecon":7983,"ĠBio":7984,"Ġplai":7985,"ĠDescri":7986,"ĠRecher":7987,"kn":7988,"ENS":7989,"etter":7990,"cos":7991,"Classe":7992,"ĠSH":7993,"ĠCafe":7994,"XX":7995,"PT":7996,"Ant":7997,"agnies":7998,"ĠJourne":7999,"ĠYe":8000,"TIQUE":8001,"ĠIndi":8002,"andez":8003,"olit":8004,"220":8005,"photo":8006,"Ġbelge":8007,"Ġbap":8008,"Ġye":8009,"endie":8010,"ĠExpl":8011,"ĠCast":8012,"Ġlai":8013,"Ġplas":8014,"Ġnotion":8015,"riels":8016,"Ġadoles":8017,"Ġpop":8018,"led":8019,"Ġcanton":8020,"ĠStudio":8021,"ĠCenter":8022,"ĠFL":8023,"Ġ***":8024,"iday":8025,"Petit":8026,"ticol":8027,"bastien":8028,"onger":8029,"!!!<":8030,"unique":8031,"ĠLight":8032,"instru":8033,"osearch":8034,"marches":8035,"dc":8036,"Hz":8037,"ĠCu":8038,"ĠAlge":8039,"perme":8040,"CON":8041,"Ġsignal":8042,"Ġflor":8043,"Ġchino":8044,"Plan":8045,"ÌĬ":8046,"ĠPin":8047,"Ġshow":8048,"Ġdent":8049,"endroit":8050,"ĠExpe":8051,"motions":8052,"âĢĺ":8053,"Ġscand":8054,"devenue":8055,"chappe":8056,"ĠOffice":8057,"tnam":8058,"pargne":8059,"endez":8060,"ĠFaites":8061,"ĠMadrid":8062,"Ġdents":8063,"Ġfie":8064,"Ġlinge":8065,"Ġview":8066,"Ġcouvr":8067,"uile":8068,"ĠBox":8069,"Ġdue":8070,"Ġviol":8071,"Ġset":8072,"SION":8073,"Ġ1992":8074,"ugby":8075,"Az":8076,"idents":8077,"uplo":8078,"Ġbuts":8079,"allenge":8080,"ĠGold":8081,"iciles":8082,"Ġquart":8083,"geot":8084,"Ġuns":8085,"ĠPot":8086,"Ġvitr":8087,"mod":8088,"Ġcomte":8089,"Ġvendu":8090,"Livre":8091,"voire":8092,"SH":8093,"ĠTar":8094,"ģĦ":8095,"hip":8096,"ĠPublic":8097,"ĠIsrae":8098,"oubli":8099,"iro":8100,"ĠMusic":8101,"crivain":8102,"Marne":8103,"Phil":8104,"Ġanimal":8105,"CR":8106,"Ġingre":8107,"ĠGU":8108,"Ġvs":8109,"ĠCos":8110,"ĠMid":8111,"Pub":8112,"ĠRac":8113,"ĠUnite":8114,"dv":8115,"Ġ81":8116,"ĠFRANCE":8117,"Ġfier":8118,"ĠBut":8119,"ĠMiss":8120,"ĠSpa":8121,"bs":8122,"ssons":8123,"ĠResp":8124,"To":8125,"ĠImage":8126,"Ġronde":8127,"avi":8128,"PAR":8129,"ĠMix":8130,"dac":8131,"Ġneur":8132,"ĠArn":8133,"ĠDenis":8134,"ĠVel":8135,"Ġke":8136,"gypte":8137,"ĠHong":8138,"Ġreme":8139,"ĠFore":8140,"ĠAe":8141,"ONE":8142,"ilde":8143,"hh":8144,"Ġbalcon":8145,"hes":8146,"hyp":8147,"Ġdisent":8148,"Ġaf":8149,"Ġclubs":8150,"Grand":8151,"merci":8152,"sidente":8153,".)<":8154,"Ġcann":8155,"Ġcase":8156,"onnez":8157,"esti":8158,"ĠBob":8159,"Ġallie":8160,"rob":8161,"vues":8162,"attaque":8163,"ĠChi":8164,"cam":8165,"fis":8166,"zen":8167,"Ã·":8168,"BR":8169,"igar":8170,"Ġreturn":8171,"Ġsacs":8172,"Ġmajeur":8173,"Recher":8174,"âģĦ":8175,"vidus":8176,"Bel":8177,"Ġ%<":8178,"pal":8179,"tain":8180,"Ġcole":8181,"MAR":8182,"izon":8183,"ĠParmi":8184,"cadre":8185,"Ġbudge":8186,"nial":8187,"Ġamie":8188,"Ġave":8189,"ierge":8190,"estru":8191,"ido":8192,"erciaux":8193,"ateaux":8194,"Ġfabri":8195,"cade":8196,"fen":8197,"ĠNath":8198,"ector":8199,"ĠCelui":8200,"ĠKh":8201,"eroun":8202,"meuble":8203,"Alex":8204,"agas":8205,"Ġrevoir":8206,"Ġsemi":8207,"Ġvoies":8208,"lette":8209,"ria":8210,"MER":8211,"Ġsin":8212,"ĠBA":8213,"ĠGeorge":8214,"ĠCul":8215,"oma":8216,"ģ/":8217,"field":8218,"Ìģ/":8219,"Ġfonce":8220,"alk":8221,"atation":8222,"(\"#":8223,"rel":8224,"Ġpoigne":8225,"frige":8226,"cenn":8227,"Ġ350":8228,"entrer":8229,"Ġdiabe":8230,"apport":8231,"ĠLive":8232,"ĠSecr":8233,"ativite":8234,"Ġpresti":8235,"rup":8236,"lymp":8237,"atelier":8238,"Titre":8239,"Ġlol":8240,"ĠLeur":8241,"uetooth":8242,"sidents":8243,"lits":8244,"rose":8245,"Ġbless":8246,"Ġmass":8247,"views":8248,"ĠDj":8249,"Rel":8250,"nbsp":8251,"inquie":8252,"Ġplages":8253,"ĠCP":8254,"existe":8255,"Ġquasi":8256,"Ġcrim":8257,"has":8258,"Conse":8259,"ĠUs":8260,"Ġgon":8261,"Ġvibr":8262,"riment":8263,"ARL":8264,"Ġbie":8265,"uri":8266,"oline":8267,"Ġball":8268,"eneurs":8269,"Ġennem":8270,"oper":8271,"SL":8272,"destru":8273,"lior":8274,"acement":8275,"ĠNature":8276,"Ġlibres":8277,"Ġvon":8278,"Ol":8279,"ustom":8280,"yright":8281,"iale":8282,"ĠCOL":8283,"ĠLove":8284,"uary":8285,"arth":8286,"Ġcardi":8287,"post":8288,"chestre":8289,"otage":8290,"abeth":8291,"Spe":8292,"acquis":8293,"Ġpropor":8294,"ogo":8295,"Ġsw":8296,"rielle":8297,"Doc":8298,"NES":8299,"ĠEP":8300,"Ġbiais":8301,"Enf":8302,"tabli":8303,"Inte":8304,"paule":8305,"ĠDC":8306,"ĠMadame":8307,"Ġbro":8308,"main":8309,"ĠBes":8310,"ĠSuite":8311,"Ġ1993":8312,"ĠLand":8313,"Ġmathe":8314,"Ġlike":8315,"avir":8316,"Ġjanv":8317,"atou":8318,"Ġbonus":8319,"mal":8320,"ĠGol":8321,"Ġnez":8322,"Pad":8323,"Ġvoc":8324,"Ġbassin":8325,"ĠBag":8326,"Ġpres":8327,"ratures":8328,"Gra":8329,"ĠImages":8330,"ocier":8331,"trant":8332,"Ġvoile":8333,"Ġappuy":8334,"marrage":8335,"ĠResort":8336,"Ġmigr":8337,"udi":8338,"Ġmotifs":8339,"ĠHal":8340,"igo":8341,"Donc":8342,"ĠFourn":8343,"Ġade":8344,"Ġrepose":8345,"ĠðŁĻĤ":8346,"dicaux":8347,"hau":8348,"engage":8349,"impl":8350,"ĠCather":8351,"hol":8352,"ĠBeige":8353,"oyers":8354,"osa":8355,"Åĵurs":8356,"Ġaver":8357,"Ġsm":8358,"ĠPascal":8359,"ĠPeter":8360,"crim":8361,"Ġgren":8362,"1000":8363,">Â©":8364,"Ġnai":8365,"athie":8366,"Ġcolis":8367,"LC":8368,"ĠJeans":8369,"Ġventre":8370,"vale":8371,"atric":8372,"ĠRoche":8373,"ĠMarn":8374,"Ġaspir":8375,"loque":8376,"Main":8377,"Ġint":8378,"Ġprome":8379,"ĠSing":8380,"Ġaspect":8381,"onnex":8382,"ĠPale":8383,"light":8384,"ĠRene":8385,"drome":8386,"ycle":8387,"Ġglobal":8388,"tillon":8389,"ĠLer":8390,"Eur":8391,"ĠBase":8392,"ĠBir":8393,"odge":8394,"wan":8395,"onda":8396,"alents":8397,"Ġnorme":8398,"Ġaise":8399,"issons":8400,"ĠBD":8401,"Ġhuman":8402,"ĠIci":8403,"ĠWash":8404,"ĠStore":8405,"Ġfruit":8406,"ĠMr":8407,"ĠNO":8408,"Ġboucle":8409,"trices":8410,"ĠTrump":8411,"ĠMass":8412,"Ġvern":8413,"Ġench":8414,"010":8415,"yester":8416,"Ġmanuel":8417,"ĠMobile":8418,"Ġlutter":8419,"Ġ1970":8420,"Nouveau":8421,"Ġ:)":8422,"lem":8423,"ĠDistr":8424,"Lorsque":8425,"Ġcoll":8426,"Ġaccuse":8427,"Ġband":8428,"Prov":8429,"oldes":8430,"---":8431,"rom":8432,"ĠEau":8433,"Ġrire":8434,"Ġbarr":8435,"Ġmaqu":8436,"UP":8437,"automne":8438,"abel":8439,"Ġcrist":8440,"style":8441,"stat":8442,"Ġdestru":8443,"Ġriches":8444,"itale":8445,"ĠCG":8446,"sser":8447,"otique":8448,"ĠMER":8449,"Ġ1991":8450,"Ġsoldes":8451,"Ġjet":8452,"adem":8453,"aitent":8454,"Ġopen":8455,"siste":8456,"sten":8457,"Ġpaie":8458,"Loire":8459,"motion":8460,"Salle":8461,"vergne":8462,"Ġavent":8463,"Ġexerc":8464,"Ġfourni":8465,"mages":8466,"ĠPat":8467,"nove":8468,"Ġsouhai":8469,"Ġtouris":8470,"ĠTemps":8471,"Ġcoque":8472,"270":8473,"\";":8474,"ABLE":8475,"ĠAy":8476,"ouf":8477,"ĠBle":8478,"Ġps":8479,"Ġasc":8480,"ĠAnton":8481,"Liste":8482,"Ġcouper":8483,"230":8484,"extre":8485,"ciser":8486,"Ġfiable":8487,"tia":8488,"Ġfoule":8489,"biz":8490,"Sp":8491,"telle":8492,"mus":8493,"veiller":8494,"Ġcasque":8495,"Ġadmin":8496,"ĠJon":8497,"Ġplacer":8498,"Ġdebou":8499,"letter":8500,"audi":8501,"Ġante":8502,"Ġdiscre":8503,"Ġvrais":8504,"orges":8505,"nels":8506,"ĠAP":8507,"Ġproduc":8508,"ACK":8509,"inent":8510,"posez":8511,"Ġ115":8512,"ĠAche":8513,"240":8514,"ommer":8515,"proprie":8516,"Ġsince":8517,"Ġtrajet":8518,"AIRE":8519,"ĠFront":8520,"arkoz":8521,"Ġsauver":8522,"ĠTab":8523,"Ġdevons":8524,"Ġcorpor":8525,"Ġ233":8526,"Ġestim":8527,"jan":8528,"onnerie":8529,"mpire":8530,"gel":8531,"Ġinvit":8532,"ĠGame":8533,"ĠCasual":8534,"ĠAvenue":8535,"=>":8536,"entin":8537,"irl":8538,"Ġbisous":8539,"qw":8540,"DV":8541,"Ess":8542,"ĠVale":8543,"Centre":8544,"itor":8545,"Ġos":8546,"Dom":8547,"issue":8548,"Ġremis":8549,"Ġrede":8550,"ĠAf":8551,"Ġcertes":8552,"ĠBall":8553,"Ġvapeur":8554,"enay":8555,"ĠGare":8556,"voluer":8557,"annage":8558,"Ġmodule":8559,"2003":8560,"loigne":8561,"ombie":8562,"ĠPerr":8563,"institu":8564,"mit":8565,"YS":8566,"Ġassi":8567,"210":8568,"endr":8569,"ĠCler":8570,"nant":8571,"ĠCeci":8572,"cler":8573,"observ":8574,"AK":8575,"Ġpse":8576,"ĠChef":8577,"ERE":8578,"fendre":8579,"Noir":8580,"ĠeBay":8581,"franc":8582,"ĠDub":8583,"Ġvacc":8584,"ĠAussi":8585,"aqu":8586,"ĠSub":8587,"onnais":8588,"tid":8589,"cologie":8590,"bal":8591,"och":8592,"istres":8593,"ĠRoi":8594,"Ġincom":8595,"stein":8596,">âĢĶ":8597,"ply":8598,"Ġres":8599,"home":8600,"Ġroom":8601,"LET":8602,"dules":8603,"FI":8604,"Ġrus":8605,"passer":8606,"ĠSM":8607,"'<":8608,"Ġjuil":8609,"tick":8610,"ray":8611,"Ġrelax":8612,"ĠVoy":8613,"Ġsatell":8614,"Ġissus":8615,"Ġtendre":8616,"ĠWork":8617,"Ġriv":8618,"ĠBad":8619,"tan":8620,"ĠFar":8621,"Ġsols":8622,"ben":8623,"selle":8624,"$[":8625,"ĠAutom":8626,"Ġraff":8627,"ĠReal":8628,"licite":8629,"456":8630,"irts":8631,"ĠForce":8632,"Ġhigh":8633,"changer":8634,"ĠBud":8635,"Denis":8636,"ĠDure":8637,"alcool":8638,"Ġacteur":8639,"ĠMark":8640,"Ġinflu":8641,"âĢľ":8642,"Ġroutes":8643,"Long":8644,"Ġlampe":8645,"inite":8646,"aka":8647,"ĠLien":8648,"olle":8649,"ied":8650,"Acheter":8651,"ĠJune":8652,"hop":8653,"isco":8654,"Ġ->":8655,"Ġpneu":8656,"Ġgel":8657,"ĠÌĪ":8658,"ĠCollec":8659,"Ġfasc":8660,"cement":8661,"ĠPalais":8662,"faite":8663,"Ġbatt":8664,"utilis":8665,"]+$[":8666,"Sau":8667,"Ġmilit":8668,"ĠPAS":8669,"ĠBruno":8670,"quable":8671,"ished":8672,"Ġsavent":8673,"ĠVau":8674,"emp":8675,"oys":8676,"ĠMand":8677,"tilles":8678,"Î¿":8679,"Service":8680,"efour":8681,"blanc":8682,"All":8683,"oine":8684,"nis":8685,"Ġventil":8686,"ÆĴ":8687,"ilet":8688,"ĠâĻ¥":8689,"ĠMarne":8690,"TIONS":8691,"Oc":8692,"ĠGas":8693,"queur":8694,"Ġclin":8695,"gon":8696,"CES":8697,"Ġpp":8698,"ĠLondon":8699,"ĠáĦ":8700,"Ġmajor":8701,"sante":8702,"tituent":8703,"gt":8704,"RAND":8705,"Ġiphone":8706,"nergies":8707,"ĠGh":8708,"PO":8709,"rimente":8710,"Ġinu":8711,"caire":8712,"Ġtox":8713,"ĠJam":8714,"Ġgi":8715,"tropole":8716,"Jul":8717,"ICH":8718,"tront":8719,"Ġcorde":8720,"arkozy":8721,"hs":8722,"point":8723,"Auc":8724,"Ġner":8725,"anna":8726,"Ġmets":8727,"Ġargu":8728,"ights":8729,"pent":8730,"Ġforts":8731,"visible":8732,"Ġlaine":8733,"ĠâĨĴ<":8734,"arpins":8735,"itures":8736,"ĠAgence":8737,"bats":8738,"Ġajout":8739,"oureux":8740,"Ġriz":8741,"ĠColor":8742,"riphe":8743,"ĠVoila":8744,"bilite":8745,"Ġhauts":8746,"Ġpommes":8747,"Ġmagie":8748,"urite":8749,"anges":8750,"letin":8751,"ĠUnique":8752,"ĠRa":8753,"ĠCoton":8754,"big":8755,"ĠFrais":8756,"Ġlux":8757,"Ġ220":8758,"Ġoffice":8759,"ĠParce":8760,"ĠOuvert":8761,"ouvrage":8762,"you":8763,"Porte":8764,"ĠHel":8765,"Ġtalent":8766,"bin":8767,"ĠPopul":8768,"Ġreleve":8769,"Ġexplic":8770,"ĠDisney":8771,"ĠAide":8772,"anner":8773,"Ġ:-":8774,"Ġexce":8775,"lt":8776,"ĠEL":8777,"Cher":8778,"Ġfortes":8779,"Ġjean":8780,"ÌĤâĤ¬":8781,"attente":8782,"voie":8783,"antie":8784,"ĠSus":8785,"Bibli":8786,"Mots":8787,"ĠPlage":8788,"Ġplay":8789,"rait":8790,"aba":8791,"Ġlate":8792,"OUV":8793,"Ġ750":8794,"Chaque":8795,"ĠAsi":8796,"Aj":8797,"Ġdiplom":8798,"aillant":8799,"Ainsi":8800,"Ġrideau":8801,"Ġattire":8802,"Ġimpo":8803,"Toute":8804,"ĠShe":8805,"wq":8806,"raires":8807,"icale":8808,"ĠMarch":8809,"ĠPA":8810,"Ġtables":8811,"ĠLim":8812,"Ġauthor":8813,"ĠOutil":8814,"ift":8815,"Ġprotoc":8816,"autom":8817,"ĠGRAT":8818,"ĠEner":8819,"Ġsch":8820,"SK":8821,"tenus":8822,"neuve":8823,"Ġpince":8824,"ĠCAP":8825,"ĠLampe":8826,"Ġoppose":8827,"ĠProp":8828,"yan":8829,"Ġpiano":8830,"ĠAnth":8831,"lang":8832,"Ġ075":8833,"Ġrepris":8834,"ĠGel":8835,"Claude":8836,"Ġaperc":8837,"adapter":8838,"Ġwhich":8839,"PN":8840,"ĠRef":8841,"ĠQuant":8842,"ĠJusqu":8843,"Ġdoigts":8844,"ĠTrib":8845,"ĠCompar":8846,"cale":8847,"oriale":8848,"Ġ1989":8849,"212":8850,"Ġcondu":8851,"mg":8852,"oda":8853,"inger":8854,"ĠGall":8855,"Jacques":8856,"ĠMade":8857,"Andre":8858,"uriers":8859,"Ġacqu":8860,"ĠMah":8861,"ĠOuest":8862,"Ġaxe":8863,"ĠGPS":8864,"xy":8865,"endeur":8866,"Ġflash":8867,"auteuil":8868,"onder":8869,"[/":8870,"Ġtennis":8871,"voyer":8872,"servoir":8873,"Ġcool":8874,"diger":8875,"Str":8876,"Ġdet":8877,"Ġprenez":8878,"ĠDay":8879,"Ġger":8880,"fugie":8881,"ĠTalon":8882,"ĠPO":8883,"Ġpun":8884,"Ġmons":8885,"ĠkmHo":8886,"grand":8887,"tituer":8888,"Ġjourn":8889,"session":8890,"Face":8891,"inez":8892,"ĠToile":8893,"dresses":8894,"dor":8895,"Name":8896,"phon":8897,"umeurs":8898,"ĠSet":8899,"tale":8900,"acif":8901,"Ġangle":8902,"ula":8903,"Sous":8904,"livr":8905,"bis":8906,"issaire":8907,"quite":8908,"thique":8909,"ĠFord":8910,"Ġvenue":8911,"ĠLed":8912,"ĠChron":8913,"itions":8914,"~~~~":8915,"stern":8916,"Ġrachat":8917,"Ġfilie":8918,"acy":8919,"tiful":8920,"Martin":8921,"kh":8922,"ĠHiver":8923,"chargez":8924,"FE":8925,"baye":8926,"ĠXIX":8927,"Ġikea":8928,"techn":8929,"HD":8930,"asseurs":8931,"ĠFu":8932,"ĠTags":8933,"ouvel":8934,"Quelle":8935,"ĠCasino":8936,"outez":8937,"cio":8938,"cider":8939,"ANG":8940,"Ġbiz":8941,"ĠIle":8942,"Ġpvc":8943,"Ġfoyer":8944,"ĠREN":8945,":\\":8946,"Ġfuture":8947,"ĠApr":8948,"cus":8949,"ĠPop":8950,"sar":8951,"Cert":8952,"Mise":8953,"emb":8954,"mois":8955,"ĠDun":8956,"das":8957,"ibuteur":8958,"Ġcialis":8959,"atar":8960,"atine":8961,"ĠSimon":8962,"loge":8963,"AZ":8964,"ĠHousse":8965,"ĠBoi":8966,"ĠEspace":8967,"Ġcomble":8968,"Ġsauce":8969,"Ġcous":8970,"Ġpath":8971,"cir":8972,"ĠRide":8973,"Ġcauses":8974,"Ġstric":8975,"Ġpaire":8976,"ĠSyrie":8977,"very":8978,"igines":8979,"oeil":8980,"iet":8981,"rake":8982,"hydr":8983,"ĠMaz":8984,"ÑĮ":8985,"Ġbrun":8986,"978":8987,"ĠRien":8988,"onal":8989,"ĠXL":8990,"outchou":8991,"ĠCannes":8992,"Ġ1960":8993,"forum":8994,"Ġgastr":8995,"Ġsom":8996,"ĠMalgre":8997,"mode":8998,"otype":8999,"Contr":9000,"Ġbad":9001,"ĠFonds":9002,"ĠWith":9003,"Ġtonnes":9004,"[]+[]":9005,"jete":9006,"Eff":9007,"ĠMONT":9008,"zi":9009,"Ġcadres":9010,"ĠPos":9011,"Ġitine":9012,"oblig":9013,"voy":9014,"OO":9015,"bd":9016,"ptez":9017,"mai":9018,"Ġvivent":9019,"arium":9020,"ĠCanadi":9021,"ĠNorth":9022,"ĠBasses":9023,"vident":9024,"ĠLangue":9025,"ĠLumie":9026,"ĠTalons":9027,"ĠPay":9028,"stant":9029,"DT":9030,"LL":9031,"Ġadvers":9032,"ĠPuma":9033,"ampo":9034,"ajouter":9035,"Ġroues":9036,"ORD":9037,"ĠTrain":9038,"AI":9039,">âĨĲ":9040,"Ġtissus":9041,"ĠDre":9042,"ignez":9043,"bie":9044,"ĠUltra":9045,"ĠBell":9046,"ĠThr":9047,"sertion":9048,",...":9049,"Cha":9050,"Ġavenir":9051,"pass":9052,"truite":9053,"gou":9054,"AMP":9055,"Ġcaisse":9056,"233":9057,"Ġsuppre":9058,"CP":9059,"Ġrect":9060,"anisme":9061,"alm":9062,"trai":9063,"ĠVern":9064,"Ġgolf":9065,"NO":9066,"ĠLibr":9067,"ĠDar":9068,"Ġdette":9069,"ĠBang":9070,"ĠCart":9071,".),":9072,"ĠPER":9073,"ģ...<":9074,"pli":9075,"Ìģ...<":9076,"ĠMans":9077,"display":9078,"ision":9079,"moires":9080,"ĠMarcel":9081,"ĠDark":9082,"ancourt":9083,"Autre":9084,"ĠPU":9085,"dant":9086,"Ġballe":9087,"Ġvid":9088,"gente":9089,"ĠMicro":9090,"tites":9091,"Bonne":9092,"ĠTam":9093,"Her":9094,"ĠCourse":9095,"ailable":9096,"105":9097,"ĠKr":9098,"ĠKen":9099,"Ġode":9100,"atrices":9101,"ĠVolet":9102,"envoi":9103,"ĠArrive":9104,"Ġpneus":9105,"Ġtraces":9106,"Ġsage":9107,"ĠCase":9108,"Ġavenue":9109,"arement":9110,"ĠTF":9111,"ĠManuel":9112,"Ġmette":9113,"ĠTourn":9114,"ika":9115,"ĠParfum":9116,"Ġcoupon":9117,"Ġ(-":9118,"INI":9119,"nier":9120,"eview":9121,"Alge":9122,"Ġpromen":9123,"ĠBis":9124,"quait":9125,"grade":9126,"Ġpomp":9127,"ISON":9128,"Mus":9129,"Ġchic":9130,"riennes":9131,"ĠBos":9132,"cile":9133,"We":9134,"tesse":9135,"Sou":9136,"Ġcitron":9137,"Ġnoel":9138,"review":9139,"ĠGrey":9140,"Angle":9141,"ĠSony":9142,"ĠFormat":9143,"Ġrayon":9144,"Sans":9145,".....":9146,"Ġbil":9147,"Ġfroide":9148,"ĠInscri":9149,"DG":9150,"ĠMB":9151,"Ġavion":9152,"Ġ,<":9153,"Ð¼":9154,"Ġarriv":9155,"iquent":9156,"Ġemp":9157,"ĠRol":9158,"ĠHard":9159,"effe":9160,"Sign":9161,"Ġmoulin":9162,"Ġservie":9163,"ologues":9164,"Ġprocur":9165,"Ġbol":9166,"Ġvolu":9167,"Ġnoc":9168,"Element":9169,"ĠPsych":9170,"Ñĭ":9171,"Ġprovin":9172,"MT":9173,"olk":9174,"Ġessais":9175,"ĠCarre":9176,"olive":9177,"tou":9178,"illis":9179,"Ġlaver":9180,"ops":9181,"Ġrecul":9182,"Ġarche":9183,"icolage":9184,"Ġhall":9185,"Ġadmir":9186,"ĠChaud":9187,"ĠBru":9188,"emplace":9189,"Ġindem":9190,"nique":9191,"ĠArch":9192,"ĠTours":9193,"\":\"\",\"":9194,"Ġabou":9195,"ĠGilles":9196,"bn":9197,"Marc":9198,"ĠWall":9199,"Ġsaisir":9200,"examen":9201,"Ġsand":9202,"Faire":9203,"Champ":9204,"ĠYves":9205,"Ġcuivre":9206,"ĠCHF":9207,"350":9208,"Ġlabel":9209,"ases":9210,"Ju":9211,"ĠCelle":9212,"Ġgain":9213,"Ġexam":9214,"ĠAudi":9215,"Ġconnus":9216,"essayer":9217,"stan":9218,"PRO":9219,"claire":9220,"amed":9221,"Acce":9222,"RC":9223,"cede":9224,"sist":9225,"rak":9226,"ĠTit":9227,"sire":9228,"andises":9229,"augment":9230,"acier":9231,"width":9232,"stance":9233,"tenez":9234,"autaire":9235,"Access":9236,"aillent":9237,"ĠTRA":9238,"oisie":9239,"ĠFire":9240,"ĠSab":9241,"Ġ450":9242,"ĠGolf":9243,"ageux":9244,"ĠReg":9245,"Ġavocat":9246,"Ġrecevr":9247,"ĠJour":9248,"levage":9249,"ĠBrown":9250,"drale":9251,"Ġmarron":9252,"onnable":9253,">/":9254,"Ġleve":9255,"Ġperce":9256,"Ġlourde":9257,"%)":9258,"ĠTok":9259,"ĠCorse":9260,"Ġjo":9261,"180":9262,"ĠRT":9263,"quare":9264,"Rece":9265,"Ġspati":9266,"Ġ\"<":9267,"Modifie":9268,"Ġtuyau":9269,"brer":9270,"ĠBMW":9271,"áħ®":9272,"ĠMoto":9273,"ĠLife":9274,"Ġcroix":9275,"Ġfameux":9276,"ĠLar":9277,"intro":9278,"idth":9279,"ocus":9280,"arts":9281,"cin":9282,"ĠDeco":9283,"oubliez":9284,"OURS":9285,"books":9286,"mental":9287,"ĠTeam":9288,"oler":9289,"ĠES":9290,"rus":9291,"esser":9292,"Ġamene":9293,"ĠData":9294,"Fer":9295,"uploads":9296,"Ġretire":9297,"Ġhoriz":9298,"glome":9299,"larg":9300,"Hor":9301,"ĠMaria":9302,"inant":9303,"Ġavr":9304,"ĠLO":9305,"VI":9306,"ĠSophie":9307,"rete":9308,"isson":9309,"fet":9310,"Ġsouple":9311,"Ġgame":9312,"Ġinse":9313,"Ġsoupe":9314,"ĠJaune":9315,"Ġpalais":9316,"Ġplomb":9317,"ĠFou":9318,"qua":9319,"Ġsl":9320,"sl":9321,"Ġ(Â«":9322,"oney":9323,"hib":9324,"Ġhouse":9325,"Ġaccept":9326,"lique":9327,"avie":9328,"Ġfibre":9329,"Bar":9330,"Øª":9331,"Ġurbain":9332,"iend":9333,"unt":9334,"Ġambi":9335,"hous":9336,"dar":9337,"aum":9338,"uffet":9339,"orise":9340,"Ġsond":9341,"Ġfarine":9342,"Ġdram":9343,"Photos":9344,"ollow":9345,"ĠWater":9346,"rin":9347,"ĠBol":9348,"apin":9349,"rure":9350,"ilier":9351,"Ġmn":9352,"FO":9353,"ÃĹ":9354,"ections":9355,"ĠAugu":9356,"Ġagir":9357,"issu":9358,"%.":9359,"chal":9360,"Ġfonc":9361,"Ġfa":9362,"Ġalge":9363,"hotel":9364,"mag":9365,"Ġpause":9366,"Ġvac":9367,"orraine":9368,"Ġtiens":9369,"900":9370,"ecue":9371,"affiche":9372,"Ġessai":9373,"ĠBus":9374,"ocats":9375,"cop":9376,"vain":9377,"ĠMilan":9378,"ĠRevue":9379,"bours":9380,"dieu":9381,"Ġdites":9382,"Ġexerce":9383,"ĠFiche":9384,"Ġvenus":9385,"occupe":9386,"vy":9387,"Ġtaxes":9388,"320":9389,"ĠSupe":9390,"Ġasi":9391,"pine":9392,"agnon":9393,"ardo":9394,"ĠVill":9395,"histor":9396,"Ref":9397,"adhe":9398,"ĠLace":9399,"Ġaborde":9400,"vious":9401,"Ġcoc":9402,"analy":9403,"ciaux":9404,"esthe":9405,"utor":9406,"ĠUK":9407,"Canada":9408,"iving":9409,"ĠAVE":9410,"endra":9411,"ĠIsland":9412,"gs":9413,"wh":9414,"ĠLongue":9415,"actifs":9416,"ĠLibre":9417,"ĠBarr":9418,"avirus":9419,"ĠGE":9420,"ĠRet":9421,"Ġmurale":9422,"Ġvesti":9423,"Bois":9424,"Ġmut":9425,"Ġplant":9426,"ĠNett":9427,"tual":9428,"Ġ1988":9429,"ele":9430,"Ġmole":9431,"Ġthr":9432,"Ġlever":9433,"Dame":9434,"Ġlaser":9435,"Ġvig":9436,"ypt":9437,"Ġ7501":9438,"hu":9439,"Ġhal":9440,"Ġjambes":9441,"aurait":9442,"XL":9443,"Ġtunis":9444,"Ġboulot":9445,"ĠSimple":9446,"sistant":9447,"uba":9448,"liminer":9449,"Ġtaches":9450,"ATIONS":9451,"Ġmp":9452,"brite":9453,"ĠCant":9454,"Ġfasse":9455,"Ġna":9456,"CM":9457,"ĠMali":9458,"Ġprends":9459,"Ġsombre":9460,"Ġaupar":9461,"Cer":9462,"ees":9463,"Ġconte":9464,"olies":9465,"ĠTHE":9466,"ĠFau":9467,"ymn":9468,"formite":9469,"ĠProgr":9470,"ĠBref":9471,"ĠCout":9472,"Ġcarton":9473,"dil":9474,"war":9475,"item":9476,"adaire":9477,"crites":9478,"omi":9479,"iler":9480,"ĠDisc":9481,"Ġmodel":9482,"gend":9483,"ĠUSD":9484,"Ġralen":9485,"ĠAix":9486,"ATE":9487,"abri":9488,"ĠBill":9489,"ĠNot":9490,"ĠJoe":9491,"Nike":9492,"appy":9493,"ĠClim":9494,"umul":9495,"Ġmos":9496,"Ġang":9497,"Ali":9498,"Ġarbre":9499,"Ġvenez":9500,"Ġbasket":9501,"VILLE":9502,"ĠCONT":9503,"offrir":9504,"not":9505,"preuves":9506,"Ùĩ":9507,"ogement":9508,"cedes":9509,",...<":9510,"ĠIkea":9511,"Ġdormir":9512,"Ġexamen":9513,"Â¢":9514,"ramique":9515,"Ġsortes":9516,"ĠDR":9517,"fice":9518,"dal":9519,"frai":9520,"Ġappels":9521,"Ġmixte":9522,"Ġille":9523,"ouverne":9524,"aser":9525,"lire":9526,"Ġboire":9527,"ĠRh":9528,"ĠUNE":9529,"agrap":9530,"ĠMons":9531,"chy":9532,"Er":9533,"alem":9534,"thod":9535,"FT":9536,"ielles":9537,"fam":9538,"Ġsouver":9539,"ĠPME":9540,"tendue":9541,"paris":9542,"Ġdivise":9543,"ĠPRI":9544,"Ġcasser":9545,"ĠRead":9546,"ĠAfin":9547,"labore":9548,"Retour":9549,"lay":9550,"triche":9551,"Ġrefle":9552,"Jeux":9553,"Ġadidas":9554,"ĠRES":9555,"Ġrez":9556,"Ġvive":9557,"osses":9558,"ĠCv":9559,"phine":9560,"ĠHa":9561,"vus":9562,"ĠSamedi":9563,"Ġadmis":9564,"Ġjoint":9565,"Ġneuve":9566,"ĠVue":9567,"ĠRoman":9568,"::":9569,"maison":9570,"antane":9571,"Hy":9572,"Ġhonor":9573,"Cours":9574,"ĠEtat":9575,"BD":9576,"dez":9577,"Ġneufs":9578,"Ġvag":9579,"Ġmince":9580,"titudes":9581,"nn":9582,"Point":9583,"Ġ240":9584,"mises":9585,"Ġdun":9586,"ĠCorr":9587,"asp":9588,"App":9589,"Min":9590,"ea":9591,"ĠÏ":9592,"unions":9593,"Ġvague":9594,"ĠHil":9595,"Ġdigne":9596,"Ġsoigne":9597,"asis":9598,"Ġaigu":9599,"thur":9600,"obi":9601,"essai":9602,"Inde":9603,"dating":9604,"riodes":9605,"ĠCoul":9606,"ĠPyre":9607,"edans":9608,"ĠSD":9609,"Ġpin":9610,"minaire":9611,"Ġstu":9612,"Ġmiel":9613,"quente":9614,"WE":9615,"CHAR":9616,"ĠâĤ¬/":9617,"Atlan":9618,"trand":9619,"2001":9620,"ĠLem":9621,"Ġ[\"":9622,"kes":9623,"Ġkn":9624,"strong":9625,"ĠHot":9626,"ĠAk":9627,"ĠPVC":9628,"mol":9629,"ompes":9630,"doun":9631,"ÌĢ<":9632,"ĠNancy":9633,"ĠAug":9634,"Ġlistes":9635,"âĺ":9636,"Ġpli":9637,"dl":9638,"Ġ??":9639,"ettre":9640,"Ġqualif":9641,"ISSE":9642,"Ġisrae":9643,"ĠPass":9644,"aspect":9645,"ockey":9646,"ģ\"":9647,"450":9648,"dame":9649,"Ìģ\"":9650,"amis":9651,"ARE":9652,"ione":9653,"ĠðŁĺī":9654,"ĠGroup":9655,"titions":9656,"Mag":9657,"ĠCAS":9658,"Ġimprim":9659,"ĠSir":9660,"ĠRA":9661,"oses":9662,"ignent":9663,"conscri":9664,"ĠMoc":9665,"dedans":9666,"source":9667,"prem":9668,"\\/\\/":9669,"ordon":9670,"ĠBoule":9671,"Ġpape":9672,"Tour":9673,"Ġbrill":9674,"Meille":9675,"CN":9676,"ĠCharge":9677,"ĠAction":9678,"libe":9679,"360":9680,"Ġspa":9681,"ĠRO":9682,"Ġdite":9683,"Ġpomme":9684,"dresser":9685,"âĢļ":9686,"dict":9687,"Rho":9688,"OME":9689,"ns":9690,"Ġmarge":9691,"ĠSortie":9692,"izza":9693,"lar":9694,"amor":9695,"orre":9696,"Ġpique":9697,"Ġpolyv":9698,"Max":9699,"clame":9700,"Ivoire":9701,"uki":9702,"eal":9703,"ĠDol":9704,"Ġlongs":9705,"Afin":9706,"VAL":9707,"Ġrall":9708,"ĠTel":9709,"ĠEST":9710,"Office":9711,"Terr":9712,"ĠWomen":9713,"ĠTa":9714,"canisme":9715,"film":9716,"ĠVenez":9717,"Ġcercle":9718,"zie":9719,"abi":9720,"ĠOffre":9721,"idon":9722,"ILE":9723,"Ġbit":9724,"Ġprojec":9725,"adie":9726,"ĠSum":9727,"Tube":9728,"Ġnoirs":9729,"bor":9730,"Ġacque":9731,"mate":9732,"AUD":9733,"ĠPil":9734,"ĠLeroy":9735,"appui":9736,"tech":9737,"ENE":9738,"RIC":9739,"MES":9740,"gout":9741,"tonne":9742,"dons":9743,"Ġtrente":9744,"feu":9745,"lotte":9746,"Ġlitres":9747,"Ġprince":9748,"access":9749,"ĠSoft":9750,"ills":9751,"Rob":9752,"doul":9753,"ĠCRE":9754,"Ġ105":9755,"9999":9756,"arthe":9757,"Â».<":9758,"Ġshirt":9759,"ĠSmith":9760,"Ġsexy":9761,"ella":9762,"ĠPul":9763,"ango":9764,"Ġposted":9765,"hommes":9766,"Ġinsuff":9767,"posant":9768,"wear":9769,"VO":9770,"orique":9771,"mentale":9772,"Ġcabine":9773,"ajoute":9774,"Ġtole":9775,"onniers":9776,"lien":9777,"fecture":9778,"ĠSouth":9779,"ĠChange":9780,"ĠRoger":9781,"Blanc":9782,"ĠViv":9783,"Ġ1986":9784,"Ġ$('#":9785,"260":9786,"ĠVF":9787,"Ġfuturs":9788,"ĠKey":9789,"pad":9790,"ĠMAN":9791,"ittle":9792,"Ġnull":9793,"Ġorth":9794,"Ġparl":9795,"encent":9796,"Gre":9797,"AFP":9798,"ĠVER":9799,"ä¸":9800,"arl":9801,"Ġcongre":9802,"sub":9803,"Ġrense":9804,"Ġits":9805,"enseur":9806,"IZ":9807,"Up":9808,"ĠAT":9809,"Ġprud":9810,"Ġmyth":9811,"ĠWin":9812,"Couleur":9813,"divers":9814,"mel":9815,"optim":9816,"Ġmalade":9817,"asso":9818,"ĠNik":9819,"ĠHand":9820,"DD":9821,"ĠLion":9822,"cut":9823,"ĠVienne":9824,"ĠSK":9825,"ĠRub":9826,"GS":9827,"Mis":9828,"ĠXIXe":9829,"giques":9830,">Â·":9831,"ĠSuites":9832,"Ġexten":9833,"Ġclic":9834,"venus":9835,"ĠVu":9836,"cline":9837,"Ġalli":9838,"Ġrelais":9839,"news":9840,"Ġvertu":9841,"espoir":9842,"ĠFlash":9843,"nomme":9844,"Ġcosme":9845,"aze":9846,"Mate":9847,"lect":9848,"Comp":9849,"Ġtrompe":9850,"jamin":9851,"prov":9852,"clat":9853,"ĠOx":9854,"tresse":9855,"OSS":9856,"ency":9857,"ĠÅĵu":9858,"weet":9859,"Ġjoy":9860,"opte":9861,"Ġgend":9862,"ĠShoes":9863,"ĠDevis":9864,"arise":9865,"ĠBla":9866,"ulum":9867,"stock":9868,"ĠDJ":9869,"Ġverts":9870,"ĠPoly":9871,"106":9872,"ĠDa":9873,"amas":9874,"Ġrit":9875,"ĠFly":9876,"alentin":9877,"Ġlune":9878,"Ġrub":9879,"umine":9880,"Ð´":9881,"embl":9882,"Black":9883,"noc":9884,"occuper":9885,"Ġduo":9886,"Ġdente":9887,"ternite":9888,"Ġcock":9889,"Ġcanada":9890,"Ġ),":9891,"ĠOce":9892,"Ġabsor":9893,"Ie":9894,"ĠFull":9895,"$$":9896,"##":9897,"ĠProjet":9898,"ĠCite":9899,"Ġmotive":9900,"cp":9901,"beau":9902,"Ġale":9903,"Ġtrue":9904,"ĠBau":9905,"tateur":9906,"anca":9907,"Ġparas":9908,"Ġespagn":9909,"AE":9910,"pus":9911,"ĠConf":9912,"atio":9913,"ĠToy":9914,"ĠMonaco":9915,"Loc":9916,"Ġfun":9917,"Ġcotis":9918,"stine":9919,"tle":9920,"Ġreine":9921,"aptiste":9922,"ĠTir":9923,"prop":9924,"itchen":9925,"ermo":9926,"Ġrate":9927,"Ø©":9928,"BB":9929,"Ġmout":9930,"tisseur":9931,"ORE":9932,"win":9933,"====":9934,"porteur":9935,"Ġvieill":9936,"fac":9937,"Ġdisant":9938,"ĠMau":9939,"Ġmade":9940,"aura":9941,"agny":9942,"ĠCongre":9943,"ĠÐ²":9944,"nouve":9945,"Acade":9946,"Ġhonne":9947,"tip":9948,"Ġstop":9949,"Fre":9950,"via":9951,"oxy":9952,"ĠContin":9953,"ĠCah":9954,"TML":9955,"Ġtomb":9956,"find":9957,"Ġnau":9958,"endance":9959,"euts":9960,"Ġaides":9961,"ĠPresse":9962,"elly":9963,"crans":9964,"centes":9965,"Ġstyles":9966,"resp":9967,"manie":9968,"Ġfinit":9969,"tuelles":9970,"ĠMidi":9971,"sterdam":9972,"104":9973,"ĠPois":9974,"Ġgeste":9975,"ignac":9976,"ulsion":9977,"ĠCS":9978,"ĠPolo":9979,"inse":9980,"ĠChan":9981,"doune":9982,"Cliquez":9983,"ĠTapis":9984,"Inscri":9985,"Ġjun":9986,"arget":9987,"ĠCDI":9988,"cau":9989,"parence":9990,"Ġarti":9991,"erreur":9992,"quante":9993,"ĠLocal":9994,"Ġmay":9995,"yer":9996,"OND":9997,"Ġ1978":9998,"Ġbasses":9999,"Ġ1987":10000,"Ġds":10001,"eld":10002,"carte":10003,"Caracte":10004,"Ġchats":10005,"ĠVall":10006,"ĠRoad":10007,"ĠCourt":10008,"pol":10009,"Ġturb":10010,"Ġveste":10011,"Ġador":10012,"ĠRange":10013,"Li":10014,"Ġlove":10015,"Ġdens":10016,"Vendre":10017,"ĠCOMP":10018,"exp":10019,"htm":10020,"hai":10021,"ĠGL":10022,"Mic":10023,"Ġnor":10024,"oder":10025,"ĠClaire":10026,"diens":10027,"nale":10028,"Ġprovis":10029,"ĠRess":10030,"Ġbleue":10031,"Lo":10032,"ypto":10033,"ĠLan":10034,"ĠAdulte":10035,"Laurent":10036,"sche":10037,"Groupe":10038,"Ġsignif":10039,"ĠDidier":10040,"Ġmare":10041,"ski":10042,"ĠSlim":10043,"Ġdisait":10044,"minine":10045,"Ġspr":10046,"Robe":10047,"Ġlicenc":10048,"Ġulte":10049,"ophones":10050,"ĠLic":10051,"grad":10052,"champ":10053,"Bo":10054,"ĠBack":10055,"007":10056,"ĠAVEC":10057,"Ġlanc":10058,"bra":10059,"Ġgraves":10060,"ĠÂ¤":10061,"ĠJordan":10062,"Ġposter":10063,"ONG":10064,"Îµ":10065,"ĠPull":10066,"soci":10067,"jor":10068,"Ġalim":10069,"quement":10070,"outine":10071,"Ġ1985":10072,"inette":10073,"2002":10074,"tages":10075,"Samedi":10076,"iquant":10077,"âĻ¥":10078,"ubles":10079,"Ġvole":10080,"eufs":10081,"Anim":10082,"ĠAnsw":10083,"bach":10084,"ĠRH":10085,"Ġrayons":10086,"Ġalso":10087,"Fiche":10088,"ĠINTER":10089,"ĠDor":10090,"Ġexcl":10091,"ĠFeu":10092,"rame":10093,"ĠDiff":10094,"ĠPlate":10095,"Ġ1984":10096,"Lien":10097,"ĠAur":10098,"Ġorg":10099,"AME":10100,"Ġcave":10101,"icide":10102,"ĠKm":10103,"pot":10104,"Ġsoc":10105,"DM":10106,"inverse":10107,"obiles":10108,"diff":10109,"quage":10110,"dog":10111,"Ġtuer":10112,"ĠMary":10113,"Ġrobot":10114,"Ġciter":10115,"envoyer":10116,"marrer":10117,"Ġstable":10118,"Ġbronze":10119,"cules":10120,"ĠPose":10121,"odes":10122,"siles":10123,"ĠClient":10124,"pais":10125,"ĠSel":10126,"Ġcoco":10127,"fast":10128,"Ġblinde":10129,"Mem":10130,"ĠSanta":10131,"Sec":10132,"ĠPress":10133,"Gen":10134,"alia":10135,"ariste":10136,"Ġclip":10137,"ĠRoute":10138,"coin":10139,"ĠHan":10140,"Ġstart":10141,"sem":10142,"ĠSocial":10143,"Gl":10144,"SUR":10145,"Ġmorale":10146,"arbre":10147,"outs":10148,"omie":10149,"ĠCongo":10150,"BS":10151,"Ġaid":10152,"world":10153,"diteurs":10154,"Emploi":10155,"Forum":10156,"iendr":10157,"glable":10158,"HT":10159,"Ġki":10160,"ĠHos":10161,"ective":10162,"ĠGraph":10163,"link":10164,"Ġinv":10165,"adou":10166,"Ġsonore":10167,"ĠSoldes":10168,"Ġ×":10169,"ĠSolu":10170,"OX":10171,"phonie":10172,"ASSE":10173,"ĠEncore":10174,"down":10175,"...).":10176,"andon":10177,"ough":10178,"nal":10179,"Sim":10180,"Ġferont":10181,"vasion":10182,"Syste":10183,".:":10184,"pri":10185,"CTION":10186,"ĠVideo":10187,"ouleurs":10188,"ovic":10189,"Ġsrc":10190,"ntry":10191,"sit":10192,"ĠVit":10193,"Sor":10194,"Ø¯":10195,"Ġled":10196,"...),":10197,"Ġcouvre":10198,"onto":10199,"Ġsolo":10200,"note":10201,"ĠSeries":10202,"uber":10203,"cipl":10204,"robe":10205,"ĠCook":10206,"Ġleroy":10207,"colte":10208,"ONU":10209,"ĠCri":10210,"Ġ''":10211,"otation":10212,"IES":10213,"ĠTER":10214,"ĠFene":10215,"Lib":10216,"115":10217,"116":10218,"Ġmerlin":10219,"Ġconjug":10220,"omis":10221,"abonne":10222,"AIR":10223,"oms":10224,"Ġcra":10225,"douard":10226,"ĠSoire":10227,"arche":10228,"Ġbandes":10229,"Anti":10230,"Ġbrise":10231,"Î½":10232,"ĠSce":10233,"Ġdame":10234,"Ġplur":10235,"ĠIntro":10236,"Ġtheir":10237,"glage":10238,"demment":10239,"nil":10240,"Ġjume":10241,"ĠBourse":10242,"citer":10243,"Ġtriste":10244,"ousses":10245,"epar":10246,"ssive":10247,"buts":10248,"Ġcroit":10249,"Ġconque":10250,"cois":10251,"Ġbaie":10252,"gulier":10253,"quettes":10254,"eller":10255,"Trav":10256,"gine":10257,"turn":10258,"Ecole":10259,"Ġ046":10260,"iiii":10261,"TU":10262,"Ĺı":10263,"tue":10264,"Op":10265,"Ġdin":10266,"ĠDirect":10267,"Ġmam":10268,"oxe":10269,"HP":10270,",.":10271,"troit":10272,"223":10273,"Ġmanche":10274,"lamm":10275,"Eglise":10276,"Tw":10277,"ĠSexe":10278,"ionnats":10279,"Joueur":10280,"ĠRouen":10281,"ĠProte":10282,"sal":10283,"ailleur":10284,"Ġponc":10285,"Google":10286,"ĠVerre":10287,"148":10288,"GL":10289,"Ġpaquet":10290,"Ø¨":10291,"bio":10292,"Men":10293,"ĠBah":10294,"ĠEuro":10295,"Ġbattre":10296,"enses":10297,"ĠOK":10298,"Ġembr":10299,"Ġjaunes":10300,"ĠNEU":10301,"áħ¡":10302,"ĠManger":10303,"Ġpertes":10304,"intendo":10305,"pou":10306,"ĠROU":10307,"Ġcamion":10308,"Devis":10309,"doute":10310,"Esc":10311,"Ġ112":10312,"ĠSexy":10313,"door":10314,"Ġsue":10315,"Ġnoix":10316,"aven":10317,"ĠBijoux":10318,"cycl":10319,"alors":10320,"ĠTon":10321,"Ġdeco":10322,"imie":10323,"Ġlame":10324,"Ġfav":10325,"ilation":10326,"Ġcourts":10327,"Ġavais":10328,"Mai":10329,"lieu":10330,"\":[\"":10331,"ĠRun":10332,"Tem":10333,"ĠUnited":10334,"Ti":10335,"sau":10336,"store":10337,"Jus":10338,"Ġcoqu":10339,"ictions":10340,"UNE":10341,"Ġparu":10342,"Ġ()":10343,"ĠUnion":10344,"cutif":10345,"Ġget":10346,"Camp":10347,"109":10348,"ayon":10349,"iors":10350,"Ġlisse":10351,"ĠAndr":10352,"ristian":10353,"ĠEu":10354,"ober":10355,"Ġstore":10356,"langer":10357,"ĠKim":10358,"ĠImpre":10359,"onnaire":10360,"isement":10361,"ĠSerge":10362,"ĠCoque":10363,"acking":10364,"Ġbacte":10365,"igation":10366,"ĠTime":10367,"ulteurs":10368,"clam":10369,"rative":10370,"ĠDANS":10371,"bf":10372,"rd":10373,"ĠMerlin":10374,"ficiez":10375,"AMB":10376,"Ġjusque":10377,"Ġfermer":10378,"ĠPoids":10379,"Ġdiffer":10380,"ĠJoh":10381,"ados":10382,"ĠStud":10383,"Ġaiment":10384,"resser":10385,"velines":10386,"áħ®áĨ":10387,"Ġatta":10388,"Ġplanif":10389,"ecy":10390,"Ide":10391,"IK":10392,"bois":10393,"astre":10394,"AIS":10395,"ĠÂ£":10396,"ĠGood":10397,"Pa":10398,"Pie":10399,"ĠStan":10400,"ictionn":10401,"LM":10402,"ĠCOR":10403,"108":10404,"Ġjouets":10405,"ĠGil":10406,"ĠReims":10407,"Ġheb":10408,"nac":10409,"ĠOlymp":10410,">|-<":10411,"dys":10412,"ĠCF":10413,"ouson":10414,"áĦĤ":10415,"ĠAtlan":10416,"issa":10417,"Room":10418,"ĠSilver":10419,"ĠFrom":10420,"Ġeffort":10421,"Ġbourse":10422,"Ġlev":10423,"ĠEth":10424,"aissant":10425,"Ġsoeur":10426,"right":10427,"akar":10428,"ĠHou":10429,"ĠBach":10430,"Salut":10431,"Cop":10432,"ĠEduc":10433,"ĠYour":10434,"Ġmig":10435,"anning":10436,"313":10437,"ĠArc":10438,"issan":10439,"ĠFabric":10440,"Ġdedans":10441,"Ġday":10442,"licieux":10443,"riculum":10444,"Ġressor":10445,"ĠCyr":10446,"fore":10447,"ĠWars":10448,"ĠBOU":10449,"Ġdil":10450,"ĠPoe":10451,"else":10452,"ĠWood":10453,"ĠLimite":10454,"ĠActu":10455,"pm":10456,"nc":10457,"ĠMS":10458,"Ġfigur":10459,"Ġtenant":10460,"Ġvoter":10461,"indow":10462,"igre":10463,"Tarif":10464,"Ġaustr":10465,"ourg":10466,"watch":10467,"ĠCastel":10468,"oureuse":10469,"ticules":10470,"ampe":10471,"pha":10472,"zzi":10473,"âĢĿ.":10474,"Ġeut":10475,"ius":10476,"ĠConver":10477,"306":10478,"serves":10479,"ĠsÅĵur":10480,"Vos":10481,"ĠKer":10482,"ĠOP":10483,"ĠâĶ":10484,"Ġaimez":10485,"114":10486,"Ġinaug":10487,"ĠNuit":10488,"Ġcuille":10489,"ĠHu":10490,"HO":10491,"ĠCiv":10492,"Ġcertif":10493,"fit":10494,"uage":10495,"ÅĴ":10496,"hel":10497,"Ġmoul":10498,"mane":10499,"Ġarch":10500,"GN":10501,"Ġinoxyd":10502,"quier":10503,"ĠAng":10504,"adame":10505,"uns":10506,"ĠIT":10507,"Ġcigar":10508,"ĠDame":10509,"Ġwere":10510,"Ġpareil":10511,"oyenne":10512,"ĠRu":10513,"GP":10514,"artier":10515,"Annonce":10516,"ged":10517,"spect":10518,"ĠInspir":10519,"giti":10520,"rac":10521,"nages":10522,"triser":10523,"ptif":10524,"dune":10525,"oche":10526,"Ġmang":10527,"Ġcompt":10528,"AUT":10529,"default":10530,"vette":10531,"Ġ3000":10532,"Ġmascul":10533,"eil":10534,"venant":10535,"centr":10536,"hom":10537,"AULT":10538,"Dou":10539,"301":10540,"002":10541,"Ġfirst":10542,"IIIe":10543,"lez":10544,"Ġhad":10545,"urie":10546,"Ġ2021":10547,"ĠKi":10548,"ĠCross":10549,"chester":10550,"video":10551,"antiers":10552,"149":10553,"Ġviews":10554,"Ġlam":10555,"Ġsavons":10556,"ML":10557,"ĠRUE":10558,"Ġnarr":10559,"love":10560,"Ġsir":10561,"Ġsain":10562,"Ġsingul":10563,"Ġ1981":10564,"Ġfiches":10565,"Ġfixer":10566,"onsoir":10567,"ĠâĢĿ":10568,"gate":10569,"Ġany":10570,"Ġvenant":10571,"YL":10572,"Azur":10573,"ĠCheval":10574,"Ġetudi":10575,"Ġfiscal":10576,"Ġlots":10577,"Web":10578,"Ġneed":10579,"ĠEli":10580,"Ġunder":10581,"Ok":10582,"Ġ},":10583,"ĠOS":10584,"Pendant":10585,"Espace":10586,"ĠSecre":10587,"ĠWeek":10588,"135":10589,"iber":10590,"unit":10591,"med":10592,"illac":10593,"amsung":10594,"sson":10595,"ĠCeux":10596,"Ġenvies":10597,"ENTRE":10598,"Ġrh":10599,"ĠFI":10600,"office":10601,"Ġprouve":10602,"avril":10603,"Ġacade":10604,"humour":10605,"fices":10606,"006":10607,"andy":10608,"Ġtirage":10609,"Ġissue":10610,"Ġ1982":10611,"ĠMoulin":10612,"ĠCorn":10613,"ĠVolume":10614,"live":10615,"ĠVent":10616,"rakech":10617,"WS":10618,"uivez":10619,"Sinon":10620,"ĠRis":10621,"aily":10622,"Item":10623,"Suite":10624,"Ġrestr":10625,"Ġ116":10626,"Ġpseudo":10627,"bb":10628,"Ġfusion":10629,"FORM":10630,"ĠPinter":10631,"xim":10632,"Ġbalade":10633,"VEN":10634,"Ġcathe":10635,"Ġ1500":10636,"Ġ170":10637,"Ġmaster":10638,"ĠPrince":10639,"ifornie":10640,"Ġparts":10641,">,":10642,"rine":10643,"Ġfrancs":10644,"ticule":10645,"ĠLor":10646,"ĠXXe":10647,"tionner":10648,"Ġobst":10649,"ĠPur":10650,"intr":10651,"ÃŁ":10652,"ysique":10653,"Url":10654,"Ġwifi":10655,"ĠTag":10656,"dren":10657,"ĠView":10658,"ĠDijon":10659,"diques":10660,"marre":10661,"Ġseg":10662,"Ġvolant":10663,"Ġharmon":10664,"ajout":10665,"inos":10666,"ĠHow":10667,"parti":10668,"Ġissu":10669,"Ġstay":10670,"aincre":10671,"grale":10672,"ĠLag":10673,"lein":10674,"plie":10675,"Chez":10676,"mograph":10677,"wiki":10678,"cept":10679,"Ġrace":10680,"eres":10681,"ĠMoscou":10682,"Ġdating":10683,"Ġhautes":10684,"usant":10685,"ĠJui":10686,"Poli":10687,"ĠCm":10688,"ĠMedia":10689,"ĠChois":10690,"tonn":10691,"ĠAnaly":10692,"turne":10693,"ulter":10694,"Ġ230":10695,"QL":10696,"103":10697,"Ġpaille":10698,"136":10699,"acteurs":10700,"penser":10701,"*,":10702,"Ġpoulet":10703,"tige":10704,"ifs":10705,"Ġfausse":10706,"Ġislam":10707,"opinion":10708,"Lang":10709,"ĠJules":10710,"Ġgreat":10711,"reux":10712,"Lot":10713,"erson":10714,"ĠSweat":10715,"rest":10716,"ĠSher":10717,"jax":10718,"IERS":10719,"Ġbig":10720,"Ġpapa":10721,"lev":10722,"Vie":10723,"nation":10724,"Oise":10725,"Ġcass":10726,"Mod":10727,"nin":10728,"ĠDum":10729,"oung":10730,"Ġ???":10731,"enfance":10732,"atel":10733,"Ġtabac":10734,"ĠAND":10735,"oliques":10736,"Ġvertic":10737,"Stock":10738,"Ġsangu":10739,"Ġcav":10740,"Ġ1950":10741,"iseur":10742,"amo":10743,"Ġago":10744,"nieurs":10745,"ĠJO":10746,"Ġ048":10747,"ĠGod":10748,"lee":10749,"rables":10750,"290":10751,"Ġrafrai":10752,"Ache":10753,"avaient":10754,"ĠEconom":10755,"ĠVid":10756,"Ġfaim":10757,"iteurs":10758,"ĠLeague":10759,"opa":10760,"Histor":10761,"Ġsalut":10762,"acque":10763,"Ġperso":10764,"oween":10765,"ĠCra":10766,"Ġciment":10767,"Ġ).":10768,"lime":10769,"ĠAsie":10770,"rone":10771,"ĠSoul":10772,"agez":10773,"Ġsculp":10774,"ĠBoots":10775,"ĠSolid":10776,"Ed":10777,"BI":10778,"Ġhousse":10779,"\\'":10780,"riens":10781,"utin":10782,"Ġformid":10783,"Ġmourir":10784,"Ġbreak":10785,"Ġ118":10786,"ducts":10787,"alistes":10788,"ĠThai":10789,"ERN":10790,"ĠLaval":10791,"Ġserais":10792,"ĠMetz":10793,"Ġtag":10794,"immer":10795,"Amazon":10796,"My":10797,"kraine":10798,"Ġ114":10799,"Dan":10800,"iga":10801,"leine":10802,"Ġ111":10803,"Ġanth":10804,"ternel":10805,"ÑģÑĤ":10806,"ĠRio":10807,"yrock":10808,"ĠEc":10809,"Tou":10810,"oko":10811,"ĠPuy":10812,"Ġmone":10813,"formant":10814,"entez":10815,"Oh":10816,"Ġol":10817,"Proble":10818,"Cuisine":10819,"perc":10820,"enri":10821,"Guide":10822,"armer":10823,"Ġhabite":10824,"ĠBlo":10825,"ommaire":10826,"ĠMount":10827,"ĠFut":10828,"ersey":10829,"anny":10830,"Ġdistin":10831,"GV":10832,"ĠQUE":10833,"Ġstages":10834,"ĠðŁĻĤ<":10835,"Ġprior":10836,"obs":10837,"olen":10838,"troite":10839,"Ġhis":10840,"ambou":10841,"ĠVirgin":10842,"Ġarte":10843,"ultime":10844,"Ġcredit":10845,"ĠPSG":10846,"ĠZone":10847,"ĠClair":10848,"rain":10849,"Ġconsol":10850,"Ġini":10851,"zaine":10852,"Ġdune":10853,"fred":10854,"return":10855,"ovo":10856,"ĠCame":10857,"ĠNam":10858,"Ġbooks":10859,"ĠLibe":10860,"tele":10861,"ĠDivers":10862,"ĠGour":10863,"ĠNiveau":10864,"Ġinex":10865,"Ġfantas":10866,"Fil":10867,"avoue":10868,"unir":10869,"Ġnuis":10870,"Belle":10871,"Ġmural":10872,"PU":10873,"Ġ1983":10874,"ĠMoins":10875,"ĠDH":10876,"bride":10877,"ĠPLUS":10878,"ĠWil":10879,"ĠAFP":10880,"ĠCin":10881,"tica":10882,"xie":10883,"ints":10884,"ĠAtt":10885,"Ġdys":10886,"Ġparcs":10887,"entier":10888,"parole":10889,"pp":10890,"119":10891,"Ġnoires":10892,"ĠEast":10893,"issi":10894,"ĠShow":10895,"ģİ":10896,"Ġpower":10897,"aso":10898,"ĠApp":10899,"ĠRew":10900,"ĠBAR":10901,"OUVE":10902,"Lu":10903,"etta":10904,"107":10905,"Ġsons":10906,"ĠCit":10907,"ĠGro":10908,"Ġannule":10909,"Ġalbums":10910,"102":10911,"pices":10912,"Â§":10913,"ronique":10914,"Ġverra":10915,"Ġother":10916,"Ġ$(\"#":10917,"inson":10918,"Ġoce":10919,"ĠNoire":10920,"ĠJE":10921,"ĠGarage":10922,"340":10923,"mic":10924,"cours":10925,"ĠCoun":10926,"see":10927,"ĠQuels":10928,"ĠUV":10929,"124":10930,"ĠVenise":10931,"Ġhuiles":10932,"ĠJava":10933,"acon":10934,"grir":10935,"TF":10936,"centage":10937,"Ġtap":10938,"angerie":10939,"ĠFN":10940,"Lun":10941,"Ġassor":10942,"ĠASS":10943,"arin":10944,"ĠBeaute":10945,"ĠVieux":10946,"ĠGuine":10947,"Bat":10948,"tendu":10949,"vais":10950,"INES":10951,"long":10952,"Ġcombus":10953,"Ques":10954,"ght":10955,"Ġquan":10956,"Ġemploy":10957,"Ġ1975":10958,"offres":10959,"ĠâĪ":10960,"ĠBab":10961,"parts":10962,"archie":10963,"ANE":10964,"Ġvendus":10965,"islam":10966,"inscrit":10967,"Ġamazon":10968,"Ġvoisin":10969,"Personn":10970,"creen":10971,"Ġsize":10972,"Aux":10973,"ĠEDF":10974,"ĠHai":10975,"ĠSomme":10976,"entiste":10977,"Ġ119":10978,"tz":10979,"ference":10980,"Ġhorm":10981,"ĠBert":10982,"ĠDS":10983,"aillon":10984,"Ġromans":10985,"tenn":10986,"Techn":10987,"Austr":10988,"ĠTennis":10989,"Ġtic":10990,"eureuse":10991,"Ġjury":10992,"rentiel":10993,"Ġinox":10994,"envie":10995,"Ġperles":10996,"ĠForme":10997,"serie":10998,"DU":10999,"Ġâģİ":11000,"Ġstabil":11001,"Meuble":11002,"\"},\"":11003,"dn":11004,"ĠMuseum":11005,"ĠSchool":11006,"Ġmenuis":11007,"ĠSL":11008,"FM":11009,"etty":11010,"Ġbur":11011,"imper":11012,"Ci":11013,"ocke":11014,"Ġnice":11015,"Sport":11016,"ĠID":11017,"Ġcuire":11018,"Ġpav":11019,"afil":11020,"Ġcore":11021,"ĠHugo":11022,"Ġmorte":11023,"Ġfeux":11024,"chausse":11025,"Ġgrise":11026,"ĠPompe":11027,"Ġpend":11028,"ĠTai":11029,"Ġmoral":11030,"mark":11031,"YN":11032,"arque":11033,"elli":11034,"imetie":11035,"ĠLundi":11036,"nav":11037,"diat":11038,"Ġdoctor":11039,"gerie":11040,"ĠLitte":11041,"ĠContro":11042,"Ġpeople":11043,"tudios":11044,"omon":11045,"cli":11046,"Ġbottes":11047,"odite":11048,"ĠBlu":11049,"truc":11050,"Ġidee":11051,"ardi":11052,"Prof":11053,"AX":11054,"Ġenvah":11055,"ntario":11056,"Ir":11057,"ĠTro":11058,"imi":11059,"ĠPoser":11060,"dum":11061,"come":11062,"range":11063,"750":11064,"arning":11065,"Ġvoyant":11066,"abre":11067,"ĠRC":11068,"Ġremet":11069,"options":11070,"dice":11071,"rough":11072,"wagen":11073,"ĭáħ":11074,"({":11075,"affr":11076,"UBL":11077,"ĠRobes":11078,"128":11079,"ĠWik":11080,"Ġroyal":11081,"pente":11082,"Ġconnec":11083,"Ġconclu":11084,"280":11085,"Ġok":11086,"Ġ;-":11087,"erner":11088,"ppe":11089,"Ġserai":11090,"ĠLune":11091,"ploye":11092,"ĠLen":11093,"ĠDonne":11094,"Ġado":11095,"Ġtriple":11096,"nierie":11097,"css":11098,"oupon":11099,"OTRE":11100,"ĠBrest":11101,"rovi":11102,"aisant":11103,"Ġpix":11104,"ĠLut":11105,"ĠHarry":11106,"Ġpig":11107,"ĠCadeau":11108,"Ġseules":11109,"ĠKir":11110,"ĠCorps":11111,"Ġworld":11112,"ĠSuz":11113,"ĠCadre":11114,"oselle":11115,"posants":11116,"ligne":11117,"eville":11118,"),<":11119,"ĠShop":11120,"Ġurg":11121,"Asie":11122,"jac":11123,"Ġtrucs":11124,"Ġapres":11125,"iterie":11126,"ĠChir":11127,"Cep":11128,"ĠDonald":11129,"avas":11130,"Ġvoyez":11131,"licit":11132,"voles":11133,"Ġteinte":11134,"ardie":11135,"ĠTay":11136,"Ġ128":11137,"ĠStrate":11138,"ĠAfric":11139,"conque":11140,"anks":11141,"outils":11142,"ĠTitre":11143,"plier":11144,"Faites":11145,"infr":11146,"pereur":11147,"ird":11148,"ultane":11149,"ĠStade":11150,"Prop":11151,"Ġjeter":11152,"Info":11153,"ĠProble":11154,"330":11155,"cence":11156,"oscope":11157,"ĠSinon":11158,"extr":11159,"ãĤĻ":11160,"rage":11161,"Ġclos":11162,"ĠTokyo":11163,"onna":11164,"gance":11165,"ylon":11166,"RY":11167,"zac":11168,"ĠRot":11169,"Ġhere":11170,"Design":11171,"Ġrefer":11172,"Aug":11173,"RET":11174,"ĠePub":11175,"ustre":11176,"irmie":11177,"Ġhie":11178,"Ġbann":11179,"ĠJeudi":11180,"Press":11181,"had":11182,"Jose":11183,"Ġdevrez":11184,"\"],\"":11185,"andra":11186,"ĠFerme":11187,"AGNE":11188,"cipant":11189,"ĠSix":11190,"Roy":11191,"onymes":11192,"Ġpropag":11193,"ĠChev":11194,"Ġlyon":11195,"Ġincap":11196,"left":11197,"ĠOrient":11198,"Ġvenait":11199,"accept":11200,"lamique":11201,"Argent":11202,"Ġ1945":11203,"ĠJeanne":11204,"wi":11205,"uyer":11206,"agascar":11207,"Ġpir":11208,"ĠAdap":11209,"008":11210,"ĠGran":11211,"ģ!":11212,"LO":11213,"ULT":11214,"Israe":11215,"Ìģ!":11216,"XT":11217,"Ġbail":11218,"005":11219,"Ġjazz":11220,"leuve":11221,"Ber":11222,"iosite":11223,"venants":11224,"ĠAsics":11225,"widget":11226,"Ġtrains":11227,"ĠOh":11228,"Ġpist":11229,"Ġkms":11230,"ĠTotal":11231,"coule":11232,"ĠVAL":11233,"Ġspec":11234,"ĠFilms":11235,"News":11236,"ĠSNCF":11237,"ĠRod":11238,"ĠCau":11239,";&":11240,"ĠHi":11241,"ĠAdr":11242,"lue":11243,"126":11244,"Ġcliche":11245,"Ġ117":11246,"anth":11247,"ĠHab":11248,"ÌĢ.<":11249,"ĠJulie":11250,"ĠBande":11251,"tariat":11252,"ocoll":11253,"AGES":11254,"Rev":11255,"Ġsauv":11256,"ĠArd":11257,"belle":11258,"Ø³":11259,"aurer":11260,"Ġ190":11261,"Ġarbi":11262,"Ġvoient":11263,"glises":11264,"mile":11265,"impos":11266,">\\":11267,"Ġwell":11268,"ĠChoc":11269,"UST":11270,"Ġpayant":11271,"hoo":11272,"Ġvernis":11273,"uter":11274,"Post":11275,"Ġ).<":11276,"***":11277,"Ġgestes":11278,"wei":11279,"attle":11280,"ĠHenry":11281,"Ġhon":11282,"cris":11283,"ĠNa":11284,"apor":11285,"DH":11286,"ĠÐ¿":11287,"ģ)<":11288,"ĠArm":11289,"ANTE":11290,"encre":11291,"tuels":11292,"Ìģ)<":11293,"athan":11294,"tueuse":11295,"ĠInfo":11296,"sup":11297,"ĠFur":11298,"aceu":11299,"fox":11300,"Ġsoign":11301,"ï¸":11302,"dentes":11303,"ĠAge":11304,"gral":11305,"Ġsome":11306,"Ġdomine":11307,"Ùģ":11308,"ĠAle":11309,"RP":11310,"ĠiPad":11311,"Rapport":11312,"ssif":11313,"Ġ1968":11314,"Apple":11315,"Ġethn":11316,"ĠAucune":11317,"Ġ113":11318,"ĠMoteur":11319,"Ġtext":11320,"ĠLine":11321,"ĠCompt":11322,"ĠSteph":11323,"glige":11324,"\"><":11325,"clin":11326,"orange":11327,"ĠÃĹ":11328,"Cle":11329,"entelle":11330,"accent":11331,"cine":11332,"gralite":11333,"Ġalu":11334,"Ġdouze":11335,"Ġvuln":11336,"Ġborne":11337,"ulf":11338,"Ġglac":11339,"ĠChrome":11340,"Ġaient":11341,"Ġblo":11342,"tenne":11343,"ĠCuis":11344,"chapper":11345,"ansion":11346,"fie":11347,"Ġculte":11348,"tigny":11349,"Ġprice":11350,"tico":11351,"onais":11352,"Cat":11353,"ĠSOL":11354,"oria":11355,"ĠMatth":11356,"ĠSky":11357,"ĠMairie":11358,"ĠCass":11359,".Â»<":11360,"Ùİ":11361,"118":11362,"ĠRond":11363,"zon":11364,"Poser":11365,"Ġpropr":11366,"Ġindir":11367,"anteaux":11368,"Parmi":11369,"...]":11370,"Ġagit":11371,")[+!+[]":11372,"ĠRS":11373,"ĠEcole":11374,"ĠCOU":11375,"Ġbarrie":11376,"Ġrecycl":11377,"ontane":11378,"ĠCup":11379,"Contact":11380,"Ġglisse":11381,"420":11382,"assade":11383,"ĠKy":11384,"bay":11385,"ĠRomain":11386,"quo":11387,"ĠAw":11388,"IND":11389,"Ġperpe":11390,"amar":11391,"stumes":11392,"ĠDragon":11393,"Ġhect":11394,"balle":11395,"ĠCaen":11396,"ĠMort":11397,"Ġordin":11398,"click":11399,"Temps":11400,"ebok":11401,"Ġ1979":11402,"ĠSof":11403,"ĠDev":11404,"parez":11405,"travel":11406,"ĠExper":11407,"ÑĢÐ°":11408,"inie":11409,"nu":11410,"fend":11411,"mars":11412,"ĠBrig":11413,"housias":11414,"ĠISO":11415,"NI":11416,"}<":11417,"ĠEC":11418,"octobre":11419,"ĠCoiff":11420,"ĠAudio":11421,"Ġvulne":11422,"Atelier":11423,"ĠMots":11424,"Ġprospe":11425,"acun":11426,"Ġdef":11427,"Imm":11428,"gyp":11429,"Ġfrein":11430,"adow":11431,"Ġ(@":11432,"ĠAuthor":11433,"Ġfran":11434,"MENTS":11435,"armaceu":11436,"enser":11437,"ĠLui":11438,"&&":11439,"ĠMol":11440,"ĠLap":11441,"andant":11442,"Jeudi":11443,"hl":11444,"ildren":11445,"ography":11446,"ausanne":11447,"free":11448,"ceau":11449,"impose":11450,"ĠLamb":11451,"Dernier":11452,"Ġâĸ·":11453,"ticite":11454,"ĠMardi":11455,"Ġvies":11456,"127":11457,"BU":11458,"âĢĻâĢĻ":11459,"kswagen":11460,"ĠGAR":11461,"Aide":11462,"Ġremor":11463,"ĠLyce":11464,"Ġdict":11465,"Sav":11466,"dome":11467,"Pol":11468,"pice":11469,"Ġparois":11470,"Ġbet":11471,"CHER":11472,"ĠVrai":11473,"Ġaidera":11474,"adapte":11475,"quants":11476,"RON":11477,"eul":11478,"ĠOk":11479,"ĠHonda":11480,"Ġsaura":11481,"Ġpromet":11482,"ĠGa":11483,"LECT":11484,"ĠIss":11485,"ĠNan":11486,"Ġfranco":11487,"ĠTrail":11488,"opport":11489,"miques":11490,"ĠAcier":11491,"Ġ==":11492,"Ġjouent":11493,"cuit":11494,"estin":11495,"gorge":11496,"Ġendom":11497,"Ġbravo":11498,"moin":11499,"Empire":11500,"ombes":11501,"anique":11502,"Ġ!)":11503,"agraphe":11504,"ĠTissu":11505,"ging":11506,"Ġchair":11507,"artisan":11508,"ĠBit":11509,"alo":11510,"OSE":11511,"ĠHabit":11512,"well":11513,"ĠCloud":11514,"oooo":11515,"ellow":11516,"inguer":11517,"ĠRDV":11518,"Ġtemple":11519,"401":11520,"ĠCdis":11521,"Ġissues":11522,"cope":11523,"mbler":11524,"ĠStu":11525,"chron":11526,"etic":11527,"Ġunif":11528,"List":11529,"ĠLow":11530,"evin":11531,"alogues":11532,"ĠNiger":11533,"Attr":11534,"Ġpromis":11535,"ĠXavier":11536,"neu":11537,"ruption":11538,"Ġflot":11539,"Ġbrosse":11540,"ĠFern":11541,"OBIL":11542,"stone":11543,"ĠGarde":11544,"ubert":11545,"ĠFred":11546,"etz":11547,"Ġmuscul":11548,"Ġlavage":11549,"ĠShort":11550,"sectes":11551,"Ġsigner":11552,"111":11553,"Ġteam":11554,"ĠLauren":11555,"ĠPRES":11556,"Aucun":11557,"andons":11558,"ritage":11559,"255":11560,"ÅĤ":11561,"Ġcourir":11562,"tonnant":11563,"Patr":11564,"Ġinfirm":11565,"ĠRalph":11566,"ways":11567,"venture":11568,"ĠAPP":11569,"Ġinterv":11570,"ĠSavoie":11571,"Ġrad":11572,"ĠSale":11573,"Ġstud":11574,"Rue":11575,"Ġjust":11576,"ĠMak":11577,"hide":11578,"Ġ135":11579,"ĠBreak":11580,"pson":11581,"Ġathle":11582,"Suivant":11583,"anas":11584,"Ġcure":11585,"URS":11586,"ĠDyn":11587,"NS":11588,"ouret":11589,"AH":11590,"finie":11591,"ĠSize":11592,"ĠAqu":11593,"ĠVO":11594,"ĠPriv":11595,"Ġnage":11596,"ixe":11597,"loe":11598,"Ġlex":11599,"Ġcoron":11600,"cember":11601,"ĠMetal":11602,"erser":11603,"height":11604,"380":11605,"ĠPlein":11606,"Ġgars":11607,"Syn":11608,"graph":11609,"ĠYann":11610,"Socie":11611,"310":11612,"ĠLeon":11613,"Ġfoie":11614,"Ġgir":11615,"tide":11616,"Ġexport":11617,"ĠManche":11618,"ĠÂ»)":11619,"interme":11620,"host":11621,"ĠChemin":11622,"Ġrobes":11623,"ZE":11624,"ĠZoom":11625,"ĠPel":11626,"Ġfrac":11627,"butant":11628,"Ġ049":11629,"ĠMotor":11630,"Ġexplo":11631,"sulte":11632,"')":11633,"center":11634,"ĠOutre":11635,"PM":11636,"ĠIllus":11637,"uption":11638,"Ġrempli":11639,"Log":11640,"ĠMET":11641,"Ġstring":11642,"iat":11643,"ĠBor":11644,"Ġthere":11645,"Ze":11646,"seo":11647,"Ġconstr":11648,"trich":11649,"Ġmodul":11650,"Rom":11651,"club":11652,"Ġfibres":11653,"geois":11654,"ancier":11655,"ĠColl":11656,"ĠRiver":11657,"nig":11658,"Ġhand":11659,"Ġdoigt":11660,"ability":11661,"NT":11662,"impe":11663,"irs":11664,"icipale":11665,"ĠKong":11666,"ĠShirt":11667,"ĠKindle":11668,"invite":11669,"ĠJones":11670,"gatif":11671,"ĠHautes":11672,"hon":11673,"Ġ1976":11674,"ovi":11675,"ĠLieu":11676,"alade":11677,"ĠPartie":11678,"Ġusages":11679,"Ġvarier":11680,"yt":11681,"Ġyoga":11682,"oon":11683,"gth":11684,"Ø¹":11685,"idence":11686,"Parti":11687,"117":11688,"oice":11689,"ĠLee":11690,"olt":11691,"ĠISBN":11692,"gimes":11693,"olais":11694,"sister":11695,"ï¸ı":11696,"comTM":11697,"ĠFosse":11698,"ĠFun":11699,"erto":11700,"auty":11701,"mw":11702,"ĠVS":11703,"225":11704,"ivez":11705,"Ġlivrer":11706,"adeur":11707,"Ġrequis":11708,"156":11709,"Ġage":11710,"sprits":11711,"Expe":11712,"Ġonly":11713,"amitie":11714,"ĠCrist":11715,"ead":11716,"block":11717,"460":11718,"Ġsingle":11719,"ĠFich":11720,"Ġnavire":11721,"ĠGB":11722,"480":11723,"113":11724,"lyse":11725,"ĠBible":11726,"plex":11727,"ophes":11728,"abis":11729,"Dro":11730,"Ġforex":11731,"ĠSens":11732,"allet":11733,"avocat":11734,"ghan":11735,"Ġemble":11736,"reur":11737,"CV":11738,"ĠSpeed":11739,"Ġouest":11740,"ized":11741,"illent":11742,"Data":11743,"ĠTan":11744,"Trouver":11745,"cennies":11746,"ssettes":11747,"dicales":11748,"gante":11749,"Ġsoie":11750,"Ġarc":11751,"145":11752,"ĠApart":11753,"Ġvire":11754,"Ġtrous":11755,"Ġopposi":11756,"adj":11757,"ylo":11758,"Ġsuivie":11759,"ploie":11760,"limine":11761,"009":11762,"Ope":11763,"ĠTv":11764,"embr":11765,"Arr":11766,"ĠMam":11767,"athon":11768,"Ġmous":11769,"ĠOs":11770,"OCK":11771,"Station":11772,"Ġras":11773,"ilets":11774,"Ġjolies":11775,"Ġmoule":11776,"amines":11777,"Comte":11778,"Ġhebdom":11779,"Ġcrime":11780,"Ġsoupc":11781,"quat":11782,"Ġongles":11783,"Ġguider":11784,"ĠXbox":11785,"Ġcorn":11786,"Ġcacher":11787,"ĠTO":11788,"ĠYa":11789,"ĠLeg":11790,"Lundi":11791,"onic":11792,"129":11793,"ĠCov":11794,"Ġfull":11795,"Ġep":11796,"ĠDress":11797,"This":11798,"Ġentite":11799,"Ġlavabo":11800,"As":11801,"Ġfallu":11802,"Ġnat":11803,"Mardi":11804,"scar":11805,"ĠOuvr":11806,"ĠPOL":11807,"ayage":11808,"odo":11809,"ĠHill":11810,"entend":11811,"Encore":11812,"Ġcenti":11813,"orateur":11814,"Norm":11815,"Pays":11816,"Ġdoul":11817,"ount":11818,"DL":11819,"cv":11820,"Ensuite":11821,"iff":11822,"gorith":11823,"Ġbob":11824,"ĠOtt":11825,"quation":11826,"Arc":11827,"crivez":11828,"isa":11829,"ĠOpe":11830,"Ġsurvie":11831,"Ġsure":11832,"ictures":11833,"Ġalerte":11834,"enny":11835,"Esprit":11836,"irent":11837,"kina":11838,"Ġlow":11839,"oriales":11840,"Ġpoches":11841,"Ġaffich":11842,"ĠTrop":11843,"cable":11844,"Ġway":11845,"Text":11846,"Ġbug":11847,"ĠPink":11848,"acces":11849,"ĠBaby":11850,"ĠRep":11851,"NET":11852,"atibles":11853,"Ġautomn":11854,"You":11855,"aaaa":11856,"ship":11857,"ĠOffres":11858,"triques":11859,"Ġpoupe":11860,"Montre":11861,"Ro":11862,"Ġange":11863,"hyper":11864,"Ġroche":11865,"ĠBoy":11866,"004":11867,"mbr":11868,"ĠMaire":11869,"lyn":11870,"ĠMouve":11871,"ĠKur":11872,"avent":11873,"Tech":11874,"âĢ²âĢ²":11875,"Ġoffer":11876,"frica":11877,"ĠCOMM":11878,"Ġrugby":11879,"ded":11880,"Ġmake":11881,"Ġbourg":11882,"Ġcarn":11883,"Ġabsol":11884,"Ġseuil":11885,"ocs":11886,"licate":11887,"Cur":11888,"Ġcut":11889,"oure":11890,"duisant":11891,"sirez":11892,"diation":11893,"ĠMoz":11894,"match":11895,"sco":11896,"Ġ1200":11897,"teux":11898,"ĠâĨ":11899,"Ġtitle":11900,"ĠAUX":11901,"Ġplain":11902,"aissait":11903,"fb":11904,"Ġ1977":11905,"Ġpouce":11906,"ĠCosta":11907,"Mac":11908,"oiselle":11909,"ĠNight":11910,"more":11911,"gionaux":11912,"Ġgorge":11913,"Ġroyale":11914,"BER":11915,"vely":11916,"Next":11917,"Audi":11918,"ĠCall":11919,"Ġ047":11920,"ueux":11921,"ĠBTS":11922,"Ġnotice":11923,"pool":11924,"Ġpair":11925,"MET":11926,"Sep":11927,"Ġannonc":11928,"finit":11929,"Ġplume":11930,"armerie":11931,"incl":11932,"ongs":11933,"ku":11934,"ĠTech":11935,"chettes":11936,"Ġportug":11937,"ĠComb":11938,"raph":11939,"Hum":11940,"aitre":11941,"_____":11942,"Ġtasse":11943,"Ġverrou":11944,"______":11945,"fault":11946,"ĠPapier":11947,"vp":11948,"chel":11949,"\"},{\"":11950,"orsche":11951,"Ġwhite":11952,"ĠBrie":11953,"ĠCanon":11954,"Ġiv":11955,"Marque":11956,"VOIR":11957,"Ġ1973":11958,"Bref":11959,"Fab":11960,"ĠOFF":11961,"ĠAF":11962,"ĠNat":11963,"Muse":11964,"Ġsubi":11965,"Ġ123":11966,"720":11967,"ouvant":11968,"Ġaffirm":11969,"Ġtro":11970,"oulant":11971,"ĠRic":11972,"emi":11973,"deal":11974,"ouvera":11975,"alises":11976,"kel":11977,"Ġferait":11978,"Ġforums":11979,"Ġsoft":11980,"brah":11981,"dt":11982,"emplois":11983,"inal":11984,"ĠBenoi":11985,"CAR":11986,"Quels":11987,"ĠMens":11988,"='":11989,"ĠEquipe":11990,"Ġarb":11991,"Ġcahier":11992,"ionner":11993,"Ġprophe":11994,"Ñĩ":11995,"ELLES":11996,"ÐµÐ½":11997,"ĠGlobal":11998,"Ġms":11999,"CB":12000,"Ġ;)<":12001,"Ġelse":12002,"oreille":12003,"Ġroses":12004,"viron":12005,"twitter":12006,"Ġverres":12007,"ottom":12008,"ĠRacing":12009,"Ġdieu":12010,"139":12011,"Ġrive":12012,"Antoine":12013,"Ġarm":12014,"objets":12015,"ĠSAL":12016,"icier":12017,"ivite":12018,"165":12019,"Rouge":12020,"engager":12021,"Voyage":12022,"rench":12023,"rapeute":12024,"effort":12025,"CY":12026,"015":12027,"tilite":12028,"toral":12029,"Ġwho":12030,"ĠSystem":12031,"Equipe":12032,"Ġprimor":12033,"Ġ....<":12034,"oba":12035,"Ġ1972":12036,"aucun":12037,"partie":12038,"ssembl":12039,"cueilli":12040,"Ġpts":12041,"Ġbars":12042,"Ġ1920":12043,"\"]=>":12044,"ĠQual":12045,"qx":12046,"ĠHors":12047,"rat":12048,"atisme":12049,"ĠSERV":12050,"Ġsavais":12051,"lag":12052,"ĠGou":12053,"ĠYam":12054,"ĠkWh":12055,"opathe":12056,"adre":12057,"Ġ1940":12058,")-":12059,"Ġbra":12060,"Ġrame":12061,"Ġsoph":12062,"ĠDames":12063,"Ġfluide":12064,"Ġlatin":12065,"Ġvisuel":12066,"Ġtaxi":12067,"Don":12068,"Sy":12069,"ĠExte":12070,"Ġfune":12071,"assif":12072,".).":12073,"ĠInge":12074,"Ġabond":12075,"ĠToulon":12076,"Ġconti":12077,"pitaux":12078,"ĠAlsace":12079,"oivent":12080,"aurai":12081,"ĠMixte":12082,"Ġhard":12083,"IIe":12084,"oules":12085,"UK":12086,"ĠLittle":12087,"inave":12088,"Ġmath":12089,"grave":12090,"Ġempre":12091,"ĠContre":12092,"ĠBank":12093,"Ġattent":12094,"Ġintime":12095,"ZZ":12096,"Ġqueue":12097,"uye":12098,"ĠStage":12099,"ĠCoc":12100,"Blog":12101,"Ġinspe":12102,"ĠCHAR":12103,"Ġaccou":12104,"crivant":12105,"Ġcamar":12106,"Ġnourr":12107,"cette":12108,"Ġenrich":12109,"Ġgig":12110,"inale":12111,"ĠLady":12112,"onglet":12113,"Iran":12114,"ouches":12115,"IGNE":12116,"ĠDIS":12117,"Ġquinze":12118,"Time":12119,"Ġpress":12120,"Ġdome":12121,"168":12122,"Ġcoule":12123,"locu":12124,"ĠPoi":12125,"ĠAstr":12126,"service":12127,"Ġhonte":12128,"ĠImp":12129,"ĠCompte":12130,"Ġenc":12131,"ĠRev":12132,"ĠRideau":12133,"ĠFal":12134,"Ġbeen":12135,"Key":12136,"Ġimpec":12137,"Box":12138,"Ġmines":12139,"gets":12140,"Ġtopic":12141,"440":12142,"Ġnike":12143,"ĠCU":12144,"mesure":12145,"Malgre":12146,"ĠLaw":12147,",'":12148,"essence":12149,"Ġhaine":12150,"Ġbrou":12151,"TIL":12152,"Ġcontes":12153,"Ġsavait":12154,"ĠCome":12155,"hos":12156,"ĠXP":12157,"Ġ1974":12158,"Ġfind":12159,"dide":12160,"usement":12161,"ĠAmb":12162,"ĠLex":12163,"ĠLarge":12164,"petit":12165,"etti":12166,"ylique":12167,"opter":12168,"Peut":12169,"Format":12170,"animal":12171,"Ġlight":12172,"ĠVestes":12173,"nover":12174,"ĠOver":12175,"ĠMille":12176,"Tag":12177,"master":12178,"ĠSki":12179,"cast":12180,"Ġtun":12181,"ficient":12182,"Ġtas":12183,"Gros":12184,"Ġ1971":12185,"Ġ106":12186,"script":12187,"Ġperse":12188,"Ġtradi":12189,"ĠRousse":12190,"Cam":12191,"Install":12192,"Ġbijou":12193,"ĠDEL":12194,"ĠNorve":12195,"ĠâĶĤ":12196,"ablanca":12197,"chos":12198,"Ġinto":12199,"Ġrejet":12200,"Chap":12201,"ĠPrenez":12202,"tish":12203,"iPhone":12204,"bourser":12205,"dig":12206,"Ġfioul":12207,"isexe":12208,"Ġplug":12209,"138":12210,"ĠFils":12211,"ĠCent":12212,"Ġmarbre":12213,"Ġtronc":12214,"ĠMatch":12215,"colle":12216,"diale":12217,"Ġbeige":12218,"ism":12219,"ĠGEN":12220,"Nicolas":12221,"Ġnoy":12222,"OLOG":12223,"Ġjac":12224,"uyant":12225,"trol":12226,"ĠJane":12227,"Ġsym":12228,"ify":12229,"Ġcac":12230,"ĠToyota":12231,"ellent":12232,"Ġdons":12233,"iert":12234,"175":12235,"plen":12236,"aupe":12237,"Ġgly":12238,"dienne":12239,"Ġvign":12240,"Lieu":12241,"ourds":12242,"Ġvisu":12243,"Ġcanon":12244,"icule":12245,"Ġglu":12246,"Gi":12247,"Ġartif":12248,">$":12249,"FS":12250,"Ġgay":12251,".Â»":12252,"Ġtrent":12253,"iscines":12254,"Ġaccent":12255,"attends":12256,"Ġtape":12257,"Ġ$<":12258,"vey":12259,"ivern":12260,"Ġvigil":12261,"ĠSylvie":12262,"IEU":12263,"bout":12264,"Ġcrypto":12265,"haus":12266,"650":12267,"ĠJet":12268,"Ġwidth":12269,"ĠVas":12270,"Ġjal":12271,"rault":12272,"cipit":12273,"Ġfolie":12274,"ocket":12275,"ĠIM":12276,"Ġmater":12277,"Ġqualit":12278,"Ġtam":12279,"BM":12280,"under":12281,"Ġmargin":12282,"front":12283,"Ġrattr":12284,"];":12285,"emin":12286,"ĠLinux":12287,"blure":12288,"Ġferr":12289,"jean":12290,"atitude":12291,"Ġaxes":12292,"ĠMario":12293,"gestion":12294,"Ġrestre":12295,"TIE":12296,"Ġports":12297,"ĠList":12298,"aiement":12299,"uilding":12300,"Ġclics":12301,"Ġ104":12302,"ĠGames":12303,"kt":12304,"ĠSah":12305,"999":12306,"cosyste":12307,"ĠTerrit":12308,"rt":12309,"158":12310,"ĠRoule":12311,"ORS":12312,"dric":12313,"Ġnave":12314,"Ġplait":12315,"ĠMine":12316,"016":12317,"prenant":12318,"sionne":12319,"ĠApril":12320,"pop":12321,"Ġdresse":12322,"sd":12323,"GM":12324,"achine":12325,"121":12326,"Ġressen":12327,"ĠCHE":12328,"Ġampl":12329,"Ġcyber":12330,"Ġroutie":12331,"Ġ102":12332,"ATS":12333,"205":12334,"ĠBI":12335,"ĠIMM":12336,"Version":12337,"/?":12338,"Ġchaine":12339,"ĠGarc":12340,"Ġbot":12341,"signer":12342,"ĠIntel":12343,"cors":12344,"raliste":12345,"Ġpriori":12346,"Age":12347,"Mor":12348,"illie":12349,"ĠMagn":12350,"Ġserv":12351,"ĠFranck":12352,"Ġhow":12353,"Yves":12354,"kins":12355,"Ġthey":12356,"Maur":12357,"kk":12358,"abie":12359,"Ġhumide":12360,"Ġsaut":12361,"ĠSAS":12362,"ĠSitue":12363,"Ġmol":12364,"159":12365,"onnaies":12366,"aku":12367,"plic":12368,"Ġcense":12369,"ITES":12370,"788":12371,"LI":12372,"ĠGrands":12373,"ĠDouche":12374,"Ġko":12375,"1999":12376,"Ġdrogue":12377,"Offre":12378,"Ġabrite":12379,"Ġrural":12380,"Ġsco":12381,"aria":12382,"craft":12383,"tales":12384,"cb":12385,"eud":12386,"Ġamor":12387,"ĠMoul":12388,"ĠPasse":12389,"176":12390,"mac":12391,"Haute":12392,"1516":12393,"Ġimpati":12394,"Ġsupre":12395,"ĠEbook":12396,"ĠCoin":12397,"GES":12398,"ĠLook":12399,"ĠArre":12400,"moigne":12401,"264":12402,"alisez":12403,"ĠDuc":12404,"look":12405,"irates":12406,"Ġcarnet":12407,"Ġcoins":12408,"imoges":12409,"agnons":12410,"Ġtalons":12411,"ticien":12412,"toptv":12413,"ĠMAT":12414,"122":12415,"antaine":12416,"ĠBow":12417,"icia":12418,"Ġenvoie":12419,"Ġmeurt":12420,"horizon":12421,"Ġarabes":12422,"Ġfleuve":12423,"stuce":12424,"ĠPoin":12425,"ĠAri":12426,"Club":12427,"Ġdrame":12428,"Ġsainte":12429,"155":12430,"AGN":12431,"Ġorn":12432,"ĠRadi":12433,"ĠAUT":12434,"ĠFall":12435,"Mme":12436,"invent":12437,"ĠQuatre":12438,"ĠJer":12439,"trier":12440,"Ġapport":12441,"ĠLorsqu":12442,"UD":12443,"ĠBed":12444,"Ġjuger":12445,"ĠFE":12446,"144":12447,"voye":12448,"Ġbati":12449,"Ġcrimes":12450,"Ġsaine":12451,"ferts":12452,"ĠKu":12453,"inne":12454,"rifiez":12455,"files":12456,"ĠArthur":12457,"ĠBord":12458,"ÙĶ":12459,"Ġdv":12460,"{}":12461,"rig":12462,"157":12463,"uez":12464,"VEL":12465,"Ġtim":12466,"Of":12467,"ental":12468,"Ð·":12469,"dex":12470,"ĠSS":12471,"gner":12472,"ĠSMS":12473,"apan":12474,"ĠPav":12475,"ĠTch":12476,"Ġbords":12477,"Ġessay":12478,"youtube":12479,"ĠLtd":12480,"MONT":12481,"remove":12482,"bonjour":12483,"ĠKa":12484,"Action":12485,"ĠPense":12486,"Por":12487,"sagre":12488,"ĠCad":12489,"Ġname":12490,"+<":12491,"Ġstatis":12492,"ĠVTT":12493,"Ġpoign":12494,"Pan":12495,"Ġ%,":12496,"omper":12497,"ĠMois":12498,"ĠGon":12499,"ei":12500,"aurez":12501,"thumb":12502,"aves":12503,"Ġ1967":12504,"atuit":12505,"Style":12506,"âĢĲ":12507,"MIN":12508,"ĠLaf":12509,"Ġ108":12510,"Ġblogs":12511,"ĠMb":12512,"ulle":12513,"ĠRoland":12514,"domes":12515,"From":12516,"Ġpostal":12517,"ĠRegard":12518,"vember":12519,"Ġstagi":12520,"ĠSIM":12521,"ĠBroche":12522,"ĠNavy":12523,"ĠGui":12524,"phanie":12525,"ĠRAM":12526,"Ġclose":12527,"Ð¿":12528,"Ġamitie":12529,"ĠCHA":12530,"Ġconsac":12531,"Ferr":12532,"avy":12533,"Ġ1969":12534,"CHARGER":12535,"uno":12536,"Dec":12537,"ĠEnter":12538,"Pyre":12539,"ouville":12540,"gaux":12541,"pondent":12542,"itige":12543,"Ġrejete":12544,"Ġgau":12545,"vance":12546,"1314":12547,"emark":12548,"ingen":12549,"Garonne":12550,"Ġsab":12551,"ĠStory":12552,"ĠICI":12553,"nw":12554,"dine":12555,"ĠChant":12556,"HS":12557,"word":12558,"ĠAns":12559,"xite":12560,"Profe":12561,"Ġdebout":12562,"Ġrusses":12563,"018":12564,"Ġ224":12565,"ĠMM":12566,"French":12567,"Store":12568,"jectifs":12569,"Ġpanor":12570,"Ġbaby":12571,"journe":12572,"Ġlibert":12573,"Ġwhat":12574,"fauts":12575,"ĠSarah":12576,"Ġpoivre":12577,"Ġacous":12578,"390":12579,"ĠPure":12580,"lib":12581,"Ġeffr":12582,"acio":12583,"ĠCath":12584,"ĠâĻ":12585,"orage":12586,"Ġbuffet":12587,"ingle":12588,"ĠLabor":12589,"Ġerg":12590,"athlon":12591,"Ġmel":12592,"ĠPaper":12593,"Ġ109":12594,"sifie":12595,"GI":12596,"ĠCompe":12597,"chard":12598,"Auto":12599,"(\".":12600,"ĠAnna":12601,"fan":12602,"vest":12603,"Ġreview":12604,"ulse":12605,"bridge":12606,"inder":12607,"Ä±":12608,"Ġmythe":12609,"aillons":12610,"Ġtalon":12611,"Ïħ":12612,"ĠAnc":12613,"146":12614,"Express":12615,"stive":12616,"istent":12617,"panneur":12618,"ficit":12619,"pension":12620,"Germain":12621,"Pal":12622,"ĠExposi":12623,"ĠVE":12624,"gier":12625,"ĠWatch":12626,"ĠVisite":12627,"ĠCav":12628,"Ġduquel":12629,"arriver":12630,"ĠSpor":12631,"ĠAugust":12632,"208":12633,"telles":12634,"photos":12635,"Ġkilos":12636,"Ġ5000":12637,"luc":12638,"nest":12639,"oderie":12640,"igle":12641,"Ġdela":12642,"endrez":12643,"Coll":12644,"Ġ-----":12645,"tang":12646,"ĠGaulle":12647,"indic":12648,"ĠFIN":12649,"Ġsubir":12650,"days":12651,"ĠHavre":12652,"ĠFleurs":12653,"Ġ650":12654,"Sch":12655,"travaux":12656,"ĠiOS":12657,"ĠVic":12658,"izer":12659,"Ġgenres":12660,"Ġjustif":12661,"ĠHE":12662,"activ":12663,"Ġdomes":12664,"olets":12665,"iva":12666,"nera":12667,"Ġfumer":12668,"Ġmeu":12669,":\\/\\/":12670,"Ġlonge":12671,"'m":12672,"Petite":12673,"umero":12674,"traite":12675,"ladi":12676,"ĠSaf":12677,"789":12678,"Femmes":12679,"Ġdiesel":12680,"ĠBains":12681,"Ġordres":12682,"ĠModele":12683,"gitime":12684,"Alain":12685,"Ġteint":12686,"monte":12687,"ĠDra":12688,"GC":12689,"ĠDanse":12690,"Ġobe":12691,"ĠGO":12692,"mur":12693,"buter":12694,"Ġcire":12695,"Ġput":12696,"370":12697,"ĠLCD":12698,"ENNE":12699,"Ġtchat":12700,"USE":12701,"ĠPages":12702,"ization":12703,"aliers":12704,"430":12705,"assent":12706,"ram":12707,"Ġespoir":12708,"adul":12709,"ĠZen":12710,"Place":12711,"ĠMare":12712,"Ġsam":12713,"bag":12714,"ĠChai":12715,"ctes":12716,"opathie":12717,"uan":12718,"ĠStat":12719,"Ġencas":12720,"ĠSom":12721,"áĦĭáħ":12722,"ĠSteve":12723,"Charles":12724,"ief":12725,"Calais":12726,"Ġmanus":12727,"ariats":12728,"Distr":12729,"conse":12730,"Ġhumeur":12731,"Ġthem":12732,"ĠPetits":12733,"ANN":12734,"Kit":12735,"ĠBil":12736,"Ġfat":12737,"ĠTurb":12738,"Ġ]<":12739,"ĠDup":12740,"compte":12741,"ANTS":12742,"Ġnob":12743,"profe":12744,"Dess":12745,"py":12746,"lected":12747,"Ġ1914":12748,"Ġtoul":12749,"rusalem":12750,"Ġlace":12751,"border":12752,"Ae":12753,"acent":12754,"airies":12755,"Ġduc":12756,"ĠPorto":12757,"229":12758,"ĠQC":12759,"ĠDoll":12760,"Sam":12761,"ĠFait":12762,"ĠGirl":12763,"export":12764,"Ġsphe":12765,"email":12766,"Ġsalade":12767,"ĠðŁĺī<":12768,"ĠSecret":12769,"Nord":12770,"Ġblocs":12771,"paules":12772,"Ġphases":12773,"oro":12774,"Ġpleins":12775,"Ġ320":12776,"ĠJoy":12777,"Ġ210":12778,"Ġphare":12779,"centre":12780,"ĠJEAN":12781,"Ġ103":12782,"Ġbouge":12783,"Ġsoix":12784,"dx":12785,"nit":12786,"stand":12787,"ĠDurant":12788,"pied":12789,"ĠEsprit":12790,"ĠLau":12791,"corer":12792,"clenche":12793,"VM":12794,"tablie":12795,"Ġmatine":12796,"256":12797,"ffer":12798,"amide":12799,"Ġlaure":12800,"ENTE":12801,"uawei":12802,"ĠInfos":12803,"ĠHun":12804,"iliaire":12805,"Ouvert":12806,"kan":12807,"hypothe":12808,"achette":12809,"Ġsaisie":12810,"wikipe":12811,"Ġpile":12812,"ĠÑģ":12813,"ĠCoup":12814,"ĠScott":12815,"OTO":12816,"aulique":12817,"urch":12818,"ĠDau":12819,"liant":12820,"guster":12821,"Ġele":12822,"Ġassis":12823,"sin":12824,"Trois":12825,"olite":12826,"137":12827,"Ġbomb":12828,"soit":12829,"Ġflam":12830,"ĠLake":12831,"Cart":12832,"cises":12833,"mation":12834,"Eau":12835,"Ġdesser":12836,"immig":12837,"orian":12838,"aron":12839,"ween":12840,"âĤ¬/":12841,"ĠUnder":12842,"Ġmental":12843,"ĠRemise":12844,"235":12845,"ISTE":12846,"Ġcest":12847,"ĠFlex":12848,"ĠFlu":12849,"Ġloup":12850,"enta":12851,"Ġensole":12852,"osph":12853,"bris":12854,"cover":12855,"ssional":12856,"Ile":12857,"ĠLat":12858,");<":12859,"akistan":12860,"Ġaccus":12861,"Ange":12862,"Ġcaps":12863,"opsis":12864,"ĠMit":12865,"ĠBB":12866,"Out":12867,"tral":12868,"izz":12869,"Ġcustom":12870,"map":12871,"Ġhelp":12872,"cout":12873,"Ġfilet":12874,"Ġcanaux":12875,"ernent":12876,"ĠAller":12877,"Ġloue":12878,"ĠâĤ¬.":12879,"Ġtwo":12880,"asa":12881,"ocage":12882,"Ġwhen":12883,"Î·":12884,"imb":12885,"Ġinitie":12886,"mire":12887,"ĠBroy":12888,"Quant":12889,"âĺħ":12890,"inner":12891,"...).<":12892,"enger":12893,"ĠLink":12894,"ameau":12895,"adal":12896,"Ġpon":12897,"ontent":12898,"ĠJazz":12899,"angent":12900,"ĠTA":12901,"dh":12902,"Ġ1944":12903,"groupe":12904,"monter":12905,"iches":12906,"Ġsovie":12907,"Ġatouts":12908,"Ġsecs":12909,"entis":12910,"quoise":12911,"ĠDOM":12912,"ĠJunior":12913,"Ġ!!!!":12914,"ÏĦ":12915,"pondant":12916,"ely":12917,"osex":12918,"ĠURL":12919,"ĠTal":12920,"Ġdysf":12921,"ĠCorpor":12922,"ĠOutils":12923,"ĠLG":12924,"aca":12925,"ICES":12926,"195":12927,"ĠCare":12928,"RIP":12929,"tieux":12930,"evie":12931,"ĠParten":12932,"TIER":12933,"Ġcost":12934,"ugu":12935,"Ġ$('.":12936,"ilise":12937,"ĠMiche":12938,"FRAN":12939,"Ã¦":12940,"icales":12941,"Ġflotte":12942,"Star":12943,"ĠCamb":12944,"head":12945,"Ġguides":12946,"itesse":12947,"206":12948,"Ġrass":12949,"Ġpinter":12950,"ĠJuan":12951,"019":12952,"pignan":12953,"tember":12954,"Ġtenues":12955,"base":12956,"check":12957,"Infos":12958,"vari":12959,"Ġsollic":12960,"align":12961,"Bre":12962,"Ġloyer":12963,"lock":12964,"Ġbouger":12965,"ĠViolet":12966,"ERIE":12967,"Ġmarin":12968,"\":[]":12969,"enfin":12970,"Ġsocio":12971,"ĠKat":12972,"ĠLouise":12973,"ĠPortes":12974,"ALES":12975,"viduels":12976,"noir":12977,"acide":12978,"Ġstocke":12979,"ĠEve":12980,"ĠFel":12981,"low":12982,"ĠTemple":12983,"Ġshe":12984,"ĠHonor":12985,"ĠArme":12986,"Ġpoil":12987,"agisse":12988,"ĠCarn":12989,"375":12990,"yron":12991,"ģ),":12992,"Af":12993,"Ìģ),":12994,"mare":12995,"JE":12996,"ĠPN":12997,"montrer":12998,"leste":12999,"Ġnaz":13000,"ĠSARL":13001,"ved":13002,"Ġsalons":13003,"ernard":13004,"ÙĤ":13005,"Quelles":13006,"Ġvif":13007,"Ġdign":13008,"iko":13009,"ĠÃĺ":13010,"VES":13011,"Ġ127":13012,"ĠEco":13013,"ĠCover":13014,"ĠAlice":13015,"Ġcharte":13016,"onnette":13017,"wen":13018,"tch":13019,"alisant":13020,"Ġsubven":13021,"iba":13022,"Georges":13023,"ĠArnaud":13024,"Ġ107":13025,"185":13026,"ĠChamps":13027,"dale":13028,"\"}":13029,"inthe":13030,"blo":13031,"Ġmicr":13032,"Ġchrome":13033,"Ġtraits":13034,"ĠPorn":13035,"lac":13036,"mati":13037,"super":13038,"Arme":13039,"ĠKon":13040,"mu":13041,"xq":13042,"Comple":13043,"ĠBravo":13044,"Ġmme":13045,"Quer":13046,"commod":13047,"Ġenfer":13048,"Fam":13049,"oes":13050,"ĠPrice":13051,"Ġpais":13052,"Ã¸":13053,"640":13054,"cipent":13055,"Fac":13056,"Ġstyl":13057,"Pod":13058,"ĠIR":13059,"Agr":13060,"Ġparad":13061,"hygie":13062,"ĠPrest":13063,"Ġcherch":13064,"Ġhol":13065,"eaux":13066,"Ġprovo":13067,"ĠBie":13068,"URES":13069,"Ġaline":13070,"Ġimmun":13071,"bons":13072,"IERE":13073,"volte":13074,"ACT":13075,"OIRE":13076,"ĠJur":13077,"DP":13078,"Ġ1930":13079,"ĠRendez":13080,"DUC":13081,"Ġondes":13082,"Cine":13083,"ĠKab":13084,"Coupe":13085,"014":13086,"ssis":13087,"quine":13088,"wer":13089,"ĠMIN":13090,"oum":13091,"Salon":13092,"ordonne":13093,"aging":13094,"Ġtram":13095,"cdn":13096,"agan":13097,"ĠRon":13098,"poux":13099,"147":13100,"trons":13101,"ifer":13102,"ecdo":13103,"ĠGarden":13104,"Ġoeufs":13105,"Enfant":13106,"bard":13107,"Ġchalet":13108,"explo":13109,"chain":13110,"ĠTECH":13111,"adient":13112,"itine":13113,"ĠParty":13114,"LS":13115,"ĠOrle":13116,"Ġmanga":13117,"animaux":13118,"Ġamer":13119,"ĠLev":13120,"sider":13121,"ĠBooks":13122,"isance":13123,"onnent":13124,"Ġfoc":13125,"porters":13126,"emprun":13127,"%.<":13128,"Ġparv":13129,"length":13130,"Ġenche":13131,"Ġration":13132,"ĠFran":13133,"anson":13134,"204":13135,"ĠJU":13136,"134":13137,"tillons":13138,"Ordre":13139,"Ġpuce":13140,"Ġtche":13141,"Ġsee":13142,"lands":13143,"Pla":13144,"Ġabat":13145,"ility":13146,"IEL":13147,":\"":13148,"about":13149,"berry":13150,"verser":13151,"ĠFilles":13152,"prouve":13153,"Premie":13154,"ĠSW":13155,"Ġfal":13156,"AST":13157,"KS":13158,"ĠNEUF":13159,"ĠMembre":13160,"Ġ1962":13161,"lywood":13162,"eva":13163,"dry":13164,"Ġmetal":13165,"ISATION":13166,"camp":13167,"neuf":13168,"POS":13169,"305":13170,"Us":13171,"bration":13172,"ĠTherm":13173,"oost":13174,"Ġsuivez":13175,"INA":13176,"ĠSao":13177,"Ġample":13178,"ĠVia":13179,"ĠRoc":13180,"ĠSang":13181,"park":13182,"anciers":13183,"Open":13184,"vry":13185,"igues":13186,"Test":13187,"ĠWay":13188,"ĠPLA":13189,"ĠMed":13190,"ĠServer":13191,"titre":13192,"lena":13193,"ĠFER":13194,"uleux":13195,"tickers":13196,"Har":13197,"ĠAx":13198,"apour":13199,"panou":13200,"indice":13201,"ammaire":13202,"lion":13203,"oiles":13204,"275":13205,"mani":13206,"ĠTaylor":13207,"syste":13208,"ĠPoche":13209,"obby":13210,"rial":13211,"Ġgluc":13212,"cyclope":13213,"Sainte":13214,"repar":13215,"Rep":13216,"Ġpodium":13217,"ĠESP":13218,"017":13219,"Ġip":13220,"Foot":13221,"133":13222,"Trip":13223,"label":13224,"ĠKam":13225,"Olivier":13226,"puise":13227,"ĠBaz":13228,"Dure":13229,"oufl":13230,"pap":13231,"ĠVOUS":13232,"ilia":13233,"Amb":13234,"igan":13235,"Pont":13236,"Ġurl":13237,"Educ":13238,"ienter":13239,"ophique":13240,"ulateur":13241,"Best":13242,"Ġtrac":13243,"Oct":13244,"incer":13245,"365":13246,"ĠSV":13247,"Ġcity":13248,"open":13249,"habitat":13250,"conf":13251,"216":13252,"VIS":13253,"urgien":13254,"achel":13255,"ĠHaw":13256,"gio":13257,"Disc":13258,"OURG":13259,"rions":13260,"merge":13261,"ĠCole":13262,"Ð¾Ð²":13263,"tiez":13264,"Ġpleur":13265,"Ġluc":13266,"011":13267,"/-":13268,"Ġattir":13269,"ĠMiami":13270,"tiser":13271,"Ġshop":13272,"ssent":13273,"cn":13274,"Ġpiv":13275,"qual":13276,"dentif":13277,"Ġlink":13278,"VID":13279,"Ġpara":13280,"ĠFabr":13281,"ģ?":13282,"dB":13283,"Ìģ?":13284,"Ġhop":13285,"femme":13286,"ival":13287,"Ġ175":13288,"signes":13289,"LY":13290,"Color":13291,"gren":13292,"dau":13293,"umulez":13294,"ĠSin":13295,"complir":13296,"RU":13297,"ĠHerve":13298,"Ġpes":13299,"ĠPrim":13300,"ONN":13301,"RT":13302,"ĠCoeur":13303,"Poids":13304,"ymph":13305,"parents":13306,"199":13307,"yes":13308,"Ġbanlie":13309,"Ġbrevet":13310,"505":13311,"Ġretenu":13312,"ectez":13313,"ĠDonner":13314,"David":13315,"akh":13316,"Ġhockey":13317,"inspe":13318,"Windows":13319,"Ġfraude":13320,"ĠAi":13321,"Ġ____":13322,"nem":13323,"racite":13324,"Ġsavon":13325,"Ġverser":13326,"Ġ&#":13327,"224":13328,"ussito":13329,"alente":13330,"ĠNapole":13331,"Bleu":13332,"Net":13333,"zan":13334,"Ġparait":13335,"ĠEasy":13336,"Ġmeet":13337,"Ġgrandi":13338,"Ġrejo":13339,"HER":13340,"Sand":13341,"Ġpull":13342,"bed":13343,"ĠCru":13344,"Ġaccro":13345,"cits":13346,"ĠEngine":13347,"guerite":13348,"áĨ«":13349,"OF":13350,"acks":13351,"ĠLance":13352,"aucune":13353,"shirts":13354,"Ġ{\"":13355,"total":13356,"ĠFRE":13357,"236":13358,"ĠAquit":13359,"LAN":13360,"Ġpente":13361,"335":13362,"altern":13363,"Ġ1080":13364,"xl":13365,"combre":13366,"ĠFM":13367,"Progr":13368,"Ġthan":13369,"Enreg":13370,"dense":13371,"Ġdirais":13372,"Ġmarr":13373,"picerie":13374,"ilton":13375,"euro":13376,"Ġviewed":13377,"afric":13378,"Album":13379,"Ġblue":13380,"âĢł":13381,"Parce":13382,"pays":13383,"209":13384,"wich":13385,"ĠVa":13386,"ĠSI":13387,"apeaux":13388,"ĠClo":13389,"Mini":13390,"Ġverbe":13391,"fff":13392,"Ġamovi":13393,"bord":13394,"unier":13395,"roger":13396,"ĠPun":13397,"226":13398,"odor":13399,"alition":13400,"ulant":13401,"jeux":13402,"ĠPir":13403,"ĠHom":13404,"ĠAdam":13405,"Ġsaute":13406,"Vers":13407,"ĠGuadel":13408,"246":13409,"ĠFri":13410,"Del":13411,"dagogie":13412,"ĠSites":13413,"Ġconduc":13414,"ĠBron":13415,"Ġthermo":13416,"BOOK":13417,"ĠRusse":13418,"linge":13419,"mil":13420,"eja":13421,"vaisse":13422,"Ġapart":13423,"Ġwould":13424,"fenseur":13425,"nume":13426,"aton":13427,"ĠHU":13428,"Ġdiam":13429,"Ġincor":13430,"OIS":13431,"Ġ1965":13432,"ĠBAS":13433,"Ġblanch":13434,"Bains":13435,"ĠTown":13436,"rinaire":13437,"cieuse":13438,"prend":13439,"Ġcall":13440,"icaine":13441,"Ġactiv":13442,"Ġtubes":13443,"ĠModel":13444,"Ġlourds":13445,"Ġhost":13446,"ĠBot":13447,"elsea":13448,"245":13449,"Ray":13450,"ĠInstru":13451,"Ùĥ":13452,"211":13453,"506":13454,"Ġhein":13455,"ĠShang":13456,"Bal":13457,"oisy":13458,"Parking":13459,"Ġverrez":13460,"ĠPape":13461,"Adidas":13462,"Ġaz":13463,"ĠDA":13464,"Ġ060":13465,"Xz":13466,"eutsch":13467,"Mot":13468,"ÌĢ...":13469,"ĠEuros":13470,"amy":13471,"oller":13472,"ĠFIL":13473,"Ġflo":13474,"choires":13475,"Ġcd":13476,"lateur":13477,"zzle":13478,"Electr":13479,"croi":13480,"ĠNissan":13481,"SF":13482,"indique":13483,"178":13484,"Ġquit":13485,"215":13486,"ĠReine":13487,"Baskets":13488,"Ġvinai":13489,"Ġfon":13490,"self":13491,"ĠRivie":13492,"]]":13493,"Ġfines":13494,"Ġrefuge":13495,"yde":13496,"hard":13497,"ĠTravel":13498,"ĠJacob":13499,"assine":13500,"ĠLacets":13501,"ĠDal":13502,"doise":13503,"Ly":13504,"JET":13505,"ĠHon":13506,"ĠPAC":13507,"ĠBonn":13508,"Ġcourbe":13509,"ĠMig":13510,"Ġambiti":13511,"ĠCycl":13512,"218":13513,"Ay":13514,"Ġspeed":13515,"ĠCool":13516,"ako":13517,"allez":13518,"alisent":13519,"ĠNouvel":13520,"DVD":13521,"difice":13522,"ATA":13523,"ĠOld":13524,"ĠDead":13525,"ĠLiban":13526,"Ġbrig":13527,"warz":13528,"iettes":13529,"Ġalt":13530,"LEC":13531,"applic":13532,"Ġrendus":13533,"Ġmetall":13534,"Ġdam":13535,"Ïģ":13536,"Cir":13537,"Ġlarmes":13538,"ema":13539,"Ġzoom":13540,"dettes":13541,"Ġcross":13542,"quentes":13543,"Ġ601":13544,"ĠHealth":13545,"illo":13546,"pelle":13547,"Ġmuscle":13548,"ratif":13549,"ĠACC":13550,"Ġete":13551,"ĠSON":13552,"adine":13553,"';":13554,"Ġdatant":13555,"acha":13556,"Sol":13557,"nose":13558,"pant":13559,"nos":13560,"Ġfri":13561,"Ġlas":13562,"ourde":13563,"ĠAct":13564,"ĠClar":13565,"ICA":13566,"gular":13567,"Ġaffec":13568,"ĠSquare":13569,"deja":13570,"ĠÙħ":13571,"Ev":13572,"tecteur":13573,"gmail":13574,"ĠAud":13575,"ernet":13576,"Ġappe":13577,"aitons":13578,"ĠStru":13579,"ĠRaph":13580,"Ġeasy":13581,"ajax":13582,"ouris":13583,"ĠIf":13584,"Ġspons":13585,"166":13586,"ĠFigaro":13587,"ĠExpert":13588,"oune":13589,"ĠHO":13590,"ilips":13591,"Â¿":13592,"Ġ145":13593,"oldid":13594,"ĠDiam":13595,"ĠDin":13596,"Jour":13597,"Ġbed":13598,"Promo":13599,"Ġlarges":13600,"idget":13601,"Pap":13602,"!)":13603,"ĠEh":13604,"Ġpyr":13605,"APP":13606,"experts":13607,"Ġwall":13608,"Vu":13609,".</":13610,"Ġfoyers":13611,"169":13612,"Ġalcool":13613,"ĠAlbum":13614,"mets":13615,"ĠAsh":13616,"WD":13617,"Ġwater":13618,"Ġultime":13619,"HI":13620,"ĠSeul":13621,"bruary":13622,"Ġisol":13623,"Ġnoe":13624,"Ġvoler":13625,"UITE":13626,"pelez":13627,"Pant":13628,"ĠKal":13629,"ctant":13630,"ĠEdit":13631,"ĠOur":13632,"Ð³":13633,"NP":13634,"uth":13635,"hors":13636,"Ġgloire":13637,"ĠPrise":13638,"habil":13639,"Ġ%)":13640,"228":13641,"isante":13642,"Ġpod":13643,"Ġtresse":13644,"Ġusb":13645,"Ġmaxi":13646,"Ġ1964":13647,"Ġ270":13648,".......":13649,"anta":13650,"ĠBaller":13651,"ĠCultur":13652,"Ġnan":13653,"Ba":13654,"ĠRDC":13655,"Ġentame":13656,"ADE":13657,"houette":13658,"ĠJeunes":13659,"anime":13660,"Ġ1966":13661,"ĠCapit":13662,"ĠBP":13663,"ĠProm":13664,"juin":13665,"Ġec":13666,"illante":13667,"isher":13668,"Ġsuites":13669,"ĠPomp":13670,"207":13671,"Ġmultif":13672,"Ġev":13673,"KO":13674,"Ġico":13675,"Ġtatou":13676,"Amour":13677,"ĠMieux":13678,"Ses":13679,"AIRES":13680,"ĠState":13681,"drey":13682,"ĠWat":13683,"tablit":13684,"ĠVend":13685,"appeler":13686,"ĠGale":13687,"Ġmex":13688,"ĠFair":13689,"Ġbisc":13690,"uiles":13691,"Ġlife":13692,"Ġspace":13693,"Ġ\",":13694,"Livres":13695,"Ġ225":13696,"198":13697,"tenues":13698,"pur":13699,"ĠCond":13700,"ĠJa":13701,"Offres":13702,"Ġharce":13703,"ĠÅĵufs":13704,"Ġjuges":13705,"Ġemme":13706,"andir":13707,"Ġcarros":13708,"ĠComte":13709,"Ard":13710,"ĠPon":13711,"sifs":13712,"Ġ280":13713,"urity":13714,"Ġarg":13715,"Ġdirait":13716,"gative":13717,"adoles":13718,"ĠPy":13719,"TIT":13720,"dll":13721,"Ġquadr":13722,"Outre":13723,"iliser":13724,"Ġstocks":13725,"Ġrabais":13726,"encez":13727,"Ġnulle":13728,"briques":13729,"euters":13730,"Ġ260":13731,"ģ]":13732,"ĠBerger":13733,"plit":13734,"Ġ$.":13735,"Ìģ]":13736,"ĠFacile":13737,"Arrive":13738,"essa":13739,"ĠCIT":13740,"MD":13741,"favor":13742,"410":13743,"ĠAmp":13744,"Jusqu":13745,"143":13746,"Ġ/>":13747,"norm":13748,"Ġmec":13749,"oa":13750,"tecte":13751,"UNES":13752,"Ġvf":13753,"ĠCER":13754,"Ġhumour":13755,"ering":13756,"Ġmettez":13757,"opes":13758,"Ġneutre":13759,"marque":13760,"Lab":13761,"Ġabstr":13762,"Ġrobots":13763,"ĠTRAN":13764,"Ġbombe":13765,"ĠWell":13766,"ophy":13767,"acelets":13768,"Ġtimbre":13769,"ickel":13770,"Conseil":13771,"Ġ&&":13772,"veu":13773,"Ici":13774,"ĠOrd":13775,"Ġgreffe":13776,"âĢĶâĢĶ":13777,"pects":13778,"à¤":13779,"ufact":13780,"Ġodeur":13781,"265":13782,"ĠTOUR":13783,"ĠWish":13784,"Ġcrypt":13785,"obation":13786,"289":13787,"tras":13788,"ĠCrois":13789,"ATT":13790,"andeur":13791,"obel":13792,"Ġpoker":13793,"ĠOF":13794,"ĠObama":13795,"Ġcoller":13796,"ordogne":13797,"203":13798,"Ïĥ":13799,"013":13800,"scrit":13801,"Ġjete":13802,"ĠxD":13803,"Ġtrah":13804,"Ġgab":13805,"Ġcube":13806,"bot":13807,"Ġpertur":13808,"Ġ..<":13809,"ĠFai":13810,"anni":13811,"154":13812,"Ġbv":13813,"Ġcuve":13814,"Gestion":13815,"ĠUR":13816,"Ġtal":13817,"Review":13818,"aincu":13819,"pareils":13820,"Do":13821,"ĠGolden":13822,"uzzi":13823,"Peu":13824,"POST":13825,"ById":13826,"isier":13827,"Query":13828,"ĠLind":13829,"ĠavisNo":13830,"kit":13831,"Ġfacil":13832,"ÌĪ,":13833,"ĠRapide":13834,"1998":13835,"Ġranger":13836,"ĠPix":13837,"Ġstatue":13838,"ĠPrime":13839,"achez":13840,"pts":13841,"clerc":13842,"Ġ$(\".":13843,"\":[],\"":13844,"Ġ1961":13845,"ask":13846,"ouz":13847,"Ġsalue":13848,"179":13849,"ĠUnies":13850,"Ai":13851,"Ġknow":13852,"Ġloint":13853,"Ġeven":13854,"chool":13855,"illas":13856,"ĠVende":13857,"Ġdurer":13858,"rad":13859,"ped":13860,"gocier":13861,"Ġpeaux":13862,"excelle":13863,"lc":13864,"Produit":13865,"num":13866,"chr":13867,"aissons":13868,"ĠAure":13869,"Sub":13870,"Tit":13871,"Ġjuifs":13872,"ĠGP":13873,"Ġov":13874,"(){":13875,"Vols":13876,"Ġmaux":13877,"ĠRus":13878,"enaire":13879,"Sud":13880,"fique":13881,"clate":13882,"rison":13883,"illite":13884,"Ġbla":13885,"stivals":13886,"cheveux":13887,"ĠTony":13888,"veilles":13889,"ĠSearch":13890,"ĠPier":13891,"Ġlumin":13892,"Ġed":13893,"Profil":13894,"Ġfrench":13895,"ĠTOUT":13896,"Ġcordes":13897,"Ġdj":13898,"ĠSoit":13899,"oitou":13900,"Ġbic":13901,"Es":13902,"tella":13903,"croche":13904,"...,":13905,"Ġvisa":13906,"teil":13907,"Ġmost":13908,"umin":13909,"adies":13910,"Ġ550":13911,"ĠTimes":13912,"Rose":13913,"ĠCitro":13914,"Haut":13915,"iseau":13916,"rection":13917,"Î¼":13918,"pous":13919,"Conce":13920,"GEN":13921,"ĠLud":13922,"ĠAmour":13923,"ede":13924,"ĠUrban":13925,"ussit":13926,"atu":13927,"ouk":13928,"196":13929,"ĠSCI":13930,"Ġtrs":13931,"Ġsauter":13932,"Ġnum":13933,"ouilles":13934,"avage":13935,"ĠBody":13936,"ĠSPE":13937,"ĠCertes":13938,"ĠRoll":13939,"Ġgrade":13940,"Ġpassez":13941,"ĠMI":13942,"Ġdeja":13943,"Ġcdis":13944,"hem":13945,"ĠVegas":13946,"olio":13947,"aillots":13948,"accue":13949,"Ġmust":13950,"Ġailes":13951,"tume":13952,"ĠInnov":13953,"ĠGri":13954,"ĠDessin":13955,"ardinal":13956,"232":13957,"umi":13958,"arine":13959,"cluse":13960,"Ġvagues":13961,"ĠJud":13962,"Ġclean":13963,"Ġtuto":13964,"ĠGS":13965,"aries":13966,"Ġtutor":13967,"pierre":13968,"ĠPrague":13969,"Points":13970,"ĠSauv":13971,"ĠCell":13972,"Ġimpr":13973,"oussins":13974,"astes":13975,"yland":13976,"Ġsaga":13977,"Ġgenti":13978,"Ġuk":13979,"static":13980,"audit":13981,"Prin":13982,"ashi":13983,"natur":13984,"imagine":13985,"Ġbapte":13986,"alt":13987,"gien":13988,"ouement":13989,"Ġcivils":13990,"DB":13991,"Ġtouch":13992,"Sante":13993,"Ġ1900":13994,"oniale":13995,"cepteur":13996,"ssant":13997,"Ġacheve":13998,"Ġrigide":13999,"ĠViagra":14000,"bite":14001,"hoot":14002,"Ġclaque":14003,"ncieux":14004,"riter":14005,"Lac":14006,"enz":14007,"ĠOper":14008,"acker":14009,"238":14010,"UI":14011,"cato":14012,"Ġcenter":14013,"black":14014,"ĠFirst":14015,"ETTE":14016,"alte":14017,"Ġsystem":14018,"Ġenleve":14019,"ĠHydr":14020,"ĠLY":14021,"Ġamont":14022,"autique":14023,"stitue":14024,"clarer":14025,"Åĵuf":14026,"Ġlar":14027,"giment":14028,"ĠBesanc":14029,"Ġmignon":14030,"avane":14031,"Ġ;)":14032,"celles":14033,"mot":14034,"Ġarom":14035,"chauffe":14036,"ĠTempe":14037,"Ġdames":14038,"Ġgluten":14039,"gif":14040,"ĠFRA":14041,"Ġjack":14042,"ined":14043,"Ġ(\"":14044,"deg":14045,"ery":14046,"gatifs":14047,"Ġnuages":14048,"ducatif":14049,"ĠHay":14050,"ĠGreat":14051,"sauf":14052,"ĠBet":14053,"ALITE":14054,"186":14055,"297":14056,"Ġmonop":14057,"ĠLing":14058,"uisiner":14059,"mens":14060,"oday":14061,"Ġhi":14062,"ĠCovid":14063,"ĠRy":14064,"214":14065,"oyens":14066,"bnb":14067,"ĠZip":14068,"Ġatout":14069,"ĠRad":14070,"multi":14071,"Ġcoi":14072,"Ġperle":14073,"Ġdiss":14074,"Fig":14075,"ĠHans":14076,"orolog":14077,"Ġdays":14078,"Ġligue":14079,"Ġcreuse":14080,"crivent":14081,"Ġchine":14082,"Ġfixes":14083,"Ġgains":14084,"ĠMC":14085,".âĢĿ<":14086,"Marche":14087,"Henri":14088,"Ġ1958":14089,".....<":14090,"ĠBrand":14091,"ĠJuifs":14092,"oriasis":14093,"EUX":14094,"journer":14095,"onnalis":14096,"Ġafter":14097,"ĠQuoi":14098,"pages":14099,"Ġhits":14100,"ĠIniti":14101,"agone":14102,"Ġ%.":14103,"chelles":14104,"ĠTaux":14105,"Ġblind":14106,"orreur":14107,"mblage":14108,"ĠWed":14109,"Â°Â°":14110,"Ġsugges":14111,"boy":14112,"tract":14113,"âĢĿ.<":14114,"ĠRSS":14115,"tecter":14116,"Ġusines":14117,"ĠJuste":14118,"ĠÐĵ":14119,"ĠFood":14120,"ĠRenais":14121,"249":14122,"uild":14123,"227":14124,"Ġyears":14125,"TIVE":14126,"gro":14127,"aperc":14128,"tros":14129,"dol":14130,"ĠEM":14131,"ĠCiel":14132,"nik":14133,"tric":14134,"Ġprit":14135,"Ġchimie":14136,"brage":14137,"arra":14138,"BLE":14139,"Ġsere":14140,"Piscine":14141,"partis":14142,"ĠNext":14143,"asserie":14144,"ĠDiesel":14145,"Ġaveug":14146,"Ġbattu":14147,"eling":14148,"Culture":14149,"Ġ%),":14150,"ĠCot":14151,"Rhin":14152,"Ġcic":14153,"limite":14154,"attants":14155,"Ġplut":14156,"inier":14157,"Meta":14158,"ĠDrive":14159,"body":14160,">>>":14161,"appes":14162,"Ġsachez":14163,"Ġcumul":14164,"Ġaro":14165,"ĠBoucle":14166,"ĠDakar":14167,"ailly":14168,"ĠPinel":14169,"AMA":14170,"ĠSEC":14171,"ĠSlip":14172,"Musique":14173,"sam":14174,"card":14175,"virus":14176,"Aub":14177,"Ġorder":14178,"167":14179,"239":14180,"Ġoffen":14181,"Ġmarins":14182,"enfer":14183,"instar":14184,"ishing":14185,"ĠGRAND":14186,"Ġpatch":14187,"ious":14188,"pist":14189,"chera":14190,"Ġgonfl":14191,"tell":14192,"ĠEV":14193,"...]<":14194,"ĠVues":14195,"Ġpersu":14196,"ĠValen":14197,"siter":14198,"Ġlos":14199,"Ġlat":14200,"Ġvertes":14201,"308":14202,"ĠFlo":14203,"Ġcrises":14204,"Ġah":14205,"Ġbib":14206,"ĠPri":14207,".(":14208,"???":14209,"Ġinclut":14210,"SO":14211,"glages":14212,"ĠLoir":14213,"Ġplates":14214,"Ġvocab":14215,"Ġtrip":14216,"Ġtoiles":14217,"HL":14218,"nombre":14219,"ĠPhilos":14220,"roports":14221,"Ġrelief":14222,"ĠBeaux":14223,"Ġforge":14224,"atiseur":14225,"213":14226,"ĠRP":14227,"emon":14228,"Membre":14229,"Ġcastor":14230,"189":14231,"ĠPac":14232,"ĠSnow":14233,"oyons":14234,"Ġwar":14235,"ĠCaisse":14236,"($":14237,"UV":14238,"icial":14239,"Ġrendue":14240,"ĠVILLE":14241,"ĠDream":14242,"diathe":14243,"Bonsoir":14244,"crase":14245,"Ġrouler":14246,"Ġfaune":14247,"Coucou":14248,"Ġbebe":14249,"ĠBec":14250,"pure":14251,"ĠAve":14252,"ĠExcel":14253,"icht":14254,"uli":14255,"undai":14256,"olaire":14257,"duites":14258,"Ġvus":14259,"uela":14260,"uils":14261,"ĠLaura":14262,"roe":14263,"ular":14264,"tices":14265,"aline":14266,"ĠAngers":14267,"1100":14268,"ĠÐ½":14269,"Ġmotor":14270,"Ġannexe":14271,"ĠSamuel":14272,"ĠNI":14273,"ĠCalais":14274,"laborer":14275,"idae":14276,"melles":14277,"adeaux":14278,"schema":14279,"mini":14280,"ĠAsse":14281,"ĠMunich":14282,"Exposi":14283,"sinf":14284,"orter":14285,"ĠChili":14286,"194":14287,"Ġcamps":14288,"appuie":14289,"Grande":14290,"Ġwel":14291,"bies":14292,"Ġgrain":14293,"Ġarbore":14294,"imal":14295,"ND":14296,"gb":14297,"ĠMaxime":14298,"ĠXVIIIe":14299,"Pack":14300,"fect":14301,"Attrib":14302,"Ġspir":14303,"Premier":14304,"ĠMAG":14305,"Ġsuffr":14306,"mbles":14307,">:":14308,"1200":14309,"Ġgarn":14310,"YR":14311,"304":14312,"ognac":14313,"aitant":14314,"ĠQUI":14315,"Jardin":14316,"767":14317,"lice":14318,"quipage":14319,"Ġcare":14320,"illustr":14321,"mandes":14322,"enix":14323,"View":14324,"inions":14325,"oya":14326,"athle":14327,"ĠGay":14328,"double":14329,"Ġindice":14330,"imposer":14331,"177":14332,"Ġsacrif":14333,"ĠCartes":14334,"ĠYoga":14335,"confort":14336,"itres":14337,"agons":14338,"Ġbague":14339,"oral":14340,"heureux":14341,"Ġ---":14342,"Ġruban":14343,"otti":14344,"ĠSat":14345,"omac":14346,"Ġ129":14347,"Ð±":14348,"ĠBaie":14349,"Ġmeth":14350,"ommy":14351,"gos":14352,"ĠAwards":14353,"asi":14354,"phin":14355,"Ġ><":14356,"cosse":14357,"venez":14358,"Ġgants":14359,"ommier":14360,"anque":14361,"×Ļ":14362,"Ġpoils":14363,"ĠNoel":14364,"ĠBON":14365,"ibuent":14366,"ĠKl":14367,"259":14368,"ential":14369,"ĠMatie":14370,"Ġboue":14371,"ĠVierge":14372,"europe":14373,"ĠAgent":14374,"ĠAcadem":14375,"ĠTarn":14376,"ĠÙĪ":14377,"Vict":14378,"Elles":14379,"184":14380,"Ġmour":14381,"Ġjouet":14382,"pack":14383,"ffes":14384,"Ġmanne":14385,"unny":14386,"Ġdau":14387,"Ġown":14388,"ĠDroits":14389,"spot":14390,"ĠMike":14391,"Ġpattes":14392,"ĠSalv":14393,"icks":14394,"brand":14395,"Euro":14396,"Ġsois":14397,"ĠJenn":14398,"herbe":14399,"[]+[])[":14400,"276":14401,"evelop":14402,"icots":14403,"ross":14404,"ĠInvite":14405,"flix":14406,"fy":14407,"uh":14408,"ousin":14409,"Ġpixels":14410,"TY":14411,"ĠMenu":14412,"rol":14413,"ĠSpace":14414,"google":14415,"icient":14416,"ĠPRIX":14417,"ĠHau":14418,"æľ":14419,"onnal":14420,"ĠMOD":14421,"ĠJOUR":14422,"gra":14423,"467":14424,"ĠPeople":14425,"anterie":14426,"Ġcraque":14427,"fou":14428,"blage":14429,"ĠJuly":14430,"develop":14431,"ĠAbdel":14432,"ĠFan":14433,"ĠTy":14434,"ovolt":14435,"Ġbrie":14436,"travelq":14437,"237":14438,"ĠFaso":14439,"intre":14440,"fab":14441,"aspir":14442,"reuse":14443,"KK":14444,"1995":14445,"John":14446,"olin":14447,"ĠMarket":14448,"dian":14449,"298":14450,"Ġmaille":14451,"asie":14452,"butants":14453,"Ġ1963":14454,"286":14455,"allo":14456,"Ġfavori":14457,"ĠInves":14458,"Dos":14459,"Ġminie":14460,"ikh":14461,"ĠPied":14462,"guliers":14463,"gres":14464,"Åĵud":14465,"ocre":14466,"Commun":14467,"vl":14468,"faill":14469,"andeurs":14470,"Ġagain":14471,",-":14472,"ĠENTRE":14473,"ĠHuile":14474,"ything":14475,"Det":14476,"Nett":14477,"Ġpari":14478,"Ġherbes":14479,"ĠModern":14480,"Ġ165":14481,"noncer":14482,"Arts":14483,"ĠChoix":14484,"ĠKan":14485,"utilite":14486,"arros":14487,"Ġ1939":14488,"Resp":14489,"ÌĢ...<":14490,"ĠCard":14491,"brook":14492,"234":14493,"Ġshampo":14494,"Ġfollow":14495,"Lyon":14496,"azing":14497,"ĠSEO":14498,"Ġcloud":14499,"wx":14500,"153":14501,"emble":14502,"finis":14503,"OUVEAU":14504,"esson":14505,"ĠJob":14506,"1997":14507,"ĠMotif":14508,"Ġcali":14509,"Ġtarte":14510,"ĠFox":14511,"404":14512,"ĠLast":14513,"Total":14514,"Ġboy":14515,"Ġein":14516,"ĠMagic":14517,"Ġbody":14518,"Sn":14519,"Ġut":14520,"ĠPrive":14521,"Mas":14522,"sespe":14523,"Mi":14524,"Ġferm":14525,"ĠDore":14526,"sept":14527,"Ġcadr":14528,"ilo":14529,"So":14530,"ĠMarti":14531,"------":14532,"yme":14533,"fo":14534,"fiction":14535,"Ġvaloir":14536,"ĠDet":14537,"ĠSche":14538,"ĠEver":14539,"chure":14540,"presso":14541,"ĠRain":14542,"Ven":14543,"CHA":14544,"DW":14545,"288":14546,"Ñħ":14547,"LINE":14548,"ĠSoins":14549,"ĠRecru":14550,"ovoltai":14551,"Ġabri":14552,"ouveler":14553,"IERRE":14554,"Ġperdue":14555,"indem":14556,"berland":14557,"portez":14558,"ĠCAL":14559,"Ġsexuel":14560,"Î»":14561,"quera":14562,"ĠWind":14563,"otoc":14564,"ĠMAL":14565,"Stre":14566,"ĠBoston":14567,"ĠPEU":14568,"ĠRonde":14569,"ĠPoints":14570,"English":14571,"voyez":14572,"seur":14573,"ĠMiroir":14574,"zel":14575,"174":14576,"ĠBond":14577,"ĠProce":14578,"oudite":14579,"ĠChacun":14580,"ĠNar":14581,"achant":14582,"niste":14583,"YE":14584,"Ġtige":14585,"ĠSpect":14586,"ĠTen":14587,"ĠWill":14588,"Ġrevues":14589,"ĠWild":14590,"imon":14591,"portera":14592,"ĠFaut":14593,"xi":14594,"164":14595,"Sc":14596,"dot":14597,"PRES":14598,"ĠCharm":14599,"197":14600,"ouvele":14601,"Ġvierge":14602,"'.":14603,"ancher":14604,"ĠReebok":14605,"ĠÐ¸":14606,"Ġphone":14607,"mence":14608,"ĠHarr":14609,"expert":14610,"liste":14611,"nients":14612,"uch":14613,"âĨĴ":14614,"Sl":14615,"ĠBU":14616,"Hors":14617,"ĠVOL":14618,"Hol":14619,"omy":14620,"ĠPho":14621,"obie":14622,"blesse":14623,"Ġaus":14624,"Ġhotels":14625,"Ġvertus":14626,"279":14627,"Ġdoutes":14628,"Ġbleus":14629,"Ø§ÙĦ":14630,"ĠNicole":14631,"Ġapr":14632,"Ġsaveur":14633,"132":14634,"ĠJust":14635,"Cumulez":14636,"247":14637,"ĠNic":14638,"Ġland":14639,")(":14640,"Ġsoule":14641,"Charge":14642,"ĠMettre":14643,"arios":14644,"Ġ720":14645,"ivial":14646,"248":14647,"Ġstaff":14648,"classe":14649,"odyn":14650,"attan":14651,"acht":14652,"VIE":14653,"tist":14654,"oiseau":14655,"OURT":14656,"ĠEnd":14657,"tta":14658,"DIA":14659,"Ġvien":14660,"258":14661,"ĠPlaces":14662,"000000":14663,"Ġenchai":14664,"Ġpuits":14665,"ILLES":14666,"ģ).":14667,"agramme":14668,"odeur":14669,"tc":14670,"Ìģ).":14671,"UMP":14672,"ĠChauff":14673,"USS":14674,"journal":14675,"encour":14676,"azines":14677,"ĠValley":14678,"Ġacr":14679,"Ġmoelle":14680,"Ġ155":14681,"mentent":14682,"kok":14683,"ĠKevin":14684,"finies":14685,"ibou":14686,"345":14687,"ĠMust":14688,"dim":14689,"307":14690,"Ġacide":14691,"Unite":14692,"Ġside":14693,")|":14694,"Ġsalari":14695,"ÌĥÂ¢":14696,"aville":14697,"ĠVIE":14698,"onse":14699,"266":14700,"Cab":14701,"Sw":14702,"Ġeen":14703,"ĠGet":14704,"esque":14705,"ĠMart":14706,"ĠUnis":14707,"One":14708,"Cx":14709,"oitures":14710,"rep":14711,"ÑģÐº":14712,"ayak":14713,"vendre":14714,"accou":14715,"ĠUE":14716,"four":14717,"Appl":14718,"VF":14719,"Alsace":14720,"Ġkey":14721,"Ġnotif":14722,"agglome":14723,"550":14724,"tisans":14725,"Bes":14726,"ĠWifi":14727,"atz":14728,"Ġminu":14729,"INTER":14730,"dle":14731,"CIAL":14732,"Lec":14733,"309":14734,"ailli":14735,"force":14736,"Ġmale":14737,"Ġcheck":14738,"Ġfood":14739,"Ġpave":14740,"idou":14741,"neurs":14742,"ĠFO":14743,"irr":14744,"ĠPolice":14745,"pra":14746,"Ġfaill":14747,"ĠPrint":14748,"iges":14749,"anctu":14750,"Ġparap":14751,"wes":14752,"Ġcesser":14753,"dive":14754,"ared":14755,"Ġaband":14756,"enh":14757,"Ġbreve":14758,"âĪ":14759,"erniers":14760,"ĠHier":14761,"Ġ!!!!<":14762,"Ġbarres":14763,"quide":14764,"ĠSpring":14765,"ĠJupe":14766,"ĠAlger":14767,"ĠRCS":14768,"eo":14769,"Ġquai":14770,"amba":14771,"Ġbvseo":14772,"Ġorne":14773,"Ġescl":14774,"unaux":14775,"ĠLT":14776,"Joseph":14777,"Ġever":14778,"ĠTah":14779,"endes":14780,"dile":14781,"Ġcambri":14782,"ĠCialis":14783,"ĠCAD":14784,"Combien":14785,"Etienne":14786,"orf":14787,"ITRE":14788,"logo":14789,"ELS":14790,"tilly":14791,"zone":14792,"turer":14793,"ĠTouch":14794,"296":14795,"MON":14796,"990":14797,"ĠLave":14798,"vitra":14799,"ĠSig":14800,"urage":14801,"ĠAuthen":14802,"Die":14803,"gov":14804,"actuel":14805,"ĠBuc":14806,"ĠER":14807,"Ġsymbol":14808,"charpe":14809,"Ġpronos":14810,"LEX":14811,"Ġenle":14812,"ĠGenr":14813,"Avez":14814,"heures":14815,"Aquit":14816,"Ġlapin":14817,"ssier":14818,"ĠCGT":14819,"ĠSoyez":14820,"hot":14821,"CK":14822,"Ġcage":14823,"ĠHTML":14824,"OFF":14825,"ĠGenre":14826,"aun":14827,"src":14828,"Ġjupe":14829,"Ġgas":14830,"bet":14831,"Ġvalue":14832,"NH":14833,"Ġayez":14834,"ĠThom":14835,"igence":14836,"adium":14837,"ĠReport":14838,"iri":14839,"alaure":14840,"ĠTube":14841,"eber":14842,"163":14843,"Ġinven":14844,"pil":14845,"atant":14846,"ĠAltern":14847,"Orle":14848,"Ġmiss":14849,"servant":14850,"rev":14851,"Ġarea":14852,"igi":14853,"arly":14854,"apo":14855,"aiser":14856,"enton":14857,"ogues":14858,"Ġgn":14859,"posent":14860,"ancie":14861,"cherie":14862,"187":14863,"ĠNAT":14864,"red":14865,"ĠCord":14866,"orgue":14867,"ĠMT":14868,"ĠUniver":14869,"Ġbourge":14870,"Ġdissim":14871,"ĠPotter":14872,"ĠTax":14873,"dangers":14874,"Ġevery":14875,"okia":14876,"ĠBaign":14877,"ĠFle":14878,"ĠApplic":14879,"tox":14880,"188":14881,"268":14882,"ĠHop":14883,"AUL":14884,"Ġsixie":14885,"Ġ4000":14886,"Texte":14887,"Ġracine":14888,"Ġhygie":14889,"ĠGust":14890,"Ġwhere":14891,"nuit":14892,"Ġvitres":14893,"Ġebook":14894,"ettez":14895,"295":14896,"ĠCry":14897,"Ġrois":14898,"Ġdc":14899,"actory":14900,"Ġappui":14901,"ĠMotiv":14902,"ĠPierr":14903,"sites":14904,"ĠFF":14905,"sors":14906,"fleur":14907,"dimen":14908,"ingo":14909,"ĠPoke":14910,"Ġexces":14911,"retour":14912,"allier":14913,"Tri":14914,"Ġjouant":14915,"intures":14916,"fc":14917,"Ġreal":14918,"ĠSco":14919,"elin":14920,"ĠTac":14921,"Kindle":14922,"ĠLOU":14923,"ĠBras":14924,"ĠRoss":14925,"Ġbaies":14926,"oxyde":14927,"269":14928,"Ġheight":14929,"Ġ136":14930,"tissant":14931,"ÏĤ":14932,"ĠBarre":14933,"Ġadep":14934,"ITS":14935,"ĠÐº":14936,"implant":14937,"stanbul":14938,"ĠREG":14939,"ercer":14940,"285":14941,"Habit":14942,"ĠPalace":14943,"ĠAthle":14944,"irment":14945,"Ul":14946,"peur":14947,"470":14948,"Ġspot":14949,"Ġpcs":14950,"aints":14951,"trov":14952,"Ġ365":14953,"Ġtriom":14954,"Ġaident":14955,"+[]+[]":14956,"Ġtricot":14957,"Ġpizza":14958,"ÅĴu":14959,"Ġgol":14960,"202":14961,"ĠChina":14962,"303":14963,"Bour":14964,"Ġtrio":14965,"Ġoeil":14966,"Bravo":14967,"verg":14968,"ilson":14969,"ĠDubai":14970,"uline":14971,"DIO":14972,"Ġneutr":14973,"Ġ911":14974,"checs":14975,"Ġlivret":14976,"ĠSai":14977,"stad":14978,"Ġfo":14979,"Ġgymn":14980,"Default":14981,"parente":14982,"Libelle":14983,"['":14984,"adia":14985,"alla":14986,"012":14987,"ercy":14988,"ĠJersey":14989,"ĠTraite":14990,"ĠConnex":14991,"lore":14992,"iales":14993,"Ġ126":14994,"Ġgene":14995,"pendre":14996,"ĠMAC":14997,"ĠCasa":14998,"ĠLaine":14999,"ĠNEW":15000,"Orange":15001,"ĠSalut":15002,"ĠRobin":15003,"quins":15004,"ĠJouets":15005,"Ġbits":15006,"ĠLouvre":15007,"Ġgoutte":15008,"Ġum":15009,"untu":15010,"131":15011,"tarif":15012,"Ġunes":15013,"Ġserons":15014,"Ġose":15015,"ĠReste":15016,"Ġzen":15017,"Ġused":15018,"ĠEnreg":15019,"dacteur":15020,"ampleur":15021,"travail":15022,"ĠClark":15023,"ĠABS":15024,"ÃĲ":15025,"Ġrangs":15026,"ANA":15027,"Ġrides":15028,"angile":15029,"ĠGarn":15030,"kw":15031,"ĠJim":15032,"ĠNou":15033,"ĠThib":15034,"stitute":15035,"Ġdioce":15036,"aret":15037,"ĠRiv":15038,"Ġfonte":15039,"rotique":15040,">[...]":15041,"ĠHuawei":15042,"durs":15043,"sme":15044,"ĠLucas":15045,"Ġpacif":15046,"ĠLiens":15047,"itage":15048,"ĠYoung":15049,"ĠOxford":15050,"Ġviolet":15051,"zabeth":15052,"Bureau":15053,"TEMENT":15054,"Ġgenou":15055,"ĠED":15056,"Ġloisir":15057,"ĠWol":15058,"Ġtrophe":15059,"Ġcens":15060,"acion":15061,"Ġhot":15062,"rieuses":15063,"Sie":15064,"game":15065,"timis":15066,"Ġfanto":15067,"ĠBik":15068,"ĠCAM":15069,"Ġsame":15070,"ĠIran":15071,"1996":15072,"urich":15073,"Sk":15074,"ĠWolf":15075,"sult":15076,"ĠVari":15077,"duisent":15078,"áħµ":15079,"scape":15080,"viseur":15081,"ACH":15082,"ĠCB":15083,"çļ":15084,"ĠFay":15085,"proch":15086,"ĠIMP":15087,"Ġboules":15088,"Ġnie":15089,"alerte":15090,"Chem":15091,"ĠJohnny":15092,"etre":15093,"Ġinjec":15094,"ĠToi":15095,"Ġ1959":15096,"Trai":15097,"Ġscript":15098,"eno":15099,"ĠHuman":15100,"ĠGuit":15101,"It":15102,"Ġrepl":15103,"cutive":15104,"ĠAre":15105,"Rien":15106,"pse":15107,"omique":15108,"Ġinj":15109,"abled":15110,"ocy":15111,"saint":15112,"Ġlames":15113,"silien":15114,"Ġdim":15115,"Script":15116,"ĠSpirit":15117,"phot":15118,"Ġ925":15119,"244":15120,"Ġconfon":15121,"Vincent":15122,"Ġcoud":15123,"licopte":15124,"Ġignor":15125,"Ele":15126,"Ġmenus":15127,"dico":15128,"ĠActive":15129,"768":15130,"ĠHyper":15131,"stier":15132,"Ġpinel":15133,"sults":15134,"cureur":15135,"exce":15136,"ĠCache":15137,"ANNE":15138,"monde":15139,"ĠSauf":15140,"prud":15141,"Ġtraum":15142,"ĠMail":15143,"ĠÐ¾":15144,"taph":15145,"ĠCuba":15146,"mene":15147,"ĠVIS":15148,"ĠVil":15149,"ĠWiFi":15150,"ĠTOP":15151,"rosion":15152,"278":15153,"imard":15154,"ĠLogo":15155,"ĠPIB":15156,"Ġfly":15157,"Ġours":15158,"achi":15159,"socie":15160,"ocon":15161,"ishi":15162,"ventail":15163,"ĠPli":15164,"Stat":15165,"ageant":15166,"avions":15167,"licat":15168,"ĠScand":15169,"Ġpaque":15170,"ĠSept":15171,"diaires":15172,"Vue":15173,"Ġcauser":15174,"Ġonze":15175,"aimerai":15176,"DO":15177,"152":15178,"ÌĥâĢļ":15179,"annel":15180,"ĠJura":15181,"Ġunis":15182,";&#":15183,"usure":15184,"406":15185,"ĠRav":15186,"ĠHir":15187,"Ġ...)":15188,"XZ":15189,"balleur":15190,"%),":15191,">âĸ·":15192,"ĠMarco":15193,"ticides":15194,"Ġexact":15195,"Ġpompes":15196,"ĠUk":15197,"plois":15198,"ĠLeurs":15199,"umage":15200,"ĠBull":15201,"ĠMoon":15202,"Ġignore":15203,"trable":15204,"ĠPDG":15205,"visite":15206,"ĠAIR":15207,"sab":15208,"ĠKaz":15209,"Arre":15210,"Observ":15211,"Ġdurs":15212,"ĠVerr":15213,"Ġmineur":15214,"Ġcreux":15215,"Ġromain":15216,"Ġnuage":15217,"ĠEpub":15218,"Ġmascu":15219,"ĠBEL":15220,"ĠArabe":15221,"Ġballes":15222,"Ġnutri":15223,"aia":15224,"RAP":15225,"ĠAlb":15226,"ĠLens":15227,"ĠWE":15228,"ERA":15229,"Ġclef":15230,"Ġvasque":15231,"äº":15232,"ĠMaine":15233,"bleu":15234,"Ġtache":15235,"flo":15236,"à¸²":15237,"cache":15238,"iera":15239,"INTE":15240,"cid":15241,"Ġamend":15242,"ĠValent":15243,"ypique":15244,"ULE":15245,"ĠJup":15246,"ulu":15247,"Ġraf":15248,"Ġ149":15249,"dA":15250,"opher":15251,"oufles":15252,"sili":15253,"aching":15254,"oka":15255,"\\\"\\":15256,"ĠModif":15257,"Ġiran":15258,"Ġfrigo":15259,"336":15260,"citanie":15261,"voyage":15262,"KA":15263,"Tel":15264,"Math":15265,"Ġzo":15266,"bihan":15267,"ĠFEM":15268,"GT":15269,"argu":15270,"odies":15271,"uda":15272,"Villa":15273,"Ġdonnez":15274,"405":15275,"ĠBart":15276,"iano":15277,"dicat":15278,"alarme":15279,"ĠHit":15280,"ĠTs":15281,"entite":15282,"poli":15283,"141":15284,"504":15285,"Ġfaille":15286,"Ġopus":15287,"ĠNie":15288,"Seu":15289,"Ġadapt":15290,"Ġ1956":15291,"onsive":15292,"}.":15293,"Ġporc":15294,"ĠSit":15295,"rq":15296,"Ġvamp":15297,"ĠAllez":15298,"Ġsaumon":15299,"idjan":15300,"243":15301,"ĠHead":15302,"Ġape":15303,"bli":15304,"ĠXIV":15305,"Related":15306,"questre":15307,"Booking":15308,"ģ;":15309,"Ġlatine":15310,"Ìģ;":15311,"ĠIL":15312,"ĠSile":15313,"pati":15314,"Ġjoints":15315,"Ġ122":15316,"Anonyme":15317,"Ġchevel":15318,"lux":15319,"ippines":15320,"Ġmondes":15321,"ĠDIY":15322,"Ġ139":15323,"ĠMill":15324,"Archite":15325,"idis":15326,"Ġ124":15327,"ĠBesoin":15328,"ĠChab":15329,"Ġbah":15330,"inv":15331,"Ġexcur":15332,"sultant":15333,"itr":15334,"çļĦ":15335,"ĠDenim":15336,"Ġpiece":15337,"AINE":15338,"Journe":15339,"ĠLew":15340,"Ancien":15341,"Ġnight":15342,"PRE":15343,"606":15344,")...":15345,"cium":15346,"crois":15347,"ĠMarion":15348,"HR":15349,"late":15350,"ĠDown":15351,"Mars":15352,"ĠDog":15353,"accio":15354,"AYS":15355,"Ġqq":15356,"attent":15357,"aisir":15358,"ĠFix":15359,"386":15360,"choue":15361,"Ġox":15362,"ĠNON":15363,"Ġcris":15364,"abou":15365,"Albert":15366,"atican":15367,"pay":15368,"aissais":15369,"cass":15370,"linqu":15371,"ĠÅĵil":15372,"Ġpis":15373,"lerc":15374,"ACC":15375,"unch":15376,"ĠTP":15377,"iento":15378,"173":15379,"CHES":15380,"Ġfra":15381,"HY":15382,"Ġpret":15383,"vole":15384,"ĠRois":15385,"RIG":15386,"Ġdog":15387,"Ġengl":15388,"Ġseine":15389,"Ġgrains":15390,"ĠKarl":15391,"Ġ1948":15392,"omens":15393,"299":15394,"Ġfoncie":15395,"Ġ1800":15396,"Ġcale":15397,"Ġtiroir":15398,"ĠSAM":15399,"ĠTroy":15400,"ĠCFA":15401,"Ġnb":15402,"Ġ330":15403,"vitez":15404,"ĠKlein":15405,"gendes":15406,"Objet":15407,"state":15408,"ĠChal":15409,"ĠSF":15410,"Ġobsc":15411,"ounge":15412,"Ġmagn":15413,".âĢĿ":15414,"JS":15415,"Ġhd":15416,"pat":15417,"ĠTarget":15418,"isserie":15419,"ĠTexas":15420,"Ġpots":15421,"ĠPacif":15422,"Ġamener":15423,"ĠSG":15424,"ĠART":15425,"Ġphares":15426,"aking":15427,"267":15428,"Ì£":15429,"Popul":15430,"dieux":15431,"Ġbrique":15432,"Ġorale":15433,"dark":15434,"Origin":15435,"608":15436,"ĠWinter":15437,"OUX":15438,"284":15439,"ĠImag":15440,"ĠAmis":15441,"Ġfuse":15442,";\"":15443,"aq":15444,"iac":15445,"Expl":15446,"ĠRaf":15447,"JO":15448,"ĠStone":15449,"azar":15450,"ĠProche":15451,"ungen":15452,"ĠTermin":15453,"Ġdas":15454,"icain":15455,"ĠProfil":15456,"dors":15457,"ĠRepar":15458,"ĠWo":15459,"Ġcourge":15460,"ferme":15461,"eplace":15462,"OPE":15463,"seill":15464,"Eric":15465,"lave":15466,"rante":15467,"ØŃ":15468,"Base":15469,"ĠVista":15470,"ania":15471,"TTE":15472,"ICATION":15473,"Ġalte":15474,"Tableau":15475,"Ġ205":15476,"485":15477,"Exemple":15478,"ĠNy":15479,"presse":15480,"Ġsobre":15481,"eron":15482,"Ġht":15483,"timite":15484,"tiquer":15485,"Ġcreer":15486,"hotes":15487,"motionn":15488,"ĠSoph":15489,"Ġsurr":15490,"ried":15491,"stige":15492,"Ġdragon":15493,"AAAA":15494,"ĠMauv":15495,"fection":15496,"deuil":15497,"weat":15498,"trerie":15499,"Ġfolk":15500,"Ġbos":15501,"Ġados":15502,"ffee":15503,"Ġinvent":15504,"Ġgele":15505,"country":15506,"cost":15507,"agh":15508,"Ġplaire":15509,"Ġurgent":15510,"ĠVOTRE":15511,"quables":15512,"Ġhivern":15513,"ods":15514,"Ġcampus":15515,"Ouvr":15516,"USD":15517,"349":15518,"906":15519,"ĠThere":15520,"Ġsplen":15521,"NEW":15522,"OLE":15523,"Ġmap":15524,"253":15525,"inny":15526,"ĠMarina":15527,"bury":15528,"ĠCay":15529,"bur":15530,"192":15531,"ĠBuy":15532,"atti":15533,"Ġbefore":15534,"ĠTee":15535,"Ġzu":15536,"ĠCustom":15537,"vation":15538,"capit":15539,"CONT":15540,"ĠSavoir":15541,"ĠPlaza":15542,"Venez":15543,"ĠQueen":15544,"222":15545,"Change":15546,"tus":15547,"Ġtete":15548,"usions":15549,"celaine":15550,"ĠVinc":15551,"holm":15552,"gir":15553,"ĠAuber":15554,"Rap":15555,"ĠFORUM":15556,"iends":15557,"Enfants":15558,"Ye":15559,"plesse":15560,"ÆĴA":15561,"Ġsuch":15562,"Ġteneur":15563,"aded":15564,"mentaux":15565,"Ġfirme":15566,"ĠThor":15567,"ichael":15568,"Ŀ¤":15569,"Ġmatr":15570,"ĠGuess":15571,"gare":15572,"ĠLyn":15573,"agique":15574,"Ġponts":15575,"Chois":15576,"orerie":15577,"277":15578,"format":15579,"ĠOise":15580,"vaux":15581,"ĠLil":15582,"ĠVans":15583,
[...]
