{
  "version": "1.0",
  "truncation": null,
  "padding": null,
  "added_tokens": [
    {
      "id": 0,
      "content": "<s>",
      "single_word": false,
      "lstrip": false,
      "rstrip": false,
      "normalized": false,
      "special": true
    },
    {
      "id": 1,
      "content": "<pad>",
      "single_word": false,
      "lstrip": false,
      "rstrip": false,
      "normalized": false,
      "special": true
    },
    {
      "id": 2,
      "content": "</s>",
      "single_word": false,
      "lstrip": false,
      "rstrip": false,
      "normalized": false,
      "special": true
    },
    {
      "id": 3,
      "content": "<mask>",
      "single_word": false,
      "lstrip": false,
      "rstrip": false,
      "normalized": false,
      "special": true
    },
    {
      "id": 4,
      "content": "<newline>",
      "single_word": false,
      "lstrip": false,
      "rstrip": false,
      "normalized": false,
      "special": true
    },
    {
      "id": 5,
      "content": "<unk>",
      "single_word": false,
      "lstrip": false,
      "rstrip": false,
      "normalized": false,
      "special": true
    }
  ],
  "normalizer": {
    "type": "Sequence",
    "normalizers": [
      {
        "type": "NFKD"
      },
      {
        "type": "Replace",
        "pattern": {
          "Regex": "\\\\{2,}"
        },
        "content": "\\"
      },
      {
        "type": "Replace",
        "pattern": {
          "String": "\n"
        },
        "content": "\\n"
      },
      {
        "type": "Replace",
        "pattern": {
          "String": "\\n"
        },
        "content": "<newline>"
      },
      {
        "type": "BertNormalizer",
        "clean_text": true,
        "handle_chinese_chars": false,
        "strip_accents": false,
        "lowercase": false
      },
      {
        "type": "Replace",
        "pattern": {
          "Regex": "\\s{2,}"
        },
        "content": " "
      },
      {
        "type": "Strip",
        "strip_left": true,
        "strip_right": true
      }
    ]
  },
  "pre_tokenizer": {
    "type": "ByteLevel",
    "add_prefix_space": true,
    "trim_offsets": true,
    "use_regex": true
  },
  "post_processor": {
    "type": "TemplateProcessing",
    "single": [
      {
        "SpecialToken": {
          "id": "<s>",
          "type_id": 0
        }
      },
      {
        "Sequence": {
          "id": "A",
          "type_id": 0
        }
      },
      {
        "SpecialToken": {
          "id": "</s>",
          "type_id": 0
        }
      }
    ],
    "pair": [
      {
        "SpecialToken": {
          "id": "<s>",
          "type_id": 0
        }
      },
      {
        "Sequence": {
          "id": "A",
          "type_id": 0
        }
      },
      {
        "SpecialToken": {
          "id": "</s>",
          "type_id": 0
        }
      },
      {
        "SpecialToken": {
          "id": "<s>",
          "type_id": 0
        }
      },
      {
        "Sequence": {
          "id": "B",
          "type_id": 0
        }
      },
      {
        "SpecialToken": {
          "id": "</s>",
          "type_id": 0
        }
      }
    ],
    "special_tokens": {
      "</s>": {
        "id": "</s>",
        "ids": [
          2
        ],
        "tokens": [
          "</s>"
        ]
      },
      "<s>": {
        "id": "<s>",
        "ids": [
          0
        ],
        "tokens": [
          "<s>"
        ]
      }
    }
  },
  "decoder": null,
  "model": {
    "type": "BPE",
    "dropout": null,
    "unk_token": "<unk>",
    "continuing_subword_prefix": null,
    "end_of_word_suffix": null,
    "fuse_unk": false,
    "byte_fallback": false,
    "ignore_merges": false,
    "vocab": {
      "<s>": 0,
      "<pad>": 1,
      "</s>": 2,
      "<mask>": 3,
      "<newline>": 4,
      "<unk>": 5,
      "!": 6,
      "\"": 7,
      "#": 8,
      "$": 9,
      "%": 10,
      "&": 11,
      "'": 12,
      "(": 13,
      ")": 14,
      "*": 15,
      "+": 16,
      ",": 17,
      "-": 18,
      ".": 19,
      "/": 20,
      "0": 21,
      "1": 22,
      "2": 23,
      "3": 24,
      "4": 25,
      "5": 26,
      "6": 27,
      "7": 28,
      "8": 29,
      "9": 30,
      ":": 31,
      ";": 32,
      "<": 33,
      "=": 34,
      ">": 35,
      "?": 36,
      "@": 37,
      "A": 38,
      "B": 39,
      "C": 40,
      "D": 41,
      "E": 42,
      "F": 43,
      "G": 44,
      "H": 45,
      "I": 46,
      "J": 47,
      "K": 48,
      "L": 49,
      "M": 50,
      "N": 51,
      "O": 52,
      "P": 53,
      "Q": 54,
      "R": 55,
      "S": 56,
      "T": 57,
      "U": 58,
      "V": 59,
      "W": 60,
      "X": 61,
      "Y": 62,
      "Z": 63,
      "[": 64,
      "\\": 65,
      "]": 66,
      "^": 67,
      "_": 68,
      "`": 69,
      "a": 70,
      "b": 71,
      "c": 72,
      "d": 73,
      "e": 74,
      "f": 75,
      "g": 76,
      "h": 77,
      "i": 78,
      "j": 79,
      "k": 80,
      "l": 81,
      "m": 82,
      "n": 83,
      "o": 84,
      "p": 85,
      "q": 86,
      "r": 87,
      "s": 88,
      "t": 89,
      "u": 90,
      "v": 91,
      "w": 92,
      "x": 93,
      "y": 94,
      "z": 95,
      "{": 96,
      "|": 97,
      "}": 98,
      "~": 99,
      "¡": 100,
      "¢": 101,
      "£": 102,
      "¤": 103,
      "¥": 104,
      "¦": 105,
      "§": 106,
      "¨": 107,
      "©": 108,
      "ª": 109,
      "«": 110,
      "¬": 111,
      "®": 112,
      "¯": 113,
      "°": 114,
      "±": 115,
      "²": 116,
      "³": 117,
      "´": 118,
      "µ": 119,
      "¶": 120,
      "·": 121,
      "¸": 122,
      "¹": 123,
      "º": 124,
      "»": 125,
      "¼": 126,
      "½": 127,
      "¾": 128,
      "¿": 129,
      "À": 130,
      "Á": 131,
      "Â": 132,
      "Ã": 133,
      "Ä": 134,
      "Å": 135,
      "Æ": 136,
      "Ç": 137,
      "È": 138,
      "É": 139,
      "Ê": 140,
      "Ë": 141,
      "Ì": 142,
      "Í": 143,
      "Î": 144,
      "Ï": 145,
      "Ð": 146,
      "Ñ": 147,
      "Ò": 148,
      "Ó": 149,
      "Ô": 150,
      "Õ": 151,
      "Ö": 152,
      "×": 153,
      "Ø": 154,
      "Ù": 155,
      "Ú": 156,
      "Û": 157,
      "Ü": 158,
      "Ý": 159,
      "Þ": 160,
      "ß": 161,
      "à": 162,
      "á": 163,
      "â": 164,
      "ã": 165,
      "ä": 166,
      "å": 167,
      "æ": 168,
      "ç": 169,
      "è": 170,
      "é": 171,
      "ê": 172,
      "ë": 173,
      "ì": 174,
      "í": 175,
      "î": 176,
      "ï": 177,
      "ð": 178,
      "ñ": 179,
      "ò": 180,
      "ó": 181,
      "ô": 182,
      "õ": 183,
      "ö": 184,
      "÷": 185,
      "ø": 186,
      "ù": 187,
      "ú": 188,
      "û": 189,
      "ü": 190,
      "ý": 191,
      "þ": 192,
      "ÿ": 193,
      "Ā": 194,
      "ā": 195,
      "Ă": 196,
      "ă": 197,
      "Ą": 198,
      "ą": 199,
      "Ć": 200,
      "ć": 201,
      "Ĉ": 202,
      "ĉ": 203,
      "Ċ": 204,
      "ċ": 205,
      "Č": 206,
      "č": 207,
      "Ď": 208,
      "ď": 209,
      "Đ": 210,
      "đ": 211,
      "Ē": 212,
      "ē": 213,
      "Ĕ": 214,
      "ĕ": 215,
      "Ė": 216,
      "ė": 217,
      "Ę": 218,
      "ę": 219,
      "Ě": 220,
      "ě": 221,
      "Ĝ": 222,
      "ĝ": 223,
      "Ğ": 224,
      "ğ": 225,
      "Ġ": 226,
      "ġ": 227,
      "Ģ": 228,
      "ģ": 229,
      "Ĥ": 230,
      "ĥ": 231,
      "Ħ": 232,
      "ħ": 233,
      "Ĩ": 234,
      "ĩ": 235,
      "Ī": 236,
      "ī": 237,
      "Ĭ": 238,
      "ĭ": 239,
      "Į": 240,
      "į": 241,
      "İ": 242,
      "ı": 243,
      "Ĳ": 244,
      "ĳ": 245,
      "Ĵ": 246,
      "ĵ": 247,
      "Ķ": 248,
      "ķ": 249,
      "ĸ": 250,
      "Ĺ": 251,
      "ĺ": 252,
      "Ļ": 253,
      "ļ": 254,
      "Ľ": 255,
      "ľ": 256,
      "Ŀ": 257,
      "ŀ": 258,
      "Ł": 259,
      "ł": 260,
      "Ń": 261,
      "de": 262,
      "te": 263,
      "ei": 264,
      "ie": 265,
      "ÌĪ": 266,
      "li": 267,
      "un": 268,
      "ge": 269,
      "an": 270,
      "lin": 271,
      "Ġd": 272,
      "ew": 273,
      "line": 274,
      "new": 275,
      "he": 276,
      "newline": 277,
      "Ġs": 278,
      "re": 279,
      "Ġde": 280,
      "be": 281,
      "Ġi": 282,
      "ĠS": 283,
      "on": 284,
      "au": 285,
      "st": 286,
      "le": 287,
      "ein": 288,
      "se": 289,
      "sc": 290,
      "Ġw": 291,
      "Ġun": 292,
      "al": 293,
      "ar": 294,
      "Ġm": 295,
      "ten": 296,
      "ĠA": 297,
      "or": 298,
      "ic": 299,
      "as": 300,
      "ĠB": 301,
      "Ġv": 302,
      "it": 303,
      "Ġund": 304,
      "Ġdie": 305,
      "gen": 306,
      "ĠD": 307,
      "at": 308,
      "Ġein": 309,
      "Ġe": 310,
      "me": 311,
      "ung": 312,
      "ĠM": 313,
      "sch": 314,
      "Ġder": 315,
      "ter": 316,
      "ht": 317,
      "Ġn": 318,
      "ur": 319,
      "Ġz": 320,
      "Ġau": 321,
      "Ġf": 322,
      "ra": 323,
      "ĠF": 324,
      "ĠK": 325,
      "ĠE": 326,
      "ĠG": 327,
      "Ġin": 328,
      "che": 329,
      "ĠP": 330,
      "der": 331,
      "ĠW": 332,
      "Ġk": 333,
      "den": 334,
      "ro": 335,
      "ĠT": 336,
      "ĠH": 337,
      "ber": 338,
      "hr": 339,
      "Ġb": 340,
      "Ġh": 341,
      "Ġ1": 342,
      "ac": 343,
      "el": 344,
      ".<": 345,
      "ti": 346,
      "ren": 347,
      "Ġge": 348,
      "Ġzu": 349,
      "ol": 350,
      "ĠR": 351,
      "Ġeine": 352,
      "ĠL": 353,
      "il": 354,
      "nt": 355,
      "Ġ2": 356,
      "ĠI": 357,
      "fe": 358,
      "ir": 359,
      "am": 360,
      "ĠV": 361,
      "ke": 362,
      "nd": 363,
      "is": 364,
      "eit": 365,
      "om": 366,
      "us": 367,
      "sche": 368,
      "icht": 369,
      "Ġ(": 370,
      "Ġdas": 371,
      "ut": 372,
      "Ġan": 373,
      "âĢ": 374,
      "Ġg": 375,
      "Ġmit": 376,
      "Ġvon": 377,
      "Ġbe": 378,
      "ĠN": 379,
      "ich": 380,
      "Ġden": 381,
      "ze": 382,
      "la": 383,
      "ve": 384,
      "hn": 385,
      "ri": 386,
      "sen": 387,
      "um": 388,
      "Ġfu": 389,
      "ste": 390,
      "ben": 391,
      "lic": 392,
      "ier": 393,
      "ĠC": 394,
      "len": 395,
      "nn": 396,
      "ach": 397,
      "Ġer": 398,
      "ĠU": 399,
      "Ġo": 400,
      "and": 401,
      "rei": 402,
      "Ġist": 403,
      "ig": 404,
      "ÃŁ": 405,
      "Ġauf": 406,
      "chen": 407,
      "00": 408,
      "Ġa": 409,
      "men": 410,
      "Ġal": 411,
      "Ġve": 412,
      "pe": 413,
      "01": 414,
      "ru": 415,
      "ion": 416,
      "ĠBe": 417,
      "ng": 418,
      "Ġim": 419,
      "ann": 420,
      "lich": 421,
      "ĠZ": 422,
      "Ġ-": 423,
      "Ġver": 424,
      "oc": 425,
      "ĠJ": 426,
      "Ġwe": 427,
      "ĠSc": 428,
      "kt": 429,
      "..": 430,
      "ft": 431,
      "ta": 432,
      "ĠO": 433,
      "ah": 434,
      "lo": 435,
      "eine": 436,
      "ĠGe": 437,
      "sp": 438,
      "Ġt": 439,
      "ĠVe": 440,
      "et": 441,
      "Ġsc": 442,
      "Ġnicht": 443,
      "we": 444,
      "Ġp": 445,
      "ĠSch": 446,
      "ĠâĢ": 447,
      "ĠVer": 448,
      "Ġaus": 449,
      "Ġwir": 450,
      "ll": 451,
      "ĠDe": 452,
      "Ġdes": 453,
      "ler": 454,
      "och": 455,
      "Ġsich": 456,
      "ĠSt": 457,
      "schen": 458,
      "ungen": 459,
      "Ġbei": 460,
      "ind": 461,
      "ver": 462,
      "ho": 463,
      "ger": 464,
      "ien": 465,
      "mer": 466,
      "Ġes": 467,
      "Ġauc": 468,
      "Ġauch": 469,
      "ĠSie": 470,
      "ser": 471,
      "sten": 472,
      "Ġdem": 473,
      "fen": 474,
      "ue": 475,
      "uc": 476,
      "lei": 477,
      "her": 478,
      "ot": 479,
      "ing": 480,
      "Ġj": 481,
      "Ġha": 482,
      "Ġu": 483,
      "ĠIn": 484,
      "ation": 485,
      "ĠDie": 486,
      "ss": 487,
      "iel": 488,
      "Ġso": 489,
      "ĠRe": 490,
      "Ġsch": 491,
      "ma": 492,
      "nne": 493,
      "ck": 494,
      "ĠAn": 495,
      "Ġ3": 496,
      "ÃŁe": 497,
      "tel": 498,
      "rt": 499,
      "ort": 500,
      "ag": 501,
      "ken": 502,
      "ehr": 503,
      "wei": 504,
      "Ġic": 505,
      "Ġich": 506,
      "Ġals": 507,
      "Ġwie": 508,
      "hen": 509,
      "Ġ201": 510,
      "ĠSp": 511,
      "cht": 512,
      "lie": 513,
      "ĠEi": 514,
      "Ġc": 515,
      "scha": 516,
      "Ġwer": 517,
      "ungs": 518,
      "tz": 519,
      "Ġum": 520,
      "Ġoder": 521,
      "ab": 522,
      "und": 523,
      "rn": 524,
      "im": 525,
      "ad": 526,
      "rau": 527,
      "Ġsind": 528,
      "Ġhat": 529,
      "hre": 530,
      "ik": 531,
      "Ġwerden": 532,
      "tern": 533,
      "zen": 534,
      "ha": 535,
      "rie": 536,
      "Ġko": 537,
      "Ġvor": 538,
      "nde": 539,
      "ĠPro": 540,
      "Ġnach": 541,
      "ĠEin": 542,
      "ran": 543,
      "hal": 544,
      "ĠEr": 545,
      "nnen": 546,
      "fu": 547,
      "op": 548,
      "ĠWe": 549,
      "hne": 550,
      "urc": 551,
      "ahr": 552,
      "zu": 553,
      "ĠAu": 554,
      "oll": 555,
      "aus": 556,
      "lu": 557,
      "Ġsie": 558,
      "uch": 559,
      "tion": 560,
      "urch": 561,
      "liche": 562,
      "per": 563,
      "Ġam": 564,
      "Ġ4": 565,
      "gt": 566,
      "lan": 567,
      "ff": 568,
      "os": 569,
      "art": 570,
      "di": 571,
      "lt": 572,
      "ĠMe": 573,
      "Ġdass": 574,
      "all": 575,
      "Ġne": 576,
      "Ġwird": 577,
      "Ġda": 578,
      "Ġ|": 579,
      "Ġ5": 580,
      "hi": 581,
      "ĠMa": 582,
      "ĠUn": 583,
      "Ġzum": 584,
      "tet": 585,
      "iert": 586,
      "Ġeinen": 587,
      "Ġab": 588,
      "ĠTe": 589,
      "nder": 590,
      "Ġ19": 591,
      "Ġwei": 592,
      "Ġman": 593,
      "ĠâĢĵ": 594,
      "ĠLe": 595,
      "ĠSe": 596,
      "Ġkann": 597,
      "Ġ\"": 598,
      "wa": 599,
      "si": 600,
      "for": 601,
      "âĢľ": 602,
      "geb": 603,
      ")<": 604,
      "201": 605,
      "las": 606,
      "Ġeiner": 607,
      "Ġre": 608,
      "Ġdiese": 609,
      "Ġnoch": 610,
      "Ġzur": 611,
      "bt": 612,
      "ĠHe": 613,
      "ĠAr": 614,
      "Ġst": 615,
      "Ġent": 616,
      "Ġeinem": 617,
      "Ġ0": 618,
      "og": 619,
      "ĠAus": 620,
      "eh": 621,
      "ster": 622,
      "Ġsp": 623,
      "Ġwar": 624,
      "sa": 625,
      "ische": 626,
      "ischen": 627,
      "lau": 628,
      "Die": 629,
      "ment": 630,
      "ĠâĢŀ": 631,
      "no": 632,
      "ul": 633,
      "ieren": 634,
      "Ġdurch": 635,
      "ĠHo": 636,
      "Ġwur": 637,
      "ige": 638,
      "Ġunter": 639,
      "Ġnur": 640,
      "pp": 641,
      "Ġje": 642,
      "ang": 643,
      "schaft": 644,
      "arb": 645,
      "...": 646,
      "Ġaber": 647,
      "eiten": 648,
      "Ġbis": 649,
      "Ġhaben": 650,
      "ĠDa": 651,
      "res": 652,
      "son": 653,
      "fer": 654,
      "ker": 655,
      "ok": 656,
      "lichen": 657,
      "wer": 658,
      "uss": 659,
      "ĠAl": 660,
      "du": 661,
      "fa": 662,
      "hren": 663,
      "mp": 664,
      "nden": 665,
      "ĠMit": 666,
      "hl": 667,
      "Ġalle": 668,
      "gel": 669,
      "sta": 670,
      "atz": 671,
      "ĠMo": 672,
      "stell": 673,
      "des": 674,
      "ali": 675,
      "Ġ6": 676,
      "zi": 677,
      "zei": 678,
      "ĠDas": 679,
      "Ġmo": 680,
      "tra": 681,
      "ist": 682,
      "ĠAb": 683,
      "Ġ&": 684,
      "es": 685,
      "auf": 686,
      "Ġle": 687,
      "Ġseine": 688,
      "chn": 689,
      "mo": 690,
      "acht": 691,
      "zt": 692,
      "20": 693,
      "ahl": 694,
      "Ġmehr": 695,
      "ĠFe": 696,
      "land": 697,
      "ba": 698,
      "Ġ/": 699,
      "rin": 700,
      "sam": 701,
      "ĠVor": 702,
      "ute": 703,
      "iele": 704,
      "ga": 705,
      "keit": 706,
      "nis": 707,
      "mi": 708,
      "anz": 709,
      "tei": 710,
      "ild": 711,
      "><": 712,
      "ommen": 713,
      "ĠDer": 714,
      "ktion": 715,
      "kel": 716,
      "utsch": 717,
      "ap": 718,
      "age": 719,
      "unden": 720,
      "ffe": 721,
      "Ġr": 722,
      "rer": 723,
      "heit": 724,
      "ce": 725,
      "att": 726,
      "cher": 727,
      "ssen": 728,
      "bo": 729,
      "na": 730,
      "ts": 731,
      "Ġwa": 732,
      "ĠÂ": 733,
      "Ġwurde": 734,
      "sel": 735,
      "tig": 736,
      "Ġ7": 737,
      "fi": 738,
      "ewe": 739,
      "10": 740,
      "tes": 741,
      "ĠZu": 742,
      "ĠSta": 743,
      "da": 744,
      "Ġ8": 745,
      "De": 746,
      "ĠPe": 747,
      "ĠWo": 748,
      "Ġande": 749,
      "ĠMar": 750,
      "alt": 751,
      "Ġfi": 752,
      "âĤ": 753,
      "âĤ¬": 754,
      "Ġ9": 755,
      "Ġgro": 756,
      "ĠKo": 757,
      "so": 758,
      "eite": 759,
      "ati": 760,
      "ĠSo": 761,
      "Ġdu": 762,
      "form": 763,
      "Ġof": 764,
      "reis": 765,
      "ÃŁen": 766,
      "Ġwas": 767,
      "tw": 768,
      "Ġwenn": 769,
      "ĠNe": 770,
      "bur": 771,
      "bar": 772,
      "wie": 773,
      "ĠAuf": 774,
      "bi": 775,
      "dem": 776,
      "ack": 777,
      "omm": 778,
      "mal": 779,
      "Ġ10": 780,
      "war": 781,
      "onn": 782,
      "Ġsehr": 783,
      "Ġneue": 784,
      "ĠJah": 785,
      "dern": 786,
      "mit": 787,
      "Ġunse": 788,
      "Ġdann": 789,
      "icher": 790,
      "one": 791,
      "ka": 792,
      "Ġ200": 793,
      "ni": 794,
      "del": 795,
      "aue": 796,
      "teil": 797,
      "Ġsein": 798,
      "Ġgen": 799,
      "ĠKon": 800,
      "rit": 801,
      "bst": 802,
      "Ġihre": 803,
      "ĠHer": 804,
      "Ġthe": 805,
      "glich": 806,
      "Ġsoll": 807,
      "Ġste": 808,
      "leic": 809,
      "19": 810,
      "stel": 811,
      "ibt": 812,
      "ell": 813,
      "leich": 814,
      "Ġse": 815,
      "Ġuns": 816,
      "kte": 817,
      "ĠThe": 818,
      "Ġber": 819,
      "stu": 820,
      "nter": 821,
      "ow": 822,
      "Ġhier": 823,
      "Ġwieder": 824,
      "kti": 825,
      "12": 826,
      "Ġkeine": 827,
      "Ìģ": 828,
      "ĠFu": 829,
      "),": 830,
      "Ġma": 831,
      "zeit": 832,
      "bel": 833,
      "Ġdar": 834,
      "Ġvom": 835,
      "Ġ20": 836,
      "Ġon": 837,
      "wo": 838,
      "reic": 839,
      "ww": 840,
      "elt": 841,
      "Ġlie": 842,
      "igen": 843,
      "asi": 844,
      "Ġschon": 845,
      "ĠLi": 846,
      "ko": 847,
      "hnen": 848,
      "utz": 849,
      "Ġho": 850,
      "ĠMi": 851,
      "rund": 852,
      "Ġ18": 853,
      "ĠPo": 854,
      "pt": 855,
      "mm": 856,
      "Ġhe": 857,
      "Ġimmer": 858,
      "Ġla": 859,
      "les": 860,
      "ĠKu": 861,
      "ppe": 862,
      "ĠBo": 863,
      "11": 864,
      "setz": 865,
      "han": 866,
      "Ġwo": 867,
      "gs": 868,
      "ĠZeit": 869,
      "Ġgibt": 870,
      "...<": 871,
      "ffen": 872,
      "ĠHa": 873,
      "Ġhi": 874,
      "ĠBer": 875,
      "omp": 876,
      "eil": 877,
      "eits": 878,
      "reich": 879,
      "ns": 880,
      "schie": 881,
      "immer": 882,
      "ĠWir": 883,
      "ks": 884,
      "50": 885,
      "ielen": 886,
      "ast": 887,
      "cken": 888,
      "ehmen": 889,
      "ĠUm": 890,
      "uer": 891,
      "ĠIhre": 892,
      "ass": 893,
      "Ġ#": 894,
      "ard": 895,
      "ord": 896,
      "inder": 897,
      "Ġher": 898,
      "ill": 899,
      "eigen": 900,
      "let": 901,
      "St": 902,
      "ĠBa": 903,
      "ĠSu": 904,
      "!<": 905,
      "ierung": 906,
      "Ġhabe": 907,
      "fol": 908,
      "ĠâĤ¬": 909,
      "vor": 910,
      "je": 911,
      "ĠKa": 912,
      "isch": 913,
      "Sc": 914,
      "Ġpro": 915,
      "mber": 916,
      "id": 917,
      "ug": 918,
      "Ġzwei": 919,
      "ĠLa": 920,
      "ust": 921,
      "arten": 922,
      "Ġmir": 923,
      "?<": 924,
      "nst": 925,
      "etzt": 926,
      "ita": 927,
      "Ġ12": 928,
      "Ġmeine": 929,
      "burg": 930,
      "hte": 931,
      "nge": 932,
      "30": 933,
      "halten": 934,
      "eim": 935,
      "ĠUhr": 936,
      "mel": 937,
      "los": 938,
      "to": 939,
      "ĠQ": 940,
      "ER": 941,
      "Ġsel": 942,
      "ĠSa": 943,
      "Ve": 944,
      "Ei": 945,
      "ick": 946,
      "ĠRo": 947,
      "Ġohne": 948,
      "fel": 949,
      "ĠBu": 950,
      "ĠUnter": 951,
      "mein": 952,
      "ĠEnt": 953,
      "lig": 954,
      "unde": 955,
      "rk": 956,
      "ia": 957,
      "dt": 958,
      "su": 959,
      "atione": 960,
      "qu": 961,
      "fach": 962,
      "ationen": 963,
      "ant": 964,
      "ĠDu": 965,
      "Be": 966,
      "aut": 967,
      "ĠFor": 968,
      "rag": 969,
      "spiel": 970,
      "gend": 971,
      "ĠEs": 972,
      "Ge": 973,
      "ku": 974,
      "ĠNa": 975,
      "lung": 976,
      "schu": 977,
      "Ġgegen": 978,
      "ress": 979,
      "Ġkl": 980,
      "Ġange": 981,
      "chte": 982,
      "ĠEur": 983,
      "rem": 984,
      "ĠJahr": 985,
      "ĠArb": 986,
      "ĠBei": 987,
      "In": 988,
      "ĠWei": 989,
      "Ġ15": 990,
      "Ġ[": 991,
      "ble": 992,
      "sto": 993,
      "ank": 994,
      "ĠRei": 995,
      "olle": 996,
      "ven": 997,
      "Ġper": 998,
      "Ġmal": 999,
      ":<": 1000,
      "ĠWa": 1001,
      "ark": 1002,
      "ĠPer": 1003,
      "gi": 1004,
      "Ġdieser": 1005,
      "Das": 1006,
      "We": 1007,
      "ding": 1008,
      "Der": 1009,
      "issen": 1010,
      "000": 1011,
      "zer": 1012,
      "pf": 1013,
      "Ġmich": 1014,
      "18": 1015,
      "Ġme": 1016,
      "ĠCo": 1017,
      "elle": 1018,
      "rat": 1019,
      "ĠStu": 1020,
      "tp": 1021,
      "gan": 1022,
      "15": 1023,
      "dien": 1024,
      "lassen": 1025,
      "Ġgut": 1026,
      "Ein": 1027,
      "ndet": 1028,
      "ĠIc": 1029,
      "ĠNach": 1030,
      "ĠJu": 1031,
      "Ġna": 1032,
      "Ġ16": 1033,
      "ĠMon": 1034,
      "Ġand": 1035,
      "Ġausge": 1036,
      "ĠTa": 1037,
      "ĠRu": 1038,
      "man": 1039,
      "Ġ14": 1040,
      "stand": 1041,
      "asino": 1042,
      "atur": 1043,
      "ucht": 1044,
      "Ġonline": 1045,
      "Ġ<": 1046,
      "ĠIch": 1047,
      "aufen": 1048,
      "ĠHotel": 1049,
      "fahr": 1050,
      "imm": 1051,
      "ĠOn": 1052,
      "Ġeigen": 1053,
      "dit": 1054,
      "ĠTo": 1055,
      "ĠAut": 1056,
      "Ġlan": 1057,
      "yste": 1058,
      "ĠMen": 1059,
      "weise": 1060,
      "ĠSchu": 1061,
      "ichtig": 1062,
      "ĠIm": 1063,
      "22": 1064,
      "ĠSpiel": 1065,
      "Ġto": 1066,
      "ĠKinder": 1067,
      "Ġ17": 1068,
      "hlen": 1069,
      "ĠGro": 1070,
      "Ġmu": 1071,
      "bs": 1072,
      "ye": 1073,
      "Ġviel": 1074,
      "ire": 1075,
      "cke": 1076,
      "ĠMu": 1077,
      "Ġ:": 1078,
      "ĠWas": 1079,
      "ice": 1080,
      "Ġeines": 1081,
      "satz": 1082,
      "rank": 1083,
      "16": 1084,
      "Ġbek": 1085,
      "ĠProdu": 1086,
      "14": 1087,
      "//": 1088,
      "bau": 1089,
      "Ġbeim": 1090,
      "pro": 1091,
      "fall": 1092,
      "ierte": 1093,
      "co": 1094,
      "Ġwel": 1095,
      "Ġihr": 1096,
      ").": 1097,
      "ktu": 1098,
      "Ġsowie": 1099,
      "ften": 1100,
      "ollen": 1101,
      "ĠQu": 1102,
      "ari": 1103,
      "ahren": 1104,
      "net": 1105,
      "wischen": 1106,
      "berg": 1107,
      "UR": 1108,
      "gra": 1109,
      "vi": 1110,
      "amit": 1111,
      "http": 1112,
      "Ġja": 1113,
      "Re": 1114,
      "aten": 1115,
      "\",": 1116,
      "200": 1117,
      "13": 1118,
      "sser": 1119,
      "://": 1120,
      "ĠNo": 1121,
      "Ġ13": 1122,
      "17": 1123,
      "Ġhin": 1124,
      "atu": 1125,
      "lle": 1126,
      "IN": 1127,
      "EN": 1128,
      "rne": 1129,
      "ĠSte": 1130,
      "richt": 1131,
      "ragen": 1132,
      "lage": 1133,
      "ichte": 1134,
      "dung": 1135,
      "Ġfe": 1136,
      "com": 1137,
      "sse": 1138,
      "ĠLo": 1139,
      "latz": 1140,
      "tt": 1141,
      "ĠLei": 1142,
      "tikel": 1143,
      "ĠLeben": 1144,
      "min": 1145,
      "mann": 1146,
      "Ġwu": 1147,
      "ÃŁer": 1148,
      "Ġmuss": 1149,
      "nger": 1150,
      "Ġgew": 1151,
      "mb": 1152,
      "zel": 1153,
      "Ġson": 1154,
      "vers": 1155,
      "ĠJo": 1156,
      "Ġfor": 1157,
      "ate": 1158,
      "uten": 1159,
      "Ver": 1160,
      "--": 1161,
      "ĠVers": 1162,
      "abei": 1163,
      "uf": 1164,
      "Ġfinden": 1165,
      "tre": 1166,
      "Ġweiter": 1167,
      "Ġ,": 1168,
      "ĠGru": 1169,
      "kon": 1170,
      "ĠLie": 1171,
      "Ġganz": 1172,
      "ide": 1173,
      "nf": 1174,
      "ĠTra": 1175,
      "schei": 1176,
      "Ġdiesem": 1177,
      "\":": 1178,
      "ders": 1179,
      "zie": 1180,
      "twas": 1181,
      "licht": 1182,
      "onne": 1183,
      "nah": 1184,
      "stellt": 1185,
      "gung": 1186,
      "Sch": 1187,
      "ĠDi": 1188,
      "Ġsu": 1189,
      "24": 1190,
      "ses": 1191,
      "olog": 1192,
      "ĠHand": 1193,
      "ign": 1194,
      "Ġlei": 1195,
      "ale": 1196,
      "Ġweite": 1197,
      "Ġselbst": 1198,
      "assen": 1199,
      "zimmer": 1200,
      "gesch": 1201,
      "aum": 1202,
      "raue": 1203,
      "ĠBewe": 1204,
      "ĠUnd": 1205,
      "rz": 1206,
      "Ġjetzt": 1207,
      "recht": 1208,
      "bu": 1209,
      "geben": 1210,
      "ĠÂ»": 1211,
      "25": 1212,
      "ges": 1213,
      "ĠLu": 1214,
      "ĠOnline": 1215,
      "Ġbi": 1216,
      "teri": 1217,
      "zent": 1218,
      "nk": 1219,
      "ron": 1220,
      "Ġhatte": 1221,
      "halt": 1222,
      "ĠEx": 1223,
      "lag": 1224,
      "Ġkosten": 1225,
      "05": 1226,
      "sehen": 1227,
      "07": 1228,
      "nit": 1229,
      "99": 1230,
      "Ġetwas": 1231,
      "ree": 1232,
      "Ic": 1233,
      "ĠMan": 1234,
      "bil": 1235,
      "Ġbie": 1236,
      "03": 1237,
      "Ġkleine": 1238,
      "chi": 1239,
      "Ġins": 1240,
      "Ġte": 1241,
      "stag": 1242,
      "luss": 1243,
      "Ich": 1244,
      "ommt": 1245,
      "Ġdeut": 1246,
      "06": 1247,
      "trie": 1248,
      "ĠStadt": 1249,
      "sicht": 1250,
      "Ġ11": 1251,
      "04": 1252,
      "haus": 1253,
      "ame": 1254,
      "Ġgeht": 1255,
      "ĠFi": 1256,
      "hrt": 1257,
      "hau": 1258,
      "tzen": 1259,
      "od": 1260,
      "ĠDaten": 1261,
      "stra": 1262,
      "Ġx": 1263,
      "under": 1264,
      "tro": 1265,
      "Ġob": 1266,
      "An": 1267,
      "hop": 1268,
      "tin": 1269,
      "Ġschn": 1270,
      "dene": 1271,
      "ffent": 1272,
      "ĠLand": 1273,
      "ystem": 1274,
      "ĠWie": 1275,
      "Ġviele": 1276,
      "bild": 1277,
      "Ġex": 1278,
      "ĠFa": 1279,
      "sk": 1280,
      "unktion": 1281,
      "tigen": 1282,
      "ĠCh": 1283,
      "lus": 1284,
      "ĠWer": 1285,
      "Ġ=": 1286,
      "08": 1287,
      "rich": 1288,
      "eitung": 1289,
      "ent": 1290,
      "AN": 1291,
      "ph": 1292,
      "io": 1293,
      "rage": 1294,
      "Ġmachen": 1295,
      "mittel": 1296,
      "ald": 1297,
      "stellen": 1298,
      "gru": 1299,
      "02": 1300,
      "arte": 1301,
      "Ġscho": 1302,
      "Ma": 1303,
      "ĠHau": 1304,
      "ja": 1305,
      "ou": 1306,
      "ruck": 1307,
      "ĠReg": 1308,
      "amil": 1309,
      "ĠGew": 1310,
      "von": 1311,
      "igkeit": 1312,
      "keiten": 1313,
      "th": 1314,
      "09": 1315,
      "lick": 1316,
      "nig": 1317,
      "Ġdamit": 1318,
      "ĠY": 1319,
      "halb": 1320,
      "Ġdoch": 1321,
      "zo": 1322,
      "licher": 1323,
      "ĠEuro": 1324,
      "ĠWohn": 1325,
      "ĠKom": 1326,
      "ock": 1327,
      "ĠJahre": 1328,
      "CH": 1329,
      "gang": 1330,
      "ĠJahren": 1331,
      "Ġ.": 1332,
      "scher": 1333,
      "ĠTeil": 1334,
      "ĠGesch": 1335,
      "Ġ...": 1336,
      "ĠGrund": 1337,
      "fo": 1338,
      "artn": 1339,
      "ĠTi": 1340,
      "teg": 1341,
      "ĠPerson": 1342,
      "Ġeinge": 1343,
      "hten": 1344,
      "artne": 1345,
      "ĠBild": 1346,
      "auer": 1347,
      "ĠWi": 1348,
      "Ġseit": 1349,
      "Ġwurden": 1350,
      "illi": 1351,
      "....": 1352,
      "itz": 1353,
      "ĠRa": 1354,
      "Pro": 1355,
      "ĠGel": 1356,
      "orf": 1357,
      "ĠUntern": 1358,
      "Ġet": 1359,
      "Ġ2018": 1360,
      "lagen": 1361,
      "amp": 1362,
      "spre": 1363,
      "alita": 1364,
      "ander": 1365,
      "ktiv": 1366,
      "Ġ+": 1367,
      "Ġalles": 1368,
      "gleich": 1369,
      "ĠWelt": 1370,
      "etz": 1371,
      "Ġro": 1372,
      "ring": 1373,
      "undes": 1374,
      "fahren": 1375,
      "hm": 1376,
      "ĠMus": 1377,
      "gebo": 1378,
      "ĠPf": 1379,
      "pen": 1380,
      "kommen": 1381,
      "llt": 1382,
      "ĠStra": 1383,
      "asse": 1384,
      "iz": 1385,
      "ĠIntern": 1386,
      "Ġdei": 1387,
      "arbei": 1388,
      "ĠInform": 1389,
      "Sp": 1390,
      "ĠPreis": 1391,
      "heim": 1392,
      "ub": 1393,
      "stei": 1394,
      "rde": 1395,
      "ellen": 1396,
      "die": 1397,
      "rom": 1398,
      "unter": 1399,
      "ys": 1400,
      "wend": 1401,
      "als": 1402,
      "fte": 1403,
      "ling": 1404,
      "ruc": 1405,
      "Ġ25": 1406,
      "zahl": 1407,
      "23": 1408,
      "mu": 1409,
      "Ġsollte": 1410,
      "ĠKe": 1411,
      "ĠX": 1412,
      "Ġdein": 1413,
      "wir": 1414,
      "chten": 1415,
      "ure": 1416,
      "Ġ30": 1417,
      "Ġdenn": 1418,
      "annt": 1419,
      "Ġwaren": 1420,
      "Ġerst": 1421,
      "ĠUS": 1422,
      "ĠIhnen": 1423,
      "Te": 1424,
      "tschaft": 1425,
      "Ġall": 1426,
      "ĠFot": 1427,
      "Ġwill": 1428,
      "rauen": 1429,
      "warz": 1430,
      "Ġ24": 1431,
      "hin": 1432,
      "eister": 1433,
      "gene": 1434,
      "Ġletz": 1435,
      "Ġlo": 1436,
      "oli": 1437,
      "que": 1438,
      "ĠAp": 1439,
      "Ġkon": 1440,
      "tte": 1441,
      "rg": 1442,
      "tige": 1443,
      "tag": 1444,
      "ĠSchr": 1445,
      "Ġdieses": 1446,
      "Ġkm": 1447,
      "are": 1448,
      "stimm": 1449,
      "alis": 1450,
      "artner": 1451,
      "Ġwelche": 1452,
      "hol": 1453,
      "26": 1454,
      "ngen": 1455,
      "rad": 1456,
      "Ġ2017": 1457,
      "iss": 1458,
      "Ġnun": 1459,
      "kun": 1460,
      "ĠHaus": 1461,
      "schi": 1462,
      "ĠAnt": 1463,
      "schutz": 1464,
      "ĠMai": 1465,
      "bie": 1466,
      "up": 1467,
      "dig": 1468,
      "bung": 1469,
      "ĠJe": 1470,
      "Ġfol": 1471,
      "Ġli": 1472,
      "ĠBau": 1473,
      "ĠPa": 1474,
      "ĠFre": 1475,
      "hrung": 1476,
      "kla": 1477,
      "ierten": 1478,
      "Ġandere": 1479,
      "ĠFahr": 1480,
      "28": 1481,
      "ĠAm": 1482,
      "27": 1483,
      "Ġersten": 1484,
      "Ġdabei": 1485,
      "ĠFrei": 1486,
      "Ġbeste": 1487,
      "ry": 1488,
      "inn": 1489,
      "Ġeben": 1490,
      "tik": 1491,
      "Ġ2019": 1492,
      "rv": 1493,
      "ischer": 1494,
      "Ġcm": 1495,
      "ĠHi": 1496,
      "ĠOr": 1497,
      "hand": 1498,
      "Ho": 1499,
      "kten": 1500,
      "www": 1501,
      "mar": 1502,
      "Ġnie": 1503,
      "Ġbin": 1504,
      "ĠFlu": 1505,
      "ĠEine": 1506,
      "ril": 1507,
      "reise": 1508,
      "Ġl": 1509,
      "Ġor": 1510,
      "Se": 1511,
      "resse": 1512,
      "Ġ100": 1513,
      "Al": 1514,
      "Ġlassen": 1515,
      "Ġku": 1516,
      "itte": 1517,
      "lern": 1518,
      "ichten": 1519,
      "ace": 1520,
      "__": 1521,
      "tze": 1522,
      "ĠBl": 1523,
      "Ġaller": 1524,
      "ĠDes": 1525,
      "Ġis": 1526,
      "ĠTag": 1527,
      "Ġsei": 1528,
      "mus": 1529,
      "alen": 1530,
      "Ġges": 1531,
      "ĠSon": 1532,
      "Ġ21": 1533,
      "yp": 1534,
      "Ġdrei": 1535,
      "rlich": 1536,
      "ĠPar": 1537,
      "unkt": 1538,
      "Ġzuru": 1539,
      "ĠMin": 1540,
      "own": 1541,
      "sent": 1542,
      "pa": 1543,
      "zin": 1544,
      "Ġta": 1545,
      "45": 1546,
      "ppen": 1547,
      "ct": 1548,
      "Ġmi": 1549,
      "hs": 1550,
      "anne": 1551,
      "Ġkaufen": 1552,
      "Ġalso": 1553,
      "ĠPra": 1554,
      "ity": 1555,
      "ans": 1556,
      "reichen": 1557,
      "Ġsa": 1558,
      "ĠBil": 1559,
      "det": 1560,
      "Ġseiner": 1561,
      "Ġ23": 1562,
      "ĠIhr": 1563,
      "za": 1564,
      "bei": 1565,
      "Ġeigene": 1566,
      "raum": 1567,
      "29": 1568,
      "alten": 1569,
      "Ġgesch": 1570,
      "ione": 1571,
      "ĠArbeit": 1572,
      "do": 1573,
      "rig": 1574,
      "tten": 1575,
      "Ġ2016": 1576,
      "78": 1577,
      "ĠTest": 1578,
      "ĠWasser": 1579,
      "Wir": 1580,
      "Ġkonn": 1581,
      "ĠGa": 1582,
      "tellen": 1583,
      "hrend": 1584,
      "werk": 1585,
      "Ġy": 1586,
      "sammen": 1587,
      "kunft": 1588,
      "Ġsag": 1589,
      "Ġheute": 1590,
      "rum": 1591,
      "Ġbeson": 1592,
      "opa": 1593,
      "ĠSeite": 1594,
      "rand": 1595,
      "Ġneuen": 1596,
      "ĠSti": 1597,
      "ĠEn": 1598,
      "eig": 1599,
      "Mit": 1600,
      "nner": 1601,
      "ĠFil": 1602,
      "wick": 1603,
      "lekt": 1604,
      "Ġspa": 1605,
      "zeu": 1606,
      "Ġ22": 1607,
      "frei": 1608,
      "lex": 1609,
      "Ġkommt": 1610,
      "wor": 1611,
      "xt": 1612,
      "ĠKunden": 1613,
      "brau": 1614,
      "osit": 1615,
      "ations": 1616,
      "gar": 1617,
      "sung": 1618,
      "Ġwirk": 1619,
      "Ġkommen": 1620,
      "zw": 1621,
      "ĠWenn": 1622,
      "nisse": 1623,
      "zeug": 1624,
      "Er": 1625,
      "iv": 1626,
      "ly": 1627,
      "ies": 1628,
      "Ġsicher": 1629,
      "ĠGo": 1630,
      "Ġunsere": 1631,
      "ĠKl": 1632,
      "Ġgef": 1633,
      "ative": 1634,
      "iger": 1635,
      "Ġsta": 1636,
      "ĠUr": 1637,
      "49": 1638,
      "tlich": 1639,
      "schrei": 1640,
      "fang": 1641,
      "doch": 1642,
      "legen": 1643,
      "sst": 1644,
      "glie": 1645,
      "urz": 1646,
      "ĠJun": 1647,
      "folg": 1648,
      "bach": 1649,
      "ĠAd": 1650,
      "ĠZus": 1651,
      "pte": 1652,
      "bend": 1653,
      "lay": 1654,
      "rade": 1655,
      "old": 1656,
      "He": 1657,
      "onen": 1658,
      "ommun": 1659,
      "spra": 1660,
      "ĠJan": 1661,
      "ringen": 1662,
      "orden": 1663,
      "tzt": 1664,
      "oren": 1665,
      "Ġdazu": 1666,
      "lat": 1667,
      "ĠTh": 1668,
      "ĠBewert": 1669,
      "arm": 1670,
      "40": 1671,
      "Ġaktu": 1672,
      "Ġkein": 1673,
      "ĠSport": 1674,
      "ett": 1675,
      "ĠBerlin": 1676,
      "ĠSpie": 1677,
      "21": 1678,
      "Ġweil": 1679,
      "uter": 1680,
      "ĠBuch": 1681,
      "ĠTage": 1682,
      "stalt": 1683,
      "auen": 1684,
      "nung": 1685,
      "schluss": 1686,
      "Ġ*": 1687,
      "Ġ50": 1688,
      "35": 1689,
      "ilfe": 1690,
      "ĠGen": 1691,
      "unst": 1692,
      "ndig": 1693,
      "adt": 1694,
      "ionen": 1695,
      "ST": 1696,
      "forder": 1697,
      "ĠProble": 1698,
      "Ġdiesen": 1699,
      "schlie": 1700,
      "Ġbesten": 1701,
      "ĠNeu": 1702,
      "isten": 1703,
      "Ġhoch": 1704,
      "Ġdire": 1705,
      "ĠAll": 1706,
      "36": 1707,
      "ĠRecht": 1708,
      "allen": 1709,
      "ĠDiese": 1710,
      "Ġschr": 1711,
      "zug": 1712,
      "fs": 1713,
      "hlt": 1714,
      "Ġsteht": 1715,
      "ara": 1716,
      "ammen": 1717,
      "setzt": 1718,
      "ĠAuch": 1719,
      "ĠArt": 1720,
      "ĠFamil": 1721,
      "38": 1722,
      "kauf": 1723,
      "90": 1724,
      "!!": 1725,
      "âĢĿ": 1726,
      "falls": 1727,
      "Ġjedoch": 1728,
      "ĠPoli": 1729,
      "95": 1730,
      "urn": 1731,
      "âĢĵ": 1732,
      "ĠBundes": 1733,
      "Ġgleich": 1734,
      "nnt": 1735,
      "load": 1736,
      "spro": 1737,
      "Ġnatu": 1738,
      "dee": 1739,
      "Ġra": 1740,
      "grund": 1741,
      "zeigen": 1742,
      "fort": 1743,
      "âĢľ,": 1744,
      "Ġ2015": 1745,
      "bru": 1746,
      "sell": 1747,
      "ball": 1748,
      "ogra": 1749,
      "jekt": 1750,
      "Ġdeine": 1751,
      "ommer": 1752,
      "Ġgute": 1753,
      "AR": 1754,
      "ane": 1755,
      "ĠDamen": 1756,
      "Ar": 1757,
      "hst": 1758,
      "stein": 1759,
      "gramm": 1760,
      "ware": 1761,
      "Ġgeho": 1762,
      "schin": 1763,
      "wi": 1764,
      "llen": 1765,
      "va": 1766,
      "zeichn": 1767,
      "asst": 1768,
      "Ġbeg": 1769,
      "ummer": 1770,
      "Ġke": 1771,
      "Ġmei": 1772,
      "ĠKre": 1773,
      "Ġcasino": 1774,
      "ed": 1775,
      "ore": 1776,
      "berei": 1777,
      "ĠCasino": 1778,
      "ĠOrt": 1779,
      "ĠBeit": 1780,
      "ewer": 1781,
      "ĠHoch": 1782,
      "orn": 1783,
      "stau": 1784,
      "Ġabge": 1785,
      "Ġca": 1786,
      "ckt": 1787,
      "Ġaufge": 1788,
      "erg": 1789,
      "Ġblei": 1790,
      "ĠFall": 1791,
      "stung": 1792,
      "ON": 1793,
      "Ġfre": 1794,
      "schein": 1795,
      "gabe": 1796,
      "olz": 1797,
      "EL": 1798,
      "orgen": 1799,
      "log": 1800,
      "hle": 1801,
      "ange": 1802,
      "rik": 1803,
      "Ġihrer": 1804,
      "opf": 1805,
      "nahme": 1806,
      "Ġgar": 1807,
      "Ġat": 1808,
      "Ġâ": 1809,
      "achsen": 1810,
      "raft": 1811,
      "Sie": 1812,
      "andel": 1813,
      "ting": 1814,
      "vo": 1815,
      "Ġdir": 1816,
      "Ġeinmal": 1817,
      "ĠGra": 1818,
      "ĠNew": 1819,
      "ĠStand": 1820,
      "ond": 1821,
      "reiche": 1822,
      "Ġmein": 1823,
      "ĠSam": 1824,
      "chnik": 1825,
      "ki": 1826,
      "Ġ%": 1827,
      "Ġallem": 1828,
      "ters": 1829,
      "ĠAber": 1830,
      "ĠSchn": 1831,
      "samt": 1832,
      "80": 1833,
      "ĠUni": 1834,
      "ĠBi": 1835,
      "ande": 1836,
      "Ġlang": 1837,
      "ess": 1838,
      "ĠChr": 1839,
      "ĠgroÃŁe": 1840,
      "ĠEnde": 1841,
      "Ġpra": 1842,
      "org": 1843,
      "Im": 1844,
      "Ġpa": 1845,
      "ĠAuto": 1846,
      "rs": 1847,
      "ĠAug": 1848,
      "mbH": 1849,
      "Ġsehen": 1850,
      "ĠCon": 1851,
      "urt": 1852,
      "gebot": 1853,
      "60": 1854,
      "ĠDurch": 1855,
      "Ġmus": 1856,
      "Ġliegt": 1857,
      "riv": 1858,
      "Ġ>": 1859,
      "feld": 1860,
      "tein": 1861,
      "alle": 1862,
      "ĠMann": 1863,
      "ĠKar": 1864,
      "vent": 1865,
      "Ne": 1866,
      "ĠEl": 1867,
      "Fu": 1868,
      "dings": 1869,
      "Ġmacht": 1870,
      "33": 1871,
      "Ġihn": 1872,
      "Ġrecht": 1873,
      "stadt": 1874,
      "Ġemp": 1875,
      "Mo": 1876,
      "ĠGu": 1877,
      "Ġjeder": 1878,
      "ÃŁt": 1879,
      "Ġfrei": 1880,
      "schine": 1881,
      "ĠGeld": 1882,
      "ĠHier": 1883,
      "2017": 1884,
      "Ġdort": 1885,
      "Le": 1886,
      "ĠFar": 1887,
      "ĠLin": 1888,
      "ĠOber": 1889,
      "Ġhei": 1890,
      ",<": 1891,
      "ligen": 1892,
      "walt": 1893,
      "Ġbietet": 1894,
      "ĠApp": 1895,
      "einen": 1896,
      "Ġihren": 1897,
      "dia": 1898,
      "Ġdies": 1899,
      "nanz": 1900,
      "Ġseinen": 1901,
      "urs": 1902,
      "Ġeinige": 1903,
      "ral": 1904,
      "Ġth": 1905,
      "uren": 1906,
      "mat": 1907,
      "ĠEUR": 1908,
      "Es": 1909,
      "ĠJuli": 1910,
      "Ġverb": 1911,
      "terial": 1912,
      "macht": 1913,
      "Ġbo": 1914,
      "ĠGmbH": 1915,
      "Ġtra": 1916,
      "ĠSpe": 1917,
      "ssel": 1918,
      "Ġlau": 1919,
      "lef": 1920,
      "achten": 1921,
      "reit": 1922,
      "Ġsol": 1923,
      "schied": 1924,
      "ober": 1925,
      "IT": 1926,
      "ahlen": 1927,
      "buch": 1928,
      "ĠMehr": 1929,
      "34": 1930,
      "itt": 1931,
      "kehr": 1932,
      "ori": 1933,
      "\",\"": 1934,
      "Ġerste": 1935,
      "ive": 1936,
      "ĠThema": 1937,
      "iell": 1938,
      "fil": 1939,
      "ĠWeb": 1940,
      "wert": 1941,
      "ption": 1942,
      ">âĢ": 1943,
      ").<": 1944,
      "Ġbzw": 1945,
      "Ġ'": 1946,
      "gebote": 1947,
      "renz": 1948,
      "bern": 1949,
      "Ġfest": 1950,
      "sit": 1951,
      "ps": 1952,
      "37": 1953,
      "laub": 1954,
      "hof": 1955,
      "https": 1956,
      "Ġnichts": 1957,
      "takt": 1958,
      "arbeit": 1959,
      "ES": 1960,
      "ĠLebens": 1961,
      "Ġverwe": 1962,
      "uar": 1963,
      "eie": 1964,
      "chst": 1965,
      "Aus": 1966,
      "ats": 1967,
      "Ġfolgen": 1968,
      "po": 1969,
      "ĠVide": 1970,
      "iet": 1971,
      "Ġ2014": 1972,
      "Ġ28": 1973,
      "2016": 1974,
      "AT": 1975,
      "nz": 1976,
      "fern": 1977,
      "lass": 1978,
      "ĠInd": 1979,
      "Ġ01": 1980,
      "steller": 1981,
      "dere": 1982,
      "gri": 1983,
      "ickel": 1984,
      "Ġ26": 1985,
      "iere": 1986,
      "55": 1987,
      "\"<": 1988,
      "ĠAc": 1989,
      "So": 1990,
      "Ġkomp": 1991,
      "ton": 1992,
      "Ġ27": 1993,
      "rien": 1994,
      "ĠOkt": 1995,
      "trag": 1996,
      "lege": 1997,
      "ownload": 1998,
      "ĠSchul": 1999,
      "schnit": 2000,
      "tisch": 2001,
      "ĠGemein": 2002,
      "pel": 2003,
      "ĠKosten": 2004,
      "ĠGescha": 2005,
      "lossen": 2006,
      "rger": 2007,
      "xe": 2008,
      "such": 2009,
      "48": 2010,
      "neh": 2011,
      "isk": 2012,
      "dorf": 2013,
      "Ġgu": 2014,
      "OR": 2015,
      "wahl": 2016,
      "ĠSicher": 2017,
      "ĠTu": 2018,
      "utter": 2019,
      "Ġstehen": 2020,
      "ĠTer": 2021,
      "Ġfa": 2022,
      "Ġ2013": 2023,
      "chs": 2024,
      "Ġallen": 2025,
      "Ġru": 2026,
      "teile": 2027,
      "2019": 2028,
      "ĠDien": 2029,
      "ĠMal": 2030,
      "Me": 2031,
      "ĠJuni": 2032,
      "ĠâĢľ": 2033,
      "Ġinn": 2034,
      "gu": 2035,
      "hrer": 2036,
      "spe": 2037,
      "stan": 2038,
      "Ġdirekt": 2039,
      "olf": 2040,
      "ĠZe": 2041,
      "dition": 2042,
      "wohl": 2043,
      "ĠSel": 2044,
      "ĠHei": 2045,
      "39": 2046,
      "ED": 2047,
      "ning": 2048,
      "the": 2049,
      "Ġtro": 2050,
      "onnen": 2051,
      "ĠFrauen": 2052,
      "zeln": 2053,
      "teress": 2054,
      "46": 2055,
      "spiele": 2056,
      "Ġspe": 2057,
      "sport": 2058,
      "fre": 2059,
      "Ġgan": 2060,
      "ĠFru": 2061,
      "lauf": 2062,
      "ld": 2063,
      "ĠKunst": 2064,
      "Ġinne": 2065,
      "ĠMet": 2066,
      "rper": 2067,
      "rung": 2068,
      "Ġdi": 2069,
      "ndern": 2070,
      "ĠFrank": 2071,
      "ĠDeut": 2072,
      "ologie": 2073,
      "ket": 2074,
      "ness": 2075,
      "ĠAng": 2076,
      "eicht": 2077,
      "terne": 2078,
      "Ġgerade": 2079,
      "otor": 2080,
      "stens": 2081,
      "Ġkonnte": 2082,
      "utzen": 2083,
      "ĠBilder": 2084,
      "Ġwohl": 2085,
      "wand": 2086,
      "Ġjeden": 2087,
      "plan": 2088,
      "Ġstatt": 2089,
      "Da": 2090,
      "nnte": 2091,
      "AL": 2092,
      "iew": 2093,
      "tische": 2094,
      "Ġrund": 2095,
      "ĠVerb": 2096,
      "reg": 2097,
      "our": 2098,
      "ĠAugust": 2099,
      "Ġno": 2100,
      "ĠZimmer": 2101,
      "ational": 2102,
      "Ġdafu": 2103,
      "ptember": 2104,
      "ĠHam": 2105,
      "fla": 2106,
      "Ġverfu": 2107,
      ".,": 2108,
      "âĢĻ": 2109,
      "ativ": 2110,
      "2018": 2111,
      "ĠWochen": 2112,
      "seite": 2113,
      "ĠOb": 2114,
      "Â»": 2115,
      "ĠSy": 2116,
      "ater": 2117,
      "ĠSi": 2118,
      "Ba": 2119,
      "47": 2120,
      "Ġvoll": 2121,
      "Ġihm": 2122,
      "ance": 2123,
      "zon": 2124,
      "ĠVol": 2125,
      "Ġgeben": 2126,
      "ĠPlatz": 2127,
      "ĠScha": 2128,
      "ĠHal": 2129,
      "liches": 2130,
      "stehen": 2131,
      "ian": 2132,
      "lis": 2133,
      "oo": 2134,
      "ruch": 2135,
      "punkt": 2136,
      "heits": 2137,
      "AS": 2138,
      "'s": 2139,
      "ĠFol": 2140,
      "hmen": 2141,
      "ĠMilli": 2142,
      "Ġgest": 2143,
      "achr": 2144,
      "nchen": 2145,
      "ĠJa": 2146,
      "ĠKir": 2147,
      "Ġmm": 2148,
      "ars": 2149,
      "US": 2150,
      "Ġbrau": 2151,
      "ĠBro": 2152,
      "bildung": 2153,
      "ĠFrage": 2154,
      "ĠNie": 2155,
      "Ġwollen": 2156,
      "ergie": 2157,
      "ĠAnd": 2158,
      "ĠVeran": 2159,
      "hsel": 2160,
      "Ġetwa": 2161,
      "tu": 2162,
      "Ġfru": 2163,
      "Ġ2012": 2164,
      "ĠGarten": 2165,
      "]<": 2166,
      "auft": 2167,
      "Ġby": 2168,
      "Ġwenig": 2169,
      "legt": 2170,
      "hei": 2171,
      "itu": 2172,
      "lasse": 2173,
      "iche": 2174,
      "wu": 2175,
      "nu": 2176,
      "hung": 2177,
      "chsel": 2178,
      "Ġgeb": 2179,
      "ritt": 2180,
      "Ġweni": 2181,
      "ktur": 2182,
      "ami": 2183,
      "IS": 2184,
      "ahmen": 2185,
      "Ġ29": 2186,
      "zept": 2187,
      "ĠAlle": 2188,
      "Ġoft": 2189,
      "Ġ...<": 2190,
      "Ġdich": 2191,
      "ith": 2192,
      "lang": 2193,
      "Ġgerne": 2194,
      "hir": 2195,
      "ĠWeg": 2196,
      "vember": 2197,
      "tzlich": 2198,
      "56": 2199,
      "ĠReise": 2200,
      "stoff": 2201,
      "rieben": 2202,
      "Ġvielen": 2203,
      "sol": 2204,
      "rder": 2205,
      "Ġscha": 2206,
      "tal": 2207,
      "Ġze": 2208,
      "einig": 2209,
      "ted": 2210,
      "Ġbeiden": 2211,
      "Ġkom": 2212,
      "Wie": 2213,
      "Li": 2214,
      "Ġlange": 2215,
      "laf": 2216,
      "ĠHerren": 2217,
      "orie": 2218,
      "ils": 2219,
      "hu": 2220,
      "ĠApril": 2221,
      "flu": 2222,
      "lik": 2223,
      "leg": 2224,
      "stru": 2225,
      "book": 2226,
      "ĠJanuar": 2227,
      "ĠKat": 2228,
      "ĠChe": 2229,
      "Ġ199": 2230,
      "Ġgemein": 2231,
      "Ġir": 2232,
      "cker": 2233,
      "schuhe": 2234,
      "ganis": 2235,
      "was": 2236,
      "denen": 2237,
      "agement": 2238,
      "lose": 2239,
      "yer": 2240,
      "Ġneu": 2241,
      "31": 2242,
      "Ġgehen": 2243,
      "ĠDesign": 2244,
      "Ġzei": 2245,
      "mes": 2246,
      "ltur": 2247,
      ">#": 2248,
      "wort": 2249,
      "Ġ40": 2250,
      "par": 2251,
      "ĠTeam": 2252,
      "bin": 2253,
      "bl": 2254,
      "ci": 2255,
      "ĠFach": 2256,
      "Fe": 2257,
      "Ġdene": 2258,
      "welt": 2259,
      "lesen": 2260,
      "uen": 2261,
      "fts": 2262,
      "Ġdenen": 2263,
      "44": 2264,
      "Ġseinem": 2265,
      "Â«": 2266,
      "rvice": 2267,
      "sy": 2268,
      "Bei": 2269,
      "ĠHaupt": 2270,
      "platz": 2271,
      "ĠSchw": 2272,
      "ĠHu": 2273,
      "Ġpo": 2274,
      "statt": 2275,
      "rigen": 2276,
      "ĠVon": 2277,
      "ric": 2278,
      "ĠMittel": 2279,
      "ĠFuÃŁ": 2280,
      "ĠWor": 2281,
      "ĠBen": 2282,
      "use": 2283,
      "kl": 2284,
      "Ġgenau": 2285,
      "ĠNatur": 2286,
      "Ġteil": 2287,
      "ĠÐ": 2288,
      "Auf": 2289,
      "scht": 2290,
      "Ġoffen": 2291,
      "Ġbew": 2292,
      "ziel": 2293,
      "dell": 2294,
      "kor": 2295,
      "ĠweiÃŁ": 2296,
      "con": 2297,
      "Vor": 2298,
      ">-": 2299,
      "The": 2300,
      "mente": 2301,
      "ĠLan": 2302,
      "=\"": 2303,
      "inde": 2304,
      "bruar": 2305,
      "tem": 2306,
      "ĠMusik": 2307,
      "ĠSpiele": 2308,
      "ĠSpa": 2309,
      "trieb": 2310,
      "ĠFran": 2311,
      "Bo": 2312,
      "ĠWind": 2313,
      "ĠErfahr": 2314,
      "schri": 2315,
      "ĠFir": 2316,
      "ndlich": 2317,
      "fest": 2318,
      "fan": 2319,
      "ĠBeru": 2320,
      "Ġwissen": 2321,
      "pra": 2322,
      "ĠSeiten": 2323,
      "leben": 2324,
      "bert": 2325,
      "ĠFo": 2326,
      "57": 2327,
      "ĠGegen": 2328,
      "tigt": 2329,
      "rist": 2330,
      "ĠGes": 2331,
      "zig": 2332,
      "ca": 2333,
      "Ġbesser": 2334,
      "laden": 2335,
      "ala": 2336,
      "stet": 2337,
      "gera": 2338,
      "ĠIdee": 2339,
      "anke": 2340,
      "ĠBad": 2341,
      "Ġdarauf": 2342,
      ",\"": 2343,
      "amm": 2344,
      "Ġsogar": 2345,
      "ĠRad": 2346,
      "ude": 2347,
      "zember": 2348,
      "gro": 2349,
      "gin": 2350,
      "Ġbieten": 2351,
      "Ġvers": 2352,
      "ĠEng": 2353,
      "ĠSchwei": 2354,
      "dio": 2355,
      "58": 2356,
      "setzung": 2357,
      "spie": 2358,
      "Ġunbe": 2359,
      "32": 2360,
      "Wenn": 2361,
      "wickel": 2362,
      "Ġco": 2363,
      "ĠAls": 2364,
      "alter": 2365,
      "ĠÂ·": 2366,
      "ĠBar": 2367,
      "hner": 2368,
      "âĢľ<": 2369,
      "unt": 2370,
      "eitere": 2371,
      "ions": 2372,
      "ums": 2373,
      "onus": 2374,
      "anken": 2375,
      "ĠTrai": 2376,
      "vel": 2377,
      "Ġspiel": 2378,
      "ĠFlug": 2379,
      "tter": 2380,
      ".:": 2381,
      "mals": 2382,
      "ott": 2383,
      "genen": 2384,
      "Ġvier": 2385,
      "ichtige": 2386,
      "ĠPat": 2387,
      "kre": 2388,
      "othe": 2389,
      "ilt": 2390,
      "ĠFilm": 2391,
      "ĠRegel": 2392,
      "ĠKauf": 2393,
      "ĠTop": 2394,
      "ator": 2395,
      "Ġqu": 2396,
      "fiz": 2397,
      "ĠFrau": 2398,
      "una": 2399,
      "pps": 2400,
      "ds": 2401,
      "pti": 2402,
      "serv": 2403,
      "Ġkannst": 2404,
      "70": 2405,
      "66": 2406,
      "ĠFoto": 2407,
      "Ġdavon": 2408,
      "ĠDar": 2409,
      "ĠGroÃŁ": 2410,
      "ĠIhren": 2411,
      "ln": 2412,
      "voll": 2413,
      "dent": 2414,
      "Un": 2415,
      "hnt": 2416,
      "Nach": 2417,
      "ĠTran": 2418,
      "dar": 2419,
      "Was": 2420,
      "\":\"": 2421,
      "ĠChrist": 2422,
      "weg": 2423,
      "eller": 2424,
      ");": 2425,
      "lassi": 2426,
      "int": 2427,
      "Mar": 2428,
      "sie": 2429,
      "ĠKap": 2430,
      "ak": 2431,
      "lefon": 2432,
      "ĠMein": 2433,
      "ĠMarkt": 2434,
      "see": 2435,
      "ĠBru": 2436,
      "ftware": 2437,
      "ĠII": 2438,
      ">(": 2439,
      "ĠJugend": 2440,
      "innen": 2441,
      "nehmen": 2442,
      "ĠauÃŁer": 2443,
      "scho": 2444,
      "geber": 2445,
      "hsten": 2446,
      "ĠTre": 2447,
      "gemein": 2448,
      "Ġeuch": 2449,
      "setzen": 2450,
      "ana": 2451,
      "Ġfast": 2452,
      "Ġzie": 2453,
      "chsten": 2454,
      "Ġgutsch": 2455,
      "heiten": 2456,
      "schung": 2457,
      "Ġen": 2458,
      "59": 2459,
      "ĠWu": 2460,
      "ital": 2461,
      "ison": 2462,
      "verb": 2463,
      "fik": 2464,
      "Ġ2011": 2465,
      "rische": 2466,
      "ĠEuropa": 2467,
      "beho": 2468,
      "ud": 2469,
      "ĠVerfu": 2470,
      "88": 2471,
      "ĠErgeb": 2472,
      "ĠFragen": 2473,
      "Ġbefi": 2474,
      "ĠShop": 2475,
      "ÃŁlich": 2476,
      "bereic": 2477,
      "bereich": 2478,
      "UN": 2479,
      "Ab": 2480,
      "ĠForm": 2481,
      "gem": 2482,
      "ĠDr": 2483,
      "cks": 2484,
      "Ad": 2485,
      "suchen": 2486,
      "Ġmehre": 2487,
      "omat": 2488,
      "kosten": 2489,
      "ĠGer": 2490,
      "----": 2491,
      "port": 2492,
      "raus": 2493,
      "ĠFest": 2494,
      "Ġgel": 2495,
      "ĠHotels": 2496,
      "bare": 2497,
      "meldung": 2498,
      "stelle": 2499,
      "hnung": 2500,
      "ĠSommer": 2501,
      "wesen": 2502,
      "hein": 2503,
      "zial": 2504,
      "fft": 2505,
      "ĠSal": 2506,
      "reifen": 2507,
      "rac": 2508,
      "Ko": 2509,
      "meister": 2510,
      "gaben": 2511,
      "ĠIhrer": 2512,
      "gehen": 2513,
      "Ġerfolg": 2514,
      "ĠBlu": 2515,
      "vis": 2516,
      "ĠCar": 2517,
      "Eine": 2518,
      "omaten": 2519,
      "bene": 2520,
      "Ġgab": 2521,
      "Ġtun": 2522,
      "lieb": 2523,
      "go": 2524,
      "ĠMag": 2525,
      "Ġzwar": 2526,
      "anten": 2527,
      "ante": 2528,
      "Ġ09": 2529,
      "out": 2530,
      "ĠHolz": 2531,
      "ffn": 2532,
      "iene": 2533,
      "Ġ$": 2534,
      "indung": 2535,
      "lita": 2536,
      "yn": 2537,
      "Pe": 2538,
      "ration": 2539,
      "77": 2540,
      "ĠGr": 2541,
      "Ġjew": 2542,
      "Nr": 2543,
      "ĠEigen": 2544,
      "**": 2545,
      "ĠStart": 2546,
      "ollte": 2547,
      "gn": 2548,
      "ata": 2549,
      "stauran": 2550,
      "ĠZahl": 2551,
      "Ġfindet": 2552,
      "cm": 2553,
      "druck": 2554,
      "ĠPi": 2555,
      "ried": 2556,
      "Ġhel": 2557,
      "ĠAma": 2558,
      "mand": 2559,
      "wagen": 2560,
      "Ġheraus": 2561,
      "Ġbesch": 2562,
      "Ġwith": 2563,
      "ob": 2564,
      "ĠKomp": 2565,
      "eist": 2566,
      "Ġpaar": 2567,
      "annte": 2568,
      "ĠZiel": 2569,
      "straÃŁe": 2570,
      "ĠWinter": 2571,
      "mlich": 2572,
      "uck": 2573,
      "Ġar": 2574,
      "Mail": 2575,
      "ET": 2576,
      "ĠScho": 2577,
      "Hotel": 2578,
      "ĠAt": 2579,
      "Ġ2010": 2580,
      "100": 2581,
      "blick": 2582,
      "ĠGera": 2583,
      "ĠNetz": 2584,
      "ĠBas": 2585,
      "unk": 2586,
      "nahmen": 2587,
      "Ġaut": 2588,
      "43": 2589,
      "bahn": 2590,
      "sti": 2591,
      "Ġnot": 2592,
      "ĠSan": 2593,
      "aly": 2594,
      "Ġschrei": 2595,
      "mon": 2596,
      "hy": 2597,
      "Ġsti": 2598,
      "ĠBel": 2599,
      "EUR": 2600,
      "ĠTro": 2601,
      "lerne": 2602,
      "unkte": 2603,
      "ĠWerk": 2604,
      "ĠRahmen": 2605,
      "annten": 2606,
      "nster": 2607,
      "suche": 2608,
      "reicht": 2609,
      "ram": 2610,
      "tragen": 2611,
      "Ġ08": 2612,
      "nehmer": 2613,
      ">\"": 2614,
      "raun": 2615,
      "mie": 2616,
      "Ġhatten": 2617,
      "ĠPla": 2618,
      "Ġperso": 2619,
      "vol": 2620,
      "ĠSee": 2621,
      "schule": 2622,
      "Ġgilt": 2623,
      "off": 2624,
      "spru": 2625,
      "ĠBus": 2626,
      "Ġhinter": 2627,
      "ĠGlu": 2628,
      "ris": 2629,
      "ktor": 2630,
      "ĠFl": 2631,
      "Zu": 2632,
      "site": 2633,
      "75": 2634,
      "Ġperfe": 2635,
      ">âĢŀ": 2636,
      "ĠGar": 2637,
      "klei": 2638,
      "schnitt": 2639,
      "Ġsagen": 2640,
      "Ġarb": 2641,
      "):": 2642,
      "Ġmeiner": 2643,
      "ĠWissen": 2644,
      "Ġ60": 2645,
      "schlag": 2646,
      "dru": 2647,
      "ðŁ": 2648,
      "ĠVideo": 2649,
      "ID": 2650,
      "Ġyou": 2651,
      "met": 2652,
      "Ġintern": 2653,
      "ĠPlan": 2654,
      "Ġneben": 2655,
      "Ġworden": 2656,
      "ons": 2657,
      "ogle": 2658,
      "Ġerkla": 2659,
      "gl": 2660,
      "ĠGast": 2661,
      "Ġsagt": 2662,
      "ĠZum": 2663,
      "ows": 2664,
      "twort": 2665,
      "igh": 2666,
      "Ġkam": 2667,
      "76": 2668,
      "handel": 2669,
      "AM": 2670,
      "liegen": 2671,
      "rden": 2672,
      "ai": 2673,
      "Ġtre": 2674,
      "Am": 2675,
      "ĠSelbst": 2676,
      "mobil": 2677,
      "fung": 2678,
      "DF": 2679,
      "tzung": 2680,
      "ĠComp": 2681,
      "zess": 2682,
      "Ġbede": 2683,
      "leichen": 2684,
      "ĠSystem": 2685,
      "Ġfinde": 2686,
      "lette": 2687,
      "lernen": 2688,
      "racht": 2689,
      "nstig": 2690,
      "renn": 2691,
      "stie": 2692,
      "gefu": 2693,
      "glichen": 2694,
      "Ìĥ": 2695,
      "Ġkeinen": 2696,
      "teilung": 2697,
      "Ġstar": 2698,
      "ĠDo": 2699,
      "ĠWar": 2700,
      "OS": 2701,
      "daten": 2702,
      "weit": 2703,
      "br": 2704,
      "ction": 2705,
      "ml": 2706,
      "ĠDenn": 2707,
      "derne": 2708,
      "89": 2709,
      "view": 2710,
      "rap": 2711,
      "Ġhast": 2712,
      "san": 2713,
      "Ġ2020": 2714,
      "rte": 2715,
      "Ġwegen": 2716,
      "GB": 2717,
      "ichtung": 2718,
      "ĠâĢ¢": 2719,
      "wendung": 2720,
      "ĠBre": 2721,
      "Ġnehmen": 2722,
      "furt": 2723,
      "ffer": 2724,
      "Ġihrem": 2725,
      "ĠNord": 2726,
      "hlich": 2727,
      "kra": 2728,
      "ĠPre": 2729,
      "ampf": 2730,
      "Ġkurz": 2731,
      "utt": 2732,
      "ĠCa": 2733,
      "tai": 2734,
      "fess": 2735,
      "etter": 2736,
      "gegen": 2737,
      "by": 2738,
      "ĠBlick": 2739,
      "ĠTechn": 2740,
      "ĠNacht": 2741,
      "ĠZwei": 2742,
      "ĠBand": 2743,
      "Ġcon": 2744,
      "ingle": 2745,
      "abi": 2746,
      "ktione": 2747,
      "atsa": 2748,
      "mart": 2749,
      "raten": 2750,
      "get": 2751,
      "ĠWahl": 2752,
      "ktionen": 2753,
      "Ġderen": 2754,
      "ĠVo": 2755,
      "how": 2756,
      "86": 2757,
      "ty": 2758,
      "lett": 2759,
      "42": 2760,
      "itter": 2761,
      "Ġhab": 2762,
      "Kon": 2763,
      "ĠWoche": 2764,
      "besser": 2765,
      "Ġsieht": 2766,
      "har": 2767,
      "Ġ31": 2768,
      "utzer": 2769,
      "dienst": 2770,
      "Ġwww": 2771,
      "2015": 2772,
      "ĠSchuhe": 2773,
      "La": 2774,
      "Ġleicht": 2775,
      "stungen": 2776,
      "41": 2777,
      "aby": 2778,
      "ames": 2779,
      "Ġberu": 2780,
      "hig": 2781,
      "ĠMas": 2782,
      "Ġka": 2783,
      "oppel": 2784,
      "dizin": 2785,
      "Ġweit": 2786,
      "Ġkur": 2787,
      "ĠgroÃŁ": 2788,
      "Ġunser": 2789,
      "teilen": 2790,
      "treten": 2791,
      "Ġzusa": 2792,
      "Alle": 2793,
      "omit": 2794,
      "Ġeher": 2795,
      "Su": 2796,
      "Ġsagte": 2797,
      "ranken": 2798,
      "Ġzeigt": 2799,
      "ĠInst": 2800,
      "ĠPol": 2801,
      "ĠAuft": 2802,
      "ĠElekt": 2803,
      "ĠRaum": 2804,
      "OL": 2805,
      "ĠNicht": 2806,
      "mentar": 2807,
      "ichtet": 2808,
      "Ġben": 2809,
      "ĠHilfe": 2810,
      "ĠVi": 2811,
      "Ð¾": 2812,
      "ndert": 2813,
      "79": 2814,
      "ĠHin": 2815,
      "ÌĢ": 2816,
      "ĠNr": 2817,
      "zus": 2818,
      "Ġverk": 2819,
      "??": 2820,
      "stat": 2821,
      "ĠIS": 2822,
      "ĠForum": 2823,
      "spa": 2824,
      "ĠEU": 2825,
      "hste": 2826,
      "ĠNeue": 2827,
      "Ġreg": 2828,
      "rechn": 2829,
      "ĠJahres": 2830,
      "ĠDies": 2831,
      "jahr": 2832,
      "Ġhil": 2833,
      "vest": 2834,
      "meter": 2835,
      "ama": 2836,
      "das": 2837,
      "ĠStre": 2838,
      "ches": 2839,
      "Ġsofort": 2840,
      "ĠGutsch": 2841,
      "Ġirgend": 2842,
      "Ġdaher": 2843,
      "ĠMotor": 2844,
      "din": 2845,
      "Ġinner": 2846,
      "ĠAmazon": 2847,
      "ĠSP": 2848,
      "bank": 2849,
      "ĠInter": 2850,
      "links": 2851,
      "Ġviell": 2852,
      "Ġversch": 2853,
      "male": 2854,
      "leb": 2855,
      "pla": 2856,
      "vidu": 2857,
      "ath": 2858,
      "ĠVerein": 2859,
      "ĠLuft": 2860,
      "gesamt": 2861,
      "ĠFern": 2862,
      "ĠLandes": 2863,
      "ĠKra": 2864,
      "versita": 2865,
      "tischen": 2866,
      "Ġ=>": 2867,
      "pru": 2868,
      "uz": 2869,
      "Ġtrotz": 2870,
      "troffen": 2871,
      "Ġindi": 2872,
      "ntag": 2873,
      "sweise": 2874,
      "user": 2875,
      "mme": 2876,
      "agt": 2877,
      "isches": 2878,
      "weis": 2879,
      "urg": 2880,
      "lte": 2881,
      "hter": 2882,
      "chste": 2883,
      "Ja": 2884,
      "ments": 2885,
      "Ġgesam": 2886,
      "ndung": 2887,
      "acken": 2888,
      "ĠDoch": 2889,
      "Ġbil": 2890,
      "lub": 2891,
      "Ġwerde": 2892,
      "54": 2893,
      "ille": 2894,
      "frage": 2895,
      "ĠWert": 2896,
      "ĠÂ«": 2897,
      "oku": 2898,
      "RE": 2899,
      "Ðµ": 2900,
      "ong": 2901,
      "rieden": 2902,
      "hel": 2903,
      "ov": 2904,
      "ĠDen": 2905,
      "Ġsollen": 2906,
      "ĠZa": 2907,
      ".-": 2908,
      "baren": 2909,
      "lingen": 2910,
      "utzt": 2911,
      "haupt": 2912,
      "Ġnor": 2913,
      "ewert": 2914,
      "deut": 2915,
      "ĠGesund": 2916,
      "ip": 2917,
      "ktive": 2918,
      "Ġ2009": 2919,
      "Wo": 2920,
      "IC": 2921,
      "Ġschle": 2922,
      "markt": 2923,
      "Ġgru": 2924,
      "letzt": 2925,
      "schla": 2926,
      "Ha": 2927,
      "Ġfree": 2928,
      "ĠIhrem": 2929,
      "nos": 2930,
      "iki": 2931,
      "ym": 2932,
      "ĠSk": 2933,
      "ĠâĢĶ": 2934,
      "ĠSol": 2935,
      "ÃŁig": 2936,
      "ĠChi": 2937,
      "ume": 2938,
      "mpfe": 2939,
      "____": 2940,
      "sere": 2941,
      "Ġhttp": 2942,
      "hunder": 2943,
      "ĠFel": 2944,
      "ĠGene": 2945,
      "ĠArchi": 2946,
      "Ġsuchen": 2947,
      "ĠSlo": 2948,
      "ĠLage": 2949,
      "Und": 2950,
      "iges": 2951,
      "Ð°": 2952,
      "ulti": 2953,
      "Ġbitte": 2954,
      "IL": 2955,
      "ory": 2956,
      "ĠLicht": 2957,
      "tails": 2958,
      "ĠPark": 2959,
      "nes": 2960,
      "Ġleider": 2961,
      "ĠHel": 2962,
      "ĠNamen": 2963,
      "lige": 2964,
      "tage": 2965,
      "itze": 2966,
      "ĠRegion": 2967,
      "ĠGesell": 2968,
      "85": 2969,
      "ics": 2970,
      "mitt": 2971,
      "Ġeng": 2972,
      "Ġkennen": 2973,
      "rechen": 2974,
      "ona": 2975,
      "hance": 2976,
      "2014": 2977,
      "ĠLiefer": 2978,
      "ĠSil": 2979,
      "glied": 2980,
      "iste": 2981,
      "haft": 2982,
      "Ġ07": 2983,
      "Ġihnen": 2984,
      "ĠKopf": 2985,
      "65": 2986,
      "zelne": 2987,
      "kreis": 2988,
      "ĠÂ§": 2989,
      "ms": 2990,
      "ĠDienst": 2991,
      "ĠNews": 2992,
      "duz": 2993,
      "2013": 2994,
      "icke": 2995,
      "ĠSuche": 2996,
      "eignet": 2997,
      "ller": 2998,
      "ots": 2999,
      "ĠHandel": 3000,
      "69": 3001,
      "ĠKur": 3002,
      "hil": 3003,
      "Ġganze": 3004,
      "pi": 3005,
      "bieter": 3006,
      "ĠSchlaf": 3007,
      "2020": 3008,
      "Ġwunder": 3009,
      "duc": 3010,
      "dy": 3011,
      "Ġpassen": 3012,
      "Ġ;": 3013,
      "uropa": 3014,
      "ĠNor": 3015,
      "lima": 3016,
      "uft": 3017,
      "Ġzahl": 3018,
      "Ġfeh": 3019,
      "tain": 3020,
      "glieder": 3021,
      "Ġbleibt": 3022,
      "Wei": 3023,
      "BN": 3024,
      "hausen": 3025,
      "Â°": 3026,
      "omi": 3027,
      "ating": 3028,
      "schinen": 3029,
      "lisch": 3030,
      "ĠDann": 3031,
      "immt": 3032,
      "une": 3033,
      "ĠKind": 3034,
      "ĠKlein": 3035,
      "reisen": 3036,
      "ight": 3037,
      "Ð¸": 3038,
      "ufig": 3039,
      "ĠPau": 3040,
      "ĠBal": 3041,
      "ffiz": 3042,
      "ĠMarke": 3043,
      "ĠâĢķ": 3044,
      "rischen": 3045,
      "ĠInte": 3046,
      "dium": 3047,
      "letten": 3048,
      "Ġvorge": 3049,
      "Po": 3050,
      "Ġerho": 3051,
      "ift": 3052,
      "2012": 3053,
      "Ġmeinen": 3054,
      "ĠInf": 3055,
      "Ġleben": 3056,
      "andelt": 3057,
      "ĠAugen": 3058,
      "able": 3059,
      "chlich": 3060,
      "gangen": 3061,
      "acke": 3062,
      "OM": 3063,
      "xis": 3064,
      "llig": 3065,
      "utzung": 3066,
      "ĠPost": 3067,
      "latt": 3068,
      "OT": 3069,
      "ĠWel": 3070,
      "leitung": 3071,
      "ahrer": 3072,
      "stre": 3073,
      "worten": 3074,
      "Ġhelfen": 3075,
      "oto": 3076,
      "ĠAir": 3077,
      "tete": 3078,
      "str": 3079,
      "ĠKri": 3080,
      "fahrt": 3081,
      "ĠKommun": 3082,
      "ĠIs": 3083,
      ".)": 3084,
      "ĠPreise": 3085,
      "zip": 3086,
      "ĠDabei": 3087,
      "ĠInnen": 3088,
      "ublik": 3089,
      "yern": 3090,
      "lungs": 3091,
      "ĠHerz": 3092,
      "ograf": 3093,
      "Ġnutzen": 3094,
      "klus": 3095,
      "ĠRom": 3096,
      "gbar": 3097,
      "ĠImp": 3098,
      "ĠFeh": 3099,
      "ĠHome": 3100,
      "Um": 3101,
      "ufer": 3102,
      "kom": 3103,
      "ĠKi": 3104,
      "tent": 3105,
      "sondere": 3106,
      "ĠDank": 3107,
      "ĠPort": 3108,
      "Ġgewa": 3109,
      "zeitig": 3110,
      "ĠLiebe": 3111,
      "ĠNieder": 3112,
      "zeuge": 3113,
      "gern": 3114,
      "Ġschlie": 3115,
      "low": 3116,
      "Ġ{": 3117,
      "ĠKateg": 3118,
      "ĠSchutz": 3119,
      "Ġersch": 3120,
      "gebung": 3121,
      "ĠFarbe": 3122,
      "sor": 3123,
      "unge": 3124,
      "Ġhal": 3125,
      "Artikel": 3126,
      "rigin": 3127,
      "ĠPri": 3128,
      "ĠKultur": 3129,
      "Ġ80": 3130,
      "Ġerwar": 3131,
      "68": 3132,
      "ĠAbend": 3133,
      "geld": 3134,
      "ĠThemen": 3135,
      "Ġsonst": 3136,
      "Ġwi": 3137,
      "tiv": 3138,
      "icha": 3139,
      "ief": 3140,
      "Ġbu": 3141,
      "hann": 3142,
      "Ġdarf": 3143,
      "ĠCor": 3144,
      "gew": 3145,
      "rika": 3146,
      "fter": 3147,
      "talien": 3148,
      "Ġwahr": 3149,
      "ĠDir": 3150,
      "ĠBook": 3151,
      "mentare": 3152,
      "eiche": 3153,
      "ĠAnge": 3154,
      "Ġvo": 3155,
      "Aut": 3156,
      "67": 3157,
      "osition": 3158,
      "ĠMat": 3159,
      "For": 3160,
      "ĠEinzel": 3161,
      "zeiten": 3162,
      "Ġliegen": 3163,
      "Ġ2008": 3164,
      "51": 3165,
      "geln": 3166,
      "Ġern": 3167,
      "gal": 3168,
      "Ġset": 3169,
      "Ġoben": 3170,
      "ĠTour": 3171,
      "ĠWeiter": 3172,
      "ĠBeste": 3173,
      "hilfe": 3174,
      "Ġus": 3175,
      "EU": 3176,
      "ĠHinter": 3177,
      "risch": 3178,
      "ina": 3179,
      "ĠSand": 3180,
      "AP": 3181,
      "row": 3182,
      "Ġbook": 3183,
      "ĠKlei": 3184,
      "ismus": 3185,
      "ĠHeim": 3186,
      "Ġjedem": 3187,
      "ĠAG": 3188,
      "Ġ)": 3189,
      "ĠFinanz": 3190,
      "zahlung": 3191,
      "ika": 3192,
      "ustrie": 3193,
      "ĠTei": 3194,
      "ĠBoden": 3195,
      "Ġinform": 3196,
      "ĠdaÃŁ": 3197,
      "IE": 3198,
      "Ġgefa": 3199,
      "Ġging": 3200,
      "iko": 3201,
      "ĠWand": 3202,
      "ash": 3203,
      "bus": 3204,
      "amin": 3205,
      "ringt": 3206,
      "chter": 3207,
      "ĠSuper": 3208,
      "ĠWeihn": 3209,
      "Ġeinfa": 3210,
      "lam": 3211,
      "Ġschu": 3212,
      "Ġsuper": 3213,
      "ĠPart": 3214,
      "amt": 3215,
      "isp": 3216,
      "53": 3217,
      "nsch": 3218,
      "Ġstellt": 3219,
      "Ġlu": 3220,
      "Ġ06": 3221,
      "telle": 3222,
      "schrift": 3223,
      "ont": 3224,
      "icro": 3225,
      "ĠUSA": 3226,
      "achte": 3227,
      "ĠZei": 3228,
      "weiter": 3229,
      "ls": 3230,
      "anach": 3231,
      "merk": 3232,
      "rivat": 3233,
      "AG": 3234,
      "52": 3235,
      "Ġerha": 3236,
      "Ġempfe": 3237,
      "Ġabsol": 3238,
      "ĠFla": 3239,
      "fasst": 3240,
      "ritten": 3241,
      "Ġbeno": 3242,
      "ĠFerien": 3243,
      "ierungs": 3244,
      "Ro": 3245,
      "ĠAnfang": 3246,
      "ratis": 3247,
      "Von": 3248,
      "Ġas": 3249,
      "Ġsi": 3250,
      "griff": 3251,
      "Ġverm": 3252,
      "ĠTor": 3253,
      "Her": 3254,
      "ĠGold": 3255,
      "kur": 3256,
      "set": 3257,
      "aben": 3258,
      "ĠBerg": 3259,
      "AC": 3260,
      "Ġmeinem": 3261,
      "Ġgo": 3262,
      "bile": 3263,
      "ĠBr": 3264,
      "64": 3265,
      "tigkeit": 3266,
      "ike": 3267,
      "ĠNeben": 3268,
      "ĠBade": 3269,
      "Ġ00": 3270,
      "hler": 3271,
      "ĠSitz": 3272,
      "ĠNachr": 3273,
      "stungs": 3274,
      "Ġbegi": 3275,
      "wirk": 3276,
      "Ġbetra": 3277,
      "ĠAk": 3278,
      "rieren": 3279,
      "ĠAbs": 3280,
      "ieb": 3281,
      "Sta": 3282,
      "far": 3283,
      "Du": 3284,
      "dchen": 3285,
      "zogen": 3286,
      "ĠBehand": 3287,
      "Ġguten": 3288,
      "ĠTitel": 3289,
      "ĠBahn": 3290,
      "utze": 3291,
      "Ġopti": 3292,
      "Ġdaru": 3293,
      "itzen": 3294,
      "Ġvero": 3295,
      "rab": 3296,
      "pg": 3297,
      "yle": 3298,
      "Ġanzu": 3299,
      "ĠNu": 3300,
      "Ġ90": 3301,
      "Ġzeigen": 3302,
      "Ġunge": 3303,
      "Ġbevor": 3304,
      "87": 3305,
      "xy": 3306,
      "Sa": 3307,
      "hard": 3308,
      "halte": 3309,
      "ĠZent": 3310,
      "Ġad": 3311,
      "ilo": 3312,
      "ĠGewinn": 3313,
      "DE": 3314,
      "atisch": 3315,
      "sei": 3316,
      "schul": 3317,
      "ĠPap": 3318,
      "atung": 3319,
      "orien": 3320,
      "wachsen": 3321,
      "ĠWil": 3322,
      ">[": 3323,
      "Ġba": 3324,
      "ĠEltern": 3325,
      "ĠFotos": 3326,
      "acebook": 3327,
      "assung": 3328,
      "adurch": 3329,
      "test": 3330,
      "hang": 3331,
      "Ġklar": 3332,
      "ĠGed": 3333,
      "Ġlesen": 3334,
      "ichael": 3335,
      "Ġwollte": 3336,
      "ola": 3337,
      "ziehen": 3338,
      "ĠâĤ¬<": 3339,
      "ĠTagen": 3340,
      "alk": 3341,
      "eier": 3342,
      "ĠFreund": 3343,
      "sion": 3344,
      "Ġbet": 3345,
      "deck": 3346,
      "omo": 3347,
      "Co": 3348,
      "ĠRab": 3349,
      "Ġhalten": 3350,
      "Ġmag": 3351,
      "wissen": 3352,
      "minis": 3353,
      "ĠGebur": 3354,
      "preis": 3355,
      "nte": 3356,
      "ĠDort": 3357,
      "Ġhinaus": 3358,
      "ĠMedien": 3359,
      "reitag": 3360,
      "ĠStein": 3361,
      "geboten": 3362,
      "ativen": 3363,
      "rf": 3364,
      "sage": 3365,
      "rikan": 3366,
      "ĠTri": 3367,
      "rinnen": 3368,
      "ĠWirk": 3369,
      "Ġtechn": 3370,
      "LE": 3371,
      "fernt": 3372,
      "ork": 3373,
      "Qu": 3374,
      "Bu": 3375,
      "ĠCD": 3376,
      "Ġ35": 3377,
      "Ġweg": 3378,
      "ammer": 3379,
      "rid": 3380,
      "Ġti": 3381,
      "rach": 3382,
      "ĠSet": 3383,
      "nummer": 3384,
      "ĠRot": 3385,
      "bew": 3386,
      "igt": 3387,
      "ĠBew": 3388,
      "unn": 3389,
      "loss": 3390,
      "wehr": 3391,
      "Ġhohe": 3392,
      "riff": 3393,
      "einer": 3394,
      "ret": 3395,
      "ĠPflege": 3396,
      "ĠOut": 3397,
      "ĠKn": 3398,
      "sbe": 3399,
      "ĠIdeen": 3400,
      "ĠSmart": 3401,
      "ĠDruck": 3402,
      "rtig": 3403,
      "ĠPC": 3404,
      "ĠTV": 3405,
      "IG": 3406,
      "nach": 3407,
      "à¸": 3408,
      "darf": 3409,
      "ĠFeuer": 3410,
      "Ġkre": 3411,
      "asten": 3412,
      "atten": 3413,
      "umen": 3414,
      "unsch": 3415,
      "auber": 3416,
      "ĠEssen": 3417,
      "ktivita": 3418,
      "sco": 3419,
      "ienten": 3420,
      "alog": 3421,
      "Fi": 3422,
      "ĠPlay": 3423,
      "fallen": 3424,
      "ĠAlt": 3425,
      "dn": 3426,
      "ins": 3427,
      "ĠWein": 3428,
      "-,": 3429,
      "Ġpoli": 3430,
      "Ġbest": 3431,
      "ĠMaÃŁ": 3432,
      "Wer": 3433,
      "rapie": 3434,
      "fit": 3435,
      "rent": 3436,
      "ĠiP": 3437,
      "ordn": 3438,
      "ĠHar": 3439,
      "siv": 3440,
      "ĠViel": 3441,
      "ĠNot": 3442,
      "ĠLauf": 3443,
      "iti": 3444,
      "Auch": 3445,
      "lungen": 3446,
      "sitzen": 3447,
      "Ġgegenu": 3448,
      "Ġerfol": 3449,
      "wasser": 3450,
      "ĠZur": 3451,
      "ĠWien": 3452,
      "98": 3453,
      "chnen": 3454,
      "ffne": 3455,
      "ĠÎ": 3456,
      "Ġjede": 3457,
      "lieren": 3458,
      "ĠSteuer": 3459,
      "peri": 3460,
      "em": 3461,
      "sso": 3462,
      "xi": 3463,
      "Ġermo": 3464,
      "code": 3465,
      "ĠGoogle": 3466,
      "Ġdessen": 3467,
      "ĠKraft": 3468,
      "Ġkaum": 3469,
      "OP": 3470,
      "ĠLog": 3471,
      "ĠMer": 3472,
      "plat": 3473,
      "ahre": 3474,
      "technik": 3475,
      "Mi": 3476,
      "ĠInn": 3477,
      "hirt": 3478,
      "Na": 3479,
      "karte": 3480,
      "schafts": 3481,
      "spieler": 3482,
      "Lo": 3483,
      "teratur": 3484,
      "Ġspiele": 3485,
      "schrank": 3486,
      "On": 3487,
      "Ġkla": 3488,
      "ĠHaut": 3489,
      "\".": 3490,
      "jpg": 3491,
      "bewer": 3492,
      "rufen": 3493,
      "Ġfrom": 3494,
      "Wa": 3495,
      "ordnung": 3496,
      "rfen": 3497,
      "Ġhervor": 3498,
      "fin": 3499,
      "âĢľ.": 3500,
      "ĠCe": 3501,
      "orten": 3502,
      "2011": 3503,
      "ĠSpra": 3504,
      "ĠJetzt": 3505,
      "ĠWeiÃŁ": 3506,
      "ĠKla": 3507,
      "omas": 3508,
      "folge": 3509,
      "ĠBonus": 3510,
      "Ġget": 3511,
      "ĠLeder": 3512,
      "ĠBank": 3513,
      "ĠErn": 3514,
      "eicher": 3515,
      "ĠHy": 3516,
      "achts": 3517,
      "ĠPan": 3518,
      "Ġschwer": 3519,
      "Ġanders": 3520,
      "ĠMee": 3521,
      "Ġza": 3522,
      "eint": 3523,
      "Ġur": 3524,
      "gent": 3525,
      "ĠSterne": 3526,
      "ĠVoll": 3527,
      "lings": 3528,
      "aler": 3529,
      "gruppe": 3530,
      "auc": 3531,
      "Ġvorhan": 3532,
      "ĠGeba": 3533,
      "fent": 3534,
      "Ġch": 3535,
      "Ex": 3536,
      "Lie": 3537,
      "DR": 3538,
      "zahlen": 3539,
      "utet": 3540,
      "ssig": 3541,
      "ĠEle": 3542,
      "triebs": 3543,
      "hrige": 3544,
      "tive": 3545,
      "Ġthis": 3546,
      "Man": 3547,
      "box": 3548,
      "ette": 3549,
      "ĠRat": 3550,
      "ĠStar": 3551,
      "ĠBlog": 3552,
      "ĠDig": 3553,
      "rop": 3554,
      "hrlich": 3555,
      "TE": 3556,
      "burger": 3557,
      "ĠKrie": 3558,
      "beding": 3559,
      "Web": 3560,
      "ĠRi": 3561,
      "Mehr": 3562,
      "Ġzeit": 3563,
      "ĠHigh": 3564,
      "Ġhttps": 3565,
      "schau": 3566,
      "kter": 3567,
      "ĠGruppe": 3568,
      "Ġsowohl": 3569,
      "liga": 3570,
      "ĠSchrei": 3571,
      "hend": 3572,
      "Diese": 3573,
      "Ġveran": 3574,
      "Ġ2007": 3575,
      "light": 3576,
      "band": 3577,
      "reite": 3578,
      "gericht": 3579,
      "chend": 3580,
      "ĠSchwe": 3581,
      "ressen": 3582,
      "Ġglau": 3583,
      "Ġlist": 3584,
      "df": 3585,
      "ica": 3586,
      "weisen": 3587,
      "ÌĤ": 3588,
      "ĠModell": 3589,
      "auern": 3590,
      "ftung": 3591,
      "halts": 3592,
      "Ġac": 3593,
      "ĠðŁ": 3594,
      "Ent": 3595,
      "jo": 3596,
      "Ġgefu": 3597,
      "ĠGlas": 3598,
      "mmen": 3599,
      "schlu": 3600,
      "standen": 3601,
      "ĠSaison": 3602,
      "ause": 3603,
      "Ġfal": 3604,
      "iness": 3605,
      "rige": 3606,
      "Unter": 3607,
      "atum": 3608,
      "ĠWald": 3609,
      "fession": 3610,
      "kunden": 3611,
      "eils": 3612,
      "mmer": 3613,
      "ano": 3614,
      "zieh": 3615,
      "asinos": 3616,
      "ffee": 3617,
      "ĠBeitra": 3618,
      "eiden": 3619,
      "ĠRolle": 3620,
      "hone": 3621,
      "rea": 3622,
      "ĠBaum": 3623,
      "nc": 3624,
      "arc": 3625,
      "gne": 3626,
      "rke": 3627,
      "ysteme": 3628,
      "Ġstark": 3629,
      "ĠTages": 3630,
      "ĠMel": 3631,
      "ĠErfolg": 3632,
      "ĠBlack": 3633,
      "ĠTier": 3634,
      "ical": 3635,
      "stimmt": 3636,
      "Gro": 3637,
      "gende": 3638,
      "Ġstu": 3639,
      "Â®": 3640,
      "Ġju": 3641,
      "Ġ70": 3642,
      "RA": 3643,
      "versta": 3644,
      "ieÃŁen": 3645,
      "Ġregel": 3646,
      "renzen": 3647,
      "riginal": 3648,
      "ende": 3649,
      "Hal": 3650,
      "zentrum": 3651,
      "ltnis": 3652,
      "Ġbisher": 3653,
      "ĠTisch": 3654,
      "teilt": 3655,
      "Ġ05": 3656,
      "istor": 3657,
      "hnlich": 3658,
      "Ġ500": 3659,
      "Produ": 3660,
      "leuch": 3661,
      "stern": 3662,
      "rai": 3663,
      "Ġ36": 3664,
      "lia": 3665,
      "ĠUp": 3666,
      "schn": 3667,
      "rst": 3668,
      "eisen": 3669,
      "rd": 3670,
      "jekte": 3671,
      "Ġpass": 3672,
      "74": 3673,
      "ĠBran": 3674,
      "Ġdam": 3675,
      "Ku": 3676,
      "back": 3677,
      "IM": 3678,
      "ĠKreis": 3679,
      "ĠEint": 3680,
      "Ġmel": 3681,
      "Ġsomit": 3682,
      "rm": 3683,
      "anlage": 3684,
      "ĠRechts": 3685,
      "spruch": 3686,
      "Ste": 3687,
      "84": 3688,
      "rnen": 3689,
      "ĠLau": 3690,
      "liste": 3691,
      "press": 3692,
      "Hier": 3693,
      "sischen": 3694,
      "Ġ04": 3695,
      "scheid": 3696,
      "peten": 3697,
      "hafen": 3698,
      "Ġalt": 3699,
      "oph": 3700,
      "Ġide": 3701,
      "ĠWeise": 3702,
      "ĠSto": 3703,
      "ĠLeute": 3704,
      "Weitere": 3705,
      "ĠSonnen": 3706,
      "Ġerne": 3707,
      "iker": 3708,
      "lische": 3709,
      "hlung": 3710,
      "ÌĮ": 3711,
      "ĠNur": 3712,
      "Ġrein": 3713,
      "nderung": 3714,
      "Ġelekt": 3715,
      "2010": 3716,
      "ĠChance": 3717,
      "ĠStie": 3718,
      "Ġdaran": 3719,
      "Ġehe": 3720,
      "Ġposit": 3721,
      "Ġstand": 3722,
      "ĠBest": 3723,
      "ĠheiÃŁt": 3724,
      "Ġgesp": 3725,
      "ginn": 3726,
      "day": 3727,
      "ĠCH": 3728,
      "Ġ45": 3729,
      "mehr": 3730,
      "96": 3731,
      "ÑĤ": 3732,
      "chan": 3733,
      "Ġmusste": 3734,
      "Ġaktiv": 3735,
      "ĠDre": 3736,
      "ftig": 3737,
      "wig": 3738,
      "lanzen": 3739,
      "Ġbelieb": 3740,
      "nlich": 3741,
      "reen": 3742,
      "Ġslo": 3743,
      "ĠIst": 3744,
      "kir": 3745,
      "date": 3746,
      "Ġbereit": 3747,
      "isse": 3748,
      "Ti": 3749,
      "ĠVari": 3750,
      "Preis": 3751,
      "Ġmin": 3752,
      ">â": 3753,
      "Ġjedes": 3754,
      "ĠKor": 3755,
      "ĠText": 3756,
      "ings": 3757,
      "ĠHause": 3758,
      "ĠAnti": 3759,
      "win": 3760,
      "ÃŁerdem": 3761,
      "ĠWaren": 3762,
      "ĠHil": 3763,
      "ial": 3764,
      "Ġschwe": 3765,
      "AB": 3766,
      "ĠAktu": 3767,
      "ĠKurz": 3768,
      "iken": 3769,
      "Ġcan": 3770,
      "Als": 3771,
      "urm": 3772,
      "haltung": 3773,
      "zir": 3774,
      "Ġgescha": 3775,
      "ĠAlter": 3776,
      "ffel": 3777,
      "uro": 3778,
      "Ġbewer": 3779,
      "ĠSer": 3780,
      "fal": 3781,
      "ĠFarben": 3782,
      "val": 3783,
      "ĠPresse": 3784,
      "ĠKlima": 3785,
      "Ġalten": 3786,
      "rief": 3787,
      "gart": 3788,
      "Ġ02": 3789,
      "kennt": 3790,
      "zeichen": 3791,
      "ĠMutter": 3792,
      "Ġhinzu": 3793,
      "RO": 3794,
      "ĠDieser": 3795,
      "##": 3796,
      "mlung": 3797,
      "auch": 3798,
      "mera": 3799,
      "ĠTex": 3800,
      "ite": 3801,
      "lit": 3802,
      "wind": 3803,
      "ĠKonze": 3804,
      "sische": 3805,
      "ĠDamit": 3806,
      "ĠSh": 3807,
      "Ġ(*": 3808,
      "Ġgene": 3809,
      "ĠWetter": 3810,
      "Ġ38": 3811,
      "Ġ}": 3812,
      "onner": 3813,
      "Ġsolche": 3814,
      "schenk": 3815,
      "Ġ39": 3816,
      "produ": 3817,
      "licken": 3818,
      "Ġmon": 3819,
      "Ġminde": 3820,
      "ĠTerr": 3821,
      "Ġentsp": 3822,
      "steuer": 3823,
      "sident": 3824,
      "Beit": 3825,
      "rse": 3826,
      "Ġtatsa": 3827,
      "losen": 3828,
      "syc": 3829,
      "mper": 3830,
      "Ġzuge": 3831,
      "Ġfr": 3832,
      "ffnet": 3833,
      "Ġfo": 3834,
      "Ġjemand": 3835,
      "ular": 3836,
      "ĠRhein": 3837,
      "ĠMax": 3838,
      "rner": 3839,
      "ĠGeburt": 3840,
      "Je": 3841,
      "nschen": 3842,
      "ĠTermin": 3843,
      "ĠKolle": 3844,
      "frist": 3845,
      "ĠEnd": 3846,
      "ĠWett": 3847,
      "ĠLager": 3848,
      "Ġneues": 3849,
      "ĠPru": 3850,
      "72": 3851,
      "liz": 3852,
      "Ġ32": 3853,
      "ktions": 3854,
      "ay": 3855,
      "olo": 3856,
      "ĠPeter": 3857,
      "decken": 3858,
      "PS": 3859,
      "ĠMil": 3860,
      "ĠBayern": 3861,
      "ĠSpaÃŁ": 3862,
      "garten": 3863,
      "ĠSchule": 3864,
      "ĠHerr": 3865,
      "wegs": 3866,
      "ĠWest": 3867,
      "ĠAnn": 3868,
      "Ġperson": 3869,
      "ĠCom": 3870,
      "brauc": 3871,
      "ĠPDF": 3872,
      "ĠRis": 3873,
      "por": 3874,
      "lischen": 3875,
      "teilig": 3876,
      "rend": 3877,
      "brauch": 3878,
      "zeige": 3879,
      "over": 3880,
      "ĠFort": 3881,
      "gliche": 3882,
      "Ġmeist": 3883,
      "ikation": 3884,
      "ĠTipps": 3885,
      ".âĢľ": 3886,
      "ĠWebs": 3887,
      "Ġgek": 3888,
      "alist": 3889,
      "Ġdig": 3890,
      "orgt": 3891,
      "ĠFried": 3892,
      "hor": 3893,
      "ĠKredit": 3894,
      "atte": 3895,
      "abha": 3896,
      "dro": 3897,
      "wickelt": 3898,
      "lands": 3899,
      "stal": 3900,
      "ĠLang": 3901,
      "ndler": 3902,
      "ĠJohann": 3903,
      "Au": 3904,
      "pfer": 3905,
      "ĠBis": 3906,
      "ĠPass": 3907,
      "ĠKan": 3908,
      "AD": 3909,
      "Ġleich": 3910,
      "ase": 3911,
      "uttgart": 3912,
      "lothe": 3913,
      "ĠBlau": 3914,
      "Ġselber": 3915,
      "fig": 3916,
      "kes": 3917,
      "rme": 3918,
      "frieden": 3919,
      "Ġbescha": 3920,
      "hrte": 3921,
      "ungsver": 3922,
      "ĠDem": 3923,
      "Ġprakti": 3924,
      "\\/": 3925,
      "zeigt": 3926,
      "ĠRegen": 3927,
      "Ġetc": 3928,
      "Ġbist": 3929,
      "ĠGefu": 3930,
      "laufen": 3931,
      "nten": 3932,
      "etten": 3933,
      "fassen": 3934,
      "Ġzuna": 3935,
      "bewert": 3936,
      "ĠDach": 3937,
      "atter": 3938,
      "ĠSeit": 3939,
      "rten": 3940,
      "usst": 3941,
      "73": 3942,
      "ĠMark": 3943,
      "ĠBitte": 3944,
      "hstu": 3945,
      "ĠAuÃŁen": 3946,
      "Ġ03": 3947,
      "yl": 3948,
      "red": 3949,
      ".âĢľ<": 3950,
      "ngt": 3951,
      "Ġmittel": 3952,
      "ission": 3953,
      "ĠLED": 3954,
      "service": 3955,
      "71": 3956,
      "ish": 3957,
      "Ġlos": 3958,
      "bal": 3959,
      "Ġstra": 3960,
      "Ġnahe": 3961,
      "phone": 3962,
      "ĠPS": 3963,
      "ĠSerie": 3964,
      "oller": 3965,
      "ĠRund": 3966,
      "volle": 3967,
      "freie": 3968,
      "ierter": 3969,
      "langen": 3970,
      "ĠBett": 3971,
      "Jo": 3972,
      "Ġfreuen": 3973,
      "bet": 3974,
      "tiger": 3975,
      "ocken": 3976,
      "til": 3977,
      "ichter": 3978,
      "To": 3979,
      "gebiet": 3980,
      "ĠBaby": 3981,
      "ehm": 3982,
      "Ġare": 3983,
      "ĠDoppel": 3984,
      "pl": 3985,
      "ehmens": 3986,
      "Ġged": 3987,
      "inter": 3988,
      "ĠFolge": 3989,
      "ea": 3990,
      "Ġglei": 3991,
      "stoffe": 3992,
      "Ġganzen": 3993,
      "ution": 3994,
      "ĠKirche": 3995,
      "urf": 3996,
      "Ġbringt": 3997,
      "Ġmar": 3998,
      "ÃŁend": 3999,
      "Ġ2006": 4000,
      "unkel": 4001,
      "83": 4002,
      "Ð½": 4003,
      "holz": 4004,
      "Ġbl": 4005,
      "ĠISBN": 4006,
      "82": 4007,
      "lip": 4008,
      "chne": 4009,
      "berra": 4010,
      "yc": 4011,
      "rice": 4012,
      "Ġinsbe": 4013,
      "ĠTurn": 4014,
      "lager": 4015,
      "igung": 4016,
      "indest": 4017,
      "ĠPunkte": 4018,
      "zeugen": 4019,
      "Ġmitt": 4020,
      "ee": 4021,
      "diene": 4022,
      "park": 4023,
      "lker": 4024,
      "nke": 4025,
      "Ġit": 4026,
      "Ġero": 4027,
      "UNG": 4028,
      "EM": 4029,
      "ÑĢ": 4030,
      "alyse": 4031,
      "ĠWal": 4032,
      "irm": 4033,
      "isplay": 4034,
      "illa": 4035,
      "zes": 4036,
      "ĠMerk": 4037,
      "Ġhand": 4038,
      "fragen": 4039,
      "ĠStelle": 4040,
      "Ġtran": 4041,
      "ĠSitu": 4042,
      "seum": 4043,
      "kehrs": 4044,
      "xx": 4045,
      "ĠGesamt": 4046,
      "wald": 4047,
      "Ġpe": 4048,
      "ffi": 4049,
      "html": 4050,
      "áĦ": 4051,
      "renne": 4052,
      "ĠAller": 4053,
      "last": 4054,
      "ĠDieses": 4055,
      "ĠFC": 4056,
      "Ġumge": 4057,
      "Ġzer": 4058,
      "Ġgrund": 4059,
      "ĠStrom": 4060,
      "Ġebenso": 4061,
      "ĠHor": 4062,
      "nige": 4063,
      "ico": 4064,
      "ĠDisk": 4065,
      "Ġliebe": 4066,
      "VD": 4067,
      "ĠGi": 4068,
      "Ġsozi": 4069,
      "wiesen": 4070,
      "wart": 4071,
      "Ġerke": 4072,
      "Ġpar": 4073,
      "gte": 4074,
      "ĠWider": 4075,
      "ube": 4076,
      "nzen": 4077,
      "ima": 4078,
      "',": 4079,
      "riert": 4080,
      "urce": 4081,
      "ĠTab": 4082,
      "ĠST": 4083,
      "Ġinkl": 4084,
      "ĠPrin": 4085,
      "ocke": 4086,
      "ngig": 4087,
      "Ñģ": 4088,
      "ĠZubeho": 4089,
      "Ġklassi": 4090,
      "fert": 4091,
      "tags": 4092,
      "riere": 4093,
      "brigen": 4094,
      "oder": 4095,
      "ĠGut": 4096,
      "here": 4097,
      "leiter": 4098,
      "Ġ978": 4099,
      "immel": 4100,
      "ĠMonate": 4101,
      "Ġvergan": 4102,
      "kraft": 4103,
      "hot": 4104,
      "ĠSn": 4105,
      "ordne": 4106,
      "Ġangen": 4107,
      "Ġvert": 4108,
      "63": 4109,
      "denten": 4110,
      "wegen": 4111,
      "97": 4112,
      "ĠKarten": 4113,
      "ary": 4114,
      "gesell": 4115,
      "link": 4116,
      "ĠMitte": 4117,
      "ĠVolks": 4118,
      "ĠUmwelt": 4119,
      "hnliche": 4120,
      "ĠIT": 4121,
      "Ġbeein": 4122,
      "ĠSchau": 4123,
      "finden": 4124,
      "hundert": 4125,
      "Ġ?": 4126,
      "stieg": 4127,
      "ĠOst": 4128,
      "Ġsetzen": 4129,
      "áħ": 4130,
      "olitik": 4131,
      "verein": 4132,
      "ĠFehler": 4133,
      "mas": 4134,
      "ĠMensch": 4135,
      "Ġwarum": 4136,
      "waltung": 4137,
      "ĠHann": 4138,
      "fl": 4139,
      "ndigen": 4140,
      "ĠUrlaub": 4141,
      "ĠOption": 4142,
      "gg": 4143,
      "now": 4144,
      "ĠLive": 4145,
      "ĠStr": 4146,
      "ors": 4147,
      "sungen": 4148,
      "untern": 4149,
      "gelt": 4150,
      "Ġvera": 4151,
      "ziehung": 4152,
      "Ġletzte": 4153,
      "uth": 4154,
      "ĠÌģ": 4155,
      "spha": 4156,
      "rter": 4157,
      "ĠPor": 4158,
      "mens": 4159,
      "Bay": 4160,
      "Ġsucht": 4161,
      "ĠSex": 4162,
      "81": 4163,
      "karten": 4164,
      "hmal": 4165,
      "Ber": 4166,
      "ingen": 4167,
      "ĠWahr": 4168,
      "ĠWort": 4169,
      "zelnen": 4170,
      "Per": 4171,
      "Ġthat": 4172,
      "II": 4173,
      "Start": 4174,
      "61": 4175,
      "ĠFree": 4176,
      "agn": 4177,
      "IB": 4178,
      "its": 4179,
      "ragt": 4180,
      "Ġverg": 4181,
      "text": 4182,
      "ograph": 4183,
      "Kosten": 4184,
      "2009": 4185,
      "AU": 4186,
      "braucht": 4187,
      "mt": 4188,
      "ront": 4189,
      "ĠModel": 4190,
      "sucht": 4191,
      "ĠEmp": 4192,
      "ĠMini": 4193,
      "Ġauszu": 4194,
      "ya": 4195,
      "Ġlaufen": 4196,
      "terin": 4197,
      "ielt": 4198,
      "weile": 4199,
      "stor": 4200,
      "ĠHol": 4201,
      "mack": 4202,
      "ĠGespra": 4203,
      "ĠBet": 4204,
      "Tag": 4205,
      "Ġfreund": 4206,
      "bungen": 4207,
      "hrungs": 4208,
      "Ġ34": 4209,
      "Ġ300": 4210,
      "ĠEing": 4211,
      "boren": 4212,
      "rio": 4213,
      "tis": 4214,
      "bett": 4215,
      "ĠCre": 4216,
      "rale": 4217,
      "Ġ@": 4218,
      "Ġbean": 4219,
      "chmal": 4220,
      "ĠReisen": 4221,
      "immen": 4222,
      "SP": 4223,
      "Ġfort": 4224,
      "sucher": 4225,
      "TV": 4226,
      "ĠKarte": 4227,
      "istik": 4228,
      "atc": 4229,
      "Ġeinz": 4230,
      "Ġeinzu": 4231,
      "ĠâĨ": 4232,
      "Ġune": 4233,
      "pack": 4234,
      "ora": 4235,
      "higkeit": 4236,
      "apan": 4237,
      "ĠSicht": 4238,
      "ĠMy": 4239,
      "ĠWieder": 4240,
      "MS": 4241,
      "ĠThomas": 4242,
      "roid": 4243,
      "durch": 4244,
      "bis": 4245,
      "letter": 4246,
      "LAN": 4247,
      "ĠMicro": 4248,
      "gessen": 4249,
      "itut": 4250,
      "ĠDeine": 4251,
      "ĠHD": 4252,
      "ĠBesch": 4253,
      "spielen": 4254,
      "ĠChar": 4255,
      "Ġgesagt": 4256,
      "Aber": 4257,
      "Ġhohen": 4258,
      "Ġbesta": 4259,
      "mitteln": 4260,
      "ĠErst": 4261,
      "twoch": 4262,
      "arch": 4263,
      "ĠMonat": 4264,
      "ada": 4265,
      "Ke": 4266,
      "Ġallein": 4267,
      "Ta": 4268,
      "ĠWolf": 4269,
      "ĠSim": 4270,
      "Ġzehn": 4271,
      "fangen": 4272,
      "bre": 4273,
      "bli": 4274,
      "ĠUN": 4275,
      "New": 4276,
      "kle": 4277,
      "Ġfinanz": 4278,
      "Ġspielt": 4279,
      "ĠFirma": 4280,
      "act": 4281,
      "Ġwicht": 4282,
      "oth": 4283,
      "Ġzudem": 4284,
      "500": 4285,
      "ĠLieb": 4286,
      "ĠNet": 4287,
      "Ġak": 4288,
      "system": 4289,
      "ĠAkt": 4290,
      "ĠGerman": 4291,
      "nale": 4292,
      "ĠPrivat": 4293,
      "Ġjewei": 4294,
      "anden": 4295,
      "ĠMeter": 4296,
      "scri": 4297,
      "Ġfand": 4298,
      "Ġgenug": 4299,
      "Ġerfu": 4300,
      "perten": 4301,
      "opp": 4302,
      "dingt": 4303,
      "ltig": 4304,
      "bro": 4305,
      "Ġ2005": 4306,
      "TS": 4307,
      "ffnung": 4308,
      "IP": 4309,
      "Ġrei": 4310,
      "94": 4311,
      "Ġecht": 4312,
      "Ant": 4313,
      "Ġ2000": 4314,
      "ĠSalz": 4315,
      "ÃŁte": 4316,
      ">...": 4317,
      "Ġeuropa": 4318,
      "annen": 4319,
      "Ġsechs": 4320,
      "wechsel": 4321,
      "schw": 4322,
      "Zum": 4323,
      ".\"": 4324,
      "62": 4325,
      "ucker": 4326,
      "lothek": 4327,
      "page": 4328,
      "stes": 4329,
      "spir": 4330,
      "ielle": 4331,
      "atch": 4332,
      "steht": 4333,
      "ndige": 4334,
      "ĠDire": 4335,
      "etzte": 4336,
      "fluss": 4337,
      "Ġbas": 4338,
      "Ġbeide": 4339,
      "Ġlaut": 4340,
      "menten": 4341,
      "uma": 4342,
      "ĠHandy": 4343,
      "ĠMulti": 4344,
      "ĠEdel": 4345,
      "sive": 4346,
      "ĠVis": 4347,
      "ĠRabatt": 4348,
      "inst": 4349,
      "hrigen": 4350,
      "malen": 4351,
      "name": 4352,
      "Ġgelten": 4353,
      "ray": 4354,
      "ski": 4355,
      "EC": 4356,
      "ritte": 4357,
      "Hallo": 4358,
      "wach": 4359,
      "berger": 4360,
      "Rei": 4361,
      "llung": 4362,
      "ĠFit": 4363,
      "flug": 4364,
      "ĠBack": 4365,
      "blem": 4366,
      "ĠWunsch": 4367,
      "Ġlernen": 4368,
      "ĠSozial": 4369,
      "deutung": 4370,
      "ones": 4371,
      "Ġblau": 4372,
      "ĠPraxis": 4373,
      "sicher": 4374,
      "ĠStrand": 4375,
      "Ġyour": 4376,
      "nnten": 4377,
      "ĠMenge": 4378,
      "bum": 4379,
      "ĠRec": 4380,
      "bad": 4381,
      "lender": 4382,
      "ferenz": 4383,
      "ziell": 4384,
      "rise": 4385,
      "Ġdanach": 4386,
      "zene": 4387,
      "ĠBlut": 4388,
      "ĠSchi": 4389,
      "ĠDoku": 4390,
      "ĠAf": 4391,
      "linge": 4392,
      "rifft": 4393,
      "ĠRie": 4394,
      "gesetz": 4395,
      "ĠGott": 4396,
      "hat": 4397,
      "ateg": 4398,
      "ĠTrain": 4399,
      "ICH": 4400,
      "Ġfahren": 4401,
      "altet": 4402,
      "icken": 4403,
      "ĠHeraus": 4404,
      "zy": 4405,
      "Ġnimmt": 4406,
      "same": 4407,
      "spielt": 4408,
      "Ġ150": 4409,
      "Ġerza": 4410,
      "EG": 4411,
      "Mon": 4412,
      "ĠMie": 4413,
      "ĠBasis": 4414,
      "kannt": 4415,
      "angen": 4416,
      "Gru": 4417,
      "mut": 4418,
      "pzig": 4419,
      "zung": 4420,
      "ĠCol": 4421,
      "napp": 4422,
      "tec": 4423,
      "Art": 4424,
      "merzen": 4425,
      "ĠListe": 4426,
      "Ġkg": 4427,
      "Ġdrau": 4428,
      "soft": 4429,
      "ĠFarb": 4430,
      "Ġvorher": 4431,
      "ĠAnzahl": 4432,
      "delt": 4433,
      "ient": 4434,
      "ĠDinge": 4435,
      "raut": 4436,
      "ĠSchlu": 4437,
      "Ġselten": 4438,
      "Ġbewe": 4439,
      "anzen": 4440,
      "oper": 4441,
      "ĠVerlag": 4442,
      "No": 4443,
      "rieb": 4444,
      "az": 4445,
      "Bild": 4446,
      "mail": 4447,
      "pfen": 4448,
      "ĠZwe": 4449,
      "ruf": 4450,
      "ĠMed": 4451,
      "pflicht": 4452,
      "ĠLink": 4453,
      "board": 4454,
      "Hotels": 4455,
      "ĠBrow": 4456,
      "oni": 4457,
      "ams": 4458,
      "Ġgratis": 4459,
      "Ġunver": 4460,
      "nkt": 4461,
      "ule": 4462,
      "Ġ[...": 4463,
      "ĠAlex": 4464,
      "ĠErsatz": 4465,
      "ĠIN": 4466,
      "berpru": 4467,
      "ĠName": 4468,
      "bilita": 4469,
      "Ġbesse": 4470,
      "star": 4471,
      "bilder": 4472,
      "Ġnied": 4473,
      "ype": 4474,
      "vier": 4475,
      "lug": 4476,
      "ras": 4477,
      "mund": 4478,
      "Ġpreis": 4479,
      "ĠInsel": 4480,
      "haben": 4481,
      "kers": 4482,
      "ĠMartin": 4483,
      "ÃŁten": 4484,
      "ĠDazu": 4485,
      "Ġstei": 4486,
      "ĠDan": 4487,
      "messer": 4488,
      "tweit": 4489,
      "gut": 4490,
      "ĠÂ©": 4491,
      "ĠFin": 4492,
      "Home": 4493,
      "ĠStaats": 4494,
      "orgung": 4495,
      "Ġverz": 4496,
      "ĠAlles": 4497,
      "Ġklein": 4498,
      "Ġwert": 4499,
      "Ġmax": 4500,
      "Ġbald": 4501,
      "ĠCamp": 4502,
      "ktiven": 4503,
      "omin": 4504,
      "SV": 4505,
      "barkeit": 4506,
      "uern": 4507,
      "Pa": 4508,
      "Ġeri": 4509,
      "lad": 4510,
      "eider": 4511,
      "Ġstell": 4512,
      "Di": 4513,
      "nstige": 4514,
      "ING": 4515,
      "ĠDrei": 4516,
      "ĠAlso": 4517,
      "meln": 4518,
      "ĠAs": 4519,
      "Ġrechts": 4520,
      "Che": 4521,
      "ĠBraun": 4522,
      "ringe": 4523,
      "Ġunten": 4524,
      "dienen": 4525,
      "Ġche": 4526,
      "Ġsogen": 4527,
      "ilder": 4528,
      "2008": 4529,
      "zigar": 4530,
      "nsche": 4531,
      "stahl": 4532,
      "cel": 4533,
      "arn": 4534,
      "ĠFirmen": 4535,
      "agne": 4536,
      "ley": 4537,
      "itco": 4538,
      "riger": 4539,
      "Vero": 4540,
      "sex": 4541,
      "bringen": 4542,
      "ĠKai": 4543,
      "ony": 4544,
      "ranzo": 4545,
      "ĠPu": 4546,
      "nstler": 4547,
      "Ġvorbei": 4548,
      "rungen": 4549,
      "Ġvorn": 4550,
      "TM": 4551,
      ",-": 4552,
      "hrist": 4553,
      "maÃŁ": 4554,
      "gemeine": 4555,
      "ĠOder": 4556,
      "ĠPlus": 4557,
      "93": 4558,
      "Ġdo": 4559,
      "rdig": 4560,
      "Stu": 4561,
      "muck": 4562,
      "Ġsetzt": 4563,
      "Ġalte": 4564,
      "ĠKaffee": 4565,
      "CD": 4566,
      "ĠBeson": 4567,
      "krie": 4568,
      "Â¤": 4569,
      "ager": 4570,
      "Ġehema": 4571,
      "cklich": 4572,
      "rate": 4573,
      "Ġ33": 4574,
      "ĠSoc": 4575,
      "ĠZi": 4576,
      "sin": 4577,
      "ister": 4578,
      "ĠDel": 4579,
      "Ju": 4580,
      "ĠRep": 4581,
      "ĠAltern": 4582,
      ">Â": 4583,
      "91": 4584,
      "ĠHalb": 4585,
      "Zur": 4586,
      "UM": 4587,
      "Ġplan": 4588,
      "Ob": 4589,
      "bericht": 4590,
      "werke": 4591,
      "ĠMess": 4592,
      "lust": 4593,
      "ĠUnsere": 4594,
      "mium": 4595,
      "Ġnu": 4596,
      "Ġ37": 4597,
      "of": 4598,
      "ĠCan": 4599,
      "ĠKilo": 4600,
      "orte": 4601,
      "Fil": 4602,
      "Ġpre": 4603,
      "tzliche": 4604,
      "aner": 4605,
      "mpel": 4606,
      "ĠSonne": 4607,
      "tasche": 4608,
      "diglich": 4609,
      "Ġpriv": 4610,
      "Ġtolle": 4611,
      "IR": 4612,
      "lexi": 4613,
      "Ġ!": 4614,
      "App": 4615,
      "osa": 4616,
      "Innen": 4617,
      "ĠBrand": 4618,
      "Ġdamals": 4619,
      "Ka": 4620,
      "liner": 4621,
      "leisch": 4622,
      "antie": 4623,
      "ĠStaat": 4624,
      "ĠReihe": 4625,
      "gas": 4626,
      "ĠBesuch": 4627,
      "gebaut": 4628,
      "ĠBur": 4629,
      "ĠCity": 4630,
      "samen": 4631,
      "ham": 4632,
      "itten": 4633,
      "ĠMetall": 4634,
      "right": 4635,
      "ĠDich": 4636,
      "loser": 4637,
      "klusive": 4638,
      "wel": 4639,
      "Ġverein": 4640,
      "ĠMetho": 4641,
      "ĠWol": 4642,
      "umi": 4643,
      "anien": 4644,
      "Ġhilft": 4645,
      "ĠBewer": 4646,
      "Ġ42": 4647,
      "ĠWild": 4648,
      "ossen": 4649,
      "IV": 4650,
      "ienen": 4651,
      "ĠVier": 4652,
      "ĠUl": 4653,
      "Ġzweite": 4654,
      "Ġricht": 4655,
      "Ġspanne": 4656,
      "tember": 4657,
      "aming": 4658,
      "ther": 4659,
      "akt": 4660,
      "ĠMode": 4661,
      "shop": 4662,
      "km": 4663,
      "Ġ//": 4664,
      "ĠErd": 4665,
      "werte": 4666,
      "92": 4667,
      "ĠAktion": 4668,
      "ahlt": 4669,
      "vid": 4670,
      "Ġmy": 4671,
      "sichts": 4672,
      "unehmen": 4673,
      "ĠMarken": 4674,
      "vents": 4675,
      "ĠBeginn": 4676,
      "Ġheu": 4677,
      "cess": 4678,
      "ĠViele": 4679,
      "ĠSingle": 4680,
      "Ġkeiner": 4681,
      "tifiz": 4682,
      "Ġbef": 4683,
      "ochter": 4684,
      "dass": 4685,
      "deren": 4686,
      "obach": 4687,
      "nissen": 4688,
      "pert": 4689,
      "Ġtragen": 4690,
      "ondon": 4691,
      "sisch": 4692,
      "ĠRau": 4693,
      "ĠPal": 4694,
      "ĠSatz": 4695,
      "reas": 4696,
      "bieten": 4697,
      "ĠCook": 4698,
      "eu": 4699,
      "ĠFeld": 4700,
      "Ġseie": 4701,
      "ros": 4702,
      "Des": 4703,
      "Ġ120": 4704,
      "kap": 4705,
      "Ġzent": 4706,
      "sches": 4707,
      "('": 4708,
      "ĠStat": 4709,
      "Ġindem": 4710,
      "Ġneuer": 4711,
      "Ġpf": 4712,
      "freund": 4713,
      "eign": 4714,
      "blatt": 4715,
      "Ġgesetz": 4716,
      "Ġabzu": 4717,
      "ĠSonder": 4718,
      "ria": 4719,
      "Ġwobei": 4720,
      "ĠEhe": 4721,
      "ĠChina": 4722,
      "ĠBern": 4723,
      "denken": 4724,
      "lanz": 4725,
      "xus": 4726,
      "otal": 4727,
      "lement": 4728,
      "Ġseien": 4729,
      "chel": 4730,
      "ĠBio": 4731,
      "Ġinteg": 4732,
      "messen": 4733,
      "ĠÎĶ": 4734,
      "ĠVertra": 4735,
      "zz": 4736,
      "kunde": 4737,
      "ĠInvest": 4738,
      "ĠTemper": 4739,
      "gebene": 4740,
      "Deutsch": 4741,
      "top": 4742,
      "Ġfreie": 4743,
      "ĠVater": 4744,
      "weite": 4745,
      "rue": 4746,
      "itle": 4747,
      "ĠSchne": 4748,
      "ĠPunkt": 4749,
      "elles": 4750,
      "hine": 4751,
      "ĠLehr": 4752,
      "ĠBy": 4753,
      "ĠHein": 4754,
      "ĠInfos": 4755,
      "Stand": 4756,
      "ĠBerufs": 4757,
      "ĠHunde": 4758,
      "sb": 4759,
      "setze": 4760,
      "ĠOff": 4761,
      "Ġapp": 4762,
      ".\"<": 4763,
      "Ġ2004": 4764,
      "deen": 4765,
      "ix": 4766,
      "ĠVen": 4767,
      "SG": 4768,
      "wohnung": 4769,
      "ĠiPhone": 4770,
      "leucht": 4771,
      "Ġdank": 4772,
      "mess": 4773,
      "Ġ44": 4774,
      "sein": 4775,
      "Ġpasst": 4776,
      "uchs": 4777,
      "ION": 4778,
      "bit": 4779,
      "ĠNutzer": 4780,
      "ĠBeruf": 4781,
      "blich": 4782,
      "ĠTraine": 4783,
      "ĠFlo": 4784,
      "tiges": 4785,
      "Con": 4786,
      "ĠÎĶE": 4787,
      "Ġinter": 4788,
      "ĠGleich": 4789,
      "ices": 4790,
      "ĠZahn": 4791,
      "ĠKaufen": 4792,
      "lev": 4793,
      "ĠHerbst": 4794,
      "sitz": 4795,
      "ĠSilber": 4796,
      "MW": 4797,
      ">âĢ¢": 4798,
      "reiber": 4799,
      "benen": 4800,
      "krank": 4801,
      ">>": 4802,
      "motion": 4803,
      "hab": 4804,
      "treu": 4805,
      "Ġseines": 4806,
      "ĠDanke": 4807,
      "rken": 4808,
      "ĠSach": 4809,
      "gr": 4810,
      "ĠDE": 4811,
      "wierig": 4812,
      "ungsbe": 4813,
      "ĠRuhe": 4814,
      "ringer": 4815,
      "annung": 4816,
      "nken": 4817,
      "wil": 4818,
      "Ġwesent": 4819,
      "ĠHans": 4820,
      "bruch": 4821,
      "Durch": 4822,
      "Ġ.<": 4823,
      "finit": 4824,
      "wendig": 4825,
      "schra": 4826,
      "rderung": 4827,
      "ĠDra": 4828,
      "alls": 4829,
      "ĠÂ°": 4830,
      "ĠKreuz": 4831,
      "lingt": 4832,
      "Book": 4833,
      "Ð¾Ð": 4834,
      "Ġgeplan": 4835,
      "Ġhalt": 4836,
      "INE": 4837,
      "zeugt": 4838,
      "ĠMontag": 4839,
      "ĠMik": 4840,
      "lf": 4841,
      "ĠLinks": 4842,
      "Sport": 4843,
      "ĠMeer": 4844,
      "chende": 4845,
      "abe": 4846,
      "Go": 4847,
      "anger": 4848,
      "Ġrie": 4849,
      "pport": 4850,
      "rzte": 4851,
      "ĠSuch": 4852,
      "Ġ48": 4853,
      "ĠHaar": 4854,
      "Ġhistor": 4855,
      "Hand": 4856,
      "ĠVoraus": 4857,
      "vention": 4858,
      "sver": 4859,
      "ĠGot": 4860,
      "ĠApple": 4861,
      "tail": 4862,
      "Ġbeque": 4863,
      "Ġdru": 4864,
      "ĠTyp": 4865,
      "UT": 4866,
      "lee": 4867,
      "Ġautom": 4868,
      "wohn": 4869,
      "ĠStudie": 4870,
      "way": 4871,
      "Ġsto": 4872,
      "chern": 4873,
      "trolle": 4874,
      "bla": 4875,
      "ĠAufent": 4876,
      "erst": 4877,
      "teln": 4878,
      "lar": 4879,
      "ierende": 4880,
      "Ġraus": 4881,
      "steiger": 4882,
      "ĠSki": 4883,
      "Ġrel": 4884,
      "ĠâĨĴ": 4885,
      "FA": 4886,
      "Ġ400": 4887,
      "\\\"": 4888,
      "ĠAutor": 4889,
      "halle": 4890,
      "2007": 4891,
      "nglich": 4892,
      "Ġ55": 4893,
      "Ges": 4894,
      "ĠDia": 4895,
      "ĠBall": 4896,
      "ĠKlasse": 4897,
      "Ġ75": 4898,
      "ĠZug": 4899,
      "ĠNatu": 4900,
      "Ġdigita": 4901,
      "Ġversta": 4902,
      "Ġfot": 4903,
      "Ġcom": 4904,
      "ĠStru": 4905,
      "Ġerinne": 4906,
      "ndnis": 4907,
      "bauen": 4908,
      "ssystem": 4909,
      "nov": 4910,
      "Ġup": 4911,
      "LO": 4912,
      "ĠDonner": 4913,
      "rc": 4914,
      "tend": 4915,
      "Ġcomp": 4916,
      "achst": 4917,
      "ungsan": 4918,
      "Kom": 4919,
      "ffnen": 4920,
      "ĠBla": 4921,
      "ĠBor": 4922,
      "Ġsorgen": 4923,
      "door": 4924,
      "richten": 4925,
      "bezo": 4926,
      "Ġfestge": 4927,
      "Stra": 4928,
      "pha": 4929,
      "mend": 4930,
      "ols": 4931,
      "Online": 4932,
      "{\"": 4933,
      "hai": 4934,
      "Ġverlo": 4935,
      "eigne": 4936,
      "Ġerwa": 4937,
      "xen": 4938,
      "hause": 4939,
      "blau": 4940,
      "verla": 4941,
      "aturen": 4942,
      "Ġglu": 4943,
      "SS": 4944,
      "komp": 4945,
      "ĠWander": 4946,
      "Ġsinn": 4947,
      "arin": 4948,
      "ĠMac": 4949,
      "auso": 4950,
      "Ġzuvor": 4951,
      "sthe": 4952,
      "Ġlinks": 4953,
      "melden": 4954,
      "ocker": 4955,
      "Wu": 4956,
      "ĠZit": 4957,
      "formen": 4958,
      "ĠGrau": 4959,
      "ĠSache": 4960,
      "ĠKampf": 4961,
      "duct": 4962,
      "Ġmas": 4963,
      "stik": 4964,
      "ĠSw": 4965,
      "Reg": 4966,
      "letz": 4967,
      "Pra": 4968,
      "ĠMain": 4969,
      "Ġgern": 4970,
      "stands": 4971,
      "ĠUSB": 4972,
      "bas": 4973,
      "ĠVera": 4974,
      "partner": 4975,
      "ssa": 4976,
      "-/": 4977,
      "rechnet": 4978,
      "ards": 4979,
      "dne": 4980,
      "ĠKno": 4981,
      "litz": 4982,
      "halter": 4983,
      "ĠRechn": 4984,
      "linie": 4985,
      "iellen": 4986,
      "-)": 4987,
      "hili": 4988,
      "Ġerlau": 4989,
      "itcoi": 4990,
      "Ġ--": 4991,
      "pedia": 4992,
      "ĠFolgen": 4993,
      "itcoin": 4994,
      "ĠAben": 4995,
      "ĠMeine": 4996,
      "],": 4997,
      "lebnis": 4998,
      "ografie": 4999,
      "hite": 5000,
      "kea": 5001,
      "ĠGas": 5002,
      "ĠJob": 5003,
      "glicht": 5004,
      "atin": 5005,
      "klasse": 5006,
      "Ġerh": 5007,
      "glicher": 5008,
      "ĠStil": 5009,
      "ĠMor": 5010,
      "tau": 5011,
      "ĠServer": 5012,
      "Mu": 5013,
      "Ġaltern": 5014,
      "Ġerg": 5015,
      "ickt": 5016,
      "ĠDres": 5017,
      "kaufs": 5018,
      "rechte": 5019,
      "sprec": 5020,
      "fahrer": 5021,
      "rus": 5022,
      "gentur": 5023,
      "ĠClub": 5024,
      "All": 5025,
      "ĠSchei": 5026,
      "ĠArzt": 5027,
      "ĠKurs": 5028,
      "rol": 5029,
      "ĠTeile": 5030,
      "Beitrag": 5031,
      "lerie": 5032,
      "ĠEis": 5033,
      "Ġsiche": 5034,
      "Spe": 5035,
      "fassung": 5036,
      "Ġwider": 5037,
      "ĠTau": 5038,
      "seh": 5039,
      "Ġdenke": 5040,
      "part": 5041,
      "ĠKabel": 5042,
      "Neu": 5043,
      "ago": 5044,
      "iefe": 5045,
      "Ġwor": 5046,
      "Mein": 5047,
      "inf": 5048,
      "Ġbra": 5049,
      "linik": 5050,
      "Ġhinge": 5051,
      "wal": 5052,
      "viel": 5053,
      "barer": 5054,
      "Ġpri": 5055,
      "ingles": 5056,
      "ote": 5057,
      "lers": 5058,
      "0000": 5059,
      "Ġlegen": 5060,
      "verband": 5061,
      "hrten": 5062,
      "Son": 5063,
      "ĠFra": 5064,
      "Ġnah": 5065,
      "ĠKol": 5066,
      "kan": 5067,
      "ĠRoman": 5068,
      "Ġlieber": 5069,
      "reiten": 5070,
      "tiker": 5071,
      "kat": 5072,
      "denburg": 5073,
      "ĠMorgen": 5074,
      "HE": 5075,
      "freich": 5076,
      "seits": 5077,
      "ues": 5078,
      "hotel": 5079,
      "ftsfu": 5080,
      "Ġsparen": 5081,
      "triebe": 5082,
      "Ġusw": 5083,
      "ollar": 5084,
      "stin": 5085,
      "uld": 5086,
      ";<": 5087,
      "ĠSho": 5088,
      "Ġsorgt": 5089,
      "Gesch": 5090,
      "legung": 5091,
      "tegie": 5092,
      "sinn": 5093,
      "ĠZudem": 5094,
      "hens": 5095,
      "film": 5096,
      "tor": 5097,
      "ĠJohn": 5098,
      "ĠAust": 5099,
      "sed": 5100,
      "reiben": 5101,
      "rip": 5102,
      "ĠFig": 5103,
      "Ġverhi": 5104,
      "sagen": 5105,
      "rick": 5106,
      "Bl": 5107,
      "rest": 5108,
      "Mus": 5109,
      "mee": 5110,
      "leitet": 5111,
      "ĠNun": 5112,
      "ĠDon": 5113,
      "ĠJack": 5114,
      "ĠBunde": 5115,
      "Ġknapp": 5116,
      "alz": 5117,
      "ĠPfer": 5118,
      "Ġsport": 5119,
      "vig": 5120,
      "els": 5121,
      "Ġrab": 5122,
      "blen": 5123,
      "ĠAngst": 5124,
      "ĠDis": 5125,
      "ĠBescha": 5126,
      "Ġrot": 5127,
      "ĠTrans": 5128,
      "fli": 5129,
      "ĠKrank": 5130,
      "Ġdre": 5131,
      "schauen": 5132,
      "Ġerneut": 5133,
      "ynam": 5134,
      "linien": 5135,
      "alaxy": 5136,
      "ales": 5137,
      "arakter": 5138,
      "ĠLam": 5139,
      "trem": 5140,
      "sted": 5141,
      "ex": 5142,
      "troll": 5143,
      "Ġquali": 5144,
      "ĠNov": 5145,
      "liesen": 5146,
      "Ġbegru": 5147,
      "tets": 5148,
      "ĠRein": 5149,
      "Ġdeinen": 5150,
      "Ġ43": 5151,
      "!!!": 5152,
      "ĠSinn": 5153,
      "uÃŁer": 5154,
      "taine": 5155,
      "ufe": 5156,
      "digen": 5157,
      "ĠTee": 5158,
      "ĠKrit": 5159,
      "design": 5160,
      "ĠEisen": 5161,
      "Ġwohn": 5162,
      "Ġ2003": 5163,
      "mark": 5164,
      "zeichne": 5165,
      "hlte": 5166,
      "Ġinten": 5167,
      "ĠBaden": 5168,
      "Gen": 5169,
      "Ġjunge": 5170,
      "samkeit": 5171,
      "kta": 5172,
      "Ġga": 5173,
      "ĠWin": 5174,
      "Ru": 5175,
      "ĠBeim": 5176,
      "ĠWerbe": 5177,
      "ritz": 5178,
      "ollten": 5179,
      "Ġkurze": 5180,
      ">+": 5181,
      "Ġoffene": 5182,
      "ally": 5183,
      "ĠZer": 5184,
      "PC": 5185,
      "Ġmorgen": 5186,
      "ĠTod": 5187,
      "ĠSor": 5188,
      "Tra": 5189,
      "belle": 5190,
      "Ġerle": 5191,
      "ous": 5192,
      "Dieser": 5193,
      "Ġzuerst": 5194,
      "stattet": 5195,
      "iga": 5196,
      "Ġ1000": 5197,
      "ux": 5198,
      "IA": 5199,
      "ĠKarl": 5200,
      "VP": 5201,
      "Ġ49": 5202,
      "Ġren": 5203,
      "Ġerhe": 5204,
      "ĠKamera": 5205,
      "ura": 5206,
      "spiegel": 5207,
      "ĠSinne": 5208,
      "gescha": 5209,
      "ĠParis": 5210,
      "Ġschw": 5211,
      "teten": 5212,
      "glichst": 5213,
      "ĠSohn": 5214,
      "Ġschwar": 5215,
      "Ġnew": 5216,
      "Ġverla": 5217,
      "ĠRock": 5218,
      "ĠDro": 5219,
      "ĠSen": 5220,
      "ĠParty": 5221,
      "ĠInhalt": 5222,
      "ĠWill": 5223,
      "Ġsam": 5224,
      "Weiter": 5225,
      "tigung": 5226,
      "haber": 5227,
      "Ġgewu": 5228,
      "ussion": 5229,
      "omie": 5230,
      "ĠLondon": 5231,
      "rts": 5232,
      "Bet": 5233,
      "maler": 5234,
      "ĠHard": 5235,
      "ĠZeiten": 5236,
      "rze": 5237,
      "duziert": 5238,
      "ĠHof": 5239,
      "ĠEm": 5240,
      "arzt": 5241,
      "ffizien": 5242,
      "unkten": 5243,
      "ĠVerarb": 5244,
      "utes": 5245,
      "rater": 5246,
      "terien": 5247,
      "âĢĿ<": 5248,
      "ĠWasch": 5249,
      "KE": 5250,
      "rier": 5251,
      "DS": 5252,
      "bieren": 5253,
      "wertige": 5254,
      "digt": 5255,
      "weder": 5256,
      "Ġkrit": 5257,
      "Ġherz": 5258,
      "deckt": 5259,
      "Ġguter": 5260,
      "Ġverd": 5261,
      "list": 5262,
      "trieben": 5263,
      "sern": 5264,
      "âĢĺ": 5265,
      "chenden": 5266,
      "rang": 5267,
      "dessen": 5268,
      "Ġbee": 5269,
      "platte": 5270,
      "....<": 5271,
      "ĠZoll": 5272,
      "2006": 5273,
      "Ġstets": 5274,
      "Ġbein": 5275,
      "ĠJose": 5276,
      "heren": 5277,
      "ĠVideos": 5278,
      "Ac": 5279,
      "ngst": 5280,
      "ĠSche": 5281,
      "Ġwenige": 5282,
      "ĠPlat": 5283,
      "rain": 5284,
      "ieten": 5285,
      "leit": 5286,
      "ĠTele": 5287,
      "veran": 5288,
      "ktoren": 5289,
      "ded": 5290,
      "ĠAss": 5291,
      "Ġziehen": 5292,
      "ĠEind": 5293,
      "ppt": 5294,
      "ģĦ": 5295,
      "schuss": 5296,
      "Ġdah": 5297,
      "Fa": 5298,
      "asy": 5299,
      "Ġgema": 5300,
      "ĠStoff": 5301,
      "ĠSieg": 5302,
      "ĠServ": 5303,
      "ĠHund": 5304,
      "wickeln": 5305,
      "Gu": 5306,
      "Ġkor": 5307,
      "station": 5308,
      "arbe": 5309,
      "tto": 5310,
      "ĠYork": 5311,
      "imal": 5312,
      "mpfa": 5313,
      "didas": 5314,
      "Ġout": 5315,
      "ĠGebie": 5316,
      "ppich": 5317,
      "Ġsingle": 5318,
      "TER": 5319,
      "hafte": 5320,
      "aste": 5321,
      "ual": 5322,
      "okrat": 5323,
      "reichi": 5324,
      "ĠIhres": 5325,
      "sprache": 5326,
      "ĠCO": 5327,
      "sh": 5328,
      "Ġgrau": 5329,
      "Ġentha": 5330,
      "ĠPsyc": 5331,
      "dete": 5332,
      "merikan": 5333,
      "ĠDVD": 5334,
      "ĠHeil": 5335,
      "ĠHeimat": 5336,
      "ĠProf": 5337,
      "ĠMoment": 5338,
      "ĠSchwer": 5339,
      "brigens": 5340,
      "igi": 5341,
      "ĠSlots": 5342,
      "zepte": 5343,
      "orex": 5344,
      "ĠSchlag": 5345,
      "bungs": 5346,
      "techn": 5347,
      "Spiel": 5348,
      "orin": 5349,
      "onds": 5350,
      "ĠPublik": 5351,
      "Ġverw": 5352,
      "ĠkW": 5353,
      "ĠVert": 5354,
      "ĠCap": 5355,
      "War": 5356,
      "ĠPop": 5357,
      "ĠMot": 5358,
      "ĠHan": 5359,
      "Foto": 5360,
      "bliothe": 5361,
      "ino": 5362,
      "ĠGewi": 5363,
      "ĠKombin": 5364,
      "pflege": 5365,
      "ĠGre": 5366,
      "ahme": 5367,
      "arden": 5368,
      "rge": 5369,
      "ĠYou": 5370,
      "stimmte": 5371,
      "gruppen": 5372,
      "Ì§": 5373,
      "ĠHeute": 5374,
      "handelt": 5375,
      "media": 5376,
      "ain": 5377,
      "ject": 5378,
      "vin": 5379,
      "Haus": 5380,
      ">âĨ": 5381,
      "famil": 5382,
      "Ġfertig": 5383,
      "aupt": 5384,
      "splan": 5385,
      "ĠReinig": 5386,
      "ĠSnea": 5387,
      "teren": 5388,
      "ideo": 5389,
      "Ġ250": 5390,
      "ĠBezir": 5391,
      "bee": 5392,
      "king": 5393,
      "dient": 5394,
      "Ġbetre": 5395,
      "Ġ46": 5396,
      "ĠKlo": 5397,
      "Ġfranzo": 5398,
      "GE": 5399,
      "iten": 5400,
      "tektur": 5401,
      "Ġtop": 5402,
      "Ġfeie": 5403,
      "dte": 5404,
      "hrungen": 5405,
      "ĠOffen": 5406,
      "achi": 5407,
      "schirm": 5408,
      "Ġgutes": 5409,
      "ĠGame": 5410,
      "Also": 5411,
      "nform": 5412,
      "ĠLaut": 5413,
      "lfte": 5414,
      "ndete": 5415,
      "nlichen": 5416,
      "Kinder": 5417,
      "ĠOne": 5418,
      "angs": 5419,
      "ĠPower": 5420,
      "Ġschla": 5421,
      "DA": 5422,
      "*<": 5423,
      "ĠStunde": 5424,
      "Ġq": 5425,
      "boden": 5426,
      "wid": 5427,
      "eincode": 5428,
      "ĠTon": 5429,
      "Ġgames": 5430,
      "Schr": 5431,
      "ĠKino": 5432,
      "kurs": 5433,
      "Ġerster": 5434,
      "pping": 5435,
      "ju": 5436,
      "Ġacht": 5437,
      "==": 5438,
      "Ġaufzu": 5439,
      "ban": 5440,
      "Ġinst": 5441,
      "ĠZugang": 5442,
      "KW": 5443,
      "bra": 5444,
      "ĠThis": 5445,
      "ĠÂ»<": 5446,
      "dert": 5447,
      "icker": 5448,
      "Ġtau": 5449,
      "Seit": 5450,
      "Ġgarant": 5451,
      "Ġausfu": 5452,
      "sste": 5453,
      "lymp": 5454,
      "ĠSE": 5455,
      "Ġobwohl": 5456,
      "verse": 5457,
      "hron": 5458,
      "Ġjen": 5459,
      "Ġrabatt": 5460,
      "ĠEuch": 5461,
      "anc": 5462,
      "âģĦ": 5463,
      "ĠStahl": 5464,
      "ĠPhil": 5465,
      "okal": 5466,
      "ĠTraum": 5467,
      "ĠIr": 5468,
      "Top": 5469,
      "Unsere": 5470,
      "ĠEli": 5471,
      "aktiv": 5472,
      "ise": 5473,
      "Ġgea": 5474,
      "ĠRadio": 5475,
      "Ġdrin": 5476,
      "bessern": 5477,
      "Shop": 5478,
      "renze": 5479,
      "ickets": 5480,
      "Ġ41": 5481,
      "ĠEcht": 5482,
      "baum": 5483,
      "300": 5484,
      "Ġkn": 5485,
      "folgen": 5486,
      "undene": 5487,
      "ĠHallo": 5488,
      "denk": 5489,
      "uni": 5490,
      "ĠFreude": 5491,
      "fordert": 5492,
      "System": 5493,
      "zelnach": 5494,
      "Ġ65": 5495,
      "ltlich": 5496,
      "ĠDorf": 5497,
      "mmt": 5498,
      "Ġgewo": 5499,
      "ĠCent": 5500,
      "eis": 5501,
      "Ġlin": 5502,
      "ĠBox": 5503,
      "ĠBeding": 5504,
      "ĠNummer": 5505,
      "agno": 5506,
      "NE": 5507,
      "ndorf": 5508,
      "ĠSPD": 5509,
      "gestalt": 5510,
      "Wel": 5511,
      "ĠMedia": 5512,
      "ĠCha": 5513,
      "ĠSchnee": 5514,
      "ves": 5515,
      "abin": 5516,
      "dam": 5517,
      "gramme": 5518,
      "zenz": 5519,
      "Ġkinder": 5520,
      "ĠWorld": 5521,
      "ĠBezug": 5522,
      "ĠKeine": 5523,
      "ffekt": 5524,
      "zesse": 5525,
      "Ġdari": 5526,
      "ĠErna": 5527,
      "ĠRE": 5528,
      "ĠDom": 5529,
      "bedarf": 5530,
      "zens": 5531,
      "Ġml": 5532,
      "ĠBlo": 5533,
      "ĠBurg": 5534,
      "spar": 5535,
      "ĠCHF": 5536,
      "ĠSachen": 5537,
      "bald": 5538,
      "ĠâĢº": 5539,
      "ep": 5540,
      "Ġmet": 5541,
      "archi": 5542,
      "ĠPet": 5543,
      "ehmer": 5544,
      "Ġdarin": 5545,
      "Uni": 5546,
      "Ġihres": 5547,
      "ĠFranz": 5548,
      "Ch": 5549,
      "Jetzt": 5550,
      "teuer": 5551,
      "hse": 5552,
      "ĠRest": 5553,
      "Ġregist": 5554,
      "Ġwarten": 5555,
      "spekt": 5556,
      "ĠIP": 5557,
      "ĠEmpfe": 5558,
      "zugs": 5559,
      "ival": 5560,
      "Ġ2002": 5561,
      "ĠGolf": 5562,
      "ĠMuseum": 5563,
      "datum": 5564,
      "ĠReic": 5565,
      "ĠSehr": 5566,
      "ĠKaiser": 5567,
      "Ġkredit": 5568,
      "onie": 5569,
      "Aktu": 5570,
      "fie": 5571,
      "ĠAR": 5572,
      "ĠCas": 5573,
      "ĠBir": 5574,
      "ĠRisiko": 5575,
      "orts": 5576,
      "ĠHum": 5577,
      "ierend": 5578,
      "ĠPul": 5579,
      "FF": 5580,
      "ĠVersta": 5581,
      "ĠMacht": 5582,
      "stuhl": 5583,
      "OW": 5584,
      "ĠOhne": 5585,
      "Ġunabha": 5586,
      "itar": 5587,
      "ged": 5588,
      "SE": 5589,
      "assend": 5590,
      "ulation": 5591,
      "hing": 5592,
      "kenn": 5593,
      "Ġtut": 5594,
      "Ġbed": 5595,
      "uell": 5596,
      "steine": 5597,
      "Ġsieben": 5598,
      "ĠeBay": 5599,
      "ieler": 5600,
      "fernen": 5601,
      "holt": 5602,
      "artikel": 5603,
      "Ġtoll": 5604,
      "ĠDekor": 5605,
      "ĠAnlage": 5606,
      "hrlei": 5607,
      "passen": 5608,
      "Ġdarum": 5609,
      "stellte": 5610,
      "ĠArm": 5611,
      "ĠIns": 5612,
      "stro": 5613,
      "ymp": 5614,
      "Ġmodern": 5615,
      "unction": 5616,
      "rec": 5617,
      "ĠPil": 5618,
      "Ġ64": 5619,
      "ink": 5620,
      "lossene": 5621,
      "Scho": 5622,
      "blu": 5623,
      "tainer": 5624,
      "ĠFr": 5625,
      "ĠGesetz": 5626,
      "Ġegal": 5627,
      "ĠPl": 5628,
      "ĠAusfu": 5629,
      "sult": 5630,
      "room": 5631,
      "En": 5632,
      "ĠRes": 5633,
      "irtu": 5634,
      "azin": 5635,
      "hose": 5636,
      "spf": 5637,
      "Ġkamen": 5638,
      "Name": 5639,
      "nbezo": 5640,
      "zur": 5641,
      "reie": 5642,
      "Hi": 5643,
      "ĠZahlen": 5644,
      "enbezo": 5645,
      "Land": 5646,
      "ĠSei": 5647,
      "sia": 5648,
      "kaufen": 5649,
      "SC": 5650,
      "lenk": 5651,
      "ĠStau": 5652,
      "Ġmelden": 5653,
      "Ur": 5654,
      "ĠPapier": 5655,
      "ĠTw": 5656,
      "OC": 5657,
      "ckn": 5658,
      "Sehr": 5659,
      "osk": 5660,
      "htes": 5661,
      "iertes": 5662,
      "ĠAM": 5663,
      "lkerung": 5664,
      "Ġtyp": 5665,
      "tworten": 5666,
      "ruchs": 5667,
      "rug": 5668,
      "berall": 5669,
      "bereit": 5670,
      "ĠPaul": 5671,
      "ĠPack": 5672,
      "blichen": 5673,
      "beit": 5674,
      ">Â«": 5675,
      "ĠEd": 5676,
      "ĠPlatt": 5677,
      "Ġsodass": 5678,
      "helm": 5679,
      "gema": 5680,
      ">*": 5681,
      "ror": 5682,
      "ĠKlassi": 5683,
      "ĠReich": 5684,
      "olor": 5685,
      "fernung": 5686,
      "ĠBra": 5687,
      "zehn": 5688,
      "Ġbonus": 5689,
      "swert": 5690,
      "schungs": 5691,
      "Ġverste": 5692,
      "lec": 5693,
      "ĠGrad": 5694,
      "lture": 5695,
      "ĠNote": 5696,
      "kadem": 5697,
      "uert": 5698,
      "ful": 5699,
      "php": 5700,
      "lieben": 5701,
      "sichtig": 5702,
      "mittelt": 5703,
      "ĠEro": 5704,
      "terium": 5705,
      "DI": 5706,
      "rennen": 5707,
      "ĠAudio": 5708,
      "++": 5709,
      "Ġjungen": 5710,
      "ĠRechte": 5711,
      "ĠAktien": 5712,
      "Par": 5713,
      ">@": 5714,
      "ĠPartei": 5715,
      "netz": 5716,
      "gewicht": 5717,
      "Ð»": 5718,
      "person": 5719,
      "leger": 5720,
      "nicht": 5721,
      "amb": 5722,
      "Ġhu": 5723,
      "ec": 5724,
      "Ġdur": 5725,
      "Dieses": 5726,
      "lent": 5727,
      "ĠMw": 5728,
      "dens": 5729,
      "Ġgeo": 5730,
      "Ġgeld": 5731,
      "ĠNEU": 5732,
      "Ġ000": 5733,
      "kette": 5734,
      "ĠBlumen": 5735,
      "umm": 5736,
      "ĠTiere": 5737,
      "Adresse": 5738,
      "Ġgelo": 5739,
      "kshop": 5740,
      "(\"": 5741,
      "lity": 5742,
      "ĠBevo": 5743,
      "ĠMuster": 5744,
      "ey": 5745,
      "temberg": 5746,
      "ndigung": 5747,
      "ĠWarum": 5748,
      "rinner": 5749,
      "GH": 5750,
      "lernt": 5751,
      "verkehr": 5752,
      "ĠVit": 5753,
      "sende": 5754,
      "ĠRegist": 5755,
      "News": 5756,
      "figur": 5757,
      "Ġangeb": 5758,
      "digung": 5759,
      "zern": 5760,
      "uchten": 5761,
      "kern": 5762,
      "ience": 5763,
      "Ġdating": 5764,
      "img": 5765,
      "West": 5766,
      "zahlt": 5767,
      "ĠJourn": 5768,
      "betrieb": 5769,
      "ĠRou": 5770,
      "auert": 5771,
      "lab": 5772,
      "ĠWege": 5773,
      "ĠTat": 5774,
      "hster": 5775,
      "sts": 5776,
      "schwei": 5777,
      "ltra": 5778,
      "mine": 5779,
      "ĠOli": 5780,
      "Ġend": 5781,
      "anlagen": 5782,
      "ĠAL": 5783,
      "ĠUnser": 5784,
      "ĠPha": 5785,
      "falt": 5786,
      "ĠGemu": 5787,
      "Ġwirkt": 5788,
      "very": 5789,
      "Ġhandel": 5790,
      "BA": 5791,
      "qualita": 5792,
      "Up": 5793,
      "chtig": 5794,
      "mittag": 5795,
      "wen": 5796,
      "Ġglaube": 5797,
      "chster": 5798,
      "anta": 5799,
      "Schn": 5800,
      "dag": 5801,
      "hoto": 5802,
      "ela": 5803,
      "ĠDreh": 5804,
      "ĠLeser": 5805,
      "herr": 5806,
      "bby": 5807,
      "ĠTur": 5808,
      "rot": 5809,
      "ires": 5810,
      "ĠHimmel": 5811,
      "beck": 5812,
      "ĠRunde": 5813,
      "Ġessen": 5814,
      "ĠMinis": 5815,
      "Ġop": 5816,
      "Ġneg": 5817,
      "ĠKomm": 5818,
      "boten": 5819,
      "alo": 5820,
      "nliche": 5821,
      "Ġdisk": 5822,
      "jacke": 5823,
      "Nicht": 5824,
      "Ġhave": 5825,
      "seln": 5826,
      "ĠKern": 5827,
      "Ġtu": 5828,
      "ĠLust": 5829,
      "sum": 5830,
      "nsicht": 5831,
      "rzt": 5832,
      "sonsten": 5833,
      "gress": 5834,
      "ĠSlot": 5835,
      "farbe": 5836,
      "Bi": 5837,
      "ĠBot": 5838,
      "ahrung": 5839,
      "ĠDate": 5840,
      "aller": 5841,
      "Recht": 5842,
      "alisten": 5843,
      "Kl": 5844,
      "leder": 5845,
      "HR": 5846,
      "Ġgood": 5847,
      "misch": 5848,
      "vollen": 5849,
      "dwig": 5850,
      "Ġherr": 5851,
      "ussland": 5852,
      "Bau": 5853,
      "Ġgesund": 5854,
      "Ġjene": 5855,
      "ĠOp": 5856,
      "fra": 5857,
      "ĠSound": 5858,
      "apier": 5859,
      "Ġdesign": 5860,
      "ĠMail": 5861,
      "ato": 5862,
      "OK": 5863,
      "ward": 5864,
      "ĠDauer": 5865,
      "ĠMatt": 5866,
      "ĠVero": 5867,
      "ĠSymp": 5868,
      "Hoch": 5869,
      "beln": 5870,
      "merz": 5871,
      "ĠGottes": 5872,
      "zielle": 5873,
      "range": 5874,
      "ani": 5875,
      "ĠAB": 5876,
      "MA": 5877,
      "wolle": 5878,
      "Ġreich": 5879,
      "Ġ47": 5880,
      "angebot": 5881,
      "Ġwann": 5882,
      "cur": 5883,
      "treuung": 5884,
      "ĠRet": 5885,
      "atik": 5886,
      "mg": 5887,
      "Ġbuchen": 5888,
      "rkt": 5889,
      "abine": 5890,
      "ĠLeit": 5891,
      "ĠÃ": 5892,
      "Ġgegru": 5893,
      "ĠEinfu": 5894,
      "rnberg": 5895,
      "sachen": 5896,
      "ĠIII": 5897,
      "iven": 5898,
      "stock": 5899,
      "ek": 5900,
      "ĠSpezi": 5901,
      "/<": 5902,
      "ĠLim": 5903,
      "bliche": 5904,
      "ĠStefan": 5905,
      "pot": 5906,
      "vertrag": 5907,
      "kund": 5908,
      "Ġhaus": 5909,
      "Ġextrem": 5910,
      "ĠKann": 5911,
      "sburg": 5912,
      "punkte": 5913,
      "ĠGB": 5914,
      "ĠQuali": 5915,
      "ĠBrief": 5916,
      "yo": 5917,
      "Ġlieben": 5918,
      "nium": 5919,
      "eichert": 5920,
      "ĠKoch": 5921,
      "ĠOpen": 5922,
      "ĠGlo": 5923,
      "lter": 5924,
      "ated": 5925,
      "Ġgemu": 5926,
      "andes": 5927,
      "decke": 5928,
      "less": 5929,
      "Ġdeiner": 5930,
      "ĠPh": 5931,
      "pflich": 5932,
      "aster": 5933,
      "forta": 5934,
      "Ġspezi": 5935,
      "ĠSchwa": 5936,
      "agra": 5937,
      "Ġextra": 5938,
      "Den": 5939,
      "ĠBremen": 5940,
      "gebenen": 5941,
      "Ġreicht": 5942,
      "ĠFer": 5943,
      "rhein": 5944,
      "Ġ2001": 5945,
      "LA": 5946,
      "Ġzeig": 5947,
      "korb": 5948,
      "dener": 5949,
      "ĠLinie": 5950,
      "ague": 5951,
      "hoch": 5952,
      "unne": 5953,
      "Ġfehlen": 5954,
      "ĠWohl": 5955,
      "rib": 5956,
      "ĠUnfall": 5957,
      "Ġkombin": 5958,
      "dauer": 5959,
      "ĠGebu": 5960,
      "Ġgra": 5961,
      "eiter": 5962,
      "Ġumfang": 5963,
      "Ġmore": 5964,
      "ader": 5965,
      "rmer": 5966,
      "ĠCode": 5967,
      "rille": 5968,
      "lecht": 5969,
      "ĠBeg": 5970,
      "ckne": 5971,
      "vision": 5972,
      "leiten": 5973,
      "find": 5974,
      "ahres": 5975,
      "Ġslots": 5976,
      "Ġmachte": 5977,
      "Ġdenken": 5978,
      "mode": 5979,
      "scheint": 5980,
      "px": 5981,
      "ĠBedu": 5982,
      "ffnungs": 5983,
      "Ġlangen": 5984,
      "ĠFein": 5985,
      "stags": 5986,
      "ĠRed": 5987,
      "ĠClass": 5988,
      "online": 5989,
      "ĠAN": 5990,
      "ĠKle": 5991,
      "vie": 5992,
      "rags": 5993,
      "Ġzahlen": 5994,
      "mpfen": 5995,
      "iller": 5996,
      "voline": 5997,
      "orient": 5998,
      "ĠNike": 5999,
      "Ġdrauf": 6000,
      "bewerb": 6001,
      "orm": 6002,
      "Ġsicht": 6003,
      "ĠMad": 6004,
      "mod": 6005,
      "Ġkennt": 6006,
      "nfte": 6007,
      "ĠDaher": 6008,
      "ĠVertre": 6009,
      "loud": 6010,
      "ressum": 6011,
      "Ġuner": 6012,
      "gten": 6013,
      "urer": 6014,
      "ets": 6015,
      "ĠMod": 6016,
      "ĠNi": 6017,
      "ĠAlltag": 6018,
      "Ġkonkre": 6019,
      "pfe": 6020,
      "ĠHot": 6021,
      "ĠOper": 6022,
      "griffen": 6023,
      "arl": 6024,
      "Ġpl": 6025,
      "ĠMwSt": 6026,
      "Ġberuf": 6027,
      "Ġattra": 6028,
      "Ġsh": 6029,
      "ĠVerha": 6030,
      "sdorf": 6031,
      "stausch": 6032,
      "ĠTasche": 6033,
      "Ġdeinem": 6034,
      "kampf": 6035,
      "gner": 6036,
      "Ġmusst": 6037,
      "var": 6038,
      "werden": 6039,
      "Mann": 6040,
      "Ġnieder": 6041,
      "ĠInteg": 6042,
      "Ġverlie": 6043,
      "kn": 6044,
      "pol": 6045,
      "sand": 6046,
      "phi": 6047,
      "ĠIntel": 6048,
      "ĠVW": 6049,
      "Ġinz": 6050,
      "ĠTrin": 6051,
      "ruhe": 6052,
      "ĠMerkur": 6053,
      "ross": 6054,
      "wurf": 6055,
      "Sam": 6056,
      "utel": 6057,
      "AND": 6058,
      "Daten": 6059,
      "ĠFahrer": 6060,
      "ĠJobs": 6061,
      "ĠMB": 6062,
      "Ġbauen": 6063,
      "Ġfallen": 6064,
      "ĠShow": 6065,
      "bay": 6066,
      "htet": 6067,
      "cedes": 6068,
      "Ġeffe": 6069,
      "Ġ54": 6070,
      "hip": 6071,
      "ĠMaria": 6072,
      "rgen": 6073,
      "ĠFab": 6074,
      "iener": 6075,
      "003": 6076,
      "mbol": 6077,
      "ĠTren": 6078,
      "Th": 6079,
      "ages": 6080,
      "ttel": 6081,
      "ĠSV": 6082,
      "Ġlive": 6083,
      "Ġung": 6084,
      "XL": 6085,
      "licke": 6086,
      "nehm": 6087,
      "passt": 6088,
      "ĠPum": 6089,
      "mmung": 6090,
      "ĠKart": 6091,
      "ĠKrieg": 6092,
      "Gew": 6093,
      "ĠSeni": 6094,
      "tung": 6095,
      "bb": 6096,
      "Ðº": 6097,
      "ĠWLAN": 6098,
      "ĠKunde": 6099,
      "Ist": 6100,
      "Ġverbi": 6101,
      "ĠGrie": 6102,
      "oss": 6103,
      "visor": 6104,
      "unc": 6105,
      "ĠGT": 6106,
      "van": 6107,
      "content": 6108,
      "ition": 6109,
      "ĠProfil": 6110,
      "minar": 6111,
      "ackt": 6112,
      "ĠOf": 6113,
      "oma": 6114,
      "ĠVerka": 6115,
      "bes": 6116,
      "Ġbegann": 6117,
      "gebu": 6118,
      ">Â»": 6119,
      "cial": 6120,
      "Ġhoffe": 6121,
      "null": 6122,
      "Ġgera": 6123,
      "ĠWeite": 6124,
      "ado": 6125,
      "ault": 6126,
      "iefer": 6127,
      "lash": 6128,
      "rker": 6129,
      "stige": 6130,
      "Ġter": 6131,
      "ĠMotiv": 6132,
      "ĠGefa": 6133,
      "lio": 6134,
      "siden": 6135,
      "Ġfolgt": 6136,
      "ĠFans": 6137,
      "ĠVerd": 6138,
      "ĠSchl": 6139,
      "2005": 6140,
      "fass": 6141,
      "Ġwelt": 6142,
      "ĠWunder": 6143,
      "ĠSchlie": 6144,
      "DP": 6145,
      "ichtete": 6146,
      "ĠSeine": 6147,
      "eise": 6148,
      "ĠGanz": 6149,
      "ĠEurop": 6150,
      "ĠHalt": 6151,
      "ĠTrotz": 6152,
      "rans": 6153,
      "Ġvorne": 6154,
      "ilber": 6155,
      "otheke": 6156,
      "ĠStro": 6157,
      "ĠViell": 6158,
      "gener": 6159,
      "rzen": 6160,
      "holen": 6161,
      "nftig": 6162,
      "gewo": 6163,
      "PU": 6164,
      "Ġ99": 6165,
      "sache": 6166,
      "enter": 6167,
      "Ġinvest": 6168,
      ".)<": 6169,
      "mospha": 6170,
      "aa": 6171,
      "zigen": 6172,
      "metho": 6173,
      "west": 6174,
      "xel": 6175,
      "Lin": 6176,
      "dd": 6177,
      "Ġbraun": 6178,
      "aust": 6179,
      "isiert": 6180,
      "Ġpol": 6181,
      "Ġ*<": 6182,
      "Ġaufgen": 6183,
      "hlungen": 6184,
      "order": 6185,
      "ĠBalkon": 6186,
      "gers": 6187,
      "ĠGames": 6188,
      "italis": 6189,
      "Ġarbei": 6190,
      "Marke": 6191,
      "ĠSau": 6192,
      "stisch": 6193,
      "dagog": 6194,
      "kirchen": 6195,
      "ÌĨ": 6196,
      "âĢŀ": 6197,
      "Ġvia": 6198,
      "ĠLiter": 6199,
      "ĠStock": 6200,
      "ĠJung": 6201,
      "reig": 6202,
      "arts": 6203,
      "ĠGla": 6204,
      "ĠTel": 6205,
      "Ġâľ": 6206,
      "span": 6207,
      "ield": 6208,
      "Ġdauer": 6209,
      "ĠUmgang": 6210,
      "Ġev": 6211,
      "Ġweder": 6212,
      "Ġtotal": 6213,
      "WE": 6214,
      "\"-": 6215,
      "ktik": 6216,
      "Ġif": 6217,
      "Ġread": 6218,
      "ĠEss": 6219,
      "Ġfro": 6220,
      "ĠAnwend": 6221,
      "ieur": 6222,
      "igin": 6223,
      "Ġsoweit": 6224,
      "Ġland": 6225,
      "ple": 6226,
      "rfte": 6227,
      "Intern": 6228,
      "twor": 6229,
      "ĠQue": 6230,
      "Nur": 6231,
      "ĠEp": 6232,
      "Zimmer": 6233,
      "ula": 6234,
      "ĠMobil": 6235,
      "ĠPhili": 6236,
      "ĠMesse": 6237,
      "falen": 6238,
      "ĠOlymp": 6239,
      "seque": 6240,
      "ĠVa": 6241,
      "FT": 6242,
      "oster": 6243,
      "leuchte": 6244,
      "ĠQuad": 6245,
      "Ġfragen": 6246,
      "ĠTru": 6247,
      "ĠKatzen": 6248,
      "seller": 6249,
      "Danke": 6250,
      "ilien": 6251,
      "ampagne": 6252,
      "áĨ": 6253,
      "SU": 6254,
      "ÃŁere": 6255,
      "serie": 6256,
      "nna": 6257,
      "ĠBek": 6258,
      "ĠPool": 6259,
      "ĠKG": 6260,
      "ĠLudwig": 6261,
      "dungen": 6262,
      "Ġgenu": 6263,
      "Ġeinger": 6264,
      "IK": 6265,
      "ĠAufbau": 6266,
      "Ġkostet": 6267,
      "Ġ[...]<": 6268,
      "AA": 6269,
      "ids": 6270,
      "Â§": 6271,
      "Ġbequem": 6272,
      "Ġpru": 6273,
      "ĠIde": 6274,
      "ĠVort": 6275,
      "blog": 6276,
      "ĠHon": 6277,
      "arif": 6278,
      "ĠStern": 6279,
      "ĠInnov": 6280,
      "Ġprofit": 6281,
      "ĠKleid": 6282,
      "reicher": 6283,
      "ĠAkku": 6284,
      "ĠWur": 6285,
      "daktion": 6286,
      "ĠSozi": 6287,
      "uchte": 6288,
      "Ġreag": 6289,
      "rene": 6290,
      "frau": 6291,
      "deln": 6292,
      "ĠUng": 6293,
      "ĠGlau": 6294,
      "ĠWelche": 6295,
      "Ġ52": 6296,
      "CO": 6297,
      "ĠMari": 6298,
      "weiÃŁ": 6299,
      "Grund": 6300,
      "rena": 6301,
      "uminium": 6302,
      "Ġurspru": 6303,
      "ĠPay": 6304,
      "Ġgarten": 6305,
      "lease": 6306,
      "ĠCommun": 6307,
      "Ġvi": 6308,
      "machen": 6309,
      "VO": 6310,
      "ĠUrteil": 6311,
      "ĠMaster": 6312,
      "oga": 6313,
      "RW": 6314,
      "info": 6315,
      "Ġerga": 6316,
      "pre": 6317,
      "Or": 6318,
      "md": 6319,
      "ashion": 6320,
      "\".<": 6321,
      "dernen": 6322,
      "ĠBon": 6323,
      ",.": 6324,
      "bellen": 6325,
      "ĠFahrt": 6326,
      "oten": 6327,
      "lim": 6328,
      "utton": 6329,
      "dner": 6330,
      "ĠKal": 6331,
      "sn": 6332,
      "testen": 6333,
      "geordne": 6334,
      "Ġlohnt": 6335,
      "anner": 6336,
      "ĠColle": 6337,
      "ĠEinwo": 6338,
      "Ġweiss": 6339,
      "langt": 6340,
      "hungen": 6341,
      "Ġmitein": 6342,
      "vermitt": 6343,
      "rsen": 6344,
      "Ġfil": 6345,
      "ĠAlten": 6346,
      "agd": 6347,
      "Ġoffiz": 6348,
      "istenz": 6349,
      "Ġausdru": 6350,
      "ĠSchiff": 6351,
      "ĠSha": 6352,
      "Ġnatur": 6353,
      "Bitte": 6354,
      "Ġnahm": 6355,
      "irus": 6356,
      "ĠIng": 6357,
      "Ġdel": 6358,
      "ĠBier": 6359,
      "ĠðŁĺ": 6360,
      "Ġteilen": 6361,
      "kopf": 6362,
      "sslich": 6363,
      "Welt": 6364,
      "ĠGefahr": 6365,
      "ving": 6366,
      "SL": 6367,
      "gegeben": 6368,
      "ĠAlbum": 6369,
      "Ġ600": 6370,
      "ĠKonto": 6371,
      "ĠOl": 6372,
      "ĠRicht": 6373,
      "ĠErde": 6374,
      "kunfts": 6375,
      "mei": 6376,
      "rucker": 6377,
      "Ġtief": 6378,
      "lassung": 6379,
      "ĠGewa": 6380,
      "ndel": 6381,
      "kturen": 6382,
      "opy": 6383,
      "Schu": 6384,
      "Ġflie": 6385,
      "sitzer": 6386,
      "ferung": 6387,
      "ĠBMW": 6388,
      "ĠMc": 6389,
      "âĢľ.<": 6390,
      "ENT": 6391,
      "Ġtrifft": 6392,
      "ĠKas": 6393,
      "Produkt": 6394,
      "hallen": 6395,
      "ĠPfar": 6396,
      "fas": 6397,
      "reinig": 6398,
      "Ġinnov": 6399,
      "400": 6400,
      "ĠBeach": 6401,
      "atterie": 6402,
      "pu": 6403,
      "ĠPub": 6404,
      "ÌĦ": 6405,
      "Ġideen": 6406,
      "ĠInstru": 6407,
      "ladung": 6408,
      "Meine": 6409,
      "Seite": 6410,
      "Ġober": 6411,
      "ĠWachst": 6412,
      "Ġnow": 6413,
      "filter": 6414,
      "ĠWell": 6415,
      "Ġsan": 6416,
      "ĠKant": 6417,
      "bte": 6418,
      "ĠDass": 6419,
      "ĠInfo": 6420,
      "Techn": 6421,
      "ĠPoten": 6422,
      "iegel": 6423,
      "SCH": 6424,
      "ĠArten": 6425,
      "ĠWiki": 6426,
      "ĠUrlau": 6427,
      "liefert": 6428,
      "tl": 6429,
      "101": 6430,
      "Ġspu": 6431,
      "matik": 6432,
      "ikali": 6433,
      "ĠHerzen": 6434,
      "Ġlast": 6435,
      "ĠlieÃŁ": 6436,
      "Ġhinten": 6437,
      "fot": 6438,
      "Ġgebe": 6439,
      "BE": 6440,
      "ĠUmsatz": 6441,
      "ĠJes": 6442,
      "ĠMir": 6443,
      "PR": 6444,
      "Min": 6445,
      "atoren": 6446,
      "ĠSC": 6447,
      "Ġzw": 6448,
      "ĠSchla": 6449,
      "wee": 6450,
      "ĠGalaxy": 6451,
      "liger": 6452,
      "ĠFro": 6453,
      "TC": 6454,
      "schenke": 6455,
      "Ġ56": 6456,
      "Ġlag": 6457,
      "Ġstud": 6458,
      "ĠKooper": 6459,
      "posit": 6460,
      "kul": 6461,
      "rone": 6462,
      "ĠDein": 6463,
      "Ġtest": 6464,
      "hlten": 6465,
      "urist": 6466,
      "****": 6467,
      "ĠUser": 6468,
      "rkte": 6469,
      "achtung": 6470,
      "ĠJapan": 6471,
      "Ġkat": 6472,
      "ĠRea": 6473,
      "Kunden": 6474,
      "Ġherum": 6475,
      "ĠRobert": 6476,
      "ĠSein": 6477,
      "ĠRelig": 6478,
      "Leben": 6479,
      "lover": 6480,
      "dische": 6481,
      "ĠFisch": 6482,
      "ii": 6483,
      "ĠMarc": 6484,
      "Ġherge": 6485,
      "derer": 6486,
      "ĠAudi": 6487,
      "Ġschli": 6488,
      "Ġbar": 6489,
      "horn": 6490,
      "ĠMei": 6491,
      "Ġel": 6492,
      "Ġzusta": 6493,
      "Ġdpa": 6494,
      "Deut": 6495,
      "luft": 6496,
      "Fahr": 6497,
      "med": 6498,
      "chtung": 6499,
      "ĠAntrag": 6500,
      "Ġbege": 6501,
      "Ġfehlt": 6502,
      "ĠLuxus": 6503,
      "if": 6504,
      "ĠKritik": 6505,
      "ĠFilme": 6506,
      "Ġsauber": 6507,
      "poli": 6508,
      "Ġbesit": 6509,
      "ĠKro": 6510,
      "intage": 6511,
      "ronik": 6512,
      "runde": 6513,
      "ĠDavid": 6514,
      "PO": 6515,
      "wiki": 6516,
      "Ġmed": 6517,
      "ĠLeider": 6518,
      "Ġkra": 6519,
      "anda": 6520,
      "Stadt": 6521,
      "ĠMio": 6522,
      "ĠMikro": 6523,
      "ĠZweck": 6524,
      "gehend": 6525,
      "UL": 6526,
      "Ġslot": 6527,
      "112": 6528,
      "schrau": 6529,
      "ĠLot": 6530,
      "ãĤ": 6531,
      "ĠSchon": 6532,
      "ĠGran": 6533,
      "Auto": 6534,
      "uml": 6535,
      "Ġvielfa": 6536,
      "Zit": 6537,
      "verha": 6538,
      "eichern": 6539,
      "Ġ59": 6540,
      "Ġbilden": 6541,
      "Ġdro": 6542,
      "Ġhol": 6543,
      "ĠLade": 6544,
      "ĠMinde": 6545,
      "ĠKennt": 6546,
      "ĠFrem": 6547,
      "ĠCenter": 6548,
      "hrende": 6549,
      "Ġtesten": 6550,
      "ranten": 6551,
      "eistert": 6552,
      "Inst": 6553,
      "ĠGeorg": 6554,
      "stil": 6555,
      "ĠSign": 6556,
      "ose": 6557,
      "spu": 6558,
      "tione": 6559,
      "Dien": 6560,
      "ĠDaru": 6561,
      "ĠBetra": 6562,
      ">âĢľ": 6563,
      "CE": 6564,
      "Telefon": 6565,
      "ĠSpitze": 6566,
      "KT": 6567,
      "rsten": 6568,
      "ĠGute": 6569,
      "Ġregion": 6570,
      "ĠLese": 6571,
      "nitz": 6572,
      "ĠWilli": 6573,
      "trol": 6574,
      "Ra": 6575,
      "HL": 6576,
      "size": 6577,
      "Ġachten": 6578,
      "Ġsorg": 6579,
      "..<": 6580,
      "Neue": 6581,
      "Ġei": 6582,
      "tliche": 6583,
      "ĠHalle": 6584,
      "ĠGl": 6585,
      "ĠDenk": 6586,
      "ĠEv": 6587,
      "Ġ?<": 6588,
      "\"]": 6589,
      "Ġ85": 6590,
      "itel": 6591,
      "Ġverl": 6592,
      "ĠZo": 6593,
      "Ġhabt": 6594,
      "ĠSzene": 6595,
      "ology": 6596,
      "))": 6597,
      "ĠTatsa": 6598,
      "SD": 6599,
      "Ġtrai": 6600,
      "Unser": 6601,
      "ĠNutz": 6602,
      "ĠKop": 6603,
      "ĠCi": 6604,
      "Ġzieht": 6605,
      "zit": 6606,
      "ziger": 6607,
      "melt": 6608,
      "tens": 6609,
      "ĠVogel": 6610,
      "ĠSCH": 6611,
      "Ġplus": 6612,
      "Ġanti": 6613,
      "false": 6614,
      "splatz": 6615,
      "erk": 6616,
      "tionen": 6617,
      "feren": 6618,
      "irc": 6619,
      "ĠUnion": 6620,
      "forum": 6621,
      "liziert": 6622,
      "ĠOrts": 6623,
      "ĠDafu": 6624,
      "zufu": 6625,
      "aro": 6626,
      "ĠBrem": 6627,
      "platten": 6628,
      "rchen": 6629,
      "ĠLab": 6630,
      "chester": 6631,
      "mband": 6632,
      "zellen": 6633,
      "politik": 6634,
      "tifik": 6635,
      "ikon": 6636,
      "ĠDeck": 6637,
      "hagen": 6638,
      "spon": 6639,
      "Ġflexi": 6640,
      "ĠTanz": 6641,
      "ĠMiss": 6642,
      "dire": 6643,
      "ugen": 6644,
      "zum": 6645,
      "modell": 6646,
      "images": 6647,
      "Ġwirst": 6648,
      "meric": 6649,
      "Ġevent": 6650,
      "ĠGeheim": 6651,
      "ĠFertig": 6652,
      "orge": 6653,
      "vy": 6654,
      "Service": 6655,
      "lina": 6656,
      "ĠMilc": 6657,
      "ode": 6658,
      "zwei": 6659,
      "Berlin": 6660,
      "takte": 6661,
      "wenden": 6662,
      "ĠRing": 6663,
      "vera": 6664,
      "minist": 6665,
      "ĠEvent": 6666,
      "Ġexist": 6667,
      "ĠQuelle": 6668,
      "kg": 6669,
      "ĠGewalt": 6670,
      "Zeit": 6671,
      "ĠGrafik": 6672,
      "Inform": 6673,
      "ĠTemp": 6674,
      "Ġmensch": 6675,
      "ĠGewer": 6676,
      "Ġone": 6677,
      "lish": 6678,
      "yal": 6679,
      "ĠGeb": 6680,
      "versity": 6681,
      "Ihr": 6682,
      "Ġsystem": 6683,
      "ĠKleine": 6684,
      "chse": 6685,
      "ĠHat": 6686,
      "ĠEhren": 6687,
      "iete": 6688,
      "ĠDist": 6689,
      "nze": 6690,
      "kohol": 6691,
      "steigen": 6692,
      "rechts": 6693,
      "Ġsex": 6694,
      "Set": 6695,
      "ĠWM": 6696,
      "eto": 6697,
      "fahrung": 6698,
      "ky": 6699,
      "Ġdra": 6700,
      "Ġele": 6701,
      "ĠJeder": 6702,
      "Ġpost": 6703,
      "haften": 6704,
      "ĠGol": 6705,
      "mor": 6706,
      "Ġplo": 6707,
      "/-": 6708,
      "Ġstarke": 6709,
      "ĠMiet": 6710,
      "ji": 6711,
      "ern": 6712,
      "ĠAme": 6713,
      "Lu": 6714,
      "ĠMinute": 6715,
      "Ġsim": 6716,
      "ĠMedika": 6717,
      "petenz": 6718,
      ">|": 6719,
      "Ġ..": 6720,
      "ĠKlaus": 6721,
      "Ġ110": 6722,
      "illen": 6723,
      "pin": 6724,
      "ĠIniti": 6725,
      "Ġbau": 6726,
      "ury": 6727,
      "ffung": 6728,
      "Ġpart": 6729,
      "ĠReal": 6730,
      "run": 6731,
      "Ġsah": 6732,
      "sanwalt": 6733,
      "hed": 6734,
      "ved": 6735,
      "ĠProfi": 6736,
      "ĠPerso": 6737,
      "ĠJust": 6738,
      "ricks": 6739,
      "ĠBeho": 6740,
      "dre": 6741,
      ">Â©": 6742,
      "automat": 6743,
      "kommt": 6744,
      "ĠTrend": 6745,
      "Sti": 6746,
      "pr": 6747,
      "tine": 6748,
      "okus": 6749,
      "Dar": 6750,
      "ĠAutos": 6751,
      "ĠLaden": 6752,
      "ĠHir": 6753,
      "arteien": 6754,
      "uel": 6755,
      "henswu": 6756,
      "Ġ180": 6757,
      "geba": 6758,
      "led": 6759,
      "kar": 6760,
      "work": 6761,
      "dach": 6762,
      "Ġ51": 6763,
      "flus": 6764,
      "itor": 6765,
      "Ġ58": 6766,
      "Ġgeschu": 6767,
      "schuh": 6768,
      "ĠNoch": 6769,
      "rischer": 6770,
      "rint": 6771,
      "ĠMig": 6772,
      "ĠRich": 6773,
      "medizin": 6774,
      "ĠZucker": 6775,
      "fohlen": 6776,
      "ĠEben": 6777,
      "Ġtollen": 6778,
      "versam": 6779,
      "SA": 6780,
      "ĠZusch": 6781,
      "Ġbrit": 6782,
      "ĠOrd": 6783,
      "Ġwasser": 6784,
      "Ġblo": 6785,
      "Ġvoller": 6786,
      "ĠTeams": 6787,
      "ĠGebiet": 6788,
      "cesso": 6789,
      "lian": 6790,
      "ndigt": 6791,
      "ĠLesen": 6792,
      "Ġwirken": 6793,
      "deten": 6794,
      "waren": 6795,
      "Ġuntern": 6796,
      "wann": 6797,
      "suchung": 6798,
      "ĠImmer": 6799,
      "tagen": 6800,
      "Ġ1999": 6801,
      "richts": 6802,
      "ĠFal": 6803,
      "ĠTher": 6804,
      "ĠRosen": 6805,
      "Ġweb": 6806,
      "Star": 6807,
      "nings": 6808,
      "Ġinc": 6809,
      "And": 6810,
      "ophie": 6811,
      "kw": 6812,
      "richtet": 6813,
      "Bis": 6814,
      "ĠTipp": 6815,
      "ĠSchmi": 6816,
      "ĠKau": 6817,
      "ĠGroÃŁe": 6818,
      "kas": 6819,
      "eln": 6820,
      "Shirt": 6821,
      "outube": 6822,
      "Ġfalsch": 6823,
      "zier": 6824,
      "Ġloka": 6825,
      "Ġvorbe": 6826,
      "ads": 6827,
      "becken": 6828,
      "ĠFinger": 6829,
      ".[": 6830,
      "count": 6831,
      "ĠCorona": 6832,
      "tab": 6833,
      "zn": 6834,
      "dischen": 6835,
      "Ġmark": 6836,
      "ĠAqu": 6837,
      "ĠAmts": 6838,
      "ftigt": 6839,
      "Ġplay": 6840,
      "ĠGetra": 6841,
      "Ñĥ": 6842,
      "wn": 6843,
      "Ġuni": 6844,
      "alys": 6845,
      "rell": 6846,
      "Ġorigin": 6847,
      "Ġ95": 6848,
      "BO": 6849,
      "ĠPoker": 6850,
      "ries": 6851,
      "born": 6852,
      "willi": 6853,
      "ammt": 6854,
      "Ġvan": 6855,
      "Kateg": 6856,
      "ltigen": 6857,
      "Ġflu": 6858,
      "ĠLad": 6859,
      "meldet": 6860,
      "ĠDor": 6861,
      "ript": 6862,
      "Ġbelie": 6863,
      "Ġruhi": 6864,
      "achtet": 6865,
      "cast": 6866,
      "bers": 6867,
      "auftrag": 6868,
      "ĠFilter": 6869,
      "ĠMilch": 6870,
      "plo": 6871,
      "chtes": 6872,
      "Wind": 6873,
      "ĠFranzo": 6874,
      "ĠKos": 6875,
      "Ġbishe": 6876,
      "Ġfach": 6877,
      "ĠLehrer": 6878,
      "Ind": 6879,
      "Ġjo": 6880,
      "chtest": 6881,
      "any": 6882,
      "ĠIma": 6883,
      "senden": 6884,
      "glas": 6885,
      "ĠBR": 6886,
      "ĠVene": 6887,
      "Team": 6888,
      "Bewert": 6889,
      "rape": 6890,
      "funk": 6891,
      "ĠAnha": 6892,
      "ĠSchlei": 6893,
      "Ġ69": 6894,
      "eitete": 6895,
      "Heute": 6896,
      "Super": 6897,
      "Ġernst": 6898,
      "ords": 6899,
      "deutsch": 6900,
      "Ġoption": 6901,
      "deckung": 6902,
      "ĠSchie": 6903,
      "ref": 6904,
      "-)<": 6905,
      "wertung": 6906,
      "nia": 6907,
      "ĠTom": 6908,
      "nigen": 6909,
      "ymn": 6910,
      "zgl": 6911,
      "rdert": 6912,
      "hias": 6913,
      "dlich": 6914,
      "ĠâĢļ": 6915,
      "index": 6916,
      "ĠUpdate": 6917,
      "Frei": 6918,
      "Person": 6919,
      "Ġblieb": 6920,
      "ĠOpfer": 6921,
      "rierte": 6922,
      "ĠFreie": 6923,
      "ĠAlters": 6924,
      "BER": 6925,
      "ĠCal": 6926,
      "kleid": 6927,
      "ĠZusatz": 6928,
      "%<": 6929,
      "Ġ!<": 6930,
      "vert": 6931,
      "ĠMA": 6932,
      "Ġour": 6933,
      "Ġ)<": 6934,
      "tere": 6935,
      "organis": 6936,
      "ĠMine": 6937,
      "Bus": 6938,
      "dine": 6939,
      "dienung": 6940,
      "nsion": 6941,
      "Ġrus": 6942,
      "ila": 6943,
      "keln": 6944,
      "lerin": 6945,
      "ĠBlue": 6946,
      "werks": 6947,
      "ĠBrust": 6948,
      "ziellen": 6949,
      "Ġbewa": 6950,
      "Ġpdf": 6951,
      "ĠSpre": 6952,
      "ĠFront": 6953,
      "weisung": 6954,
      "},": 6955,
      "ĠRus": 6956,
      "alismus": 6957,
      "ĠMund": 6958,
      "978": 6959,
      "Teil": 6960,
      "fristig": 6961,
      "anze": 6962,
      "dor": 6963,
      "Ġschwei": 6964,
      "Ter": 6965,
      "ĠGreen": 6966,
      "Wi": 6967,
      "krieg": 6968,
      "ĠRezept": 6969,
      "Archi": 6970,
      "LINE": 6971,
      "uri": 6972,
      "gerung": 6973,
      "FC": 6974,
      "tischer": 6975,
      "kademie": 6976,
      "ĠSocial": 6977,
      "mbo": 6978,
      "ĠDatei": 6979,
      "bindung": 6980,
      "pern": 6981,
      "uche": 6982,
      "umme": 6983,
      "ftigen": 6984,
      "Ġap": 6985,
      "fred": 6986,
      "Ġ140": 6987,
      "ktes": 6988,
      "ĠHart": 6989,
      ":\\": 6990,
      "ĠVersch": 6991,
      "ĠLast": 6992,
      "riend": 6993,
      "views": 6994,
      "Ġglo": 6995,
      "ĠErkla": 6996,
      "zension": 6997,
      "Ġvoraus": 6998,
      "Ġ53": 6999,
      "ronen": 7000,
      "ĠKenn": 7001,
      "Buch": 7002,
      "ichts": 7003,
      "Ġerziel": 7004,
      "ature": 7005,
      "aul": 7006,
      "via": 7007,
      "AV": 7008,
      "ĠBeweg": 7009,
      "ĠLeiter": 7010,
      "Advisor": 7011,
      "cy": 7012,
      "Ġ800": 7013,
      "eng": 7014,
      "gangs": 7015,
      "Ġhas": 7016,
      "ĠStraf": 7017,
      "max": 7018,
      "Ben": 7019,
      "Ġ-<": 7020,
      "ĠSchwar": 7021,
      "Rad": 7022,
      "gebnis": 7023,
      "ĠDDR": 7024,
      "ĠHen": 7025,
      "ãģ": 7026,
      "2004": 7027,
      "Nie": 7028,
      "Ġeure": 7029,
      "ĠGei": 7030,
      "ndeten": 7031,
      "ĠRai": 7032,
      "Ġheim": 7033,
      "pool": 7034,
      "ĠSat": 7035,
      "Hei": 7036,
      "ĠAmt": 7037,
      "tex": 7038,
      "ĠNein": 7039,
      "tert": 7040,
      "Ġsehe": 7041,
      "600": 7042,
      "ĠSprach": 7043,
      "deu": 7044,
      "ĠInne": 7045,
      "musik": 7046,
      "henden": 7047,
      "Ġbeton": 7048,
      "Ġ57": 7049,
      "holung": 7050,
      "Ġvery": 7051,
      "</": 7052,
      "ĠCDU": 7053,
      "ĠProvi": 7054,
      "fur": 7055,
      "Ġwest": 7056,
      "Ġrezept": 7057,
      "funden": 7058,
      "ĠRegeln": 7059,
      "ĠJungen": 7060,
      "pul": 7061,
      "andern": 7062,
      "ĠOpti": 7063,
      "hrliche": 7064,
      "Pre": 7065,
      "Ġpla": 7066,
      "Ġauswa": 7067,
      "regel": 7068,
      "-<": 7069,
      "cha": 7070,
      "ĠStep": 7071,
      "griffe": 7072,
      "Ġdiskut": 7073,
      "Ġfl": 7074,
      "Pf": 7075,
      "ĠDaniel": 7076,
      "chtet": 7077,
      "tum": 7078,
      "ĠAbsatz": 7079,
      "aren": 7080,
      "arkt": 7081,
      "Ġkommun": 7082,
      "twick": 7083,
      "ĠTrip": 7084,
      "Ġnet": 7085,
      "Tags": 7086,
      "berwach": 7087,
      "ÃŁeren": 7088,
      "brechen": 7089,
      "ĠPaar": 7090,
      "farben": 7091,
      "ĠIV": 7092,
      "ĠRollen": 7093,
      "aube": 7094,
      "ĠGrill": 7095,
      "viduell": 7096,
      "ĠmuÃŁ": 7097,
      "ĠGerade": 7098,
      "Ġideal": 7099,
      "ĠNeues": 7100,
      "wickler": 7101,
      "sprung": 7102,
      "ĠMP": 7103,
      "Dann": 7104,
      "ckge": 7105,
      "FuÃŁ": 7106,
      "zieht": 7107,
      "ĠDarm": 7108,
      "Ġ\\": 7109,
      "icket": 7110,
      "Ġ~": 7111,
      "Ġeuro": 7112,
      "Ze": 7113,
      "Ġvar": 7114,
      "Ġinnen": 7115,
      "ckte": 7116,
      "rut": 7117,
      "ĠCle": 7118,
      "krai": 7119,
      "Ġmobile": 7120,
      "loses": 7121,
      "ĠRand": 7122,
      "DER": 7123,
      "tim": 7124,
      "ĠCafe": 7125,
      "ĠAnteil": 7126,
      "wechs": 7127,
      "vertra": 7128,
      "urlaub": 7129,
      "800": 7130,
      "Modell": 7131,
      "ĠGeist": 7132,
      "ĠBedarf": 7133,
      "Mag": 7134,
      "Fre": 7135,
      "Farbe": 7136,
      "ĠTeilen": 7137,
      "ĠWerte": 7138,
      "tingen": 7139,
      "chseln": 7140,
      "ĠApart": 7141,
      "ĠEreig": 7142,
      "kultur": 7143,
      "Ġnation": 7144,
      "pass": 7145,
      "Damen": 7146,
      "ĠRang": 7147,
      "kal": 7148,
      "spruchs": 7149,
      "ĠArchiv": 7150,
      "icks": 7151,
      "ctor": 7152,
      "Ġschwa": 7153,
      "Ġdien": 7154,
      "Lei": 7155,
      "ĠJul": 7156,
      "ãĥ": 7157,
      "sparen": 7158,
      "Ġfanden": 7159,
      "athe": 7160,
      "ssige": 7161,
      "heber": 7162,
      "Ġiden": 7163,
      "ĠGela": 7164,
      "itzt": 7165,
      "Alles": 7166,
      "ĠSun": 7167,
      "âĢº": 7168,
      "ssi": 7169,
      "ĠRoll": 7170,
      "pft": 7171,
      "ĠMobile": 7172,
      "ĠEurope": 7173,
      "sprachi": 7174,
      "Ġvis": 7175,
      "\")": 7176,
      "bast": 7177,
      "ĠOffice": 7178,
      "ĠLap": 7179,
      "Ġ66": 7180,
      "ces": 7181,
      "Ġneun": 7182,
      "bewe": 7183,
      "greifen": 7184,
      "wenn": 7185,
      "ĠZiele": 7186,
      "ĠKarls": 7187,
      "ĠVan": 7188,
      "ĠAS": 7189,
      "Beim": 7190,
      "kabel": 7191,
      "&#": 7192,
      "Ġ1990": 7193,
      "Ġdarge": 7194,
      "rennt": 7195,
      "Met": 7196,
      "Sicher": 7197,
      "Ġdefin": 7198,
      "tlichen": 7199,
      "wege": 7200,
      "izz": 7201,
      "ĠEt": 7202,
      "ugh": 7203,
      "cc": 7204,
      "legte": 7205,
      "search": 7206,
      "nscht": 7207,
      "paratur": 7208,
      "Fol": 7209,
      "rel": 7210,
      "ween": 7211,
      "ĠWare": 7212,
      "ĠBig": 7213,
      "iers": 7214,
      "vide": 7215,
      "vail": 7216,
      "nthe": 7217,
      "bertra": 7218,
      "Ġform": 7219,
      "Ġteuer": 7220,
      "seher": 7221,
      "ĠOster": 7222,
      "kasten": 7223,
      "heimer": 7224,
      "dten": 7225,
      "kinder": 7226,
      "lichung": 7227,
      "true": 7228,
      "ĠVolk": 7229,
      "ĠAnna": 7230,
      "ĠHals": 7231,
      "ĠKein": 7232,
      "ĠGrand": 7233,
      "rfe": 7234,
      "Ġlee": 7235,
      "Ġloc": 7236,
      "Bahn": 7237,
      "agen": 7238,
      "ford": 7239,
      "Design": 7240,
      "ĠSar": 7241,
      "staat": 7242,
      "schulen": 7243,
      "oney": 7244,
      "ĠAnaly": 7245,
      "Versand": 7246,
      "nitten": 7247,
      "hinder": 7248,
      "ĠSchalt": 7249,
      "daf": 7250,
      "ternen": 7251,
      "Ġmg": 7252,
      "fertig": 7253,
      "gie": 7254,
      "reises": 7255,
      "ĠBee": 7256,
      "nnis": 7257,
      "zone": 7258,
      "ĠWall": 7259,
      "ĠWeil": 7260,
      "!!!<": 7261,
      "ĠSky": 7262,
      "ĠStudio": 7263,
      "Ġholz": 7264,
      "rliche": 7265,
      "jekten": 7266,
      "Ġkap": 7267,
      "sychi": 7268,
      "ĠDru": 7269,
      "ĠDollar": 7270,
      "Hol": 7271,
      "ĠReifen": 7272,
      "fertigt": 7273,
      "ĠNorden": 7274,
      "Ġgem": 7275,
      "ĠTim": 7276,
      "MI": 7277,
      "tial": 7278,
      "ĠShe": 7279,
      "ISBN": 7280,
      "rkei": 7281,
      "ĠBud": 7282,
      "ĠBay": 7283,
      "Eng": 7284,
      "Ġgele": 7285,
      "ĠDanach": 7286,
      "unger": 7287,
      "ĠLern": 7288,
      "pum": 7289,
      "ĠTal": 7290,
      "rahmen": 7291,
      "rman": 7292,
      "wood": 7293,
      "app": 7294,
      "Ġdient": 7295,
      "ĠKit": 7296,
      "ĠEinen": 7297,
      "Ġnachge": 7298,
      "Hz": 7299,
      "ĠTrau": 7300,
      "uhr": 7301,
      "mtliche": 7302,
      "lichten": 7303,
      "ĠMay": 7304,
      "ĠLuc": 7305,
      "Ġclass": 7306,
      "Ġgewi": 7307,
      "ĠEN": 7308,
      "kus": 7309,
      "Sel": 7310,
      "nnung": 7311,
      "Neben": 7312,
      "ĠRen": 7313,
      "ĠBlock": 7314,
      "Do": 7315,
      "diger": 7316,
      "150": 7317,
      "ĠErste": 7318,
      "ffa": 7319,
      "ason": 7320,
      "Ġ1998": 7321,
      "Kat": 7322,
      "ĠKing": 7323,
      "Film": 7324,
      "Ġoptim": 7325,
      "onenten": 7326,
      "strom": 7327,
      "trai": 7328,
      "Bel": 7329,
      "version": 7330,
      "besch": 7331,
      "auben": 7332,
      "Ġblu": 7333,
      "ĠJac": 7334,
      "anen": 7335,
      "Ġcre": 7336,
      "ost": 7337,
      "ĠVom": 7338,
      "ucks": 7339,
      "add": 7340,
      "ĠLight": 7341,
      "Ober": 7342,
      "ĠBonn": 7343,
      "ĠBreite": 7344,
      "Komp": 7345,
      "gesetzt": 7346,
      "ĠChamp": 7347,
      "kord": 7348,
      "ĠPoly": 7349,
      "irst": 7350,
      "olles": 7351,
      "Ġdauert": 7352,
      "Ġlebt": 7353,
      "genden": 7354,
      "Ġausgeb": 7355,
      "Ġfein": 7356,
      "wp": 7357,
      "Ġdaraus": 7358,
      "Ġkurzen": 7359,
      "ĠApps": 7360,
      "ieg": 7361,
      "ralen": 7362,
      "ĠErnst": 7363,
      ">âĢĵ": 7364,
      "schutze": 7365,
      "maÃŁen": 7366,
      "listen": 7367,
      "TR": 7368,
      "ĠGab": 7369,
      "brit": 7370,
      "tina": 7371,
      "ĠFett": 7372,
      "Ġwand": 7373,
      "Ġbetei": 7374,
      "ĠStamm": 7375,
      "HD": 7376,
      "merican": 7377,
      "cre": 7378,
      "ĠEinige": 7379,
      "auty": 7380,
      "grad": 7381,
      "bek": 7382,
      "ging": 7383,
      "rein": 7384,
      "abend": 7385,
      "Ġladen": 7386,
      "ĠSur": 7387,
      "Ġruhig": 7388,
      "ĠSub": 7389,
      "gels": 7390,
      "Christ": 7391,
      "ĠEnerg": 7392,
      "seitig": 7393,
      "Ġfrauen": 7394,
      "ĠGewe": 7395,
      "ĠOhr": 7396,
      "MP": 7397,
      "ĠWh": 7398,
      "Mai": 7399,
      "bares": 7400,
      "Ġlieb": 7401,
      "werde": 7402,
      "ĠPolen": 7403,
      "ĠLeicht": 7404,
      "alte": 7405,
      "CC": 7406,
      "fes": 7407,
      "rtel": 7408,
      "achin": 7409,
      "Ġvs": 7410,
      "ĠGroup": 7411,
      "Imp": 7412,
      "Ġfalls": 7413,
      "ando": 7414,
      "Ġmoment": 7415,
      "Pal": 7416,
      "ĠDirekt": 7417,
      "rasse": 7418,
      "ralien": 7419,
      "ĠVorder": 7420,
      "nem": 7421,
      "ĠIt": 7422,
      "ĠFalls": 7423,
      "\":{\"": 7424,
      "ĠCam": 7425,
      "ĠBanken": 7426,
      "timent": 7427,
      "ĠDetail": 7428,
      "usste": 7429,
      "verkauf": 7430,
      "ĠIndi": 7431,
      "âĢĶ": 7432,
      "Ġhaupt": 7433,
      "ĠPR": 7434,
      "ui": 7435,
      "ĠBan": 7436,
      "heben": 7437,
      "itc": 7438,
      "Ġ$*": 7439,
      "ĠBund": 7440,
      "rient": 7441,
      "ĠKonkur": 7442,
      "Zus": 7443,
      "Kontakt": 7444,
      "fic": 7445,
      "Ġcode": 7446,
      "idee": 7447,
      "gno": 7448,
      "kri": 7449,
      "ĠBauern": 7450,
      "Ġdiene": 7451,
      "IER": 7452,
      "Kre": 7453,
      "fahrene": 7454,
      "ĠAU": 7455,
      "Ġmieten": 7456,
      "ĠStei": 7457,
      "ĠGR": 7458,
      "Ġmache": 7459,
      "ummi": 7460,
      "thor": 7461,
      "uxe": 7462,
      "Fo": 7463,
      "ordnet": 7464,
      "Ġechte": 7465,
      "Ġtritt": 7466,
      "Ġsenden": 7467,
      "folgt": 7468,
      "Ġengag": 7469,
      "ĠLehre": 7470,
      "vari": 7471,
      "ppy": 7472,
      "ĠGri": 7473,
      "Ġrau": 7474,
      "Ġhome": 7475,
      "ĠDusche": 7476,
      "ruckt": 7477,
      "Warum": 7478,
      "Ġgete": 7479,
      "lexe": 7480,
      "ĠLeague": 7481,
      "ather": 7482,
      "Ġnormal": 7483,
      "ĠLiga": 7484,
      "ĠRoh": 7485,
      "rierung": 7486,
      "Ġwh": 7487,
      "Nun": 7488,
      "Ġzuku": 7489,
      "ĠVilla": 7490,
      "Ġvermut": 7491,
      "Ġsho": 7492,
      "vern": 7493,
      "ĠFas": 7494,
      "El": 7495,
      "Ġgame": 7496,
      "brauchs": 7497,
      "Comp": 7498,
      "cho": 7499,
      "felder": 7500,
      "ĠKeller": 7501,
      "ĠFan": 7502,
      "ĠCheck": 7503,
      "ĠDrit": 7504,
      "EW": 7505,
      "ĠGegner": 7506,
      "dpa": 7507,
      "krain": 7508,
      "news": 7509,
      "Ġrec": 7510,
      "ĠTief": 7511,
      "setzes": 7512,
      "ĠHessen": 7513,
      "pat": 7514,
      "./": 7515,
      "stalten": 7516,
      "azita": 7517,
      "ĠBauc": 7518,
      "ĠAuge": 7519,
      "aching": 7520,
      "ĠParla": 7521,
      "ligt": 7522,
      "ohne": 7523,
      "dl": 7524,
      "IF": 7525,
      "Port": 7526,
      "freien": 7527,
      "Ġwid": 7528,
      "Ġhell": 7529,
      "Ġgehe": 7530,
      "BB": 7531,
      "Ġauspro": 7532,
      "Ġauto": 7533,
      "Dr": 7534,
      ".),": 7535,
      "Ġart": 7536,
      "nstigen": 7537,
      "ĠFA": 7538,
      "Video": 7539,
      "':": 7540,
      "Geboren": 7541,
      "isa": 7542,
      "Ġstars": 7543,
      "HA": 7544,
      "ĠChem": 7545,
      "rsg": 7546,
      "aber": 7547,
      "Autor": 7548,
      "ĠJeans": 7549,
      "Ġdunk": 7550,
      "stab": 7551,
      "oms": 7552,
      "UP": 7553,
      "jenigen": 7554,
      "spreis": 7555,
      "ĠZuge": 7556,
      "Ġstaat": 7557,
      "ĠLy": 7558,
      "ĠHab": 7559,
      "home": 7560,
      "Ġfrisch": 7561,
      "ĠPhilos": 7562,
      "ĠNeuer": 7563,
      "ĠThu": 7564,
      "bogen": 7565,
      "my": 7566,
      "Gel": 7567,
      "TA": 7568,
      "nien": 7569,
      "Ġeins": 7570,
      "Ġbad": 7571,
      "drucken": 7572,
      "Ġmonat": 7573,
      "Bundes": 7574,
      "edback": 7575,
      "ĠResort": 7576,
      "ndiger": 7577,
      "EZ": 7578,
      "ĠSind": 7579,
      "Ġ160": 7580,
      "ĠVerg": 7581,
      "hrenden": 7582,
      "nur": 7583,
      "ĠPerspe": 7584,
      "ĠJava": 7585,
      "ĠEck": 7586,
      "bleme": 7587,
      "cat": 7588,
      "Ġback": 7589,
      "Ġgesell": 7590,
      "side": 7591,
      "suchte": 7592,
      "ĠMut": 7593,
      "Ġ68": 7594,
      "ĠWagen": 7595,
      "ĠRett": 7596,
      "ĠAD": 7597,
      "Ġoff": 7598,
      "Ġfla": 7599,
      "Ġwillst": 7600,
      "Ġakzept": 7601,
      "apter": 7602,
      "ĠFund": 7603,
      "ĠSchuh": 7604,
      "ĠauÃŁen": 7605,
      "ĠWaffen": 7606,
      "ĠPrem": 7607,
      "anische": 7608,
      "ĠHeiz": 7609,
      "gien": 7610,
      "ĠFormen": 7611,
      "lauc": 7612,
      "wein": 7613,
      "Leist": 7614,
      "packung": 7615,
      "ĠStreit": 7616,
      "tok": 7617,
      "ĠVielen": 7618,
      "verbind": 7619,
      "Ġfur": 7620,
      "ĠKlinik": 7621,
      "hoben": 7622,
      "Kar": 7623,
      "Gar": 7624,
      "delle": 7625,
      "Partner": 7626,
      "ĠIsra": 7627,
      "ftet": 7628,
      "Ġque": 7629,
      "Frank": 7630,
      "ĠTOP": 7631,
      "auto": 7632,
      "Tro": 7633,
      "Ferien": 7634,
      "artige": 7635,
      "cause": 7636,
      "rep": 7637,
      "Ġdanke": 7638,
      "cer": 7639,
      "ĠPaket": 7640,
      "ĠAktiv": 7641,
      "Ġdunkel": 7642,
      "willig": 7643,
      "Ihre": 7644,
      "IEL": 7645,
      "Ġsub": 7646,
      "ĠLetzte": 7647,
      "gefa": 7648,
      "ĠGesam": 7649,
      "marke": 7650,
      "EX": 7651,
      "Ġaufs": 7652,
      "Ġnennen": 7653,
      "Log": 7654,
      "Quelle": 7655,
      "lande": 7656,
      "120": 7657,
      "stedt": 7658,
      "flo": 7659,
      "OG": 7660,
      "imi": 7661,
      "Ñı": 7662,
      "Ġshop": 7663,
      "ichert": 7664,
      "Ġans": 7665,
      "sprech": 7666,
      "Ġ96": 7667,
      "EST": 7668,
      "ssource": 7669,
      "ĠEnter": 7670,
      "ĠVin": 7671,
      "achine": 7672,
      "kunst": 7673,
      "Bes": 7674,
      "Ġdata": 7675,
      "Ġhoffen": 7676,
      "Ġabha": 7677,
      "wander": 7678,
      "ĠWhite": 7679,
      "ĠMetal": 7680,
      "ĠRenn": 7681,
      "ĠBesten": 7682,
      "Tel": 7683,
      "Famil": 7684,
      "ĠHerrn": 7685,
      "Ġ130": 7686,
      "Version": 7687,
      "legant": 7688,
      "ĠAmb": 7689,
      "annien": 7690,
      "ĠSpar": 7691,
      "rillen": 7692,
      "ĠHP": 7693,
      "gert": 7694,
      "Ġinfo": 7695,
      "fessor": 7696,
      "twortet": 7697,
      "Ġauthor": 7698,
      "ĠMilita": 7699,
      "Ġtrain": 7700,
      "gyp": 7701,
      "ĠSpi": 7702,
      "Ġriesi": 7703,
      "rechtig": 7704,
      "tike": 7705,
      "ĠPferde": 7706,
      "Ġsiehe": 7707,
      "hofen": 7708,
      "titel": 7709,
      "iefen": 7710,
      "Ġag": 7711,
      "ranche": 7712,
      "ĠAspe": 7713,
      "Link": 7714,
      "ĠKey": 7715,
      "ĠRede": 7716,
      "Ġdienen": 7717,
      "Ġhoher": 7718,
      "Ġvieles": 7719,
      "Inter": 7720,
      "ĠGeha": 7721,
      "Ġplane": 7722,
      "ĠModern": 7723,
      "Ġmitge": 7724,
      "stufe": 7725,
      "miet": 7726,
      "Liebe": 7727,
      "}}": 7728,
      "sert": 7729,
      "bila": 7730,
      "Ġmanche": 7731,
      "Ġsitzen": 7732,
      "okument": 7733,
      "sberg": 7734,
      "fru": 7735,
      "Ġinspir": 7736,
      "rator": 7737,
      "ĠSolar": 7738,
      "ĠHafen": 7739,
      "ĠBeam": 7740,
      "ĠDeko": 7741,
      "nsten": 7742,
      "ĠBoot": 7743,
      "Ġeindeu": 7744,
      "habt": 7745,
      "Fot": 7746,
      "ĠDIN": 7747,
      "ĠUltra": 7748,
      "ĠLG": 7749,
      "Ġdahi": 7750,
      "Ġ....": 7751,
      "uelle": 7752,
      "etooth": 7753,
      "Ġgre": 7754,
      "hain": 7755,
      "andi": 7756,
      "iveau": 7757,
      "ĠStimme": 7758,
      "Ġbundes": 7759,
      "cor": 7760,
      "sozi": 7761,
      "Ġkorre": 7762,
      "EAN": 7763,
      "Ġzeigte": 7764,
      "OB": 7765,
      "ĠZusa": 7766,
      "div": 7767,
      "ument": 7768,
      "unen": 7769,
      "ĠON": 7770,
      "Vi": 7771,
      "lampe": 7772,
      "PA": 7773,
      "lix": 7774,
      "ĠVermo": 7775,
      "ÌĬ": 7776,
      "ĠErmitt": 7777,
      "Ġfue": 7778,
      "bauer": 7779,
      "Preise": 7780,
      "Kaufen": 7781,
      "Â¬": 7782,
      "kin": 7783,
      "ieÃŁ": 7784,
      "deres": 7785,
      "ĠMale": 7786,
      "rufe": 7787,
      "ĠWesten": 7788,
      "Ġhinein": 7789,
      "Doch": 7790,
      "Ġbut": 7791,
      "Wohn": 7792,
      "SI": 7793,
      "Gra": 7794,
      "ĠTrum": 7795,
      "irr": 7796,
      "Ġbemer": 7797,
      "ĠVerla": 7798,
      "Ġwarm": 7799,
      "ufi": 7800,
      "Ġstre": 7801,
      "ART": 7802,
      "ĠKonfli": 7803,
      "Ġ62": 7804,
      "schehen": 7805,
      "dende": 7806,
      "hirts": 7807,
      "Ġrelev": 7808,
      "ngel": 7809,
      "wiegend": 7810,
      "ĠSus": 7811,
      "ĠWiener": 7812,
      "annter": 7813,
      "werten": 7814,
      "Ġ101": 7815,
      "rats": 7816,
      "Ġtrin": 7817,
      "Ġfrag": 7818,
      "ĠBarb": 7819,
      "taschen": 7820,
      "Ð²": 7821,
      "Elekt": 7822,
      "ocommun": 7823,
      "zed": 7824,
      "lauch": 7825,
      "Ġfind": 7826,
      "ĠStud": 7827,
      "hread": 7828,
      "sorge": 7829,
      "chene": 7830,
      "Bas": 7831,
      "fekt": 7832,
      "ĠGratis": 7833,
      "barung": 7834,
      "Ġhalb": 7835,
      "ĠWorte": 7836,
      "ĠPlane": 7837,
      "ĠBisch": 7838,
      "ade": 7839,
      "Ġdamen": 7840,
      "ĠHouse": 7841,
      "Ġpi": 7842,
      "Ġsprach": 7843,
      "bsta": 7844,
      "Ġ63": 7845,
      "ĠDunkel": 7846,
      "adi": 7847,
      "ĠCount": 7848,
      "dienste": 7849,
      "LG": 7850,
      "ĠOrgan": 7851,
      "omme": 7852,
      "''": 7853,
      "ĠExtra": 7854,
      "ĠFeder": 7855,
      "Info": 7856,
      "ĠSwe": 7857,
      "web": 7858,
      "Ġvolle": 7859,
      "ichtigt": 7860,
      "ĠZw": 7861,
      "Spiele": 7862,
      "EE": 7863,
      "Ġbehau": 7864,
      "ĠFalle": 7865,
      "ockey": 7866,
      "Test": 7867,
      "lefonn": 7868,
      "Ġfreien": 7869,
      "ĠXL": 7870,
      "âĢ²": 7871,
      "ĠForder": 7872,
      "rfnisse": 7873,
      "ĠBearb": 7874,
      "legten": 7875,
      "ologien": 7876,
      "ierer": 7877,
      "hende": 7878,
      "rufs": 7879,
      "ĠUmsta": 7880,
      "ĠHaft": 7881,
      "ĠSig": 7882,
      "ĠSoft": 7883,
      "Hu": 7884,
      "ers": 7885,
      "itch": 7886,
      "Ort": 7887,
      "Ġ72": 7888,
      "vertre": 7889,
      "ĠSong": 7890,
      "ordin": 7891,
      ">âĤ¬": 7892,
      "ĠFeier": 7893,
      "isst": 7894,
      "heriger": 7895,
      "Ġfreue": 7896,
      "Ġbilli": 7897,
      "ae": 7898,
      "Ġobe": 7899,
      "Ġabend": 7900,
      "ĠCl": 7901,
      "ĠAutomo": 7902,
      "ville": 7903,
      "muster": 7904,
      "lot": 7905,
      "bastian": 7906,
      "ĠRose": 7907,
      "TL": 7908,
      "Ġdekor": 7909,
      "Ġmobi": 7910,
      "ĠInspir": 7911,
      "dige": 7912,
      "Si": 7913,
      "ĠTablet": 7914,
      "Ġgebaut": 7915,
      "ole": 7916,
      "Ġstimmt": 7917,
      "tome": 7918,
      "ĠGriff": 7919,
      "btisch": 7920,
      "dex": 7921,
      "ĠAnwalt": 7922,
      "konto": 7923,
      "ĠOtto": 7924,
      "macher": 7925,
      "Ġzersto": 7926,
      "ĠChef": 7927,
      "ĠMonats": 7928,
      "letzung": 7929,
      "keits": 7930,
      "ĠRol": 7931,
      "kredit": 7932,
      "ĠMarkus": 7933,
      "ĠVertei": 7934,
      "hling": 7935,
      "Ġ77": 7936,
      "Ġfile": 7937,
      "zut": 7938,
      "haltene": 7939,
      "hologie": 7940,
      "Ġgewann": 7941,
      "ÃŁige": 7942,
      "ario": 7943,
      "ĠNik": 7944,
      "ktop": 7945,
      "ĠLee": 7946,
      "ymnasi": 7947,
      "spla": 7948,
      "Ġgepf": 7949,
      "pdf": 7950,
      "^^": 7951,
      "Ġbreit": 7952,
      "emp": 7953,
      "Ġdran": 7954,
      "!!!!": 7955,
      "ypen": 7956,
      "Ġeingeb": 7957,
      "gf": 7958,
      "][": 7959,
      "SH": 7960,
      "ĠMathe": 7961,
      "ĠRennen": 7962,
      "ney": 7963,
      "Ġholen": 7964,
      "ĠMenu": 7965,
      "Ġtitle": 7966,
      "Untern": 7967,
      "manden": 7968,
      "fro": 7969,
      "gespra": 7970,
      "####": 7971,
      "handeln": 7972,
      "Ġrunter": 7973,
      "ĠKirc": 7974,
      "Ci": 7975,
      "ĠNavig": 7976,
      "Ġschwie": 7977,
      "ĠRap": 7978,
      "ĠFokus": 7979,
      "ĠLos": 7980,
      "Ġplatz": 7981,
      "Tu": 7982,
      "ĠCloud": 7983,
      "ĠMedi": 7984,
      "nstiger": 7985,
      "Ġdescri": 7986,
      "atures": 7987,
      "ĠAC": 7988,
      "Ġgetan": 7989,
      "nahm": 7990,
      "ĠObjekt": 7991,
      "ulen": 7992,
      "rive": 7993,
      "ĠModer": 7994,
      "ĠðŁĻ": 7995,
      "zwe": 7996,
      "Ġnix": 7997,
      "Ġgla": 7998,
      "MB": 7999,
      "Ġsee": 8000,
      "Viele": 8001,
      "alue": 8002,
      "Ġ89": 8003,
      "001": 8004,
      "2000": 8005,
      "ĠAnfa": 8006,
      "ĠBillig": 8007,
      "ĠKriegs": 8008,
      "ĠFavor": 8009,
      "kasse": 8010,
      "ĠDiesel": 8011,
      "orne": 8012,
      "Id": 8013,
      "mina": 8014,
      "onym": 8015,
      "ĠDeluxe": 8016,
      "hriger": 8017,
      "ppchen": 8018,
      "Ġnahezu": 8019,
      "Fru": 8020,
      "ĠStell": 8021,
      "vens": 8022,
      "ĠKult": 8023,
      "ĠStress": 8024,
      "reift": 8025,
      "nb": 8026,
      "nor": 8027,
      "').": 8028,
      "Ġlegt": 8029,
      "Ġabout": 8030,
      "Ġshort": 8031,
      "ĠWohnen": 8032,
      "ĠBauch": 8033,
      "Ġ1997": 8034,
      "ĠWerke": 8035,
      "ĠStad": 8036,
      "ĠKostu": 8037,
      "Ġkauf": 8038,
      "portal": 8039,
      "papier": 8040,
      "ĠAction": 8041,
      "ĠLine": 8042,
      "ĠSchok": 8043,
      "acker": 8044,
      "NA": 8045,
      "Vol": 8046,
      "SK": 8047,
      "essen": 8048,
      "Eigen": 8049,
      "Ġ79": 8050,
      "icle": 8051,
      "ĠUK": 8052,
      "Ġverur": 8053,
      "schiff": 8054,
      "bex": 8055,
      "bag": 8056,
      "Ġ88": 8057,
      "Ġ67": 8058,
      "ĠOsten": 8059,
      "alth": 8060,
      "late": 8061,
      "kammer": 8062,
      "Wor": 8063,
      "ĠBruder": 8064,
      "Ġzzgl": 8065,
      "mate": 8066,
      "Ġtime": 8067,
      "ĠStreet": 8068,
      "Sy": 8069,
      "Ġ:)": 8070,
      "hjahr": 8071,
      "Ġallgem": 8072,
      "Ġvirtu": 8073,
      "house": 8074,
      "region": 8075,
      "latte": 8076,
      "lem": 8077,
      "tegien": 8078,
      "send": 8079,
      "tinu": 8080,
      "oman": 8081,
      "::": 8082,
      "strasse": 8083,
      "ĠIkea": 8084,
      "artet": 8085,
      "Ġrum": 8086,
      "()": 8087,
      "uis": 8088,
      "ORT": 8089,
      "feln": 8090,
      "Ġ:)<": 8091,
      "Ġgelang": 8092,
      "ny": 8093,
      "sites": 8094,
      "Ġvari": 8095,
      "2003": 8096,
      "ĠBelast": 8097,
      "mil": 8098,
      "rastru": 8099,
      "Kann": 8100,
      "upload": 8101,
      "ĠAndere": 8102,
      "ĠTexte": 8103,
      "Ġblack": 8104,
      "rix": 8105,
      "lice": 8106,
      "ĠER": 8107,
      "ĠHoll": 8108,
      "></": 8109,
      "Ġreduz": 8110,
      "brand": 8111,
      "ltige": 8112,
      "ssicher": 8113,
      "pper": 8114,
      "image": 8115,
      "Ġmeines": 8116,
      "farb": 8117,
      "Welche": 8118,
      "ÃŁes": 8119,
      "siehe": 8120,
      "artig": 8121,
      "reten": 8122,
      "schiede": 8123,
      "linder": 8124,
      "ĠKuchen": 8125,
      "ãĢ": 8126,
      "ystemen": 8127,
      "ĠBege": 8128,
      "ĠGang": 8129,
      "start": 8130,
      "Ġtreten": 8131,
      "Ġmini": 8132,
      "Ġschlaf": 8133,
      "kirche": 8134,
      "ĠQuart": 8135,
      "untain": 8136,
      "ĠPrime": 8137,
      "armon": 8138,
      "itzer": 8139,
      "uk": 8140,
      "ĠKer": 8141,
      "rkla": 8142,
      "ĠLaser": 8143,
      "Ġang": 8144,
      "Ġbeit": 8145,
      "VER": 8146,
      "alliert": 8147,
      "ĠTouch": 8148,
      "Ġprivat": 8149,
      "ĠObst": 8150,
      "irche": 8151,
      "car": 8152,
      "ĠEcke": 8153,
      "ĠIll": 8154,
      "baden": 8155,
      "bir": 8156,
      "schwe": 8157,
      "ĠFeb": 8158,
      "riebene": 8159,
      "ragend": 8160,
      "ocht": 8161,
      "qui": 8162,
      "steil": 8163,
      "ĠHist": 8164,
      "IO": 8165,
      "ischem": 8166,
      "Ġerstes": 8167,
      "ĠNutzen": 8168,
      "Ġ125": 8169,
      "Ġfit": 8170,
      "ĠAnne": 8171,
      "umfang": 8172,
      "kula": 8173,
      "ĠAuff": 8174,
      "fend": 8175,
      "Ġ1996": 8176,
      "Bad": 8177,
      "renzt": 8178,
      "ESS": 8179,
      "hebung": 8180,
      "Ġfuer": 8181,
      "ĠSerien": 8182,
      "ĠNRW": 8183,
      "ĠHaare": 8184,
      "ridge": 8185,
      "gsburg": 8186,
      "Schlag": 8187,
      "Ñĭ": 8188,
      "wirkung": 8189,
      "ĠApr": 8190,
      "haltet": 8191,
      "Details": 8192,
      "ASIN": 8193,
      "igns": 8194,
      "ĠDipl": 8195,
      "Ġkurzer": 8196,
      "Reise": 8197,
      "BC": 8198,
      "ĠCy": 8199,
      "Ġsur": 8200,
      "ehme": 8201,
      "Out": 8202,
      "sieht": 8203,
      "ĠDez": 8204,
      "mis": 8205,
      "ELL": 8206,
      "Ġzun": 8207,
      "ump": 8208,
      "ĠmaÃŁ": 8209,
      "ĠInc": 8210,
      "ĠDI": 8211,
      "Ġwind": 8212,
      "iction": 8213,
      "gau": 8214,
      "ĠRohr": 8215,
      "Ġgeziel": 8216,
      "dis": 8217,
      "ĠUmfang": 8218,
      "nigs": 8219,
      "fz": 8220,
      "250": 8221,
      "ĠRef": 8222,
      "ungsmo": 8223,
      "AF": 8224,
      "oppelt": 8225,
      "Ġ1995": 8226,
      "izza": 8227,
      "Ġhierzu": 8228,
      "mers": 8229,
      "inform": 8230,
      "ĠGramm": 8231,
      "Forum": 8232,
      "Musik": 8233,
      "XX": 8234,
      "Ġ[\"": 8235,
      "usern": 8236,
      "stalter": 8237,
      ">âĨĳ": 8238,
      "Ġrest": 8239,
      "ĠLeiden": 8240,
      "lischer": 8241,
      "/><": 8242,
      "Ġfrem": 8243,
      "fried": 8244,
      "ngere": 8245,
      "ĠBord": 8246,
      "ĠReihen": 8247,
      "Hil": 8248,
      "ĠPin": 8249,
      "Gemein": 8250,
      "Ġungefa": 8251,
      "gens": 8252,
      "worfen": 8253,
      "Netz": 8254,
      "ĠLiefe": 8255,
      "ohner": 8256,
      "Nein": 8257,
      "preise": 8258,
      "ĠErb": 8259,
      "ĠSchm": 8260,
      "Ġed": 8261,
      "beth": 8262,
      "oner": 8263,
      "Ġlebens": 8264,
      "jack": 8265,
      "ÑĮ": 8266,
      "format": 8267,
      "OD": 8268,
      "Ġgold": 8269,
      "rdern": 8270,
      "pret": 8271,
      "dule": 8272,
      "ĠMusic": 8273,
      "Posted": 8274,
      "ĠBein": 8275,
      "ĠInt": 8276,
      "ucken": 8277,
      "arina": 8278,
      "ĠTU": 8279,
      "behand": 8280,
      "finale": 8281,
      "ĠEntsp": 8282,
      "rver": 8283,
      "uÃŁerst": 8284,
      "quenz": 8285,
      "Ġchrist": 8286,
      "richter": 8287,
      "Ġ98": 8288,
      "Ġ76": 8289,
      "museum": 8290,
      "rypt": 8291,
      "ĠStd": 8292,
      "ĠSchal": 8293,
      "planung": 8294,
      "leswig": 8295,
      "Zwei": 8296,
      "Ġorient": 8297,
      "betes": 8298,
      "Ġsy": 8299,
      "ĠLok": 8300,
      "fenster": 8301,
      "ĠFormat": 8302,
      "heil": 8303,
      "hysi": 8304,
      "dust": 8305,
      "ĠTun": 8306,
      "Ġmann": 8307,
      "time": 8308,
      "chtigen": 8309,
      "Garten": 8310,
      "\">": 8311,
      "vit": 8312,
      "undert": 8313,
      "ĠZie": 8314,
      "nsen": 8315,
      "Ġfas": 8316,
      "harma": 8317,
      "AK": 8318,
      "winkel": 8319,
      "Ġlust": 8320,
      "stron": 8321,
      "ĠBie": 8322,
      "leihen": 8323,
      "Box": 8324,
      "Ġbild": 8325,
      "dend": 8326,
      "ufen": 8327,
      "Casino": 8328,
      "kleber": 8329,
      "Ġsuche": 8330,
      "Wert": 8331,
      "zis": 8332,
      "bart": 8333,
      "ĠBegru": 8334,
      "ĠMau": 8335,
      "Ġdachte": 8336,
      "HS": 8337,
      "Ġfarb": 8338,
      "ĠCup": 8339,
      "ĠBlatt": 8340,
      "Ġmittle": 8341,
      "lichem": 8342,
      "schalt": 8343,
      "js": 8344,
      "ĠPas": 8345,
      "ĠSep": 8346,
      "ĠFant": 8347,
      "Ga": 8348,
      "ict": 8349,
      "ĠCat": 8350,
      "Ġtrans": 8351,
      "istent": 8352,
      "Ġgehabt": 8353,
      "Ġselben": 8354,
      "BL": 8355,
      "ĠBenzin": 8356,
      "CK": 8357,
      "dra": 8358,
      "ĠPL": 8359,
      "Bilder": 8360,
      "ĠTha": 8361,
      "Thema": 8362,
      "Ġsowas": 8363,
      "ĠZy": 8364,
      "ĠKinde": 8365,
      "ĠDiagno": 8366,
      "zeits": 8367,
      "Ġkrie": 8368,
      "reihe": 8369,
      "ausend": 8370,
      "rinzip": 8371,
      "Ġwenden": 8372,
      "Std": 8373,
      "Ġ[...]": 8374,
      "ĠFR": 8375,
      "Projekt": 8376,
      "reiter": 8377,
      "Ġsteigt": 8378,
      "amburg": 8379,
      "Wasser": 8380,
      "wur": 8381,
      "ily": 8382,
      "ĠLein": 8383,
      "irmen": 8384,
      "ĠJacke": 8385,
      "Ġanhand": 8386,
      "ragende": 8387,
      "rechnen": 8388,
      "nnern": 8389,
      "wuchs": 8390,
      "okratie": 8391,
      "ĠLizenz": 8392,
      "dels": 8393,
      "ĠPosit": 8394,
      "ĠOrient": 8395,
      "reitet": 8396,
      "Ġsrc": 8397,
      "ssigen": 8398,
      "ures": 8399,
      "ĠEbene": 8400,
      "Ġverab": 8401,
      "orth": 8402,
      "feuer": 8403,
      "ĠZut": 8404,
      "Mod": 8405,
      "ĠZuru": 8406,
      "ĠDatum": 8407,
      "ĠAblauf": 8408,
      "ĠSter": 8409,
      "ĠKB": 8410,
      "gerin": 8411,
      "put": 8412,
      "Ġsetzte": 8413,
      "Ġpub": 8414,
      "fr": 8415,
      "Ġkomme": 8416,
      "Ġ74": 8417,
      "sca": 8418,
      "Ġmaxi": 8419,
      "=>": 8420,
      "Ġeignet": 8421,
      "!)": 8422,
      "ĠArn": 8423,
      "ĠCho": 8424,
      "ĠOrte": 8425,
      "Flug": 8426,
      "Ġhy": 8427,
      "Ġsofern": 8428,
      "ĠIl": 8429,
      "ĠBezieh": 8430,
      "VB": 8431,
      "rew": 8432,
      "rose": 8433,
      "Fern": 8434,
      "Ã·": 8435,
      "loc": 8436,
      "data": 8437,
      "Ġausein": 8438,
      "Ø§": 8439,
      "mpfer": 8440,
      "Kreis": 8441,
      "ĠMotto": 8442,
      "Ð¼": 8443,
      "perte": 8444,
      "metik": 8445,
      "gold": 8446,
      "chnet": 8447,
      "Ġbildet": 8448,
      "ĠIsland": 8449,
      "Ġmeint": 8450,
      "ĠFuss": 8451,
      "komm": 8452,
      "ĠLack": 8453,
      "ktiver": 8454,
      "ĠLeg": 8455,
      "cent": 8456,
      "Ġhart": 8457,
      "ibex": 8458,
      "ĠiPad": 8459,
      "oi": 8460,
      "Hin": 8461,
      "ĠBin": 8462,
      "geht": 8463,
      "pete": 8464,
      "zielen": 8465,
      "VG": 8466,
      "fisch": 8467,
      "ĠRam": 8468,
      "konze": 8469,
      "ĠLow": 8470,
      "utzern": 8471,
      "ĠLange": 8472,
      "ĠTR": 8473,
      "ĠWerner": 8474,
      "achen": 8475,
      "ĠTank": 8476,
      "finitiv": 8477,
      "ĠDecken": 8478,
      "hotos": 8479,
      "Ġpop": 8480,
      "ĠBam": 8481,
      "Ġnen": 8482,
      "ĠBoch": 8483,
      "ĠEinbau": 8484,
      "Ġstyle": 8485,
      "ttern": 8486,
      "Serie": 8487,
      "ĠBab": 8488,
      "testens": 8489,
      "Hrsg": 8490,
      "url": 8491,
      "ĠSeele": 8492,
      "Ġbearb": 8493,
      "td": 8494,
      "Ġgepru": 8495,
      "110": 8496,
      "stimmen": 8497,
      "termin": 8498,
      "ĠLaptop": 8499,
      "ĠLande": 8500,
      "arben": 8501,
      "Ġstat": 8502,
      "card": 8503,
      "123": 8504,
      "osi": 8505,
      "hauses": 8506,
      "ĠVorber": 8507,
      "Ġâĸ": 8508,
      "ĠAnspru": 8509,
      "Google": 8510,
      "fische": 8511,
      "Ġabsolv": 8512,
      "ahrungs": 8513,
      "Dies": 8514,
      "Ġbilder": 8515,
      "host": 8516,
      "Car": 8517,
      "Ġchine": 8518,
      "ĠLaufe": 8519,
      "ĠFili": 8520,
      "uliert": 8521,
      "Ġgering": 8522,
      "ĠDiam": 8523,
      "umt": 8524,
      "ĠStich": 8525,
      "rivate": 8526,
      "Ġdesto": 8527,
      "Ġgi": 8528,
      "ĠFle": 8529,
      "besta": 8530,
      "anwalt": 8531,
      "????": 8532,
      "Ġikea": 8533,
      "linger": 8534,
      "price": 8535,
      "ĠDay": 8536,
      "eines": 8537,
      "Ġdiver": 8538,
      "ĠHose": 8539,
      "ĠLife": 8540,
      "end": 8541,
      "ici": 8542,
      "spricht": 8543,
      "raine": 8544,
      "Ġwes": 8545,
      "Ġvol": 8546,
      "Ġbun": 8547,
      "Ġ1994": 8548,
      "mischen": 8549,
      "orian": 8550,
      "leiche": 8551,
      "ĠAlb": 8552,
      "Veran": 8553,
      "ĠSchle": 8554,
      "Ġgesto": 8555,
      "beutel": 8556,
      "folgs": 8557,
      "pes": 8558,
      "Ġserv": 8559,
      "ĠFur": 8560,
      "mall": 8561,
      "ĠSony": 8562,
      "ĠEffe": 8563,
      "hme": 8564,
      "eight": 8565,
      "pend": 8566,
      "versal": 8567,
      "HP": 8568,
      "lines": 8569,
      "Arb": 8570,
      "selben": 8571,
      "Pla": 8572,
      "Ġ61": 8573,
      "Werk": 8574,
      "ĠWalter": 8575,
      "team": 8576,
      "chent": 8577,
      "Ġ::": 8578,
      "astrop": 8579,
      "Ġwhich": 8580,
      "Presse": 8581,
      "ĠKirch": 8582,
      "ĠOver": 8583,
      "option": 8584,
      "ĠSteine": 8585,
      "Ġcle": 8586,
      "ĠðŁĻĤ": 8587,
      "stoffen": 8588,
      "Ġvorzu": 8589,
      "ĠSL": 8590,
      "ĠKlar": 8591,
      "ĠForen": 8592,
      "ĠLook": 8593,
      "Beste": 8594,
      "ĠSollte": 8595,
      "ĠBL": 8596,
      "Ġcar": 8597,
      "denden": 8598,
      "ĠHabe": 8599,
      "liegt": 8600,
      "ĠBerat": 8601,
      "Ġlog": 8602,
      "Ġergibt": 8603,
      "itis": 8604,
      "auss": 8605,
      "ĠâĢł": 8606,
      "stoÃŁ": 8607,
      "Ġ86": 8608,
      "bten": 8609,
      "ĠUND": 8610,
      "ĠHeidel": 8611,
      "ĠGrenze": 8612,
      "ĠMand": 8613,
      "Ġfreut": 8614,
      "schal": 8615,
      "taill": 8616,
      "winden": 8617,
      "Ġgelegt": 8618,
      "à¹": 8619,
      "ĠRuf": 8620,
      "Ġ360": 8621,
      "Tre": 8622,
      "reibt": 8623,
      "ĠHilfs": 8624,
      "kleider": 8625,
      "brille": 8626,
      "ĠHead": 8627,
      "Fach": 8628,
      "ĠEngel": 8629,
      "ugie": 8630,
      "ĠNation": 8631,
      "reien": 8632,
      "ngigen": 8633,
      "ĠCoc": 8634,
      "ĠForex": 8635,
      "ĠAnton": 8636,
      "asa": 8637,
      "Ġerlebt": 8638,
      "dicht": 8639,
      "Ġerla": 8640,
      "Price": 8641,
      "Ġklingt": 8642,
      "Motor": 8643,
      "ĠSec": 8644,
      "Ġfahr": 8645,
      "ĠBef": 8646,
      "anisch": 8647,
      "reichs": 8648,
      "Ġkenne": 8649,
      "folger": 8650,
      "ĠGitar": 8651,
      "mmern": 8652,
      "comp": 8653,
      "tisches": 8654,
      "Ġstammt": 8655,
      "Ġ84": 8656,
      "schl": 8657,
      "Ġgeist": 8658,
      "nr": 8659,
      "Ġzwo": 8660,
      "ĠNer": 8661,
      "Ġ->": 8662,
      "ICHT": 8663,
      "Â»,": 8664,
      "ĠSens": 8665,
      "temper": 8666,
      "typ": 8667,
      "ĠAch": 8668,
      "ĠAP": 8669,
      "Ġbro": 8670,
      "StraÃŁe": 8671,
      "ĠBron": 8672,
      "center": 8673,
      "Gescha": 8674,
      "FB": 8675,
      "Ġgepra": 8676,
      "jahres": 8677,
      "also": 8678,
      "ĠTests": 8679,
      "phones": 8680,
      "Ġeh": 8681,
      "ĠSomit": 8682,
      "Vert": 8683,
      "mach": 8684,
      "nzt": 8685,
      "ĠAT": 8686,
      "Bar": 8687,
      "ĠYoga": 8688,
      "heizung": 8689,
      "ĠLeon": 8690,
      "IST": 8691,
      "âĢĿ,": 8692,
      "Ġfamil": 8693,
      "ĠTennis": 8694,
      "lehen": 8695,
      "stren": 8696,
      "Ġ>>": 8697,
      "uploads": 8698,
      "ĠGir": 8699,
      "Gene": 8700,
      "kro": 8701,
      "FR": 8702,
      "etseite": 8703,
      "ĠSG": 8704,
      "Ġmotiv": 8705,
      "quelle": 8706,
      "Ġplanen": 8707,
      "SM": 8708,
      "pten": 8709,
      "EB": 8710,
      "lights": 8711,
      "Ġdritte": 8712,
      "ĠErwart": 8713,
      "ÃŁver": 8714,
      "ĠTricks": 8715,
      "zubeho": 8716,
      "ÌĥÂ¤": 8717,
      "ĠID": 8718,
      "ĠBezirk": 8719,
      "Noch": 8720,
      "leister": 8721,
      "Ġflo": 8722,
      "ĠKlin": 8723,
      "ĠSymbo": 8724,
      "Ġ(+": 8725,
      "ĠRevol": 8726,
      "berater": 8727,
      "Ġmerk": 8728,
      "PG": 8729,
      "ommst": 8730,
      "Disk": 8731,
      "strecke": 8732,
      "essel": 8733,
      "Kurz": 8734,
      "ĠBach": 8735,
      "nisch": 8736,
      "Î±": 8737,
      "riebs": 8738,
      "Blu": 8739,
      "bia": 8740,
      "Ġgenaue": 8741,
      "ĠMaÃŁe": 8742,
      "ĠSteck": 8743,
      "irma": 8744,
      "blemlos": 8745,
      "kind": 8746,
      "ston": 8747,
      "ĠEvents": 8748,
      "Ca": 8749,
      "ASS": 8750,
      "ĠBag": 8751,
      "ĠEM": 8752,
      "gebiete": 8753,
      "bor": 8754,
      "ĠLogo": 8755,
      "lid": 8756,
      "ĠAusge": 8757,
      "uuml": 8758,
      "fers": 8759,
      "rian": 8760,
      "ĠPrint": 8761,
      "fy": 8762,
      "Kunst": 8763,
      "title": 8764,
      "Ġschme": 8765,
      "nterest": 8766,
      "weiten": 8767,
      "staun": 8768,
      "bessert": 8769,
      "Ġzog": 8770,
      "ĠWird": 8771,
      "cksicht": 8772,
      "ĠEinn": 8773,
      "yester": 8774,
      "lemente": 8775,
      "Kur": 8776,
      "biert": 8777,
      "syl": 8778,
      "yers": 8779,
      "ĠSpann": 8780,
      "leiben": 8781,
      "andid": 8782,
      "Ġce": 8783,
      "Ġerb": 8784,
      "futter": 8785,
      "front": 8786,
      "Ġdahin": 8787,
      "ĠDam": 8788,
      "700": 8789,
      "ĠWies": 8790,
      "Ġschuhe": 8791,
      "Ġlautet": 8792,
      "grau": 8793,
      "usion": 8794,
      "ppi": 8795,
      "ruktur": 8796,
      "âĢľ-": 8797,
      "GroÃŁ": 8798,
      "Ġrealis": 8799,
      "orama": 8800,
      "fektion": 8801,
      "ritts": 8802,
      "ĠSchnu": 8803,
      "zeitung": 8804,
      "ĠâĨĴ<": 8805,
      ".....": 8806,
      ".):": 8807,
      "Ġover": 8808,
      "projekt": 8809,
      "mester": 8810,
      "lant": 8811,
      "Ġ78": 8812,
      "ĠCover": 8813,
      "Flu": 8814,
      "Ġstren": 8815,
      "Ġinstal": 8816,
      "Ġmulti": 8817,
      "gela": 8818,
      "vgl": 8819,
      "Markt": 8820,
      "ĠFun": 8821,
      "finanz": 8822,
      "lient": 8823,
      "fahrten": 8824,
      "nee": 8825,
      "nschte": 8826,
      "werken": 8827,
      "PL": 8828,
      "ĠWatt": 8829,
      "ĠStore": 8830,
      "ĠArray": 8831,
      "curity": 8832,
      "Ġhotel": 8833,
      "eile": 8834,
      "chelor": 8835,
      "Ins": 8836,
      "ssten": 8837,
      "uther": 8838,
      "stunden": 8839,
      "rolle": 8840,
      "geschra": 8841,
      "nheit": 8842,
      "est": 8843,
      "spunkt": 8844,
      "ĠSW": 8845,
      "ĠStiefe": 8846,
      "ĠJosef": 8847,
      "ĠQuer": 8848,
      "freunde": 8849,
      "reichte": 8850,
      "folie": 8851,
      "ĠVie": 8852,
      "Ġbeige": 8853,
      "Ġjahre": 8854,
      "ĠBeide": 8855,
      "Einge": 8856,
      "ĠDol": 8857,
      "Ġnutzt": 8858,
      "ĠKanz": 8859,
      "Ġreden": 8860,
      "kehrt": 8861,
      "Ġsobald": 8862,
      "ĠBasel": 8863,
      "TB": 8864,
      "Keine": 8865,
      "stechn": 8866,
      "Net": 8867,
      "ĠUmfeld": 8868,
      "bigen": 8869,
      "ĠSofa": 8870,
      "ĠGelb": 8871,
      "ĠBoots": 8872,
      "Ġverha": 8873,
      "ĠAe": 8874,
      "af": 8875,
      "ndische": 8876,
      "temp": 8877,
      "Ġechten": 8878,
      "cs": 8879,
      "stische": 8880,
      "cu": 8881,
      "Ġ1980": 8882,
      "hes": 8883,
      "Ġfiel": 8884,
      "ĠBul": 8885,
      "Ġtrat": 8886,
      "Ġ(âĢŀ": 8887,
      "ĠDJ": 8888,
      "rome": 8889,
      "arf": 8890,
      "fuÃŁ": 8891,
      "konzept": 8892,
      "ĠSaint": 8893,
      "fiziert": 8894,
      "ground": 8895,
      "ĠBeton": 8896,
      "analyse": 8897,
      "ĠCur": 8898,
      "ĠSper": 8899,
      "ogen": 8900,
      "Ġleiden": 8901,
      "sischer": 8902,
      "leider": 8903,
      "ĠIM": 8904,
      "\":[": 8905,
      "gig": 8906,
      "ZE": 8907,
      "Best": 8908,
      "ĠVel": 8909,
      "ĠEier": 8910,
      "fache": 8911,
      "Ġliefer": 8912,
      "Ġchar": 8913,
      "ĠRosa": 8914,
      "ĠFire": 8915,
      "ĠTerror": 8916,
      "Pan": 8917,
      "nie": 8918,
      "reiches": 8919,
      "ĠBetten": 8920,
      "otten": 8921,
      "solven": 8922,
      "Ġbreite": 8923,
      "ndes": 8924,
      "Ap": 8925,
      "ĠDating": 8926,
      "mietung": 8927,
      "gio": 8928,
      "kolog": 8929,
      "ativer": 8930,
      "ĠGet": 8931,
      "rochen": 8932,
      "file": 8933,
      "EIN": 8934,
      "ĠFunk": 8935,
      "Ġok": 8936,
      "HO": 8937,
      "lank": 8938,
      "ĠArgu": 8939,
      "eid": 8940,
      "klassi": 8941,
      "quot": 8942,
      "erke": 8943,
      "weist": 8944,
      "Ġ1945": 8945,
      "Ġbekam": 8946,
      "Ġbel": 8947,
      "ĠBrit": 8948,
      "asie": 8949,
      "show": 8950,
      "Damit": 8951,
      "Ġles": 8952,
      "bestimm": 8953,
      "Ġumzu": 8954,
      "bein": 8955,
      "ĠFord": 8956,
      "amera": 8957,
      "Ġfeiern": 8958,
      "likon": 8959,
      "hos": 8960,
      "ĠKnie": 8961,
      "Ġeinst": 8962,
      "ĠBesta": 8963,
      "FL": 8964,
      "Post": 8965,
      "beg": 8966,
      "nstle": 8967,
      "ĠNiveau": 8968,
      "yr": 8969,
      "bauten": 8970,
      "rzlich": 8971,
      "Ġsitzt": 8972,
      "pm": 8973,
      "ĠClau": 8974,
      "hh": 8975,
      "iens": 8976,
      "hnte": 8977,
      "Verk": 8978,
      "ĠAuflo": 8979,
      "Ġsche": 8980,
      "irchen": 8981,
      "stlich": 8982,
      "ĠFeucht": 8983,
      "zeption": 8984,
      "ppel": 8985,
      "TO": 8986,
      "rations": 8987,
      "Ġ94": 8988,
      "not": 8989,
      "sprac": 8990,
      "werfer": 8991,
      "ĠStory": 8992,
      "rauens": 8993,
      "fferenz": 8994,
      "bels": 8995,
      "Ġdenk": 8996,
      "wanne": 8997,
      "hliche": 8998,
      "ĠFremd": 8999,
      "gram": 9000,
      "Ġlike": 9001,
      "ĠCL": 9002,
      "ĠJazz": 9003,
      "roll": 9004,
      "=\\\"": 9005,
      "kraine": 9006,
      "ĠTsche": 9007,
      "ĠWord": 9008,
      "leid": 9009,
      "atives": 9010,
      "arge": 9011,
      "Ġpm": 9012,
      "Ġ1992": 9013,
      "Windows": 9014,
      "Ġproduz": 9015,
      "key": 9016,
      "api": 9017,
      "neu": 9018,
      "ĠAv": 9019,
      "ramik": 9020,
      "pers": 9021,
      "weitert": 9022,
      "Ġverurs": 9023,
      "BR": 9024,
      "ĠImm": 9025,
      "uden": 9026,
      "kamera": 9027,
      "Ġjapan": 9028,
      "Ġanerk": 9029,
      "wunsch": 9030,
      "At": 9031,
      "col": 9032,
      "isburg": 9033,
      "siven": 9034,
      "ĠFast": 9035,
      "ucksack": 9036,
      "lehrer": 9037,
      "ĠMiche": 9038,
      "Ġpas": 9039,
      "fahrens": 9040,
      "ĠVorga": 9041,
      "Ġforex": 9042,
      "ĠBrot": 9043,
      "menge": 9044,
      "maga": 9045,
      "dom": 9046,
      "ox": 9047,
      "Schwarz": 9048,
      "ĠBrau": 9049,
      "ĠTan": 9050,
      "Poli": 9051,
      "Ġserio": 9052,
      "ĠFutter": 9053,
      "banken": 9054,
      "Ġfrau": 9055,
      "gewinn": 9056,
      "unnen": 9057,
      "ndere": 9058,
      "Â«<": 9059,
      "Ġdamali": 9060,
      "ĠShirt": 9061,
      "Ð´": 9062,
      "ĠMainz": 9063,
      "ĠErwer": 9064,
      "reif": 9065,
      "ĠComm": 9066,
      "nkung": 9067,
      "ĠMur": 9068,
      "Ġerfre": 9069,
      "nschten": 9070,
      "ĠJesus": 9071,
      "arbon": 9072,
      "post": 9073,
      "].": 9074,
      "GO": 9075,
      "doc": 9076,
      "club": 9077,
      "ĠErga": 9078,
      "aris": 9079,
      "Ġsteuer": 9080,
      "Vielen": 9081,
      "Ġbal": 9082,
      "tale": 9083,
      "Fl": 9084,
      "klar": 9085,
      "ĠIslam": 9086,
      "ĠIngen": 9087,
      "Gera": 9088,
      "ĠPie": 9089,
      "umb": 9090,
      "ĠFull": 9091,
      "script": 9092,
      "Hel": 9093,
      "nste": 9094,
      "Ġnutz": 9095,
      "tected": 9096,
      "ĠKatze": 9097,
      "bewerbs": 9098,
      "ACK": 9099,
      "Ġnord": 9100,
      "rimin": 9101,
      "rlichen": 9102,
      "sem": 9103,
      "izzling": 9104,
      "ĠMerkel": 9105,
      "sky": 9106,
      "ius": 9107,
      "hoe": 9108,
      "ĠObwohl": 9109,
      "ĠTodes": 9110,
      "chselt": 9111,
      "itionen": 9112,
      "ranz": 9113,
      "Ġmach": 9114,
      "dei": 9115,
      "uns": 9116,
      "Ġgol": 9117,
      "zenten": 9118,
      "Ġ115": 9119,
      "ĠStufe": 9120,
      "Ġ1993": 9121,
      "Ġ700": 9122,
      "Ġbes": 9123,
      "Ġplace": 9124,
      "leun": 9125,
      "riffe": 9126,
      "ĠPress": 9127,
      "Tube": 9128,
      "ĠDER": 9129,
      "ĠMasse": 9130,
      "ĠPod": 9131,
      "ĠRal": 9132,
      "ĠFinale": 9133,
      "Ġanalys": 9134,
      "ĠFlach": 9135,
      "dite": 9136,
      "ypal": 9137,
      "Ġ---": 9138,
      "haltige": 9139,
      "ĠMS": 9140,
      "hardt": 9141,
      "Ġbefu": 9142,
      "ĠRain": 9143,
      "Ġ87": 9144,
      "Class": 9145,
      "ĠJunge": 9146,
      "âĢ¢": 9147,
      "fast": 9148,
      "storben": 9149,
      "Ġany": 9150,
      "ĠWart": 9151,
      "ople": 9152,
      "lubs": 9153,
      "ngeren": 9154,
      "Pub": 9155,
      "merksam": 9156,
      "Ġlangja": 9157,
      "unch": 9158,
      "schicht": 9159,
      "lade": 9160,
      "ĠSchro": 9161,
      "ĠAngabe": 9162,
      "type": 9163,
      "lange": 9164,
      "istan": 9165,
      "Max": 9166,
      "ush": 9167,
      "ĠOP": 9168,
      "ĠOc": 9169,
      "znei": 9170,
      "ÃŁigen": 9171,
      "ĠKrist": 9172,
      "aux": 9173,
      "ĠNeust": 9174,
      "ltere": 9175,
      "Nor": 9176,
      "ĠAlpen": 9177,
      "EO": 9178,
      "aha": 9179,
      "feier": 9180,
      "\").": 9181,
      "Stellen": 9182,
      "hlichen": 9183,
      "Ġster": 9184,
      "ua": 9185,
      "berein": 9186,
      "lastung": 9187,
      "stagram": 9188,
      "Ġnett": 9189,
      "ĠEngi": 9190,
      "GR": 9191,
      "lanze": 9192,
      "ĠLind": 9193,
      "wandel": 9194,
      "Ġstarte": 9195,
      "Ġsuch": 9196,
      "Nachdem": 9197,
      "Ġverp": 9198,
      "risches": 9199,
      "Ġfern": 9200,
      "ideen": 9201,
      "fels": 9202,
      "ĠVf": 9203,
      "Zubeho": 9204,
      "nti": 9205,
      "wirken": 9206,
      "ĠJames": 9207,
      "ĠKugel": 9208,
      "Code": 9209,
      "Ġprodu": 9210,
      "Ġvieler": 9211,
      "ĠFluss": 9212,
      "ĠFigur": 9213,
      "Ġsec": 9214,
      "hofer": 9215,
      "schwarz": 9216,
      "zins": 9217,
      "samer": 9218,
      "leicht": 9219,
      "kissen": 9220,
      "mpft": 9221,
      "ult": 9222,
      "ĠChor": 9223,
      "zustand": 9224,
      "games": 9225,
      "ĠSing": 9226,
      "itution": 9227,
      "mobilie": 9228,
      "amazon": 9229,
      "Ġkeines": 9230,
      "ands": 9231,
      "1000": 9232,
      "ĠSpur": 9233,
      "ĠLinien": 9234,
      "ĠCarl": 9235,
      "ĠPause": 9236,
      "WeiÃŁ": 9237,
      "Selbst": 9238,
      "world": 9239,
      "beklei": 9240,
      "ĠLes": 9241,
      "teils": 9242,
      "nta": 9243,
      "ĠMex": 9244,
      "Platz": 9245,
      "this": 9246,
      "usch": 9247,
      "ĠKru": 9248,
      "ĠErza": 9249,
      "ĠDR": 9250,
      "ĠLernen": 9251,
      "2002": 9252,
      "ĠCase": 9253,
      "laue": 9254,
      "Ġline": 9255,
      "ĠDA": 9256,
      "rainer": 9257,
      "Ġroman": 9258,
      "Date": 9259,
      "mische": 9260,
      "check": 9261,
      "Ġgingen": 9262,
      "Ġfrage": 9263,
      "Plan": 9264,
      "allel": 9265,
      "soren": 9266,
      "ĠBody": 9267,
      "Ġeinma": 9268,
      "achim": 9269,
      "ĠRel": 9270,
      "ĠweiÃŁe": 9271,
      "umber": 9272,
      "ĠRoyal": 9273,
      "braun": 9274,
      "Ġ1989": 9275,
      "ĠGau": 9276,
      "Fest": 9277,
      "ĠGaming": 9278,
      "jektiv": 9279,
      "Zitat": 9280,
      "Ġblaue": 9281,
      "ĠFinden": 9282,
      "Ġmeinte": 9283,
      "Ġbezu": 9284,
      "lies": 9285,
      "sole": 9286,
      "Ġ97": 9287,
      "ungene": 9288,
      "breite": 9289,
      "ody": 9290,
      "TH": 9291,
      "Gut": 9292,
      "lichte": 9293,
      "fehler": 9294,
      "ĠLoc": 9295,
      "Ġ350": 9296,
      "bote": 9297,
      "ĠKali": 9298,
      "kete": 9299,
      "ivil": 9300,
      "Ġ73": 9301,
      "ĠHit": 9302,
      "werker": 9303,
      "uschen": 9304,
      "ĠMassen": 9305,
      "display": 9306,
      "dates": 9307,
      "Ġye": 9308,
      "kler": 9309,
      "lehre": 9310,
      "schale": 9311,
      "artnern": 9312,
      "Titel": 9313,
      "ratze": 9314,
      "bens": 9315,
      "ĠOs": 9316,
      "ĠMaus": 9317,
      "rb": 9318,
      "schel": 9319,
      "sers": 9320,
      "cia": 9321,
      "ĠIsrael": 9322,
      "plane": 9323,
      "Pol": 9324,
      "lieder": 9325,
      "quote": 9326,
      "Ġ220": 9327,
      "BS": 9328,
      "Ġbade": 9329,
      "Ġsome": 9330,
      "ĠSongs": 9331,
      "wirt": 9332,
      "Ġew": 9333,
      "ĠTextil": 9334,
      "Ġbus": 9335,
      "Product": 9336,
      "fore": 9337,
      "ĠMesser": 9338,
      "Ġhot": 9339,
      "ĠZitat": 9340,
      "jet": 9341,
      "rth": 9342,
      "Ġverku": 9343,
      "ĠBras": 9344,
      "ĠCast": 9345,
      "ĠBereit": 9346,
      "arth": 9347,
      "tekten": 9348,
      "fungen": 9349,
      "Ġunkomp": 9350,
      "ability": 9351,
      "lassene": 9352,
      "igkeits": 9353,
      "ĠHaup": 9354,
      "Ġfanta": 9355,
      "ĠSymbol": 9356,
      "Ġ1970": 9357,
      "falz": 9358,
      "ĠBeine": 9359,
      "wendet": 9360,
      "Check": 9361,
      "Natu": 9362,
      "ĠLevel": 9363,
      "ĠHell": 9364,
      "ĠTrump": 9365,
      "ĠExp": 9366,
      "iente": 9367,
      "();": 9368,
      "ĠMitt": 9369,
      "Ġseiten": 9370,
      "Ġsepar": 9371,
      "ĠÃĺ": 9372,
      "uÃŁe": 9373,
      "ĠHobby": 9374,
      "lenburg": 9375,
      "riechi": 9376,
      "ltnisse": 9377,
      "Ġverarb": 9378,
      "Ġglaub": 9379,
      "áĲ": 9380,
      "Ġgloba": 9381,
      "messe": 9382,
      "mension": 9383,
      "Ġlecke": 9384,
      "ftige": 9385,
      "hige": 9386,
      "Ġschie": 9387,
      "Ġtab": 9388,
      "schend": 9389,
      "ilde": 9390,
      "risuren": 9391,
      "Ġdis": 9392,
      "ĠToi": 9393,
      "studio": 9394,
      "Ġsen": 9395,
      "bewusst": 9396,
      "Bewer": 9397,
      "Ġem": 9398,
      "Ġ1991": 9399,
      "leute": 9400,
      "ysik": 9401,
      "ielten": 9402,
      "ĠJagd": 9403,
      "ĠGenau": 9404,
      "schritt": 9405,
      "Ġgrosse": 9406,
      "ungsein": 9407,
      "ĠTrink": 9408,
      "Ġberlin": 9409,
      "ĠTarif": 9410,
      "Ġpu": 9411,
      "ĠVil": 9412,
      "Ġfer": 9413,
      "ĠTable": 9414,
      "Ġgebrau": 9415,
      "faser": 9416,
      "scheibe": 9417,
      "ĠGal": 9418,
      "dge": 9419,
      "ĠSH": 9420,
      "ĠAllein": 9421,
      "ĠStatt": 9422,
      "ĠMuskel": 9423,
      "furter": 9424,
      "Ġoper": 9425,
      "ĠFritz": 9426,
      "ĠOR": 9427,
      "Ġnennt": 9428,
      "Ġfaszin": 9429,
      "ppert": 9430,
      "ÅĤ": 9431,
      "haut": 9432,
      "uÃŁ": 9433,
      "berge": 9434,
      "Dig": 9435,
      "bacher": 9436,
      "LED": 9437,
      "tti": 9438,
      "books": 9439,
      ",,": 9440,
      "ĠKanton": 9441,
      "kop": 9442,
      "Ġpat": 9443,
      "ĠRetro": 9444,
      "},\"": 9445,
      "Kultur": 9446,
      "Siehe": 9447,
      "ĠLove": 9448,
      "Ġwohnen": 9449,
      "Jan": 9450,
      "schlei": 9451,
      "Î¹": 9452,
      "Ġschau": 9453,
      "DC": 9454,
      "fon": 9455,
      "ĠKW": 9456,
      "ĠBraut": 9457,
      "don": 9458,
      "bot": 9459,
      "Ġgekla": 9460,
      "aneben": 9461,
      "ologe": 9462,
      "Ġggf": 9463,
      "ĠVER": 9464,
      "eir": 9465,
      "kommun": 9466,
      "ĠProp": 9467,
      "Ġzuga": 9468,
      "tene": 9469,
      "ĠUnisex": 9470,
      "Karte": 9471,
      "ĠRun": 9472,
      "Free": 9473,
      "ĠRud": 9474,
      "Ġnein": 9475,
      "ĠBudget": 9476,
      "lect": 9477,
      "ĠErz": 9478,
      "Eint": 9479,
      "Sofort": 9480,
      "ĠBom": 9481,
      "QU": 9482,
      "ÃĹ": 9483,
      "Kap": 9484,
      "LC": 9485,
      "tsel": 9486,
      "angaben": 9487,
      "Ġvermie": 9488,
      "uge": 9489,
      "ffet": 9490,
      "ĠZwecke": 9491,
      "ichen": 9492,
      "ĠNat": 9493,
      "Kino": 9494,
      "manns": 9495,
      "fordern": 9496,
      "ĠSuchen": 9497,
      "rak": 9498,
      "ĠDuft": 9499,
      "MAN": 9500,
      "aco": 9501,
      "urnier": 9502,
      "Ġangeku": 9503,
      "ĠGrunde": 9504,
      "thing": 9505,
      "Ġtag": 9506,
      "Ġalter": 9507,
      "ĠAnlass": 9508,
      "Schrei": 9509,
      "Ġerwer": 9510,
      "ouble": 9511,
      "Jugend": 9512,
      "worte": 9513,
      "Ġjust": 9514,
      "tzte": 9515,
      "ĠUSD": 9516,
      "rohr": 9517,
      "ferien": 9518,
      "Ġnacht": 9519,
      "spoli": 9520,
      "ĠPRO": 9521,
      "Ġlief": 9522,
      "mag": 9523,
      "By": 9524,
      "ĠChemie": 9525,
      "Scha": 9526,
      "gendei": 9527,
      "IX": 9528,
      "Ġdoppel": 9529,
      "ĠJubila": 9530,
      "Ġvorgen": 9531,
      "ĠPy": 9532,
      "telli": 9533,
      "ĠSK": 9534,
      "ĠAro": 9535,
      "ketball": 9536,
      "Sol": 9537,
      "ĠPlu": 9538,
      "ĠOrigin": 9539,
      "Ġ92": 9540,
      "Ġweist": 9541,
      "bilis": 9542,
      "ĠUhren": 9543,
      "ckner": 9544,
      "Ġsteckt": 9545,
      "Ġother": 9546,
      "troller": 9547,
      "ronomie": 9548,
      "Ġhielt": 9549,
      "ehmend": 9550,
      "ĠHill": 9551,
      "ĠJungs": 9552,
      "Ġprima": 9553,
      "ĠFreien": 9554,
      "atent": 9555,
      "Ġzweit": 9556,
      "Ġmitten": 9557,
      "ĠStor": 9558,
      "rste": 9559,
      "ĠStyle": 9560,
      "ĠHohen": 9561,
      "hoff": 9562,
      "product": 9563,
      "VC": 9564,
      "Ġbett": 9565,
      "ndungen": 9566,
      "regen": 9567,
      "magazin": 9568,
      "ĠBaye": 9569,
      "wender": 9570,
      "ĠIdent": 9571,
      "ĠGegend": 9572,
      "ĠLas": 9573,
      "Part": 9574,
      "ĠWeiss": 9575,
      "fleisch": 9576,
      "âĤ¬<": 9577,
      "ĠAllgem": 9578,
      "cking": 9579,
      "ĠSty": 9580,
      "iso": 9581,
      "Ġmiss": 9582,
      "ĠAlu": 9583,
      "Sterne": 9584,
      "900": 9585,
      "gungen": 9586,
      "motor": 9587,
      "Ġview": 9588,
      "rine": 9589,
      "ĠFormel": 9590,
      "Is": 9591,
      "ĠHauses": 9592,
      "athi": 9593,
      "spezi": 9594,
      "ziele": 9595,
      "Ġ});": 9596,
      "Nord": 9597,
      "ĠTore": 9598,
      "ĠTiefe": 9599,
      "ĠSpir": 9600,
      "abrik": 9601,
      "mechan": 9602,
      "omatic": 9603,
      "lide": 9604,
      "Ġmassiv": 9605,
      "DEN": 9606,
      "Ġ71": 9607,
      "ĠGrenz": 9608,
      "Ġ_": 9609,
      "namen": 9610,
      "ĠWC": 9611,
      "ALL": 9612,
      "ĠAdidas": 9613,
      "dlichen": 9614,
      "ĠLong": 9615,
      "Klasse": 9616,
      "Ġtrau": 9617,
      "Ġbeka": 9618,
      "Ġbedro": 9619,
      "Ġlecker": 9620,
      "ĠSofort": 9621,
      "ĠAusbau": 9622,
      "ĠKindes": 9623,
      "Â«,": 9624,
      "Stre": 9625,
      "Ġklasse": 9626,
      "sieger": 9627,
      "Ġexp": 9628,
      "ĠGraf": 9629,
      "rauer": 9630,
      "ĠValen": 9631,
      "fle": 9632,
      "ĠKlang": 9633,
      "wandte": 9634,
      "cheln": 9635,
      "ĠSports": 9636,
      "ĠLampe": 9637,
      "inkl": 9638,
      "chstes": 9639,
      "ĠObe": 9640,
      "ĠDisco": 9641,
      "ups": 9642,
      "omatis": 9643,
      "ĠLaufen": 9644,
      "archiv": 9645,
      "auml": 9646,
      "ĠArmee": 9647,
      "ĠLit": 9648,
      "vas": 9649,
      "ĠMagen": 9650,
      "ĠKiel": 9651,
      "steck": 9652,
      "Ġsilber": 9653,
      "ĠDampf": 9654,
      "zirk": 9655,
      "nftige": 9656,
      "Ġabgeb": 9657,
      "auti": 9658,
      "ĠBegl": 9659,
      "ĺħ": 9660,
      "tigte": 9661,
      "ĠSU": 9662,
      "Ġerfahr": 9663,
      "grid": 9664,
      "xer": 9665,
      "ĠRos": 9666,
      "Ġ82": 9667,
      "PDF": 9668,
[...]
