{"<s>":0,"<pad>":1,"</s>":2,"<mask>":3,"<newline>":4,"<unk>":5,"!":6,"\"":7,"#":8,"$":9,"%":10,"&":11,"'":12,"(":13,")":14,"*":15,"+":16,",":17,"-":18,".":19,"/":20,"0":21,"1":22,"2":23,"3":24,"4":25,"5":26,"6":27,"7":28,"8":29,"9":30,":":31,";":32,"<":33,"=":34,">":35,"?":36,"@":37,"A":38,"B":39,"C":40,"D":41,"E":42,"F":43,"G":44,"H":45,"I":46,"J":47,"K":48,"L":49,"M":50,"N":51,"O":52,"P":53,"Q":54,"R":55,"S":56,"T":57,"U":58,"V":59,"W":60,"X":61,"Y":62,"Z":63,"[":64,"\\":65,"]":66,"^":67,"_":68,"`":69,"a":70,"b":71,"c":72,"d":73,"e":74,"f":75,"g":76,"h":77,"i":78,"j":79,"k":80,"l":81,"m":82,"n":83,"o":84,"p":85,"q":86,"r":87,"s":88,"t":89,"u":90,"v":91,"w":92,"x":93,"y":94,"z":95,"{":96,"|":97,"}":98,"~":99,"¡":100,"¢":101,"£":102,"¤":103,"¥":104,"¦":105,"§":106,"¨":107,"©":108,"ª":109,"«":110,"¬":111,"®":112,"¯":113,"°":114,"±":115,"²":116,"³":117,"´":118,"µ":119,"¶":120,"·":121,"¸":122,"¹":123,"º":124,"»":125,"¼":126,"½":127,"¾":128,"¿":129,"À":130,"Á":131,"Â":132,"Ã":133,"Ä":134,"Å":135,"Æ":136,"Ç":137,"È":138,"É":139,"Ê":140,"Ë":141,"Ì":142,"Í":143,"Î":144,"Ï":145,"Ð":146,"Ñ":147,"Ò":148,"Ó":149,"Ô":150,"Õ":151,"Ö":152,"×":153,"Ø":154,"Ù":155,"Ú":156,"Û":157,"Ü":158,"Ý":159,"Þ":160,"ß":161,"à":162,"á":163,"â":164,"ã":165,"ä":166,"å":167,"æ":168,"ç":169,"è":170,"é":171,"ê":172,"ë":173,"ì":174,"í":175,"î":176,"ï":177,"ð":178,"ñ":179,"ò":180,"ó":181,"ô":182,"õ":183,"ö":184,"÷":185,"ø":186,"ù":187,"ú":188,"û":189,"ü":190,"ý":191,"þ":192,"ÿ":193,"Ā":194,"ā":195,"Ă":196,"ă":197,"Ą":198,"ą":199,"Ć":200,"ć":201,"Ĉ":202,"ĉ":203,"Ċ":204,"ċ":205,"Č":206,"č":207,"Ď":208,"ď":209,"Đ":210,"đ":211,"Ē":212,"ē":213,"Ĕ":214,"ĕ":215,"Ė":216,"ė":217,"Ę":218,"ę":219,"Ě":220,"ě":221,"Ĝ":222,"ĝ":223,"Ğ":224,"ğ":225,"Ġ":226,"ġ":227,"Ģ":228,"ģ":229,"Ĥ":230,"ĥ":231,"Ħ":232,"ħ":233,"Ĩ":234,"ĩ":235,"Ī":236,"ī":237,"Ĭ":238,"ĭ":239,"Į":240,"į":241,"İ":242,"ı":243,"Ĳ":244,"ĳ":245,"Ĵ":246,"ĵ":247,"Ķ":248,"ķ":249,"ĸ":250,"Ĺ":251,"ĺ":252,"Ļ":253,"ļ":254,"Ľ":255,"ľ":256,"Ŀ":257,"ŀ":258,"Ł":259,"ł":260,"Ń":261,"ne":262,"ch":263,"de":264,"te":265,"ei":266,"ie":267,"ÌĪ":268,"li":269,"un":270,"ge":271,"an":272,"in":273,"line":274,"Ġd":275,"new":276,"newline":277,"Ġde":278,"Ġs":279,"be":280,"re":281,"ĠS":282,"au":283,"st":284,"le":285,"on":286,"se":287,"sch":288,"Ġw":289,"Ġun":290,"al":291,"ar":292,"ĠA":293,"or":294,"Ġm":295,"ten":296,"as":297,"ĠB":298,"it":299,"Ġv":300,"Ġund":301,"ich":302,"Ġdie":303,"ĠD":304,"at":305,"Ġei":306,"Ġe":307,"me":308,"ung":309,"gen":310,"Ġder":311,"ĠM":312,"ter":313,"Ġi":314,"ur":315,"Ġz":316,"Ġau":317,"Ġf":318,"ra":319,"ĠK":320,"ĠF":321,"Ġin":322,"ĠG":323,"ĠE":324,"ĠP":325,"che":326,"Ġn":327,"Ġh":328,"der":329,"ĠW":330,"nen":331,"Ġk":332,"ro":333,"ĠT":334,"ĠH":335,"den":336,"ber":337,"Ġ1":338,"ti":339,".<":340,"he":341,"Ġb":342,"fe":343,"ren":344,"Ġge":345,"hr":346,"ĠR":347,"ol":348,"Ġzu":349,"ĠL":350,"ck":351,"il":352,"Ġ2":353,"ĠI":354,"nt":355,"ir":356,"el":357,"am":358,"ĠV":359,"is":360,"eit":361,"ach":362,"sche":363,"Ġ(":364,"om":365,"us":366,"Ġeine":367,"âĢ":368,"ut":369,"Ġbe":370,"Ġdas":371,"rei":372,"la":373,"Ġvon":374,"Ġan":375,"ĠN":376,"Ġmit":377,"Ġg":378,"Ġein":379,"ze":380,"ve":381,"ier":382,"um":383,"ste":384,"Ġden":385,"Ġfu":386,"ben":387,"Ġer":388,"ĠC":389,"sen":390,"icht":391,"len":392,"and":393,"ĠU":394,"Ġo":395,"ÃŁ":396,"Ġist":397,"ĠBe":398,"Ġauf":399,"chen":400,"00":401,"Ġa":402,"ig":403,"lich":404,"men":405,"Ġal":406,"ru":407,"Ġve":408,"pe":409,"01":410,"ke":411,"Ġim":412,"ah":413,"we":414,"ĠZ":415,"ĠJ":416,"ĠGe":417,"Ġver":418,"ta":419,"Ġ-":420,"ein":421,"Ġwe":422,"ft":423,"lo":424,"ri":425,"ann":426,"ĠSch":427,"ĠO":428,"..":429,"sp":430,"ati":431,"ner":432,"kt":433,"ĠVe":434,"Ġt":435,"ll":436,"ĠâĢ":437,"Ġsch":438,"Ġsich":439,"Ġnicht":440,"Ġp":441,"Ġdes":442,"Ġaus":443,"ler":444,"lei":445,"ĠDe":446,"schen":447,"ing":448,"tz":449,"Ġwir":450,"ĠVer":451,"ĠSt":452,"ĠIn":453,"och":454,"ger":455,"Ġbei":456,"ungen":457,"ind":458,"ser":459,"ĠAn":460,"Ġauch":461,"ver":462,"mer":463,"Ġdem":464,"ien":465,"ĠSie":466,"Ġes":467,"sten":468,"ot":469,"ue":470,"Ġu":471,"ĠRe":472,"ĠDie":473,"Ġj":474,"fen":475,"ss":476,"ma":477,"iel":478,"ho":479,"wei":480,"Ġha":481,"Ġso":482,"nd":483,"cht":484,"ÃŁe":485,"Ġ3":486,"rt":487,"tel":488,"ort":489,"Ġals":490,"ag":491,"Ġ201":492,"lie":493,"scha":494,"ehr":495,"cke":496,"ĠSp":497,"Ġwie":498,"rau":499,"hen":500,"Ġich":501,"Ġwer":502,"ungs":503,"Ġum":504,"ab":505,"und":506,"Ġoder":507,"ation":508,"ĠAu":509,"im":510,"ad":511,"ĠEr":512,"ce":513,"ĠWe":514,"nn":515,"eine":516,"si":517,"rie":518,"hre":519,"Ġsind":520,"Ġhat":521,"ran":522,"Ġwerden":523,"Ġnach":524,"ht":525,"Ġvor":526,"Ġc":527,"op":528,"ĠPro":529,"ha":530,"zen":531,"ahr":532,"ik":533,"ĠMe":534,"fu":535,"hal":536,"Ġko":537,"gt":538,"Ġ19":539,"zu":540,"oh":541,"lin":542,"lu":543,"urch":544,"Ġsie":545,"Ġje":546,"art":547,"lt":548,"per":549,"liche":550,"Ġam":551,"di":552,"oll":553,"os":554,"ĠEin":555,"Ġ4":556,"kti":557,"ĠMa":558,"ang":559,"all":560,"ĠUn":561,"Ġne":562,"aus":563,"ff":564,"Ġdass":565,"ĠSe":566,"wa":567,"Ġwird":568,")<":569,"ĠLe":570,"Ġda":571,"Ġzum":572,"uch":573,"onen":574,"Ġ5":575,"tet":576,"ster":577,"iert":578,"Ġab":579,"ĠTe":580,"><":581,"Ġ|":582,"Ġeinen":583,"ĠâĢĵ":584,"wer":585,"tig":586,"âĢľ":587,"rn":588,"Ġwei":589,"for":590,"Ġman":591,"ine":592,"Ġeiner":593,"geb":594,"Ġkann":595,"las":596,"du":597,"ken":598,"Ġ\"":599,"Ġwur":600,"ischen":601,"Ġre":602,"ĠHe":603,"201":604,"Ġzur":605,"og":606,"ĠAr":607,"ische":608,"Ġdiese":609,"Ġwar":610,"sa":611,"Ġst":612,"Ġent":613,"Ġnoch":614,"Ġeinem":615,"ffe":616,"bt":617,"ĠAus":618,"ĠâĢŀ":619,"Ġsp":620,"Die":621,"Ġ0":622,"Ġunter":623,"ĠNe":624,"Ġdurch":625,"lau":626,"ment":627,"schaft":628,"her":629,"nnen":630,"ĠHo":631,"ieren":632,"Ġbis":633,"ul":634,"arb":635,"Ġnur":636,"tt":637,"pp":638,"des":639,"res":640,"fa":641,"eiten":642,"ĠDa":643,"ĠFe":644,"Ġaber":645,"ĠAl":646,"lichen":647,"ok":648,"lan":649,"...":650,"ga":651,"Ġhaben":652,"hren":653,"ĠMit":654,"sta":655,"mp":656,"gel":657,"Ġhe":658,"tra":659,"ali":660,"atz":661,"stell":662,"ĠMo":663,"ige":664,"Ġalle":665,"ts":666,"tzt":667,"fer":668,"uss":669,"ahl":670,"Ġ6":671,"ĠDas":672,"ĠAb":673,"zei":674,"Ġmo":675,"ist":676,"nde":677,"Ġle":678,"mo":679,"land":680,"auf":681,"ion":682,"Ġ&":683,"Ġwurde":684,"sam":685,"neh":686,"20":687,"Ġmehr":688,"ĠVor":689,"ute":690,"Ġ/":691,"keit":692,"anz":693,"ĠDer":694,"ba":695,"ic":696,"ild":697,"ap":698,"iele":699,"igen":700,"cken":701,"son":702,"De":703,"rer":704,"dern":705,"utsch":706,"Ġse":707,"ĠPe":708,"ommen":709,"cher":710,"ĠZu":711,"bo":712,"heit":713,"att":714,"da":715,"sel":716,"Ġwa":717,"rit":718,"ĠUnter":719,"tes":720,"hn":721,"acht":722,"ĠSta":723,"Ġ7":724,"rich":725,"ĠÂ":726,"rund":727,"unden":728,"tern":729,"alt":730,"ow":731,"Ġ8":732,"10":733,"rin":734,"ssen":735,"Ġande":736,"ÃŁen":737,"Ġ200":738,"chn":739,"elt":740,"bur":741,"Ġ9":742,"lle":743,"Ġgro":744,"glich":745,"eite":746,"reis":747,"age":748,"dem":749,"ĠAuf":750,"ia":751,"net":752,"ĠJah":753,"form":754,"ka":755,"so":756,"Ġste":757,"ĠSo":758,"ĠKo":759,"Ġdu":760,"mal":761,"bar":762,"omm":763,"âĤ":764,"),":765,"19":766,"âĤ¬":767,"utz":768,"Ġwas":769,"ĠMar":770,"war":771,"Ġwenn":772,"nis":773,"isch":774,"Ġ10":775,"ant":776,"Ġneue":777,"Ìģ":778,"ker":779,"teil":780,"aue":781,"su":782,"Ġsei":783,"ĠKon":784,"Ġsehr":785,"mit":786,"Ġihre":787,"ĠHer":788,"id":789,"Ġunse":790,"Ġof":791,"Ġdann":792,"Ġsein":793,"Ġ18":794,"Ġfin":795,"bst":796,"ĠThe":797,"Ġ<":798,"ick":799,"wie":800,"ktion":801,"Ġthe":802,"stu":803,"leich":804,"ĠFu":805,"Ġber":806,"Ġsoll":807,"del":808,"kte":809,"ibt":810,"pen":811,"reich":812,"Ġwieder":813,"io":814,"Ġuns":815,"Be":816,"Ġhier":817,"Ge":818,"tik":819,"Ġvom":820,"12":821,"Ġma":822,"Ġ20":823,"ng":824,"Ġdar":825,"Ġet":826,"hne":827,"zeit":828,"Ġlie":829,"ohn":830,"ĠPo":831,"schie":832,"ord":833,"pt":834,"mm":835,"na":836,"Ġla":837,"Ġho":838,"ww":839,"ĠKu":840,"ĠHa":841,"ĠZeit":842,"Ġon":843,"Ġschon":844,"ĠBo":845,"gs":846,"llen":847,"co":848,"Ġgen":849,"ĠLa":850,"ard":851,"inder":852,"je":853,"Ġimmer":854,"ĠSu":855,"omp":856,"ĠBer":857,"eits":858,"ino":859,"lung":860,"11":861,"nehmen":862,"Ġgibt":863,"...<":864,"50":865,"ĠWir":866,"ĠUm":867,"ko":868,"uel":869,"ielen":870,"uer":871,"mber":872,"immer":873,"ĠNach":874,"fol":875,"tion":876,"vi":877,"ass":878,"In":879,"ierung":880,"iche":881,"ĠIhre":882,"tei":883,"ĠBa":884,"ĠKa":885,"ĠRo":886,"Ġzwei":887,"les":888,"ill":889,"ug":890,"bel":891,"St":892,"sto":893,"burg":894,"ita":895,"Ġhin":896,"!<":897,"unde":898,"vor":899,"ĠSa":900,"los":901,"ĠCh":902,"Ġ#":903,"rem":904,"eim":905,"Ġpro":906,"Ġseine":907,"Ġhabe":908,"ĠBu":909,"arten":910,"We":911,"ast":912,"ld":913,"zi":914,"ffen":915,"ĠâĤ¬":916,"Ġ12":917,"Ġange":918,"ĠJahr":919,"Ve":920,"ks":921,"?<":922,"Ġsel":923,"ĠQ":924,"aut":925,"Ġmir":926,"30":927,"mein":928,"Ġkon":929,"ĠNa":930,"ob":931,"Ġme":932,"Sch":933,"zer":934,"eil":935,"lig":936,"ven":937,"ĠEnt":938,"ER":939,"ĠUhr":940,"ĠJu":941,"ĠEs":942,"ku":943,"det":944,"dt":945,"was":946,"iz":947,"ationen":948,"Ġfe":949,"ĠFor":950,"halten":951,"spiel":952,"ĠDu":953,"hl":954,"ĠBei":955,"ĠMen":956,"fach":957,"gend":958,":<":959,"Ġgegen":960,"schu":961,"no":962,"Ġohne":963,"ĠRei":964,"wert":965,"ble":966,"chte":967,"ĠWei":968,"ĠCo":969,"Ġ15":970,"tige":971,"ĠEur":972,"18":973,"ress":974,"Ġkeine":975,"ĠRu":976,"rk":977,"ĠArb":978,"ĠSte":979,"ark":980,"Der":981,"olle":982,"ĠPer":983,"Ġdieser":984,"ĠWa":985,"issen":986,"Das":987,"atur":988,"rag":989,"nder":990,"pf":991,"ĠStu":992,"weise":993,"Ġper":994,"ding":995,"Ġ[":996,"rz":997,"000":998,"stand":999,"tte":1000,"iger":1001,"ank":1002,"rein":1003,"Ġmal":1004,"Ġ16":1005,"qu":1006,"hnen":1007,"ĠTa":1008,"tigen":1009,"15":1010,"Ġausge":1011,"ye":1012,"ire":1013,"rat":1014,"ĠIm":1015,"rank":1016,"ĠMon":1017,"Ġmich":1018,"Ġ14":1019,"Ġna":1020,"Ġ17":1021,"min":1022,"ĠMu":1023,"Ġgut":1024,"Ġand":1025,"imm":1026,"ĠTo":1027,"gan":1028,"schei":1029,"satz":1030,"fahr":1031,"dien":1032,"Ġmei":1033,"ps":1034,"ierte":1035,"ĠLu":1036,"ĠGro":1037,"yste":1038,"ĠAut":1039,"dit":1040,"lassen":1041,"icher":1042,"ĠSchu":1043,"bau":1044,"richt":1045,"sse":1046,"Ġeines":1047,"ĠIch":1048,"wischen":1049,"Re":1050,"berg":1051,"man":1052,"ĠProdu":1053,"aufen":1054,"Ġsu":1055,"utschland":1056,"zel":1057,"Ġonline":1058,"ale":1059,"Ġgew":1060,"ften":1061,"asino":1062,"ĠSpiel":1063,"ĠHotel":1064,"Ġsowie":1065,").":1066,"Ġmu":1067,"ĠWas":1068,"nst":1069,"pro":1070,"Ġbek":1071,"22":1072,"16":1073,"nes":1074,"Ġbeim":1075,"fall":1076,"wick":1077,"Ġto":1078,"to":1079,"14":1080,"Ġviel":1081,"ĠFa":1082,"nah":1083,"gra":1084,"Ġ:":1085,"Ġihr":1086,"itz":1087,"hlen":1088,"ili":1089,"tzen":1090,"ron":1091,"ĠNo":1092,"//":1093,"Ġja":1094,"fin":1095,"Ein":1096,"ollen":1097,"sser":1098,"ohl":1099,"lage":1100,"ĠJe":1101,"aten":1102,"tten":1103,"setz":1104,"amit":1105,"17":1106,"mann":1107,"Ġ13":1108,"200":1109,"ĠLei":1110,"latz":1111,"bli":1112,"13":1113,"inn":1114,"ĠWo":1115,"ja":1116,"Ġson":1117,"pa":1118,"ide":1119,"sk":1120,"tre":1121,"ahn":1122,"ĠOn":1123,"han":1124,"ĠLeben":1125,"assen":1126,"ragen":1127,"ree":1128,"UR":1129,"sion":1130,"tro":1131,"ÃŁer":1132,"atu":1133,"://":1134,"bu":1135,"\",":1136,"com":1137,"EN":1138,"uf":1139,"IN":1140,"mb":1141,"ate":1142,"ĠGru":1143,"gu":1144,"Ġwen":1145,"ĠLo":1146,"An":1147,"ahren":1148,"ĠSon":1149,"ller":1150,"ct":1151,"Ġwel":1152,"Ġl":1153,"olog":1154,"Ġfor":1155,"tikel":1156,"ial":1157,"gesch":1158,"Ġwu":1159,"mel":1160,"abei":1161,"Ġmuss":1162,"uten":1163,"ĠLie":1164,"Ġweiter":1165,"vers":1166,"bs":1167,"ichte":1168,"trie":1169,"ĠKinder":1170,"--":1171,"ĠTra":1172,"Ġdeut":1173,"cker":1174,"Ġeinfach":1175,"lag":1176,"Ġfinden":1177,"ders":1178,"stellt":1179,"Ġher":1180,"ite":1181,"ĠMin":1182,"Ġdiesem":1183,"ses":1184,"Ġweite":1185,"Ġ,":1186,"raue":1187,"ĠOr":1188,"Ġhatte":1189,"gung":1190,"zo":1191,"Ver":1192,"Ġklei":1193,"ĠStadt":1194,"Ġganz":1195,"stra":1196,"th":1197,"ĠHand":1198,"die":1199,"24":1200,"zent":1201,"under":1202,"Ġlei":1203,"Ġselbst":1204,"ĠWie":1205,"ĠMan":1206,"aum":1207,"scher":1208,"sicht":1209,"ĠLand":1210,"Ġins":1211,"kon":1212,"luss":1213,"stag":1214,"ĠEx":1215,"ĠLi":1216,"25":1217,"\":":1218,"unter":1219,"mu":1220,"ĠReg":1221,"ĠQu":1222,"zimmer":1223,"ĠÂ»":1224,"99":1225,"ĠUnd":1226,"hrt":1227,"Ġanderen":1228,"Ġjetzt":1229,"ame":1230,"ppe":1231,"gru":1232,"ĠOnline":1233,"ĠDeutschland":1234,"ruck":1235,"05":1236,"fo":1237,"ĠKe":1238,"ffent":1239,"07":1240,"halt":1241,"ign":1242,"Ġetwas":1243,"03":1244,"Ġbie":1245,"Ġte":1246,"iv":1247,"Ġkosten":1248,"hau":1249,"ommt":1250,"Ġ11":1251,"haus":1252,"od":1253,"ĠWer":1254,"bild":1255,"06":1256,"ĠDaten":1257,"Ġob":1258,"ĠRa":1259,"zie":1260,"nden":1261,"Ich":1262,"ald":1263,"ystem":1264,"ĠHau":1265,"04":1266,"Ġgeht":1267,"Ġwurden":1268,"Ma":1269,"sehen":1270,"Ġbeste":1271,"Ġeinge":1272,"amil":1273,"Ġlo":1274,"eitung":1275,"ph":1276,"ĠJahre":1277,"fte":1278,"tter":1279,"Ġex":1280,"ĠY":1281,"fel":1282,"arte":1283,"lus":1284,"Ġviele":1285,"ĠInter":1286,"Ġx":1287,"inter":1288,"rage":1289,"bil":1290,"ĠJahren":1291,"wor":1292,"licher":1293,"ou":1294,"ĠGesch":1295,"von":1296,"orf":1297,"08":1298,"ĠPa":1299,"eister":1300,"ĠTeil":1301,"halb":1302,"ĠWelt":1303,"wir":1304,"gang":1305,"oto":1306,"Ġ=":1307,"02":1308,"keiten":1309,"Ġmeine":1310,"Ġmachen":1311,"stellung":1312,"ĠMenschen":1313,"AN":1314,"Ġseit":1315,"ian":1316,"Ġdamit":1317,"innen":1318,"Ġzwischen":1319,"ĠGrund":1320,"auer":1321,"rauen":1322,"ĠTi":1323,"undes":1324,"Ġschne":1325,"09":1326,"illi":1327,"ischer":1328,"Ġscho":1329,"ĠMus":1330,"nit":1331,"wo":1332,"Ġ2018":1333,"Ġdoch":1334,"rechen":1335,"ĠPf":1336,"ĠKom":1337,"teg":1338,"ĠEuro":1339,"CH":1340,"mittel":1341,"ĠBild":1342,"Se":1343,"Ne":1344,"ander":1345,"Ġ.":1346,"eld":1347,"geben":1348,"Ġr":1349,"Pro":1350,"ĠWohn":1351,"heim":1352,"ĠStra":1353,"ndig":1354,"Ġ...":1355,"âĢĵ":1356,"artner":1357,"gleich":1358,"annt":1359,"do":1360,"....":1361,"Ġro":1362,"ktiv":1363,"recht":1364,"ĠUS":1365,"Ġwaren":1366,"alita":1367,"Ġbeg":1368,"oli":1369,"kla":1370,"licht":1371,"Ġ+":1372,"our":1373,"que":1374,"hm":1375,"genen":1376,"llt":1377,"ina":1378,"kommen":1379,"ure":1380,"lagen":1381,"Ġwo":1382,"Ġalles":1383,"arbei":1384,"gebo":1385,"ieler":1386,"tschaft":1387,"tag":1388,"Ġerst":1389,"rom":1390,"ĠInform":1391,"chten":1392,"ĠAp":1393,"ĠAm":1394,"ĠVers":1395,"ca":1396,"Te":1397,"zahl":1398,"Ġ25":1399,"ĠFlu":1400,"ckt":1401,"reichen":1402,"ppen":1403,"ges":1404,"ĠPreis":1405,"ĠX":1406,"bru":1407,"Ġ30":1408,"Ġfol":1409,"amp":1410,"23":1411,"ling":1412,"ĠBau":1413,"ktuel":1414,"Ġsollte":1415,"tze":1416,"ĠZe":1417,"Ġ24":1418,"stimm":1419,"Ġ2017":1420,"bie":1421,"rde":1422,"ĠPar":1423,"olz":1424,"rlich":1425,"Ġkm":1426,"schutz":1427,"alis":1428,"nger":1429,"ĠJa":1430,"warz":1431,"Ġdenn":1432,"Ġsiche":1433,"mar":1434,"ĠHaus":1435,"Ġwelche":1436,"Sp":1437,"bung":1438,"ĠIhnen":1439,"Ġersten":1440,"inen":1441,"ĠAnt":1442,"ierten":1443,"Ġbereits":1444,"Ġwill":1445,"nge":1446,"als":1447,"ls":1448,"kun":1449,"Ġdieses":1450,"iner":1451,"Ġzei":1452,"ĠGew":1453,"26":1454,"ĠUnternehmen":1455,"vice":1456,"Ġnun":1457,"hrung":1458,"Ġli":1459,"are":1460,"ĠFrei":1461,"Ġeben":1462,"ring":1463,"ry":1464,"fahren":1465,"mus":1466,"ile":1467,"rad":1468,"wort":1469,"ĠSti":1470,"ril":1471,"werk":1472,"kten":1473,"Ġ2019":1474,"Ġrich":1475,"Ġseiner":1476,"dig":1477,"ĠFahr":1478,"ance":1479,"orden":1480,"hop":1481,"Ġdrei":1482,"Ġwich":1483,"dung":1484,"hand":1485,"Ġandere":1486,"ĠFre":1487,"Ġbin":1488,"28":1489,"Ġdabei":1490,"78":1491,"schiede":1492,"gent":1493,"Un":1494,"sent":1495,"ĠDes":1496,"Ġletz":1497,"Ġku":1498,"ly":1499,"ity":1500,"Ġnie":1501,"unktion":1502,"Ġspa":1503,"Ġzuru":1504,"ilm":1505,"stellen":1506,"Ġcm":1507,"gar":1508,"own":1509,"Ġaller":1510,"unkt":1511,"nte":1512,"ĠPra":1513,"lein":1514,"45":1515,"glie":1516,"zin":1517,"cks":1518,"resse":1519,"www":1520,"Ġ100":1521,"Mit":1522,"Ho":1523,"27":1524,"reise":1525,"raus":1526,"Ġsondern":1527,"ĠTag":1528,"Ġlassen":1529,"ds":1530,"hrend":1531,"Ġ21":1532,"raum":1533,"ĠTh":1534,"ys":1535,"ĠNeu":1536,"Ġ199":1537,"opa":1538,"rum":1539,"ium":1540,"lat":1541,"asse":1542,"Ġis":1543,"Le":1544,"Ġ2016":1545,"ans":1546,"gie":1547,"up":1548,"Ġta":1549,"Ġgesch":1550,"Ġsa":1551,"sammen":1552,"ip":1553,"igkeit":1554,"yp":1555,"hlt":1556,"Ġ23":1557,"ĠBil":1558,"ĠPla":1559,"Er":1560,"Ġalso":1561,"stad":1562,"Ġheute":1563,"Ġzusammen":1564,"__":1565,"ĠArbeit":1566,"ĠWasser":1567,"29":1568,"kel":1569,"ĠLin":1570,"ange":1571,"ĠGa":1572,"rand":1573,"alten":1574,"Me":1575,"ĠIhr":1576,"lex":1577,"doch":1578,"old":1579,"fang":1580,"lekt":1581,"ĠSer":1582,"rech":1583,"Ġlan":1584,"urz":1585,"Ġneuen":1586,"Ġkaufen":1587,"Wir":1588,"zeu":1589,"pte":1590,"Ġbeson":1591,"ations":1592,"ĠSeite":1593,"folg":1594,"tellen":1595,"kunft":1596,"He":1597,"xt":1598,"brau":1599,"frei":1600,"Ġ22":1601,"ĠBerlin":1602,"osit":1603,"sung":1604,"ara":1605,"ĠFin":1606,"ĠUr":1607,"za":1608,"ĠTest":1609,"ĠArtikel":1610,"Ġkommt":1611,"zeug":1612,"ĠGo":1613,"ive":1614,"Ġkommen":1615,"ĠJun":1616,"Ġgef":1617,"Ġsag":1618,"schrei":1619,"nung":1620,"spra":1621,"ĠZus":1622,"49":1623,"ĠAd":1624,"ative":1625,"ĠPoli":1626,"ritt":1627,"Ġy":1628,"ĠKunden":1629,"nisse":1630,"21":1631,"nahme":1632,"ĠJan":1633,"sst":1634,"ĠBuch":1635,"Ġunsere":1636,"ogra":1637,"ball":1638,"unst":1639,"ĠWenn":1640,"Ġwirk":1641,"arm":1642,"ndet":1643,"ĠEine":1644,"wend":1645,"Ġor":1646,"ringen":1647,"Ġsta":1648,"ies":1649,"40":1650,"zw":1651,"stalt":1652,"hin":1653,"ĠSport":1654,"nf":1655,"Ġgu":1656,"Ġdazu":1657,"isten":1658,"schlie":1659,"Ġverb":1660,"va":1661,"schluss":1662,"rade":1663,"pla":1664,"ĠBundes":1665,"spru":1666,"Ġjedoch":1667,"ĠFamil":1668,"itte":1669,"setzt":1670,"gabe":1671,"stadt":1672,"samt":1673,"kto":1674,"uren":1675,"chs":1676,"ammen":1677,"ilfe":1678,"Ġgeho":1679,"auen":1680,"Ġkein":1681,"ĠTage":1682,"ĠDiese":1683,"35":1684,"ĠOrt":1685,"ĠRecht":1686,"vo":1687,"htt":1688,"Ġ50":1689,"Ġhoch":1690,"Ġch":1691,"ĠAll":1692,"gri":1693,"schaften":1694,"Ġdiesen":1695,"ell":1696,"Ġweil":1697,"ws":1698,"fs":1699,"36":1700,"sell":1701,"falls":1702,"ĠCon":1703,"ĠBewert":1704,"Ġsteht":1705,"grund":1706,"ĠHoch":1707,"Ġspielen":1708,"Ġ*":1709,"Ġdire":1710,"inde":1711,"Ġverschiede":1712,"ĠKar":1713,"legen":1714,"ĠAuch":1715,"ĠProble":1716,"ST":1717,"alen":1718,"ommer":1719,"Ġ2015":1720,"ix":1721,"38":1722,"Ġbesten":1723,"kauf":1724,"ĠArt":1725,"zug":1726,"fon":1727,"pti":1728,"ĠGra":1729,"alle":1730,"âĢľ,":1731,"forder":1732,"Ar":1733,"ommun":1734,"ande":1735,"allen":1736,"Ġgleich":1737,"Ġke":1738,"ware":1739,"Ġze":1740,"einen":1741,"spro":1742,"ters":1743,"nach":1744,"Ġpa":1745,"ĠKre":1746,"Ġaufge":1747,"ĠGu":1748,"jekt":1749,"steller":1750,"sh":1751,"renz":1752,"Ġabge":1753,"ĠChr":1754,"âĢĿ":1755,"gramm":1756,"stau":1757,"opf":1758,"org":1759,"Ġnatu":1760,"Ġra":1761,"ssel":1762,"!!":1763,"utschein":1764,"Ġihrer":1765,"ĠPh":1766,"asst":1767,"berei":1768,"Im":1769,"ingen":1770,"con":1771,"Sie":1772,"AR":1773,"zeigen":1774,"ummer":1775,"dee":1776,"load":1777,"ĠFo":1778,"trag":1779,"fort":1780,"ĠMai":1781,"Ġgute":1782,"ĠBeit":1783,"rik":1784,"stung":1785,"feld":1786,"ĠDamen":1787,"Ġca":1788,"80":1789,"sprechen":1790,"ĠOber":1791,"Fu":1792,"amm":1793,"dia":1794,"Ġlang":1795,"andel":1796,"raft":1797,"Ġliegt":1798,"dorf":1799,"ĠFall":1800,"ĠEnde":1801,"Ġgem":1802,"ton":1803,"Ġ%":1804,"sonen":1805,"Ġat":1806,"Ġblei":1807,"ĠDurch":1808,"60":1809,"Ġallem":1810,"ĠStand":1811,"ĠInformationen":1812,"iell":1813,"ON":1814,"Ġcasino":1815,"orgen":1816,"iet":1817,"tigt":1818,"ĠJuli":1819,"walt":1820,"Ġmus":1821,"urt":1822,"Ġunserer":1823,"Ġihn":1824,"EL":1825,"chnik":1826,"Ġâ":1827,"Ġseinen":1828,"ĠgroÃŁe":1829,"ĠCasino":1830,").<":1831,"log":1832,"ĠGemein":1833,"Ġdort":1834,"Ġhei":1835,"achten":1836,"gene":1837,"Ġgar":1838,"takt":1839,"Ġerste":1840,"stru":1841,"Ġfa":1842,"terial":1843,"stein":1844,"33":1845,"mbH":1846,"Ġpra":1847,"Ġeinmal":1848,"Ġfre":1849,"ĠUni":1850,"Ġkostenlos":1851,"rne":1852,"iss":1853,"ĠMann":1854,"vent":1855,"dings":1856,"Ġfrei":1857,"bach":1858,"Ġdir":1859,"Ġschnell":1860,"Ġihren":1861,"ÃŁt":1862,"rger":1863,"ĠWeb":1864,"Ġweitere":1865,"Ġwirklich":1866,"ĠAber":1867,"kehr":1868,"95":1869,"Ġsehen":1870,"ĠHier":1871,"weg":1872,"ligen":1873,"ĠHei":1874,"bei":1875,"reit":1876,"gebot":1877,",<":1878,"gebote":1879,"arbeiten":1880,"tisch":1881,"orn":1882,"hof":1883,"lick":1884,"ĠFar":1885,"Ġjeder":1886,"uar":1887,"ĠGeld":1888,"Ġtra":1889,"Ġemp":1890,"ĠTu":1891,"Ġeinige":1892,"ĠEl":1893,"Es":1894,"90":1895,"ket":1896,"Ġdies":1897,"Ġmacht":1898,"icherheit":1899,"Ġ>":1900,"buch":1901,"riv":1902,"ĠAuto":1903,"ĠGmbH":1904,"rig":1905,"gaben":1906,"rift":1907,"Ġfolgen":1908,"Aus":1909,"ider":1910,"lar":1911,"hrer":1912,"Ġbietet":1913,"ĠApp":1914,"2017":1915,"such":1916,"Ġsol":1917,"Ġbzw":1918,"Ġth":1919,"Ġlau":1920,"34":1921,"ternation":1922,"Ġ2014":1923,"lassi":1924,"ahlen":1925,"ari":1926,"ĠSto":1927,"schied":1928,"nu":1929,"Ġverwe":1930,"Ġall":1931,"Mo":1932,"IT":1933,"ction":1934,"Ġaktuel":1935,"nitt":1936,"rien":1937,"ĠMehr":1938,"dere":1939,">âĢ":1940,"iere":1941,"zeich":1942,"ĠJuni":1943,"75":1944,"olf":1945,"Ġfest":1946,"ĠEUR":1947,"wicklung":1948,"ĠThema":1949,"tal":1950,"Ġges":1951,"Ġerhalten":1952,"ĠKir":1953,"ĠLebens":1954,"Ġbo":1955,"gust":1956,"ĠVide":1957,"chst":1958,"ubli":1959,"fern":1960,"arbeit":1961,"ĠSchul":1962,"Ġ28":1963,"ĠFrauen":1964,"ĠArbeits":1965,"laub":1966,"pel":1967,"lasse":1968,"Ġ2013":1969,"ĠDeut":1970,"wahl":1971,"ister":1972,"Ġ26":1973,"âĢĻ":1974,"ĠFrank":1975,"ats":1976,"po":1977,"Ġrecht":1978,"ĠKunst":1979,"ES":1980,"48":1981,"utter":1982,"Ġnichts":1983,"Ġkomp":1984,"AT":1985,"Ġhtt":1986,"ologie":1987,"Ġ'":1988,"ĠProdukt":1989,"the":1990,"ĠAugust":1991,"\"<":1992,"ĠVerb":1993,"ĠMal":1994,"hler":1995,"lege":1996,"\",\"":1997,"rist":1998,"isk":1999,"spe":2000,"rper":2001,"ĠGescha":2002,"reg":2003,"Ġkonnte":2004,"lauf":2005,"ath":2006,"ĠTer":2007,"2016":2008,"nehmer":2009,"ĠPerson":2010,"ĠHu":2011,"ptember":2012,"urs":2013,"So":2014,"Ġgest":2015,"Ġstehen":2016,"sellschaft":2017,"Ġmein":2018,"37":2019,"nig":2020,"39":2021,"ater":2022,"yer":2023,"sport":2024,"ĠKosten":2025,"eie":2026,"ĠSel":2027,"55":2028,"Ġallen":2029,"ĠSchw":2030,"Fe":2031,"ĠVol":2032,"Ġ27":2033,"ktober":2034,"itzen":2035,"46":2036,"Ġstatt":2037,"ktionen":2038,"Ġru":2039,"Ġ01":2040,"otor":2041,"rung":2042,"sterreich":2043,"ĠPlatz":2044,"ĠFru":2045,"2019":2046,"andes":2047,"OR":2048,"ĠDien":2049,"ownload":2050,"fre":2051,"hei":2052,"Ġihm":2053,"Ġetwa":2054,"wand":2055,"Ġdirekt":2056,"ator":2057,"teile":2058,"xe":2059,"Ġletzten":2060,"reiche":2061,"Ġtro":2062,"ĠOb":2063,"schein":2064,"ĠDi":2065,"latt":2066,"ĠSy":2067,"ital":2068,"ĠâĢľ":2069,"ĠFol":2070,"Ġno":2071,"ED":2072,"flu":2073,"Ġgan":2074,"ĠNie":2075,"Ġrund":2076,"ĠInternet":2077,"fla":2078,".,":2079,"ĠSpe":2080,"stens":2081,"teress":2082,"ns":2083,"punkt":2084,"Ġ198":2085,"wu":2086,"Da":2087,"tische":2088,"ĠBilder":2089,"Nach":2090,"ĠSeptember":2091,"Ġ2012":2092,"lang":2093,"ĠScha":2094,"bend":2095,"utzen":2096,"ith":2097,"ĠHal":2098,"Ġspe":2099,"vember":2100,"Ġfru":2101,"Ġbrau":2102,"Ġgerade":2103,"ativ":2104,"Ġwohl":2105,"eicht":2106,"ĠJo":2107,"uter":2108,"ĠJanuar":2109,"ĠZusammen":2110,"chsel":2111,"bert":2112,"wohl":2113,"ltur":2114,"nergie":2115,"Ġverfu":2116,"ĠHam":2117,"liches":2118,"itu":2119,"ĠMilli":2120,"ĠApril":2121,"bildung":2122,"Ġjeden":2123,"ĠOktober":2124,"AL":2125,"ĠBro":2126,"leg":2127,"Ġvoll":2128,"Ġdafu":2129,"Ġsicher":2130,"2018":2131,"sol":2132,"ala":2133,"stehen":2134,"ĠHaupt":2135,"ĠBon":2136,"ĠZimmer":2137,"Â»":2138,"tail":2139,"legt":2140,"Ġkleine":2141,"stoff":2142,"ĠBru":2143,"ĠWoche":2144,"ktur":2145,"ichten":2146,"hmen":2147,"nnte":2148,"US":2149,"Ġseinem":2150,"elle":2151,"bi":2152,"AS":2153,"ĠMode":2154,"lichkeit":2155,"trieb":2156,"ielt":2157,"Ġbeiden":2158,"'s":2159,"ĠSam":2160,"Ġgeben":2161,"ĠAnd":2162,"Ġmm":2163,"44":2164,"gestellt":2165,"ĠSchwei":2166,"ĠFach":2167,"hol":2168,"bin":2169,"ĠFran":2170,"ĠKomment":2171,"ganis":2172,"weit":2173,"orie":2174,"use":2175,"rder":2176,"ĠFrage":2177,"ĠSpa":2178,"spiele":2179,"Ġco":2180,"zon":2181,"ĠFuÃŁ":2182,"Ġdi":2183,"Ġ29":2184,"tzlich":2185,"nchen":2186,"ĠChe":2187,"ĠVon":2188,"ĠNovember":2189,"Ġwollen":2190,"Ġoft":2191,"bruar":2192,"Ġwenig":2193,"auft":2194,"welt":2195,"unt":2196,"ĠSk":2197,"ĠWeg":2198,"]<":2199,"ĠGarten":2200,"Ġby":2201,"ĠMitglie":2202,"lefon":2203,"Ġteil":2204,"nner":2205,"ars":2206,"ĠForm":2207,"ielleicht":2208,"platz":2209,"Wie":2210,"ude":2211,"zept":2212,"ĠReise":2213,"es":2214,"Ġ...<":2215,"IS":2216,"70":2217,"othe":2218,"vie":2219,"druck":2220,"par":2221,"fan":2222,"ĠMittel":2223,"ĠMusik":2224,"Ġneu":2225,"Ġscha":2226,"gem":2227,"Ġvielen":2228,"sy":2229,"Ġdenen":2230,"ĠEn":2231,"ĠTeam":2232,"31":2233,"ĠNatur":2234,"Ġgerne":2235,"mes":2236,"Ġdich":2237,"ĠProzent":2238,"Auf":2239,"zember":2240,"laf":2241,"lose":2242,"mente":2243,"ĠHerren":2244,"Bei":2245,"ĠWor":2246,"ĠAlle":2247,"wach":2248,"pra":2249,"alter":2250,"66":2251,"Ġ40":2252,"book":2253,"uen":2254,"Ġwichtig":2255,"zt":2256,"ust":2257,"ĠFilm":2258,"ib":2259,"zig":2260,"ott":2261,"The":2262,"dent":2263,"ĠVersand":2264,"statt":2265,"Ġir":2266,"Ġgehen":2267,"Ba":2268,"Vor":2269,"ana":2270,"fts":2271,"Bo":2272,"ĠFebruar":2273,"ĠDar":2274,"igung":2275,"ngli":2276,"ĠVerein":2277,"issenschaft":2278,"sucht":2279,"plan":2280,"Ġkom":2281,"47":2282,"Ġpo":2283,"ahmen":2284,"Ġunbe":2285,"sie":2286,"ĠAls":2287,"ĠÐ":2288,"gro":2289,"ĠRad":2290,"schuhe":2291,">-":2292,"Pe":2293,"fest":2294,"Â«":2295,"tigkeit":2296,"mals":2297,"arbeiter":2298,"ĠSeiten":2299,"ĠGegen":2300,"ĠFlug":2301,"Ġvier":2302,"ĠBeru":2303,"kor":2304,"gera":2305,"leben":2306,"Al":2307,"Ġlange":2308,"meld":2309,"hu":2310,"una":2311,"ĠDezember":2312,"dar":2313,"Ġdarauf":2314,"kre":2315,"ĠBi":2316,"dio":2317,"rs":2318,"ĠII":2319,"gegen":2320,">#":2321,"Ġgemacht":2322,"ĠweiÃŁ":2323,"ĠPartner":2324,"meister":2325,"ĠDo":2326,"setzung":2327,"ĠWind":2328,"ĠUnivers":2329,"ĠBeispiel":2330,"ĠBad":2331,"Ġgenau":2332,"ĠGroÃŁ":2333,"Ġrei":2334,"ĠErfahr":2335,"ĠChrist":2336,"Ġgemein":2337,"tage":2338,"gemein":2339,"32":2340,"ins":2341,"ĠBar":2342,"ison":2343,"ĠKat":2344,"ĠBl":2345,"ĠWerk":2346,"ĠgroÃŁen":2347,"âĢľ<":2348,"links":2349,"hle":2350,"ilt":2351,"65":2352,"anden":2353,"ĠDen":2354,"verb":2355,"see":2356,"go":2357,"ĠSpiele":2358,"ĠFir":2359,"chnung":2360,"wesen":2361,"ak":2362,"=\"":2363,"ĠIdee":2364,"ried":2365,"glichkeit":2366,"ĠGes":2367,"lesen":2368,"ĠQualita":2369,"Ġsogar":2370,"ĠKlei":2371,"ĠFrau":2372,"Ġbestimm":2373,"ln":2374,"Ġ2011":2375,"geber":2376,"ffiz":2377,"Ġbesonders":2378,"fiz":2379,"ĠFot":2380,"Ġbesser":2381,"ud":2382,"stet":2383,"Ġbefin":2384,"mon":2385,"vel":2386,"laden":2387,"rigen":2388,"inner":2389,"eitere":2390,"Ġbieten":2391,"zieh":2392,"ĠBereich":2393,"Ġgeb":2394,"ĠDesign":2395,"ĠJugend":2396,"ĠKap":2397,"undheit":2398,"ram":2399,"ĠSicherheit":2400,"ĠHin":2401,"lieb":2402,"anken":2403,"ĠCar":2404,".:":2405,"ĠPersonen":2406,"ĠGeschichte":2407,"Wenn":2408,"ĠWu":2409,"ĠTran":2410,"ĠEuropa":2411,"ĠRegel":2412,"hone":2413,"Ab":2414,"able":2415,"Ġeigenen":2416,"nahmen":2417,"reiben":2418,"ĠScho":2419,"anke":2420,"ĠauÃŁer":2421,"ĠÂ·":2422,"Ġmehre":2423,"Ġeigent":2424,"ÃŁlich":2425,"ĠFoto":2426,"Ġdavon":2427,"ĠPat":2428,"ndern":2429,"eig":2430,"scht":2431,"schnitt":2432,",\"":2433,"Ġerfolg":2434,"klei":2435,"ĠTre":2436,"fik":2437,"port":2438,"ĠFest":2439,"ĠTop":2440,"ktor":2441,"ĠKauf":2442,"Ġdeine":2443,"one":2444,"pps":2445,"voll":2446,"tem":2447,"ĠIS":2448,"lossen":2449,"Was":2450,"chsten":2451,"ĠMarkt":2452,"Alle":2453,"fil":2454,"lack":2455,"ed":2456,"utzer":2457,"rieben":2458,"Ġfast":2459,"Ġgab":2460,"ĠSommer":2461,"richten":2462,"ĠIhren":2463,"straÃŁe":2464,"Ġar":2465,">(":2466,"ption":2467,"Ġinteress":2468,"ĠBas":2469,"heiten":2470,"Ġkannst":2471,"unk":2472,"ĠSal":2473,"ings":2474,"ĠSh":2475,"dition":2476,"ĠHolz":2477,"ftware":2478,"ĠSee":2479,"suchen":2480,"ata":2481,"zial":2482,"58":2483,"Mail":2484,");":2485,"ĠMein":2486,"setzen":2487,"bereich":2488,"ĠMag":2489,"Ġ2010":2490,"Ġqu":2491,"ĠBewertungen":2492,"Ġbesch":2493,"Mar":2494,"ĠErgeb":2495,"Ġzie":2496,"ĠSchwarz":2497,"ĠBen":2498,"glichkeiten":2499,"ĠVerfu":2500,"68":2501,"Zu":2502,"beho":2503,"gehen":2504,"rische":2505,"Ġeuch":2506,"Ġkam":2507,"annte":2508,"Ġsollten":2509,"ĠFragen":2510,"hein":2511,"77":2512,"seite":2513,"Ġallerdings":2514,"bare":2515,"reifen":2516,"worten":2517,"Ġhel":2518,"urn":2519,"Ad":2520,"UN":2521,"\":\"":2522,"ĠKomp":2523,"ĠProblem":2524,"hunder":2525,"ris":2526,"indung":2527,"anstalt":2528,"----":2529,"igh":2530,"kosten":2531,"schule":2532,"Ġjewei":2533,"ĠDr":2534,"lass":2535,"ionen":2536,"ĠStart":2537,"site":2538,"bern":2539,"ndlich":2540,"ĠService":2541,"):":2542,"ĠCe":2543,"Ġentsprechen":2544,"Ġen":2545,"irt":2546,"Ġgel":2547,"tzung":2548,"fft":2549,"meldung":2550,"Ko":2551,"Ġentwick":2552,"spieler":2553,"Ġsti":2554,"lam":2555,"ĠIhrer":2556,"sor":2557,"ĠBel":2558,"scho":2559,"59":2560,"Ġunseren":2561,"Ġzwar":2562,"43":2563,"Ġrichtig":2564,"wagen":2565,"Ġfindet":2566,"ĠEigen":2567,"dru":2568,"ĠSan":2569,"ĠBand":2570,"ĠWinter":2571,"ĠHotels":2572,"ĠZahl":2573,"istor":2574,"annten":2575,"ĠGer":2576,"Ġcon":2577,"cm":2578,"nster":2579,"56":2580,"Am":2581,"win":2582,"ollte":2583,"Ġanzeigen":2584,"Ġaut":2585,"agement":2586,"ĠEinsatz":2587,"str":2588,"ĠSchne":2589,"lor":2590,"Ġperso":2591,"ĠZiel":2592,"mlich":2593,"weis":2594,"BN":2595,"ĠRahmen":2596,"Ġverm":2597,"ĠTro":2598,"ffer":2599,"omaten":2600,"ore":2601,"vol":2602,"suche":2603,"Ġ09":2604,"ille":2605,"ĠAma":2606,"Ġheraus":2607,"unkte":2608,"Nr":2609,"ĠMinuten":2610,"omati":2611,"blick":2612,"masch":2613,"**":2614,"ziel":2615,"Ġhatten":2616,"tho":2617,"ums":2618,"mand":2619,"Ġtun":2620,"stauran":2621,"ĠNetz":2622,"aly":2623,"Ġworden":2624,"ĠArch":2625,"Ġwith":2626,"eist":2627,"http":2628,"stit":2629,"ĠGera":2630,"ĠSc":2631,"Ġgilt":2632,"icherung":2633,"ET":2634,"ĠGlu":2635,"Ġpaar":2636,"daten":2637,"ĠWirtschaft":2638,"ĠSpieler":2639,"Ġ$":2640,"Ġunterschied":2641,"ĠVo":2642,"ĠGr":2643,"stie":2644,"100":2645,"spa":2646,"furt":2647,"Ja":2648,"ĠNord":2649,"vis":2650,"ike":2651,"ĠVideo":2652,"Ġhinter":2653,"schlag":2654,"utt":2655,"nnt":2656,"ĠZwei":2657,"Su":2658,"tels":2659,"Ġnot":2660,"Je":2661,"57":2662,"ingle":2663,"Ġ08":2664,"ĠBus":2665,"ĠAngebot":2666,"tigung":2667,"iegel":2668,"dienst":2669,"Ġbede":2670,"ione":2671,"ĠProdukte":2672,"tiger":2673,"stelle":2674,"ĠCa":2675,"oo":2676,"gefu":2677,"ampf":2678,"teilung":2679,"ffentlicht":2680,"ĠMas":2681,"fess":2682,"ĠGast":2683,"kra":2684,"ĠJahrhunder":2685,">\"":2686,"Ġebenfalls":2687,"Ġunserem":2688,"zess":2689,"Ġglei":2690,"Ġ60":2691,"98":2692,"DF":2693,"rte":2694,"fung":2695,"ĠSpra":2696,"Ġderen":2697,">âĢŀ":2698,"rden":2699,"ĠComp":2700,"Ġka":2701,"ĠGar":2702,"liegen":2703,"ĠBeitrag":2704,"ice":2705,"nten":2706,"ogle":2707,"Ġerkla":2708,"rent":2709,"Ġba":2710,"arbeitet":2711,"itze":2712,"Ġmeiner":2713,"yn":2714,"Ġweniger":2715,"Ìĥ":2716,"ĠEnergie":2717,"ĠZum":2718,"Kon":2719,"Ġbekommen":2720,"ĠSelbst":2721,"tragen":2722,"stern":2723,"ĠWar":2724,"Ġ2020":2725,"ĠSystem":2726,"Ġperfe":2727,"Ġihrem":2728,"Ġwegen":2729,"Ġneben":2730,"ĠWahl":2731,"rika":2732,"uelle":2733,"EUR":2734,"ows":2735,"genommen":2736,"inal":2737,"ima":2738,"ĠAt":2739,"ĠLandes":2740,"handlung":2741,"Ġsagen":2742,"out":2743,"ID":2744,"ĠBre":2745,"handel":2746,"annen":2747,"42":2748,"Ġkurz":2749,"Ġtre":2750,"tete":2751,"AM":2752,"wendung":2753,"itter":2754,"uz":2755,"ym":2756,"La":2757,"lernen":2758,"mobil":2759,"Ġkleinen":2760,"ĠCas":2761,"ðŁ":2762,"ÌĢ":2763,"griff":2764,"Ġstar":2765,"tic":2766,"Ġsagt":2767,"ink":2768,"scheiden":2769,"Ġyou":2770,"Ġkeinen":2771,"san":2772,"ĠBeg":2773,"achsen":2774,"Ġeigentlich":2775,"ĠTechn":2776,"OS":2777,"ĠTri":2778,"ĠFamilie":2779,"oppel":2780,"ranken":2781,"41":2782,"meter":2783,"ty":2784,"ĠFern":2785,"Ġpassen":2786,"tischen":2787,"Ġentfer":2788,"Web":2789,"Ġinner":2790,"ĠKontakt":2791,"leb":2792,"ĠDenn":2793,"Ġfinde":2794,"get":2795,"Ġ31":2796,"nummer":2797,"hnt":2798,"Eine":2799,"halte":2800,"Ġreg":2801,"ĠâĢ¢":2802,"Ġnehmen":2803,"GB":2804,"ational":2805,"Ġbekannt":2806,"Ġberu":2807,"Ġ(*":2808,"Ġopti":2809,"eint":2810,"leitung":2811,"Ġgutschein":2812,"ames":2813,"Ġweit":2814,"by":2815,"nstig":2816,"mart":2817,"atsa":2818,"76":2819,"Ġunterstu":2820,"stungen":2821,"besser":2822,"Ġ2009":2823,"Ġhast":2824,"ichtung":2825,"omit":2826,"kreis":2827,"ĠShop":2828,"ĠBlick":2829,"Ġleben":2830,"lte":2831,"ĠPol":2832,"ĠDis":2833,"antwort":2834,"isches":2835,"ilita":2836,"Ġkur":2837,"gew":2838,"schung":2839,"rap":2840,"ĠRaum":2841,"Ġverschiedenen":2842,"ĠKli":2843,"ond":2844,"ĠStunden":2845,"ĠWochen":2846,"ĠNr":2847,"iste":2848,"glichen":2849,"bahn":2850,"ĠJahres":2851,"deut":2852,"lett":2853,"Ġzusa":2854,"ama":2855,"Ġhab":2856,"Ġwww":2857,"Ġsieht":2858,"Ġzeigt":2859,"Ġleicht":2860,"ĠBlu":2861,"ments":2862,"Ġbil":2863,"2015":2864,"gesamt":2865,"jahr":2866,"ĠGel":2867,"Ġversch":2868,"ĠHilfe":2869,"ĠgroÃŁ":2870,"iker":2871,"ĠNamen":2872,"ĠElekt":2873,"ĠKra":2874,"hel":2875,"ĠNor":2876,"ĠWel":2877,"ong":2878,"Ġeher":2879,"ĠDies":2880,"ight":2881,"Ha":2882,"Ġindi":2883,"kung":2884,"nz":2885,"79":2886,"Ġschwarz":2887,"ĠProjekt":2888,"Ġwissen":2889,"user":2890,"ĠEinzel":2891,"ĠLuft":2892,"chste":2893,"oph":2894,"Ro":2895,"raten":2896,"Ð¾":2897,"ĠVergleich":2898,"ots":2899,"Ġunser":2900,"oku":2901,"ĠMotor":2902,"lub":2903,"aby":2904,"ĠSchuhe":2905,"Ġverk":2906,"pru":2907,"ĠNicht":2908,"dizin":2909,"OL":2910,"ches":2911,"88":2912,"racht":2913,"sweise":2914,"arbeitung":2915,"arch":2916,"einer":2917,"Ġdaher":2918,"ĠMich":2919,"ĠCor":2920,"frage":2921,"teilen":2922,"ĠNeue":2923,"ĠRegion":2924,"ograf":2925,"Ġstellen":2926,"ĠMaterial":2927,"ras":2928,"Ġsagte":2929,"iges":2930,"ĠNew":2931,"ĠAngebote":2932,"schreibung":2933,"Ġgru":2934,"ĠSP":2935,"ĠEU":2936,"Ġpla":2937,"bank":2938,"vidu":2939,"Ġgesam":2940,"tu":2941,"das":2942,"stellungen":2943,"lige":2944,"ĠForum":2945,"lingen":2946,"benen":2947,"ĠFil":2948,"ĠSol":2949,"zeichnet":2950,"utzt":2951,"treten":2952,"ĠGemeinde":2953,"Ġeinzel":2954,"Ġsofort":2955,"Ġdeutschen":2956,"haupt":2957,"mme":2958,"rieden":2959,"Ġhil":2960,"Ġnor":2961,"Ġtrotz":2962,"Ġfunktion":2963,"ml":2964,"ĠGen":2965,"ness":2966,"raun":2967,"sbe":2968,"ric":2969,"ume":2970,"ted":2971,"ĠWert":2972,"baren":2973,"ĠBur":2974,"ntag":2975,"Ġirgend":2976,"69":2977,"teratur":2978,"ktive":2979,"ĠSil":2980,"ĠPau":2981,"ĠDoch":2982,"ĠAnge":2983,"ĠFamilien":2984,"agt":2985,"ĠMitarbeiter":2986,"Ġvielleicht":2987,"ĠÂ«":2988,"ahrer":2989,"54":2990,".-":2991,"Ðµ":2992,"ĠHel":2993,"Ġas":2994,"??":2995,"ĠProgramm":2996,"Ġsollen":2997,"rischen":2998,"kom":2999,"markt":3000,"ĠAmazon":3001,"letzt":3002,"Ġzahl":3003,"rikan":3004,"ĠRom":3005,"Ġwerde":3006,"mitt":3007,"tails":3008,"ÃŁig":3009,"ĠDienst":3010,"RE":3011,"ĠPark":3012,"ĠLage":3013,"ahre":3014,"hausen":3015,"ufer":3016,"nter":3017,"duz":3018,"stre":3019,"Ġschle":3020,"ci":3021,"hi":3022,"int":3023,"ĠNieder":3024,"IC":3025,"ismus":3026,"Ġhttp":3027,"mie":3028,"uropa":3029,"ĠAuft":3030,"dy":3031,"Ð°":3032,"ona":3033,"ĠLicht":3034,"schla":3035,"ĠIhrem":3036,"Ġmeisten":3037,"unge":3038,"Ġ2008":3039,"fi":3040,"ĠBal":3041,"ĠKlein":3042,"dium":3043,"ĠHamburg":3044,"ĠâĢĶ":3045,"ĠMillionen":3046,"llig":3047,"Ġihnen":3048,"tent":3049,"sere":3050,"Ġ=>":3051,"ĠHandel":3052,"ublik":3053,"ĠEmp":3054,"Ġfree":3055,"ĠSlo":3056,"richtung":3057,"ĠNacht":3058,"IL":3059,"Ġsuchen":3060,"Ġbitte":3061,"ĠEntwicklung":3062,"nehm":3063,"Ġinnerhalb":3064,"ĠGesundheit":3065,"https":3066,"osition":3067,"ĠKultur":3068,"ĠInf":3069,"ĠIs":3070,"Und":3071,"ĠKopf":3072,"zia":3073,"ĠSter":3074,"Wei":3075,"ĠKur":3076,"bene":3077,"ante":3078,"haft":3079,"fahrt":3080,"atten":3081,"tiv":3082,"Ġkennen":3083,"Ġbesteht":3084,"ufig":3085,"ĠTei":3086,"ĠNews":3087,"ral":3088,"ĠHerz":3089,"wirtschaft":3090,"dingungen":3091,"immt":3092,"ffentlich":3093,"ĠLiefer":3094,"uft":3095,"Ġleider":3096,"2014":3097,"Ġgewa":3098,"ĠInnen":3099,"Ġbes":3100,"Ġerho":3101,"ĠSuche":3102,"fehlen":3103,"ĠÂ§":3104,"Ġdeutlich":3105,"ĠDon":3106,"ĠInte":3107,"andelt":3108,"ĠTour":3109,"ĠKind":3110,"yern":3111,"64":3112,"____":3113,"Ġschlie":3114,"Ġganze":3115,"sych":3116,"2013":3117,"utzung":3118,"Ð¸":3119,"Po":3120,"ĠSchlaf":3121,"ĠPost":3122,"lungs":3123,"bieter":3124,"anten":3125,"Ġink":3126,"anne":3127,"ĠPort":3128,"chlich":3129,"sondere":3130,"fter":3131,"cy":3132,"produ":3133,"Unter":3134,"Ġoffen":3135,"ĠDabei":3136,"iff":3137,"ĠSho":3138,"Ġbleibt":3139,"hig":3140,"ritte":3141,"Ġ07":3142,"Ġwunder":3143,"Ġvo":3144,"ĠDann":3145,"51":3146,"Ġbu":3147,"Â°":3148,"ons":3149,"schrift":3150,"ĠKri":3151,"Um":3152,"ule":3153,"sionen":3154,"ĠBerg":3155,"Ġlu":3156,".)":3157,"wohn":3158,"Ġ;":3159,"ĠHeim":3160,"ael":3161,"ĠAugen":3162,"ĠImp":3163,"2020":3164,"ĠHome":3165,"Ġinternation":3166,"67":3167,"ĠWil":3168,"ĠEi":3169,"53":3170,"glei":3171,"ĠSchutz":3172,"ĠAir":3173,"kur":3174,"ĠLiebe":3175,"chter":3176,"zeuge":3177,"ĠFinanz":3178,"gangen":3179,"ĠTor":3180,"zip":3181,"ĠKin":3182,"ĠKateg":3183,"2012":3184,"OM":3185,"ola":3186,"xis":3187,"52":3188,"Ġmeinen":3189,"ĠFla":3190,"far":3191,"ĠAc":3192,"et":3193,"let":3194,"ilo":3195,"run":3196,"gebung":3197,"preis":3198,"Ġhelfen":3199,"ĠEntschei":3200,"OT":3201,"ichtet":3202,"ĠAuswahl":3203,"ating":3204,"Ġnutzen":3205,"Ġmin":3206,"ĠZei":3207,"anach":3208,"Produ":3209,"Ġliegen":3210,"ief":3211,"Aut":3212,"Ġbest":3213,"Ġhal":3214,"atte":3215,"achte":3216,"Ġschw":3217,"ĠSuper":3218,"Ġbleiben":3219,"Ġ80":3220,"Ġeigene":3221,"hy":3222,"ĠUSA":3223,"Ġweiteren":3224,"Ġging":3225,"For":3226,"ĠThemen":3227,"ierungs":3228,"Ġwahr":3229,"ĠHinter":3230,"ulti":3231,"gbar":3232,"ika":3233,"zus":3234,"ret":3235,"tzte":3236,"ĠAG":3237,"loss":3238,"Ġvero":3239,"ĠAnfang":3240,"ms":3241,"ĠBoden":3242,"ĠDank":3243,"ĠWebsite":3244,"ĠWeiter":3245,"Sa":3246,"zeiten":3247,"weiter":3248,"ĠKn":3249,"ĠBeste":3250,"ĠFarbe":3251,"rivat":3252,"Ġsonst":3253,"ĠSand":3254,"Von":3255,"Ġerwar":3256,"ĠSitz":3257,"ĠPreise":3258,"ĠNu":3259,"ĠISBN":3260,"Ġdarf":3261,"schul":3262,"fasst":3263,"geld":3264,"ĠTitel":3265,"ĠRestauran":3266,"woh":3267,"gte":3268,"Artikel":3269,"ĠâĢķ":3270,"iko":3271,"Ġabsol":3272,"Ġoben":3273,"AP":3274,"telle":3275,"Ġanzu":3276,"weisen":3277,"ĠPart":3278,"dchen":3279,"ĠGold":3280,"gal":3281,"risch":3282,"Li":3283,"Ġgefa":3284,"male":3285,"Ġstellt":3286,"ĠNeben":3287,"ĠZent":3288,"dust":3289,"rieb":3290,"ĠBook":3291,"werb":3292,"rab":3293,"Ġ)":3294,"ucht":3295,"test":3296,"ĠJoh":3297,"inne":3298,"ĠWand":3299,"Lo":3300,"Ġjedem":3301,"IE":3302,"Co":3303,"Ġ{":3304,"rm":3305,"ĠDir":3306,"ĠWeihn":3307,"hard":3308,"Ġeinfa":3309,"ĠZukunft":3310,"ĠFerien":3311,"Ġverschiedene":3312,"Ġschu":3313,"Ġus":3314,"Ġbetra":3315,"ĠLau":3316,"ĠUniversita":3317,"EU":3318,"Ġpoli":3319,"ĠPolizei":3320,"ringt":3321,"Ġgefunden":3322,"wig":3323,"Her":3324,"lungen":3325,"ĠHersteller":3326,"Ġerha":3327,"Ġmoder":3328,"Ġinform":3329,"wehr":3330,"ĠVeranstalt":3331,"inge":3332,"wasser":3333,"ĠdaÃŁ":3334,"AG":3335,"olo":3336,"Ġbeno":3337,"stungs":3338,"wegen":3339,"ĠDownload":3340,"icro":3341,"ograph":3342,"Bu":3343,"Sta":3344,"ndung":3345,"Ġsuper":3346,"ĠPap":3347,"ommunik":3348,"code":3349,"zogen":3350,"lock":3351,"Ġben":3352,"nsch":3353,"Ġdessen":3354,"ĠGesellschaft":3355,"Du":3356,"zahlung":3357,"AC":3358,"bus":3359,"ĠKrie":3360,"ĠAbs":3361,"ratis":3362,"ĠAlt":3363,"Ġinter":3364,"ĠBahn":3365,"ĠSoftware":3366,"assung":3367,"stall":3368,"Ġbevor":3369,"Wer":3370,"Ġmehrere":3371,"ĠDort":3372,"yle":3373,"low":3374,"Ġbook":3375,"hilfe":3376,"ĠWien":3377,"ĠMedien":3378,"amt":3379,"ĠPlan":3380,"Ġgo":3381,"gl":3382,"iti":3383,"Ġti":3384,"alk":3385,"Ġdaru":3386,"reicht":3387,"Ġ90":3388,"ĠBade":3389,"ÌĮ":3390,"ĠHar":3391,"ining":3392,"adurch":3393,"ngen":3394,"view":3395,"ĠRein":3396,"deck":3397,"ĠEltern":3398,"Ġmeinem":3399,"onnen":3400,"ĠSex":3401,"ĠPri":3402,"Ġ06":3403,"ĠFreund":3404,"rd":3405,"ĠGebur":3406,"Ġzeigen":3407,"inos":3408,"ritten":3409,"Ġspiel":3410,"Ġguten":3411,"Ġ00":3412,"Ġhinaus":3413,"set":3414,"Ste":3415,"row":3416,"atung":3417,"ĠAk":3418,"ĠGener":3419,"schieden":3420,"ziehen":3421,"Ġgeeig":3422,"........":3423,"Ġ2007":3424,"Ġwollte":3425,"ork":3426,"cebook":3427,"Ġverwendet":3428,"ory":3429,"DE":3430,"reen":3431,"ĠFotos":3432,"ĠPrin":3433,"orien":3434,"ĠRot":3435,"Lie":3436,"ktu":3437,"kter":3438,"ĠSaison":3439,"sti":3440,"ĠSen":3441,"Ġunge":3442,"ĠCD":3443,"Ġdeutsche":3444,"reisen":3445,"Ġbefindet":3446,"ativen":3447,"ions":3448,"sage":3449,"Ġtechn":3450,"ĠFeuer":3451,"triebs":3452,"gruppe":3453,"Ġlesen":3454,"pg":3455,"âĢľ.":3456,"-,":3457,"Ġ35":3458,"Ġklar":3459,"folge":3460,"ĠDruck":3461,"oren":3462,"89":3463,"Ġhohe":3464,"rst":3465,">[":3466,"ĠEle":3467,"Ġur":3468,"ĠGewinn":3469,"ĠVerkehr":3470,"ĠTagen":3471,"Ġhalten":3472,"ĠTelefon":3473,"Ġad":3474,"cu":3475,"ĠHigh":3476,"sischen":3477,"Ġbet":3478,"ĠWohnung":3479,"Ġmag":3480,"nete":3481,"geln":3482,"stik":3483,"ĠAbend":3484,"ĠGeba":3485,"burger":3486,"Ġmon":3487,"Ġgegenu":3488,"omas":3489,"ĠBewertung":3490,"peri":3491,"Ti":3492,"reitag":3493,"Ġwelt":3494,"ĠSonnen":3495,"ano":3496,"ĠâĤ¬<":3497,"LE":3498,"Ġweg":3499,"ĠStraÃŁe":3500,"tegr":3501,"umen":3502,"ĠZur":3503,"eier":3504,"DR":3505,"Ġbringen":3506,"ĠMat":3507,"ktivita":3508,"igt":3509,"ĠRab":3510,"ĠMaÃŁ":3511,"Ġentfernt":3512,"ĠTV":3513,"Weblinks":3514,"ĠOut":3515,"74":3516,"zeitig":3517,"minister":3518,"plat":3519,"ĠLauf":3520,"ĠPflege":3521,"ĠIdeen":3522,"ĠWein":3523,"nne":3524,"Ġzweiten":3525,"unsch":3526,"schau":3527,"kir":3528,"stat":3529,"rapie":3530,"Ġehe":3531,"Einzel":3532,"siv":3533,"ĠMax":3534,"folgt":3535,"rid":3536,"sident":3537,"darf":3538,"ordnung":3539,"Na":3540,"ĠMerk":3541,"Ġju":3542,"ĠRat":3543,"ÌĤ":3544,"IG":3545,"mmen":3546,"Ġindividu":3547,"ienten":3548,"ĠViel":3549,"nov":3550,"rea":3551,"ndert":3552,"ĠSmart":3553,"ndler":3554,"gern":3555,"isse":3556,"Ġermo":3557,"Wa":3558,"sei":3559,"Ġkre":3560,"ac":3561,"ĠKla":3562,"merk":3563,"Auch":3564,"mobilien":3565,"fit":3566,"ĠPlay":3567,"ĠKraft":3568,"cial":3569,"ĠIst":3570,"Ġbeispiel":3571,"Ġzeit":3572,"asten":3573,"ĠPC":3574,"ĠGutschein":3575,"wohner":3576,"ission":3577,"nglisch":3578,"halts":3579,"Ġhervor":3580,"rf":3581,"ĠGoogle":3582,"ĠOrig":3583,"à¸":3584,"eln":3585,"ĠEssen":3586,"karte":3587,"ĠJob":3588,"Ġeinz":3589,"Ġhandelt":3590,"eiche":3591,"sc":3592,"Ġjede":3593,"ĠÎ":3594,"ĠLog":3595,"auern":3596,"ĠKreis":3597,"Ġkaum":3598,"Ch":3599,"rieren":3600,"lieren":3601,"hend":3602,"iki":3603,"gericht":3604,"auber":3605,"ĠBank":3606,"liga":3607,"ĠHy":3608,"lis":3609,"ĠFried":3610,"zir":3611,"play":3612,"lings":3613,"cess":3614,"ĠNot":3615,"mi":3616,"ĠiP":3617,"ĠWald":3618,"ftung":3619,"ĠSteuer":3620,"Ġentscheiden":3621,"rfen":3622,"OP":3623,"ĠBonus":3624,"met":3625,"tive":3626,"Ku":3627,"reh":3628,"ĠFunktion":3629,"Ġdam":3630,"Ġvorhan":3631,"Ġschwer":3632,"schlu":3633,"Ġ38":3634,"stal":3635,"Ġkla":3636,"ĠWindows":3637,"ĠStre":3638,"Ġsowohl":3639,"ĠKor":3640,"Ġanderem":3641,"eicher":3642,"stattung":3643,"Ent":3644,"ĠKommentare":3645,"72":3646,"2011":3647,"reite":3648,"utet":3649,"mode":3650,"Ġfrom":3651,"Ex":3652,"ĠWeiÃŁ":3653,"Ġempfehlen":3654,"Ġbelieb":3655,"ĠPre":3656,"ĠDeutschen":3657,"ĠDeutsche":3658,"fent":3659,"ĠRolle":3660,"ĠDig":3661,"wus":3662,"ĠStar":3663,"\".":3664,"Ġkonnten":3665,"einander":3666,"alist":3667,"ammer":3668,"rufen":3669,"band":3670,"hrige":3671,"mmer":3672,"verein":3673,"ĠGruppe":3674,"Ġanders":3675,"sische":3676,"teilt":3677,"iser":3678,"ĠGlas":3679,"jpg":3680,"ressen":3681,"fassen":3682,"hrte":3683,"ĠLeder":3684,"Ġza":3685,"ĠSchwe":3686,"hang":3687,"ki":3688,"ssig":3689,"ĠVoll":3690,"ĠMart":3691,"anlage":3692,"ffee":3693,"ĠJetzt":3694,"ĠHaut":3695,"Ġstark":3696,"Ġgefu":3697,"achts":3698,"Ġget":3699,"Diese":3700,"Man":3701,"zentrum":3702,"itt":3703,"ĠGed":3704,"ĠBlog":3705,"ĠModell":3706,"xy":3707,"ĠTier":3708,"ĠIndust":3709,"ĠWest":3710,"ĠKirche":3711,"mat":3712,"ĠKurz":3713,"jekte":3714,"renzen":3715,"TE":3716,"ĠFuÃŁball":3717,"Ġit":3718,"ĠJahrhundert":3719,"iness":3720,"schrank":3721,"ĠBaum":3722,"liste":3723,"Mehr":3724,"Gro":3725,"ĠRechts":3726,"Ġarbeiten":3727,"Ġerne":3728,"Tra":3729,"71":3730,"urm":3731,"auch":3732,"ĠErfolg":3733,"ĠRich":3734,"Ġregel":3735,"Ġstand":3736,"stor":3737,"73":3738,"Ġhttps":3739,"box":3740,"ĠMain":3741,"ĠBran":3742,"ysteme":3743,"inger":3744,"Ġmax":3745,"light":3746,"bersicht":3747,"Ġspiele":3748,"Ġstu":3749,"hrlich":3750,"85":3751,"Pa":3752,"ĠFrankfurt":3753,"Ġansehen":3754,"neten":3755,"atum":3756,"Ġglau":3757,"Ġthis":3758,"rief":3759,"ĠMee":3760,"kunden":3761,"ĠInternation":3762,"hlung":3763,"ĠBeitra":3764,"Ġ70":3765,"Ġmusste":3766,"rtig":3767,"ĠNational":3768,"amin":3769,"ltnis":3770,"Ber":3771,"Ġsomit":3772,"ĠPeter":3773,"Ġrein":3774,"Ġvorge":3775,"Ġbisher":3776,"Ġfal":3777,"versta":3778,"63":3779,"zahlen":3780,"gart":3781,"hafen":3782,"ĠðŁ":3783,"Â®":3784,"ĠTages":3785,"Ġ500":3786,"nk":3787,"Hal":3788,"Ġlist":3789,"ĠProbleme":3790,"ise":3791,"vin":3792,"df":3793,"mati":3794,"ĠBlack":3795,"Ġelekt":3796,"RA":3797,"Als":3798,"technik":3799,"Ġschwe":3800,"Ġinsgesamt":3801,"fallen":3802,"boren":3803,"ĠTisch":3804,"Ġ2006":3805,"wald":3806,"ĠVerkauf":3807,"spruch":3808,"ĠSchweiz":3809,"ungsbe":3810,"nstler":3811,"arian":3812,"ĠAlter":3813,"ĠSonntag":3814,"lanzen":3815,"ĠText":3816,"Ġzuna":3817,"ĠMutter":3818,"ĠMichael":3819,"ktions":3820,"press":3821,"Hier":3822,"ĠDach":3823,"ÃŁerdem":3824,"bile":3825,"istr":3826,"ĠHerr":3827,"tw":3828,"Ġgesp":3829,"dro":3830,"Weitere":3831,"ĠGesamt":3832,"IM":3833,"ĠCom":3834,"pfer":3835,"ĠWett":3836,"berhaupt":3837,"ĠWeise":3838,"peten":3839,"Ġ45":3840,"Ġerreichen":3841,"Ġ05":3842,"gebiet":3843,"ĠBest":3844,"Ke":3845,"Ġaktiv":3846,"ĠTren":3847,"Ġalt":3848,"ĠNur":3849,"leuch":3850,"ĠUnterstu":3851,"ĠSchau":3852,"ĠUp":3853,"ĠSeit":3854,"Au":3855,"sene":3856,"Ġfo":3857,"ĠDieser":3858,"ĠheiÃŁt":3859,"kenn":3860,"ash":3861,"Ġalten":3862,"61":3863,"ĠBett":3864,"besondere":3865,"Ġ978":3866,"over":3867,"Ġbeispielsweise":3868,"ĠStandard":3869,"ya":3870,"garten":3871,"recher":3872,"ĠErgebnis":3873,"2010":3874,"Ġgescha":3875,"ĠLeute":3876,"Ġaufgrund":3877,"ĠRhein":3878,"zes":3879,"ĠKranken":3880,"Ġide":3881,"Ġdaran":3882,"poli":3883,"wind":3884,"lug":3885,"Ġ04":3886,"ÑĤ":3887,"ĠDeutsch":3888,"ĠMil":3889,"Preis":3890,"lker":3891,"ĠTex":3892,"forderungen":3893,"Ġvers":3894,"nachweise":3895,"date":3896,"ĠChance":3897,"ĠWetter":3898,"zern":3899,"rse":3900,"Ġentsp":3901,"aler":3902,"ĠEnd":3903,"innt":3904,"ĠHil":3905,"ĠSpie":3906,"Ġposit":3907,">â":3908,"val":3909,"zeichen":3910,"ĠBis":3911,"mera":3912,"mehr":3913,"Ġpar":3914,"ĠBayern":3915,"Ġhinzu":3916,"ĠAntwort":3917,"Ġmel":3918,"ĠSchule":3919,"freie":3920,"Ġ39":3921,"riften":3922,"ĠMitglied":3923,"ĠCH":3924,"kennt":3925,"hnlich":3926,"Ġbereit":3927,"wel":3928,"uttgart":3929,"ieÃŁen":3930,"fal":3931,"Ġmeist":3932,"ĠFolge":3933,"Ġjedes":3934,"ĠPresse":3935,"haltung":3936,"day":3937,"ffnet":3938,"ffel":3939,"ĠHause":3940,"red":3941,"Ġerforder":3942,"Ġdeshalb":3943,"ub":3944,"ĠStie":3945,"AB":3946,"Per":3947,"tiges":3948,"Ġgemeinsam":3949,"ĠDamit":3950,"por":3951,"geboten":3952,"bes":3953,"##":3954,"ĠKlima":3955,"Ġpass":3956,"ĠAnti":3957,"ĠFort":3958,"mper":3959,"teilig":3960,"ĠLang":3961,"ĠStein":3962,"ĠFarben":3963,"Ġslo":3964,"abha":3965,"keting":3966,"Ġmar":3967,"ĠVi":3968,"of":3969,"wertung":3970,"Ġaktuellen":3971,"ĠKan":3972,"ĠGeburt":3973,"Rei":3974,"ient":3975,"ĠWaren":3976,"Ġzuge":3977,"gliche":3978,"ĠRichtung":3979,"Ġminde":3980,"seum":3981,"86":3982,"ĠWebs":3983,"losen":3984,"ĠPru":3985,"staltung":3986,"RO":3987,"uellen":3988,"service":3989,"Ġ36":3990,"Ġsolche":3991,"ĠFenster":3992,"ĠAutor":3993,"back":3994,"ase":3995,"hung":3996,"Ġ32":3997,"ĠKolle":3998,"Ġbescha":3999,"Einzelnachweise":4000,"Ġjeweils":4001,"kannt":4002,"ĠOrganis":4003,".âĢľ":4004,"illa":4005,"rige":4006,"oller":4007,"steuer":4008,"ĠAme":4009,"fig":4010,"ĠBehandlung":4011,"Ġ02":4012,"Ġneues":4013,"oma":4014,"wegs":4015,"cel":4016,"ÃŁend":4017,"folgen":4018,"gener":4019,"Ġtatsa":4020,"riere":4021,"Ġcan":4022,"bal":4023,"ĠLager":4024,"ĠBetrieb":4025,"ĠVolks":4026,"uth":4027,"nschen":4028,"ĠAuÃŁen":4029,"frist":4030,"schenk":4031,"Ġero":4032,"Ġnahe":4033,"brauch":4034,"ĠWissen":4035,"ĠRegen":4036,"ngt":4037,"ĠMet":4038,"96":4039,"PS":4040,"ney":4041,"ĠMark":4042,"ular":4043,"ĠRund":4044,"Ġwelches":4045,"ĠRis":4046,"ĠWh":4047,"Ġbewer":4048,"Ġfolgenden":4049,"tto":4050,"standen":4051,"ĠOst":4052,"ĠPor":4053,"lager":4054,"Beit":4055,"ĠHor":4056,"ĠDem":4057,"ĠPersonal":4058,"ierter":4059,"ĠAntworten":4060,".âĢľ<":4061,"ĠSerie":4062,"Ġjemand":4063,"ĠSpaÃŁ":4064,"Ġdig":4065,"talien":4066,"automaten":4067,"ĠTerr":4068,"uro":4069,"sucher":4070,"zeugen":4071,"ĠUmgebung":4072,"ituation":4073,"ktualis":4074,"wirk":4075,"ĠVersion":4076,"ĠCre":4077,"Ġverbesser":4078,"ĠKredit":4079,"Ġleich":4080,"ĠPDF":4081,"zeigt":4082,"Ġgewesen":4083,"gg":4084,"Ġprakti":4085,"ĠTipps":4086,"AD":4087,"rme":4088,"ĠDoppel":4089,"oth":4090,"Ġselber":4091,"Fa":4092,"Ġzer":4093,"ĠStraÃŁen":4094,"decken":4095,"Ġ}":4096,"Ġinsbesondere":4097,"ĠFC":4098,"stoffe":4099,"ĠKommentar":4100,"tags":4101,"ary":4102,"ĠLive":4103,"park":4104,"nungs":4105,"ĠStellen":4106,"ĠFun":4107,"ĠMitte":4108,"iken":4109,"Ġmindestens":4110,"leiter":4111,"ĠBlau":4112,"Ġetc":4113,"Ġ2005":4114,"langen":4115,"iskus":4116,"vier":4117,"Ġfr":4118,"wart":4119,"Ġnen":4120,"fragen":4121,"ĠFree":4122,"reib":4123,"laufen":4124,"Ġstra":4125,"zeige":4126,"ĠGefu":4127,"holz":4128,"Ġ2000":4129,"frieden":4130,"schafts":4131,"Hotel":4132,"geschichte":4133,"tere":4134,"lothe":4135,"ĠPS":4136,"denten":4137,"Ġbist":4138,"volle":4139,"atter":4140,"ĠPan":4141,"stieg":4142,"Ġgek":4143,"indest":4144,"obei":4145,"97":4146,"system":4147,"Ġmitt":4148,"On":4149,"ĠBitte":4150,"apan":4151,"dingt":4152,"waltung":4153,"angen":4154,"ĠMeister":4155,"II":4156,"Ġlos":4157,"ĠMasch":4158,"ĠFehler":4159,"ĠStelle":4160,"ĠWeitere":4161,"Ġ03":4162,"til":4163,"ranzo":4164,"ĠAng":4165,"Ġeinigen":4166,"nende":4167,"Ð½":4168,"ĠWal":4169,"ĠLED":4170,"how":4171,"Ġdo":4172,"Ġdein":4173,"ĠPunkte":4174,"Ġfreuen":4175,"kraft":4176,"rick":4177,"sts":4178,"ution":4179,"\\/":4180,"ĠWider":4181,"kes":4182,"irm":4183,"Ġganzen":4184,"Ġhochwer":4185,"Ġlaufen":4186,"lia":4187,"if":4188,"Ġbestehen":4189,"berra":4190,"mark":4191,"ÑĢ":4192,"bet":4193,"ternative":4194,"ĠDieses":4195,"krie":4196,"ĠLeistung":4197,"Ġklassi":4198,"Ġtran":4199,"Ġbringt":4200,"Ġebenso":4201,"immen":4202,"ĠGut":4203,"omo":4204,"lusive":4205,"62":4206,"ĠAller":4207,"ĠPass":4208,"ungsver":4209,"ommunikation":4210,"cri":4211,"ĠErfahrung":4212,"rop":4213,"ĠIndustrie":4214,"fert":4215,"ĠMeter":4216,"ĠUmwelt":4217,"ĠBaby":4218,"ĠErst":4219,"zeichn":4220,"hinder":4221,"EM":4222,"wiesen":4223,"Ta":4224,"alog":4225,"Ġsto":4226,"Ġbedeutet":4227,"schlieÃŁlich":4228,"ĠFreitag":4229,"ski":4230,"hstu":4231,"Ġare":4232,"Ġgrund":4233,"bl":4234,"ĠChar":4235,"alyse":4236,"immel":4237,"ĠVerlag":4238,"ngig":4239,"Ġbraucht":4240,"mas":4241,"stitut":4242,"Ġverwenden":4243,"Ġhand":4244,"inander":4245,"ĠSet":4246,"ĠThomas":4247,"maschine":4248,"Ġregelma":4249,"ront":4250,"ĠStrom":4251,"Ka":4252,"here":4253,"ffenen":4254,"UNG":4255,"ĠErfahrungen":4256,"ĠMy":4257,"VD":4258,"ĠPrem":4259,"ĠSpielen":4260,"ĠWolf":4261,"ĠMonate":4262,"Ġschreiben":4263,"rale":4264,"bum":4265,"rten":4266,"Ġfand":4267,"No":4268,"letter":4269,"ndigen":4270,"ĠAusbildung":4271,"Ġdeutscher":4272,"schw":4273,"Ġvera":4274,"rdig":4275,"ĠSalz":4276,"Ñģ":4277,"sitzen":4278,"ada":4279,"tin":4280,"brigen":4281,"omin":4282,"ĠListe":4283,"uma":4284,"Ġvert":4285,"ĠWort":4286,"ĠMensch":4287,"ĠWieder":4288,"cc":4289,"ĠMi":4290,"To":4291,"wertungen":4292,"ĠSamstag":4293,"gelt":4294,"oder":4295,"ĠSchlu":4296,"ĠMitglieder":4297,"ish":4298,"Ġvergan":4299,"ĠWahr":4300,"Sh":4301,"ielle":4302,"name":4303,"napp":4304,"ĠPolitik":4305,"ichtig":4306,"ces":4307,"Ġumge":4308,"94":4309,"ĠST":4310,"finden":4311,"87":4312,"spha":4313,"Ġeinzu":4314,"ĠIT":4315,"Ġsechs":4316,"karten":4317,"ĠZubeho":4318,"Ġinkl":4319,"fluss":4320,"ĠWohnzimmer":4321,"ĠBlut":4322,"unkel":4323,"Ġletzte":4324,"rio":4325,"Ġautomati":4326,"ziehung":4327,"Ġgesehen":4328,"ĠFacebook":4329,"ĠEing":4330,"hnliche":4331,"phone":4332,"sungen":4333,"opp":4334,"Ġgeeignet":4335,"Ġsetzen":4336,"spielen":4337,"kennen":4338,"ĠKarten":4339,"Ġzehn":4340,"Ġerschei":4341,"rter":4342,"SP":4343,"Ġfunktioniert":4344,"Ġauszu":4345,"ĠInve":4346,"ierungen":4347,"Ġehema":4348,"ĠSor":4349,"ĠUrlaub":4350,"Ġsucht":4351,"ĠTurn":4352,"its":4353,"ĠPrivat":4354,"ube":4355,"ĠEis":4356,"áĦ":4357,"ĠÌģ":4358,"riff":4359,"serv":4360,"ĠTeilnehmer":4361,"ĠOpti":4362,"bett":4363,"nderungen":4364,"fra":4365,"ĠNutzung":4366,"Ġ?":4367,"Ġbesonde":4368,"Ġwarum":4369,"Ġzudem":4370,"scheinlich":4371,"berger":4372,"flug":4373,"leistungen":4374,"br":4375,"Ġ300":4376,"oper":4377,"áħ":4378,"inform":4379,"weile":4380,"ĠBesch":4381,"ĠGespra":4382,"jo":4383,"ĠVis":4384,"ĠSim":4385,"kle":4386,"link":4387,"Ġhohen":4388,"html":4389,"ĠEntscheidung":4390,"84":4391,"pzig":4392,"tlich":4393,"ÃŁte":4394,"2009":4395,"ĠName":4396,"Start":4397,"Tag":4398,"Ġ34":4399,"MS":4400,"ĠDire":4401,"stimmung":4402,"AU":4403,"ĠSicht":4404,"TV":4405,"Mon":4406,"rach":4407,"ĠKarte":4408,"Ġfinanz":4409,"Ser":4410,"ĠAuÃŁerdem":4411,"',":4412,"Ġentwickelt":4413,"ourn":4414,"stes":4415,"Ġallein":4416,"Ġliebe":4417,"ĠâĨ":4418,"deutung":4419,"Ġspielt":4420,"chmal":4421,"braucht":4422,"urf":4423,"okument":4424,"zz":4425,"ĠFirma":4426,"ĠReisen":4427,"vergleich":4428,"anzen":4429,"bis":4430,"Ġthat":4431,"ĠDich":4432,"pack":4433,"Con":4434,"ĠHann":4435,"ĠUN":4436,"IB":4437,"wechsel":4438,"ndige":4439,"Ġhistor":4440,"ffnung":4441,"Ġfreund":4442,"ĠMartin":4443,"Ġkomplett":4444,"ĠAlex":4445,"ĠEng":4446,"page":4447,"ĠSpielothe":4448,"ĠGott":4449,"Ġfort":4450,"Bay":4451,"ĠKindern":4452,"higkeit":4453,"ĠErgebnisse":4454,"fangen":4455,"ĠMer":4456,"onus":4457,"tis":4458,"ĠInsel":4459,"ni":4460,"Kosten":4461,"Ġbas":4462,"hrungs":4463,"ĠCol":4464,"ĠStaats":4465,"SV":4466,"nzen":4467,"ĠMicro":4468,"ĠAndre":4469,"ĠMonat":4470,"Ġstell":4471,"Ġbeide":4472,"uell":4473,"ĠStuttgart":4474,"Gru":4475,"raut":4476,"Ġpe":4477,"Ġerfu":4478,"Ġeuropa":4479,"ics":4480,"Ġvollsta":4481,"hrigen":4482,"ĠSozial":4483,"ĠElektro":4484,"ĠMeinung":4485,"ĠComputer":4486,"xx":4487,"ĠLieb":4488,"sprochen":4489,"ĠAnbieter":4490,"Ġ@":4491,"ĠAkt":4492,"ĠVerbindung":4493,"nerstag":4494,"rate":4495,"mail":4496,"ĠBasis":4497,"ĠAf":4498,"ĠZwe":4499,"leistung":4500,"Ġdanach":4501,"ĠGerman":4502,"last":4503,"ruf":4504,"atch":4505,"ĠDeine":4506,"Ġbestellen":4507,"steht":4508,"tasche":4509,"gesetz":4510,"lische":4511,"zwischen":4512,"92":4513,"schlieÃŁend":4514,"wendig":4515,"500":4516,"ĠSchlafzimmer":4517,"mt":4518,"Ġbekommt":4519,"LAN":4520,"wil":4521,"ĠOriginal":4522,"Ġgesagt":4523,"Zum":4524,"Aber":4525,"ĠFl":4526,"Ġga":4527,"ĠHD":4528,"menten":4529,"bro":4530,"rice":4531,"pert":4532,"Ġ2004":4533,"roid":4534,"sver":4535,"ommunity":4536,"IP":4537,"perten":4538,"Ġgeworden":4539,"spir":4540,"vid":4541,"ĠHein":4542,"Ġgelten":4543,"Ġempf":4544,"Ġverdie":4545,"Ġgenug":4546,"Ġnah":4547,"sive":4548,"laus":4549,"ĠDetails":4550,"Ġlaut":4551,"llung":4552,"dacht":4553,"zy":4554,"gut":4555,"ĠStudien":4556,"Ġtreffen":4557,"ĠGebie":4558,"93":4559,"ĠHeraus":4560,"twoch":4561,"omat":4562,"pfen":4563,"ams":4564,"ĠFirmen":4565,"zeichnung":4566,"ĠMor":4567,"material":4568,"Ant":4569,"linge":4570,"ferenz":4571,">...":4572,"ĠBack":4573,"ĠKilo":4574,"ĠEdel":4575,"Ġsozia":4576,"Ġbesta":4577,"ffentlichen":4578,"Ġerh":4579,"delt":4580,"mut":4581,"ĠPraxis":4582,"Ġerreicht":4583,"ĠEntwick":4584,"seh":4585,"eller":4586,"dert":4587,"altet":4588,"same":4589,"mitteln":4590,"spielt":4591,"ÃŁten":4592,"ĠNachrichten":4593,"ĠWunsch":4594,"hab":4595,"ĠStaat":4596,"Ġlernen":4597,"wegung":4598,"Ġ150":4599,"mund":4600,"reibt":4601,"ther":4602,"ĠDrei":4603,"Ġblau":4604,"ent":4605,"ĠMel":4606,"Ju":4607,"CD":4608,"ĠAnzahl":4609,"durch":4610,"Ġnimmt":4611,"ffene":4612,"yl":4613,"arbeite":4614,"Ġdownload":4615,"itzt":4616,"ateg":4617,"Ġkg":4618,"ĠUnternehmens":4619,"ĠTon":4620,"rke":4621,"bad":4622,"Ġsogen":4623,"werke":4624,"rise":4625,"ĠHandy":4626,"Ġecht":4627,"tiker":4628,"Ġzuletzt":4629,"funktion":4630,".\"":4631,"Ġerfolgt":4632,"Son":4633,"netz":4634,"ĠStrand":4635,"lip":4636,"91":4637,"Ġerza":4638,"ĠDan":4639,"ĠPatienten":4640,"ĠSingle":4641,"ĠFahrzeug":4642,"Hallo":4643,"ager":4644,"maschinen":4645,"gleichen":4646,"ndete":4647,"EG":4648,"ray":4649,"ĠBedeutung":4650,"ĠMenge":4651,"cal":4652,"iten":4653,"ĠImmobilien":4654,"Ġvorher":4655,">Â":4656,"ĠAben":4657,"Ġheu":4658,"ĠUnterkunft":4659,"Gesch":4660,"Ġeng":4661,"Ġgewinnen":4662,"Bild":4663,"ochter":4664,"lad":4665,"sex":4666,"itzer":4667,"ĠFreizeit":4668,"ĠKomm":4669,"nke":4670,"Ġyour":4671,"Ġerfolgreich":4672,"ĠFarb":4673,"kan":4674,"ieten":4675,"star":4676,"ĠItalien":4677,"ellen":4678,"lerweile":4679,"messer":4680,"ĠHans":4681,"rifft":4682,"83":4683,"Ġfahren":4684,"Ġeinzelnen":4685,"lic":4686,"ĠTechnik":4687,"ftig":4688,"ĠBrow":4689,"Ġ[...":4690,"anien":4691,"ICH":4692,"amb":4693,"ĠCan":4694,"ĠHalb":4695,"Ġverz":4696,"krank":4697,"Ġverein":4698,"film":4699,"ĠZa":4700,"gas":4701,"gende":4702,"gebaut":4703,"ĠFriedrich":4704,"ĠBor":4705,"Ġweiterhin":4706,"ondon":4707,"ĠBern":4708,"ktiven":4709,"ĠDazu":4710,"82":4711,"ĠMulti":4712,"door":4713,"sichts":4714,"management":4715,"richtungen":4716,"ĠBlue":4717,"ohlen":4718,"ĠErsatz":4719,"ria":4720,"ĠBes":4721,"cket":4722,"liner":4723,"soft":4724,"ĠPu":4725,"Ġdadurch":4726,"barkeit":4727,"ĠSchritt":4728,"board":4729,"orgt":4730,"Ġbald":4731,"ĠWin":4732,"werte":4733,"ĠArchite":4734,"ĠErd":4735,"ĠRie":4736,"ĠFeld":4737,"Ġalte":4738,"Ġnied":4739,"Ġanderer":4740,"Wo":4741,"ĠDinge":4742,"Ġfreie":4743,"ĠRabatt":4744,"Ġvergangenen":4745,"gessen":4746,"ĠWissenschaft":4747,"ĠHol":4748,"ohle":4749,"rus":4750,"bilder":4751,"merzen":4752,"ĠKategorie":4753,"Ġklein":4754,"ohnen":4755,"ĠVater":4756,"ĠReihe":4757,"ĠWol":4758,"Ġbesse":4759,"Stu":4760,"samm":4761,"mens":4762,"sisch":4763,"haben":4764,"ĠHochzeit":4765,"Ġscheint":4766,"ĠKaffee":4767,"cklich":4768,"Ġdrau":4769,"Ġdamals":4770,"ĠRep":4771,"Ġche":4772,"Ġgegeben":4773,"tember":4774,"sseldorf":4775,"berpru":4776,"Ġderzeit":4777,"ĠFit":4778,"ĠAufgaben":4779,"Ġgeschrieben":4780,"ĠBesucher":4781,"reiber":4782,"maÃŁ":4783,"ica":4784,"ĠÂ©":4785,"Ġwobei":4786,"ĠCasinos":4787,"chan":4788,"ĠKreuz":4789,"Ġseines":4790,"ĠFlo":4791,"Zur":4792,"TS":4793,"ĠLink":4794,"aker":4795,"ini":4796,"Ġzweite":4797,"otos":4798,"ĠIN":4799,"Ġbetro":4800,"ĠCity":4801,"Vero":4802,"ause":4803,"ĠUl":4804,"ĠVier":4805,"ico":4806,"EC":4807,"ĠEhe":4808,"ĠFrankreich":4809,"nnten":4810,"2008":4811,"uern":4812,"ĠBeginn":4813,"Ġunten":4814,"ĠGruppen":4815,"tain":4816,"kat":4817,"Ġtrotzdem":4818,"bungen":4819,"Ġrechts":4820,"ĠSprache":4821,"meln":4822,"Ġwert":4823,"Ġgratis":4824,"lement":4825,"urg":4826,"Art":4827,"ĠSchrift":4828,"ĠTable":4829,"Ġvorhanden":4830,"Che":4831,"cs":4832,"Home":4833,"diglich":4834,"Ġfolgende":4835,"muck":4836,"ĠDel":4837,"stahl":4838,"ĠBrand":4839,"ĠAlles":4840,"pflich":4841,"Ġpreis":4842,"Ġak":4843,"osa":4844,"ĠSilber":4845,"Ġsetzt":4846,"Ġbeein":4847,"bringen":4848,"ĠBet":4849,"Ġbef":4850,"Ġvorbei":4851,"ĠWeihnachts":4852,"lender":4853,"ausen":4854,"alisierung":4855,"Ġ33":4856,"mittlung":4857,"ĠBeson":4858,"Hotels":4859,"zigar":4860,"gemeine":4861,"az":4862,"ĠMess":4863,"ING":4864,"ossen":4865,"verkehr":4866,"ĠMonaten":4867,"Stand":4868,"anger":4869,"Ġwohn":4870,"kleidung":4871,"Ġrichtige":4872,"ĠAngaben":4873,"Ob":4874,"nstige":4875,"ĠCook":4876,"ay":4877,"bericht":4878,"kap":4879,"Ġgestellt":4880,"nlich":4881,"ĠAlso":4882,"partner":4883,"lischen":4884,"fessione":4885,"ĠKlasse":4886,"leisch":4887,"TM":4888,"ux":4889,"samen":4890,"ĠGewicht":4891,"Ġabzu":4892,"ĠOder":4893,"ĠBetriebs":4894,"ĠPlat":4895,"Ġnu":4896,"ĠLehr":4897,"Ġaktuelle":4898,"ĠOrd":4899,"ĠCamp":4900,"Ġbee":4901,"dlich":4902,"senen":4903,"Qu":4904,"wohnung":4905,"Ġbefinden":4906,"Innen":4907,"bruch":4908,"ĠWild":4909,"rungen":4910,"tzliche":4911,"ĠInteresse":4912,"nderung":4913,"ĠBesuch":4914,"Ġ37":4915,"schriften":4916,"Ġenthalten":4917,"ltig":4918,"ografie":4919,",-":4920,"Reg":4921,"ĠMetho":4922,"unternehmen":4923,"ĠRau":4924,"nere":4925,"ov":4926,"ĠGleich":4927,"ĠRestaurant":4928,"UM":4929,"ĠPlus":4930,"ĠFel":4931,"ĠPsych":4932,"ĠMini":4933,"hlte":4934,"Ġendlich":4935,"ĠFra":4936,"Ġwechsel":4937,"ĠSpielothek":4938,"ĠMetall":4939,"iden":4940,"lattform":4941,"ĠSchm":4942,"81":4943,"Ġzent":4944,"leit":4945,"ley":4946,"seits":4947,"ĠUnsere":4948,"Ġunver":4949,"nsche":4950,"mack":4951,"tifiz":4952,"lanz":4953,"way":4954,"IR":4955,"orgung":4956,"ĠChina":4957,"ahlt":4958,"lust":4959,"ringe":4960,"ition":4961,"IV":4962,"Ġ42":4963,"ierig":4964,"lf":4965,"km":4966,"Ġgleichen":4967,"Ġmy":4968,"ĠRegierung":4969,"itco":4970,"Ġpriv":4971,"pha":4972,"App":4973,"dass":4974,"Ġspannen":4975,"Ġaktuell":4976,"kunde":4977,"sult":4978,"Ġindem":4979,"treu":4980,"Ġneuer":4981,"ĠVerfahren":4982,"text":4983,"ringer":4984,"Ġerfahren":4985,"Ġ2003":4986,"Ġtolle":4987,"setze":4988,"Â¤":4989,"ors":4990,"ĠDra":4991,"ĠVerantwort":4992,"schne":4993,"wahr":4994,"antie":4995,"ĠSonder":4996,"chner":4997,"Ġverlo":4998,"Ġtragen":4999,"loser":5000,"ĠSohn":5001,"ĠVertra":5002,"SG":5003,"Ġseie":5004,"bla":5005,"teln":5006,"Sport":5007,"denk":5008,"gesellschaft":5009,"Ġ120":5010,"ĠSw":5011,"freund":5012,"ĠBio":5013,"ĠStru":5014,"ĠKarl":5015,"Ġgesetz":5016,"ĠOff":5017,"Ġherz":5018,"blem":5019,"uchs":5020,"ĠBerufs":5021,"mess":5022,"Ġhilft":5023,"licherweise":5024,"Ġbestimmt":5025,"ĠViele":5026,"ĠZwischen":5027,"ĠSatz":5028,"bte":5029,"ĠKirchen":5030,"ĠProf":5031,"Ġkeiner":5032,"ĠBusiness":5033,"Ġ!":5034,"ĠEm":5035,"zert":5036,"Ġseien":5037,"versicherung":5038,"licken":5039,"ĠBla":5040,"vents":5041,"ĠLeipzig":5042,"ĠBraun":5043,"lern":5044,"denken":5045,"ĠPunkt":5046,"ura":5047,"ritz":5048,"rderung":5049,"ĠMarken":5050,"hil":5051,"zepte":5052,"ĠHunde":5053,">âĢ¢":5054,"ĠHerbst":5055,"top":5056,"ĠTemper":5057,"Durch":5058,"Ġfranzo":5059,"ĠDia":5060,"denburg":5061,"hor":5062,"ĠGot":5063,"Ġpf":5064,"ĠGericht":5065,"ĠRuhe":5066,"steiger":5067,"ĠschlieÃŁlich":5068,"sprech":5069,"ĠZustand":5070,"Ġdefin":5071,"ĠTrans":5072,"ĠBy":5073,"Ġ//":5074,"ĠNutzer":5075,"Hand":5076,"ago":5077,"malen":5078,"ĠJose":5079,"Ġabgesch":5080,"ĠTrainer":5081,"ĠBeruf":5082,"--------":5083,"ndnis":5084,"ĠMik":5085,"ĠCha":5086,"dis":5087,"ĠJohann":5088,"Ġpre":5089,"Ġgeplan":5090,"Ġ.<":5091,"Ġerwa":5092,"liz":5093,"Ġwesent":5094,"Ru":5095,"ĠSach":5096,"Mann":5097,"ĠBestand":5098,"ĠGedanken":5099,"rzte":5100,"Ġ44":5101,"achst":5102,"Ġerinner":5103,"blatt":5104,"ĠSchwer":5105,"ĠInfos":5106,"otal":5107,"ĠKol":5108,"ĠAss":5109,"rue":5110,"ĠRoman":5111,"sthe":5112,"fassung":5113,"Ġoffiz":5114,"halle":5115,"ĠZug":5116,"Ġwor":5117,"ĠAnmeldung":5118,"Literatur":5119,"schlieÃŁen":5120,"ierende":5121,"Ġwelcher":5122,"ĠSuch":5123,"ĠMeer":5124,"Ġziemlich":5125,"rken":5126,"Ð¾Ð":5127,"lev":5128,"Ġgleichzeitig":5129,"Ġzuvor":5130,"Ġser":5131,"cen":5132,">>":5133,"leucht":5134,"Ġdru":5135,"ĠTheater":5136,"Ġ48":5137,"mee":5138,"Go":5139,"iga":5140,"ĠTod":5141,"Wu":5142,"zeugt":5143,"Ġdank":5144,"Ġac":5145,"Ġwh":5146,"ĠKampf":5147,"ros":5148,"ĠKlo":5149,"ual":5150,"Lei":5151,"annung":5152,"Stra":5153,"rang":5154,"lingt":5155,"ĠVertrag":5156,"MW":5157,"sammlung":5158,"Ġerreich":5159,"wal":5160,"FA":5161,"ION":5162,"wissenschaft":5163,"trolle":5164,"Ġzahlreiche":5165,"Ġzumindest":5166,"ĠProzess":5167,"lebnis":5168,"schra":5169,"Ġaufzu":5170,"sprach":5171,"ote":5172,"Neu":5173,"ĠÂ°":5174,"lymp":5175,"ĠParis":5176,"nglich":5177,"ĠManagement":5178,".\"<":5179,"lee":5180,"Mus":5181,"ĠLinks":5182,"Ġapp":5183,"Ġpasst":5184,"ĠSituation":5185,"lerie":5186,"verla":5187,"Ġ400":5188,"Des":5189,"ĠDE":5190,"Ġweltweit":5191,"linie":5192,"fli":5193,"rater":5194,"ĠChristian":5195,"Ġmas":5196,"ical":5197,"ora":5198,"alls":5199,"pport":5200,"itle":5201,"('":5202,"Ġperfekt":5203,"ĠWebseite":5204,"Ġrel":5205,"setzungen":5206,"verband":5207,"mpel":5208,"ĠFolgen":5209,"Kom":5210,"ĠWirtschafts":5211,"dest":5212,"Ġversta":5213,"chern":5214,"ĠiPhone":5215,"Ġspeziel":5216,"Ġanmeldung":5217,"ĠHaar":5218,"ĠDres":5219,"ĠVoraus":5220,"geg":5221,"Ġ55":5222,"2007":5223,"mine":5224,"Ġ75":5225,"bas":5226,"ĠKaufen":5227,"Ġbra":5228,"komp":5229,"formen":5230,"ĠDanke":5231,"Ġrie":5232,"ont":5233,"hrten":5234,"aming":5235,"ffnen":5236,"Ġdeutsch":5237,"SS":5238,"bezo":5239,"hause":5240,"ĠGeburtstag":5241,"ĠKro":5242,"ĠâĨĴ":5243,"Ġglu":5244,"vig":5245,"bauen":5246,"ĠEisen":5247,"ĠWirk":5248,"Pra":5249,"Ġjeweiligen":5250,"iellen":5251,"ssystem":5252,"Ġren":5253,"ĠYork":5254,"mpfe":5255,"nel":5256,"ĠHan":5257,"ĠWander":5258,"ĠÎĶ":5259,"Ġerneut":5260,"ierenden":5261,"digen":5262,"ĠSchei":5263,"ĠAufent":5264,"tionen":5265,"ĠTeile":5266,"erst":5267,"ĠMontag":5268,"eisen":5269,"Book":5270,"Ġlinks":5271,"Ġdigita":5272,"ĠLondon":5273,"ĠVera":5274,"klasse":5275,"triebe":5276,"INE":5277,"ĠSche":5278,"gr":5279,"ĠJohn":5280,"ols":5281,"reiten":5282,"Ġherunter":5283,"Ġhalt":5284,"aturen":5285,"ĠStil":5286,"ĠApple":5287,"UT":5288,"ĠHof":5289,"ĠClub":5290,"Ġerkennen":5291,"ĠGas":5292,"ckel":5293,"ĠBall":5294,"teren":5295,"Ġbeque":5296,"ĠGlo":5297,"neaker":5298,"ĠAktion":5299,"Ġgenommen":5300,"litz":5301,"ĠErwach":5302,"schreiben":5303,"teten":5304,"ĠNatu":5305,"iefe":5306,"Ġcom":5307,"leine":5308,"Ġunbedingt":5309,"ktoren":5310,"ĠÎĶE":5311,"Online":5312,"Ġversuchen":5313,"fahrer":5314,"deen":5315,"ype":5316,"ĠTee":5317,"Ġraus":5318,"rechte":5319,"ilder":5320,"Ġanderes":5321,"kadem":5322,"struktur":5323,"ĠTyp":5324,"Ġbeginnt":5325,"Ġsorgen":5326,"rechnet":5327,"ynam":5328,"Ġcomp":5329,"Mu":5330,"sichtlich":5331,"ĠFig":5332,"alz":5333,"hens":5334,"ĠLieferung":5335,"ĠZudem":5336,"glicht":5337,"nor":5338,"ĠVin":5339,"ĠKaiser":5340,"rgermeister":5341,"ĠTochter":5342,"LO":5343,"Ġwichtige":5344,"Ġerlau":5345,"ĠBaden":5346,"ĠVerwendung":5347,"lik":5348,"All":5349,"linik":5350,"cksich":5351,"Ġwider":5352,"glied":5353,"ĠGrau":5354,"-/":5355,"arakter":5356,"ĠTermin":5357,"Ġbegeister":5358,"ĠSache":5359,"Pla":5360,"pedia":5361,"rip":5362,"Ġlediglich":5363,"Ġsinn":5364,"auso":5365,"ollar":5366,"-)":5367,"Ġup":5368,"bedingungen":5369,"ĠKurs":5370,"Ġ2002":5371,"part":5372,";<":5373,"Ġgern":5374,"melden":5375,"ĠTele":5376,"legung":5377,"ĠDatenschutz":5378,"Ġverla":5379,"gentur":5380,"Ġverkaufen":5381,"ĠStiefel":5382,"ĠSei":5383,"ĠHeimat":5384,"programm":5385,"ĠKrit":5386,"ĠFlughafen":5387,"ĠMarke":5388,"ĠServer":5389,"ysi":5390,"ingles":5391,"aupt":5392,"ĠZit":5393,"Ì§":5394,"Ġerg":5395,"gten":5396,"Ġteilweise":5397,"barer":5398,"ĠBewer":5399,"tein":5400,"ftsfu":5401,"Ġgenutzt":5402,"leitet":5403,"Ġschaffen":5404,"Ġquali":5405,"ĠZer":5406,"ĠPflanzen":5407,"Ġorganis":5408,"Inter":5409,"\\\"":5410,"Ġwichtigsten":5411,"ĠPfer":5412,"ĠZeitpunkt":5413,"Ġknapp":5414,"ĠRock":5415,"ungsan":5416,"arn":5417,"ĠOper":5418,"ĠUSB":5419,"ĠEd":5420,"bewertungen":5421,"Ġunterwegs":5422,"ĠBeratung":5423,"ĠKommunikation":5424,"ĠZentrum":5425,"nkt":5426,"uÃŁer":5427,"ĠDorf":5428,"ĠDro":5429,"gruppen":5430,"ĠFer":5431,"ĠGi":5432,"ĠAnwendung":5433,"Ġrot":5434,"ĠBeim":5435,"sagen":5436,"treffen":5437,"ĠgroÃŁer":5438,"ĠBezir":5439,"ham":5440,"ĠMorgen":5441,"Ġ--":5442,"Ġlegen":5443,"ĠAktuel":5444,"wissen":5445,"ĠBra":5446,"Ġq":5447,"spiegel":5448,"xus":5449,"col":5450,"Mein":5451,"ĠKabel":5452,"ĠauÃŁerdem":5453,"kea":5454,"viel":5455,"ĠKrank":5456,"bliothe":5457,"ivers":5458,"lers":5459,"ĠAs":5460,"Ġdrin":5461,"ssa":5462,"belle":5463,"ĠPhil":5464,"ĠMeine":5465,"ĠBescha":5466,"ĠBadezimmer":5467,"trieben":5468,"{\"":5469,"ĠTur":5470,"ĠZusammenarbeit":5471,"linien":5472,"Ġbegru":5473,"Ġverstehen":5474,"gescha":5475,"ĠMarketing":5476,"riger":5477,"Ġusw":5478,"shop":5479,"helm":5480,"Ġsport":5481,"HE":5482,"tegie":5483,"ĠBurg":5484,"ĠHintergrund":5485,"tets":5486,"Ġjunge":5487,"Ġerhe":5488,"ĠSieg":5489,"ĠProfess":5490,"Beitrag":5491,"ĠZahn":5492,"Ġgenannt":5493,"halter":5494,"Ġgelesen":5495,"ĠMannschaft":5496,"ĠJack":5497,"deckt":5498,"omie":5499,"Ġerle":5500,"Ġautomatisch":5501,"Gu":5502,"troll":5503,"Ġschwar":5504,"ĠNun":5505,"ĠArzt":5506,"itcoin":5507,"ĠHannover":5508,"Ġinten":5509,"Ġsorgt":5510,"haber":5511,"rze":5512,"],":5513,"Ġdenke":5514,"ĠDreh":5515,"ĠWerbe":5516,"ĠBlo":5517,"ĠKlassi":5518,"ĠHard":5519,"Ġlieber":5520,"blich":5521,"Ġzufrieden":5522,"ize":5523,"reie":5524,"âĢĺ":5525,"ĠSicherheits":5526,"ĠAuftrag":5527,"ĠKamera":5528,"unkten":5529,"ĠAngst":5530,"dens":5531,"Ġ1000":5532,"Ġsh":5533,"ĠLeser":5534,"duziert":5535,"Ġ43":5536,"Ġkurze":5537,"heren":5538,"iskussion":5539,"Ġsparen":5540,"Ġausgestat":5541,"ĠAbschluss":5542,"ĠAllerdings":5543,"ĠStr":5544,"Ġrech":5545,"Ġeingesetzt":5546,"liesen":5547,"ragt":5548,"xen":5549,"dte":5550,"ĠDonnerstag":5551,"trem":5552,"ĠFreunde":5553,"ĠFranz":5554,"ĠSinn":5555,"Ġkrit":5556,"ĠReich":5557,"rol":5558,"lette":5559,"Ġbrauchen":5560,"ĠParty":5561,"Ġumfassen":5562,"sted":5563,"Ġpri":5564,"ĠWill":5565,"Neue":5566,"Ġrichtigen":5567,"schuss":5568,"ĠVideos":5569,"0000":5570,"schauen":5571,"ĠVarian":5572,"dessen":5573,"ĠMittwoch":5574,"freich":5575,"ĠTaschen":5576,"rts":5577,"VP":5578,"Ġnachdem":5579,"wen":5580,"ĠRi":5581,"ĠBunde":5582,"platte":5583,"gi":5584,"lit":5585,"count":5586,"sches":5587,"ioren":5588,"Ġpartner":5589,"Ġentha":5590,"Ġwenige":5591,"ollten":5592,"Ġersch":5593,"ju":5594,"ban":5595,"ĠBildung":5596,"ĠDru":5597,"Ġzuerst":5598,"ony":5599,"orte":5600,"Seit":5601,"ĠSchie":5602,"ĠFahrrad":5603,"ĠZeiten":5604,"Ġerwartet":5605,"bination":5606,"sprache":5607,"ĠKilometer":5608,"ĠEli":5609,"Ġdeinen":5610,"ĠSchweizer":5611,"ĠArbeiten":5612,"ĠVerbrau":5613,"Ġ49":5614,"windigkeit":5615,"IA":5616,"lfte":5617,"Ġbeachten":5618,"Ġdah":5619,"Ġsam":5620,"leuchtung":5621,"renze":5622,"Weiter":5623,"ĠPal":5624,"Ġgema":5625,"bewer":5626,"ĠMedizin":5627,"dete":5628,"glichst":5629,"Ġsingle":5630,"ĠInhalt":5631,"!!!":5632,"Mode":5633,"Dieser":5634,"2006":5635,"ĠPublik":5636,"weder":5637,"stro":5638,"ĠPop":5639,"samkeit":5640,"Spe":5641,"ckets":5642,"ival":5643,"Ġstets":5644,"Ġrab":5645,"list":5646,"Ġgewu":5647,"ĠProduktion":5648,"ickt":5649,"Ġbein":5650,"ĠVerkehrs":5651,"ffizien":5652,"ias":5653,"Ġwahrscheinlich":5654,"ally":5655,"techn":5656,"scheid":5657,"ĠMac":5658,"Ġmorgen":5659,"Ġkor":5660,"ĠGeschenk":5661,"ĠLiteratur":5662,"itten":5663,"ĠAktivita":5664,"Ġgegru":5665,"okal":5666,"asy":5667,"king":5668,"Produkt":5669,"lkerung":5670,"Ġ2001":5671,"lab":5672,"DS":5673,"ĠYou":5674,"Ġgesamten":5675,"famil":5676,"ĠPaul":5677,"igner":5678,"ĠNov":5679,">+":5680,"alaxy":5681,"PC":5682,"ii":5683,"range":5684,"Foto":5685,"ĠEind":5686,"blen":5687,"utes":5688,"ĠLeistungs":5689,"ĠVerarbeitung":5690,"ditione":5691,"ĠStaaten":5692,"cor":5693,"ĠInformation":5694,"KE":5695,"ĠCap":5696,"hrungen":5697,"Ġerster":5698,"stands":5699,"hafte":5700,"ĠHund":5701,"ĠAndroid":5702,"ģĦ":5703,"imal":5704,"ppich":5705,"sburg":5706,"Ġmanchmal":5707,"Ġnew":5708,"arzt":5709,"bereitung":5710,"iete":5711,"aro":5712,"bieten":5713,"ĠSchlag":5714,"ĠZoll":5715,"Spiel":5716,"zung":5717,"ĠMuseum":5718,"ĠStoff":5719,"ĠLeistungen":5720,"bee":5721,"Ġguter":5722,"ussland":5723,"volution":5724,"ĠWochenende":5725,"Ġziehen":5726,"Ġwirtschaft":5727,"hnung":5728,"reig":5729,"Ġkn":5730,"rechnung":5731,"ĠMed":5732,"Ġverd":5733,"âĢĿ<":5734,"ĠWasch":5735,"....<":5736,"ĠTraining":5737,"ĠIr":5738,"ĠModer":5739,"ĠEro":5740,"tor":5741,"heits":5742,"Ġdurchaus":5743,"ĠWorld":5744,"sia":5745,"ded":5746,"ĠSpielautomaten":5747,"Ġgesamte":5748,"ĠSchnee":5749,"rg":5750,"Ġjederzeit":5751,"ÌĦ":5752,"ĠCO":5753,"ĠHeute":5754,"right":5755,"Ġmittlerweile":5756,"handelt":5757,"Haus":5758,"bieren":5759,"Leben":5760,"Ġbezeichnet":5761,"Ġdurchgefu":5762,"Ġfertig":5763,"ĠVa":5764,"ĠSinne":5765,"Ġsolchen":5766,"Geboren":5767,"alo":5768,"Ġfeie":5769,"War":5770,"ration":5771,"ideo":5772,"ĠPil":5773,"stellten":5774,"angebote":5775,"ĠSchnitt":5776,"dam":5777,"rttember":5778,"Ġerforderlich":5779,"Ġausreichen":5780,"iertes":5781,"ngst":5782,"ĠDVD":5783,"Ġangeboten":5784,"ĠEp":5785,"ĠEinkauf":5786,"ĠUntersuch":5787,"umm":5788,"Land":5789,"klus":5790,"ĠSonne":5791,"ppt":5792,"Ġverlie":5793,"ĠIndi":5794,"ĠInhalte":5795,"ĠBevo":5796,"dwig":5797,"ĠIhres":5798,"Ġsprechen":5799,"wirkungen":5800,"ctor":5801,"ĠAnschluss":5802,"Ġlin":5803,"ited":5804,"ĠkW":5805,"vest":5806,"ĠMoment":5807,"ĠRadio":5808,"ĠDate":5809,"Ġsieben":5810,"TER":5811,"Ġgebracht":5812,"Ġprofessione":5813,"ĠPartei":5814,"ĠCent":5815,"sste":5816,"Ġ250":5817,"ĠStau":5818,"Ġintegr":5819,"arbe":5820,"leger":5821,"ĠOne":5822,"ĠMail":5823,"cus":5824,"schwei":5825,"osoph":5826,"ĠEdition":5827,"ĠVert":5828,"Ġerstmals":5829,"ĠDienstag":5830,"Ġpersonen":5831,"ĠStahl":5832,"arden":5833,"ĠAusgabe":5834,"ĠWechsel":5835,"Ġout":5836,"ĠLaut":5837,"Ġverbunden":5838,"ĠSamm":5839,"Ġschlecht":5840,"Ġihres":5841,"Ġbisschen":5842,"ltra":5843,"zenz":5844,"nlichen":5845,"Bau":5846,"ĠSchloss":5847,"Ġversucht":5848,"ĠIns":5849,"tainer":5850,"brigens":5851,"Ġverantwort":5852,"design":5853,"Ġbegann":5854,"icken":5855,"Ġacht":5856,"ĠLam":5857,"verse":5858,"schnit":5859,"ĠPhili":5860,"Ġgrau":5861,"bre":5862,"maler":5863,"Kinder":5864,"waltungs":5865,"Ġmehreren":5866,"ĠgenieÃŁen":5867,"ĠEinwohner":5868,"ĠZugang":5869,"ague":5870,"stuhl":5871,"didas":5872,">âĨ":5873,"media":5874,"rug":5875,"ĠKino":5876,"schirm":5877,"ĠAnspruch":5878,"nein":5879,"mpfa":5880,"Ġuner":5881,"baum":5882,"Ġobwohl":5883,"KW":5884,"ward":5885,"Ġselten":5886,"ires":5887,"rzt":5888,"sed":5889,"pflege":5890,"Ġschla":5891,"tau":5892,"osk":5893,"ĠStunde":5894,"ĠBrowser":5895,"Ġ65":5896,"aste":5897,"ĠÂ»<":5898,"terien":5899,"Ra":5900,"System":5901,"cer":5902,"Unsere":5903,"ĠInternational":5904,"Hoch":5905,"Ġausfu":5906,"Ġ46":5907,"itar":5908,"Ġerhielt":5909,"schungs":5910,"ĠSPD":5911,"pping":5912,"Ġkamen":5913,"ĠNummer":5914,"ĠTw":5915,"Ġtu":5916,"ĠBir":5917,"*<":5918,"Ġerstellen":5919,"GE":5920,"ĠPower":5921,"Ġdennoch":5922,"ĠFunktionen":5923,"herr":5924,"wid":5925,"ufe":5926,"DA":5927,"ĠZusammenhang":5928,"âģĦ":5929,"ĠSlots":5930,"ĠTraum":5931,"ĠAufgabe":5932,"Ġtop":5933,"igungs":5934,"ny":5935,"ĠNachbar":5936,"ckte":5937,"zene":5938,"Ġverw":5939,"Ġgames":5940,"ĠMedia":5941,"ologische":5942,"agno":5943,"ject":5944,"Ġgutes":5945,"rttemberg":5946,"Ġ41":5947,"ĠHum":5948,"Ġschnelle":5949,"ĠSE":5950,"Ġgarant":5951,"verfahren":5952,"ĠPi":5953,"gebracht":5954,"sb":5955,"ĠRechte":5956,"stellte":5957,"passen":5958,"zugs":5959,"jen":5960,"ttel":5961,"gebnisse":5962,"ĠEuch":5963,"wendungen":5964,"ĠZeichen":5965,"Ġeinzige":5966,"zesse":5967,"ĠMedi":5968,"Ġgelo":5969,"berblick":5970,"zehn":5971,"Ġdarin":5972,"ĠSchwa":5973,"ĠMacht":5974,"rati":5975,"rennen":5976,"tzten":5977,"==":5978,"sdorf":5979,"spar":5980,"ĠBezug":5981,"ĠAnlage":5982,"ĠStudie":5983,"ĠKno":5984,"rut":5985,"atik":5986,"Also":5987,"ffekt":5988,"boden":5989,"West":5990,"off":5991,"ĠLandkreis":5992,"Top":5993,"ĠMaschinen":5994,"ltlich":5995,"Ġunabha":5996,"ĠSterne":5997,"spekt":5998,"ĠVersicher":5999,"gramme":6000,"ĠIII":6001,"Ġbestimmten":6002,"Ġgele":6003,"digt":6004,"Ġeinzigar":6005,"Ġaktualis":6006,"aktiv":6007,"ilber":6008,"ĠGre":6009,"Ġgekommen":6010,"van":6011,"amerikan":6012,"ĠArm":6013,"ĠRisiko":6014,"300":6015,"ĠErna":6016,"ĠOlymp":6017,"pol":6018,"ĠSneaker":6019,"Sti":6020,"ĠGame":6021,"ĠThis":6022,"Ur":6023,"ĠFreude":6024,"Ġentstehen":6025,"ĠKategorien":6026,"Th":6027,"fun":6028,"Ġbesondere":6029,"sum":6030,"ĠRest":6031,"bilita":6032,"ĠMaria":6033,"motion":6034,"teuer":6035,"nent":6036,"umin":6037,"istik":6038,"otto":6039,"ĠGesetz":6040,"mmt":6041,"utscheine":6042,"Startseite":6043,"Ġgefallen":6044,"Ġgea":6045,"ĠZahlungs":6046,"station":6047,"betrieb":6048,"ĠVersta":6049,"Ġerf":6050,"kul":6051,"ĠKoch":6052,"anlagen":6053,"Par":6054,"Ġausgewa":6055,"lture":6056,"ymp":6057,"Ġdis":6058,"ĠAusland":6059,"dene":6060,"gerichtet":6061,"angs":6062,"Ġbeliebte":6063,"bra":6064,">*":6065,"ĠBerliner":6066,"Ġgenauso":6067,"ĠQue":6068,"beck":6069,"schlossen":6070,"merikan":6071,"ĠRed":6072,"cts":6073,"farbe":6074,"ĠAR":6075,"ĠGolf":6076,"Deut":6077,"ĠBot":6078,"gien":6079,"ĠBrief":6080,"ĠAndreas":6081,"ĠGeneral":6082,"pflicht":6083,"ĠKeine":6084,"Ġnieder":6085,"ĠIP":6086,"urer":6087,"ĠVeranstaltung":6088,"ĠHallo":6089,"holt":6090,"west":6091,"Ġwenigen":6092,"ĠTru":6093,"NE":6094,"________":6095,"ĠGesicht":6096,"Ġrelativ":6097,"stock":6098,"Chr":6099,"ĠPul":6100,"cre":6101,"swert":6102,"ĠAusfu":6103,"Ġkleiner":6104,"ĠSachen":6105,"wee":6106,"Ġdagegen":6107,"ĠDresden":6108,"Ġnahm":6109,"ĠNet":6110,"fernung":6111,"ĠKrieg":6112,"weite":6113,"ierend":6114,"Ġwunderscho":6115,"FF":6116,"ĠPosition":6117,"Ġml":6118,"Ġvergessen":6119,"Ġtyp":6120,"els":6121,"ĠRE":6122,"Ġentgegen":6123,"geord":6124,"ĠRes":6125,"ĠBenutzer":6126,"Ġsodass":6127,"SE":6128,"orts":6129,"Ġrabatt":6130,"ziell":6131,"Ġwarten":6132,"ĠâĢº":6133,"bereit":6134,"SC":6135,"Ġverste":6136,"Jetzt":6137,"ĠRunde":6138,"kund":6139,"Ġausgestattet":6140,"ĠNetzwerk":6141,"Ġ64":6142,"zur":6143,"ĠHerzen":6144,"sack":6145,"Ġjungen":6146,"ience":6147,"ĠMaÃŁnahmen":6148,"legenheit":6149,"ĠRestaurants":6150,"bewerb":6151,"ole":6152,"ĠCHF":6153,"abine":6154,"achtet":6155,"stisch":6156,"gewicht":6157,"Ġfehlen":6158,"bedarf":6159,"ĠÃ":6160,"ĠZeitung":6161,"info":6162,"ĠVero":6163,"Fin":6164,"ĠTau":6165,"spoli":6166,"ĠPapier":6167,"table":6168,"spf":6169,"Ġschrieb":6170,"ĠBox":6171,"Den":6172,"dag":6173,"ĠOhne":6174,"ĠPha":6175,"Welt":6176,"Ġentsprechend":6177,"ĠSeine":6178,"mittelt":6179,"Ġnotwendig":6180,"figur":6181,"ĠSehr":6182,"zit":6183,"ĠDekor":6184,"Ġmittel":6185,"cent":6186,"ĠZahlen":6187,"serie":6188,"treuung":6189,"ĠOli":6190,"datum":6191,"iven":6192,"Ġdarum":6193,"ĠTiere":6194,"ĠSachsen":6195,"ĠGeorg":6196,"Ġbi":6197,"ĠTat":6198,"Ġgeo":6199,"ĠSpeicher":6200,"treter":6201,"Ġtut":6202,"Ġgra":6203,"ĠMatt":6204,"artikel":6205,"decke":6206,"OW":6207,"ĠRea":6208,"Ġkostenlose":6209,"dul":6210,"merz":6211,"ĠSchreib":6212,"ĠBegriff":6213,"Ġend":6214,"beratung":6215,"ĠJourn":6216,"OC":6217,"rhein":6218,"rend":6219,"gress":6220,"ror":6221,"nicht":6222,"cation":6223,"dauer":6224,"Ġdur":6225,"alisten":6226,"ĠHistor":6227,"Kar":6228,"ato":6229,"ĠMiet":6230,"chse":6231,"Ġant":6232,"ĠGesundheits":6233,"fl":6234,"ĠGottes":6235,"ĠStandort":6236,"fehl":6237,"Ġverloren":6238,"ĠPfar":6239,"ĠAM":6240,"wusst":6241,"cur":6242,"italien":6243,"Ġtoll":6244,"beit":6245,"ĠVerhalten":6246,"ĠHimmel":6247,"ĠLeit":6248,"berall":6249,"ĠCookies":6250,"Ġmachte":6251,"Ġkredit":6252,"cia":6253,"Ð»":6254,"kette":6255,"Wel":6256,"Ġegal":6257,"Adresse":6258,"ĠLudwig":6259,"Deutschland":6260,"punkte":6261,"altung":6262,"ross":6263,"Ġhandel":6264,"ndigung":6265,"ĠEdelstahl":6266,"plo":6267,"Ġverdienen":6268,"Ġgestalten":6269,"ĠAktien":6270,"ĠZo":6271,"blau":6272,"informationen":6273,"ĠPin":6274,"ĠMad":6275,"lecht":6276,"uert":6277,"ĠHeil":6278,"ĠBlumen":6279,"kampf":6280,"++":6281,"ĠEt":6282,"stige":6283,"rnberg":6284,"ĠQuali":6285,"DI":6286,"yo":6287,"ĠWege":6288,"ĠLinie":6289,"Sehr":6290,"Ġpersonenbezo":6291,"blu":6292,"Ġpassiert":6293,"ĠMuster":6294,"Ġkinder":6295,"isiert":6296,"werbe":6297,"ĠeBay":6298,"Ġmelden":6299,"zif":6300,"ĠGrad":6301,"ĠVit":6302,"ĠBremen":6303,"room":6304,"ĠAnforderungen":6305,"deln":6306,"Ġabsolut":6307,"ĠVorteile":6308,"Ġerstellt":6309,"nliche":6310,"kaufen":6311,"ĠInteressen":6312,"ĠAB":6313,"ied":6314,"ĠMB":6315,"ographie":6316,"gestaltung":6317,"chtig":6318,"ĠEinfu":6319,"anta":6320,"ĠFr":6321,"splan":6322,"lernt":6323,">Â«":6324,"lter":6325,"ĠWirkung":6326,"Ġunseres":6327,"sentiert":6328,"ful":6329,"ĠForschung":6330,"ĠBahnhof":6331,"Ġreich":6332,"stitu":6333,"isierung":6334,"aster":6335,"annes":6336,"Recht":6337,"ĠStefan":6338,"gers":6339,"ĠSchluss":6340,"Ġstud":6341,"ĠOberfla":6342,"ĠTransport":6343,"vange":6344,"ĠAL":6345,"gema":6346,"ĠLim":6347,"Ġperfekte":6348,"uld":6349,"ĠNote":6350,"Ġvergleich":6351,"Name":6352,"Dieses":6353,">@":6354,"ĠGemu":6355,"stausch":6356,"News":6357,"sprecher":6358,"dor":6359,"Ġverkauft":6360,"ĠWarum":6361,"ĠAudio":6362,"Vers":6363,"onie":6364,"Ġorig":6365,"auert":6366,"ĠSymp":6367,"ĠPack":6368,"âĢŀ":6369,"Ġwirkt":6370,"iller":6371,"Ġverbessern":6372,"Ġbonus":6373,"ĠMw":6374,"lieben":6375,"kurs":6376,"chster":6377,"terne":6378,"gner":6379,"very":6380,"qualita":6381,"Ġwissenschaft":6382,"Ġhu":6383,"ĠSmartphone":6384,"zahlt":6385,"ĠKle":6386,"chtet":6387,"ĠSound":6388,"omme":6389,"ĠExperten":6390,"vollen":6391,"Jo":6392,"php":6393,"hose":6394,"Ġherr":6395,"ĠUnser":6396,"iskut":6397,"mpfen":6398,"Ġneg":6399,"ĠOpen":6400,"hoch":6401,"rier":6402,"GH":6403,"Ġerwarten":6404,"Ġurspru":6405,"gemeinen":6406,"wolle":6407,"iteinander":6408,"anga":6409,"ĠEurop":6410,"Nicht":6411,"Wohn":6412,"sachen":6413,"ĠFab":6414,"Ġpol":6415,"Ġbeginnen":6416,"mittag":6417,"apier":6418,"ĠNEU":6419,"Ġgeld":6420,"beln":6421,"ĠDeshalb":6422,"rkt":6423,"Ġessen":6424,"ĠFahrer":6425,"pre":6426,"Ġlangen":6427,"Ġ000":6428,"ĠSternen":6429,"kern":6430,"geba":6431,"Ġfindest":6432,"sonsten":6433,"Ġheutigen":6434,"ĠFitness":6435,"Ġspricht":6436,"ĠInterne":6437,"/<":6438,"angebot":6439,"ĠPen":6440,"Ġentwickeln":6441,"ĠVorteil":6442,"Ġumfang":6443,"OK":6444,"Ġ47":6445,"seln":6446,"ĠKern":6447,"HR":6448,"ĠRezen":6449,"rgen":6450,"less":6451,"Ġeig":6452,"ĠVerha":6453,"Ġdeiner":6454,"wortet":6455,"ated":6456,"ĠEnglisch":6457,"ĠKunststoff":6458,"rmer":6459,"oss":6460,"ĠDigital":6461,"ĠSau":6462,"griffen":6463,"ĠDauer":6464,"leder":6465,"eichert":6466,"rille":6467,"gebenen":6468,"Ġglaube":6469,"kirchen":6470,"Ġdating":6471,"ĠSamsung":6472,"ĠPremium":6473,"ahres":6474,"MA":6475,"alismus":6476,"img":6477,"inten":6478,"ĠBericht":6479,"Ġirgendwie":6480,"ĠSemin":6481,"Ġreicht":6482,"eiter":6483,"ĠAlbum":6484,"ĠKant":6485,"Ġverlassen":6486,">|":6487,"Ġhave":6488,"ĠFein":6489,".)<":6490,"rans":6491,"Ġlive":6492,"ĠClo":6493,"ffnungs":6494,"ĠGB":6495,"Ġ1999":6496,"jacke":6497,"ĠSein":6498,"Ġextrem":6499,"Ġerleben":6500,"(\"":6501,"Ġsicht":6502,"wurf":6503,"ĠSlot":6504,"ressum":6505,"ĠGrie":6506,"ĠSchiff":6507,"Ġdarunter":6508,"vertrag":6509,"ĠUnfall":6510,"aller":6511,"LA":6512,"Ġbestimmte":6513,"ustrie":6514,"Ġwann":6515,"messe":6516,"griffe":6517,"ĠGla":6518,"ĠWohl":6519,"span":6520,"Ġlieben":6521,"ĠHon":6522,"Ġeingesch":6523,"orient":6524,"Tu":6525,"online":6526,"Ġhaus":6527,"Ġtraditione":6528,"FuÃŁ":6529,"alien":6530,"ĠStro":6531,"genes":6532,"ĠGefa":6533,"ĠSha":6534,"ĠColle":6535,"Up":6536,"ex":6537,"denen":6538,"reicher":6539,"ĠKann":6540,"ĠKas":6541,"Ġbuchen":6542,"ilien":6543,"mor":6544,"ĠInstitut":6545,"tec":6546,"nfte":6547,"nissen":6548,"Ġeinfache":6549,"ĠWeite":6550,"ĠDaher":6551,"glieder":6552,"rib":6553,"ĠMinister":6554,"ĠStartseite":6555,"agra":6556,"ĠDor":6557,"ĠTrin":6558,"Ġmodern":6559,"ius":6560,"fass":6561,"Ġmach":6562,"Ġinzwischen":6563,"Ġmoderne":6564,"tung":6565,"Service":6566,"anzeigen":6567,"rsg":6568,"Ġextra":6569,"ĠBedu":6570,"ÌĨ":6571,"falen":6572,"misch":6573,"ĠGebu":6574,"ĠSV":6575,"Ġgood":6576,"Ġland":6577,"Ġberuf":6578,"lent":6579,"korb":6580,"Ġfallen":6581,"stab":6582,"ieur":6583,"Ġfolgt":6584,"ĠJung":6585,"ĠKunde":6586,"ĠKart":6587,"ĠCode":6588,"Ġfun":6589,"pot":6590,"dagog":6591,"Ġgemu":6592,"ĠVerbraucher":6593,"Ġbrit":6594,"liger":6595,"ipl":6596,"Ġvergleichen":6597,"ĠAN":6598,"Ġpassende":6599,"ĠStock":6600,"ĠLeiter":6601,"Ġgespielt":6602,"Ġerlaubt":6603,"ĠAlltag":6604,"nur":6605,"ĠOrganisation":6606,"Daten":6607,"Ġdenken":6608,"Ġkonkre":6609,"DP":6610,"Ġbauen":6611,"Ġzahlen":6612,"werden":6613,"âĢľ.<":6614,"ĠSat":6615,"Min":6616,"ĠlieÃŁ":6617,"Ġkennt":6618,"uchten":6619,"pu":6620,"ĠSpiegel":6621,"frau":6622,"center":6623,"Ist":6624,"ĠSprach":6625,"ĠLebensmittel":6626,"ĠOrts":6627,"ield":6628,"Ġschneller":6629,"Ġmore":6630,"Sam":6631,"Ġgesucht":6632,"rker":6633,"tagen":6634,"arts":6635,"Ġ54":6636,"Ġsex":6637,"iew":6638,"content":6639,"ado":6640,"ruhe":6641,"AA":6642,"2005":6643,"bit":6644,"pfe":6645,"Ðº":6646,"ĠWilli":6647,"Ġattra":6648,"ĠWerbung":6649,"runde":6650,"ĠInstru":6651,"mg":6652,"ĠIntel":6653,">Â»":6654,"falt":6655,"ĠHot":6656,"ĠSchlie":6657,"hlten":6658,"Ġlangsam":6659,"rot":6660,"Scho":6661,"ÃŁere":6662,"Ġdrauf":6663,"mmung":6664,"reet":6665,"mbol":6666,"flo":6667,"ĠFlor":6668,"beg":6669,"lim":6670,"Ġschreibt":6671,"ĠFeuerwehr":6672,"urist":6673,"bay":6674,"Ġkombin":6675,"Ġph":6676,"cedes":6677,"ĠWeltkrie":6678,"ĠNike":6679,"passt":6680,"ĠBedingungen":6681,"ĠTrotz":6682,"ĠMwSt":6683,"Di":6684,"rzen":6685,"rauben":6686,"ĠArten":6687,"ĠGames":6688,"ĠErinner":6689,"Ġeffe":6690,"ĠRobert":6691,"gewo":6692,"ampag":6693,"lauch":6694,"bald":6695,"Ġgrundsa":6696,"003":6697,"Ġter":6698,"ktik":6699,"gebu":6700,"eiden":6701,"Ġnochmal":6702,"ids":6703,"stallation":6704,"Ġdel":6705,"Ġerweiter":6706,"Ġslots":6707,"Ġdeinem":6708,"work":6709,"lash":6710,"ĠSchauspieler":6711,"ĠJahrhunderts":6712,"ĠMicrosoft":6713,"ĠRechtsan":6714,"visor":6715,"utze":6716,"ĠEhren":6717,"kar":6718,"Do":6719,"Ġgera":6720,"ulation":6721,"voline":6722,"agd":6723,"ĠMc":6724,"var":6725,"Ġmusst":6726,"Ġgestern":6727,"ĠHandels":6728,"Ġ1990":6729,"ĠBewegung":6730,"ahnen":6731,"Ġgekauft":6732,"ĠMotiv":6733,"ĠProfil":6734,"Ġentweder":6735,"nitz":6736,"ĠBee":6737,"Ġtau":6738,"ĠOp":6739,"Ġlag":6740,"XL":6741,"BA":6742,"ĠStern":6743,"Ġdauer":6744,"Ġbeob":6745,"ĠAlten":6746,"ĠPum":6747,"ĠGT":6748,"Ġeigen":6749,"Lu":6750,"ĠDavid":6751,"Ġentdecken":6752,"Ġzahlreichen":6753,"ault":6754,"ĠJobs":6755,"px":6756,"gegeben":6757,"ĠGanz":6758,"dische":6759,"AND":6760,"ĠOf":6761,"ĠAufbau":6762,"ĠGei":6763,"Ġbedeuten":6764,"weiÃŁ":6765,"Ġerscheint":6766,"ĠVW":6767,"oster":6768,"ĠBie":6769,"ĠLust":6770,"rena":6771,"Poli":6772,"ĠVorsitzen":6773,"Ġarbeitet":6774,"kopf":6775,"sache":6776,"ĠSpezi":6777,"fas":6778,"aust":6779,"Shop":6780,"ĠWunder":6781,"Ġkat":6782,"holen":6783,"bellen":6784,"richtet":6785,"rc":6786,"ĠRussland":6787,"Ġflie":6788,"blichen":6789,"ĠLiter":6790,"Ġarbeite":6791,"ĠFans":6792,"vention":6793,"mospha":6794,"ĠJapan":6795,"inings":6796,"ĠGebiet":6797,"gangs":6798,"gy":6799,"ĠOffen":6800,"ĠTasche":6801,"metho":6802,"ĠMesse":6803,"ĠQuad":6804,"ĠVereins":6805,"ĠMerkur":6806,"Ġdeutschland":6807,"Ġverbin":6808,"Ġunmittel":6809,"ĠStraf":6810,"ĠVerka":6811,"ĠBud":6812,"SU":6813,"rags":6814,"Ġvorne":6815,"ales":6816,"ĠEss":6817,"Ġweder":6818,"stlichen":6819,"ae":6820,"beu":6821,"nftig":6822,"dach":6823,"iveau":6824,"Ġinformieren":6825,"ĠPolitiker":6826,"spon":6827,"ages":6828,"rsten":6829,"leiten":6830,"ĠVort":6831,"Ġober":6832,"Ġ99":6833,"Ġung":6834,"ĠKal":6835,"RW":6836,"Ġdre":6837,"Ġbekannte":6838,"ĠProdukten":6839,"stil":6840,"iler":6841,"car":6842,"ulette":6843,"Ġdritten":6844,"null":6845,"otheke":6846,"Ġitalien":6847,"ĠWLAN":6848,"ĠMei":6849,"VO":6850,"ĠTel":6851,"ĠUser":6852,"Aktuel":6853,"schi":6854,"Ġsoweit":6855,"Telefon":6856,"ĠKG":6857,"Ġ*<":6858,"ĠKarriere":6859,"ĠMaster":6860,"istenz":6861,"azin":6862,"lassung":6863,"Grund":6864,"Ġpsych":6865,"ĠStudium":6866,"Ġvia":6867,"Ġaufgenommen":6868,"Ġhoffe":6869,"seque":6870,"Ġgenannten":6871,"ĠSC":6872,"PU":6873,"ĠAnzeige":6874,"ĠErde":6875,"ĠVielleicht":6876,"Ġentsprechenden":6877,"renn":6878,"Ġkommenden":6879,"Arch":6880,"chester":6881,"nern":6882,"ĠBalkon":6883,"uminium":6884,"ĠGewa":6885,"opy":6886,"machen":6887,"Ġfro":6888,"Ġ52":6889,"ĠProjekte":6890,"oga":6891,"ĠGeh":6892,"ple":6893,"Ġverpflich":6894,"fikation":6895,"rfte":6896,"ĠModelle":6897,"dra":6898,"Ġengli":6899,"gehend":6900,"ĠRelig":6901,"dire":6902,"ĠKatzen":6903,"ferung":6904,"Ġerga":6905,"FT":6906,"ĠFrieden":6907,"Ġstarten":6908,"ĠGlau":6909,"ĠWur":6910,"IK":6911,"ĠBek":6912,"ĠAnfrage":6913,"ologischen":6914,"ĠWolfgang":6915,"Stadt":6916,"Ġgarten":6917,"Ġnachhal":6918,"ĠDokument":6919,"ĠInnov":6920,"ĠOutdoor":6921,"ĠBier":6922,"Ġ[...]<":6923,"Ġgenu":6924,"Nur":6925,"messen":6926,"ĠPay":6927,"ĠIde":6928,"rican":6929,"Ġamerikan":6930,"akt":6931,"liefert":6932,"atoren":6933,"arif":6934,"ĠMobil":6935,"ĠAmts":6936,"Ġnatur":6937,"ĠGran":6938,"ĠOl":6939,"takte":6940,"lio":6941,"ĠDist":6942,"Bitte":6943,"Ġtotal":6944,"langt":6945,"Schu":6946,"fle":6947,"ikon":6948,"kturen":6949,"nas":6950,"willi":6951,"Ġbilden":6952,"ĠHalle":6953,"WE":6954,"bliche":6955,"Â§":6956,"zeichnis":6957,"ĠDenk":6958,"Ġreag":6959,"Ġbesonderen":6960,"ĠVertrags":6961,"Ġsicherlich":6962,"ikipedia":6963,"ĠFahrt":6964,"zustellen":6965,"\"-":6966,"ĠFro":6967,"ards":6968,"aa":6969,"Film":6970,"ĠgroÃŁes":6971,"ĠFilme":6972,"Lin":6973,"ĠGrundstu":6974,"formance":6975,"Ġ600":6976,"ordin":6977,"dischen":6978,"seller":6979,"ĠAkku":6980,"ility":6981,"Ġausdru":6982,"Ġprofit":6983,"CO":6984,"Ġfragen":6985,"orge":6986,"Ġpru":6987,"Danke":6988,"ĠMotorrad":6989,"Ġkleines":6990,"kademie":6991,"Ġsan":6992,"ĠGeschmack":6993,"ĠUrteil":6994,"Ġerz":6995,"ĠHen":6996,"Zimmer":6997,"richte":6998,"ĠGefahr":6999,"ĠFisch":7000,"Ġbequem":7001,"ĠVerle":7002,"oten":7003,"bliothek":7004,"Ġblieb":7005,"ving":7006,"Ġread":7007,"Ġtrifft":7008,"Ġâľ":7009,"Ġbesuchen":7010,"ronik":7011,"pi":7012,"Ġzusta":7013,"leuchte":7014,"Techn":7015,"ĠPool":7016,"Ġideen":7017,"ĠâĢł":7018,"stechnik":7019,"Ġtief":7020,"regierung":7021,"Ġ1998":7022,"Ġspu":7023,"ĠAufenthalt":7024,"ĠUnion":7025,"spu":7026,"Seite":7027,"ĠTerrasse":7028,"rex":7029,"ior":7030,"utton":7031,"lease":7032,"ĠManager":7033,"Ġif":7034,"\".<":7035,"Ġgleiche":7036,"ĠSchla":7037,"Ġkostet":7038,"indungen":7039,"ĠKleid":7040,"rsen":7041,"irus":7042,"ĠWelche":7043,"ĠDortmund":7044,"SL":7045,"ladung":7046,"achtung":7047,"Ġkennenlernen":7048,"Ġzunehmen":7049,"Ġexist":7050,"Ġteilen":7051,"ĠBeschreibung":7052,"hotel":7053,"ĠPas":7054,"ĠArbeitsp":7055,"Ġprodu":7056,"ĠLab":7057,"ĠKooper":7058,"Ġstellte":7059,"ndeten":7060,"ĠKritik":7061,"ĠAmt":7062,"sberg":7063,"vera":7064,"ministerium":7065,"ĠGol":7066,"any":7067,"Or":7068,"Ġberech":7069,"ĠKombination":7070,"400":7071,"md":7072,"ĠSign":7073,"Ġgebu":7074,"Fahr":7075,"Ġentschieden":7076,"ĠMir":7077,"ichter":7078,"blog":7079,"ĠBereichen":7080,"hemati":7081,"ĠBMW":7082,"lassic":7083,"ves":7084,"mpfadern":7085,"SD":7086,"lina":7087,"chtung":7088,"Ġweiss":7089,"ĠSpanien":7090,"ohol":7091,"áĨ":7092,"ĠKonto":7093,"Ze":7094,"ĠTanz":7095,"handlungen":7096,"ĠMikro":7097,"ology":7098,"Ġfoto":7099,"ĠDass":7100,"itel":7101,"ĠGeb":7102,"glas":7103,"Ġinnov":7104,"hagen":7105,"ĠGrundlage":7106,"Teil":7107,"Ġlohnt":7108,"ila":7109,"ĠWachst":7110,"rkte":7111,"iso":7112,"Ġgetro":7113,"Ġhinten":7114,"atus":7115,"ĠðŁĺ":7116,"SCH":7117,"Geschichte":7118,"ĠOption":7119,"vy":7120,"atterie":7121,"ĠSchon":7122,"ENT":7123,"anda":7124,"BE":7125,"ĠDaru":7126,"ĠEigenschaften":7127,"ĠFrem":7128,"ashion":7129,"ĠHeinrich":7130,"ĠAusstellung":7131,"Ġschauen":7132,"versorgung":7133,"ĠSki":7134,"zwei":7135,"Ġregion":7136,"hte":7137,"HL":7138,"Meine":7139,"boten":7140,"Ġflex":7141,"ckey":7142,">Â©":7143,"ĠInn":7144,"Ġblo":7145,"ĠEben":7146,"ĠMio":7147,"ĠTherapie":7148,"ĠNutz":7149,"ĠVogel":7150,"hrende":7151,"itiative":7152,"ĠZweck":7153,"ĠKlaus":7154,"ĠPoten":7155,"ela":7156,"ĠDiskussion":7157,"ĠRicht":7158,"ĠSchaden":7159,"vt":7160,"sslich":7161,"trol":7162,"Ġrus":7163,"luft":7164,"PR":7165,"Zeit":7166,"yal":7167,"sal":7168,"mei":7169,"mentar":7170,"gin":7171,"ĠUmsatz":7172,"filter":7173,"Ġherum":7174,"posit":7175,"ĠSur":7176,"gangenheit":7177,"ĠBeach":7178,"Ġdro":7179,"nem":7180,"Ġproblem":7181,"Ġ85":7182,"ĠLehrer":7183,"Ġinvest":7184,"ĠDDR":7185,"ep":7186,"schenke":7187,"Ġ56":7188,"ĠInternets":7189,"ammt":7190,"ĠDein":7191,"lue":7192,"forschung":7193,"101":7194,"TC":7195,"politik":7196,"ĠAnalyse":7197,"ĠOs":7198,"Ġkra":7199,"ĠKonzept":7200,"Ġalleine":7201,"bildungs":7202,"ĠAlexander":7203,"ĠRosen":7204,"PO":7205,"illen":7206,"Ġanti":7207,",.":7208,"dungen":7209,"anze":7210,"Ġmiteinander":7211,"platten":7212,"ĠKennt":7213,"ĠEcht":7214,"deten":7215,"hrlei":7216,"ĠWilhelm":7217,"Ġel":7218,"ĠKop":7219,"gesetzt":7220,"ĠBetra":7221,"ĠAntrag":7222,"anischen":7223,"ade":7224,"ĠMilliarden":7225,"mis":7226,"Ġsorg":7227,"ĠUrlau":7228,"Ġhol":7229,"ĠAudi":7230,"Ġvielfa":7231,"Ġalternative":7232,"forderung":7233,"Berlin":7234,"alisiert":7235,"stlich":7236,"ĠSun":7237,"Ġdesign":7238,"ĠVerwaltungs":7239,"ning":7240,"ĠAdresse":7241,"rischer":7242,"ĠGroÃŁe":7243,"Ġberichtet":7244,"ĠInfo":7245,"ĠHomepage":7246,"Dar":7247,"idt":7248,"fred":7249,"Ġfehlt":7250,"ĠAnna":7251,"Kunden":7252,"suchte":7253,"musik":7254,"uchte":7255,"ĠIntegr":7256,"ĠRing":7257,"Ġtest":7258,"ĠGeheim":7259,"Ġnow":7260,"ĠGrenzen":7261,"Ġ59":7262,"ĠSpitzen":7263,"ĠNorden":7264,"ĠKi":7265,"ĠTemp":7266,"stel":7267,"ranten":7268,"tischer":7269,"ĠPerso":7270,"hindern":7271,"ĠGegner":7272,"ged":7273,"Ġbau":7274,"Dien":7275,"Ġmussten":7276,"ĠKostenlos":7277,"Ġschli":7278,"Ġvan":7279,"Ġeint":7280,"ĠanschlieÃŁend":7281,"Univers":7282,"Ġzw":7283,"Ġsah":7284,"rchen":7285,"ĠLuxus":7286,"Ġgesetzt":7287,"kas":7288,"Ġmensch":7289,"henswu":7290,"Unser":7291,"ĠTatsa":7292,"ines":7293,"AK":7294,"ĠMilch":7295,"onne":7296,"ĠParte":7297,"zum":7298,"glicherweise":7299,"ĠCam":7300,"willig":7301,"richter":7302,"eichern":7303,"ĠSpitze":7304,"ĠGalaxy":7305,"ĠFal":7306,"ords":7307,"ĠSchmuck":7308,"Mag":7309,"****":7310,"CE":7311,"Ġlast":7312,"ĠUmgang":7313,"iefer":7314,"nie":7315,"Ġzieht":7316,"modell":7317,"itor":7318,"lenk":7319,"ĠFranzo":7320,"Ġachten":7321,"Ġwelchen":7322,"ĠQuelle":7323,"ĠAllgemein":7324,"melt":7325,"cle":7326,"index":7327,"ĠGute":7328,"steigen":7329,"ĠBlock":7330,"Ġdurchschnitt":7331,"Ġinklusive":7332,"ĠMaterialien":7333,"ĠShow":7334,"Ġsauber":7335,"ĠReda":7336,"ĠBrem":7337,"gemeinde":7338,"ĠWM":7339,"ĠEinfluss":7340,"ãĤ":7341,"horn":7342,"ious":7343,"ĠJust":7344,"Ġgebe":7345,"ĠHart":7346,"..<":7347,"ĠHir":7348,"Ġgeboren":7349,"Ġveran":7350,"chtes":7351,"Ġslot":7352,"ĠPlanung":7353,"ĠGewalt":7354,"ĠRec":7355,"Inform":7356,"ĠLeider":7357,"ader":7358,"ries":7359,"gage":7360,"ĠUniversity":7361,"lover":7362,"ĠCenter":7363,"ĠDre":7364,"schaffen":7365,"Ġsystem":7366,"Ġmittels":7367,"nungen":7368,"Ihr":7369,"ĠNachdem":7370,"forum":7371,"Ġhochwertige":7372,"ĠAufnahme":7373,"112":7374,"Ġtesten":7375,"Ġspielte":7376,"ĠSow":7377,"Ġmodernen":7378,"cast":7379,"ĠTemperatur":7380,"rechts":7381,"Ġgene":7382,"ĠCu":7383,"ĠBeteilig":7384,"bb":7385,"ĠBeho":7386,"Ġmedizin":7387,"Ġ?<":7388,"Ġflu":7389,"orm":7390,"Zit":7391,"zufu":7392,"sitz":7393,"ĠBestellung":7394,"flus":7395,"ĠZusch":7396,"penden":7397,"verha":7398,"ĠBeob":7399,"letten":7400,"ĠDafu":7401,"Ġstarke":7402,"ischof":7403,"ĠArbeitgeber":7404,"Ġ110":7405,"ĠWerkzeug":7406,"Ġsen":7407,"berichte":7408,"Ġdpa":7409,"macht":7410,"UL":7411,"ĠEvent":7412,"funk":7413,"ĠUnterricht":7414,"Ġgezeigt":7415,"Ġsteigen":7416,"Ġgeschu":7417,"ĠReal":7418,">âĢľ":7419,"ĠWell":7420,"verwaltung":7421,"ĠRus":7422,"Ġhilfreich":7423,"arma":7424,"ĠGrafik":7425,"legte":7426,"wenden":7427,"haften":7428,"ĠSekunden":7429,"Ġvorstellen":7430,"ĠVerbesser":7431,"ury":7432,"ĠUmsetzung":7433,"Ġbeant":7434,"ĠSchulen":7435,"Ġevent":7436,"Ġhabt":7437,"ĠMisch":7438,"Ind":7439,"Ġbean":7440,"Ġentsprechende":7441,"ĠBrun":7442,"ĠSCH":7443,"bor":7444,"mband":7445,"ĠMig":7446,"Ġloka":7447,"ĠStati":7448,"ĠFi":7449,"Ġplus":7450,"ĠVersch":7451,"))":7452,"tend":7453,"ĠTeams":7454,"ĠLad":7455,"ĠNoch":7456,"geblich":7457,"wood":7458,"ĠCal":7459,"idee":7460,"ĠUnterschied":7461,"schuh":7462,"pr":7463,"Ġgewann":7464,"Buch":7465,"Ġ58":7466,"ĠGermany":7467,"ĠMie":7468,"ĠRang":7469,"ĠJohannes":7470,"bernehmen":7471,"Ġentspricht":7472,"ĠFront":7473,"bers":7474,"auftrag":7475,"Ġplo":7476,"diger":7477,"ĠFreie":7478,"nahm":7479,"petenz":7480,"ford":7481,"Dis":7482,"rdert":7483,"kw":7484,"ĠFleisch":7485,"stellungs":7486,"ĠKau":7487,"uml":7488,"ĠKonzert":7489,"Ġinteressant":7490,"Ġentfernen":7491,"ĠJeder":7492,"/-":7493,"Ġheim":7494,"sprung":7495,"ĠMinute":7496,"ĠSchwar":7497,"hed":7498,"And":7499,"Ġ51":7500,"ĠVergangenheit":7501,"Ġwirst":7502,"werks":7503,"ĠâĢļ":7504,"berzeugt":7505,"fahrung":7506,"Ġpost":7507,"zellen":7508,"ĠTechnologie":7509,"ftigt":7510,"lima":7511,"Bis":7512,"Ġwichtiger":7513,"bersetzung":7514,"Ġbesitzt":7515,"Hei":7516,"tab":7517,"ĠOpfer":7518,"Ġzeich":7519,"ĠMau":7520,"Ġfer":7521,"Ġelektron":7522,"ĠProvin":7523,"gelegt":7524,"ĠErnst":7525,"via":7526,"Ġwichtigen":7527,"ĠAutos":7528,"okus":7529,"kirche":7530,"Ġsc":7531,"ĠAusstattung":7532,"ĠTom":7533,"Ġ180":7534,"ĠIV":7535,"Ġehemaligen":7536,"tigte":7537,"ĠMedika":7538,"vision":7539,"Ġmark":7540,"ĠReifen":7541,"Ġvar":7542,"Kateg":7543,"ĠRoh":7544,"ĠGeist":7545,"ĠGab":7546,"ĠVertrauen":7547,"kg":7548,"Ġwirken":7549,"Ġ..":7550,"ffung":7551,"ĠAccess":7552,"Ġsim":7553,"Ġnation":7554,"higen":7555,"dre":7556,"ĠAqu":7557,"ĠKos":7558,"Ġone":7559,"ĠPhysi":7560,"ĠWeihnachten":7561,"ĠForschungs":7562,"teid":7563,"Ġbishe":7564,"ltigen":7565,"ĠTher":7566,"hallen":7567,"size":7568,"-<":7569,"ndigt":7570,"ĠDadurch":7571,"cing":7572,"Ġsolltest":7573,"ĠArchiv":7574,"Ġwachsen":7575,"Rad":7576,"SA":7577,"ĠHi":7578,"fur":7579,"Ġentwickel":7580,"staat":7581,"FC":7582,"Ġ95":7583,"Ġvoller":7584,"asi":7585,"reises":7586,"Star":7587,"becken":7588,"Team":7589,"Ġele":7590,"ami":7591,"ĠSchlei":7592,"hops":7593,"Ġweb":7594,"ĠAnha":7595,"aufnahme":7596,"images":7597,"Ġwasser":7598,"ĠKloster":7599,"ĠOptionen":7600,"ĠHinweis":7601,"false":7602,"Ġnachge":7603,"ĠVersandkosten":7604,"ÃŁeren":7605,"ĠOrdnung":7606,"rape":7607,"beschreibung":7608,"ĠVerwaltung":7609,"Ġgedacht":7610,"ost":7611,"tum":7612,"ĠImmer":7613,"med":7614,"lafzimmer":7615,"rdigkeiten":7616,"ĠDemok":7617,"Super":7618,"kri":7619,"ĠTha":7620,"Ġklicken":7621,"wege":7622,"Ġneun":7623,"bek":7624,"ĠStep":7625,"ktes":7626,"Ñĥ":7627,"ĠLesen":7628,"deu":7629,"outube":7630,"fried":7631,"ĠTrend":7632,"ĠBR":7633,"ziehungs":7634,"ida":7635,"Shirt":7636,"ĠDaniel":7637,"ĠVereinig":7638,"Ġpolitische":7639,"ĠGetra":7640,"alys":7641,"ilis":7642,"ĠModern":7643,"zeichnen":7644,"ĠWorks":7645,"Sc":7646,"Ġgehalten":7647,"Ġtollen":7648,"ĠNewsletter":7649,"wann":7650,"ĠEindruck":7651,"ĠKollegen":7652,"Ġfach":7653,"ĠChem":7654,"Frei":7655,"ĠDarm":7656,"2004":7657,"ĠBeweg":7658,"rint":7659,"inein":7660,"ffentlichkeit":7661,"Ġpolitischen":7662,"ĠRand":7663,"schech":7664,"ĠDeutschlands":7665,"ĠDisplay":7666,"ĠAust":7667,"ffentliche":7668,"Ġfalsch":7669,"uchtisch":7670,"ĠSchl":7671,"ĠMund":7672,"ĠPoker":7673,"ĠIma":7674,"ils":7675,"ĠStiftung":7676,"Ġbewa":7677,"meldet":7678,"ĠAlternative":7679,"Ġfanden":7680,"ĠLiga":7681,"Heute":7682,"fes":7683,"ĠBundesliga":7684,"duzieren":7685,"gol":7686,"versammlung":7687,"ĠPaar":7688,"rfe":7689,"ĠLaden":7690,"Ġumfasst":7691,"ĠFilter":7692,"spannung":7693,"ĠRechnung":7694,"BO":7695,"Ġschwei":7696,"kleid":7697,"ĠCle":7698,"ĠKarls":7699,"ohne":7700,"ĠAlters":7701,"ĠTipp":7702,"ĠTun":7703,"ĠEu":7704,"ĠTal":7705,"spartner":7706,"deckung":7707,"ĠGela":7708,"ymnas":7709,"ĠAug":7710,"Ġ)<":7711,"waren":7712,"ĠPoly":7713,"ĠDanach":7714,"Bus":7715,"ĠZusatz":7716,"umme":7717,"ĠZucker":7718,"mbo":7719,"Ġausreichend":7720,"zier":7721,"ugh":7722,"Ġ1997":7723,"Ġangezeigt":7724,"Ġglo":7725,"ĠCount":7726,"nnis":7727,"ĠBrust":7728,"search":7729,"ĠModel":7730,"\"]":7731,"scheidung":7732,"ĠSocial":7733,"Ġweiterer":7734,"Wind":7735,"Ġ69":7736,"ĠPolen":7737,"Ġinnen":7738,"pho":7739,"berwach":7740,"kohol":7741,"siden":7742,"bindung":7743,"ĠAuflage":7744,"ĠCDU":7745,"Ġernst":7746,"ĠSchnell":7747,"vide":7748,"ĠAnteil":7749,"Ġ53":7750,"Ġhingegen":7751,"cat":7752,"Ort":7753,"ĠPubli":7754,"weisung":7755,"organis":7756,"now":7757,"ĠStrecke":7758,"Fi":7759,"ĠErkla":7760,"wohnungen":7761,"chel":7762,"ĠCy":7763,"regel":7764,"Ġ800":7765,"ĠLade":7766,"kultur":7767,"ĠCorona":7768,"Ġverantwortlich":7769,"Ġbewusst":7770,"achter":7771,"Ġbegeistert":7772,"ĠStudenten":7773,"ature":7774,"bast":7775,"ĠKleider":7776,".[":7777,"ĠVan":7778,"Ġtelefon":7779,"max":7780,"urce":7781,"aren":7782,"ĠGrand":7783,"AV":7784,"alte":7785,"ssigkeit":7786,"sinn":7787,"ĠBeziehung":7788,"ĠGreen":7789,"hrliche":7790,"zgl":7791,"Fo":7792,"Ġvoraus":7793,"ĠEreig":7794,"ĠNovoline":7795,"derung":7796,"ĠBesonders":7797,"ĠEurope":7798,"reine":7799,"ĠMilita":7800,"Ġ140":7801,"%<":7802,"Ġpositiv":7803,"chtest":7804,"-)<":7805,"gemeinschaft":7806,"ĠPreisvergleich":7807,"gebnis":7808,"Ġiden":7809,"fordert":7810,"Autor":7811,"storben":7812,"nze":7813,"ĠTeilen":7814,"andern":7815,"Ġ!<":7816,"ĠRollen":7817,"tert":7818,"ĠCharakter":7819,"ĠHat":7820,"fristig":7821,"Ġplan":7822,"arbeits":7823,"dienung":7824,"ites":7825,"BER":7826,"ime":7827,"ĠBig":7828,"hige":7829,"ftigen":7830,"brechen":7831,"ĠUpdate":7832,"ĠLeague":7833,"Ġ1996":7834,"ĠJungen":7835,"rennt":7836,"vas":7837,"iers":7838,"gerung":7839,"Ġbar":7840,"ĠTeilnahme":7841,"lerin":7842,"Ġbed":7843,"stimmungen":7844,"bungs":7845,"ĠLast":7846,"views":7847,"Ġbezahlen":7848,"ĠFahrzeuge":7849,"pul":7850,"born":7851,"ĠStamm":7852,"titel":7853,"ĠRezept":7854,"Ġauswa":7855,"ĠHab":7856,"umb":7857,"Ġbeton":7858,"Ġ-<":7859,"Ġ57":7860,"ek":7861,"ĠInterview":7862,"pool":7863,"ĠLese":7864,"verkauf":7865,"une":7866,"ĠVolk":7867,"arl":7868,"ula":7869,"Ġgeschlossen":7870,"Komp":7871,"Fol":7872,"Ġmusik":7873,"Hrsg":7874,"Musik":7875,"ĠNik":7876,"ĠRegeln":7877,"ĠProje":7878,"ĠHessen":7879,"Ġschwa":7880,"Ġnotwend":7881,"cription":7882,"ziger":7883,"schulen":7884,"greifen":7885,"hread":7886,"ĠWare":7887,"Ġbessere":7888,"Ġform":7889,"Ġorden":7890,"ĠParla":7891,"holung":7892,"nthe":7893,"Ġdiskut":7894,"ved":7895,"Ġour":7896,"ichert":7897,"ĠWesten":7898,"feren":7899,"Ġplay":7900,"600":7901,"ĠAutom":7902,"ĠEinrichtung":7903,"brit":7904,"istrieren":7905,"Ober":7906,"ĠInvestit":7907,"Ġbetei":7908,"Sto":7909,"ĠNahr":7910,"Ġinternationale":7911,"Ġgebraucht":7912,"tex":7913,"Ġpdf":7914,"ĠTreffen":7915,"&#":7916,"Ġlebt":7917,"ĠBauern":7918,"zieht":7919,"bertra":7920,"Ġbewerten":7921,"kord":7922,"ĠLer":7923,"Ġdient":7924,"Ġverschieden":7925,"Ġgewo":7926,"ĠBay":7927,"Ġsk":7928,"ĠNeues":7929,"Ġverhindern":7930,"ĠWerte":7931,"Neben":7932,"ĠShe":7933,"Ġhaupt":7934,"ĠFan":7935,"anische":7936,"heber":7937,"ĠAbsatz":7938,"Tags":7939,"Ġbekannten":7940,"ĠNein":7941,"ĠLy":7942,"ĠStudio":7943,"Ġzuverla":7944,"Ġvertreten":7945,"Ġschrift":7946,"version":7947,"Ġeure":7948,"Ġniemand":7949,"ĠStruktur":7950,"vert":7951,"ref":7952,"neu":7953,"Ġvis":7954,"ando":7955,"ĠKit":7956,"Modell":7957,"ĠOffice":7958,"TR":7959,"Ġentstanden":7960,"ĠVom":7961,"Ġ1995":7962,"ĠBildungs":7963,"rel":7964,"berzeugen":7965,"ĠBedarf":7966,"ssige":7967,"Ġsiehe":7968,"Beim":7969,"ĠFett":7970,"Pf":7971,"LINE":7972,"ging":7973,"ĠKrampfadern":7974,"rkei":7975,"wechs":7976,"don":7977,"tim":7978,"Ġsehe":7979,"978":7980,"ĠZiele":7981,"ĠGrill":7982,"Auto":7983,"vermittlung":7984,"spruchs":7985,"ght":7986,"ĠInformations":7987,"ãģ":7988,"ĠKlassen":7989,"ĠZentral":7990,"ĠZuge":7991,"dus":7992,"Ġholz":7993,"farben":7994,"ligt":7995,"fic":7996,"urlaub":7997,"ffizienz":7998,"ĠGerade":7999,"Ġzo":8000,"Ġfla":8001,"DER":8002,"Ġap":8003,"ĠFas":8004,"pft":8005,"ĠLieblings":8006,"ĠKing":8007,"ĠErwachsene":8008,"Dann":8009,"ĠThu":8010,"Ġfrauen":8011,"ĠMP":8012,"ĠMiss":8013,"fertigt":8014,"sidenten":8015,"ĠKriegs":8016,"izz":8017,"800":8018,"Ġweiteres":8019,"ralen":8020,":\\":8021,"Ġvery":8022,"Ġideal":8023,"rliche":8024,"ĠHals":8025,"Ġmobile":8026,"ĠmuÃŁ":8027,"Bahn":8028,"ĠOster":8029,"dige":8030,"loses":8031,"Hol":8032,"rufe":8033,"ĠJul":8034,"Ġhas":8035,"ĠLee":8036,"lands":8037,"ĠMobile":8038,"medizin":8039,"ĠZeitraum":8040,"orten":8041,"Alles":8042,"grad":8043,"ohnt":8044,"vertra":8045,"Damen":8046,"Ġlee":8047,"tial":8048,"ĠNachricht":8049,"rahmen":8050,"ĠWall":8051,"ĠFernseh":8052,"Kat":8053,"ĠEinen":8054,"Advisor":8055,"ĠAch":8056,"ĠAnton":8057,"unger":8058,"ĠErste":8059,"stische":8060,"Ġkontakt":8061,"ĠTy":8062,"schienen":8063,"ĠBan":8064,"ĠMay":8065,"start":8066,"strom":8067,"},":8068,"ĠAS":8069,"ĠBreite":8070,"ĠKontrolle":8071,"irl":8072,"ĠAnaly":8073,"nscht":8074,"paratur":8075,"kasten":8076,"ĠWeil":8077,"Ġgewonnen":8078,"ĠLap":8079,"ĠTrip":8080,"ĠAllgemeine":8081,"ĠauÃŁerhalb":8082,"bby":8083,"ĠTwitter":8084,"ĠChamp":8085,"Farbe":8086,"sprechend":8087,"Ġspeziell":8088,"rient":8089,"mtliche":8090,"Bundes":8091,"Ġ66":8092,"wenn":8093,"ĠKomfort":8094,"ĠLern":8095,"ĠTrainings":8096,"ĠEinfach":8097,"Sel":8098,"Ġsozialen":8099,"Fre":8100,"ĠApart":8101,"ĠTradition":8102,"Ġsho":8103,"ĠChancen":8104,"Ġbislang":8105,"ĠGeschichten":8106,"ible":8107,"Ġ~":8108,"Christ":8109,"Ġvermut":8110,"ĠAluminium":8111,"ĠFund":8112,"ĠEinige":8113,"ĠMA":8114,"Ġbeschrieben":8115,"Ġkurzen":8116,"Ġausgeb":8117,"zone":8118,"kennung":8119,"kus":8120,"ãĥ":8121,"sparen":8122,"stant":8123,"itiv":8124,"Ġsau":8125,"</":8126,"felder":8127,"lande":8128,"ĠWiener":8129,"kalender":8130,"ĠPlattform":8131,"taschen":8132,"Bel":8133,"ason":8134,"ĠOsten":8135,"ĠCafe":8136,"\")":8137,"ĠDollar":8138,"ĠTim":8139,"schiff":8140,"Ġengag":8141,"Ġhergestellt":8142,"skon":8143,"Set":8144,"Ġgeplant":8145,"pum":8146,".):":8147,"steil":8148,"Ġerscheinen":8149,"ĠEner":8150,"ĠAuff":8151,"ĠCho":8152,"ĠEN":8153,"Ce":8154,"Ġrezept":8155,"onenten":8156,"gbarkeit":8157,"verschluss":8158,"ologe":8159,"ĠVilla":8160,"ĠKein":8161,"ville":8162,"Ġfein":8163,"hnlichen":8164,"MI":8165,"dersachsen":8166,"Ġdaraus":8167,"Ġinstall":8168,"ĠEntfernung":8169,"ĠVorder":8170,"Ġ1994":8171,"Ġwand":8172,"ĠKenn":8173,"ieg":8174,"Ġkonzent":8175,"ĠVielzahl":8176,"Kre":8177,"ĠAnlagen":8178,"mpf":8179,"Ġmg":8180,"Ġeigenes":8181,"isa":8182,"Versand":8183,"Ġeinzelne":8184,"Nie":8185,"ĠExe":8186,"Ġgarantiert":8187,"liegenden":8188,"Ġcre":8189,"Ġkap":8190,"ĠAnkunft":8191,"listen":8192,"ĠErkrank":8193,"Ġentsteht":8194,"maÃŁen":8195,"Fern":8196,"Ġoptim":8197,"!!!<":8198,"ĠDatei":8199,"ĠVerantwortung":8200,"Ġteuer":8201,"rman":8202,"heimer":8203,"Don":8204,"ĠSar":8205,"Ġleisten":8206,"Ġentlang":8207,"Ġeiniges":8208,"Ġberaten":8209,"ĠKeller":8210,"ĠDom":8211,"Ġsogenannte":8212,"Ġstaat":8213,"ĠErlebnis":8214,"Ġvermeiden":8215,"Person":8216,"tzlichen":8217,"scheidet":8218,"ĠErweiter":8219,"Ġbeeinflus":8220,"ĠLight":8221,"ĠErkennt":8222,"ĠRepublik":8223,"ique":8224,"ĠWagen":8225,"ĠAtmospha":8226,"ĠWi":8227,"dge":8228,"Ġgelang":8229,"ĠBund":8230,"Ġtritt":8231,"wiegend":8232,"sischer":8233,"âĢº":8234,"Zus":8235,"bertragen":8236,"kunst":8237,"ĠArchitektur":8238,"ĠGegensatz":8239,"kabel":8240,"ĠZy":8241,"Hz":8242,"lexe":8243,"kro":8244,"ween":8245,"ĠRoll":8246,"ĠStreit":8247,"ĠEngli":8248,"Ġvermutlich":8249,".),":8250,"wander":8251,"zeichnungen":8252,"ous":8253,"Ġbraun":8254,">âĢĵ":8255,"irst":8256,"ĠLehre":8257,"Ġ\\":8258,"150":8259,"Ġwid":8260,"ĠKonkur":8261,"Ġbehandelt":8262,"ĠBonn":8263,"bogen":8264,"ĠAbenteuer":8265,"cking":8266,"ĠLeitung":8267,"Hersteller":8268,"tigten":8269,"ĠTab":8270,"nti":8271,"oires":8272,"ilit":8273,"Famil":8274,"gyp":8275,"ĠAmb":8276,"vail":8277,"iro":8278,"seher":8279,"Frank":8280,"rest":8281,"stedt":8282,"Ġinteressiert":8283,"El":8284,"nien":8285,"ional":8286,"ĠOhr":8287,"Ġwiederum":8288,"annien":8289,"stagram":8290,"ĠMuskel":8291,"./":8292,"freien":8293,"Ġsogenannten":8294,"bares":8295,"ĠHinweise":8296,"Partner":8297,"Ġwesentlich":8298,"ĠFreiheit":8299,"ĠAutomaten":8300,"ĠIsra":8301,"Ġdauert":8302,"sich":8303,"Artikelnummer":8304,"ĠWaffen":8305,"rats":8306,"Ġpassenden":8307,"besch":8308,"CC":8309,"ĠCamping":8310,"ĠBauch":8311,"ĠGroup":8312,"Gra":8313,"ĠGelegenheit":8314,"wp":8315,"tifik":8316,"pass":8317,"ordnet":8318,"gels":8319,"kommt":8320,"ziehungen":8321,"thor":8322,"hrenden":8323,"Ġanbieten":8324,"Ġpraktisch":8325,"maÃŁnahmen":8326,"Ġentdeckt":8327,"rasse":8328,"HD":8329,"ĠBanken":8330,"ĠDoku":8331,"Ġ68":8332,"ÌĬ":8333,"BB":8334,"ĠVerla":8335,"tike":8336,"nend":8337,"ieÃŁ":8338,"sus":8339,"heben":8340,"wein":8341,"ĠTief":8342,"ndorf":8343,"ĠGastgeber":8344,"true":8345,"ĠFalls":8346,"publik":8347,"ĠBruder":8348,"ĠFischer":8349,"auty":8350,"gefa":8351,"olles":8352,"seitig":8353,"ĠFlex":8354,"ĠFormen":8355,"Port":8356,"Gen":8357,"zeption":8358,"MP":8359,"Ġgespeichert":8360,"Kontakt":8361,"ĠDetail":8362,"ĠGesetze":8363,"Ġ1945":8364,"Ġzersto":8365,"nsten":8366,"Ġvs":8367,"pat":8368,"timent":8369,"Ġklassischen":8370,"ĠApps":8371,"gno":8372,"uhr":8373,"ĠWerke":8374,"Ġ1980":8375,"ckge":8376,"ĠSchuh":8377,"fru":8378,"geschoss":8379,"ĠGestaltung":8380,"Ġfalls":8381,"Ġzuku":8382,"lg":8383,"Ġdienen":8384,"Ġstartet":8385,"IER":8386,"Ġtechnischen":8387,"ĠRett":8388,"ĠSub":8389,"ISBN":8390,"ĠPR":8391,"Video":8392,"Ġlieb":8393,"reinigung":8394,"Ġdunk":8395,"ĠIt":8396,"ĠOtto":8397,"stalten":8398,"senden":8399,"ĠStei":8400,"schmerzen":8401,"Comp":8402,"Ġladen":8403,"ppy":8404,"ĠBitcoin":8405,"azita":8406,"ĠSong":8407,"Ġtrat":8408,"Ġruhig":8409,"reten":8410,"Ġgebaut":8411,"werten":8412,"ĠAutob":8413,"ĠHighlight":8414,"FuÃŁball":8415,"irche":8416,"ĠEngage":8417,"Ġstarken":8418,"ĠKey":8419,"ĠMale":8420,"Ph":8421,"ĠHafen":8422,"Bas":8423,"Version":8424,"Ġpositive":8425,"ĠDrit":8426,"Fil":8427,"ĠKriterien":8428,"eise":8429,"itch":8430,"Warum":8431,"ĠZusa":8432,"merika":8433,"ĠStimmen":8434,"Ġeuro":8435,"ĠAU":8436,"ĠRenn":8437,"Dr":8438,"Ġinteressante":8439,"aching":8440,"tzungen":8441,"ĠWhite":8442,"ĠGR":8443,"Ġvorgestellt":8444,"ĠHouse":8445,"ĠBin":8446,"ĠMetal":8447,"Ġprivaten":8448,"Ġwelchem":8449,"Ġinformiert":8450,"ĠBarb":8451,"ndiger":8452,"Ġkontroll":8453,"rtel":8454,"apter":8455,"dienste":8456,"ĠSolar":8457,"ĠSpar":8458,"Ġprivate":8459,"ĠEck":8460,"mag":8461,"ĠEngland":8462,"ĠauÃŁen":8463,"Ġechte":8464,"macher":8465,"Ġeins":8466,"ĠAuge":8467,"Nun":8468,"Ġmoment":8469,"core":8470,"veranstalt":8471,"Tro":8472,"ision":8473,"bewahr":8474,"Ġsenden":8475,"ĠPala":8476,"vigation":8477,"tene":8478,"news":8479,"lehrer":8480,"tok":8481,"digung":8482,"ĠImpressum":8483,"ĠKrankenhaus":8484,"vic":8485,"Ġindividuell":8486,"ĠMach":8487,"Ġunglaub":8488,"ĠPerspe":8489,"ĠPublikum":8490,"ĠSammlung":8491,"EW":8492,"âĢĶ":8493,"werde":8494,"britannien":8495,"konto":8496,"ĠKonfli":8497,"ierer":8498,"IF":8499,"arty":8500,"ĠZuhause":8501,"Pal":8502,"Ġmieten":8503,"club":8504,"Ġmache":8505,"Ġhome":8506,"jenigen":8507,"ĠDusche":8508,"Ġque":8509,"hoben":8510,"ĠKlinik":8511,"abend":8512,"Sk":8513,"oms":8514,"Ġgete":8515,"produkte":8516,"Ġag":8517,"artige":8518,"ĠSenioren":8519,"spreis":8520,"Ġeiniger":8521,"arz":8522,"ichtete":8523,"ĠMut":8524,"Ġvorzu":8525,"lach":8526,"ji":8527,"ĠNeuer":8528,"ĠEinzahlung":8529,"Ġverpflichtet":8530,"Ġsee":8531,"ratie":8532,"ĠMethoden":8533,"ĠStrategie":8534,"Ġbad":8535,"Ġfur":8536,"stanz":8537,"Ġ160":8538,"Siehe":8539,"Hu":8540,"Ġvorbe":8541,"side":8542,"ĠReinigung":8543,"my":8544,"Ġhell":8545,"Ihre":8546,"ather":8547,"ĠHeiz":8548,"Ġakzept":8549,"ĠGraf":8550,"ĠSehenswu":8551,"ĠGalerie":8552,"ĠGeru":8553,"Ferien":8554,"ĠKleidung":8555,"Ġdunkel":8556,"cd":8557,"Ġnormal":8558,"kl":8559,"Ġliefern":8560,"ĠFinger":8561,"community":8562,"ĠPhilosoph":8563,"ssour":8564,"Ġnennen":8565,"sorgt":8566,"Gar":8567,"Ġinfo":8568,"Ġ130":8569,"lut":8570,"bereitet":8571,"cha":8572,"ndischen":8573,"onym":8574,"UP":8575,"neben":8576,"ĠGeneration":8577,"sehe":8578,"ĠAktiv":8579,"ĠHochschule":8580,"Kostenloser":8581,"Ġgehe":8582,"Gemein":8583,"beth":8584,"ĠEinrichtungen":8585,"ĠBildern":8586,"ĠPaket":8587,"uxe":8588,"Quelle":8589,"Ġmonat":8590,"ĠLandschaft":8591,"Ġzugleich":8592,"Ġbenutzt":8593,"aber":8594,"bten":8595,"bleme":8596,"ĠNer":8597,"ĠRennen":8598,"Ġhoher":8599,"ĠKrankheit":8600,"Ġzeigte":8601,"\":{\"":8602,"ĠSus":8603,"Ġfrisch":8604,"ĠLetzte":8605,"Ġabha":8606,"lix":8607,"ĠRol":8608,"Hin":8609,"ĠHerrn":8610,"Ġdra":8611,"ĠSind":8612,"ĠRede":8613,"ĠPferde":8614,"eu":8615,"ĠFreunden":8616,"chnungen":8617,"ĠMontage":8618,"ĠSupport":8619,"ĠFreundin":8620,"wi":8621,"folger":8622,"ĠEnter":8623,"ĠFA":8624,"Ġobe":8625,"ĠAD":8626,"ĠRegional":8627,"nstigen":8628,"Ġwollten":8629,"Ġverlieren":8630,"Ġauspro":8631,"Ġsprach":8632,"ĠSig":8633,"Ġmed":8634,"Ġ1992":8635,"Ġcode":8636,"Ġoff":8637,"uni":8638,"Mich":8639,"Ġ$*":8640,"ĠPrinzip":8641,"Imp":8642,"ĠJeans":8643,"packung":8644,"ĠCheck":8645,"ĠStimme":8646,"ĠVerband":8647,"finale":8648,"ĠAnleitung":8649,"Log":8650,"stande":8651,"ĠSky":8652,"opyright":8653,"ĠAutoren":8654,"undert":8655,"bila":8656,"fassungs":8657,"Ġkomfor":8658,"Ġsur":8659,"dpa":8660,"ĠGarantie":8661,"Mitglied":8662,"reihe":8663,"weist":8664,"ĠRegistr":8665,"sky":8666,"kers":8667,"ranche":8668,"Ġgesellschaft":8669,"Ac":8670,"ĠWillkommen":8671,"bauer":8672,"hing":8673,"HA":8674,"Ġanmelden":8675,"annter":8676,"Ġwillst":8677,"Ġaufs":8678,"Leist":8679,"ftet":8680,"ĠQuellen":8681,"EZ":8682,"Tel":8683,"ĠDIN":8684,"ĠLos":8685,"sentieren":8686,"ĠAltern":8687,"berraschen":8688,"Ġgre":8689,"legten":8690,"rillen":8691,"120":8692,"ĠPunkten":8693,"ĠUnternehmer":8694,"Ġsign":8695,"stimmt":8696,"ĠGeha":8697,"steine":8698,"KT":8699,"ĠDesigner":8700,"ĠVermo":8701,"reien":8702,"Ġ96":8703,"sert":8704,"cript":8705,"Ġinspir":8706,"ĠGemeinden":8707,"ĠBoot":8708,"arbeitern":8709,"alue":8710,"Ġrau":8711,"Ġfue":8712,"Ġeindeu":8713,"Ġabgeschlossen":8714,"ART":8715,"kta":8716,"ĠDirekt":8717,"agen":8718,"bastian":8719,"stags":8720,"Ġkorre":8721,"OG":8722,"ĠVielen":8723,"Ġriesi":8724,"oman":8725,"container":8726,"ĠBaumwolle":8727,"ĠMercedes":8728,"Westfalen":8729,"iefen":8730,"Bi":8731,"lisch":8732,"Ñı":8733,"kammer":8734,"Ġhalb":8735,"Elekt":8736,"ĠBesten":8737,"Ġkomplette":8738,"miet":8739,"ĠRap":8740,"ĠResort":8741,"Ġbemer":8742,"xi":8743,"ĠAspe":8744,"ĠVertreter":8745,"museum":8746,"EX":8747,"Ġgefragt":8748,"sorge":8749,"ĠSchulter":8750,"ĠEintra":8751,"ĠRoulette":8752,"ĠTeppich":8753,"ĠEint":8754,"ĠHaft":8755,"Ġschwierig":8756,"Ġ1993":8757,"hst":8758,"ĠTOP":8759,"ĠWellness":8760,"ĠAtt":8761,"Ġbundes":8762,"liebt":8763,"ĠUltra":8764,"Ġsitzen":8765,"2000":8766,"Ġblu":8767,"ĠProfessor":8768,"ĠGlauben":8769,"hias":8770,"Ġner":8771,"ito":8772,"Ġabsolv":8773,"ĠVersuch":8774,"EST":8775,"tome":8776,"Ġdanke":8777,"Ġstars":8778,"zep":8779,"zut":8780,"ĠKooperation":8781,"speicher":8782,"Ġgener":8783,"Ġbreit":8784,"woche":8785,"ĠZi":8786,"arkt":8787,"cause":8788,"reitet":8789,"ĠHP":8790,"Ġleichter":8791,"IEL":8792,"Ġsub":8793,"Ġhoffen":8794,"ĠFestival":8795,"stufe":8796,"Ġback":8797,"Ġglauben":8798,"lampe":8799,"ĠSerien":8800,"Ð²":8801,"Ġfreien":8802,"habt":8803,"tooth":8804,"ĠWeiterlesen":8805,"ĠCat":8806,"legant":8807,"gef":8808,"ĠDipl":8809,"Ġ62":8810,"Ġmanche":8811,"Ġ101":8812,"Ġvieles":8813,"ĠTrum":8814,"Ġdata":8815,"TL":8816,"ĠBron":8817,"kal":8818,"Ġsetzte":8819,"dten":8820,"nee":8821,"Ġ63":8822,"Liebe":8823,"Ġerfolgen":8824,"ston":8825,"web":8826,"ĠKlar":8827,"ridge":8828,"Link":8829,"uche":8830,"stellbar":8831,"ĠChef":8832,"Ġeingerichtet":8833,"hjahr":8834,"Ġans":8835,"irts":8836,"ĠWies":8837,"Ġbehau":8838,"ĠRose":8839,"Ġgame":8840,"Ġentstand":8841,"ĠFalle":8842,"barung":8843,"druckt":8844,"ĠVariante":8845,"rufs":8846,"ĠGratis":8847,"Ġgemeinsamen":8848,"Ġaner":8849,"ĠMarkus":8850,"ĠStaffel":8851,"Ġ1970":8852,"ĠExtra":8853,"ĠSingles":8854,"ĠStell":8855,"SI":8856,"armon":8857,"sende":8858,"ÃŁige":8859,"ĠMaschine":8860,"namen":8861,"Ġbrachte":8862,"OB":8863,"sern":8864,"ditionen":8865,"ĠDarstellung":8866,"imit":8867,"zwe":8868,"Ġauthor":8869,"Ġbedie":8870,"ngel":8871,"ĠDeko":8872,"Ġfile":8873,"edback":8874,"komm":8875,"stallieren":8876,"wirken":8877,"div":8878,"ologien":8879,"siehe":8880,"Beschreibung":8881,"muster":8882,"Sy":8883,"ĠKirch":8884,"Vol":8885,"ĠViertel":8886,"ĠObjekt":8887,"Ġerstmal":8888,"Ġrelev":8889,"ĠVari":8890,"ĠFire":8891,"lind":8892,"Ġfrag":8893,"ĠGewerbe":8894,"home":8895,"Ġfreundlich":8896,"Universita":8897,"dex":8898,"Doch":8899,"Ġverur":8900,"ĠGri":8901,"stsein":8902,"ĠLok":8903,"Ġselben":8904,"ĠUmsta":8905,"ĠServices":8906,"renzt":8907,"ĠWorte":8908,"ĠSpru":8909,"irr":8910,"schehen":8911,"':":8912,"malerweise":8913,"stron":8914,"Ġ72":8915,"ĠKleine":8916,"winkel":8917,"hs":8918,"ĠHoll":8919,"hofen":8920,"portal":8921,"Ġgepf":8922,"mannschaft":8923,"Ġnahezu":8924,"ĠDunkel":8925,"âĢ²":8926,"ĠLG":8927,"Gew":8928,"ĠLou":8929,"sites":8930,"ĠStud":8931,"Mob":8932,"}}":8933,"ĠAnfa":8934,"ĠKalender":8935,"ymnasium":8936,"terest":8937,"ĠJugendliche":8938,"ĠMusic":8939,"ĠVorstand":8940,"wusstsein":8941,"feln":8942,"ĠBestseller":8943,"Ġeingestellt":8944,"ĠPhilipp":8945,"Ġwarm":8946,"ĠTexte":8947,"rdern":8948,"ĠSchreiben":8949,"fekt":8950,"stunden":8951,"Ġhervorragen":8952,"Fru":8953,"baden":8954,"brand":8955,"ronen":8956,"Test":8957,"Ġqualifiz":8958,"ĠRichter":8959,"gau":8960,"ĠSchalt":8961,"Pre":8962,"Ġerstes":8963,"ĠIll":8964,"ĠPet":8965,"Ġtechnische":8966,"ĠKand":8967,"Ġsin":8968,"reiter":8969,"Ġgla":8970,"ĠKult":8971,"alth":8972,"uchtigkeit":8973,"preise":8974,"ĠMonats":8975,"gespra":8976,"ffa":8977,"Ġtrin":8978,"person":8979,"Ġkommun":8980,"Ġ88":8981,"rfnisse":8982,"Ġ1989":8983,"ĠWalter":8984,"ĠFon":8985,"Ġ77":8986,"Ġperson":8987,"Ġbut":8988,"2003":8989,"ĠXL":8990,"ĠON":8991,"ĠAC":8992,"oc":8993,"hriger":8994,"strasse":8995,"ffnungszeiten":8996,"Ġzusammenge":8997,"mach":8998,"Ġaktualisiert":8999,"orth":9000,"Ġplatz":9001,"nb":9002,"Ġdekor":9003,"sentation":9004,"ĠBeam":9005,"papier":9006,"alent":9007,"ĠWerner":9008,"Ġkauf":9009,"Ġzog":9010,"Ġergeben":9011,"ndigkeit":9012,"ĠGriechen":9013,"hling":9014,"wirkung":9015,"ane":9016,"####":9017,"ĠSi":9018,"Wor":9019,"ĠCommunity":9020,"pdf":9021,"hebung":9022,"struktion":9023,"Ġausgezeichnet":9024,"lita":9025,"Ter":9026,"ĠPerformance":9027,"teilungen":9028,"kinder":9029,"''":9030,"leswig":9031,"NA":9032,"hersteller":9033,"ĠFreiburg":9034,"ĠSchmerzen":9035,"Kaufen":9036,"ĠGang":9037,"ĠInspir":9038,"ĠAusnahme":9039,"Design":9040,"Ġbestellt":9041,"Ġsinnvoll":9042,"Ġindividuelle":9043,"ĠWachstum":9044,"higkeiten":9045,"rica":9046,"Bad":9047,"handeln":9048,"ĠGriff":9049,"put":9050,"Ġ1991":9051,"Ġfind":9052,"Preise":9053,"ĠArn":9054,"artet":9055,"nehme":9056,"Ġbildet":9057,"EAN":9058,"Ġkostenlosen":9059,"Ġinc":9060,"ĠPflicht":9061,"ĠDiesel":9062,"pret":9063,"Ġbewegen":9064,"gsburg":9065,"ĠKommun":9066,"Ġdamen":9067,"tinu":9068,"mil":9069,"Ġfreue":9070,"Ġ(âĢŀ":9071,"mpfer":9072,"irn":9073,"EE":9074,"LG":9075,"SH":9076,"kredit":9077,"Ġmeistens":9078,"ĠAnwalt":9079,"ĠFokus":9080,"reift":9081,"house":9082,"Info":9083,"Ġverletzt":9084,"ĠSin":9085,"Viele":9086,"Ġschlechte":9087,"riert":9088,"SK":9089,"rix":9090,"heriger":9091,"Ġallgemein":9092,"ĠArbeitnehmer":9093,"Ġbilli":9094,"ĠStreet":9095,"ĠSyn":9096,"ĠFili":9097,"usern":9098,"Ġmittle":9099,"Ġregistr":9100,"ĠFle":9101,"Ġstimmt":9102,"Programm":9103,"kasse":9104,"ani":9105,"ĠFeder":9106,"gela":9107,"ktop":9108,"Ġ89":9109,"istent":9110,"stig":9111,"Ġeinfachen":9112,"Flug":9113,"ĠFeier":9114,"Ġgutscheincode":9115,"gerichts":9116,"ltige":9117,"Ġdran":9118,"ĠBras":9119,"ÃŁes":9120,"zeichnete":9121,"mischen":9122,"mers":9123,"Spiele":9124,"Ġbesitzen":9125,"Kreis":9126,"Ġlegt":9127,"Ga":9128,"Ġ67":9129,"ĠArz":9130,"igkeiten":9131,"ĠCloud":9132,"kn":9133,"ĠErb":9134,"Ġchrist":9135,"Ġselbstversta":9136,"manden":9137,"ĠEngagement":9138,"denschaft":9139,"Ġholen":9140,"Â¬":9141,"nigs":9142,"rive":9143,"Ġsichern":9144,"ĠGrundlagen":9145,"ĠKostu":9146,"ystemen":9147,"ĠAusgang":9148,"::":9149,"MB":9150,"geht":9151,"ĠLeicht":9152,"ĠAndere":9153,"Ġtreten":9154,"Ġspezielle":9155,"wuchs":9156,"ĠAg":9157,"ĠSchok":9158,"card":9159,"ĠParteien":9160,"Ġherzlich":9161,"ausstattung":9162,"Ġvirt":9163,"ancen":9164,"001":9165,"Ġaussehen":9166,"hauses":9167,"ĠRohr":9168,"ĠðŁĻ":9169,"uk":9170,"ĠFertig":9171,"ĠAmerika":9172,"Ġtrans":9173,">âĤ¬":9174,"ads":9175,"bul":9176,"Ġlebens":9177,"atures":9178,"ĠUK":9179,"TA":9180,"late":9181,"ĠMindest":9182,"Ġgeringe":9183,"Ġstammt":9184,"ĠEcke":9185,"pern":9186,"ĠAction":9187,"Ġsy":9188,"ĠWohnen":9189,"Ġnord":9190,"nstiger":9191,"ĠIsland":9192,"ĠSoft":9193,"ituationen":9194,"ĠBord":9195,"Antworten":9196,"folgs":9197,"ĠMenu":9198,"istischen":9199,"Ġrunter":9200,"hindert":9201,"ĠStress":9202,"Ġbecause":9203,"metik":9204,"sieht":9205,"ĠFavor":9206,"arth":9207,"ĠBelast":9208,"Ġ79":9209,"ĠOkt":9210,"ĠmaÃŁ":9211,"Ġerfolgte":9212,"ĠOrte":9213,"ĠJosef":9214,"lot":9215,"artig":9216,"ĠKapital":9217,"ĠBetro":9218,"ĠTickets":9219,"job":9220,"dels":9221,"Ġfas":9222,"pin":9223,"Ġnix":9224,"ĠHaushalt":9225,"ĠUmfang":9226,"Ġrechten":9227,"ppchen":9228,"Ġerfolgreiche":9229,"untain":9230,"Ġorient":9231,"stimmen":9232,"ĠSchmidt":9233,"ĠIl":9234,"ĠSwe":9235,"Ġfotocommunity":9236,"Car":9237,"ĠSchn":9238,"Ġwechseln":9239,"Ġjedenfalls":9240,"ĠDial":9241,"Ġzzgl":9242,"PA":9243,"Ġabout":9244,"ĠGrenze":9245,"ĠBezirk":9246,"linder":9247,"^^":9248,"wirt":9249,"ibe":9250,"ĠQuart":9251,"ĠBranchen":9252,"ĠSchwerpunkt":9253,"ĠNRW":9254,"oppelt":9255,"ĠWohnungen":9256,"Ġprivat":9257,"Ġhy":9258,"Ġsoziale":9259,"tegien":9260,"ffentlichung":9261,"BC":9262,"fordern":9263,"ĠBab":9264,"ĠGramm":9265,"ORT":9266,"ĠBach":9267,"Ġ125":9268,"ĠObst":9269,"schwe":9270,"Ġungefa":9271,"sozi":9272,"ĠInstallation":9273,"wur":9274,"Ġtrain":9275,"ĠSicher":9276,"ĠClassic":9277,"ttern":9278,"ĠLaser":9279,"Marke":9280,"ngere":9281,"ĠWeltkrieg":9282,"ĠRichard":9283,"farb":9284,"Ġfrem":9285,"Ġdahin":9286,"ĠAlkohol":9287,"Ġeinfacher":9288,"Ġbeit":9289,"ai":9290,"ĠHeidel":9291,"ĠER":9292,"ĠInsgesamt":9293,"chent":9294,"Ġhistorischen":9295,"ĠJazz":9296,"lichem":9297,"Welche":9298,"Ġkurzer":9299,"!!!!":9300,"ĠInt":9301,"Ġschwier":9302,"wissenschaften":9303,"ĠKuchen":9304,"ĠZugriff":9305,"ĠBillig":9306,"Ġprofitieren":9307,"app":9308,"familien":9309,"ĠEintrag":9310,"Fach":9311,"planung":9312,"Zwei":9313,"ĠNation":9314,"Ġtitle":9315,"New":9316,"rock":9317,"izza":9318,"Schlag":9319,"mate":9320,"ĠDeluxe":9321,"ĠSchle":9322,"isst":9323,"Reise":9324,"Kann":9325,"ĠZin":9326,"ĠUrlaubs":9327,"Ġtag":9328,"olor":9329,"ĠSpezial":9330,"fenster":9331,"ĠBelie":9332,"bernommen":9333,"ĠProvinz":9334,"Ġchine":9335,"AF":9336,"Ġ98":9337,"IO":9338,"Ġfore":9339,"aul":9340,"quenz":9341,"Ġshort":9342,"ĠFliesen":9343,"VB":9344,"ĠProfi":9345,"gens":9346,"position":9347,"Ġmeines":9348,"Ġstammen":9349,"XX":9350,"gf":9351,"Netz":9352,"Id":9353,"ĠOrient":9354,"Ġoffenbar":9355,"Ġ:)<":9356,"ĠComm":9357,"ĠChristoph":9358,"ĠHaare":9359,"Ġtime":9360,"ĠKapitel":9361,"umfang":9362,"ĠIntegration":9363,"haltet":9364,"dule":9365,"Ġgelegen":9366,"ĠFeb":9367,"Ġerleich":9368,"ĠHerstellung":9369,"Wasser":9370,"upload":9371,"ĠDay":9372,"rivate":9373,"ĠMiner":9374,"ĠLine":9375,"ckend":9376,"ĠAli":9377,"ĠLandwirtschaft":9378,"ĠBegru":9379,"ĠZuschauer":9380,"hlschrank":9381,"ĠAlb":9382,"ĠMethode":9383,"ĠInfra":9384,"Ġhierzu":9385,"derer":9386,"Gestorben":9387,"Ġstru":9388,"ĠLeon":9389,"selben":9390,"schlagen":9391,"Ġmitge":9392,"ĠHermann":9393,"ĠGewinne":9394,"ĠAustausch":9395,"ĠTouch":9396,"ĠIkea":9397,"][":9398,"Ñĭ":9399,"Ġdeaktiv":9400,"Out":9401,"ĠSchwanger":9402,"ĠRun":9403,"schafter":9404,"latte":9405,"Ġwohnzimmer":9406,"ĠFant":9407,"Ġgepra":9408,"Ġerinnert":9409,"ĠGlei":9410,"').":9411,"ĠNutzen":9412,"Ġvolle":9413,"ĠVersicherung":9414,"Ġzwo":9415,"linger":9416,"ĠTU":9417,"ĠReihen":9418,"Ġfunktionieren":9419,"schalten":9420,"ESS":9421,"neren":9422,"ĠSaint":9423,"chtigen":9424,"ĠAuswirkungen":9425,"Ġ:)":9426,"Bilder":9427,"Ġsilber":9428,"hme":9429,"js":9430,"ãĢ":9431,"ĠZweiten":9432,"ĠLaufe":9433,"onn":9434,"ĠBef":9435,"ipfel":9436,"ĠBekannt":9437,"image":9438,"strich":9439,"ĠFranc":9440,"rinzip":9441,"omatik":9442,"Ġanschauen":9443,"ĠZie":9444,"inee":9445,"ĠRam":9446,"ĠEinkommen":9447,"ĠTermine":9448,"Ġauto":9449,"ĠAnsicht":9450,"ĠSalzburg":9451,"Ġ[...]":9452,"ĠFranken":9453,"ĠBlatt":9454,"kula":9455,"file":9456,"Ġgestaltet":9457,"fro":9458,"Forum":9459,"Ġschafft":9460,"tzter":9461,"Ġbetreffen":9462,"vit":9463,"cho":9464,"Ġpas":9465,"Ġrum":9466,"Ġherunterladen":9467,"Ġfuer":9468,"Ġdamali":9469,"stalter":9470,"fahrungen":9471,"Ġblack":9472,"ĠTennis":9473,"amburg":9474,"otograf":9475,"liziert":9476,"feuer":9477,"wn":9478,"ĠRuck":9479,"ĠEinkaufs":9480,"gerin":9481,"uÃŁerst":9482,"ilia":9483,"team":9484,"achen":9485,"Ġersetzt":9486,"spla":9487,"Ġfarb":9488,"ĠSchatten":9489,"dik":9490,"ĠBein":9491,"ragend":9492,"Material":9493,"wendungs":9494,"nr":9495,"Werk":9496,"ĠTablet":9497,"ckten":9498,"ELL":9499,"Ġshop":9500,"ĠAmerican":9501,"Projekt":9502,"shirt":9503,"ĠMur":9504,"ĠApr":9505,"ÑĮ":9506,"tics":9507,"ĠNordrhein":9508,"nken":9509,"ĠChor":9510,"geschrieben":9511,"Ġhinzufu":9512,"ĠPrime":9513,"Ġanhand":9514,"fr":9515,"Serie":9516,"bauten":9517,"Bar":9518,"Ġjapan":9519,"irmen":9520,"ĠLein":9521,"Ġerinnern":9522,"ĠDI":9523,"ĠMand":9524,"ĠTrau":9525,"Ġgemeinsame":9526,"()":9527,"ĠCarl":9528,"VER":9529,"ĠSchriftsteller":9530,"dd":9531,"ĠLernen":9532,"ĠEngel":9533,"ĠAussicht":9534,"hner":9535,"ixel":9536,"ĠGitar":9537,"Ġleichte":9538,"merksamkeit":9539,"ĠAusdruck":9540,"ĠauÃŁergewo":9541,"ĠSchal":9542,"ĠLange":9543,"ĠDez":9544,"Ġoffenen":9545,"ĠNiedersachsen":9546,"fz":9547,"ĠEbene":9548,"freiheit":9549,"webe":9550,"Ġverab":9551,"ĠLizenz":9552,"ssigen":9553,"ndel":9554,"pend":9555,"Garten":9556,"OD":9557,"ĠTabellen":9558,"klusive":9559,"Ġhinein":9560,"Ġwillkommen":9561,"atische":9562,"></":9563,"ĠBoch":9564,"aux":9565,"ĠSeminar":9566,"ĠFur":9567,"ĠModerne":9568,"Ġgetestet":9569,"Posted":9570,"Ġoptimal":9571,"ĠDiagno":9572,"ĠLife":9573,"telli":9574,"ĠStich":9575,"ĠErz":9576,"Wert":9577,"ndische":9578,"Ġliefert":9579,"ures":9580,"Ġgenaue":9581,"Hil":9582,"tigkeiten":9583,"ummi":9584,"Ġmusikali":9585,"Ġbild":9586,"ily":9587,"Kurz":9588,"Ġwind":9589,"ĠOffiz":9590,"leihen":9591,"Details":9592,"Ġmaximal":9593,"ĠCur":9594,"bsta":9595,"ĠHamburger":9596,"gebiete":9597,"Ġye":9598,"ĠBul":9599,"Ġkrie":9600,"rge":9601,"ĠBam":9602,"undene":9603,"HS":9604,"Ġgold":9605,"rose":9606,"dicht":9607,"ranz":9608,"stoffen":9609,"Ġ76":9610,"ideen":9611,"Ġrec":9612,"ĠStellung":9613,"td":9614,"Orig":9615,"Ġirgendwann":9616,"ĠZuru":9617,"ose":9618,"betes":9619,"Ġsteigt":9620,"rypt":9621,"Ġsuche":9622,"ĠBenzin":9623,"StraÃŁe":9624,"ĠSchi":9625,"bag":9626,"pes":9627,"ĠDatum":9628,"Ġpop":9629,"bote":9630,"Verein":9631,"anisch":9632,"ĠAblauf":9633,"ĠVersicherungs":9634,"VG":9635,"istische":9636,"ĠZw":9637,"ĠPL":9638,"Ġeingefu":9639,"Ġster":9640,"ĠZut":9641,"ĠBrit":9642,"ĠHoffnung":9643,"Ġgehabt":9644,"Ġwenden":9645,"oni":9646,"Nein":9647,"ĠEinstellungen":9648,"Ġ74":9649,"uti":9650,"ufen":9651,"Ġinternational":9652,"CK":9653,"Ġdritte":9654,"ASIN":9655,"BL":9656,"werkzeuge":9657,"Ġabnehmen":9658,"Ġsofern":9659,"ĠMix":9660,"Max":9661,"ĠLiefe":9662,"Ġwus":9663,"kleber":9664,"ĠSeele":9665,"mitteilung":9666,"front":9667,"ulen":9668,"ĠAe":9669,"Box":9670,"Ġwes":9671,"ĠBrandenburg":9672,"ox":9673,"Ġmi":9674,"reibe":9675,"Ġvi":9676,"sellschaften":9677,"riech":9678,"ĠAlpen":9679,"Klei":9680,"ĠJava":9681,"Ġbeschra":9682,"ĠFR":9683,"ktiver":9684,"anwalt":9685,"eitig":9686,"Ġspezi":9687,"rth":9688,"spricht":9689,"ners":9690,"Ġbilder":9691,"verbrauch":9692,"pers":9693,"Motor":9694,"ĠZahlung":9695,"meisterschaft":9696,"nste":9697,"Veran":9698,"/><":9699,"eile":9700,"termin":9701,"ĠTurnier":9702,"unterricht":9703,"Ġvol":9704,"berater":9705,"ĠAT":9706,"Ġdachte":9707,"ĠStd":9708,"ĠSep":9709,"ĠRuf":9710,"Ġarbeitete":9711,"Ġgering":9712,"itis":9713,"big":9714,"Ġgetan":9715,"perte":9716,"auss":9717,"arge":9718,"Ġnet":9719,"Schn":9720,"ĠFluss":9721,"testens":9722,"ĠEntwicklungs":9723,"ĠAnzeigen":9724,"Ġfra":9725,"Ġhart":9726,">âĨĳ":9727,"Ġreichen":9728,"Ca":9729,"Ġgeist":9730,"Download":9731,"Ġtable":9732,"Ġauseinander":9733,"stoÃŁ":9734,"ĠAustr":9735,"Ġ61":9736,"ĠDam":9737,"ĠBasel":9738,"Ġmann":9739,"Thema":9740,"ĠRessour":9741,"Unternehmen":9742,"berwachung":9743,"ĠAngriff":9744,"Ġindividuellen":9745,"ĠCup":9746,"Ġphy":9747,"Ġeignet":9748,"ĠDigit":9749,"ĠFormat":9750,"Ġdiver":9751,"ĠMitarbeitern":9752,"region":9753,"Î±":9754,"ĠFerienwohnung":9755,"ampagne":9756,"ĠMotto":9757,"Ġreduziert":9758,"rian":9759,"ĠPortug":9760,"ĠKB":9761,"usion":9762,"pete":9763,"ĠRud":9764,"lles":9765,"Ġbun":9766,"ĠTank":9767,"ump":9768,"Ġergibt":9769,"Ġerschien":9770,"ĠBewohner":9771,"regen":9772,"Ð¼":9773,"ĠWahrheit":9774,"ĠMagazin":9775,"ĠEffe":9776,"Arb":9777,"bereiten":9778,"Ġ1960":9779,"ausend":9780,"werken":9781,"ischt":9782,"ĠTourismus":9783,"otten":9784,"Ġbenutzen":9785,"ĠAnspru":9786,"astrop":9787,"Ġkomment":9788,"leuchten":9789,"comp":9790,"Ġmeint":9791,"sterreichischen":9792,"Ġcas":9793,"ĠFuss":9794,"Ġbetre":9795,"ÅĤ":9796,"Ġgespannt":9797,"ĠBereits":9798,"ĠWettbewerb":9799,"grid":9800,"Ġgetroffen":9801,"nachrich":9802,"Ġmat":9803,"!)":9804,"Tre":9805,"Ġkomme":9806,"Beste":9807,"cky":9808,"Ġfiel":9809,"ĠSpann":9810,"ĠLow":9811,"ĠDiam":9812,"Casino":9813,"ĠHilfs":9814,"ĠAktionen":9815,"Ġsowas":9816,"Ø§":9817,"Google":9818,"ĠDating":9819,"gold":9820,"ngigen":9821,"ĠSchro":9822,"uliert":9823,"ĠPress":9824,"ĠDateien":9825,"ĠStation":9826,"Kunst":9827,"nischen":9828,"nlichkeit":9829,"Ġpubli":9830,"jack":9831,"umt":9832,"ĠSysteme":9833,"ĠHardware":9834,"\">":9835,"lines":9836,"Ġgepru":9837,"HP":9838,"kind":9839,"Ġang":9840,"ĠWettbewer":9841,"losigkeit":9842,"FB":9843,"gert":9844,"Ġgelegt":9845,"ffeln":9846,"ee":9847,"jahres":9848,"rolle":9849,"solven":9850,"rene":9851,"Ġstyle":9852,"ickel":9853,"Ġallgemeinen":9854,"Ġdeswegen":9855,"ĠClau":9856,"GroÃŁ":9857,"periment":9858,"Nor":9859,"brauchs":9860,"ĠFinale":9861,"bart":9862,"Ġ2021":9863,"ĠJames":9864,"irma":9865,"beutel":9866,"Dies":9867,"nitten":9868,"ĠLande":9869,"utzern":9870,"syl":9871,"onist":9872,"ĠLack":9873,"nzt":9874,"spolitik":9875,"Ġ1988":9876,"data":9877,"ĠDecken":9878,"ĠBerat":9879,"ĠVarianten":9880,"Ġflo":9881,"Ġneuesten":9882,"ommunikations":9883,"Ġehemalige":9884,"ĠKanz":9885,"Presse":9886,"ĠKam":9887,"Ġhauptsa":9888,"Ġlog":9889,"ĠRegie":9890,"Std":9891,"indlich":9892,"mension":9893,"ĠAdmin":9894,"ĠTR":9895,"chtlinge":9896,"bilden":9897,"quelle":9898,"abe":9899,"frika":9900,"ĠEinbau":9901,"liegt":9902,"reng":9903,"schrau":9904,"temper":9905,"dezimmer":9906,"ĠHead":9907,"ĠiPad":9908,"ĠDurchfu":9909,"ĠRheinland":9910,"ĠMeld":9911,"Ġdesto":9912,"tale":9913,"ĠStimmung":9914,"appen":9915,"ĠVintage":9916,"Ġdargestellt":9917,"ĠJacke":9918,"schal":9919,"ĠBeide":9920,"pan":9921,"host":9922,"ĠSper":9923,"Ġverha":9924,"uschen":9925,"110":9926,"verzeichnis":9927,"ĠBetreuung":9928,"sem":9929,"ĠUntersuchung":9930,"Ġsichtbar":9931,"123":9932,"projekt":9933,"lemente":9934,"format":9935,"taill":9936,"Ġbearbeitet":9937,"ĠSG":9938,"Ġsammeln":9939,"Ġangesehen":9940,"usch":9941,"ĠOver":9942,"Ġ84":9943,"Ġerreichte":9944,"ĠUND":9945,"Ġaufmerk":9946,"ĠGebrauch":9947,"Ġsrc":9948,"Ġkulture":9949,"ĠGemeinschaft":9950,"iver":9951,"ĠBereiche":9952,"ĠSchuld":9953,"kleider":9954,"Ġikea":9955,"nerell":9956,"ĠSchritte":9957,"Ges":9958,"Ġschwarze":9959,"Vert":9960,"ĠBlei":9961,"ĠSony":9962,"fuÃŁ":9963,"mall":9964,"klassi":9965,"ĠSomit":9966,"ĠHose":9967,"ĠArmee":9968,"EB":9969,"ĠLook":9970,"Ġâĸ":9971,"ĠPy":9972,"ĠVorga":9973,"Gescha":9974,"ĠLaptop":9975,"Ġ360":9976,"ĠSchwimm":9977,"Ġbekam":9978,"Ġdigitale":9979,"ologen":9980,"Ġ78":9981,"ĠForen":9982,"time":9983,"Ġhierbei":9984,"fahrten":9985,"Ġangenehm":9986,"winden":9987,"ĠEingang":9988,"mmern":9989,"ĠSL":9990,"ĠAuflo":9991,"ĠInteress":9992,"ĠJahrzehn":9993,"ĠðŁĻĤ":9994,"arben":9995,"klar":9996,"freunde":9997,"ĠStiefe":9998,"Ġerla":9999,"mester":10000,"ĠBraut":10001,"tliche":10002,"ĠFernsehen":10003,"ĠEM":10004,"Ġ86":10005,"ĠVerd":10006,"ĠHalt":10007,"Ġ->":10008,"ĠSollte":10009,"SM":10010,"ĠBL":10011,"âĢľ-":10012,"ritts":10013,"ĠKlin":10014,"option":10015,"dom":10016,"besta":10017,"Ġwin":10018,"Noch":10019,"Ġerlebt":10020,"ibex":10021,"Ġcle":10022,"ĠMainz":10023,"bereiche":10024,"ppel":10025,"Ġ::":10026,"hockey":10027,"Flu":10028,"weiten":10029,"sein":10030,"PG":10031,"Ġstre":10032,"ĠschlieÃŁen":10033,"ĠAktualis":10034,"chelor":10035,"gn":10036,"ĠVielfalt":10037,"ues":10038,"ĠTreffer":10039,"zeitung":10040,"anbieter":10041,"kehrt":10042,"Ġdigitalen":10043,"ungsmittel":10044,"ĠGene":10045,"ĠSandalen":10046,"Ġmerk":10047,"futter":10048,"bernimmt":10049,"ĠBranche":10050,"Ġlautet":10051,"worfen":10052,"ĠAussage":10053,"Ġfreut":10054,"Eigen":10055,"Ġplanen":10056,"Ġcar":10057,"Frau":10058,"ĠSzene":10059,"ĠInc":10060,"Ġfahr":10061,"ICHT":10062,"ĠKostenlose":10063,"Ġeigener":10064,"ĠMathemati":10065,"sener":10066,"Ġwhich":10067,"chnungs":10068,"fehler":10069,"FR":10070,"ĠCover":10071,"ĠIngen":10072,"alette":10073,"ĠDol":10074,"ĠErwart":10075,"IST":10076,"ĠUnterku":10077,"Ġop":10078,"Ġbro":10079,"ĠHauptstadt":10080,"Ġproduziert":10081,"can":10082,"à¹":10083,"Ġ[\"":10084,"ĠAufmerksamkeit":10085,"ript":10086,"mische":10087,"Ġmotiv":10088,"ĠVersorgung":10089,"ĠYoga":10090,"Ġbetroffenen":10091,"ĠLogo":10092,"ĠHabe":10093,"price":10094,"Ġklingt":10095,"ĠTests":10096,"ĠVorlage":10097,"lehen":10098,"ĠKanton":10099,"ido":10100,"Kur":10101,"ĠAufgrund":10102,"Ġbegonnen":10103,"leister":10104,"ĠID":10105,"Ġ(+":10106,"Ġfamil":10107,"Ġmaxima":10108,"Ġbetrachtet":10109,"Â»,":10110,"ĠVeran":10111,"Ġkenne":10112,"bersetzt":10113,"ĠJugendlichen":10114,"ĠBrau":10115,"âĢĿ,":10116,"ĠSymbo":10117,"ĠTabelle":10118,"ĠEvents":10119,"ĠMex":10120,"Wh":10121,"kin":10122,"Ġerw":10123,"ĠSens":10124,"Ġgegangen":10125,"ĠVorbereitung":10126,"Ġpartnersuche":10127,"Ã·":10128,"Ġstarte":10129,"ctions":10130,"wertet":10131,"schel":10132,"ĠEiche":10133,"Ġdurchfu":10134,"ĠBeton":10135,"Ġbesucht":10136,"ĠVene":10137,"Ġgewinnt":10138,"ĠWird":10139,"ĠKali":10140,"Kultur":10141,"spunkt":10142,"ĠMaÃŁe":10143,"industrie":10144,"lient":10145,"Ġversand":10146,"ĠProte":10147,"Ġblaue":10148,"ĠTodes":10149,"Ġverzichten":10150,"ĠVerlauf":10151,"nei":10152,"also":10153,"bilen":10154,"finanz":10155,"ĠFunk":10156,"Ġbeliebtesten":10157,"ĠAP":10158,"ĠPosit":10159,"ĠAutomob":10160,"cksichtigt":10161,"Ġnormalen":10162,"medi":10163,"fektion":10164,"ĠRedaktion":10165,"ĠKarlsruhe":10166,"uden":10167,"chi":10168,"cto":10169,"Ġfrische":10170,"Ġbreite":10171,"achim":10172,"ĠSteck":10173,"yers":10174,"orama":10175,"ĠTricks":10176,"250":10177,"Ġbett":10178,"ĠErza":10179,"uploads":10180,"Ġoriginal":10181,"ĠâĨĴ<":10182,"ĠSebastian":10183,"ASS":10184,"brille":10185,"ĠKer":10186,"lid":10187,"Ġeh":10188,"Price":10189,"ommst":10190,"ĠVertrieb":10191,"Ġletzt":10192,"formation":10193,"ĠBezirks":10194,"ĠEier":10195,"Ġauftreten":10196,"Ġdescription":10197,"ĠUmfeld":10198,"staun":10199,"Ġnutzt":10200,"fferenz":10201,"hungen":10202,"ÌĥÂ¤":10203,"Ġschme":10204,"ario":10205,"Ġbisherigen":10206,"Ġbeteiligt":10207,"ĠBesitz":10208,"ngigkeit":10209,"Ġ>>":10210,"englisch":10211,"Nachdem":10212,"phones":10213,"Ġfordert":10214,"Keine":10215,"ĠWag":10216,"ĠDoma":10217,"ĠElemente":10218,"ĠSW":10219,"tinen":10220,"baut":10221,"ĠKonzer":10222,"ĠIslam":10223,"Ġvorn":10224,"grau":10225,"analyse":10226,"ĠDJ":10227,"Ġgesetzlichen":10228,"nschte":10229,"ĠSchnu":10230,"ĠGelb":10231,"tens":10232,"700":10233,"????":10234,"ĠGau":10235,"biert":10236,"amerikanischer":10237,"ielten":10238,"ĠArchive":10239,"Ġausgefu":10240,"Ġliefer":10241,"ĠAbstand":10242,"ĠRosa":10243,"Markt":10244,"bels":10245,"vorsitzen":10246,"ĠAnwendungen":10247,"Ġoffene":10248,"ĠForex":10249,"dorfer":10250,"ĠTan":10251,"ĠInternetseite":10252,"Ġgeschafft":10253,"Ġteilnehmen":10254,"schreibt":10255,"sprogramm":10256,"ĠKl":10257,"curity":10258,"ĠLind":10259,"uns":10260,"ĠSchwester":10261,"Ġnutz":10262,"temp":10263,"stechn":10264,"Ġdenk":10265,"weichen":10266,"aris":10267,"Ġdiverse":10268,"Ġeingeb":10269,"ĠRoyal":10270,"wett":10271,"bernahme":10272,"ĠFritz":10273,"ngeren":10274,"ugen":10275,"gig":10276,"âĢľ)":10277,"artement":10278,"Ġstattfinden":10279,"field":10280,"hrlichen":10281,"zubeho":10282,"ĠBehinder":10283,"Ġproblemlos":10284,"gument":10285,"git":10286,"ĠLes":10287,"Dig":10288,"menge":10289,"TB":10290,"worte":10291,"ĠMont":10292,"cio":10293,"bertragung":10294,"bewertung":10295,"fache":10296,"ĠMusiker":10297,"ĠLinien":10298,"Ġinstalliert":10299,"ĠFigur":10300,"heizung":10301,"ssten":10302,"ĠDennoch":10303,"isburg":10304,"Ġeinst":10305,"PL":10306,"Ġroman":10307,"ĠMatthias":10308,"ramik":10309,"nny":10310,"reif":10311,"otoren":10312,"Ġverkauf":10313,"lubs":10314,"Date":10315,"Best":10316,"ĠStory":10317,"Ġerschienen":10318,"ĠRatgeber":10319,"rome":10320,"ĠSchweden":10321,"Ġjahre":10322,"ĠVel":10323,"Ġhandeln":10324,"ĠObwohl":10325,"lerinnen":10326,"Ġweiterlesen":10327,"istan":10328,"ĠPreisen":10329,"fels":10330,"Ġreden":10331,"vgl":10332,"ĠKnie":10333,"FL":10334,"ĠPie":10335,"Ġniemals":10336,"lenburg":10337,"ltere":10338,"Deutscher":10339,"ĠBaye":10340,"PDF":10341,"iens":10342,"allel":10343,"ĠLob":10344,"Ġoption":10345,"Ġklassische":10346,"ĠBesta":10347,"Ġspeziellen":10348,"ĠDienste":10349,"ĠBeleuchtung":10350,"ĠBeispiele":10351,"ĠBoots":10352,"ĠKru":10353,"ĠKrist":10354,"nheit":10355,"ĠRef":10356,"Ġed":10357,"ĠSied":10358,"gewinn":10359,"ĠJunge":10360,"zenten":10361,"ĠEntscheidungen":10362,"ĠReser":10363,"ĠAkademie":10364,"Ben":10365,"bein":10366,"automat":10367,"maga":10368,"Ġsobald":10369,"Ap":10370,"ked":10371,"methoden":10372,"ziert":10373,"ĠQuer":10374,"fos":10375,"stischen":10376,"ZE":10377,"ĠErf":10378,"dlichen":10379,"folie":10380,"=>":10381,"staurant":10382,"ĠSteuern":10383,"Standard":10384,"ĠGebraucht":10385,"werfer":10386,"ground":10387,"amera":10388,"Ġgingen":10389,"isseur":10390,"hofer":10391,"ĠIM":10392,"Ġverurs":10393,"auto":10394,"Ġ94":10395,"aha":10396,"lank":10397,"hoe":10398,"Ġechten":10399,"ĠJesus":10400,"ĠVorgehen":10401,"kreuz":10402,"chselt":10403,"Post":10404,"Ġgezogen":10405,"rlichen":10406,"ĠRal":10407,"Ġoffe":10408,"ĠSili":10409,"drucken":10410,"uuml":10411,"arbon":10412,"Ġfeiern":10413,".....":10414,"Ġumzu":10415,"typ":10416,"ĠBrot":10417,"ĠTripAdvisor":10418,"deutschland":10419,"zirk":10420,"siven":10421,"falz":10422,"deren":10423,"ĠSofa":10424,"ĠFlach":10425,"ĠHit":10426,"Funktion":10427,"ĠReparatur":10428,"ĠParkplatz":10429,"ĠRel":10430,"ĠFord":10431,"ĠTemperaturen":10432,"ĠDau":10433,"HO":10434,"ĠErga":10435,"ĠVorstellung":10436,"ĠBetten":10437,"ĠBatterie":10438,"Platz":10439,"ĠWarenkorb":10440,"ĠFremd":10441,"2002":10442,"lehre":10443,"title":10444,"Ġlangja":10445,"ĠBearbeitung":10446,"ĠNiveau":10447,"ĠStore":10448,"Ġsche":10449,"Ã¸":10450,"Ġumfangreiche":10451,"aden":10452,"ĠEvange":10453,"Fest":10454,"Ġservice":10455,"lies":10456,"Ġstanden":10457,"ĠRegierungs":10458,"At":10459,"Spa":10460,"schlei":10461,"ĠCast":10462,"Ġbehaup":10463,"Ð´":10464,"Ġerweitert":10465,"Ġstrateg":10466,"ÃŁigen":10467,"arf":10468,"Ġkomplexe":10469,"ĠVerbesserung":10470,"jet":10471,"ĠTerror":10472,"dion":10473,"Ġerrichtet":10474,"ivil":10475,"sichtig":10476,"wachsen":10477,"furter":10478,"ĠBag":10479,"ĠWord":10480,"EIN":10481,"ĠFutter":10482,"schritt":10483,"Ġmode":10484,"Ġover":10485,"yester":10486,"rochen":10487,"ĠWikipedia":10488,"Tour":10489,"Ġbegleitet":10490,"leitungen":10491,"schutzer":10492,"irchen":10493,"Damit":10494,"Ġvari":10495,"uge":10496,"Ġschuhe":10497,"Ġsitzt":10498,"mietung":10499,"Ġfolgender":10500,"Ġbewertet":10501,"Ġhielt":10502,"Ġem":10503,"ĠJagd":10504,"Ġgeschaffen":10505,"ttingen":10506,"ĠFast":10507,"ĠImm":10508,"laue":10509,"ĠAugsburg":10510,"Ġset":10511,"sper":10512,"rzlich":10513,"ĠObe":10514,"gram":10515,"Ġ700":10516,"Ġdiesmal":10517,"Haupt":10518,"Ġok":10519,"leistungs":10520,"phe":10521,"ĠAustralien":10522,"world":10523,"partment":10524,"Tube":10525,"ilde":10526,"ĠVic":10527,"Â«<":10528,"Ġangegeben":10529,"Ġclass":10530,"post":10531,"Ġ1987":10532,"Ġfrau":10533,"Ġverdient":10534,"ĠAusge":10535,"ĠSchleswig":10536,"ĠWatt":10537,"wunsch":10538,"lem":10539,"ĠBeschwerde":10540,"leun":10541,"Schwarz":10542,"pas":10543,"ckung":10544,"hardt":10545,"Ġvollen":10546,"schm":10547,"ĠDurchmesser":10548,"fehlungen":10549,"Ġ115":10550,"Ġaufgefu":10551,"not":10552,"quot":10553,"ĠAktuelle":10554,"ĠIsrael":10555,"lischer":10556,"Ġstudierte":10557,"Ġjene":10558,"ĠBd":10559,"ĠArray":10560,"Ġerreichbar":10561,"BR":10562,"Ġbezahlt":10563,"Ġwunderbar":10564,"ĠVf":10565,"ĠAnne":10566,"ĠMega":10567,"Ġumgesetzt":10568,"ĠPod":10569,"ĠSpur":10570,"wiki":10571,"feier":10572,"ople":10573,"Software":10574,"Ġbefu":10575,"Ġaben":10576,"key":10577,"ĠLove":10578,"ketball":10579,"bacher":10580,"archiv":10581,"cyc":10582,"Ġles":10583,"Ġgol":10584,"ĠBegeg":10585,"Ġbal":10586,"ĠPrint":10587,"TO":10588,"berleben":10589,"Ġsteuer":10590,"cas":10591,"ody":10592,"af":10593,"ĠBom":10594,"ĠAspekte":10595,"wandel":10596,"ĠErmitt":10597,"Gera":10598,"ĠKugel":10599,"lossene":10600,"bildungen":10601,"nschten":10602,"kraine":10603,"Ġvieler":10604,"handlungs":10605,"banken":10606,"GO":10607,"ĠGet":10608,"Ġverbinden":10609,"ĠDeb":10610,"Ġoptimale":10611,"klo":10612,"lossenen":10613,"ĠStufe":10614,"ĠVerlust":10615,"Pol":10616,"Ġerfahre":10617,"ĠVie":10618,"kamera":10619,"ĠGrenz":10620,"Ġerfre":10621,"ĠRen":10622,"igte":10623,"hten":10624,"ĠHohe":10625,"Schwei":10626,"Ġverstanden":10627,"Ġbestimmen":10628,"ĠCL":10629,"ĠWart":10630,"heil":10631,"Verfasst":10632,"Ġanalys":10633,"Ġsteiger":10634,"ĠSongs":10635,"Ġ87":10636,"ilen":10637,"ĠMetro":10638,"roll":10639,"ĠBluetooth":10640,"ĠBildschirm":10641,"atin":10642,"dite":10643,"ĠSchmerz":10644,"ĠEinheit":10645,"lichten":10646,"Sol":10647,"geschwindigkeit":10648,"ĠEchtgeld":10649,"samer":10650,"Ġ....":10651,"ĠTatsache":10652,"ĠweiÃŁe":10653,"Ġgesundheit":10654,"ĠMasse":10655,"Ġgelangen":10656,"ĠAngabe":10657,"wanne":10658,"ĠMitt":10659,"Î¹":10660,"teils":10661,"berein":10662,"gesetze":10663,"Ġbew":10664,"Ġfern":10665,"kissen":10666,"ĠTore":10667,"Code":10668,"Ġschlimm":10669,"}<":10670,"ĠDER":10671,"ĠProduktions":10672,"ĠSystems":10673,"sur":10674,"ĠTurnschuhe":10675,"ĠEmpfang":10676,"har":10677,"ativer":10678,"ĠLas":10679,"ĠFull":10680,"\":[":10681,"schutzerkla":10682,"ĠMannheim":10683,"Ġplace":10684,"brun":10685,"ĠAufwand":10686,"neter":10687,"lastung":10688,"ĠWilliam":10689,"spor":10690,"ĠKontakte":10691,"fast":10692,"Ġunterscheiden":10693,"republik":10694,"ĠBischof":10695,"Titel":10696,"Verk":10697,"ĠShirt":10698,"Ġmedi":10699,"Ġvergeben":10700,"ĠheiÃŁen":10701,"ltnisse":10702,"Ġverku":10703,"mpft":10704,"Ġpm":10705,"Ġbehalten":10706,"metern":10707,"face":10708,"inkl":10709,"okrati":10710,"Ġinteressieren":10711,"Ġserio":10712,"ĠBezeichnung":10713,"ĠBewerbung":10714,"ĠDiv":10715,"nstle":10716,"EO":10717,"lanze":10718,"Vielen":10719,"schweig":10720,"Verlag":10721,"Ġlief":10722,"Ġzweit":10723,"instru":10724,"suchten":10725,"stin":10726,"bilis":10727,"ĠInnenstadt":10728,"ditor":10729,"schwarz":10730,"ĠHill":10731,"Ġmulti":10732,"zahlungen":10733,"ACK":10734,"ĠBeine":10735,"kete":10736,"motor":10737,"kler":10738,"ĠKatze":10739,"sau":10740,"Selbst":10741,"Ġschweren":10742,"ĠFaktoren":10743,"Ġkombiniert":10744,"ĠMS":10745,"Ġweist":10746,"fone":10747,"ĠOld":10748,"WeiÃŁ":10749,"Hel":10750,"ode":10751,"pm":10752,"ĠProzesse":10753,"Windows":10754,"Jugend":10755,"ĠChemie":10756,"].":10757,"Ġmomentan":10758,"Ġ1950":10759,"ĠTrink":10760,"idaten":10761,"Ġschie":10762,"sprechpartner":10763,"Ġpu":10764,"stehenden":10765,"wegt":10766,"ĠRechner":10767,"dener":10768,"Ġverbringen":10769,"zustand":10770,"ĠQuadrat":10771,"Ġ1986":10772,"otherapie":10773,"Ġline":10774,"Ġkan":10775,"Ġsolcher":10776,"ĠEmail":10777,"ĠSprecher":10778,"ĠOP":10779,"rone":10780,"ĠNat":10781,"Ġbezu":10782,"ĠBeziehungen":10783,"Ġfix":10784,"ĠKlang":10785,"ĠExpress":10786,"sson":10787,"cam":10788,"ĠStatt":10789,"soren":10790,"abrik":10791,"ĠMid":10792,"Ġoh":10793,"Ġgesund":10794,"tlichen":10795,"leute":10796,"ĠJoseph":10797,"ĠDR":10798,"ĠJean":10799,"Ġnennt":10800,"breite":10801,"ĠProgramme":10802,"Ġunmittelbar":10803,"jektiv":10804,"ĠEinstellung":10805,"ĠBody":10806,"ĠLong":10807,"ĠPause":10808,"ĠChat":10809,"Klasse":10810,"Kino":10811,"ĠGal":10812,"Wirtschaft":10813,"werben":10814,"nische":10815,"ĠReichs":10816,"ĠSuchen":10817,"TH":10818,"Stellen":10819,"ĠNah":10820,"Ġrechnen":10821,"ĠKreativ":10822,"Ġ350":10823,"=\\\"":10824,"isierte":10825,"ĠInitiative":10826,"ĠDekoration":10827,"ĠReiÃŁ":10828,"Ġgelungen":10829,"ndere":10830,"Ġ1984":10831,"Ġausgeschlossen":10832,"Ġkeines":10833,"wendet":10834,"Ġ73":10835,"ua":10836,"ppert":10837,"Zubeho":10838,"âĢ¢":10839,"DC":10840,"sens":10841,"Ġ97":10842,"Ġ---":10843,"ĠKiel":10844,"fy":10845,"Ġmet":10846,"ypal":10847,"Ġzuga":10848,"uÃŁe":10849,"ĠSprachen":10850,"GR":10851,"Ġkatho":10852,"Ġsuch":10853,"ĠPic":10854,"Ġeinma":10855,"ĠFreien":10856,"ĠSpielzeug":10857,"lange":10858,"ĠMaler":10859,"Ġschicken":10860,"werker":10861,"Ġseiten":10862,"Ġpor":10863,"url":10864,"rill":10865,"gnu":10866,"Ġnett":10867,"ĠReligion":10868,"Ġforex":10869,"BS":10870,"Ġgerecht":10871,"Ġeinsetzen":10872,"studio":10873,"Ġany":10874,"anter":10875,"Ġalter":10876,"Ġsome":10877,"ĠSymbol":10878,"ĠHobby":10879,"Ġwohnen":10880,"anna":10881,"ntal":10882,"Ġpassieren":10883,"type":10884,"nette":10885,"ĠFashion":10886,"ĠUnited":10887,"Ġbus":10888,"ĠBereit":10889,"ĠTextil":10890,"hoff":10891,"ĠCase":10892,"ĠPlatten":10893,"ouble":10894,"1000":10895,"ĠErfolgs":10896,"alisieren":10897,"ĠInfrastruktur":10898,"ĠVereinigten":10899,"ĠDA":10900,"ĠMesser":10901,"ĠMuse":10902,"Ġspeichern":10903,"ĠRoad":10904,"mitglied":10905,"ĠInhalts":10906,"schale":10907,"umber":10908,"ĠLied":10909,"dinen":10910,"Gut":10911,"ĠWohnungs":10912,"ĠMehrheit":10913,"ĠRegionen":10914,"ĠVersionen":10915,"scheibe":10916,"bund":10917,"cksspiel":10918,"sole":10919,"Ġmehrfach":10920,"ĠCra":10921,"Is":10922,"Ġberichten":10923,"Ġfolgte":10924,"ĠHauses":10925,"Ġsepar":10926,"Ġ220":10927,"Ġaufgebaut":10928,"Ġentwickelte":10929,"itur":10930,"ĠMun":10931,"nia":10932,"ĠÃĺ":10933,"atent":10934,"ĠStephan":10935,"Free":10936,"ckerei":10937,"Ġschau":10938,"sat":10939,"Ġbeige":10940,"ĠFinanzierung":10941,"Original":10942,"ĠNotebook":10943,"manns":10944,"Ġmeinte":10945,"ĠArbeiter":10946,"ĠFiguren":10947,"ĠRos":10948,"Ġbeinhaltet":10949,"ĠUngar":10950,"glu":10951,"ĠCross":10952,"izzling":10953,"mechan":10954,"Ġlinken":10955,"ĠOR":10956,"ĠZwecke":10957,"quote":10958,"herz":10959,"blo":10960,"Ġgloba":10961,"ĠGegend":10962,"ĠTiefe":10963,"\").":10964,"ĠKommission":10965,"ĠLevel":10966,"itektur":10967,"ticle":10968,"cted":10969,"Kap":10970,"tected":10971,"krit":10972,"ĠIndien":10973,"ĠFinden":10974,"ĠWich":10975,"Ġdefinitiv":10976,"urnier":10977,"ĠMassen":10978,"ĠZeitschrift":10979,"show":10980,"ĠRevolution":10981,"ĠScheiben":10982,"kannte":10983,"cklenburg":10984,"ĠOrigin":10985,"ĠDeutscher":10986,"Gruppe":10987,"celona":10988,"ĠBudget":10989,"ĠSortiment":10990,"Zitat":10991,"bernahm":10992,"ĠAbteilung":10993,"mieter":10994,"Jan":10995,"ĠDampf":10996,"ĠTrump":10997,"venti":10998,"vtl":10999,"ĠVil":11000,"kop":11001,"dl":11002,"uÃŁ":11003,"ĠRas":11004,"kreta":11005,"ĠOrgan":11006,"ĠHohen":11007,"ĠSports":11008,"Ġport":11009,"Ġbestens":11010,"ĠIndividu":11011,"ĠTarif":11012,"Ġnochmals":11013,"ĠIdent":11014,"Ġ1985":11015,"ĠDomin":11016,"Erst":11017,"Ġsichere":11018,"ÃĹ":11019,"Ġglaub":11020,"cument":11021,"Ġabgeb":11022,"Ġoper":11023,"ĠAnlass":11024,"rak":11025,"ĠKammer":11026,"ĠErschein":11027,"ĠGaming":11028,"zielte":11029,"ĠSpir":11030,"faser":11031,"verhalten":11032,"ĠJubila":11033,"atisch":11034,"ĠKindes":11035,"nnern":11036,"ĠGriechenland":11037,"rohr":11038,"Ġfrage":11039,"ĠMosk":11040,"ĠLan":11041,"gibt":11042,"ĠMaus":11043,"ĠNachmittag":11044,"eintra":11045,"spann":11046,"Pfalz":11047,"staaten":11048,"ĠGroÃŁen":11049,"ĠAusbau":11050,"tti":11051,"ĠPant":11052,"Holstein":11053,"this":11054,"lay":11055,"schicht":11056,"hh":11057,"itan":11058,"Ġdoppel":11059,"Ġehrlich":11060,"ĠAllein":11061,"ĠRetro":11062,"Ġbeobachten":11063,"ĠSK":11064,"Schne":11065,"rauer":11066,"Natu":11067,"geho":11068,"Ġgrosse":11069,"ned":11070,"pl":11071,"ĠEuropas":11072,"weiler":11073,"ĠAro":11074,"fleisch":11075,"dates":11076,"ĠDatenbank":11077,"ĠSH":11078,"ĠWebseiten":11079,"Ġunkomp":11080,"troller":11081,"iente":11082,"ĠMittelpunkt":11083,"Ġlecke":11084,"Ġlike":11085,"Ġeinzigen":11086,"ĠEmpfehlungen":11087,"LED":11088,"ĠStor":11089,"risuren":11090,"ĠMetern":11091,"Sicherheit":11092,"Ġinstallieren":11093,"liefer":11094,"ĠYe":11095,"ĠTrag":11096,"zeln":11097,"Ġggf":11098,"ibel":11099,"wandte":11100,"ĠNerven":11101,"ĠRezepte":11102,"ĠAfrika":11103,"Pri":11104,"ftige":11105,"Ġgekla":11106,"ĠOptim":11107,"Ä±":11108,"Ġfanta":11109,"ĠHeidelberg":11110,"ĠChi":11111,"ĠZitat":11112,"ĠHitze":11113,"ĠNachfrage":11114,"ĠOe":11115,"ĠSieger":11116,"ĠGesam":11117,"Zent":11118,"sieger":11119,"Nord":11120,"Ġ92":11121,"Ġprima":11122,"ĠSpannung":11123,"ĠKonkurrenz":11124,"amazon":11125,"attle":11126,"bekleidung":11127,"ĠScience":11128,"Ġpat":11129,"Ġbitcoin":11130,"Ġversteht":11131,"Angebote":11132,"Blu":11133,"ky":11134,"Ġangeku":11135,"Karte":11136,"add":11137,"Ġfaszin":11138,"Ġverbessert":11139,"ĠGutscheine":11140,"pon":11141,"Ġberlin":11142,"angaben":11143,"Ġeventuell":11144,"packt":11145,"ĠWeiss":11146,"ferien":11147,"ĠSchneider":11148,"lade":11149,"Ġstarb":11150,"disch":11151,"ĠGewinner":11152,"Ġbetroffen":11153,"Ġverschiedener":11154,"ĠAbschnitt":11155,"Ġaufmerksam":11156,"Ġgebrau":11157,"ĠWen":11158,"eichen":11159,"ĠGrunde":11160,"ĠUns":11161,"IX":11162,"Ġbeka":11163,"check":11164,"ĠLoch":11165,"iano":11166,"ĠRezension":11167,"splatz":11168,"rates":11169,"thing":11170,"tainment":11171,"atives":11172,"ĠJungs":11173,"display":11174,"ĠSozia":11175,"Peter":11176,"ĠSoldaten":11177,"ĠAccessoires":11178,"rator":11179,"tsel":11180,"ĠFormel":11181,"fungen":11182,"Ġbedro":11183,"eir":11184,"ĠGenau":11185,"ĠVER":11186,"rste":11187,"ĠErwachsenen":11188,"nften":11189,"leiben":11190,"ĠAltstadt":11191,"Ġ71":11192,"liebe":11193,"ĠTheorie":11194,"ĠPortal":11195,"ĠFlie":11196,"hes":11197,"stift":11198,"chron":11199,"ĠNachfolger":11200,"flie":11201,"Ġzunehmend":11202,"Ġbestand":11203,"ĠRealita":11204,"ĠDynam":11205,"LC":11206,"Fla":11207,"Fra":11208,"Ġangebote":11209,"Ġhot":11210,"By":11211,"Ġleistungs":11212,"auti":11213,"Ġschwere":11214,"ĠNachhal":11215,"Check":11216,"VC":11217,"ĠEiner":11218,"ĠTelefonnummer":11219,"pper":11220,"Ġendgu":11221,"mobilie":11222,"ologisch":11223,"Com":11224,"Ġintensiv":11225,"verle":11226,"ielefeld":11227,"ĠPhase":11228,"ratze":11229,"senz":11230,"Ġhinsichtlich":11231,"Î¿":11232,"Ġmiss":11233,"Ġbearbeiten":11234,"Ġmitten":11235,"ĠWeiterbildung":11236,"Ġfestgestellt":11237,"Ġspannend":11238,"berge":11239,"ronomie":11240,"hnliches":11241,"ĠPeters":11242,"ĠDuft":11243,"ĠNeubau":11244,"systeme":11245,"ĠKohlen":11246,"MAN":11247,"ĠFerienhaus":11248,"kolle":11249,"ĠMission":11250,"ĠUhren":11251,"setzten":11252,"Ġweshalb":11253,"ĠUSD":11254,"QU":11255,"minen":11256,"ĠPRO":11257,"Vom":11258,"ĠKontra":11259,"ĠHall":11260,"rollen":11261,"ffet":11262,"ĠLot":11263,"urop":11264,"ĠWichtig":11265,"ĠHell":11266,"ability":11267,"berwiegend":11268,"heira":11269,"ĠTransfer":11270,"âĢł":11271,"pflanzen":11272,"ĠToile":11273,"Ġdarstellen":11274,"Product":11275,"ush":11276,"ĠBene":11277,"Ġnein":11278,"ĠProbe":11279,"ĠSty":11280,"viert":11281,"áĲ":11282,"cheln":11283,"bir":11284,"ngige":11285,"place":11286,"ĠNeuen":11287,"inte":11288,"ĠRessourcen":11289,"ĠInstitu":11290,"ĠPots":11291,"ĠSubst":11292,"Ġ82":11293,"deutsche":11294,"Ġsteckt":11295,"wender":11296,"Text":11297,"lare":11298,"Bru":11299,"ĠHerkunft":11300,"ĠRitter":11301,"Ġmassiv":11302,"uther":11303,"ĠStyle":11304,"tzeit":11305,"renner":11306,"rr":11307,"();":11308,"ĠLaufen":11309,"Ġpassend":11310,",,":11311,"ĠEntwickler":11312,"Ġgewissen":11313,"En":11314,"2001":11315,"ĠSpu":11316,"Ġverl":11317,"rike":11318,"Ġbetrifft":11319,"III":11320,"ĠErinnerung":11321,"ates":11322,"neimit":11323,"Ġbeendet":11324,"ĠMond":11325,"Ġsingles":11326,"amen":11327,"ĠEinladung":11328,"pfung":11329,"ischem":11330,"block":11331,"Ġce":11332,"zenen":11333,"ĠAnschlieÃŁend":11334,"Sofort":11335,"ĠState":11336,"bron":11337,"ship":11338,"tabel":11339,"liges":11340,"Ġgetragen":11341,"ĠDisk":11342,"Ġras":11343,"Ġaufnehmen":11344,"Ġerzielen":11345,"900":11346,"ĠAlu":11347,"ĠPlastik":11348,"Ġgriech":11349,"sprozess":11350,"meldungen":11351,"Ġgearbeitet":11352,"Ġarch":11353,"undenen":11354,"worben":11355,"DEN":11356,"Lieferung":11357,"nftige":11358,"ĠGerichts":11359,"ĠHaushalts":11360,"Ġgewisse":11361,"Schon":11362,"ausende":11363,"ĠZeug":11364,"ĠJon":11365,"ĠHub":11366,"ĠSozi":11367,"},\"":11368,"ĠRechtsanwalt":11369,"Ġirgendwo":11370,"ĠStatus":11371,"Ġ()":11372,"Ġother":11373,"Ġallgemeine":11374,"meras":11375,"ĠAtem":11376,"ierigkeiten":11377,"ĠMerkel":11378,"Deutsch":11379,"ĠKW":11380,"Ġversehen":11381,"fertig":11382,"nab":11383,"Arbeits":11384,"ĠDemokratie":11385,"genden":11386,"Ġ83":11387,"sabeth":11388,"ALL":11389,"âĤ¬<":11390,"ĠWellen":11391,"ern":11392,"product":11393,"ladbach":11394,"lon":11395,"Ġhor":11396,"ĠGef":11397,"ĠUnisex":11398,"ĠWerkstatt":11399,"Ġ(=":11400,"chstes":11401,"ĠSauer":11402,"yd":11403,"Ġgenauer":11404,"sig":11405,"Ġansonsten":11406,"ĠRettungs":11407,"ĠAbgeord":11408,"daille":11409,"ĠWC":11410,"Ġdurfte":11411,"ĠMagen":11412,"Ġtrau":11413,"vater":11414,"lide":11415,"Ġausla":11416,"Ġlas":11417,"ĠRub":11418,"fehlung":11419,"Ġjust":11420,"My":11421,"wak":11422,"Ġdringend":11423,"kuchen":11424,"ziele":11425,"Ġerfolgreichen":11426,"sions":11427,"ĠKorre":11428,"ĠBronze":11429,"strecke":11430,"ĠAachen":11431,"regal":11432,"Ġbekomme":11433,"welle":11434,"kteur":11435,"arto":11436,"ĠBesuche":11437,"ĠVortrag":11438,"ĠTime":11439,"ĠPhilosophie":11440,"Ġgeliefert":11441,"ÃŁung":11442,"Vo":11443,"Herren":11444,"tech":11445,"Ġzuzu":11446,"ĠLeucht":11447,"asie":11448,"ĠDialog":11449,"Ġlecker":11450,"games":11451,"Ġoberen":11452,"Band":11453,"gor":11454,"ratz":11455,"Â«,":11456,"Ġrelig":11457,"ĠSchick":11458,"ĠSU":11459,"haut":11460,"ĠMischung":11461,"Ġfit":11462,"berech":11463,"Rechtsan":11464,"Ġverteilt":11465,"ĠSaar":11466,"Ġverarbeitet":11467,"ĠBeta":11468,"eilen":11469,"behandlung":11470,"rmel":11471,"ĠCorpor":11472,"ĠGeorge":11473,"ĠLabor":11474,"ĠBewegungs":11475,"formular":11476,"ahne":11477,"HK":11478,"ĠDefin":11479,"Ġemotion":11480,"brig":11481,"ĠDC":11482,"atischen":11483,"loch":11484,"ities":11485,"attoo":11486,"Ġklasse":11487,"Ġoftmals":11488,"ĠPortra":11489,"ĠInnovation":11490,"style":11491,"ĺħ":11492,"Bewertung":11493,"Ġschen":11494,"ndungen":11495,"ndungs":11496,"ĠSturm":11497,"ĠKanal":11498,"hyth":11499,"lteren":11500,"witz":11501,"Ġgelingt":11502,"Ġvollkommen":11503,"ĠSing":11504,"ĠFrucht":11505,"Ġcu":11506,"Ġreal":11507,"ĠNight":11508,"Ġstimm":11509,"ĠAbt":11510,"Ġfil":11511,"Ġeindeutig":11512,"stufen":11513,"athon":11514,"westen":11515,"Kan":11516,"mitglieder":11517,"iat":11518,"anie":11519,"AW":11520,"ĠRon":11521,"staben":11522,"ĠSoc":11523,"ckkehr":11524,"lena":11525,"tisches":11526,"dies":11527,"ĠStuhl":11528,"ĠAdidas":11529,"quid":11530,"ĠDur":11531,"ĠKlavier":11532,"Schul":11533,"ĠFU":11534,"ĠAngeho":11535,"sendung":11536,"Ġhierfu":11537,"Ġkehr":11538,"ĠElektronik":11539,"Ġstolz":11540,"Ġgeku":11541,"stiges":11542,"isen":11543,"ĠGeschlecht":11544,"gerichte":11545,"alition":11546,"ĠKonzent":11547,"ĠKrise":11548,"ĠPartie":11549,"fahrzeug":11550,"Ġunteren":11551,"ĠSofort":11552,"ngste":11553,"Ġums":11554,"Ġvorbehalten":11555,"ĠData":11556,"GL":11557,"tour":11558,"Ġbestehenden":11559,"ĠSymptome":11560,"ĠBesitzer":11561,"ĠArmband":11562,"ĠUnterhaltung":11563,"wetter":11564,"ĠMassage":11565,"Ġendet":11566,"ĠJuden":11567,"aufe":11568,"Ġoffiziellen":11569,"Ġbehandeln":11570,"ĠTob":11571,"hnte":11572,"ĠCab":11573,"api":11574,"bahnhof":11575,"ĠSchna":11576,"dichte":11577,"ĠHeiligen":11578,"Ġkeinerlei":11579,"Ġern":11580,"Ġwenigstens":11581,"aga":11582,"stitute":11583,"ĠStreifen":11584,"mungs":11585,"ĠJako":11586,"Ġ93":11587,"Ġvideo":11588,"fonds":11589,"ĠSM":11590,"ĠDIE":11591,"Ġbre":11592,"tika":11593,"Ġletzter":11594,"Ġfunction":11595,"nehmung":11596,"tabl":11597,"Licht":11598,"Ġ1983":11599,"odurch":11600,"Ġgelernt":11601,"berlegen":11602,"Typ":11603,"ĠLogistik":11604,"allery":11605,"Ġbesseren":11606,"scheiben":11607,"ĠVize":11608,"ĠRathaus":11609,"oe":11610,"Ġkenn":11611,"ĠAward":11612,"ĠInse":11613,"hington":11614,"ĠCR":11615,"map":11616,"Ġdetaill":11617,"voller":11618,"Ġdynam":11619,"Sterne":11620,"bf":11621,"konzept":11622,"ĠdrauÃŁen":11623,"ĠEintritt":11624,"betrag":11625,"ungsmo":11626,"other":11627,"Ġ_":11628,"ĠMountain":11629,"Ġ});":11630,"Ġbezieht":11631,"beginn":11632,"Ġkrank":11633,"125":11634,"ĠEpiso":11635,"ĠSpeed":11636,"oter":11637,"nglichen":11638,"ĠAlli":11639,"ĠFlash":11640,"Auswahl":11641,"Ġangenommen":11642,"deburg":11643,"ĠStadtteil":11644,"fore":11645,"ĠBeklag":11646,"ĠBill":11647,"017":11648,"ĠUnterschiede":11649,"Ġkleinere":11650,"ĠErfahrungs":11651,"ĠPumps":11652,"ĠSpark":11653,"ĠZweifel":11654,"Micro":11655,"Ġamerikanischen":11656,"Euro":11657,"ĠHyp":11658,"nigreich":11659,"ĠHaup":11660,"licke":11661,"ĠSchlieÃŁlich":11662,"illon":11663,"tokoll":11664,"ĠNagel":11665,"iland":11666,"kauft":11667,"boter":11668,"auml":11669,"lect":11670,"setzte":11671,"ĠVal":11672,"Pan":11673,"ĠCore":11674,"Ġsolange":11675,"ĠHaust":11676,"ĠBE":11677,"Ġhochwertigen":11678,"color":11679,"aktion":11680,"Ġschlafzimmer":11681,"bere":11682,"temperatur":11683,"Ġgleicher":11684,"ĠKindergarten":11685,"ĠAusbildungs":11686,"Internet":11687,"Ġideale":11688,"ĠCru":11689,"familie":11690,"Ġzufolge":11691,"isieren":11692,"Ġspannende":11693,"ollt":11694,"Natur":11695,"ssysteme":11696,"Ġbasiert":11697,"Leider":11698,"ĠButter":11699,"ĠMarc":11700,"Ġbrauche":11701,"ĠPolyester":11702,"Ġexklus":11703,"ĠKomponenten":11704,"Ġ230":11705,"FOR":11706,"Ġhervorragend":11707,"Ġ1982":11708,"ĠAtom":11709,"Ġoffensichtlich":11710,"ĠTschech":11711,"ĠSchokola":11712,"ĠKonzern":11713,"Ġbillig":11714,"ommern":11715,"ĠRuhr":11716,"ĠLohn":11717,"ĠStift":11718,"steuerung":11719,"VA":11720,"ĠAdvent":11721,"ĠGibt":11722,"ĠChristen":11723,"saal":11724,"Ġangesch":11725,"bot":11726,"function":11727,"ĠInvest":11728,"ĠONLINE":11729,"Ġvertrauen":11730,"ĠLieder":11731,"Nieder":11732,"ality":11733,"ĠBeweis":11734,"Ġempfohlen":11735,"ahme":11736,"Park":11737,"Ġgenie":11738,"ĠMake":11739,"tages":11740,"ĠWissens":11741,"Ġfliegen":11742,"gula":11743,"Ġdown":11744,"Ġimmerhin":11745,"Ġwoh":11746,"wards":11747,"ference":11748,"Ġelegan":11749,"ĠAgentur":11750,"ĠKoffer":11751,"recken":11752,"Suche":11753,"Ġ81":11754,"Ġzuhause":11755,"Ak":11756,"irur":11757,"ĠKompetenz":11758,"ĠZwar":11759,"yr":11760,"...)":11761,"Ġverei":11762,"ĠBah":11763,"ĠDM":11764,"Archiv":11765,"ĠVerkaufs":11766,"Ġschnellen":11767,"Ġbegeg":11768,"gale":11769,"pad":11770,"aufbau":11771,"Ġ1972":11772,"Ġverst":11773,"Ġsowieso":11774,"Hab":11775,"ios":11776,"ï¸":11777,"ĠDenken":11778,"ĠFakten":11779,"Ġwodurch":11780,"Ġantworten":11781,"ĠSchlacht":11782,"ĠSorgen":11783,"Ġrichtet":11784,"ĠSignal":11785,"FZ":11786,"Ġwusste":11787,"hat":11788,"folio":11789,"Ġzit":11790,"Ġbeantworten":11791,"Ġbemu":11792,"ĠAlte":11793,"Dollar":11794,"Antwort":11795,"gasse":11796,"listet":11797,"High":11798,"???":11799,"Gefa":11800,"ĠGerhard":11801,"galerie":11802,"ĠUlrich":11803,"itsch":11804,"ĠTrotzdem":11805,"Ġart":11806,"scheinlichkeit":11807,"Ġbeliebt":11808,"brem":11809,"ĠHeinz":11810,"ĠBeschluss":11811,"Ġverhindert":11812,"ĠWegen":11813,"ĠBernd":11814,"ĠHochschul":11815,"Blog":11816,"Ġangepasst":11817,"Pat":11818,"Ġvie":11819,"Ġbuch":11820,"Ġirgende":11821,"ĠDenkmal":11822,"ĠFair":11823,"ĠWolfs":11824,"duktion":11825,"ĠNO":11826,"ĠFax":11827,"Ġresult":11828,"Ġklare":11829,"Ġzentrale":11830,"ĠFeedback":11831,"ĠFlucht":11832,"menu":11833,"nta":11834,"ĠKel":11835,"ĠSimon":11836,"paket":11837,"Frauen":11838,"Ġstill":11839,"viertel":11840,"Ġkalt":11841,"ĠPhoto":11842,"ĠColor":11843,"ĠRezensionen":11844,"aria":11845,"Ġbeziehen":11846,"SR":11847,"Ġorganisiert":11848,"Dem":11849,"werfen":11850,"legenheiten":11851,"ĠBestandteil":11852,"San":11853,"ĠweiÃŁen":11854,"ĠOrange":11855,"ĠBetreiber":11856,"chtige":11857,"ĠPayPal":11858,"Ġeinstellen":11859,"ĠStrecken":11860,"Ġtolles":11861,"ngerung":11862,"konom":11863,"Ġbank":11864,"Cas":11865,"ngnis":11866,"sprechung":11867,"ĠSender":11868,"ĠSchrank":11869,"ĠBauen":11870,"produktion":11871,"Ġtraum":11872,"Bro":11873,"ĠWehr":11874,"tzer":11875,"ĠFri":11876,"stehung":11877,"schlus":11878,"nftigen":11879,"faktor":11880,"fragt":11881,"sso":11882,"Ġtrocken":11883,"lebt":11884,"Dire":11885,"ĠDemon":11886,"Ġhum":11887,"Ġgestartet":11888,"Ġmont":11889,"iehlt":11890,"Ġoffiziell":11891,"Ġgez":11892,"ĠISO":11893,"ĠBetrag":11894,"ragon":11895,"Ġinternet":11896,"Ġanspruchs":11897,"Ġ900":11898,"ufa":11899,"ahnsinn":11900,"Ġbegleiten":11901,"ĠDrucker":11902,"ĠEigentu":11903,"arburg":11904,"rungs":11905,"ĠMauer":11906,"Dass":11907,"nap":11908,"uerung":11909,"ĠChron":11910,"Ġair":11911,"Europa":11912,"Ġeingeladen":11913,"áĲħ":11914,"ĠMedikamente":11915,"png":11916,"ament":11917,"Ġdirekten":11918,"ĠNorth":11919,"RL":11920,"Ġenglisch":11921,"ĠCock":11922,"nkung":11923,"Ġ1979":11924,"ĠFernseher":11925,"leiste":11926,"ĠEL":11927,"athie":11928,"105":11929,"ĠHammer":11930,"ĠWiesbaden":11931,"Ġnormale":11932,"arina":11933,"Ġschwarzen":11934,"Ġdirekte":11935,"ĠKissen":11936,"ĠFut":11937,"ĠAllgemeinen":11938,"sendet":11939,"ĠAttra":11940,"ĠGrab":11941,"ĠAns":11942,"ransport":11943,"Ġfeine":11944,"Jun":11945,"Ġdenkt":11946,"craft":11947,"sterdam":11948,"anteil":11949,"ĠNachwuchs":11950,"PD":11951,"Ġvorbereitet":11952,"stiefel":11953,"ĠHorn":11954,"ĠNic":11955,"glanz":11956,"ĠSchool":11957,"ĠGoe":11958,"Ġseid":11959,"hlungen":11960,"sehr":11961,"Ġ|<":11962,"Ġfilm":11963,"Ġnormalerweise":11964,"rkung":11965,"ĠVerteid":11966,"Ġqualit":11967,"ĠAtlan":11968,"End":11969,"tzu":11970,"wan":11971,"ĠAlbert":11972,"ĠKrebs":11973,"ĠAusflu":11974,"ĠGraz":11975,"Ġstation":11976,"Ġangekommen":11977,"tty":11978,"gebir":11979,"ĠSpenden":11980,"ĠAnth":11981,"Ġpraktische":11982,"ĠVorschlag":11983,"ĠKlimaanlage":11984,"âĸ":11985,"ĠBesonder":11986,"iertem":11987,"Ġ114":11988,"ĠEinschra":11989,"ĠUrsache":11990,"!âĢľ":11991,"Mas":11992,"gla":11993,"mpfung":11994,"Ġ1920":11995,"ckern":11996,"unen":11997,"ĠYouTube":11998,"Ġcur":11999,"ĠAngeboten":12000,"leih":12001,"SW":12002,"riss":12003,"ĠGutscheincode":12004,"Angebot":12005,"ĠEmpfehlung":12006,"ĠKlassiker":12007,"ĠBrenn":12008,"nimmt":12009,"ĠRucksack":12010,"Ġintegriert":12011,"Ġtrocke":12012,"nkungen":12013,"ĠKassel":12014,"saison":12015,"Ġvermitteln":12016,"Ġhotel":12017,"ĠAsi":12018,"remium":12019,"ĠBarcelona":12020,"ĠMass":12021,"German":12022,"Ġgebil":12023,"schwa":12024,"Ġspezif":12025,"ĠWinkel":12026,"Ġtrinken":12027,"ofen":12028,"gele":12029,"em":12030,"ĠKanada":12031,"ausbildung":12032,"ĠEsp":12033,"Ġunglaublich":12034,"Habe":12035,"ĠVitamin":12036,"Ġaktive":12037,"ĠTar":12038,"beruf":12039,"ĠBGB":12040,"ĠPM":12041,"ĠFlugzeug":12042,"tinuier":12043,"cadem":12044,"boot":12045,"'t":12046,"teur":12047,"wechslungs":12048,"ĠVollzeit":12049,"ĠKupfer":12050,"ĠPharma":12051,"Winter":12052,"ĠSucher":12053,"ĠMangel":12054,"rbt":12055,"ĠTH":12056,"cti":12057,"wende":12058,">âĨĲ":12059,"Ġtri":12060,"Ġbeschreibt":12061,"Datei":12062,"ĠFehl":12063,"ĠWarte":12064,"vern":12065,"Ġsicheren":12066,"Ġunternehmen":12067,"agentur":12068,"ĠOptik":12069,"ĠLE":12070,"branche":12071,"ngern":12072,"Ġgefahren":12073,"kos":12074,"ĠRum":12075,"stoÃŁen":12076,"Ġ1978":12077,"Denn":12078,"ziehungsweise":12079,"ĠOlympischen":12080,"ĠDurchschnitt":12081,"Ġthere":12082,"ryl":12083,"Ġgefo":12084,"ĠThread":12085,"gon":12086,"Mi":12087,"gige":12088,"ĠSpuren":12089,"stren":12090,"Ġwechselte":12091,"Ġbewegt":12092,"Hilfe":12093,"ĠLeinwand":12094,"bruck":12095,"ĠBlan":12096,"Ġsymp":12097,"ĠAv":12098,"Ġfalse":12099,"Ġbeschlossen":12100,"ĠGema":12101,"Ġdiejenigen":12102,"owski":12103,"Ġnachzu":12104,"ĠLampe":12105,"Ġentta":12106,"Chef":12107,"adies":12108,"Â»<":12109,"Ġausprobieren":12110,"pumpe":12111,"ĠAnsatz":12112,"ampe":12113,"Ġkar":12114,"ĠNoten":12115,"ÑģÑĤ":12116,"marken":12117,"Off":12118,"ĠStudi":12119,"Ġprofessionelle":12120,"ĠFli":12121,"kann":12122,"Ġfestge":12123,"Ġkontaktieren":12124,"ĠEffekt":12125,"tenen":12126,"ĠOliver":12127,"See":12128,"ĠBeratungs":12129,"ĠSlip":12130,"ĠiOS":12131,"glicher":12132,"Ġ1968":12133,"ĠBrasilien":12134,"schaden":12135,"ĠðŁĺī":12136,"nehmigung":12137,"ĠHoff":12138,"telligen":12139,"bio":12140,"ĠMieter":12141,"bietern":12142,"auswahl":12143,"ĠHeft":12144,"Ġidentifiz":12145,"rinnen":12146,"Ġcor":12147,"Ġ91":12148,"schloss":12149,"Cor":12150,"ĠRisiken":12151,"ustellen":12152,"Kommentar":12153,"Ġzweimal":12154,"stic":12155,"jor":12156,"Gast":12157,"ĠBist":12158,"schl":12159,"ĠInstagram":12160,"Ġklin":12161,"ĠCC":12162,"160":12163,"ausgabe":12164,"ĠKath":12165,"yen":12166,"ĠReit":12167,"ĠMah":12168,"Leistungs":12169,"Ġ1981":12170,"meer":12171,"ĠSchreibtisch":12172,"ĠChara":12173,"ĠEgal":12174,"ufiger":12175,"mpfehlung":12176,"amo":12177,"Ġschlagen":12178,"Ġadmin":12179,"Format":12180,"Ġverbindet":12181,"sbesondere":12182,"ĠOft":12183,"ĠSchein":12184,"ĠAutobahn":12185,"ĠSchild":12186,"gentin":12187,"plus":12188,"Ġdiversen":12189,".).":12190,"ĠYo":12191,"Ìģ,":12192,"db":12193,"ĠCro":12194,"Ġgesprochen":12195,"Ġnehme":12196,"schild":12197,"ĠList":12198,"ĠSeg":12199,"ĠExplo":12200,"KA":12201,"Ġverliert":12202,"Ġquasi":12203,"hlich":12204,"FH":12205,"ĠBraunschweig":12206,"ierbar":12207,"Ġul":12208,"baus":12209,"Ġtot":12210,"ĠQuee":12211,"rkten":12212,"rant":12213,"ups":12214,"Ġeinfu":12215,"ĠHeizung":12216,"ĠGanze":12217,"ĠBle":12218,"phase":12219,"Ġschein":12220,"Ġbesie":12221,"Ġroten":12222,"ĠWork":12223,"betten":12224,"ĠCard":12225,"ĠHaben":12226,"Ġvorgesehen":12227,"ĠâĢĺ":12228,"ĠRenten":12229,"graben":12230,"Aug":12231,"ĠSpring":12232,"Ġbevorzu":12233,"ĠGenuss":12234,"Ġsozial":12235,"Fr":12236,"oben":12237,"Ġgebucht":12238,"ĠDesktop":12239,"ĠDiabetes":12240,"kanz":12241,"Ġdomin":12242,"ĠBase":12243,"ĠGegenwart":12244,"ĠVereine":12245,"Ġerwerben":12246,"teau":12247,"Ġbeur":12248,"Ġerkannt":12249,"Ġfund":12250,"usten":12251,"aletten":12252,"rim":12253,"SB":12254,"Ġadidas":12255,"ĠSouth":12256,"terie":12257,"Ġ1975":12258,"frie":12259,"hrleisten":12260,"verarbeitung":12261,"User":12262,"ĠKarto":12263,"Ġmanchen":12264,"manager":12265,"deutschen":12266,"ped":12267,"rowser":12268,"omatic":12269,"ngsten":12270,"ĠWiderstand":12271,"ĠCreme":12272,"ĠJog":12273,"ĠBestell":12274,"Ġmarkt":12275,"schmuck":12276,"ĠCouchtisch":12277,"ĠPier":12278,"mbh":12279,"Ganz":12280,"magazin":12281,"Ġroom":12282,"Ġdavor":12283,"ĠMario":12284,"organisation":12285,"ĠPlug":12286,"ĠMaxim":12287,"varian":12288,"watch":12289,"Ġerkennt":12290,"schall":12291,"ways":12292,"Energie":12293,"Bereich":12294,"lied":12295,"Ġbetrieben":12296,"ĠVen":12297,"ISCH":12298,"weil":12299,"Kostenlose":12300,"tipps":12301,"ĠShops":12302,"ĠStad":12303,"ĠKonferenz":12304,"ĠGepa":12305,"ĠZutaten":12306,"Ġ1976":12307,"Mittel":12308,"Ama":12309,"solvenz":12310,"fungs":12311,"ĠJens":12312,"come":12313,"Ġtransport":12314,"ĠOx":12315,"ĠNachteile":12316,"ĠáĦ":12317,"Ġ:<":12318,"grenze":12319,"ĠSmartphones":12320,"details":12321,"ĠAsyl":12322,"messung":12323,"ftigung":12324,"storen":12325,"ĠKommunikations":12326,"ĠErfu":12327,"ĠKil":12328,"ARD":12329,"Script":12330,"Ġpoten":12331,"anzeige":12332,"Ġchron":12333,"ĠDrogen":12334,"Ġfroh":12335,"konferenz":12336,"Ġfirst":12337,"TEN":12338,"ĠEbenso":12339,"bibliothek":12340,"ĠIdentita":12341,"Ġcool":12342,"ĠGegenteil":12343,"ï¸ı":12344,"Ġhinweg":12345,"Informationen":12346,"ĠKnochen":12347,"ĠThr":12348,"Ġonly":12349,"ĠDritte":12350,"Ġwere":12351,"liday":12352,"cover":12353,"Ġnette":12354,"Ġaf":12355,"ĠOrten":12356,"ĠKinderzimmer":12357,"Ġ1974":12358,"ĠÐ¿":12359,"ĠObjekte":12360,"ĠLeg":12361,"ĠRudolf":12362,"ĠFotograf":12363,"ĠDieter":12364,"Komm":12365,"ĠKab":12366,"hmt":12367,"schaffung":12368,"nna":12369,"ĠKonseque":12370,"velop":12371,"lz":12372,"Ġinvestieren":12373,"ĠEX":12374,"ĠCel":12375,"ĠDark":12376,"Frage":12377,"ĠErsten":12378,"steck":12379,"heiratet":12380,"ME":12381,"studium":12382,"zieren":12383,"Ġgeblieben":12384,"kurse":12385,"nemark":12386,"ĠDarmstadt":12387,"betreuung":12388,"Ġvoran":12389,"ĠCli":12390,"Ġwon":12391,"ĠLeidenschaft":12392,"Ġungewo":12393,"Ġlokalen":12394,"ĠForscher":12395,"ĠSitzung":12396,"ĠVorsitzender":12397,"schungen":12398,"212":12399,"Ġrechte":12400,"ĠBochum":12401,"Ġged":12402,"ĠBefest":12403,"teilte":12404,"Ġregistrieren":12405,"ĠRoute":12406,"%,":12407,"ĠSauna":12408,"Ġuntersucht":12409,"cup":12410,"ĠGeschenke":12411,"Ġniedrig":12412,"ameister":12413,"geladen":12414,"nchner":12415,"ĠKlick":12416,"WM":12417,"Ġgreifen":12418,"Ġrat":12419,"icke":12420,"achs":12421,"rmen":12422,"vens":12423,"ĠHR":12424,"ckchen":12425,"life":12426,"ĠSucht":12427,"vorschlag":12428,"ĠElect":12429,"ĠBuchung":12430,"ome":12431,"ĠBerater":12432,"gast":12433,"Liefer":12434,"foto":12435,"ketten":12436,"ĠAussagen":12437,"ĠPink":12438,"Ġbelas":12439,"sz":12440,"gane":12441,"Ġletztlich":12442,"Gel":12443,"ĠIntelligen":12444,"ĠDuisburg":12445,"bring":12446,"ĠWars":12447,"attet":12448,"uzz":12449,"Ġexp":12450,"nehin":12451,"ĠWandel":12452,"KO":12453,"ĠRekord":12454,"Ġlegte":12455,"Job":12456,"atibel":12457,"Ġbetroffene":12458,"utin":12459,"Ġverle":12460,"schluÃŁ":12461,"Ġpositiven":12462,"Ġwichtigste":12463,"ĠBart":12464,"schte":12465,"burt":12466,"Ġzug":12467,"register":12468,"ĠArchitekten":12469,"ĠZir":12470,"ĠErwartungen":12471,"ndliche":12472,"ĠLautsprecher":12473,"tan":12474,"ĠApfel":12475,"Show":12476,"ĠKomplett":12477,"rfel":12478,"Gold":12479,"ĠFeuchtigkeit":12480,"ĠOrganisationen":12481,"zeugung":12482,"ĠLangen":12483,"iction":12484,"Ġdauern":12485,"folgung":12486,"Ġheran":12487,"ĠÃĹ":12488,"grenz":12489,"Ġordentlich":12490,"ĠFonds":12491,"tums":12492,"ĠTouren":12493,"ĠXbox":12494,"BM":12495,"insel":12496,"Ġ$('":12497,"rimin":12498,"Ġvermittelt":12499,"ĠRecher":12500,"bedienung":12501,"ĠBewerb":12502,"Ġ3000":12503,"schreiten":12504,"ĠNase":12505,"Ġrechtz":12506,"Michael":12507,"Cine":12508,"Ġhistorische":12509,"verlauf":12510,"Liste":12511,"Ġworld":12512,"ĠWorten":12513,"Vielleicht":12514,"sho":12515,"nerkennung":12516,"Ġermittelt":12517,"130":12518,"ĠMall":12519,"izon":12520,"ĠOste":12521,"ĠÐ²":12522,"Will":12523,"ĠBachelor":12524,"ĠJustiz":12525,"Main":12526,"ĠTool":12527,"ĠErsatzteile":12528,"unfa":12529,"hnachts":12530,"isco":12531,"verbindung":12532,"Ġgutscheine":12533,"Ġnotwendigen":12534,"Hi":12535,"Qualita":12536,"ĠEinsa":12537,"hier":12538,"Ġmachten":12539,"ĠSA":12540,"ĠAuftritt":12541,"Kategorien":12542,"Ġkind":12543,"ĠhieÃŁ":12544,"ĠHaftung":12545,"Ġstil":12546,"ichtlich":12547,"Ġ1969":12548,"personen":12549,"ransfer":12550,"eignet":12551,"ĠMannschaften":12552,"MT":12553,"arische":12554,"Ġbru":12555,"ĠStrick":12556,"Ġgreat":12557,"ĠErne":12558,"ĠSAP":12559,"player":12560,"){":12561,"treff":12562,"vertis":12563,"rae":12564,"Black":12565,"down":12566,"ĠSO":12567,"ĠEinstieg":12568,"ĠSchlo":12569,"ĠRauch":12570,"ĠSR":12571,"Ġschlu":12572,"conom":12573,"streifen":12574,"ĠApartment":12575,"ĠKids":12576,"ĠSab":12577,"schreibungen":12578,"landschaft":12579,"nack":12580,"ckzu":12581,"ĠDonau":12582,"ĠMarine":12583,"more":12584,"ĠWillen":12585,"ĠCounty":12586,"vertising":12587,"ĠOstsee":12588,"Ġmor":12589,"ffentlichte":12590,"ĠGleichzeitig":12591,"ĠUkraine":12592,"||":12593,"Ġbitten":12594,"ĠVerpflicht":12595,"Laut":12596,"ĠDos":12597,"Ġunange":12598,"Ġverlangt":12599,"ĠTreppen":12600,"stehende":12601,"ĠPartnersuche":12602,"orgungs":12603,"mir":12604,"GA":12605,"Ġgetrennt":12606,"sty":12607,"ĠWeber":12608,"ĠAustria":12609,"ingu":12610,"Ġreisen":12611,"wetten":12612,"versicher":12613,"ĠED":12614,"Beson":12615,"ĠAndrea":12616,"ĠLex":12617,"Wand":12618,"ĠHaltung":12619,"Air":12620,"ĠFavoriten":12621,"tretung":12622,"schalter":12623,"ĠBit":12624,"ĠReinigungs":12625,"Ġ1977":12626,"ĠHochzeits":12627,"Ġbritischen":12628,"ratzen":12629,"ĠgroÃŁzu":12630,"ĠTrocken":12631,"Ġlanger":12632,"ĠUrsachen":12633,"ĠWorkshop":12634,"Oder":12635,"ĠKurse":12636,"Ġteils":12637,"Ġimp":12638,"Holz":12639,"holfen":12640,"ĠForst":12641,"werbung":12642,"Zuru":12643,"dic":12644,"tsch":12645,"ĠPrei":12646,"ĠZwie":12647,"EP":12648,"Ġtheir":12649,"sterreichische":12650,"volles":12651,"Ġverursacht":12652,"Mal":12653,"zelt":12654,"Ġuse":12655,"ĠMonitor":12656,"rsey":12657,"Bil":12658,"Ġehren":12659,"brief":12660,"ĠMeeres":12661,"bergang":12662,"rzburg":12663,"ĠNaturschutz":12664,"ĠHerzog":12665,"phy":12666,"Ġexter":12667,"Ġwell":12668,"berrascht":12669,"Mart":12670,"Sho":12671,"dagogik":12672,"feste":12673,"oka":12674,"Kategorie":12675,"ĠBlogs":12676,"Station":12677,"Ġempfiehlt":12678,"noch":12679,"ĠHom":12680,"findet":12681,"fahrzeuge":12682,"ĠRefe":12683,"mix":12684,"lichkeiten":12685,"ĠAuseinander":12686,"Ġleiden":12687,"lde":12688,"Ġreduzieren":12689,"gebrau":12690,"ĠScreen":12691,"perrt":12692,"ĠPrie":12693,"fiziert":12694,"Ġ105":12695,"schnitte":12696,"ĠMr":12697,"Ġsite":12698,"kno":12699,"ĠNeck":12700,"Ġhalte":12701,"Ġanfa":12702,"ĠChine":12703,"GEL":12704,"Gener":12705,"ĠKetten":12706,"mage":12707,"ildet":12708,"ĠWarm":12709,"nigin":12710,"ĠLouis":12711,"ĠKapu":12712,"Ġzula":12713,"ĠTrends":12714,"API":12715,"kamp":12716,"ĠBA":12717,"ĠPlayer":12718,"kateg":12719,"ĠFrisch":12720,"Aktuelle":12721,"Ġdeposit":12722,"Mark":12723,"ĠNeum":12724,"Ġbesonderes":12725,"ĠHallen":12726,"Ġpr":12727,"Ġkeinem":12728,"ĠUniversal":12729,"?!":12730,"Ġleer":12731,"rypto":12732,"ronic":12733,"ĠKatalog":12734,"ĠDemo":12735,"ĠUntersuchungen":12736,"ĠSD":12737,"festyle":12738,"video":12739,"zucker":12740,"MER":12741,"yout":12742,"eb":12743,"ango":12744,"lner":12745,"Ġbelegt":12746,"Rund":12747,"Ġtiefe":12748,"Baby":12749,"bahnen":12750,"ĠReaktion":12751,"ĠFrie":12752,"dose":12753,"stage":12754,"ĠInternationale":12755,"ĠKonflikt":12756,"ression":12757,"Ġevtl":12758,"Ġgewe":12759,"ĠSituationen":12760,"hofs":12761,"head":12762,"ungsverfahren":12763,"gh":12764,"Ġechtes":12765,"IZ":12766,"ausschuss":12767,"sparent":12768,"ĠPraktik":12769,"Schutz":12770,"Ġdokument":12771,"ĠButton":12772,"Cre":12773,"Ļ¥":12774,"Ġstop":12775,"ischo":12776,"Ġreinigen":12777,"chlichen":12778,"dungs":12779,"):<":12780,".;":12781,"ĠFotografie":12782,"ĠExemp":12783,"ĠSanita":12784,"gesellschaften":12785,"Ġaltern":12786,"Ġjahr":12787,"derungen":12788,"weitern":12789,"Finanz":12790,"ĠDirektor":12791,"Ðĵ":12792,"ndlichen":12793,"ĠAuswa":12794,"mith":12795,"Ġdamaligen":12796,"Mod":12797,"ĠBernhard":12798,"Ġnachvoll":12799,"heiz":12800,"ĠRegistrierung":12801,"sentwicklung":12802,"lattformen":12803,"ĠSendung":12804,"Ġkontinuier":12805,"Ġgibts":12806,"Ġ119":12807,"ĠBang":12808,"Ġchat":12809,"orca":12810,"ĠProblemen":12811,"!!<":12812,"giene":12813,"Ġstimmen":12814,"ĠLuxe":12815,"ĠVordergrund":12816,"ĠPrakti":12817,"dwest":12818,"ĠReisenden":12819,"ĠAth":12820,"Produkte":12821,"Andere":12822,"ĠDeinen":12823,"ardo":12824,"exe":12825,"ĠErweiterung":12826,"Ġrenov":12827,"ĠTrage":12828,"kehren":12829,"wall":12830,"ĠNahrung":12831,"Ġeinzahlung":12832,"Ġwork":12833,"ĠMis":12834,"ĠMore":12835,"ĠPferd":12836,"Ġ1973":12837,"Dienst":12838,"ĠAbreise":12839,"ĠAGB":12840,"braun":12841,"rations":12842,"nale":12843,"stiegs":12844,"ori":12845,"ĠSumme":12846,"Ġfli":12847,"Ġerheblich":12848,"ĠWater":12849,"ĠSant":12850,"gleiche":12851,"ĠSchach":12852,"ĠControl":12853,"riter":12854,"Doppel":12855,"ĠNavigation":12856,"Ġvorgenommen":12857,"Form":12858,"omen":12859,"Ġglas":12860,"bergen":12861,"ĠAktuell":12862,"Ġhigh":12863,"hem":12864,"eich":12865,"roe":12866,"Eingestellt":12867,"keln":12868,"ĠDesigns":12869,"Ġpic":12870,"Themen":12871,"act":12872,"ĠNamens":12873,"Type":12874,"ĠKenntnis":12875,"kett":12876,"ĠPfe":12877,"Ġschlafen":12878,"Einen":12879,"ziner":12880,"deko":12881,"Sim":12882,"spitze":12883,"vertreten":12884,"zieher":12885,"ĠErstellung":12886,"ĠUV":12887,"Ġkostenfrei":12888,"ĠTouristen":12889,"ktrum":12890,"ĠSum":12891,"Ġheutige":12892,"Ach":12893,"lly":12894,"ĠPrag":12895,"Ġausser":12896,"Ġirgendwel":12897,"Ġbege":12898,"ĠschlieÃŁt":12899,"ĠVerpackung":12900,"ĠDokumentation":12901,"ĠOpel":12902,"ĠLampen":12903,"seen":12904,"ĠPl":12905,"ĠAfD":12906,"indungs":12907,"iegen":12908,"gain":12909,"Ġgenerell":12910,"ĠInstrument":12911,"zielle":12912,"ĠJoachim":12913,"Ins":12914,"ĠTurm":12915,"ĠBerge":12916,"Ġohnehin":12917,"ĠFreispiele":12918,"sw":12919,"ĠKoordin":12920,"ideos":12921,"willigung":12922,"iskussionen":12923,"bchen":12924,"ĠHeck":12925,"duld":12926,"HN":12927,"Ġdeutschsprach":12928,"Ġnull":12929,"ĠKie":12930,"ĠZustimmung":12931,"bestand":12932,"Dabei":12933,"GG":12934,"Ġreagieren":12935,"utage":12936,"ĠMuss":12937,"Ġaussieht":12938,"tur":12939,"ĠLinux":12940,"Ġ1971":12941,"Bre":12942,"ĠVictor":12943,"ĠInten":12944,"ĠDeiner":12945,"ĠHut":12946,"ĠElement":12947,"Ġtheore":12948,"Ġrote":12949,"ĠObject":12950,"Aller":12951,"Lauf":12952,"ulierung":12953,"UK":12954,"antes":12955,"rite":12956,"ĠEinzelhandel":12957,"ĠOperation":12958,"gypten":12959,"uscht":12960,"ĠFabrik":12961,"Ġfeststellen":12962,"ĠDiesen":12963,"wachsene":12964,"autiful":12965,"ira":12966,"Ġgelb":12967,"ĠEnglish":12968,"latten":12969,"ĠBogen":12970,"has":12971,"Ġverbreitet":12972,"unch":12973,"ĠSpieltag":12974,"Ġgeschickt":12975,"ĠHandlung":12976,"fix":12977,"Ġ450":12978,"Gesamt":12979,"ĠTast":12980,"marke":12981,"Ġbetrachten":12982,"ĠGeschirr":12983,"Ġzeichnet":12984,"Sommer":12985,"ĠZauber":12986,"minar":12987,"ĠAV":12988,"Ġetabl":12989,"ĠHelmut":12990,"pet":12991,"ĠMul":12992,"ĠEich":12993,"Ġmotor":12994,"strahlung":12995,"ĠVeranstaltungs":12996,"Ġauthen":12997,"geschlagen":12998,"Ġweitgehend":12999,"ĠContent":13000,"ĠCoup":13001,"brid":13002,"Ġjemanden":13003,"ulator":13004,"ĠKosmetik":13005,"ikro":13006,"Ġangeb":13007,"Hy":13008,"Ġersetzen":13009,"utzutage":13010,"ĠMagnet":13011,"onisten":13012,"Ġentscheidet":13013,"Ġarbeits":13014,"ĠHalter":13015,"utor":13016,"Ġbefest":13017,"geno":13018,"Ġkop":13019,"ĠLandschafts":13020,"hyd":13021,"ĠStimm":13022,"Ñĩ":13023,"ĠEisenbahn":13024,"Ġsort":13025,"ĠSelber":13026,"ĠBass":13027,"ĠGir":13028,"look":13029,"kenntnisse":13030,"ĠDrittel":13031,"arium":13032,"iana":13033,"Ġstart":13034,"ĠDokumente":13035,"ĠSymbole":13036,"ĠAnwesen":13037,"Ġ]":13038,"itale":13039,"ĠRiver":13040,"ĠBerichte":13041,"ĠBeauty":13042,"reffen":13043,"law":13044,"standes":13045,"Ġvierten":13046,"Mir":13047,"TF":13048,"wertes":13049,"bsau":13050,"ĠParlament":13051,"artigen":13052,"autor":13053,"Jahr":13054,"ĠElisabeth":13055,"Ġpoker":13056,"ĠGewerk":13057,"ĠSpazier":13058,"ĠPoliz":13059,"ĠNormal":13060,"well":13061,"Plan":13062,"ĠAufstieg":13063,"ĠPension":13064,"risches":13065,"Herr":13066,"sorgung":13067,"ĠMechan":13068,"sofa":13069,"ĠMahl":13070,"ĠExistenz":13071,"loggen":13072,"iety":13073,"Institut":13074,"ĠGemeinsam":13075,"veranstaltung":13076,"Ġfotograf":13077,"UB":13078,"ĠPullover":13079,"indliche":13080,"AZ":13081,"ĠSanta":13082,"einrichtung":13083,"ĠDistri":13084,"bed":13085,"bearbeitung":13086,"Ġentspannen":13087,"Ġmilita":13088,"Publi":13089,"ĠVorschla":13090,"ĠModul":13091,"sphase":13092,"histor":13093,"ĠAusru":13094,"ĠStrau":13095,"ĠKrimin":13096,"Ġ(\"":13097,"ador":13098,"kay":13099,"hai":13100,"uls":13101,"Ġlangwei":13102,"Bank":13103,"IEN":13104,"ingo":13105,"Ġler":13106,"ĠArzneimit":13107,"Ġeinzigartige":13108,"gerecht":13109,"140":13110,"ĠRy":13111,"ĠZweit":13112,"habe":13113,"ĠEC":13114,"TML":13115,"Essen":13116,"urteilung":13117,"ĠAufkla":13118,"Ġabwechslungs":13119,"stati":13120,"ĠDiet":13121,"Hat":13122,"Ġevange":13123,"ĠGroÃŁhandel":13124,"ĠTechnische":13125,"ĠGlobal":13126,"codes":13127,"schnitts":13128,"ĠBarbara":13129,"Ġ112":13130,"Ġ1933":13131,"ĠGastronomie":13132,"rink":13133,"Ġwerfen":13134,"ĠUrheber":13135,"otball":13136,"Ġkunst":13137,"Ġhouse":13138,"einrichtungen":13139,"Ġreligio":13140,"ĠChic":13141,"Ġ750":13142,"ĠanschlieÃŁen":13143,"223":13144,"derte":13145,"ĠSnow":13146,"rentwicklung":13147,"brett":13148,"ĠTrek":13149,"hare":13150,"Ġâľĵ":13151,"sender":13152,"ĠUnabha":13153,"Ġvorhandenen":13154,"ture":13155,"Ġfehler":13156,"ĠVorstellungen":13157,"ĠHosen":13158,"Ġwest":13159,"mento":13160,"rner":13161,"Alt":13162,"gewa":13163,"mern":13164,"ĠMarie":13165,"ĠIdeal":13166,"ĠHomo":13167,"ĠSpielern":13168,"ĠConsult":13169,"Ġgesammelt":13170,"ĠMIT":13171,"220":13172,"Eis":13173,"ĠDeck":13174,"ĠLandhaus":13175,"ĠMeta":13176,"ĠWit":13177,"ĠkWh":13178,"ĠMinder":13179,"Ġbaby":13180,"ĠBauer":13181,"Ġhere":13182,"ĠBettwa":13183,"gesetzes":13184,"Ġ170":13185,"ĠDB":13186,"ASINO":13187,"einheit":13188,"ĠBestimmungen":13189,"Â¶":13190,"Class":13191,"ĠAhnung":13192,"Ġvorhe":13193,"ĠPsychologie":13194,"Ġmenschen":13195,"ĠOS":13196,"ĠVegas":13197,"Nu":13198,"zis":13199,"reform":13200,"ategor":13201,"Taschen":13202,"itas":13203,"ĠSpon":13204,"ĠFrist":13205,"schine":13206,"ordnen":13207,"laut":13208,"ĠAmsterdam":13209,"protected":13210,"sagt":13211,"Ġwartet":13212,"Ġkompeten":13213,"Ġpur":13214,"Ġeffektiv":13215,"ansicht":13216,"104":13217,"ĠSeries":13218,"ĠSteuerung":13219,"intendo":13220,"ĠTechnologien":13221,"higer":13222,"aufgaben":13223,"atterien":13224,"Ġaktivieren":13225,"ĠKapazita":13226,"ĠWebsites":13227,"Ġschlechter":13228,"ĠBeschwerden":13229,"ĠRasen":13230,"ĠGestalt":13231,"ĠAufbewahr":13232,"ĠGeburts":13233,"USA":13234,"Ġdeaktiviert":13235,"Ġschul":13236,"ĠOK":13237,"ĠSpecial":13238,"Ġtraditionellen":13239,"Ġrobus":13240,"ĠBike":13241,"ĠRabatte":13242,"Ġdrehen":13243,"ĠKrei":13244,"Ġsorgfa":13245,"ĠStrukturen":13246,"Ġmobilen":13247,"ady":13248,"Ġangeblich":13249,"ĠBO":13250,"zettel":13251,"kate":13252,"ĠBoard":13253,"ĠSMS":13254,"Ġevery":13255,"ATION":13256,"ĠInseln":13257,"ĠVar":13258,"ĠBlitz":13259,"prozess":13260,"Ġumwelt":13261,"Ġstati":13262,"ĠKnow":13263,"ĠUngarn":13264,"beleuchtung":13265,"ĠArbeitsplatz":13266,"freundlich":13267,"ĠRegelung":13268,"mont":13269,"Ġweisen":13270,"Ġerkenn":13271,"ĠErwa":13272,"vailable":13273,"ĠAusgaben":13274,"tifikat":13275,"National":13276,"stone":13277,"mond":13278,"Ġretten":13279,"ĠPatient":13280,"ĠWesen":13281,"tigungen":13282,"Ġverscho":13283,"Deutsche":13284,"ĠBielefeld":13285,"ĠVorfeld":13286,"ĠMeyer":13287,"ĠJede":13288,"regeln":13289,"messungen":13290,"Ġ240":13291,"Ġwho":13292,"gentlich":13293,"ĠReview":13294,"ungsbedingungen":13295,"Akt":13296,"ĠGrundsa":13297,"Ġrosa":13298,"gate":13299,"Ġgefertigt":13300,"ĠHalte":13301,"Ġstieg":13302,"ISS":13303,"modelle":13304,"jan":13305,"otheken":13306,"cksichtigen":13307,"ĠHelfer":13308,"ĠEnginee":13309,"ĠWestern":13310,"ĠMitgliedern":13311,"Freitag":13312,"jekten":13313,"Ì¨":13314,"ĠFDP":13315,"ERN":13316,"unfall":13317,"ĠVorschriften":13318,"ĠKleinanzeigen":13319,"haltenen":13320,"union":13321,"áħ®":13322,"dal":13323,"ĠEntwicklungen":13324,"schneiden":13325,"Herz":13326,"Att":13327,"Hinter":13328,"ĠGefahren":13329,"haven":13330,"ĠEIN":13331,"ĠEmpfa":13332,"Ġhaut":13333,"fotos":13334,"melde":13335,"ĠMade":13336,"ĠFrankfurter":13337,"sames":13338,"Ġgr":13339,"Ġ1967":13340,"ĠBilanz":13341,"Ġnamens":13342,"Ġkurzem":13343,"\"]=>":13344,"Ġunder":13345,"kontrolle":13346,"aktive":13347,"ĠBibliothek":13348,"ĠHinsicht":13349,"ĠEdu":13350,"nutzung":13351,"ĠBrie":13352,"rechten":13353,"Rot":13354,"chem":13355,"Joh":13356,"ĠOhren":13357,"meier":13358,"ĠGun":13359,"treme":13360,"ĠKoalition":13361,"Ġexistieren":13362,"Ġmechan":13363,"Ġangelegt":13364,"ĠWashington":13365,"Ġwit":13366,"ufel":13367,"Ġverboten":13368,"ĠErho":13369,"ĠKun":13370,"ĠTelekom":13371,"wear":13372,"ĠHandwerk":13373,"stop":13374,"ĠAW":13375,"klam":13376,"Vorheriger":13377,"Ġschneiden":13378,"ĠFace":13379,"rechtlichen":13380,"Ġsonstige":13381,"ĠAngel":13382,"ĠKamin":13383,"ĠSpiels":13384,"ufige":13385,"ngerin":13386,"Ġ(âĢł":13387,"zunehmen":13388,"Ġfordern":13389,"ĠFassa":13390,"gehalt":13391,"Ġverlangen":13392,"ĠProjekten":13393,"hart":13394,"ĠMeinungen":13395,"Ġschaut":13396,"ywood":13397,"Ġbot":13398,"Ġschlicht":13399,"Ġabends":13400,"ichts":13401,"\"/><":13402,"ssion":13403,"Ġeu":13404,"ĠGegensta":13405,"gigen":13406,"ĠLeuten":13407,"beitrag":13408,"ĠFlasche":13409,"ĠAirport":13410,"Ġmorgens":13411,"spuren":13412,"mpfehlen":13413,"anzig":13414,"Play":13415,"fabrik":13416,"irs":13417,"Ġbeeinflussen":13418,"ĠPotsdam":13419,"Neues":13420,"nacht":13421,"ĠNachhaltigkeit":13422,"à¤":13423,"fangs":13424,"ĠBibel":13425,"chliche":13426,"ĠErfolge":13427,"hahn":13428,"nabru":13429,"ĠLieferanten":13430,"Mer":13431,"ĠMengen":13432,"ĠKrankheiten":13433,"zeichneten":13434,"180":13435,"bol":13436,"pal":13437,"information":13438,"Ġeigensta":13439,"verku":13440,"ĠKlage":13441,"kino":13442,"Ġverfolgt":13443,"ĠMord":13444,"ghan":13445,"ĠEqu":13446,"ĠKasse":13447,"sprachen":13448,"Ġoffizielle":13449,"Â·":13450,"dafrika":13451,"Copyright":13452,"Ġlen":13453,"Ġzufa":13454,"Ġanfangen":13455,"ĠMol":13456,"ography":13457,"odie":13458,"ĠSchuppen":13459,"ĠðŁĻĤ<":13460,"Ġ128":13461,"Ġ116":13462,"Ġpart":13463,"hmte":13464,"Net":13465,"turn":13466,"chtlings":13467,"gerufen":13468,"cksichtigung":13469,"ĠVoraussetzung":13470,"Ġerzielt":13471,"dliche":13472,"ĠMarien":13473,"ambling":13474,"ĠFood":13475,"ĠEva":13476,"Ġ:-)<":13477,")\"":13478,"rdlich":13479,"ĠJulia":13480,"fot":13481,"ĠHalloween":13482,"ĠWeiteren":13483,"Gegen":13484,"Ġprogramm":13485,"ĠCollection":13486,"Ġsw":13487,"Ġunmo":13488,"ĠSchatz":13489,"alistischen":13490,"denz":13491,"Ġbetrieb":13492,"ĠBundesrepublik":13493,"ĠTools":13494,"ĠSpeise":13495,"vil":13496,"blenden":13497,"ĠVermieter":13498,"cture":13499,"tv":13500,"ĠZoo":13501,"ckers":13502,"ĠEreignisse":13503,"Ġvielmehr":13504,"Press":13505,"ĠHierbei":13506,"Ġ:-)":13507,"tiven":13508,"ĠWolken":13509,"pera":13510,"Ġff":13511,"renen":13512,"Ġnachfolgen":13513,"Ġdiskutiert":13514,"Ġstruktur":13515,"merkt":13516,"ĠGatt":13517,"night":13518,"ĠJackpot":13519,"ĠMadrid":13520,"ĠBecken":13521,"ckseite":13522,"Ġgeraten":13523,"Ġeinrichten":13524,"ĠMecklenburg":13525,"Ġerzeugt":13526,"ĠFinn":13527,"Ġ1930":13528,"Ġglaubt":13529,"UND":13530,"ĠShopping":13531,"Open":13532,"ĠDame":13533,"hern":13534,"BD":13535,"ĠUnterlagen":13536,"ques":13537,"Ġ||":13538,"ĠWesent":13539,"Ġbesuchte":13540,"!\"":13541,"Ġnahmen":13542,"HT":13543,"dding":13544,"ĠFI":13545,"ĠDS":13546,"dan":13547,"Ġarbeit":13548,"reitung":13549,"Heim":13550,"ĠStiefeletten":13551,"ĠZelt":13552,"ĠVerbindungen":13553,"Ġbel":13554,"quis":13555,"Rein":13556,"ĠBalance":13557,"vester":13558,"ĠPfarrer":13559,"ĠBasketball":13560,"Glu":13561,"ĠLippen":13562,"Smart":13563,"ĠTSV":13564,"ĠLaufzeit":13565,"ĠDiagnose":13566,"ĠDing":13567,"direktor":13568,"ĠHandlungs":13569,"lechter":13570,"okia":13571,"blut":13572,"andra":13573,"ĠBreit":13574,"isierten":13575,"Kauf":13576,"ĠHop":13577,"ĠIsol":13578,"seg":13579,"108":13580,"Ġdigital":13581,"ĠAktie":13582,"modus":13583,"bezu":13584,"Ġberechnet":13585,"ĠErkrankungen":13586,"ERS":13587,"Schw":13588,"Anti":13589,"fisch":13590,"blicke":13591,"ĠTempel":13592,"ĠFinanzen":13593,"ĠFlorian":13594,"ĠHee":13595,"volumen":13596,"ĠAusgleich":13597,"Ġerstaun":13598,"ilian":13599,"Key":13600,"bewegung":13601,"ĠMassiv":13602,"herren":13603,"ffnete":13604,"MC":13605,"rigkeit":13606,"hell":13607,"ĠLiebling":13608,"Sonntag":13609,"ĠKeramik":13610,"ĠPage":13611,"Ġreagiert":13612,"loud":13613,"Ġgeste":13614,"Ġbetont":13615,"spot":13616,"irurgie":13617,"Ġlaufenden":13618,"cept":13619,"Trotz":13620,"Ġperfekten":13621,"Ġbeherr":13622,"ĠFische":13623,"ĠAsien":13624,"change":13625,"ĠLady":13626,"schieben":13627,"ĠDog":13628,"leicht":13629,"ĠStaub":13630,"ĠAK":13631,"ĠBlackjack":13632,"ĠStars":13633,"ĠAsso":13634,"Ġstay":13635,"NC":13636,"Ġtraf":13637,"ĠBr":13638,"screen":13639,"Zahl":13640,"lieferung":13641,"ĠRegensburg":13642,"ĠPrivate":13643,"ĠStrategien":13644,"lisse":13645,"ĠCharles":13646,"kali":13647,"Ġstelle":13648,"Ġerfasst":13649,"ĠBeck":13650,"Ġausgesprochen":13651,"Ġangemesse":13652,"produkt":13653,"klang":13654,"ĠChampions":13655,"perience":13656,"ĠTravel":13657,"Ġ111":13658,"One":13659,"ĠTicket":13660,"ieber":13661,"woll":13662,"ÐµÐ½":13663,"arbeitungs":13664,"Ġhundert":13665,"oko":13666,"fein":13667,"Ġerweitern":13668,"ĠBundesland":13669,"bergreifen":13670,"ĠDecke":13671,"Jeder":13672,"tr":13673,"gnose":13674,"farbig":13675,"ĠSwiss":13676,"ĠAutorin":13677,"Ġscheinen":13678,"onia":13679,"Immobilien":13680,"hilfen":13681,"Fotos":13682,"sprozesse":13683,"rine":13684,"ĠMagdeburg":13685,"ĠKO":13686,"Ġelf":13687,"ĠRegisseur":13688,"ftes":13689,"LP":13690,"ĠSko":13691,"Ġeinheit":13692,"ĠPfa":13693,"Klein":13694,"anner":13695,"Ġgeto":13696,"dh":13697,"ugo":13698,"ckende":13699,"ĠImage":13700,"ĠManfred":13701,"Ġgeboten":13702,"ĠCome":13703,"Ġtat":13704,"cin":13705,"stunde":13706,"lohn":13707,"Ġtrag":13708,"lehnt":13709,"ialis":13710,"Ġgekenn":13711,"ppertal":13712,"icherer":13713,"ĠBremer":13714,"Ġinhalt":13715,"ĠAnliegen":13716,"ND":13717,"utel":13718,"Ġfeiert":13719,"vider":13720,"friedenheit":13721,"Verha":13722,"medien":13723,"ĠBotschaft":13724,"Ġille":13725,"ieller":13726,"atien":13727,"ĠMehrwert":13728,"klinik":13729,"ctory":13730,"ĠGood":13731,"ĠKurt":13732,"Ġaktiviert":13733,"verkehrs":13734,"Ġsterben":13735,"Ġdaraufhin":13736,"ĠImmobilie":13737,"Moder":13738,"tifizierung":13739,"riebenen":13740,"riend":13741,"Ġhad":13742,"Zug":13743,"bertrag":13744,"ÑĢÐ°":13745,"ĠStufen":13746,"Ġdauerhaft":13747,"attan":13748,"ĠAdapter":13749,"ĠMathematik":13750,"QL":13751,"ĠSale":13752,"ĠMoskau":13753,"Center":13754,"ĠKron":13755,"nstigsten":13756,"010":13757,"setzer":13758,"mmert":13759,"Ġjo":13760,"ĠSite":13761,"ĠStabilita":13762,"ĠAbwehr":13763,"ĠIng":13764,"dient":13765,"berweisung":13766,"KL":13767,"},{\"":13768,"schiedene":13769,"fault":13770,"Wohnung":13771,"ĠPortugal":13772,"fox":13773,"falle":13774,"ĠAmp":13775,"Ġ1964":13776,"begriff":13777,"Ġerzeugen":13778,"ĠWE":13779,"bingen":13780,"ĠKenntnisse":13781,"TP":13782,"Benz":13783,"Ġnationalen":13784,"ĠSchra":13785,"Ġled":13786,"hrleistet":13787,"bezug":13788,"zentrale":13789,"ĠBeobachter":13790,"font":13791,"Ġfinanziellen":13792,"Ġ1965":13793,"Ġfalsche":13794,"ĠEntspannung":13795,"Mess":13796,"rath":13797,"ĠHorst":13798,"mberg":13799,"Seiten":13800,"ĠAnleger":13801,"xel":13802,"NO":13803,"Ġempfangen":13804,"berw":13805,"Tor":13806,"uÃŁen":13807,"probe":13808,"ĠRegal":13809,"berraschung":13810,"ĠBW":13811,"Update":13812,"');":13813,"ĠRostock":13814,"lete":13815,"Ġwinter":13816,"ĠWalzen":13817,"fc":13818,"reo":13819,"schieht":13820,"bronn":13821,"ĠSessel":13822,"alerie":13823,"Ġgezielt":13824,"damerika":13825,"haar":13826,"ĠHelm":13827,"Ġfuhr":13828,"Ġfragt":13829,"Garantie":13830,"paar":13831,"landes":13832,"ĠKreditkarte":13833,"ĠStick":13834,"ĠTruppen":13835,"Montag":13836,"ĠAufnahmen":13837,"ĠWith":13838,"Ġblock":13839,"igan":13840,"Ġunza":13841,"ĠAuskunft":13842,"ĠRiesen":13843,"109":13844,"ĠKette":13845,"Ġfestgelegt":13846,"ACH":13847,"igare":13848,"Ġerfa":13849,"Ġvertra":13850,"Ġliest":13851,"ausstellung":13852,"Ġschm":13853,"mung":13854,"ĠPatrick":13855,"creme":13856,"Ġperma":13857,"onelle":13858,"Technik":13859,"nzung":13860,"ĠâĪ":13861,"Schule":13862,"Ġig":13863,"ndlern":13864,"ĠDarauf":13865,"meisterschaften":13866,"pommern":13867,"Ġsach":13868,"Ġ1966":13869,"Paket":13870,"Opti":13871,"Ġbeitragen":13872,"Ġhref":13873,"ĠFirst":13874,"103":13875,"Ġgewohnt":13876,"ĠSchen":13877,"ĠAuftrags":13878,"Ġverru":13879,"Ġrad":13880,"ĠApotheke":13881,"likationen":13882,"versand":13883,"ĠMobilita":13884,"ĠSpeisen":13885,"ĠDusch":13886,"dter":13887,"ĠBol":13888,"Ġmenschlichen":13889,"Ġklappt":13890,"ĠAccount":13891,"ĠInsolvenz":13892,"verbot":13893,"ÏĦ":13894,"ĠEuropean":13895,"AuÃŁerdem":13896,"komme":13897,"rechner":13898,"eland":13899,"methode":13900,"ĠWettbewerbs":13901,"Ġhinterlassen":13902,"Computer":13903,"ĠNar":13904,"ĠInsbesondere":13905,"Sonnen":13906,"Ġtext":13907,"machung":13908,"pil":13909,"Ġhohem":13910,"anleitung":13911,"ĠPapst":13912,"atta":13913,"Ġvorliegen":13914,"Ġquer":13915,"berfla":13916,"Ġdist":13917,"Ġdiesja":13918,"dr":13919,"ĠUmbau":13920,"ctive":13921,"ĠKalk":13922,"ĠFL":13923,"sprodu":13924,"ĠNachbarn":13925,"Ġ1939":13926,"Ah":13927,"CHF":13928,"eiert":13929,"Ġname":13930,"ĠHas":13931,"ĠVorstands":13932,"ĠDeal":13933,"ĠPerspektive":13934,"ĠPodcast":13935,"hals":13936,"Ġwild":13937,"ĠAufsichts":13938,"ĠSafe":13939,"psy":13940,"Ġzentralen":13941,"otter":13942,"ĠToten":13943,"Ġ1200":13944,"ĠDeinem":13945,"Ġenorm":13946,"durchschnitt":13947,"Berg":13948,"ierst":13949,"456":13950,"Ġgegebenen":13951,"ĠBedien":13952,"tine":13953,"ĠCall":13954,"Ġest":13955,"ymbo":13956,"ĠAnerkennung":13957,"GER":13958,"Ange":13959,"ĠChris":13960,"ĠGummi":13961,"Ġbedienen":13962,"teidiger":13963,"riends":13964,"arife":13965,"weisungen":13966,"Ġenor":13967,"ĠVision":13968,"server":13969,"ĠBeteiligung":13970,"ĠFeatures":13971,"wertige":13972,"Ġorgan":13973,"ĠAst":13974,"Ġinformation":13975,"MO":13976,"ĠBeamten":13977,"bell":13978,"Event":13979,"Ġverlor":13980,"ypen":13981,"ĠPad":13982,"BI":13983,"ĠNeustadt":13984,"Ġkochen":13985,"ĠSchall":13986,"Ġsource":13987,"Ġgalt":13988,"ĠAnsonsten":13989,"passung":13990,"ĠAgen":13991,"weich":13992,"Wil":13993,"hee":13994,"Plus":13995,"Sal":13996,"ĠNiederlage":13997,"Ìĩ":13998,")-":13999,"Ġ135":14000,"ĠWagner":14001,"fizierung":14002,"ĠMuseums":14003,"odor":14004,"Ġerhoben":14005,"hmten":14006,"Ġschloss":14007,"lickt":14008,"Ġneuem":14009,"ĠRA":14010,"rup":14011,"reckt":14012,"hotels":14013,"ingt":14014,"wirkt":14015,"ĠListen":14016,"ĠFelix":14017,"lder":14018,"Ġbeschreiben":14019,"ĠAle":14020,"Ġref":14021,"ĠBrig":14022,"Ġflexibel":14023,"uri":14024,"ĠUmfrage":14025,"Ġgeplanten":14026,"Fernseh":14027,"Ġgemeint":14028,"gets":14029,"boy":14030,"ĠGymnasium":14031,"ĠLake":14032,"Ġkorrekt":14033,"ĠPasswort":14034,"Passt":14035,"ĠAussehen":14036,"mburg":14037,"istisch":14038,"Hein":14039,"Â©":14040,"Ġbrauchst":14041,"ĠInhaber":14042,"Îµ":14043,">Â§":14044,"ĠSqu":14045,"books":14046,"Viel":14047,"ĠBrut":14048,"ĠOutfit":14049,"ĠDress":14050,"semble":14051,"Immer":14052,"asing":14053,"ĠBeige":14054,"ĠRoss":14055,"chancen":14056,"ĠIngenieur":14057,"ĠNi":14058,"usche":14059,"ĠIndex":14060,"Oh":14061,"ĠNeur":14062,"ĠFassung":14063,"fikationen":14064,"ĠEye":14065,"ĠQualifikation":14066,"ĠStoffe":14067,"nisch":14068,"imo":14069,"Ġenglischen":14070,"real":14071,"wahlen":14072,"ĠWiderrufs":14073,"Fun":14074,"ĠSaal":14075,"Ġrechtzeitig":14076,"Ġgeschieht":14077,"ĠGebrauchs":14078,"fahrts":14079,"Mat":14080,"ĠParkpla":14081,"116":14082,"ĠEg":14083,"Nachrichten":14084,"FS":14085,"sium":14086,"Ġinnovative":14087,"ĠTrailer":14088,"Ġblue":14089,"Ġbestehende":14090,"ĠTam":14091,"ĠPremier":14092,"Ġintensive":14093,"Ġ252":14094,"Druck":14095,"orben":14096,"ĠBelgien":14097,"ĠPfeffer":14098,"ĠAbendessen":14099,"Ġ1500":14100,"Internation":14101,"yna":14102,"ĠNico":14103,"schwer":14104,"beeren":14105,"Ġbeliebten":14106,"led":14107,"beru":14108,"ĠIllust":14109,"Ġangesichts":14110,"ĠTonnen":14111,"ult":14112,"ĠMessen":14113,"ĠFantasy":14114,"Ġverfolgen":14115,"Ġeingetragen":14116,"rial":14117,"ĠImmun":14118,"Ġjetz":14119,"schus":14120,"ĠBestandsk":14121,"Ġaufgestellt":14122,"ĠOrtsteil":14123,"Ġbreiten":14124,"ĠReform":14125,"utern":14126,"ĠAusla":14127,"Ġabgeben":14128,"pag":14129,"ace":14130,"krieg":14131,"reas":14132,"Ġtemp":14133,"Ġgeg":14134,"ĠDat":14135,"ĠMittelalter":14136,"Rechtsanwalt":14137,"Ġjener":14138,"Ð¿":14139,"HC":14140,"ĠInns":14141,"seitige":14142,"Ġrussischen":14143,"temberau":14144,"Ġ1938":14145,"ĠLokal":14146,"Ġama":14147,"Ġworauf":14148,"ĠEch":14149,"DVD":14150,"vec":14151,"Ġanzuzeigen":14152,"Ġdor":14153,"ĠSweat":14154,"Ġschlechten":14155,"ĠEber":14156,"Har":14157,"102":14158,"eien":14159,"bike":14160,"Stre":14161,"Ġbadezimmer":14162,"ĠMonte":14163,"Ġtor":14164,"Ġschmerz":14165,"Ġtru":14166,"PN":14167,"Ġrichten":14168,"verantwort":14169,"ĠMarco":14170,"wandt":14171,"Rat":14172,"berry":14173,"Microsoft":14174,"mutter":14175,"Ġune":14176,"ĠAnwendungs":14177,"ĠLassen":14178,"Ġeingeschra":14179,"ĠJaco":14180,"Ġherauszu":14181,"ÌĪ.":14182,"Kabel":14183,"Display":14184,"ĠSeil":14185,"ichern":14186,"Voll":14187,"ĠDeckel":14188,"Ġkonseque":14189,"bener":14190,"Nike":14191,"wider":14192,"Gesundheit":14193,"Ġbeha":14194,"verlust":14195,"ock":14196,"Ġniedrige":14197,"ĠKohle":14198,"ĠLaw":14199,"Ġlangfristig":14200,"Ġselbststa":14201,"ĠMotivation":14202,"wickelt":14203,"Ġfinanzielle":14204,"Ġtren":14205,"ĠConne":14206,"Ost":14207,"cean":14208,"wanderung":14209,"ĠSecurity":14210,"Win":14211,"ĠBetroffenen":14212,"ĠSneakers":14213,"alking":14214,"Server":14215,"self":14216,"merkungen":14217,"ĠXP":14218,"osh":14219,"siver":14220,"Ġgere":14221,"ĠSelbstbe":14222,"Stil":14223,"teiler":14224,"praxis":14225,"ĠIran":14226,"polster":14227,"Ġattraktive":14228,"Ġfesten":14229,"Ġunverb":14230,"funktionen":14231,"Ġleichten":14232,"ĠBruch":14233,"Ġverschw":14234,"ĠMO":14235,"Samstag":14236,"ĠCaro":14237,"chnam":14238,"ĠMexiko":14239,"Ġeinerseits":14240,"laubnis":14241,"Ġbetreiben":14242,"ĠSorge":14243,"ĠHandeln":14244,"ĠDown":14245,"ĠSyrien":14246,"Ġbeweg":14247,"Objekt":14248,"cco":14249,"ĠEure":14250,"Ġzertifiz":14251,"ĠSilikon":14252,"ĠlieÃŁen":14253,"Ġpraktischen":14254,"Ġerfordert":14255,"ssatz":14256,"ĠGehirn":14257,"Ġumso":14258,"Ġ118":14259,"besitzer":14260,"Ġbekommst":14261,"ĠPick":14262,"Ġbit":14263,"quellen":14264,"Ġweich":14265,"ĠGewu":14266,"ATE":14267,"Ġedit":14268,"NEU":14269,"ĠWende":14270,"belt":14271,"ĠEntwurf":14272,"lian":14273,"ĠThermo":14274,"Multi":14275,"Ġkunden":14276,"linen":14277,"bai":14278,"ĠKontext":14279,"Fran":14280,"Ġautomat":14281,"115":14282,"Ġten":14283,"Ð·":14284,"zessin":14285,"Amazon":14286,"ckner":14287,"did":14288,"ĠDual":14289,"Advertising":14290,"ĠZivil":14291,"ĠLounge":14292,"ĠTomaten":14293,"Ġlook":14294,"ĠFlat":14295,"ĠAutomobil":14296,"ĠBeat":14297,"ĠAmbiente":14298,"ĠFlur":14299,"Handel":14300,"ĠBosch":14301,"riebs":14302,"ĠJavaScript":14303,"izieren":14304,"grade":14305,"schenkt":14306,"Ġhis":14307,"ĠGuide":14308,"IND":14309,"casino":14310,"Ġliebsten":14311,"pression":14312,"ĠRent":14313,"Anhalt":14314,"pri":14315,"tta":14316,"loe":14317,"Ġsteigern":14318,"ĠMineral":14319,"Ġallzu":14320,"Ġgeringer":14321,"Ġeinver":14322,"ĠSchli":14323,"Ġdefiniert":14324,"ICE":14325,"ĠBroker":14326,"auff":14327,"upe":14328,"ocht":14329,"Ġopen":14330,"bezirk":14331,"wh":14332,"ĠJahrzehnten":14333,"Medien":14334,"Media":14335,"ĠJedes":14336,"reuth":14337,"Ġitalienischen":14338,"hosen":14339,"Luft":14340,"presse":14341,"vance":14342,"Prof":14343,"106":14344,"ĠRainer":14345,"Ġthey":14346,"ĠBB":14347,"Arbeit":14348,"genau":14349,"Nummer":14350,"ĠVio":14351,"ueller":14352,"Ġhar":14353,"ĠGPS":14354,"ktakula":14355,"vereins":14356,"gebuch":14357,"rpers":14358,"krebs":14359,"ĠVolumen":14360,"filme":14361,"Ġcol":14362,"ĠUe":14363,"Muse":14364,"Ġdurchge":14365,"Vi":14366,"Ġ1963":14367,"Cap":14368,"Ġversorgt":14369,"Ġ1940":14370,"Drei":14371,"Ġansprechen":14372,"Ġgesunde":14373,"ĠZeugen":14374,"fristige":14375,"Ġberichtete":14376,"Baden":14377,"ĠNied":14378,"Ġeingehen":14379,"kannten":14380,"Vergleich":14381,"Ġgeringen":14382,"Belie":14383,"ĠFlaschen":14384,"ĠBewusstsein":14385,"ĠAnfragen":14386,"ĠRena":14387,"zentren":14388,"Ġnachhaltig":14389,"litzer":14390,"tate":14391,"ĠKassen":14392,"hlon":14393,"ĠFeie":14394,"ĠVorhaben":14395,"Ġ;)<":14396,"Ġkonstru":14397,"ĠDSG":14398,"aba":14399,"Ġ1961":14400,"Ġ113":14401,"GS":14402,"FuÃŁballspieler":14403,"Ġgelassen":14404,"Familien":14405,"Ġunkompliziert":14406,"ĠReiter":14407,"FE":14408,"DB":14409,"Ġherren":14410,"ĠGerne":14411,"ĠKandidaten":14412,"schlieÃŁt":14413,"Ġdon":14414,"mos":14415,"petenzen":14416,"Ġdarstellt":14417,"Ġmake":14418,"chtnis":14419,"Kor":14420,"ĠStadion":14421,"ĠNichts":14422,"Ġep":14423,"FO":14424,"ĠTie":14425,"Ġumgehen":14426,"frauen":14427,"Ġversuche":14428,"Ġnegativ":14429,"Ġziel":14430,"ibilita":14431,"Et":14432,"idat":14433,"Bin":14434,"sist":14435,"reichung":14436,"Kein":14437,"hilosoph":14438,"chat":14439,"camp":14440,"nther":14441,"Fit":14442,"ĠYour":14443,"riffe":14444,"arning":14445,"Ġ1944":14446,"Verkehr":14447,"ĠStatistik":14448,"ĠMama":14449,"ĠBesser":14450,"training":14451,"Kind":14452,"ĠVerletzung":14453,"Club":14454,"ĠGeheimnis":14455,">/":14456,"ĠÑģ":14457,"ĠCasual":14458,"Hilfreich":14459,"apa":14460,"Wetter":14461,"ĠAlfred":14462,"Ġtier":14463,"ttet":14464,"oting":14465,"Zusammen":14466,"mangel":14467,"rey":14468,"paapi":14469,"ĠCollege":14470,"Ġanpassen":14471,"AdvertisingAPI":14472,"flow":14473,"ĠOpp":14474,"ĠKollektion":14475,"ĠSPIEL":14476,"ĠSankt":14477,"ĠBekleidung":14478,"ĠFlag":14479,"ĠBed":14480,"works":14481,"PM":14482,"ĠHinblick":14483,"ĠDreie":14484,"PE":14485,"sofern":14486,"ĠBabys":14487,"bayern":14488,"ĠGross":14489,"ĠSchulden":14490,"Ġschweiz":14491,"ĠLen":14492,"KK":14493,"verlag":14494,"zahlungs":14495,"ĠView":14496,"Ð¾Ð²":14497,"Ġerzielte":14498,"Ġbegrenzt":14499,"ught":14500,"ligkeit":14501,"Klassi":14502,"128":14503,"tting":14504,"stamm":14505,"ĠDomain":14506,"ĠKund":14507,"ĠAkte":14508,"gbaren":14509,"ulpt":14510,"Ġpin":14511,"Ġ,<":14512,"Ġeignen":14513,"Ġverwendeten":14514,"mitte":14515,"ĠThere":14516,"ĠAuftraggeber":14517,"ckig":14518,"Ġerworben":14519,"vious":14520,"Ġumfassenden":14521,"Ġthan":14522,"studien":14523,"strategie":14524,"resh":14525,"Bal":14526,"ĠHero":14527,"Ġ1900":14528,"ĠPlatte":14529,"note":14530,"dos":14531,"119":14532,"chef":14533,"ĠKochen":14534,"ĠDingen":14535,"ĠAnwender":14536,"abteilung":14537,"ĠZDF":14538,"spflicht":14539,"Politik":14540,"Ġposition":14541,"Ġkleineren":14542,"ights":14543,"verbandes":14544,"ĠMachen":14545,"Ġjung":14546,"Alex":14547,"IVE":14548,"ĠME":14549,"Ġtechnisch":14550,"ĠUnder":14551,"sparenz":14552,"arien":14553,"geschichten":14554,"ĠUwe":14555,"Ġandererseits":14556,"wettbewerb":14557,"Ġbeantwortet":14558,"barten":14559,"ĠStill":14560,"ĠRC":14561,"profil":14562,"geha":14563,"ĠLea":14564,"tures":14565,"Ġ</":14566,"prise":14567,"alistische":14568,"ĠLinz":14569,"Ġautomaten":14570,"ĠGarden":14571,"fehle":14572,"Ġfrischen":14573,"UC":14574,"ttert":14575,"Ġrest":14576,"ĠTaschenbuch":14577,"ĠKy":14578,"talen":14579,"Letzte":14580,"Ġbefand":14581,"Ġschaff":14582,"ĠZenti":14583,"Ġago":14584,"ÙĦ":14585,"ĠKombi":14586,"ĠHarry":14587,"ĠIsa":14588,"ĠAnnahme":14589,"ffic":14590,"Ġ1962":14591,"vertreter":14592,"ĠErt":14593,"ML":14594,
[...]
