{
  "version": "1.0",
  "truncation": null,
  "padding": null,
  "added_tokens": [
    {
      "id": 0,
      "content": "<s>",
      "single_word": false,
      "lstrip": false,
      "rstrip": false,
      "normalized": false,
      "special": true
    },
    {
      "id": 1,
      "content": "<pad>",
      "single_word": false,
      "lstrip": false,
      "rstrip": false,
      "normalized": false,
      "special": true
    },
    {
      "id": 2,
      "content": "</s>",
      "single_word": false,
      "lstrip": false,
      "rstrip": false,
      "normalized": false,
      "special": true
    },
    {
      "id": 3,
      "content": "<mask>",
      "single_word": false,
      "lstrip": false,
      "rstrip": false,
      "normalized": false,
      "special": true
    },
    {
      "id": 4,
      "content": "<newline>",
      "single_word": false,
      "lstrip": false,
      "rstrip": false,
      "normalized": false,
      "special": true
    },
    {
      "id": 5,
      "content": "<unk>",
      "single_word": false,
      "lstrip": false,
      "rstrip": false,
      "normalized": false,
      "special": true
    }
  ],
  "normalizer": {
    "type": "Sequence",
    "normalizers": [
      {
        "type": "NFKD"
      },
      {
        "type": "Replace",
        "pattern": {
          "Regex": "\\\\{2,}"
        },
        "content": "\\"
      },
      {
        "type": "Replace",
        "pattern": {
          "String": "\n"
        },
        "content": "\\n"
      },
      {
        "type": "Replace",
        "pattern": {
          "String": "\\n"
        },
        "content": "<newline>"
      },
      {
        "type": "BertNormalizer",
        "clean_text": true,
        "handle_chinese_chars": false,
        "strip_accents": false,
        "lowercase": false
      },
      {
        "type": "Replace",
        "pattern": {
          "Regex": "\\s{2,}"
        },
        "content": " "
      },
      {
        "type": "Strip",
        "strip_left": true,
        "strip_right": true
      }
    ]
  },
  "pre_tokenizer": {
    "type": "ByteLevel",
    "add_prefix_space": true,
    "trim_offsets": true,
    "use_regex": true
  },
  "post_processor": {
    "type": "TemplateProcessing",
    "single": [
      {
        "SpecialToken": {
          "id": "<s>",
          "type_id": 0
        }
      },
      {
        "Sequence": {
          "id": "A",
          "type_id": 0
        }
      },
      {
        "SpecialToken": {
          "id": "</s>",
          "type_id": 0
        }
      }
    ],
    "pair": [
      {
        "SpecialToken": {
          "id": "<s>",
          "type_id": 0
        }
      },
      {
        "Sequence": {
          "id": "A",
          "type_id": 0
        }
      },
      {
        "SpecialToken": {
          "id": "</s>",
          "type_id": 0
        }
      },
      {
        "SpecialToken": {
          "id": "<s>",
          "type_id": 0
        }
      },
      {
        "Sequence": {
          "id": "B",
          "type_id": 0
        }
      },
      {
        "SpecialToken": {
          "id": "</s>",
          "type_id": 0
        }
      }
    ],
    "special_tokens": {
      "</s>": {
        "id": "</s>",
        "ids": [
          2
        ],
        "tokens": [
          "</s>"
        ]
      },
      "<s>": {
        "id": "<s>",
        "ids": [
          0
        ],
        "tokens": [
          "<s>"
        ]
      }
    }
  },
  "decoder": null,
  "model": {
    "type": "BPE",
    "dropout": null,
    "unk_token": "<unk>",
    "continuing_subword_prefix": null,
    "end_of_word_suffix": null,
    "fuse_unk": false,
    "byte_fallback": false,
    "ignore_merges": false,
    "vocab": {
      "<s>": 0,
      "<pad>": 1,
      "</s>": 2,
      "<mask>": 3,
      "<newline>": 4,
      "<unk>": 5,
      "!": 6,
      "\"": 7,
      "#": 8,
      "$": 9,
      "%": 10,
      "&": 11,
      "'": 12,
      "(": 13,
      ")": 14,
      "*": 15,
      "+": 16,
      ",": 17,
      "-": 18,
      ".": 19,
      "/": 20,
      "0": 21,
      "1": 22,
      "2": 23,
      "3": 24,
      "4": 25,
      "5": 26,
      "6": 27,
      "7": 28,
      "8": 29,
      "9": 30,
      ":": 31,
      ";": 32,
      "<": 33,
      "=": 34,
      ">": 35,
      "?": 36,
      "@": 37,
      "A": 38,
      "B": 39,
      "C": 40,
      "D": 41,
      "E": 42,
      "F": 43,
      "G": 44,
      "H": 45,
      "I": 46,
      "J": 47,
      "K": 48,
      "L": 49,
      "M": 50,
      "N": 51,
      "O": 52,
      "P": 53,
      "Q": 54,
      "R": 55,
      "S": 56,
      "T": 57,
      "U": 58,
      "V": 59,
      "W": 60,
      "X": 61,
      "Y": 62,
      "Z": 63,
      "[": 64,
      "\\": 65,
      "]": 66,
      "^": 67,
      "_": 68,
      "`": 69,
      "a": 70,
      "b": 71,
      "c": 72,
      "d": 73,
      "e": 74,
      "f": 75,
      "g": 76,
      "h": 77,
      "i": 78,
      "j": 79,
      "k": 80,
      "l": 81,
      "m": 82,
      "n": 83,
      "o": 84,
      "p": 85,
      "q": 86,
      "r": 87,
      "s": 88,
      "t": 89,
      "u": 90,
      "v": 91,
      "w": 92,
      "x": 93,
      "y": 94,
      "z": 95,
      "{": 96,
      "|": 97,
      "}": 98,
      "~": 99,
      "¡": 100,
      "¢": 101,
      "£": 102,
      "¤": 103,
      "¥": 104,
      "¦": 105,
      "§": 106,
      "¨": 107,
      "©": 108,
      "ª": 109,
      "«": 110,
      "¬": 111,
      "®": 112,
      "¯": 113,
      "°": 114,
      "±": 115,
      "²": 116,
      "³": 117,
      "´": 118,
      "µ": 119,
      "¶": 120,
      "·": 121,
      "¸": 122,
      "¹": 123,
      "º": 124,
      "»": 125,
      "¼": 126,
      "½": 127,
      "¾": 128,
      "¿": 129,
      "À": 130,
      "Á": 131,
      "Â": 132,
      "Ã": 133,
      "Ä": 134,
      "Å": 135,
      "Æ": 136,
      "Ç": 137,
      "È": 138,
      "É": 139,
      "Ê": 140,
      "Ë": 141,
      "Ì": 142,
      "Í": 143,
      "Î": 144,
      "Ï": 145,
      "Ð": 146,
      "Ñ": 147,
      "Ò": 148,
      "Ó": 149,
      "Ô": 150,
      "Õ": 151,
      "Ö": 152,
      "×": 153,
      "Ø": 154,
      "Ù": 155,
      "Ú": 156,
      "Û": 157,
      "Ü": 158,
      "Ý": 159,
      "Þ": 160,
      "ß": 161,
      "à": 162,
      "á": 163,
      "â": 164,
      "ã": 165,
      "ä": 166,
      "å": 167,
      "æ": 168,
      "ç": 169,
      "è": 170,
      "é": 171,
      "ê": 172,
      "ë": 173,
      "ì": 174,
      "í": 175,
      "î": 176,
      "ï": 177,
      "ð": 178,
      "ñ": 179,
      "ò": 180,
      "ó": 181,
      "ô": 182,
      "õ": 183,
      "ö": 184,
      "÷": 185,
      "ø": 186,
      "ù": 187,
      "ú": 188,
      "û": 189,
      "ü": 190,
      "ý": 191,
      "þ": 192,
      "ÿ": 193,
      "Ā": 194,
      "ā": 195,
      "Ă": 196,
      "ă": 197,
      "Ą": 198,
      "ą": 199,
      "Ć": 200,
      "ć": 201,
      "Ĉ": 202,
      "ĉ": 203,
      "Ċ": 204,
      "ċ": 205,
      "Č": 206,
      "č": 207,
      "Ď": 208,
      "ď": 209,
      "Đ": 210,
      "đ": 211,
      "Ē": 212,
      "ē": 213,
      "Ĕ": 214,
      "ĕ": 215,
      "Ė": 216,
      "ė": 217,
      "Ę": 218,
      "ę": 219,
      "Ě": 220,
      "ě": 221,
      "Ĝ": 222,
      "ĝ": 223,
      "Ğ": 224,
      "ğ": 225,
      "Ġ": 226,
      "ġ": 227,
      "Ģ": 228,
      "ģ": 229,
      "Ĥ": 230,
      "ĥ": 231,
      "Ħ": 232,
      "ħ": 233,
      "Ĩ": 234,
      "ĩ": 235,
      "Ī": 236,
      "ī": 237,
      "Ĭ": 238,
      "ĭ": 239,
      "Į": 240,
      "į": 241,
      "İ": 242,
      "ı": 243,
      "Ĳ": 244,
      "ĳ": 245,
      "Ĵ": 246,
      "ĵ": 247,
      "Ķ": 248,
      "ķ": 249,
      "ĸ": 250,
      "Ĺ": 251,
      "ĺ": 252,
      "Ļ": 253,
      "ļ": 254,
      "Ľ": 255,
      "ľ": 256,
      "Ŀ": 257,
      "ŀ": 258,
      "Ł": 259,
      "ł": 260,
      "Ń": 261,
      "er": 262,
      "li": 263,
      "en": 264,
      "Ġa": 265,
      "Ġt": 266,
      "es": 267,
      "on": 268,
      "ew": 269,
      "lin": 270,
      "line": 271,
      "new": 272,
      "Ġd": 273,
      "newline": 274,
      "he": 275,
      "Ġs": 276,
      "an": 277,
      "re": 278,
      "ti": 279,
      "Ġi": 280,
      "or": 281,
      "ch": 282,
      "Ġp": 283,
      "ou": 284,
      "le": 285,
      "ar": 286,
      "nd": 287,
      "te": 288,
      "Ġw": 289,
      "Ġthe": 290,
      "Ġc": 291,
      "Ġf": 292,
      "is": 293,
      "ng": 294,
      "Ġb": 295,
      "Ġm": 296,
      "al": 297,
      "Ġo": 298,
      "it": 299,
      "as": 300,
      "Ìģ": 301,
      "Ġin": 302,
      "ĠS": 303,
      "Ġe": 304,
      "at": 305,
      "om": 306,
      "Ġof": 307,
      "ing": 308,
      "tion": 309,
      "Ġde": 310,
      "ent": 311,
      "Ġl": 312,
      "ie": 313,
      "Ġand": 314,
      "us": 315,
      "ur": 316,
      "Ġh": 317,
      "ĠA": 318,
      "Ġto": 319,
      "ed": 320,
      "ÌĪ": 321,
      "il": 322,
      "ra": 323,
      "ro": 324,
      ".<": 325,
      "ĠC": 326,
      "Ġn": 327,
      "el": 328,
      "ĠM": 329,
      "ĠT": 330,
      "Ġu": 331,
      "ic": 332,
      "Ġg": 333,
      "ĠB": 334,
      "âĢ": 335,
      "ĠP": 336,
      "Ġ1": 337,
      "st": 338,
      "Ġth": 339,
      "Ġv": 340,
      "ĠI": 341,
      "et": 342,
      "ĠD": 343,
      "ri": 344,
      "ol": 345,
      "am": 346,
      "Ġre": 347,
      "Ġ2": 348,
      "ter": 349,
      "Ġ(": 350,
      "qu": 351,
      "ve": 352,
      "ce": 353,
      "ĠL": 354,
      "ĠF": 355,
      "ir": 356,
      "ers": 357,
      "our": 358,
      "ation": 359,
      "ge": 360,
      "ĠR": 361,
      "ĠH": 362,
      "de": 363,
      "ĠG": 364,
      "ot": 365,
      "ĠE": 366,
      "Ġbe": 367,
      "ĠW": 368,
      "ig": 369,
      "><": 370,
      "ut": 371,
      "la": 372,
      "Ġfor": 373,
      "ÌĢ": 374,
      "Ġis": 375,
      "Ġy": 376,
      "ow": 377,
      "Ġon": 378,
      "os": 379,
      "ly": 380,
      "ta": 381,
      "and": 382,
      "ĠN": 383,
      "ts": 384,
      "ad": 385,
      "ment": 386,
      "Ġ20": 387,
      "ess": 388,
      "th": 389,
      "Ġle": 390,
      "un": 391,
      "âĢĻ": 392,
      "est": 393,
      "ck": 394,
      "ich": 395,
      "ĠK": 396,
      "ay": 397,
      "um": 398,
      "id": 399,
      "Ġla": 400,
      "Ġal": 401,
      "ith": 402,
      "ul": 403,
      "ver": 404,
      "Ġan": 405,
      "ĠJ": 406,
      "Ġdes": 407,
      "Ġund": 408,
      "Ġse": 409,
      "ted": 410,
      "Ġen": 411,
      "op": 412,
      "Ġun": 413,
      "im": 414,
      "ab": 415,
      "ung": 416,
      "Ġcon": 417,
      "ai": 418,
      "Ġder": 419,
      "ct": 420,
      "ĠO": 421,
      "Ġwith": 422,
      "Ġwh": 423,
      "Ġpro": 424,
      "ĠV": 425,
      "se": 426,
      "Ġr": 427,
      "ere": 428,
      "Ġk": 429,
      "ci": 430,
      "Ġcom": 431,
      "ber": 432,
      "pp": 433,
      "Ġas": 434,
      "Ġet": 435,
      "ten": 436,
      "Ġ19": 437,
      "ion": 438,
      "Ġthat": 439,
      "Ġst": 440,
      "od": 441,
      "ff": 442,
      "au": 443,
      "em": 444,
      "Ġqu": 445,
      "..": 446,
      "ĠU": 447,
      "Ġau": 448,
      "ant": 449,
      "ag": 450,
      "pe": 451,
      "Ġli": 452,
      "Ġj": 453,
      "00": 454,
      "Ġwas": 455,
      "Ġ201": 456,
      "hr": 457,
      "Ġdie": 458,
      "Ġei": 459,
      "Ġein": 460,
      "ke": 461,
      "Ġz": 462,
      "ans": 463,
      "end": 464,
      "ĠThe": 465,
      "ach": 466,
      "og": 467,
      "ort": 468,
      "che": 469,
      "ĠâĢ": 470,
      "Ġyou": 471,
      "Ġat": 472,
      "rom": 473,
      "Ġch": 474,
      "me": 475,
      "ting": 476,
      "out": 477,
      "ru": 478,
      "Ġor": 479,
      "Ġpar": 480,
      "Ġhe": 481,
      "ard": 482,
      "Ġ-": 483,
      "ist": 484,
      "Ġex": 485,
      "ite": 486,
      "ld": 487,
      "ore": 488,
      "ure": 489,
      "Ġby": 490,
      "ns": 491,
      "ate": 492,
      "Ġare": 493,
      "gh": 494,
      "iv": 495,
      "nt": 496,
      "ous": 497,
      "all": 498,
      "ub": 499,
      "Ġfi": 500,
      "ill": 501,
      "ass": 502,
      "Ġim": 503,
      "Ġit": 504,
      "Ġsh": 505,
      "ap": 506,
      "ies": 507,
      "ali": 508,
      "ei": 509,
      "Ġfrom": 510,
      "Ġha": 511,
      "ok": 512,
      "Ġ<": 513,
      "di": 514,
      "Ġwe": 515,
      "ens": 516,
      ")<": 517,
      "Ġne": 518,
      "ll": 519,
      "ac": 520,
      "Ġdu": 521,
      "oc": 522,
      "ĠIn": 523,
      "age": 524,
      "Ġ3": 525,
      "ust": 526,
      "ier": 527,
      "tic": 528,
      "Ġthis": 529,
      "ell": 530,
      "Ġme": 531,
      "Ġsu": 532,
      "Ġles": 533,
      "ÌĤ": 534,
      "que": 535,
      "du": 536,
      "ĠSt": 537,
      "hi": 538,
      "ak": 539,
      "ue": 540,
      "'s": 541,
      "chen": 542,
      "ction": 543,
      "oi": 544,
      "ĠRe": 545,
      "der": 546,
      "ost": 547,
      "rou": 548,
      "ain": 549,
      "ome": 550,
      "Ġab": 551,
      "mer": 552,
      "use": 553,
      "res": 554,
      "for": 555,
      "per": 556,
      "igh": 557,
      "ran": 558,
      "ind": 559,
      "ia": 560,
      "ty": 561,
      "ann": 562,
      "ud": 563,
      "ity": 564,
      "ear": 565,
      "gen": 566,
      "Ġ|": 567,
      "Ġyour": 568,
      "Ġvon": 569,
      "Ġ:": 570,
      "eb": 571,
      "Ġso": 572,
      "Ġno": 573,
      "ide": 574,
      "Ġma": 575,
      "Ġ\"": 576,
      "lo": 577,
      "Ġman": 578,
      "sch": 579,
      "Ġnot": 580,
      "ont": 581,
      "Ġhave": 582,
      "Ġals": 583,
      "Ġer": 584,
      "av": 585,
      "Ġcomp": 586,
      "ĠTh": 587,
      "20": 588,
      "ft": 589,
      "ork": 590,
      "ong": 591,
      "are": 592,
      "fe": 593,
      "ire": 594,
      "Ġden": 595,
      "ner": 596,
      "ook": 597,
      "ni": 598,
      "ast": 599,
      "her": 600,
      "Ġac": 601,
      "ang": 602,
      "ord": 603,
      "Ġpl": 604,
      "ĠZ": 605,
      "ces": 606,
      "Ġfu": 607,
      "Ġall": 608,
      "ance": 609,
      "ric": 610,
      "ble": 611,
      "ary": 612,
      "tern": 613,
      "Ġcan": 614,
      "ys": 615,
      "ry": 616,
      "ati": 617,
      "19": 618,
      "Ġmit": 619,
      "Ġpre": 620,
      "erv": 621,
      "ally": 622,
      "Ġ4": 623,
      "ep": 624,
      "ĠâĢĵ": 625,
      "Ġpour": 626,
      "iss": 627,
      "ĠCh": 628,
      "ise": 629,
      "able": 630,
      "be": 631,
      "Ġte": 632,
      "ons": 633,
      "ale": 634,
      "Ġsur": 635,
      "ations": 636,
      "ence": 637,
      "ili": 638,
      "ĠY": 639,
      "The": 640,
      "Ġ200": 641,
      "ĠSch": 642,
      "Ġad": 643,
      "one": 644,
      "Ġver": 645,
      "Ġpe": 646,
      "),": 647,
      "Ġres": 648,
      "oli": 649,
      "les": 650,
      "fer": 651,
      "ah": 652,
      "mi": 653,
      "ame": 654,
      "art": 655,
      "den": 656,
      "Ġar": 657,
      "Ġ5": 658,
      "ĠÂ": 659,
      "Ġzu": 660,
      "ÃŁ": 661,
      "ould": 662,
      "ze": 663,
      "Ġpla": 664,
      "Ġsp": 665,
      "ond": 666,
      "ors": 667,
      "ign": 668,
      "vel": 669,
      "ĠLe": 670,
      "ĠDe": 671,
      "Ġwill": 672,
      "Ġest": 673,
      "ca": 674,
      "rie": 675,
      "ern": 676,
      "Ġus": 677,
      "ack": 678,
      "we": 679,
      "mp": 680,
      "Ġdo": 681,
      "ice": 682,
      "lich": 683,
      "ress": 684,
      "ob": 685,
      "ail": 686,
      "vi": 687,
      "Ġtra": 688,
      "und": 689,
      "form": 690,
      "Ġapp": 691,
      "ven": 692,
      "ph": 693,
      "Ġauf": 694,
      "Ġhis": 695,
      "Ġhas": 696,
      "ps": 697,
      "ark": 698,
      "Ġper": 699,
      "Ġgo": 700,
      "ien": 701,
      "ose": 702,
      "Ġam": 703,
      "omm": 704,
      "Ġist": 705,
      "Ġbut": 706,
      "ption": 707,
      "ĠAr": 708,
      "onn": 709,
      "uss": 710,
      "nn": 711,
      "Ġdans": 712,
      "ug": 713,
      "ss": 714,
      "ents": 715,
      "Ġra": 716,
      "ov": 717,
      "ther": 718,
      "ling": 719,
      "ren": 720,
      "to": 721,
      "Ġes": 722,
      "ree": 723,
      "Ġune": 724,
      "tin": 725,
      "cri": 726,
      "Ġ18": 727,
      "iel": 728,
      "ĠPro": 729,
      "ild": 730,
      "Ġdem": 731,
      "ase": 732,
      "ated": 733,
      "Ġdas": 734,
      "icht": 735,
      "oll": 736,
      "Ġinc": 737,
      "ght": 738,
      "ec": 739,
      "tem": 740,
      "ĠUn": 741,
      "uch": 742,
      "lis": 743,
      "Ġdis": 744,
      "amp": 745,
      "Ġsch": 746,
      "ib": 747,
      "Ġup": 748,
      "Ġwhich": 749,
      "Ġ6": 750,
      "Ġsa": 751,
      "ks": 752,
      "Ġfile": 753,
      "als": 754,
      "Ġge": 755,
      "oh": 756,
      "ins": 757,
      "Ġtheir": 758,
      "Ġalso": 759,
      "Ġdi": 760,
      "ĠSp": 761,
      "ater": 762,
      "ĠMar": 763,
      "ime": 764,
      "Ġro": 765,
      "...": 766,
      "Ġone": 767,
      "Ġfa": 768,
      "own": 769,
      "land": 770,
      "ille": 771,
      "ĠHe": 772,
      "ian": 773,
      "Ġout": 774,
      "urs": 775,
      "ory": 776,
      "Ġmore": 777,
      "cess": 778,
      "Ġque": 779,
      "Ġ0": 780,
      "fic": 781,
      "lic": 782,
      "Ġwork": 783,
      "ux": 784,
      "ĠBe": 785,
      "Ġ&": 786,
      "ments": 787,
      "Ġabout": 788,
      "Ġcomm": 789,
      "its": 790,
      "tions": 791,
      "com": 792,
      "ĠAl": 793,
      "Ġthey": 794,
      "ove": 795,
      "enn": 796,
      "ile": 797,
      "ges": 798,
      "Ġwere": 799,
      "tive": 800,
      "tel": 801,
      "olog": 802,
      "ger": 803,
      "ays": 804,
      "Ġcl": 805,
      "Ġ7": 806,
      "Ġrec": 807,
      "ick": 808,
      "ath": 809,
      "Ġmy": 810,
      "Ġwho": 811,
      "Ġou": 812,
      "Ġher": 813,
      "ex": 814,
      "Ġco": 815,
      "ound": 816,
      "Ġrep": 817,
      "ult": 818,
      "Ġaus": 819,
      "ese": 820,
      "ive": 821,
      "cause": 822,
      "Ġqui": 823,
      "man": 824,
      "tis": 825,
      "irst": 826,
      "ahr": 827,
      "Ġsich": 828,
      "Ġent": 829,
      "ning": 830,
      "âĢĵ": 831,
      "rit": 832,
      "ms": 833,
      "ational": 834,
      "Ġour": 835,
      "Ġav": 836,
      "gi": 837,
      "ual": 838,
      "ik": 839,
      "ight": 840,
      "tre": 841,
      "ma": 842,
      "ein": 843,
      "iz": 844,
      "oy": 845,
      "Ġsta": 846,
      "Ġyear": 847,
      "Ġ8": 848,
      "Ġpri": 849,
      "ĠAn": 850,
      "ĠLa": 851,
      "âĢĿ": 852,
      "Ġag": 853,
      "Ġnew": 854,
      "ĠVer": 855,
      "Ġfe": 856,
      "ĠIt": 857,
      "tt": 858,
      "ount": 859,
      "Ġbecause": 860,
      "ates": 861,
      "une": 862,
      "Ġ9": 863,
      "urch": 864,
      "Ġri": 865,
      "wo": 866,
      "Ġimp": 867,
      "Ġhad": 868,
      "Ġserv": 869,
      "tai": 870,
      "Ġeine": 871,
      "ical": 872,
      "18": 873,
      "uf": 874,
      "!<": 875,
      "Ġtime": 876,
      "10": 877,
      "Ġcol": 878,
      "In": 879,
      "led": 880,
      "Ġ10": 881,
      "Ġwar": 882,
      "min": 883,
      "ari": 884,
      "men": 885,
      "Ġspe": 886,
      "ho": 887,
      "duc": 888,
      "Ġcons": 889,
      "ivers": 890,
      "hen": 891,
      "ha": 892,
      "ungen": 893,
      "gra": 894,
      "ties": 895,
      "fter": 896,
      "cription": 897,
      "tra": 898,
      "Ġ199": 899,
      "ness": 900,
      "vec": 901,
      "ool": 902,
      "ings": 903,
      "Re": 904,
      "lu": 905,
      "Ġind": 906,
      "ris": 907,
      "ais": 908,
      "lie": 909,
      "Ġshort": 910,
      "ople": 911,
      "Ġmi": 912,
      "oss": 913,
      "ĠWe": 914,
      "gan": 915,
      "air": 916,
      "rans": 917,
      "ves": 918,
      "Ġsome": 919,
      "Ġbeen": 920,
      "ques": 921,
      "Ġplus": 922,
      "...<": 923,
      "ert": 924,
      "old": 925,
      "ures": 926,
      "ĠÂ»": 927,
      "elle": 928,
      "Ġits": 929,
      "ĠSe": 930,
      "Ġkn": 931,
      "Ġwir": 932,
      "Ġany": 933,
      ").": 934,
      "Ġother": 935,
      "kt": 936,
      "wn": 937,
      "Ġfirst": 938,
      "Ġpas": 939,
      "ĠDie": 940,
      "Ġover": 941,
      "Ġcre": 942,
      "nis": 943,
      "Ġauch": 944,
      "Ġins": 945,
      "Ġget": 946,
      "Ġinter": 947,
      "Ġph": 948,
      "Ġavec": 949,
      "Ġmon": 950,
      "Ġsi": 951,
      "cial": 952,
      "Ġnicht": 953,
      "ions": 954,
      "ĠNew": 955,
      "nk": 956,
      "Ġwhen": 957,
      "tit": 958,
      "Ġgu": 959,
      "Ġce": 960,
      "ĠFor": 961,
      "Ġfil": 962,
      "ĠSta": 963,
      "up": 964,
      "ĠâĢľ": 965,
      "fi": 966,
      "oun": 967,
      "Ġplay": 968,
      "ĠPar": 969,
      "Ġwur": 970,
      "ace": 971,
      "Ġpers": 972,
      "Ġsei": 973,
      "aire": 974,
      "dition": 975,
      "co": 976,
      "reat": 977,
      "Ġ/": 978,
      "lan": 979,
      "?<": 980,
      "ĠQ": 981,
      "tain": 982,
      "ĠEr": 983,
      "ey": 984,
      "ĠSie": 985,
      "na": 986,
      "ĠTe": 987,
      "Ġdescription": 988,
      "ene": 989,
      "ful": 990,
      "Ġbet": 991,
      "ron": 992,
      "orn": 993,
      "Ġaut": 994,
      "very": 995,
      "az": 996,
      "Ġwould": 997,
      "Ġthere": 998,
      "enti": 999,
      "ungs": 1000,
      "Ġcar": 1001,
      "âĢľ": 1002,
      "ute": 1003,
      "Ġson": 1004,
      "Ġoff": 1005,
      "12": 1006,
      "Ġinto": 1007,
      "Ġ||": 1008,
      "Ġil": 1009,
      "Ġ*": 1010,
      "50": 1011,
      "ple": 1012,
      "Ġexp": 1013,
      "mb": 1014,
      "ip": 1015,
      "tell": 1016,
      "illi": 1017,
      "oin": 1018,
      "ange": 1019,
      "je": 1020,
      "cy": 1021,
      "tig": 1022,
      "Ġsc": 1023,
      "ock": 1024,
      "orld": 1025,
      "ois": 1026,
      "ood": 1027,
      "ĠOn": 1028,
      "ben": 1029,
      "ĠFran": 1030,
      "Ġthan": 1031,
      "Ġpeople": 1032,
      ":<": 1033,
      "tiv": 1034,
      "oth": 1035,
      "Ġsec": 1036,
      "Ġlike": 1037,
      "els": 1038,
      "Ġreg": 1039,
      "cha": 1040,
      "cher": 1041,
      "Ġser": 1042,
      "Ġ,": 1043,
      "ters": 1044,
      "Ġbei": 1045,
      "bs": 1046,
      "ats": 1047,
      "Ġbu": 1048,
      "Ġthem": 1049,
      "ours": 1050,
      "Ġdies": 1051,
      "ler": 1052,
      "pt": 1053,
      "Ġif": 1054,
      "ogra": 1055,
      "Th": 1056,
      "ĠCom": 1057,
      "000": 1058,
      "Ġfin": 1059,
      "ial": 1060,
      "oir": 1061,
      "rand": 1062,
      "ish": 1063,
      "17": 1064,
      "ui": 1065,
      "ener": 1066,
      "ough": 1067,
      "Ġ12": 1068,
      "Ġass": 1069,
      "meric": 1070,
      "Ġcont": 1071,
      "ets": 1072,
      "Ġdiff": 1073,
      "day": 1074,
      "tim": 1075,
      "vent": 1076,
      "Ġsie": 1077,
      "round": 1078,
      "ĠThis": 1079,
      "ward": 1080,
      "ants": 1081,
      "Ġshe": 1082,
      "ton": 1083,
      "iter": 1084,
      "Ġwhat": 1085,
      "Ì§": 1086,
      "Ġneed": 1087,
      "Ġhow": 1088,
      "Ġtwo": 1089,
      "ied": 1090,
      "ower": 1091,
      "Ġnach": 1092,
      "Ġmar": 1093,
      "ique": 1094,
      "16": 1095,
      "Ġ17": 1096,
      "hn": 1097,
      "ischen": 1098,
      "ased": 1099,
      "Ġ2018": 1100,
      "15": 1101,
      "Ġ198": 1102,
      "ĠSh": 1103,
      "aus": 1104,
      "ank": 1105,
      "ystem": 1106,
      "Ġpub": 1107,
      "ette": 1108,
      "par": 1109,
      "ced": 1110,
      "pre": 1111,
      "Ġwer": 1112,
      "ences": 1113,
      "Ġloc": 1114,
      "lud": 1115,
      "ily": 1116,
      "Ġvers": 1117,
      "velop": 1118,
      "nes": 1119,
      "ĠMa": 1120,
      "uring": 1121,
      "Ġ15": 1122,
      "ww": 1123,
      "Ġonly": 1124,
      "DF": 1125,
      "df": 1126,
      "ope": 1127,
      "Ġunder": 1128,
      ">|": 1129,
      "rough": 1130,
      "Ġwie": 1131,
      "Ġwurde": 1132,
      "Ġmay": 1133,
      "row": 1134,
      "30": 1135,
      "lle": 1136,
      "ash": 1137,
      "etz": 1138,
      "ek": 1139,
      "ating": 1140,
      "Ġche": 1141,
      "Ġprov": 1142,
      "ution": 1143,
      "Ġsupp": 1144,
      "Ġmost": 1145,
      "Ġtrans": 1146,
      "Ġta": 1147,
      "ER": 1148,
      "urn": 1149,
      "Ġacc": 1150,
      "hed": 1151,
      "Ġjust": 1152,
      "ĠCon": 1153,
      "Ġafter": 1154,
      "ues": 1155,
      "ĠGe": 1156,
      "osi": 1157,
      "bre": 1158,
      "14": 1159,
      "Ġ16": 1160,
      "Ġje": 1161,
      "aux": 1162,
      "eth": 1163,
      "ouse": 1164,
      "ĠMi": 1165,
      "Ġthrough": 1166,
      "ĠAd": 1167,
      "rai": 1168,
      "formation": 1169,
      "Ġhigh": 1170,
      "pr": 1171,
      "usi": 1172,
      "Ġhel": 1173,
      "cc": 1174,
      "lect": 1175,
      "hal": 1176,
      "Ġum": 1177,
      "Ġhat": 1178,
      "ĠLi": 1179,
      "Ġoder": 1180,
      "ular": 1181,
      "ĠMan": 1182,
      "ĠEn": 1183,
      "Ġuse": 1184,
      "tz": 1185,
      "Ġpoli": 1186,
      "ĠEx": 1187,
      "ision": 1188,
      "ĠMe": 1189,
      "con": 1190,
      "ature": 1191,
      "orth": 1192,
      "Ġbook": 1193,
      "red": 1194,
      "ĠYou": 1195,
      "Ġpart": 1196,
      "Ġter": 1197,
      "ode": 1198,
      "Ġvous": 1199,
      "Ġdire": 1200,
      "Ġeff": 1201,
      "Ġrem": 1202,
      "Ġhab": 1203,
      "Ġsein": 1204,
      "cht": 1205,
      "att": 1206,
      "Ġfam": 1207,
      "fu": 1208,
      "ourn": 1209,
      "11": 1210,
      "Ġpdf": 1211,
      "ĠPDF": 1212,
      "atch": 1213,
      "ĠSu": 1214,
      "Ġmod": 1215,
      "Ġsub": 1216,
      "ages": 1217,
      "Ġsind": 1218,
      "ices": 1219,
      "Ġback": 1220,
      "Ġwerden": 1221,
      "ĠOr": 1222,
      "chn": 1223,
      "hip": 1224,
      "Ġstud": 1225,
      "ĠAnd": 1226,
      "ative": 1227,
      "Ġbes": 1228,
      "oot": 1229,
      "Ġwell": 1230,
      "ĠEi": 1231,
      "ars": 1232,
      "Ġfind": 1233,
      "elf": 1234,
      "och": 1235,
      "Ġyears": 1236,
      "ĠAb": 1237,
      "alis": 1238,
      "Ġ197": 1239,
      "ĠCol": 1240,
      "tes": 1241,
      "mber": 1242,
      "Ġmake": 1243,
      ").<": 1244,
      "onne": 1245,
      "ĠInd": 1246,
      "ox": 1247,
      "ring": 1248,
      "gn": 1249,
      "Ġinclud": 1250,
      "13": 1251,
      "Ġmem": 1252,
      "vers": 1253,
      "Ġgra": 1254,
      "ball": 1255,
      "Ġop": 1256,
      "if": 1257,
      "stru": 1258,
      "ĠAs": 1259,
      "Ġmin": 1260,
      "Le": 1261,
      "fore": 1262,
      "outh": 1263,
      "aut": 1264,
      "200": 1265,
      "Ġ14": 1266,
      "Ġzum": 1267,
      "Ġsont": 1268,
      "ible": 1269,
      "Ġprof": 1270,
      "Ġ$": 1271,
      "usiness": 1272,
      "way": 1273,
      "nce": 1274,
      "atur": 1275,
      "ows": 1276,
      "Ġform": 1277,
      "ĠSo": 1278,
      "cip": 1279,
      "ving": 1280,
      "ohn": 1281,
      "Ġvor": 1282,
      "bi": 1283,
      "ait": 1284,
      "any": 1285,
      "Ġwhere": 1286,
      "Ġ[": 1287,
      "Ġ.": 1288,
      "view": 1289,
      "Ġprodu": 1290,
      "ograph": 1291,
      "ames": 1292,
      "tif": 1293,
      "Ġlook": 1294,
      "Ġlong": 1295,
      "ctor": 1296,
      "ason": 1297,
      "uis": 1298,
      "ĠAmeric": 1299,
      "Ġbest": 1300,
      "Ġbis": 1301,
      "ink": 1302,
      "Ġvi": 1303,
      "Ġchar": 1304,
      "Ġcent": 1305,
      "Ġdon": 1306,
      "bur": 1307,
      "Ġevery": 1308,
      "elt": 1309,
      "mit": 1310,
      "Ġann": 1311,
      "mm": 1312,
      "ĠâĢŀ": 1313,
      "lection": 1314,
      "Ġob": 1315,
      "ider": 1316,
      "Ġhelp": 1317,
      "Ġste": 1318,
      "Ġpres": 1319,
      "Ġthese": 1320,
      "tie": 1321,
      "ales": 1322,
      "ster": 1323,
      "eh": 1324,
      "cent": 1325,
      "ĠJahr": 1326,
      "Ġknow": 1327,
      "ĠCar": 1328,
      "Ġthen": 1329,
      "get": 1330,
      "ata": 1331,
      "'t": 1332,
      "ls": 1333,
      "Ġ2017": 1334,
      "Ġâ": 1335,
      "Ġzur": 1336,
      "Ġeiner": 1337,
      "Ġ13": 1338,
      "sp": 1339,
      "xt": 1340,
      "rop": 1341,
      "Ġmany": 1342,
      "ade": 1343,
      "ĠChr": 1344,
      "orts": 1345,
      "ĠUnivers": 1346,
      "IN": 1347,
      "ote": 1348,
      "wer": 1349,
      "Ġnum": 1350,
      "ki": 1351,
      "fen": 1352,
      "Ġsim": 1353,
      "Ġcommun": 1354,
      "ration": 1355,
      "sten": 1356,
      "cted": 1357,
      "Ġexper": 1358,
      "alth": 1359,
      "iten": 1360,
      "Ġich": 1361,
      "Ġend": 1362,
      "Ġ196": 1363,
      "bers": 1364,
      "Ġmus": 1365,
      "Ġcou": 1366,
      "ĠBer": 1367,
      "Ġlin": 1368,
      "ĠRo": 1369,
      "gin": 1370,
      "Ġsm": 1371,
      "ĠPri": 1372,
      "Ġwird": 1373,
      "ĠÂ«": 1374,
      "ĠNe": 1375,
      "Ġvery": 1376,
      "Ġcomple": 1377,
      "Ġmed": 1378,
      "ĠJu": 1379,
      "ES": 1380,
      "Ġhim": 1381,
      "ĠEin": 1382,
      "Ġdep": 1383,
      "Ġsuch": 1384,
      "Ġset": 1385,
      "aking": 1386,
      "other": 1387,
      "ole": 1388,
      "//": 1389,
      "ĠIs": 1390,
      "rib": 1391,
      "Ġagain": 1392,
      "vern": 1393,
      "Ġdec": 1394,
      "ils": 1395,
      "ather": 1396,
      "ident": 1397,
      "ĠHer": 1398,
      "Ġ'": 1399,
      "Ġ2019": 1400,
      "ession": 1401,
      "Ġuns": 1402,
      "alk": 1403,
      "Ġ#": 1404,
      "vol": 1405,
      "ave": 1406,
      "oint": 1407,
      "Ġdown": 1408,
      "lay": 1409,
      "ee": 1410,
      "Ġdurch": 1411,
      "lass": 1412,
      "Ġmade": 1413,
      "ister": 1414,
      "ĠPh": 1415,
      "ology": 1416,
      "ule": 1417,
      "act": 1418,
      "Ġservice": 1419,
      "Ġsol": 1420,
      "ĠWh": 1421,
      "ON": 1422,
      "Ġvis": 1423,
      "Ġeinen": 1424,
      "ĠJan": 1425,
      "Ġaux": 1426,
      "Ġread": 1427,
      "ics": 1428,
      "Ġgood": 1429,
      "Ġ2016": 1430,
      "ĠX": 1431,
      "://": 1432,
      "Ġbl": 1433,
      "no": 1434,
      "ollow": 1435,
      "Ġdass": 1436,
      "ality": 1437,
      "Ġused": 1438,
      "ull": 1439,
      "rent": 1440,
      "ĠUS": 1441,
      "rat": 1442,
      "Ġown": 1443,
      "Ġ11": 1444,
      "Ġnow": 1445,
      "Ġpass": 1446,
      "tique": 1447,
      "lish": 1448,
      "Ġplace": 1449,
      "lor": 1450,
      "udi": 1451,
      "Ġcould": 1452,
      "ĠRes": 1453,
      "ht": 1454,
      "rag": 1455,
      "eter": 1456,
      "hl": 1457,
      "igen": 1458,
      "ĠMit": 1459,
      "Ġeinem": 1460,
      "ĠLes": 1461,
      "port": 1462,
      "Ġlife": 1463,
      "ely": 1464,
      "agn": 1465,
      "AN": 1466,
      "zen": 1467,
      "esch": 1468,
      "yp": 1469,
      "Ġmais": 1470,
      "Ġhome": 1471,
      "Ġdesign": 1472,
      "Ġcli": 1473,
      "cer": 1474,
      "Ġmanual": 1475,
      "ĠGu": 1476,
      "Ġhand": 1477,
      "Ġway": 1478,
      "yn": 1479,
      "Ġunter": 1480,
      "Ġpra": 1481,
      "ility": 1482,
      "ĠEur": 1483,
      "app": 1484,
      "ches": 1485,
      "--": 1486,
      "Ġwi": 1487,
      "alle": 1488,
      "ĠSte": 1489,
      "Ġsee": 1490,
      "ween": 1491,
      "ĠIl": 1492,
      "Ġ30": 1493,
      "ĠAll": 1494,
      "Ġgrou": 1495,
      "ferences": 1496,
      "ĠEng": 1497,
      "Ġcap": 1498,
      "Ġcor": 1499,
      "De": 1500,
      "ved": 1501,
      "Ġbeing": 1502,
      "Ġsystem": 1503,
      "Ġsit": 1504,
      "Ġ2015": 1505,
      "ĠJe": 1506,
      "ahl": 1507,
      "Ġcal": 1508,
      "asse": 1509,
      "ĠPre": 1510,
      "Ġdevelop": 1511,
      "ield": 1512,
      "Ġteam": 1513,
      "Ġday": 1514,
      "ital": 1515,
      "ula": 1516,
      "uts": 1517,
      "ĠDer": 1518,
      "ross": 1519,
      "Ġmain": 1520,
      "22": 1521,
      "fin": 1522,
      "ĠAus": 1523,
      "Ġstar": 1524,
      "Ġsaid": 1525,
      "lichen": 1526,
      "mes": 1527,
      "Ġtre": 1528,
      "ĠHo": 1529,
      "nter": 1530,
      "ury": 1531,
      "40": 1532,
      "Ġear": 1533,
      "ĠCan": 1534,
      "Ġbefore": 1535,
      "ĠQu": 1536,
      "Ġeven": 1537,
      "ante": 1538,
      "Ġhist": 1539,
      "oire": 1540,
      "illa": 1541,
      "Ġadd": 1542,
      "ĠMon": 1543,
      "Ġfound": 1544,
      "ral": 1545,
      "by": 1546,
      "ission": 1547,
      "io": 1548,
      "\",": 1549,
      "Ġdoc": 1550,
      "atz": 1551,
      "Ġdiffer": 1552,
      "stand": 1553,
      "tet": 1554,
      "EN": 1555,
      "ict": 1556,
      "ĠComm": 1557,
      "Ġlar": 1558,
      "lack": 1559,
      "AR": 1560,
      "Ġorgan": 1561,
      "eren": 1562,
      "\"<": 1563,
      "sh": 1564,
      "Die": 1565,
      "Ġcour": 1566,
      "tik": 1567,
      "ternational": 1568,
      "enden": 1569,
      "till": 1570,
      "Ġshould": 1571,
      "Ġworld": 1572,
      "dem": 1573,
      "Ġgreat": 1574,
      "ische": 1575,
      "ĠReg": 1576,
      "Ġdid": 1577,
      "St": 1578,
      "ĠPl": 1579,
      "tical": 1580,
      "ĠZe": 1581,
      "liche": 1582,
      "ailable": 1583,
      "ĠCo": 1584,
      "Ġbetween": 1585,
      "fa": 1586,
      "cou": 1587,
      "ĠDes": 1588,
      "nnen": 1589,
      "bar": 1590,
      "nen": 1591,
      "Ġret": 1592,
      "Ġperson": 1593,
      "Ġpop": 1594,
      "Ġlead": 1595,
      "Ġbusiness": 1596,
      "Ex": 1597,
      "ject": 1598,
      "igi": 1599,
      "21": 1600,
      "ĠBu": 1601,
      "Ġ2014": 1602,
      "Ġemp": 1603,
      "Ġmuch": 1604,
      "25": 1605,
      "ĠTra": 1606,
      "cle": 1607,
      "oci": 1608,
      "Ġsite": 1609,
      "orm": 1610,
      "tend": 1611,
      "omen": 1612,
      "tab": 1613,
      "pro": 1614,
      "arm": 1615,
      "Ġprogra": 1616,
      "rei": 1617,
      "References": 1618,
      "aw": 1619,
      "rid": 1620,
      "ĠUni": 1621,
      "otre": 1622,
      "ĠGo": 1623,
      "alt": 1624,
      "ctions": 1625,
      "Ar": 1626,
      "Ġcare": 1627,
      "Ġang": 1628,
      "gt": 1629,
      "lei": 1630,
      "ior": 1631,
      "ume": 1632,
      "ĠCent": 1633,
      "Ġinformation": 1634,
      "ever": 1635,
      "Ġcur": 1636,
      "til": 1637,
      "Ġsecond": 1638,
      "ĠShe": 1639,
      "Ġtem": 1640,
      "ually": 1641,
      "ĠUniversity": 1642,
      "Ġnom": 1643,
      "Ĥ¬": 1644,
      "the": 1645,
      "por": 1646,
      "ĠAug": 1647,
      "Ġsou": 1648,
      "ĠSep": 1649,
      "utsch": 1650,
      "ĠGer": 1651,
      "cl": 1652,
      "Ġduring": 1653,
      "Ġko": 1654,
      "Ġ2013": 1655,
      "Ġpost": 1656,
      "Ġide": 1657,
      "Ġnoch": 1658,
      "Ġfollow": 1659,
      "ator": 1660,
      "rol": 1661,
      "anz": 1662,
      "Ġwhile": 1663,
      "unk": 1664,
      "Ġtout": 1665,
      "Ġhere": 1666,
      "Ġproduc": 1667,
      "....": 1668,
      "rate": 1669,
      "AT": 1670,
      "lease": 1671,
      "Ġans": 1672,
      "Ġcer": 1673,
      "auf": 1674,
      "ense": 1675,
      "Ġavailable": 1676,
      "Ġrequ": 1677,
      "Ġclass": 1678,
      "Ġbec": 1679,
      "Ġgro": 1680,
      "Ġconf": 1681,
      "reen": 1682,
      "tics": 1683,
      "Ġzw": 1684,
      "Ġnur": 1685,
      "Ġ194": 1686,
      "oard": 1687,
      "ĠAmerican": 1688,
      "oman": 1689,
      "osition": 1690,
      "ente": 1691,
      "eld": 1692,
      "We": 1693,
      "ĠMay": 1694,
      "nde": 1695,
      "Ġrece": 1696,
      "earch": 1697,
      "aint": 1698,
      "Ġspeci": 1699,
      "ĠIns": 1700,
      "eng": 1701,
      "Ġtake": 1702,
      "uer": 1703,
      "Ġ2012": 1704,
      "Ġkann": 1705,
      "ĠBar": 1706,
      "tember": 1707,
      "Ġchild": 1708,
      "igin": 1709,
      "Ġact": 1710,
      "Ġgener": 1711,
      "ĠMed": 1712,
      "Ġparti": 1713,
      "ĠAng": 1714,
      "Ġlie": 1715,
      "Ġ25": 1716,
      "eine": 1717,
      "riend": 1718,
      "isch": 1719,
      "eder": 1720,
      "Ġthree": 1721,
      "ane": 1722,
      "24": 1723,
      "Ġmo": 1724,
      "ĠGra": 1725,
      "Ġmet": 1726,
      "ried": 1727,
      "org": 1728,
      "Ġgen": 1729,
      "Ġschool": 1730,
      "Ġpublic": 1731,
      "ste": 1732,
      "Ġprop": 1733,
      "ĠDas": 1734,
      "yle": 1735,
      "Ġphot": 1736,
      "hre": 1737,
      "Ġdist": 1738,
      "Ġ24": 1739,
      "erson": 1740,
      "ccess": 1741,
      "utz": 1742,
      "off": 1743,
      "Ġalle": 1744,
      "Ġbas": 1745,
      "burg": 1746,
      "ustom": 1747,
      "Ġeach": 1748,
      "Ġentre": 1749,
      "ĠFi": 1750,
      "ĠFeb": 1751,
      "ĠSc": 1752,
      "lement": 1753,
      "Ġfree": 1754,
      "ĠIf": 1755,
      "ĠUnited": 1756,
      "Ġthose": 1757,
      "OC": 1758,
      "Ġmehr": 1759,
      "Ġposs": 1760,
      "ici": 1761,
      "Ġboth": 1762,
      "ots": 1763,
      "Ġonline": 1764,
      "eln": 1765,
      "ley": 1766,
      "Ġconn": 1767,
      "reich": 1768,
      "lig": 1769,
      "Ġdoes": 1770,
      "ken": 1771,
      "Ġright": 1772,
      "wa": 1773,
      "Ġfran": 1774,
      "load": 1775,
      "ka": 1776,
      "Ġtop": 1777,
      "ĠNo": 1778,
      "Ġsing": 1779,
      "Ġ195": 1780,
      "Ġges": 1781,
      "ĠAm": 1782,
      "pl": 1783,
      "Ġcontin": 1784,
      "ĠAt": 1785,
      "itz": 1786,
      "Ġcount": 1787,
      "Ġwant": 1788,
      "ĠCl": 1789,
      "cks": 1790,
      "La": 1791,
      "Ġcas": 1792,
      "Ġinf": 1793,
      "Ġrun": 1794,
      "Ġdisp": 1795,
      "ĠLand": 1796,
      "Ġimport": 1797,
      "Ġbi": 1798,
      "ĠChi": 1799,
      "Ġren": 1800,
      "Ġsame": 1801,
      "23": 1802,
      "Ġbre": 1803,
      "iert": 1804,
      "agement": 1805,
      "iti": 1806,
      "bum": 1807,
      "geb": 1808,
      "60": 1809,
      "van": 1810,
      "ird": 1811,
      "Ġprom": 1812,
      "ĠPe": 1813,
      "of": 1814,
      "gy": 1815,
      "aten": 1816,
      "ĠMus": 1817,
      "Ġthink": 1818,
      "Ġfl": 1819,
      "Ġcomme": 1820,
      "Ġshow": 1821,
      "Ġda": 1822,
      "Ġaber": 1823,
      "Ġbro": 1824,
      "Ġaround": 1825,
      "ody": 1826,
      "Ġconc": 1827,
      "Ġincluding": 1828,
      "akes": 1829,
      "Ġev": 1830,
      "Ġmen": 1831,
      "Ġ2011": 1832,
      "mo": 1833,
      "book": 1834,
      "af": 1835,
      "Ġprocess": 1836,
      "ĠApr": 1837,
      "arn": 1838,
      "Ġ;": 1839,
      "ustra": 1840,
      "bor": 1841,
      "ĠBl": 1842,
      "Ġfilm": 1843,
      "Ġbuild": 1844,
      "Ġcle": 1845,
      "berg": 1846,
      "ami": 1847,
      "Ġtou": 1848,
      "Ġ2010": 1849,
      "Ġstand": 1850,
      "teur": 1851,
      "Ġ*<": 1852,
      "Ġfamily": 1853,
      "Ġmark": 1854,
      "Ġdri": 1855,
      "Ġfre": 1856,
      "ald": 1857,
      "lished": 1858,
      "UR": 1859,
      "80": 1860,
      "aster": 1861,
      "Un": 1862,
      "ĠHow": 1863,
      "ulation": 1864,
      "Ġtri": 1865,
      "Ġnumber": 1866,
      "ĠTo": 1867,
      "vis": 1868,
      "Ġperform": 1869,
      "hor": 1870,
      "ony": 1871,
      "ards": 1872,
      "ĠJanu": 1873,
      "On": 1874,
      "ĠâĢĶ": 1875,
      "ides": 1876,
      "!!": 1877,
      "Ġnon": 1878,
      "rich": 1879,
      "IS": 1880,
      "OR": 1881,
      "Ġvotre": 1882,
      "Ġx": 1883,
      "99": 1884,
      "ords": 1885,
      "ideo": 1886,
      "Ġopen": 1887,
      "Ġihr": 1888,
      "An": 1889,
      "less": 1890,
      "ĠAut": 1891,
      "loy": 1892,
      "Ġresp": 1893,
      "Ġmach": 1894,
      "Ġ100": 1895,
      "ĠAuf": 1896,
      "ovember": 1897,
      "Ġfun": 1898,
      "bert": 1899,
      "ĠCount": 1900,
      "rend": 1901,
      "lace": 1902,
      "Ġaff": 1903,
      "Pro": 1904,
      ".,": 1905,
      "orte": 1906,
      "ĠFu": 1907,
      "Ġfait": 1908,
      "lege": 1909,
      "ivid": 1910,
      "ths": 1911,
      "ĠWar": 1912,
      "ged": 1913,
      "net": 1914,
      "tice": 1915,
      "ootball": 1916,
      "Ġeas": 1917,
      "Ġve": 1918,
      "amb": 1919,
      "ities": 1920,
      "ĠSeptember": 1921,
      "amm": 1922,
      "gs": 1923,
      "Ġwon": 1924,
      "Ġcette": 1925,
      "atter": 1926,
      "Ġlast": 1927,
      "ilm": 1928,
      "Ch": 1929,
      "jec": 1930,
      "Ġses": 1931,
      "ware": 1932,
      "This": 1933,
      "Ġvol": 1934,
      "ĠComp": 1935,
      "Ġstate": 1936,
      "ĠThey": 1937,
      "Ġsom": 1938,
      "Ġoper": 1939,
      "rum": 1940,
      "Ġfour": 1941,
      "Ìģ,": 1942,
      "ĠPa": 1943,
      "Ġlo": 1944,
      "ĠAugust": 1945,
      "cture": 1946,
      "Ġ21": 1947,
      "Ġques": 1948,
      "ĠFre": 1949,
      "Ġstill": 1950,
      "lex": 1951,
      "Ġhaben": 1952,
      "ances": 1953,
      "work": 1954,
      "ĠGes": 1955,
      "ĠApril": 1956,
      "Ġca": 1957,
      "read": 1958,
      "Ġoffic": 1959,
      "ocie": 1960,
      "Ġdifferent": 1961,
      "Ġ...": 1962,
      "ÃŁe": 1963,
      "27": 1964,
      "ams": 1965,
      "Ġsmall": 1966,
      "ilt": 1967,
      "ĠFrance": 1968,
      "ĠApp": 1969,
      "ĠIm": 1970,
      "rain": 1971,
      "Ġproble": 1972,
      "ways": 1973,
      "ĠServ": 1974,
      "ana": 1975,
      "Ġsel": 1976,
      "vir": 1977,
      "Ġprofession": 1978,
      "ita": 1979,
      "sta": 1980,
      "ussi": 1981,
      "conom": 1982,
      "ĠFebru": 1983,
      "Ġdeux": 1984,
      "ĠGru": 1985,
      "Ġservices": 1986,
      "AL": 1987,
      "Ġlove": 1988,
      "ĠSi": 1989,
      "ĠSouth": 1990,
      "iche": 1991,
      "ude": 1992,
      "Ġpo": 1993,
      "ired": 1994,
      "Ġnous": 1995,
      "ttp": 1996,
      "Ġusing": 1997,
      "ĠYork": 1998,
      "ĠMo": 1999,
      "90": 2000,
      "ott": 2001,
      "Ġvo": 2002,
      "ternal": 2003,
      ">\"": 2004,
      "ÃŁen": 2005,
      "ja": 2006,
      "Ġ23": 2007,
      "ret": 2008,
      "26": 2009,
      "ĠNovember": 2010,
      "let": 2011,
      "Ġke": 2012,
      "Ġorigin": 2013,
      "AS": 2014,
      "Ġ193": 2015,
      "Ġprin": 2016,
      "uen": 2017,
      "ĠNach": 2018,
      "inter": 2019,
      "rice": 2020,
      "Ġprem": 2021,
      "ĠNational": 2022,
      "ĠPer": 2023,
      "ĠWorld": 2024,
      "Ġdev": 2025,
      "Ġmov": 2026,
      "28": 2027,
      "aine": 2028,
      "Ġinst": 2029,
      "ĠSchool": 2030,
      "Ġgiv": 2031,
      "keit": 2032,
      "IT": 2033,
      "reg": 2034,
      "Ġoffer": 2035,
      "ĠBut": 2036,
      "iste": 2037,
      "elles": 2038,
      "ĠChar": 2039,
      "chaft": 2040,
      "Wh": 2041,
      "ype": 2042,
      "ories": 2043,
      "Ġ+": 2044,
      "ched": 2045,
      "Ġhum": 2046,
      "Ġrela": 2047,
      "Ġsign": 2048,
      "Ġiss": 2049,
      "nz": 2050,
      "Ġcompany": 2051,
      "med": 2052,
      "ĠII": 2053,
      "jor": 2054,
      "ĠBri": 2055,
      "Ġdisc": 2056,
      "ĠBro": 2057,
      "war": 2058,
      "go": 2059,
      "ax": 2060,
      "ĠFra": 2061,
      "Ġprote": 2062,
      "Ġweek": 2063,
      "tage": 2064,
      "ĠAss": 2065,
      "Ġreally": 2066,
      "alls": 2067,
      "ones": 2068,
      "aires": 2069,
      "ience": 2070,
      "ĠPoli": 2071,
      "Ġarea": 2072,
      "arch": 2073,
      "ĠDi": 2074,
      "Ġtechn": 2075,
      "ett": 2076,
      "ada": 2077,
      "ĠOff": 2078,
      "ries": 2079,
      "illion": 2080,
      "dit": 2081,
      "alite": 2082,
      "eur": 2083,
      "Ġdra": 2084,
      "Ġseries": 2085,
      "Ġcri": 2086,
      "ender": 2087,
      "ĠEs": 2088,
      "ĠOct": 2089,
      "www": 2090,
      "Ġ50": 2091,
      "Ġ22": 2092,
      "nder": 2093,
      "Ġ=": 2094,
      "Ġair": 2095,
      "ĠChe": 2096,
      "ober": 2097,
      "Ġwater": 2098,
      "piel": 2099,
      "Ġ2009": 2100,
      "Ġgame": 2101,
      "Ġkm": 2102,
      "lier": 2103,
      "Ġho": 2104,
      "lev": 2105,
      "oph": 2106,
      "ism": 2107,
      "Ġhead": 2108,
      "ĠStates": 2109,
      "ĠSan": 2110,
      "Ġfew": 2111,
      "Ġagainst": 2112,
      "ently": 2113,
      "Al": 2114,
      "ĠAu": 2115,
      "aly": 2116,
      "ĠNorth": 2117,
      "ros": 2118,
      "yl": 2119,
      "Ġpower": 2120,
      "ĠSer": 2121,
      "arbe": 2122,
      "Ġbien": 2123,
      "En": 2124,
      "70": 2125,
      "ids": 2126,
      "Ġincre": 2127,
      "Ġdata": 2128,
      "Ġorder": 2129,
      "Ġaussi": 2130,
      "ĠNot": 2131,
      "Ġappro": 2132,
      "ared": 2133,
      "Ġocc": 2134,
      "Ġseason": 2135,
      "Ġcustom": 2136,
      "Ġhealth": 2137,
      ",<": 2138,
      "ras": 2139,
      "sts": 2140,
      "imes": 2141,
      "Ġold": 2142,
      "val": 2143,
      "rew": 2144,
      "fahr": 2145,
      "Ġont": 2146,
      "iele": 2147,
      "ĠJohn": 2148,
      "Ġplan": 2149,
      "Ġdam": 2150,
      "Ġname": 2151,
      "pport": 2152,
      "Ġsince": 2153,
      "ommen": 2154,
      "ĠRep": 2155,
      "des": 2156,
      "Ġ2008": 2157,
      "ander": 2158,
      "ush": 2159,
      "Ġnou": 2160,
      "uit": 2161,
      "IC": 2162,
      "amer": 2163,
      "US": 2164,
      "pi": 2165,
      "temp": 2166,
      "29": 2167,
      "ĠThere": 2168,
      "Ġvom": 2169,
      "Ġlinks": 2170,
      "Ġlang": 2171,
      "ublic": 2172,
      "pec": 2173,
      "ĠDu": 2174,
      "RE": 2175,
      "Ġmal": 2176,
      "vernment": 2177,
      "ding": 2178,
      "Ġtrai": 2179,
      "leich": 2180,
      "iet": 2181,
      "Ġconta": 2182,
      "utes": 2183,
      "ĠLu": 2184,
      "Ġbel": 2185,
      "opp": 2186,
      "weise": 2187,
      "Ġtoo": 2188,
      "Ġfriend": 2189,
      "__": 2190,
      "ulture": 2191,
      "Ġtit": 2192,
      "eben": 2193,
      "iger": 2194,
      "ĠCity": 2195,
      "ium": 2196,
      "45": 2197,
      "Ġref": 2198,
      "ulti": 2199,
      "ĠKo": 2200,
      "ĠHar": 2201,
      "aper": 2202,
      "Ġwebs": 2203,
      "ĠDis": 2204,
      "ague": 2205,
      "gu": 2206,
      "ential": 2207,
      "Ġval": 2208,
      "Ġimportant": 2209,
      "Ġpay": 2210,
      "Ei": 2211,
      "ĠCor": 2212,
      "mail": 2213,
      "ibt": 2214,
      "oney": 2215,
      "Ġgoing": 2216,
      "gru": 2217,
      "ided": 2218,
      "osed": 2219,
      "rict": 2220,
      "Ġhapp": 2221,
      "fol": 2222,
      "ĠâĤ¬": 2223,
      "Ġsupport": 2224,
      "ĠWeb": 2225,
      "ager": 2226,
      "ament": 2227,
      "ĠDOC": 2228,
      "ront": 2229,
      "Ġsk": 2230,
      "Ġlater": 2231,
      "Ġlaw": 2232,
      "tement": 2233,
      "Ġwithout": 2234,
      "Ġuntil": 2235,
      "my": 2236,
      "room": 2237,
      "ino": 2238,
      "ĠPark": 2239,
      "ĠCounty": 2240,
      "Ġgroup": 2241,
      "otes": 2242,
      "ĠParis": 2243,
      "Ġfut": 2244,
      "ustrali": 2245,
      "Les": 2246,
      "AC": 2247,
      "right": 2248,
      "Ġmusic": 2249,
      "Ġaccess": 2250,
      "oo": 2251,
      "Ġplayers": 2252,
      "ĠMy": 2253,
      "Ġdou": 2254,
      "chie": 2255,
      "bed": 2256,
      "Ġgew": 2257,
      "Ġsever": 2258,
      "ige": 2259,
      "ĠAir": 2260,
      "Ġnear": 2261,
      "35": 2262,
      "Ġsay": 2263,
      "Ġbed": 2264,
      "qui": 2265,
      "tali": 2266,
      "Ġlet": 2267,
      "ĠSpe": 2268,
      "Ġknown": 2269,
      "Ġsow": 2270,
      "ttle": 2271,
      "ande": 2272,
      "gli": 2273,
      "Ġtrou": 2274,
      "ĠZeit": 2275,
      "ĠFin": 2276,
      "Ġlarge": 2277,
      "ticle": 2278,
      "It": 2279,
      "ĠWest": 2280,
      "ĠMarch": 2281,
      "ĠFe": 2282,
      "ĠMark": 2283,
      "ĠHa": 2284,
      "wards": 2285,
      "ducation": 2286,
      "Ġwithi": 2287,
      "Ġwithin": 2288,
      "Ġhouse": 2289,
      "unden": 2290,
      "ternet": 2291,
      "Ġsci": 2292,
      "thing": 2293,
      "dt": 2294,
      "Ġland": 2295,
      "Ġ28": 2296,
      "ately": 2297,
      "\":": 2298,
      "cont": 2299,
      "rong": 2300,
      "Ġfull": 2301,
      "rin": 2302,
      "Ġbeau": 2303,
      "Ġanother": 2304,
      "Ġprogram": 2305,
      "etzt": 2306,
      "Ġinv": 2307,
      "ae": 2308,
      "Ġlevel": 2309,
      "He": 2310,
      "78": 2311,
      "lock": 2312,
      "ischer": 2313,
      "Ġ26": 2314,
      "ĠBes": 2315,
      "Ġwrit": 2316,
      "nf": 2317,
      "Ġsuccess": 2318,
      "Ġpartic": 2319,
      "Ġrecord": 2320,
      "glich": 2321,
      "LE": 2322,
      "iles": 2323,
      "time": 2324,
      "Ġchange": 2325,
      "col": 2326,
      "tish": 2327,
      "ural": 2328,
      "ĠJanuary": 2329,
      "osted": 2330,
      "Ġpoint": 2331,
      "ĠSa": 2332,
      "ser": 2333,
      "alement": 2334,
      "din": 2335,
      "Ġguide": 2336,
      "Ġuti": 2337,
      "ĠVor": 2338,
      "cember": 2339,
      "mal": 2340,
      "Ġgrand": 2341,
      "Ġkeep": 2342,
      "Ġlittle": 2343,
      ">-": 2344,
      "Ġsoll": 2345,
      "ĠAf": 2346,
      "chni": 2347,
      "ummer": 2348,
      "ĠVi": 2349,
      "Ġnext": 2350,
      "Ġ2007": 2351,
      "01": 2352,
      "ĠWith": 2353,
      "ĠMu": 2354,
      "Ġrest": 2355,
      "Ġtro": 2356,
      "tens": 2357,
      "Ġfem": 2358,
      "Com": 2359,
      "ĠSaint": 2360,
      "Ġmust": 2361,
      "Ġcome": 2362,
      "Ġline": 2363,
      "ering": 2364,
      "Ġthings": 2365,
      "Ġleg": 2366,
      "ĠBra": 2367,
      "Ġ27": 2368,
      "Ġfaire": 2369,
      "ĠEurope": 2370,
      "Ġsy": 2371,
      "amed": 2372,
      "ela": 2373,
      "ills": 2374,
      "Ġview": 2375,
      "ĠJune": 2376,
      "Ġhard": 2377,
      "Ġ>": 2378,
      "Ġdays": 2379,
      "Ġbased": 2380,
      "ĠKar": 2381,
      "Ġrel": 2382,
      "Ġexperience": 2383,
      "lein": 2384,
      "Ġrou": 2385,
      "Ġprac": 2386,
      "ĠDo": 2387,
      "ires": 2388,
      "zeit": 2389,
      "Ġvari": 2390,
      "Ġalbum": 2391,
      "]<": 2392,
      "scha": 2393,
      "los": 2394,
      "Ġlocal": 2395,
      "Ġproper": 2396,
      "Ġstru": 2397,
      "viron": 2398,
      "=\"": 2399,
      "Ġwieder": 2400,
      "erk": 2401,
      "zu": 2402,
      "ĠHigh": 2403,
      "ĠOctober": 2404,
      "cing": 2405,
      "enne": 2406,
      "allen": 2407,
      "cken": 2408,
      "33": 2409,
      "Ġess": 2410,
      "rer": 2411,
      "ource": 2412,
      "heit": 2413,
      "ĠChris": 2414,
      "Ġcurrent": 2415,
      "Be": 2416,
      "Ġcost": 2417,
      "ĠEl": 2418,
      "omi": 2419,
      "Ġindust": 2420,
      "Ġcompe": 2421,
      "ville": 2422,
      "Ġevent": 2423,
      "utions": 2424,
      "95": 2425,
      "Ġjus": 2426,
      "Ġcho": 2427,
      "As": 2428,
      "ieren": 2429,
      "Ġpersonn": 2430,
      "lag": 2431,
      "enz": 2432,
      "Ġalways": 2433,
      "Ġ.<": 2434,
      "xim": 2435,
      "Ġchang": 2436,
      "jet": 2437,
      "Ġleur": 2438,
      "ichte": 2439,
      "Ġfootball": 2440,
      "leg": 2441,
      "Ġmag": 2442,
      "ĠAnn": 2443,
      "ĠInter": 2444,
      "Ġconstru": 2445,
      "ember": 2446,
      "Ġapplic": 2447,
      "ĠStre": 2448,
      "Sch": 2449,
      "05": 2450,
      "inder": 2451,
      "ara": 2452,
      "Ġindivid": 2453,
      "ĠJuly": 2454,
      "ĠFebruary": 2455,
      "Ġfac": 2456,
      "Ġbig": 2457,
      "ites": 2458,
      "ĠSec": 2459,
      "ĠTer": 2460,
      "las": 2461,
      "met": 2462,
      "thers": 2463,
      "back": 2464,
      "Ġfra": 2465,
      "apan": 2466,
      "ĠKon": 2467,
      ",\"": 2468,
      ".âĢĿ": 2469,
      "ying": 2470,
      "pect": 2471,
      "Ġjed": 2472,
      "ething": 2473,
      "Ġdeli": 2474,
      "Ġ%": 2475,
      "Ġbetter": 2476,
      "bst": 2477,
      "Ġchildren": 2478,
      "vious": 2479,
      "ĠHand": 2480,
      "Ġbir": 2481,
      "Ġwebsite": 2482,
      "ison": 2483,
      "Ġconsider": 2484,
      "Ġinte": 2485,
      "Ġcamp": 2486,
      "tait": 2487,
      "Ġroom": 2488,
      "75": 2489,
      "itte": 2490,
      "Ġalong": 2491,
      "Ġsuper": 2492,
      "osten": 2493,
      "Ġfiles": 2494,
      "lude": 2495,
      "hren": 2496,
      "ditions": 2497,
      "Ġfollowing": 2498,
      "vre": 2499,
      "ists": 2500,
      "tine": 2501,
      "Ġfranc": 2502,
      "table": 2503,
      "ults": 2504,
      "Ġint": 2505,
      "fication": 2506,
      "Ġ?": 2507,
      "Li": 2508,
      "bes": 2509,
      "uk": 2510,
      "Ġnever": 2511,
      "bin": 2512,
      "Ġwri": 2513,
      "ery": 2514,
      "Ġgar": 2515,
      "mann": 2516,
      "yd": 2517,
      "Ġpeut": 2518,
      "ĠâĢĺ": 2519,
      "ived": 2520,
      "ix": 2521,
      "Ad": 2522,
      "Ġdar": 2523,
      "03": 2524,
      "Ġless": 2525,
      "Ġaddition": 2526,
      "ĠRa": 2527,
      "uck": 2528,
      "oins": 2529,
      "ression": 2530,
      "Ġ!": 2531,
      "Ġhier": 2532,
      "Ġmer": 2533,
      "Ġ2006": 2534,
      "ĠDecember": 2535,
      "ga": 2536,
      "olf": 2537,
      "Ġtru": 2538,
      "Ġcity": 2539,
      "Ġtry": 2540,
      "tei": 2541,
      "ĠSpiel": 2542,
      "06": 2543,
      "ĠMal": 2544,
      "Ġmajor": 2545,
      "ument": 2546,
      "ops": 2547,
      "Ġestab": 2548,
      "zed": 2549,
      "ĠMod": 2550,
      "Ġcalled": 2551,
      "Ġwomen": 2552,
      "raft": 2553,
      "02": 2554,
      "Ġprovide": 2555,
      "lai": 2556,
      "04": 2557,
      "ori": 2558,
      "dic": 2559,
      "emei": 2560,
      "atures": 2561,
      "Ġjourn": 2562,
      "Ġseveral": 2563,
      "Der": 2564,
      "ateg": 2565,
      "ghts": 2566,
      "haus": 2567,
      "Ġbo": 2568,
      "ĠFl": 2569,
      "ĠVers": 2570,
      "ought": 2571,
      "itt": 2572,
      "ement": 2573,
      "âĢĶ": 2574,
      "ĠState": 2575,
      "Ġcover": 2576,
      "osp": 2577,
      "tier": 2578,
      "ĠMc": 2579,
      "minist": 2580,
      "uation": 2581,
      "amen": 2582,
      "Ġdann": 2583,
      "ĠSw": 2584,
      "ama": 2585,
      "Ġsw": 2586,
      "Ġelle": 2587,
      "hne": 2588,
      "ED": 2589,
      "Ġbar": 2590,
      ">Â": 2591,
      "iving": 2592,
      "pis": 2593,
      "ample": 2594,
      "Ġsong": 2595,
      "Ġequ": 2596,
      "Ġreview": 2597,
      "uter": 2598,
      "Ġgrow": 2599,
      "mar": 2600,
      "Ġput": 2601,
      "gest": 2602,
      "07": 2603,
      "ondon": 2604,
      "Ġrele": 2605,
      "ĠEd": 2606,
      "Ġers": 2607,
      "hand": 2608,
      "hin": 2609,
      "ĠBre": 2610,
      "Ġmembers": 2611,
      "Ġfact": 2612,
      "08": 2613,
      "ources": 2614,
      "gne": 2615,
      "ĠBas": 2616,
      "ppe": 2617,
      "Ġable": 2618,
      "ĠDav": 2619,
      "Ġlot": 2620,
      "ored": 2621,
      "vely": 2622,
      "Ġsex": 2623,
      "agen": 2624,
      "leb": 2625,
      "ains": 2626,
      "iden": 2627,
      "ĠGerman": 2628,
      "lob": 2629,
      "ĠAustrali": 2630,
      "ĠHome": 2631,
      "External": 2632,
      "Ġdro": 2633,
      "Ġwa": 2634,
      "Ġsure": 2635,
      "ĠChrist": 2636,
      "nst": 2637,
      "Ġ29": 2638,
      "ube": 2639,
      "Ġcla": 2640,
      "36": 2641,
      "ĠProdu": 2642,
      "gel": 2643,
      "tal": 2644,
      "Ġresearch": 2645,
      "Ġpou": 2646,
      "ump": 2647,
      "lage": 2648,
      "irc": 2649,
      "Ġpossible": 2650,
      "Ġgot": 2651,
      "Ġstart": 2652,
      "comp": 2653,
      "etwork": 2654,
      "son": 2655,
      "tte": 2656,
      "Ġgegen": 2657,
      "Ġgive": 2658,
      "Ġleft": 2659,
      "Ġpie": 2660,
      "Ġsomething": 2661,
      "wick": 2662,
      "Ġlist": 2663,
      "ham": 2664,
      "rt": 2665,
      "ĠVol": 2666,
      "ables": 2667,
      "lick": 2668,
      "EL": 2669,
      "ĠSm": 2670,
      "artment": 2671,
      "lung": 2672,
      "rier": 2673,
      "Se": 2674,
      "Ġcertain": 2675,
      ">âĢľ": 2676,
      "ociation": 2677,
      "ĠDep": 2678,
      "AM": 2679,
      "tian": 2680,
      "09": 2681,
      "ect": 2682,
      "Ġstyle": 2683,
      "Ġsocial": 2684,
      "48": 2685,
      "agne": 2686,
      "bu": 2687,
      "Ġtour": 2688,
      "Ġpage": 2689,
      "fts": 2690,
      "Ġtrav": 2691,
      "ĠGro": 2692,
      "za": 2693,
      "Ġpeu": 2694,
      "Ġbelie": 2695,
      "Ġenc": 2696,
      "Ġsehr": 2697,
      "lec": 2698,
      "Ġ...<": 2699,
      "OS": 2700,
      "Ġwenn": 2701,
      "Ġworking": 2702,
      "Ġelect": 2703,
      "ography": 2704,
      "For": 2705,
      "Ġmom": 2706,
      "esse": 2707,
      "teil": 2708,
      "ized": 2709,
      "ford": 2710,
      "ĠPra": 2711,
      "aille": 2712,
      "sy": 2713,
      "Ġviel": 2714,
      "199": 2715,
      "Ġdeath": 2716,
      "stra": 2717,
      "ĠIS": 2718,
      "ĠBo": 2719,
      "ker": 2720,
      "Ġcharac": 2721,
      "mon": 2722,
      "ardi": 2723,
      "Ġhal": 2724,
      "rs": 2725,
      "isse": 2726,
      "ĠSchw": 2727,
      "ĠDies": 2728,
      "Ġmaking": 2729,
      "Ġbecame": 2730,
      "ĠHol": 2731,
      "Ġ:<": 2732,
      "irt": 2733,
      "Ġearly": 2734,
      "38": 2735,
      "Te": 2736,
      "reis": 2737,
      "Ġali": 2738,
      "chi": 2739,
      "cept": 2740,
      "issance": 2741,
      "ests": 2742,
      "do": 2743,
      "umb": 2744,
      "ules": 2745,
      "Ġinclude": 2746,
      "Ġtyp": 2747,
      "ference": 2748,
      "Ġfood": 2749,
      "Ġhom": 2750,
      "oints": 2751,
      "ream": 2752,
      "isten": 2753,
      "rage": 2754,
      "Ġatta": 2755,
      "Ġsans": 2756,
      "ky": 2757,
      "Ġcontrol": 2758,
      "illage": 2759,
      "nner": 2760,
      "Ġsous": 2761,
      "You": 2762,
      "vin": 2763,
      "ĠAg": 2764,
      "ĠMich": 2765,
      "heim": 2766,
      "inn": 2767,
      "ines": 2768,
      "Ġcase": 2769,
      "49": 2770,
      "light": 2771,
      "ĠBet": 2772,
      "Ġclub": 2773,
      "Ġwurden": 2774,
      "Ġinternational": 2775,
      "If": 2776,
      "ende": 2777,
      "ateur": 2778,
      "ĠMin": 2779,
      "Ġjob": 2780,
      "Ġcourse": 2781,
      "ĠOne": 2782,
      "schaft": 2783,
      "ĠArt": 2784,
      "Ìĥ": 2785,
      "Ġcomplete": 2786,
      "46": 2787,
      "Ġstudents": 2788,
      "Ġmili": 2789,
      "obile": 2790,
      "chs": 2791,
      "orge": 2792,
      "Ġiden": 2793,
      "Ġdiese": 2794,
      "ĠRed": 2795,
      "Ġside": 2796,
      "ethod": 2797,
      "Ġris": 2798,
      "acy": 2799,
      "uin": 2800,
      "Ġhi": 2801,
      "ahn": 2802,
      "Ġallow": 2803,
      "ĠChamp": 2804,
      "Con": 2805,
      "Ġmodern": 2806,
      "Ġsingle": 2807,
      "Ġhistory": 2808,
      "urt": 2809,
      "Ġemploy": 2810,
      "Ġfol": 2811,
      "Ġpain": 2812,
      "Ġsowie": 2813,
      "ĠGod": 2814,
      "ÌĦ": 2815,
      "tige": 2816,
      "Ġsig": 2817,
      "mble": 2818,
      "Ġask": 2819,
      "Ġoften": 2820,
      "Ġoption": 2821,
      "ĠPres": 2822,
      "Ġmatch": 2823,
      "now": 2824,
      "55": 2825,
      "icher": 2826,
      "oma": 2827,
      "ĠMor": 2828,
      "Ġtable": 2829,
      "rick": 2830,
      "Ġ2005": 2831,
      "Ġmight": 2832,
      "ĠWir": 2833,
      "ĠFam": 2834,
      "ĠKing": 2835,
      "Ġeffec": 2836,
      "gie": 2837,
      "ĠGener": 2838,
      "gar": 2839,
      "ĠKu": 2840,
      "chei": 2841,
      "rz": 2842,
      "198": 2843,
      "ĠBy": 2844,
      "ĠRi": 2845,
      "\".": 2846,
      "OM": 2847,
      "ĠOp": 2848,
      "mas": 2849,
      "Ġdirect": 2850,
      "ttps": 2851,
      "vo": 2852,
      "ording": 2853,
      "ocus": 2854,
      "Ġtimes": 2855,
      "ĠHist": 2856,
      "ĠRuss": 2857,
      "ÌĮ": 2858,
      "Ġmulti": 2859,
      "Ġpa": 2860,
      "ĠTrans": 2861,
      "Ġblog": 2862,
      "Ġgovernment": 2863,
      "erei": 2864,
      "joy": 2865,
      "ĠWhen": 2866,
      "alen": 2867,
      "ĠBlack": 2868,
      "ĠDan": 2869,
      "oto": 2870,
      "Ġsl": 2871,
      "ĠStadt": 2872,
      "Ġstory": 2873,
      "Ġtoday": 2874,
      "Ġeng": 2875,
      "ĠLondon": 2876,
      "Ġvideo": 2877,
      "Ġeing": 2878,
      "Ġhaving": 2879,
      "Ġimpro": 2880,
      "Ġlui": 2881,
      "Ġteach": 2882,
      "zeich": 2883,
      "Ġweiter": 2884,
      "orf": 2885,
      "ĠInternational": 2886,
      "taur": 2887,
      "lected": 2888,
      "Ġpot": 2889,
      "ĠProf": 2890,
      "ĠCas": 2891,
      "Ġdevelopment": 2892,
      "ĠEnt": 2893,
      "Ġwel": 2894,
      "anne": 2895,
      "Ġdieser": 2896,
      "gine": 2897,
      "ĠHotel": 2898,
      "stu": 2899,
      "Ġfur": 2900,
      "Ġtype": 2901,
      "rd": 2902,
      "Ġcommunity": 2903,
      "fect": 2904,
      "tiques": 2905,
      "Ġces": 2906,
      "unic": 2907,
      "tigen": 2908,
      "Ġfav": 2909,
      "Ġreal": 2910,
      "Ġ2000": 2911,
      "ĠMer": 2912,
      "ftware": 2913,
      "ĠUnter": 2914,
      "Ġnational": 2915,
      "Ġphys": 2916,
      "Ġaway": 2917,
      "uge": 2918,
      "Ġmove": 2919,
      "vez": 2920,
      "band": 2921,
      "Ġ40": 2922,
      "cell": 2923,
      "cis": 2924,
      "Ġthough": 2925,
      "39": 2926,
      "ET": 2927,
      "ĠBerlin": 2928,
      ">|-": 2929,
      "unity": 2930,
      "entlich": 2931,
      "ĠYour": 2932,
      "ologie": 2933,
      "omb": 2934,
      "44": 2935,
      "Ġport": 2936,
      "oud": 2937,
      "rant": 2938,
      "Ġlive": 2939,
      "zer": 2940,
      "sent": 2941,
      "ahre": 2942,
      "lymp": 2943,
      "IL": 2944,
      "Ġlight": 2945,
      "tire": 2946,
      "irm": 2947,
      "Ġeines": 2948,
      "bel": 2949,
      "Ġihre": 2950,
      "37": 2951,
      "ability": 2952,
      "illes": 2953,
      "useum": 2954,
      "iod": 2955,
      "Ġtr": 2956,
      "ĠAfter": 2957,
      "ably": 2958,
      "Ġdeta": 2959,
      "ror": 2960,
      "ierung": 2961,
      "uel": 2962,
      "ake": 2963,
      "ĠDeutsch": 2964,
      "amin": 2965,
      "ĠRu": 2966,
      "Ġmor": 2967,
      "aff": 2968,
      "ĠPort": 2969,
      "Ġgames": 2970,
      "Ġpriv": 2971,
      "ye": 2972,
      "Ġmater": 2973,
      "Ġauthor": 2974,
      "Ġrespons": 2975,
      "ney": 2976,
      "ĠCons": 2977,
      "halten": 2978,
      "idence": 2979,
      "Ġquality": 2980,
      "urity": 2981,
      "Das": 2982,
      "Ġfar": 2983,
      "tisch": 2984,
      "ĠLin": 2985,
      "Ġappear": 2986,
      "self": 2987,
      "Ġtook": 2988,
      "Ġlog": 2989,
      "assen": 2990,
      "ĠHouse": 2991,
      "gether": 2992,
      "uelle": 2993,
      "rench": 2994,
      "cep": 2995,
      "65": 2996,
      "Ġtogether": 2997,
      "Ġreturn": 2998,
      "Ġgibt": 2999,
      "anks": 3000,
      "CH": 3001,
      "urb": 3002,
      ">(": 3003,
      "Ġtous": 3004,
      "chite": 3005,
      "Ġart": 3006,
      "ception": 3007,
      "Ġfer": 3008,
      "ID": 3009,
      "Â°": 3010,
      "ammen": 3011,
      "Ġschon": 3012,
      "ĠAnt": 3013,
      "Ġci": 3014,
      "ĠMag": 3015,
      "Ġversion": 3016,
      "Ġmarket": 3017,
      "ĠDon": 3018,
      "Ġzwei": 3019,
      "ĠTex": 3020,
      "ental": 3021,
      "mark": 3022,
      "Ġimmer": 3023,
      "Ġsav": 3024,
      "pon": 3025,
      "Ġlooking": 3026,
      "Sh": 3027,
      "Ġbecome": 3028,
      "ights": 3029,
      "Ġsimple": 3030,
      "Ġproducts": 3031,
      "Ġbody": 3032,
      "Ġproject": 3033,
      "tings": 3034,
      "Web": 3035,
      "ohl": 3036,
      "Ġmess": 3037,
      "ipp": 3038,
      "34": 3039,
      "Ġmoney": 3040,
      "urance": 3041,
      "Ġpati": 3042,
      "ĠUm": 3043,
      "tag": 3044,
      "ĠGar": 3045,
      "kin": 3046,
      "endant": 3047,
      "born": 3048,
      "oe": 3049,
      "ĠArbe": 3050,
      "fs": 3051,
      "arie": 3052,
      "ĠCe": 3053,
      "ĠSal": 3054,
      "Ġsix": 3055,
      "Ġrepres": 3056,
      "hm": 3057,
      "ured": 3058,
      "Ph": 3059,
      ".\"<": 3060,
      "va": 3061,
      "Ġstudy": 3062,
      "ĠRec": 3063,
      "ĠLou": 3064,
      "Ġenviron": 3065,
      "Ġcountry": 3066,
      "fl": 3067,
      "hile": 3068,
      "Ġdue": 3069,
      ">âĢ": 3070,
      "aute": 3071,
      "ĠJun": 3072,
      "Ġunderstand": 3073,
      "Ġabs": 3074,
      "OT": 3075,
      "iller": 3076,
      "ĠBel": 3077,
      "Ġna": 3078,
      "insi": 3079,
      ".\"": 3080,
      "Ġ2004": 3081,
      "Ġcomment": 3082,
      "Ġactiv": 3083,
      "rique": 3084,
      "duction": 3085,
      "ĠThat": 3086,
      "immer": 3087,
      "ĠBr": 3088,
      "Ġens": 3089,
      "ĠSur": 3090,
      "oren": 3091,
      "but": 3092,
      "uten": 3093,
      "Ġcontra": 3094,
      "ĠHis": 3095,
      "Ġfon": 3096,
      "ĠBest": 3097,
      "ĠPol": 3098,
      "Ġformer": 3099,
      "Ġbring": 3100,
      "over": 3101,
      "Ġpress": 3102,
      "Ġface": 3103,
      "opy": 3104,
      "Ġenter": 3105,
      "2018": 3106,
      "ogle": 3107,
      "ĠÐ": 3108,
      "abi": 3109,
      "ĠJoh": 3110,
      "Ġmir": 3111,
      "nia": 3112,
      "acht": 3113,
      "Ġbuilding": 3114,
      "ĠBa": 3115,
      "ĠWilli": 3116,
      "ridge": 3117,
      "Ġturn": 3118,
      "Sp": 3119,
      "tellt": 3120,
      "ĠPat": 3121,
      "ko": 3122,
      "ica": 3123,
      "31": 3124,
      "Ġseem": 3125,
      "ĠGeb": 3126,
      "Ġze": 3127,
      "Ġparticip": 3128,
      "abe": 3129,
      "essen": 3130,
      "alist": 3131,
      "ray": 3132,
      "Ġfaci": 3133,
      "ften": 3134,
      "Ġfeel": 3135,
      "Ġconse": 3136,
      "vention": 3137,
      "ĠCour": 3138,
      "Ġmid": 3139,
      "ically": 3140,
      "tellen": 3141,
      "Ġarti": 3142,
      "Ġ2020": 3143,
      "Ġdont": 3144,
      "ĠDist": 3145,
      "roup": 3146,
      "ographie": 3147,
      "ĠHowever": 3148,
      "How": 3149,
      "Ġcame": 3150,
      "Ġpresent": 3151,
      "ĠSci": 3152,
      "Ġengine": 3153,
      "Ġbra": 3154,
      "ĠJapan": 3155,
      "Ġvisit": 3156,
      "Ġyoung": 3157,
      "Ġfield": 3158,
      "estiv": 3159,
      "igital": 3160,
      "47": 3161,
      "Ġsus": 3162,
      "lt": 3163,
      "cke": 3164,
      "Ġweb": 3165,
      "keting": 3166,
      "Ver": 3167,
      "Ġage": 3168,
      "32": 3169,
      "Ġ31": 3170,
      "ivision": 3171,
      "ĠBi": 3172,
      "volution": 3173,
      "ael": 3174,
      "Ġwhe": 3175,
      "kte": 3176,
      "Ġmind": 3177,
      "orted": 3178,
      "ĠPerson": 3179,
      "chte": 3180,
      "ba": 3181,
      "odes": 3182,
      "ĠLo": 3183,
      "Ġkind": 3184,
      "aring": 3185,
      "Ġ(*": 3186,
      "ĠDr": 3187,
      "Ġsays": 3188,
      "anies": 3189,
      "ĠBur": 3190,
      "atis": 3191,
      "bau": 3192,
      "66": 3193,
      "rive": 3194,
      "Ġquel": 3195,
      "ĠDire": 3196,
      "Ġseine": 3197,
      "face": 3198,
      "ĠWhat": 3199,
      "ĠHam": 3200,
      "undes": 3201,
      "ĠMet": 3202,
      "ĠNews": 3203,
      "ĠDem": 3204,
      "lands": 3205,
      "ued": 3206,
      "jects": 3207,
      "uff": 3208,
      "Ġflo": 3209,
      "Ġhatte": 3210,
      "fach": 3211,
      "AP": 3212,
      "ena": 3213,
      "wh": 3214,
      "ĠFrank": 3215,
      "Par": 3216,
      "udio": 3217,
      "ĠLie": 3218,
      "Ġorganiz": 3219,
      "cel": 3220,
      "ĠEnglish": 3221,
      "ington": 3222,
      "Ġstarted": 3223,
      "ĠAfric": 3224,
      "imm": 3225,
      "aison": 3226,
      "tary": 3227,
      "):": 3228,
      "rences": 3229,
      "Ġblack": 3230,
      "uage": 3231,
      "Ġoriginal": 3232,
      "Ġminutes": 3233,
      "ĠBritish": 3234,
      "tition": 3235,
      "nah": 3236,
      "Ġanne": 3237,
      "ending": 3238,
      "Ġinvol": 3239,
      "ÃŁer": 3240,
      "ither": 3241,
      "Ġhistor": 3242,
      "Ġothers": 3243,
      "Ġfund": 3244,
      "Ġtreat": 3245,
      "Ġmiss": 3246,
      "Ġlow": 3247,
      "Ġzus": 3248,
      "Ġkey": 3249,
      "So": 3250,
      "cre": 3251,
      "ĠThese": 3252,
      "Ġmember": 3253,
      "Ġlearn": 3254,
      "Ġreleased": 3255,
      "ĠWind": 3256,
      "peci": 3257,
      "Ġprincip": 3258,
      "ĠQue": 3259,
      "Ġeasy": 3260,
      "ĠCollege": 3261,
      "Ġworks": 3262,
      "Ġdescri": 3263,
      "alifor": 3264,
      "zi": 3265,
      "Ġmillion": 3266,
      "ĠBook": 3267,
      "atural": 3268,
      "Ġplayed": 3269,
      "Ġwin": 3270,
      "Ġetc": 3271,
      "lique": 3272,
      "Ġdownload": 3273,
      "aler": 3274,
      "Ġbek": 3275,
      "Ġsens": 3276,
      "irl": 3277,
      "Ġbon": 3278,
      "ION": 3279,
      "Ġlors": 3280,
      "asser": 3281,
      "ĠOnline": 3282,
      "Ġanim": 3283,
      "isation": 3284,
      "Su": 3285,
      "otor": 3286,
      "Ġbase": 3287,
      "Ġrelations": 3288,
      "Ġsor": 3289,
      "omin": 3290,
      "ester": 3291,
      "Ġbr": 3292,
      "Ġwind": 3293,
      "Ġfinan": 3294,
      "ny": 3295,
      "Ġquestion": 3296,
      "Ġhuman": 3297,
      "annt": 3298,
      "Ġvie": 3299,
      "Ġcheck": 3300,
      "ases": 3301,
      "ĠPaul": 3302,
      "prise": 3303,
      "range": 3304,
      "ĠLeague": 3305,
      "ĠKom": 3306,
      "Ġpoints": 3307,
      "77": 3308,
      "Ġtradition": 3309,
      "Ġfinis": 3310,
      "Ġpat": 3311,
      "sen": 3312,
      "ĠJahre": 3313,
      "Ġever": 3314,
      "ura": 3315,
      "ram": 3316,
      "itter": 3317,
      "Ġcommer": 3318,
      "Ġheld": 3319,
      "Ġband": 3320,
      "anti": 3321,
      "Ġcha": 3322,
      "Ġanti": 3323,
      "ĠDay": 3324,
      "Ġlocated": 3325,
      "Ġfocus": 3326,
      "**": 3327,
      "ĠNord": 3328,
      "po": 3329,
      "ners": 3330,
      "Ġenjoy": 3331,
      "ĠTag": 3332,
      "Ġbene": 3333,
      "tention": 3334,
      "fort": 3335,
      "Ġcareer": 3336,
      "Ġproduction": 3337,
      "most": 3338,
      "alys": 3339,
      "ĠBen": 3340,
      "Ġposition": 3341,
      "galement": 3342,
      "Ġbeim": 3343,
      "dle": 3344,
      "ĠService": 3345,
      "Ġwhy": 3346,
      "Ġiniti": 3347,
      ");": 3348,
      "II": 3349,
      "rig": 3350,
      "nig": 3351,
      "Ġmode": 3352,
      "Ġnight": 3353,
      "Ġpast": 3354,
      "Ġtemps": 3355,
      "ĠCont": 3356,
      "ĠCap": 3357,
      "Ġperiod": 3358,
      "Ġfive": 3359,
      "loss": 3360,
      "What": 3361,
      "ucht": 3362,
      "ging": 3363,
      "ĠRich": 3364,
      "ĠRad": 3365,
      "ĠTV": 3366,
      "ĠBay": 3367,
      "ĠRoy": 3368,
      "'m": 3369,
      "Ġmis": 3370,
      "Ġbere": 3371,
      "Ġtw": 3372,
      "88": 3373,
      "ious": 3374,
      "Ġmean": 3375,
      "Ġneeds": 3376,
      "ĠSy": 3377,
      "ĠTeil": 3378,
      "ension": 3379,
      "ĠStra": 3380,
      "merican": 3381,
      "ĠAk": 3382,
      "Ġedition": 3383,
      "Ġcy": 3384,
      "New": 3385,
      "illed": 3386,
      "Ġacross": 3387,
      "Ġthird": 3388,
      "alog": 3389,
      "tiful": 3390,
      "Ġrepair": 3391,
      "ĠWi": 3392,
      "Ġextra": 3393,
      "ĠCenter": 3394,
      "ociety": 3395,
      "ĠStud": 3396,
      "Ġnombre": 3397,
      "Ġnature": 3398,
      "ground": 3399,
      "Ġeconom": 3400,
      "Ġohne": 3401,
      "Ġcall": 3402,
      "Ġ!<": 3403,
      "unch": 3404,
      "Ge": 3405,
      ",âĢĿ": 3406,
      "ĠFilm": 3407,
      "Ġ2003": 3408,
      "hips": 3409,
      "action": 3410,
      "OL": 3411,
      "Ġgran": 3412,
      "though": 3413,
      "ĠPost": 3414,
      "hrt": 3415,
      "Ġcontact": 3416,
      "AD": 3417,
      "gesch": 3418,
      "ounc": 3419,
      "ehmen": 3420,
      "ani": 3421,
      "Ġpopulation": 3422,
      "vor": 3423,
      "board": 3424,
      "Ġpur": 3425,
      "Ġnation": 3426,
      "uses": 3427,
      "azi": 3428,
      "ilder": 3429,
      "ĠAls": 3430,
      "bl": 3431,
      "Je": 3432,
      "cin": 3433,
      "cu": 3434,
      "Ġcreate": 3435,
      "Ġfore": 3436,
      "gre": 3437,
      "cor": 3438,
      "estern": 3439,
      "br": 3440,
      "ĠSim": 3441,
      "Ġel": 3442,
      "Ġhttp": 3443,
      "omas": 3444,
      "EC": 3445,
      "Ġtest": 3446,
      "vier": 3447,
      "Ġpack": 3448,
      "Ġparticular": 3449,
      "Ġsigni": 3450,
      "ĠDesign": 3451,
      "ĠAcc": 3452,
      "Ġgiven": 3453,
      "ned": 3454,
      "ready": 3455,
      "Ìģ.": 3456,
      "ĠSuper": 3457,
      "Ġmat": 3458,
      "ruck": 3459,
      "ya": 3460,
      "ĠAc": 3461,
      "ticles": 3462,
      "wood": 3463,
      "ogen": 3464,
      "Ġposi": 3465,
      "Ġfilms": 3466,
      "Ġspecial": 3467,
      "Ġmu": 3468,
      "wend": 3469,
      "Ġcm": 3470,
      "ĠSystem": 3471,
      "part": 3472,
      "Ġinstru": 3473,
      "ĠMat": 3474,
      "cover": 3475,
      "Ġcommon": 3476,
      "Me": 3477,
      "Ġhabe": 3478,
      "2019": 3479,
      "Ġrecomm": 3480,
      "Ġrange": 3481,
      "ĠKir": 3482,
      "Mar": 3483,
      "aken": 3484,
      "ĠJean": 3485,
      "nie": 3486,
      "emp": 3487,
      "Ġquestions": 3488,
      "ĠJuli": 3489,
      "Ġword": 3490,
      "Ġtax": 3491,
      "Åĵ": 3492,
      "Ġseiner": 3493,
      "itch": 3494,
      "zie": 3495,
      "Ġdate": 3496,
      "ives": 3497,
      "Ġtotal": 3498,
      "tische": 3499,
      "Ġdone": 3500,
      "aps": 3501,
      "Ġreceived": 3502,
      "hili": 3503,
      "Ġspace": 3504,
      "ĠDa": 3505,
      "ols": 3506,
      "100": 3507,
      "Ġdom": 3508,
      "lobal": 3509,
      "Ġainsi": 3510,
      "Ġexample": 3511,
      "Ġchamp": 3512,
      "Ġmakes": 3513,
      "And": 3514,
      "Ġhold": 3515,
      "Ġpor": 3516,
      "ĠTri": 3517,
      "ĠSing": 3518,
      "ĠMont": 3519,
      "Ġapre": 3520,
      "Ġstation": 3521,
      "Ġproduct": 3522,
      "Ġwent": 3523,
      "Ġpersonal": 3524,
      "oring": 3525,
      "Ġcro": 3526,
      "Ġti": 3527,
      "http": 3528,
      "Ġmeans": 3529,
      "lam": 3530,
      "ĠOur": 3531,
      "Ġappe": 3532,
      "ĠJahren": 3533,
      "avy": 3534,
      "Ġsal": 3535,
      "Ġcollection": 3536,
      "Ġintro": 3537,
      "usion": 3538,
      "aker": 3539,
      "lies": 3540,
      "ĠStar": 3541,
      "mbre": 3542,
      "ĠCanada": 3543,
      "ilar": 3544,
      "Ġmonths": 3545,
      "ellen": 3546,
      "ĠTur": 3547,
      "Ġbuilt": 3548,
      "site": 3549,
      "ĠFer": 3550,
      "ico": 3551,
      "Ġthing": 3552,
      "ffen": 3553,
      "Ġinform": 3554,
      "Ġdiffic": 3555,
      "Ġliving": 3556,
      "cies": 3557,
      "ST": 3558,
      "Ġprofessional": 3559,
      "OU": 3560,
      "Hist": 3561,
      "Ġamong": 3562,
      "Ġkeine": 3563,
      "ĠClub": 3564,
      "76": 3565,
      "Ġ2002": 3566,
      "Ġstrate": 3567,
      "alise": 3568,
      "iture": 3569,
      "field": 3570,
      "ators": 3571,
      "tives": 3572,
      "ĠAns": 3573,
      "ĠWork": 3574,
      "ĠBau": 3575,
      "mission": 3576,
      "Ġeur": 3577,
      "Ġcirc": 3578,
      "All": 3579,
      "ials": 3580,
      "ĠSex": 3581,
      "ape": 3582,
      "erne": 3583,
      "Ġfinal": 3584,
      "Pe": 3585,
      "Ġcontre": 3586,
      "Ġbegan": 3587,
      "Ġfuture": 3588,
      "ĠInstit": 3589,
      "vert": 3590,
      "2017": 3591,
      "aby": 3592,
      "Ġlik": 3593,
      "Ġzwischen": 3594,
      "ĠGesch": 3595,
      "Ġspecific": 3596,
      "ĠSol": 3597,
      "Ġquick": 3598,
      "ells": 3599,
      "Ġgeb": 3600,
      "sych": 3601,
      "Ġmethod": 3602,
      "gion": 3603,
      "Ġfru": 3604,
      "Des": 3605,
      "ket": 3606,
      "ĠOf": 3607,
      "dio": 3608,
      "ufact": 3609,
      "Ġseit": 3610,
      "See": 3611,
      "áĦ": 3612,
      "ĠMore": 3613,
      "zon": 3614,
      "Ġonce": 3615,
      "Ġ60": 3616,
      "56": 3617,
      "ĠEt": 3618,
      "áħ": 3619,
      "iding": 3620,
      "ĠInternet": 3621,
      "ĠPour": 3622,
      "Ġbelow": 3623,
      "tains": 3624,
      "Ġsouth": 3625,
      "ĠKe": 3626,
      "ĠTre": 3627,
      "Ġregion": 3628,
      "Ġpremier": 3629,
      "pped": 3630,
      "rest": 3631,
      "58": 3632,
      "ĠOk": 3633,
      "was": 3634,
      "oul": 3635,
      "Ġnorth": 3636,
      "ented": 3637,
      "ano": 3638,
      "car": 3639,
      "'re": 3640,
      "Ġleast": 3641,
      "Ġmuss": 3642,
      "nov": 3643,
      "iction": 3644,
      "59": 3645,
      "Ġmanagement": 3646,
      "attle": 3647,
      "Ġpublished": 3648,
      "ĠForm": 3649,
      "ĠWelt": 3650,
      "ĠTour": 3651,
      "hnen": 3652,
      "Ġpurch": 3653,
      "hol": 3654,
      "BN": 3655,
      "ledge": 3656,
      "Ġoffice": 3657,
      "Ab": 3658,
      "Ġmonth": 3659,
      "Ġunivers": 3660,
      "cas": 3661,
      "ku": 3662,
      "Ġarticle": 3663,
      "ĠUhr": 3664,
      "Ġadv": 3665,
      "Ġquali": 3666,
      "Ġber": 3667,
      "Ġmoment": 3668,
      "ago": 3669,
      "Notes": 3670,
      "Ġalready": 3671,
      "Ġvarious": 3672,
      "Ġ2001": 3673,
      "Im": 3674,
      "Ġperformance": 3675,
      "Ġmass": 3676,
      "Ġunique": 3677,
      "links": 3678,
      "Ġopport": 3679,
      "ida": 3680,
      "ĠWer": 3681,
      "Ġutili": 3682,
      "opa": 3683,
      "da": 3684,
      "zy": 3685,
      "Ġvia": 3686,
      "Ġenough": 3687,
      "ĠBed": 3688,
      "Ġju": 3689,
      "Ġbit": 3690,
      "ĠStreet": 3691,
      "arden": 3692,
      "alifornia": 3693,
      "estival": 3694,
      "ĠPla": 3695,
      "ĠProgra": 3696,
      "Il": 3697,
      "Ġsimp": 3698,
      "Ġmes": 3699,
      "Ġnews": 3700,
      "Ġnotre": 3701,
      "Ġhours": 3702,
      "Ġdepuis": 3703,
      "ĠMens": 3704,
      "EM": 3705,
      "Ġsound": 3706,
      "atre": 3707,
      "Ġbeg": 3708,
      "ini": 3709,
      "Ġtraining": 3710,
      "Ġpuis": 3711,
      "ĠDen": 3712,
      "Ġprob": 3713,
      "Ġperfect": 3714,
      "Ġwaren": 3715,
      "iques": 3716,
      "Ġculture": 3717,
      "ĠPal": 3718,
      "Ġspa": 3719,
      "Ġcompanies": 3720,
      "ĠTop": 3721,
      "Ġjou": 3722,
      "ĠDavid": 3723,
      "lieÃŁ": 3724,
      "ĠFlor": 3725,
      "ĠInformation": 3726,
      "pper": 3727,
      "Ġwhite": 3728,
      "resse": 3729,
      "Ġclaim": 3730,
      "Ġvillage": 3731,
      "Ġpol": 3732,
      "Ġfois": 3733,
      "Ġten": 3734,
      "Ġmedia": 3735,
      "Pre": 3736,
      "Ġcharacter": 3737,
      "pf": 3738,
      "aden": 3739,
      "nge": 3740,
      "ĠSen": 3741,
      "Ġjoin": 3742,
      "Ġgre": 3743,
      "yste": 3744,
      "esting": 3745,
      "ĠMac": 3746,
      "Ġtalk": 3747,
      "rise": 3748,
      "43": 3749,
      "ĠInc": 3750,
      "Ġbuy": 3751,
      "Ġdiscuss": 3752,
      "Ġill": 3753,
      "die": 3754,
      "isc": 3755,
      "Ġfeatures": 3756,
      "oses": 3757,
      "Ġpict": 3758,
      "chan": 3759,
      "Ġcode": 3760,
      "Ġpan": 3761,
      "Ġfriends": 3762,
      "----": 3763,
      "ĠMai": 3764,
      "nning": 3765,
      "Ġnetwork": 3766,
      "quipe": 3767,
      "Ġsize": 3768,
      "hind": 3769,
      "ĠJack": 3770,
      "Ġrequire": 3771,
      "79": 3772,
      "Ġannoun": 3773,
      "Ġsuff": 3774,
      "Ġprice": 3775,
      "ĠPlan": 3776,
      "tellung": 3777,
      "ĠUp": 3778,
      "nung": 3779,
      "Ġstrong": 3780,
      "ĠTechn": 3781,
      "arin": 3782,
      "Ġvos": 3783,
      "Ġtechni": 3784,
      "tended": 3785,
      "zw": 3786,
      "fr": 3787,
      "ands": 3788,
      "rab": 3789,
      "hab": 3790,
      "ĠAmerica": 3791,
      "unde": 3792,
      "ief": 3793,
      "ĠNor": 3794,
      "hrer": 3795,
      "entre": 3796,
      "jour": 3797,
      "ĠSam": 3798,
      "zent": 3799,
      "Ġborn": 3800,
      "dom": 3801,
      "ĠOut": 3802,
      "Ġpaper": 3803,
      "andid": 3804,
      "Ġpromo": 3805,
      "tein": 3806,
      "Ġsug": 3807,
      "Ġclear": 3808,
      "Ġaller": 3809,
      "Ġmonde": 3810,
      "pond": 3811,
      "ichts": 3812,
      "Ġgetting": 3813,
      "Ġled": 3814,
      "ological": 3815,
      "Ġthought": 3816,
      "ĠBei": 3817,
      "Ġincluded": 3818,
      "tischen": 3819,
      "Ġnorm": 3820,
      "ĠCre": 3821,
      "Ġgut": 3822,
      "Ġcours": 3823,
      "ouncil": 3824,
      "ĠPf": 3825,
      "Ġabove": 3826,
      "levision": 3827,
      "hem": 3828,
      "Ġpremie": 3829,
      "hing": 3830,
      "lit": 3831,
      "42": 3832,
      "ĠPart": 3833,
      "Ġlate": 3834,
      "Ġresults": 3835,
      "ĠGrand": 3836,
      "ina": 3837,
      "ĠCou": 3838,
      "bild": 3839,
      "Ġshare": 3840,
      "Ġindustry": 3841,
      "Ġcomes": 3842,
      "uz": 3843,
      "Ġgel": 3844,
      "Ġpopular": 3845,
      "Ġener": 3846,
      "Ġdonne": 3847,
      "ĠHealth": 3848,
      "Ġimm": 3849,
      "Ġfit": 3850,
      "Ġevents": 3851,
      "Ġproblem": 3852,
      "Ġcontrib": 3853,
      "Ġtown": 3854,
      "richt": 3855,
      "itchen": 3856,
      "ĠGemei": 3857,
      "Ġclean": 3858,
      "tively": 3859,
      "68": 3860,
      "ewe": 3861,
      "Ġregard": 3862,
      "Ġemail": 3863,
      "Ġcommunic": 3864,
      "ĠâĢ¢": 3865,
      "Ġents": 3866,
      "rus": 3867,
      "ĠAlex": 3868,
      "othe": 3869,
      "ĠGeneral": 3870,
      "gg": 3871,
      "ĠCal": 3872,
      "times": 3873,
      "HE": 3874,
      "Ġaddress": 3875,
      "ads": 3876,
      "Ġinves": 3877,
      "ĠPlay": 3878,
      "Ġfront": 3879,
      "ĠZu": 3880,
      "ĠBru": 3881,
      "âĤ¬": 3882,
      "gress": 3883,
      "augh": 3884,
      "Ġbef": 3885,
      "abei": 3886,
      "Ġsche": 3887,
      "ING": 3888,
      "Ġsent": 3889,
      "Ġcra": 3890,
      "Ġcreated": 3891,
      "Ġbooks": 3892,
      "antes": 3893,
      "ĠLaw": 3894,
      "Ġfast": 3895,
      "Ġhalf": 3896,
      "ised": 3897,
      "There": 3898,
      "Ġitem": 3899,
      "ĠOb": 3900,
      "ĠStand": 3901,
      "ĠIndia": 3902,
      "Ġ@": 3903,
      "Ġcontent": 3904,
      "Ġprevious": 3905,
      "Ġfavor": 3906,
      "Ġparty": 3907,
      "ĠFrench": 3908,
      "mie": 3909,
      "Ġcook": 3910,
      "zo": 3911,
      "Ġalors": 3912,
      "anger": 3913,
      "Ġfeature": 3914,
      "arge": 3915,
      "aise": 3916,
      "Ġareas": 3917,
      "igne": 3918,
      "ĠVe": 3919,
      "iff": 3920,
      "ĠChina": 3921,
      "41": 3922,
      "Ġhon": 3923,
      "isen": 3924,
      "ierte": 3925,
      "ĠEast": 3926,
      "pisode": 3927,
      "Ġavant": 3928,
      "Weblinks": 3929,
      "aged": 3930,
      "Ġandere": 3931,
      "Ġsuiv": 3932,
      "Ġremain": 3933,
      "ĠSil": 3934,
      "Ġago": 3935,
      "Ġame": 3936,
      "cking": 3937,
      "ĠIndian": 3938,
      "ogni": 3939,
      "erve": 3940,
      "auer": 3941,
      "ĠMad": 3942,
      "eller": 3943,
      "itation": 3944,
      "BC": 3945,
      "Ġmich": 3946,
      "Ġobs": 3947,
      "stag": 3948,
      "Ġerst": 3949,
      "Ġrole": 3950,
      "Ġtravel": 3951,
      "At": 3952,
      "under": 3953,
      "Ġfamili": 3954,
      "Ġfig": 3955,
      "tead": 3956,
      "mine": 3957,
      "Ġrich": 3958,
      "Ġeducation": 3959,
      "ĠChampions": 3960,
      "Ġvide": 3961,
      "Ġfurther": 3962,
      "ores": 3963,
      "Ġdoing": 3964,
      "bit": 3965,
      "American": 3966,
      "Ġred": 3967,
      "Ġwriting": 3968,
      "Ġencore": 3969,
      "chts": 3970,
      "hel": 3971,
      "bach": 3972,
      "bo": 3973,
      "Ġnamed": 3974,
      "ĠUK": 3975,
      "Ġtrois": 3976,
      "ĠRiver": 3977,
      "ĠJames": 3978,
      "epend": 3979,
      "Ġrencont": 3980,
      "Ġtechnology": 3981,
      "ĠSk": 3982,
      "Ġreading": 3983,
      "Ġja": 3984,
      "Ġadminist": 3985,
      "Ð¾": 3986,
      "Ġ?<": 3987,
      "reib": 3988,
      "Ġnouve": 3989,
      "ĠIN": 3990,
      "Ġopp": 3991,
      "ĠHall": 3992,
      "Ġbreak": 3993,
      "ota": 3994,
      "Er": 3995,
      "dern": 3996,
      "pa": 3997,
      "anning": 3998,
      "ĠBundes": 3999,
      "itung": 4000,
      "olis": 4001,
      "Ġissues": 4002,
      "ĠImp": 4003,
      "lied": 4004,
      "cur": 4005,
      "AG": 4006,
      "itere": 4007,
      "oles": 4008,
      "PS": 4009,
      "Ġvalue": 4010,
      "fit": 4011,
      "amt": 4012,
      "ieurs": 4013,
      "Ġlis": 4014,
      "Ġadvan": 4015,
      "ĠGroup": 4016,
      "Ġgeneral": 4017,
      "ĠCalifornia": 4018,
      "Ġbrand": 4019,
      "69": 4020,
      "Ġpays": 4021,
      "gency": 4022,
      "ĠBusiness": 4023,
      "'ve": 4024,
      "cker": 4025,
      "timm": 4026,
      "unst": 4027,
      "ola": 4028,
      "ĠFrom": 4029,
      "una": 4030,
      "Ġcentury": 4031,
      "ensive": 4032,
      "Ġreason": 4033,
      "57": 4034,
      "hire": 4035,
      "ĠFa": 4036,
      "rence": 4037,
      "Ġactually": 4038,
      "Ġenvironment": 4039,
      "ĠGew": 4040,
      "Ġestablished": 4041,
      "oste": 4042,
      "ĠHu": 4043,
      "oser": 4044,
      "unter": 4045,
      "Ġger": 4046,
      "ĠTor": 4047,
      "Ġresult": 4048,
      "2016": 4049,
      "Ġdiesem": 4050,
      "Ġcaus": 4051,
      "Ġtas": 4052,
      "aupt": 4053,
      "Ġseen": 4054,
      "irit": 4055,
      "ĠWo": 4056,
      "ĠIhre": 4057,
      "Ð°": 4058,
      "ĠEmp": 4059,
      "ĠFree": 4060,
      "Ġideas": 4061,
      "ilos": 4062,
      "hrend": 4063,
      "Ġblo": 4064,
      "Ġspiel": 4065,
      "Ġround": 4066,
      "geben": 4067,
      "head": 4068,
      "uth": 4069,
      "ĠMichael": 4070,
      "ĠCle": 4071,
      "tels": 4072,
      "zahl": 4073,
      "oon": 4074,
      "asing": 4075,
      "illing": 4076,
      "ĠDeutschland": 4077,
      "Or": 4078,
      "Ġwalk": 4079,
      "lad": 4080,
      "ehic": 4081,
      "Ġtu": 4082,
      "Ġself": 4083,
      "Ġ1999": 4084,
      "azin": 4085,
      "king": 4086,
      "Ġsignific": 4087,
      "phone": 4088,
      "cts": 4089,
      "Ġaction": 4090,
      "ĠWhite": 4091,
      "Ġanderen": 4092,
      "Ġdidn": 4093,
      "Ġmodel": 4094,
      "Ġbox": 4095,
      "ĠDel": 4096,
      "ĠAct": 4097,
      "ilite": 4098,
      "ĠElle": 4099,
      "Ġverb": 4100,
      "Ġwo": 4101,
      "agi": 4102,
      "chein": 4103,
      "lim": 4104,
      "Ġsearch": 4105,
      "Ne": 4106,
      "labor": 4107,
      "ĠRoman": 4108,
      "Ġplease": 4109,
      "Ġbirths": 4110,
      "sident": 4111,
      "teurs": 4112,
      "ym": 4113,
      "ĠGrund": 4114,
      "ĠMen": 4115,
      "Ġproperty": 4116,
      "ieder": 4117,
      "Ġersten": 4118,
      "Ġouts": 4119,
      "Ġupd": 4120,
      "ĠExp": 4121,
      "voir": 4122,
      "titution": 4123,
      "ereich": 4124,
      "come": 4125,
      "pra": 4126,
      "roll": 4127,
      "aging": 4128,
      "resh": 4129,
      "antas": 4130,
      "gew": 4131,
      "IG": 4132,
      "ala": 4133,
      "ĠDistrict": 4134,
      "Ġwen": 4135,
      "Ġsil": 4136,
      "Ġbeautiful": 4137,
      "Ġ1990": 4138,
      "Ġprix": 4139,
      "ĠOlymp": 4140,
      "ĠServices": 4141,
      "Ġfunction": 4142,
      "ĠTw": 4143,
      "ĠFace": 4144,
      "Ðµ": 4145,
      "Ð¸": 4146,
      "ĠChurch": 4147,
      "yer": 4148,
      "ition": 4149,
      "IM": 4150,
      "Ġsystems": 4151,
      "Ġwritten": 4152,
      "quer": 4153,
      "verage": 4154,
      "ĠMid": 4155,
      "Ġhowever": 4156,
      "lines": 4157,
      "ierre": 4158,
      "ĠSome": 4159,
      "ĠEngland": 4160,
      "Ġoffers": 4161,
      "ĠWal": 4162,
      "ĠBand": 4163,
      "ĠRoad": 4164,
      "omme": 4165,
      "ĠPress": 4166,
      "ĠKinder": 4167,
      "Ġconstruction": 4168,
      "mary": 4169,
      "Tra": 4170,
      "Ġselbst": 4171,
      "ĠHaus": 4172,
      "pecially": 4173,
      ".âĢĿ<": 4174,
      "98": 4175,
      "gence": 4176,
      "endre": 4177,
      "ĠClass": 4178,
      "\",\"": 4179,
      "ĠCompany": 4180,
      "ĠAustralia": 4181,
      "stad": 4182,
      "Ġni": 4183,
      "rank": 4184,
      "Ġyet": 4185,
      "halb": 4186,
      "Ġtext": 4187,
      "igt": 4188,
      "Ġdonc": 4189,
      "inger": 4190,
      "Ġcharge": 4191,
      "Ġextern": 4192,
      "ĠJahrh": 4193,
      "uns": 4194,
      "ĠAM": 4195,
      "Ġmeas": 4196,
      "tici": 4197,
      "ibli": 4198,
      "ĠIch": 4199,
      "ĠParty": 4200,
      "velle": 4201,
      "ENT": 4202,
      "Ġmai": 4203,
      "Ġcut": 4204,
      "Ġrefer": 4205,
      "ĠZus": 4206,
      "Ġcat": 4207,
      "rison": 4208,
      "ĠFirst": 4209,
      "Ġben": 4210,
      "ums": 4211,
      "Einz": 4212,
      "Ġhor": 4213,
      "nte": 4214,
      "64": 4215,
      "ĠGreen": 4216,
      "folg": 4217,
      "ssen": 4218,
      "atus": 4219,
      "istance": 4220,
      "oute": 4221,
      "uc": 4222,
      "IV": 4223,
      "Ġcause": 4224,
      "wei": 4225,
      "Ġcolor": 4226,
      "Ġfacili": 4227,
      "ĠUs": 4228,
      "Ġrecommend": 4229,
      "Ġpartie": 4230,
      "Ġplayer": 4231,
      "ĠBank": 4232,
      "tained": 4233,
      "Ġincludes": 4234,
      "Qu": 4235,
      "Ġrap": 4236,
      "rait": 4237,
      "ags": 4238,
      "ĠHel": 4239,
      "Ġdesigned": 4240,
      "Ġemb": 4241,
      "ĠAre": 4242,
      "lus": 4243,
      "ĠCup": 4244,
      "ĠHen": 4245,
      "Ġeither": 4246,
      "ĠEar": 4247,
      "lagen": 4248,
      "54": 4249,
      "ĠCamp": 4250,
      "ĠISBN": 4251,
      "Ġtaking": 4252,
      "Ġserved": 4253,
      "ĠEm": 4254,
      "Ġbad": 4255,
      "Ein": 4256,
      "Ġcard": 4257,
      "nel": 4258,
      "Ġrequired": 4259,
      "issens": 4260,
      "Ġdiffe": 4261,
      "Ġville": 4262,
      "'ll": 4263,
      "fully": 4264,
      "ift": 4265,
      "Ġclose": 4266,
      "ĠEins": 4267,
      "By": 4268,
      "Ġphotos": 4269,
      "rieb": 4270,
      "ĠRobert": 4271,
      "ĠSon": 4272,
      "Ġmoins": 4273,
      "oper": 4274,
      "fte": 4275,
      "Ġconditions": 4276,
      "Ġeinfach": 4277,
      "Ġmeille": 4278,
      "alysis": 4279,
      "tat": 4280,
      "ited": 4281,
      "Ġdur": 4282,
      "Ġquar": 4283,
      "ĠPi": 4284,
      "ĠDE": 4285,
      "Ġentire": 4286,
      "bt": 4287,
      "67": 4288,
      "Ġprovided": 4289,
      "mus": 4290,
      "riff": 4291,
      "han": 4292,
      "Ġsimilar": 4293,
      "ĠPan": 4294,
      "Ġdefin": 4295,
      "When": 4296,
      "Ġheart": 4297,
      "aufen": 4298,
      "ĠGre": 4299,
      "ĠGold": 4300,
      "ĠTeam": 4301,
      "aient": 4302,
      "Ġdeter": 4303,
      "nister": 4304,
      "pris": 4305,
      "ĠLab": 4306,
      "ĠWash": 4307,
      "ĠRock": 4308,
      "venue": 4309,
      "urz": 4310,
      "ieux": 4311,
      "nc": 4312,
      "Ġcombin": 4313,
      "Ġinvest": 4314,
      "Ġeverything": 4315,
      "ĠMusic": 4316,
      "ĠThomas": 4317,
      "Ġmm": 4318,
      "uals": 4319,
      "||": 4320,
      "ĠUSA": 4321,
      "To": 4322,
      "luss": 4323,
      "ĠChin": 4324,
      "Ġwood": 4325,
      "itar": 4326,
      "ato": 4327,
      "Ġligne": 4328,
      "glied": 4329,
      "oved": 4330,
      "ĠPeter": 4331,
      "Aut": 4332,
      "unicip": 4333,
      "lain": 4334,
      "vement": 4335,
      "aily": 4336,
      "Ġimage": 4337,
      "Ġwhole": 4338,
      "osing": 4339,
      "Ġfire": 4340,
      "uite": 4341,
      "atory": 4342,
      "Ġinstall": 4343,
      "Posted": 4344,
      "cast": 4345,
      "Ġboard": 4346,
      "Ġappar": 4347,
      "hlen": 4348,
      "Ġenergy": 4349,
      "ĠChristian": 4350,
      "51": 4351,
      "rote": 4352,
      "53": 4353,
      "licher": 4354,
      "Ġprivate": 4355,
      "chten": 4356,
      "Ġvarie": 4357,
      "ĠGoogle": 4358,
      "Ġkonn": 4359,
      "Ġmix": 4360,
      "utschen": 4361,
      "zeug": 4362,
      "ĠNa": 4363,
      "Ġdef": 4364,
      "Ġwan": 4365,
      "Ġautom": 4366,
      "esser": 4367,
      "Ġtaken": 4368,
      "Â»": 4369,
      "52": 4370,
      "bon": 4371,
      "Ġassoci": 4372,
      "ĠPM": 4373,
      "obili": 4374,
      "Car": 4375,
      "ellow": 4376,
      "ĠNi": 4377,
      "........": 4378,
      "Ġ1998": 4379,
      "Am": 4380,
      "ĠPhili": 4381,
      "cious": 4382,
      "ĠKn": 4383,
      "urer": 4384,
      "Ġcann": 4385,
      "tivi": 4386,
      "atives": 4387,
      "keiten": 4388,
      ">[": 4389,
      "geme": 4390,
      "ĠRead": 4391,
      "ĠJos": 4392,
      "ety": 4393,
      "Ġcentre": 4394,
      "rad": 4395,
      "Ġhappen": 4396,
      "Ġpractice": 4397,
      "Ġchurch": 4398,
      "Ġjour": 4399,
      "hu": 4400,
      "ibility": 4401,
      "ested": 4402,
      "Ġfinden": 4403,
      "Ġbal": 4404,
      "Ġdrei": 4405,
      "Ġzuru": 4406,
      "Ġgeho": 4407,
      "ĠYear": 4408,
      "issen": 4409,
      "Ġworked": 4410,
      "Fi": 4411,
      "Ġgem": 4412,
      "orie": 4413,
      "ĠLouis": 4414,
      "ecu": 4415,
      "Ġdivers": 4416,
      "Ġleurs": 4417,
      "ĠRegion": 4418,
      "Ġsource": 4419,
      "halt": 4420,
      "Ġapproach": 4421,
      "werk": 4422,
      "bour": 4423,
      "UN": 4424,
      "ĠAssociation": 4425,
      "Ġciv": 4426,
      "ĠOber": 4427,
      "ĠFamili": 4428,
      "Ġele": 4429,
      "ĠBild": 4430,
      "Ġkein": 4431,
      "RO": 4432,
      "Ġlocation": 4433,
      "phi": 4434,
      "Ġaccount": 4435,
      "Ġlear": 4436,
      "gend": 4437,
      "Ġcin": 4438,
      "icro": 4439,
      "ppen": 4440,
      "lik": 4441,
      "ĠWilliam": 4442,
      "ffentlich": 4443,
      "Ġkomm": 4444,
      "Ġdeutsch": 4445,
      "Ġdoesn": 4446,
      "tivities": 4447,
      "olic": 4448,
      "ĠFahr": 4449,
      "Ġ188": 4450,
      "ensch": 4451,
      "ipment": 4452,
      "century": 4453,
      "Ġidea": 4454,
      "ĠMem": 4455,
      ">âĢ¢": 4456,
      "ceed": 4457,
      "ĠLeb": 4458,
      "achweise": 4459,
      "ktion": 4460,
      "Ġavoir": 4461,
      "Ġadded": 4462,
      "Ġprovides": 4463,
      "ĠAward": 4464,
      "Ġnos": 4465,
      "ĠMuseum": 4466,
      "ĠGeorge": 4467,
      "Ġparts": 4468,
      "pru": 4469,
      "Ġther": 4470,
      "eint": 4471,
      "hav": 4472,
      "ĠSub": 4473,
      "Ġenf": 4474,
      "Ġwatch": 4475,
      "My": 4476,
      "Ġwu": 4477,
      "Ġstaff": 4478,
      "rite": 4479,
      "eting": 4480,
      "Ġsites": 4481,
      "ĠUr": 4482,
      "ston": 4483,
      "Ġlink": 4484,
      "aries": 4485,
      "ĠPresident": 4486,
      "Ġ;<": 4487,
      "onde": 4488,
      "Einzeln": 4489,
      "Ġground": 4490,
      "Ġsomeone": 4491,
      "Ġcher": 4492,
      "Ġautres": 4493,
      "ĠCla": 4494,
      "Ġrestaur": 4495,
      "Ġrights": 4496,
      "elves": 4497,
      "fied": 4498,
      "ĠMiss": 4499,
      "vey": 4500,
      "ĠMas": 4501,
      "Ġstre": 4502,
      "Ġfee": 4503,
      "ient": 4504,
      "ĠRem": 4505,
      "ĠCha": 4506,
      "Einzelnachweise": 4507,
      "Ġstay": 4508,
      "Ġsqu": 4509,
      "olle": 4510,
      "Ġachie": 4511,
      "ĠUntern": 4512,
      "Ġ--": 4513,
      ">â": 4514,
      "ĠLife": 4515,
      "tically": 4516,
      "coming": 4517,
      "ĠFar": 4518,
      "Ġstock": 4519,
      "Ġreport": 4520,
      "Ġmachi": 4521,
      "Ġelection": 4522,
      "Ġpick": 4523,
      "Ġdistrib": 4524,
      "Ġeffect": 4525,
      "Ġalmost": 4526,
      "Ġvac": 4527,
      "ĠCD": 4528,
      "ji": 4529,
      "ĠÂ·": 4530,
      "Ġ80": 4531,
      "pping": 4532,
      "Ġexperien": 4533,
      "Ġagree": 4534,
      "ĠAN": 4535,
      "order": 4536,
      "Ġmanufact": 4537,
      "ades": 4538,
      "Ġgleich": 4539,
      "Ġganz": 4540,
      "llen": 4541,
      "Ġletz": 4542,
      "ĠWil": 4543,
      "Ġnatural": 4544,
      "ĠIde": 4545,
      "ept": 4546,
      "Ġdamit": 4547,
      "Na": 4548,
      "Ġjedoch": 4549,
      "Ġcontinue": 4550,
      "asons": 4551,
      "Ġble": 4552,
      "ĠJourn": 4553,
      "Ġalign": 4554,
      "Ġsoon": 4555,
      "ĠLy": 4556,
      "ĠLib": 4557,
      "Is": 4558,
      "Ġpu": 4559,
      "ĠMenschen": 4560,
      "year": 4561,
      "Ġsoftware": 4562,
      "Ġpolitical": 4563,
      "Ġpermet": 4564,
      "elling": 4565,
      "Ġtitle": 4566,
      "duced": 4567,
      "ĠEv": 4568,
      "wir": 4569,
      "Ġviol": 4570,
      "Ġdocument": 4571,
      "nger": 4572,
      "Ġroad": 4573,
      "Ġinflu": 4574,
      "hood": 4575,
      "Ġclients": 4576,
      ".)": 4577,
      "west": 4578,
      "inf": 4579,
      "IP": 4580,
      "mittel": 4581,
      "cadem": 4582,
      "ĠTest": 4583,
      "Ġfix": 4584,
      "IR": 4585,
      "Ġexpe": 4586,
      "Ġshows": 4587,
      "Ġjusqu": 4588,
      "____": 4589,
      "ĠEuropean": 4590,
      "unes": 4591,
      "Ġissue": 4592,
      "Ġsection": 4593,
      "Ho": 4594,
      "ĠMil": 4595,
      "Sta": 4596,
      "rance": 4597,
      "74": 4598,
      "Ġapplication": 4599,
      "ĠArch": 4600,
      "Ġap": 4601,
      "can": 4602,
      "zing": 4603,
      "rement": 4604,
      "Ġsubs": 4605,
      "ĠItali": 4606,
      "Ġplusieurs": 4607,
      "lles": 4608,
      "wi": 4609,
      "eks": 4610,
      "Ġscience": 4611,
      "Ġhope": 4612,
      "Ġbereits": 4613,
      "Ġneue": 4614,
      "Ġextre": 4615,
      "Ġtoute": 4616,
      "ĠGreat": 4617,
      "jours": 4618,
      "ĠRob": 4619,
      "emple": 4620,
      "Ġstandard": 4621,
      "TM": 4622,
      "Ġsoit": 4623,
      "Ġlost": 4624,
      "ommes": 4625,
      "Ġpi": 4626,
      "ĠJo": 4627,
      "Ġ35": 4628,
      "Ġeinz": 4629,
      "Ġreli": 4630,
      "Ġcross": 4631,
      "ĠVis": 4632,
      "Ġbou": 4633,
      "aving": 4634,
      "Ġcorre": 4635,
      "Ġwall": 4636,
      "Ġespecially": 4637,
      "essor": 4638,
      "ultural": 4639,
      "Ġwonder": 4640,
      ">#": 4641,
      "hrung": 4642,
      "Ġfab": 4643,
      "aben": 4644,
      "ðŁ": 4645,
      "ĠPet": 4646,
      "ownload": 4647,
      "2015": 4648,
      "Ġuser": 4649,
      "Ġwor": 4650,
      "Ġzwe": 4651,
      "Ġwhether": 4652,
      "Ġir": 4653,
      "ĠSand": 4654,
      "Ġdeal": 4655,
      "crit": 4656,
      "Ġgesch": 4657,
      "ĠVir": 4658,
      "Ġidentif": 4659,
      "change": 4660,
      "ĠMass": 4661,
      "Ġproblems": 4662,
      "gleich": 4663,
      "rale": 4664,
      "Ġsolution": 4665,
      "Ġdouble": 4666,
      "ership": 4667,
      "Ġcoach": 4668,
      "ĠIsland": 4669,
      "Ind": 4670,
      "Ġvehic": 4671,
      "Ġunser": 4672,
      "irls": 4673,
      "Ġpurp": 4674,
      "ĠTi": 4675,
      "No": 4676,
      "ĠPo": 4677,
      "laub": 4678,
      "Ġanci": 4679,
      "ds": 4680,
      "Ġbie": 4681,
      "zation": 4682,
      "Ġstra": 4683,
      "lang": 4684,
      "Ġspecies": 4685,
      "Ġallem": 4686,
      "medi": 4687,
      "verse": 4688,
      "azine": 4689,
      "erved": 4690,
      "ĠGen": 4691,
      "Ġsuite": 4692,
      "Ġarri": 4693,
      "Ġregular": 4694,
      "ĠWashington": 4695,
      "ado": 4696,
      "Ġrecher": 4697,
      "Ġaward": 4698,
      "gang": 4699,
      "Ġlanguage": 4700,
      "orial": 4701,
      "rist": 4702,
      "ĠMary": 4703,
      "TE": 4704,
      "Ġbelieve": 4705,
      "Ġ90": 4706,
      "key": 4707,
      "fra": 4708,
      "ĠRepublic": 4709,
      "Mit": 4710,
      "atest": 4711,
      "ordin": 4712,
      "ize": 4713,
      "isting": 4714,
      "Ġsoci": 4715,
      "Ġsepar": 4716,
      "Ġ)": 4717,
      "ĠMain": 4718,
      "ĠNow": 4719,
      "Ġupon": 4720,
      "Ġthroughout": 4721,
      "Ġcommune": 4722,
      "ĠUnd": 4723,
      "sc": 4724,
      "sterreich": 4725,
      "ĠPen": 4726,
      "Ġsecurity": 4727,
      "Ġsignificant": 4728,
      "bat": 4729,
      "feld": 4730,
      "ocra": 4731,
      "Ġliter": 4732,
      "Ġmein": 4733,
      "ĠTro": 4734,
      "Ġaccomp": 4735,
      "Ġloss": 4736,
      "Ġbur": 4737,
      "tien": 4738,
      "Ġsale": 4739,
      "ĠMex": 4740,
      "reek": 4741,
      "Ġplaces": 4742,
      "Ġdied": 4743,
      "chieden": 4744,
      "eph": 4745,
      "Ġwww": 4746,
      "atform": 4747,
      "tail": 4748,
      "ĠMartin": 4749,
      "Ġindic": 4750,
      "Ġscienti": 4751,
      "Ġfla": 4752,
      "aces": 4753,
      "Ġ1997": 4754,
      "Ġnecess": 4755,
      "Ġbehind": 4756,
      "72": 4757,
      "Ġtourn": 4758,
      "Ġvan": 4759,
      "ĠCouncil": 4760,
      "RA": 4761,
      "Ġcoun": 4762,
      "Ġ1996": 4763,
      "Ġbeste": 4764,
      "Ġphoto": 4765,
      "ĠSchu": 4766,
      "ĠWei": 4767,
      "Ġforce": 4768,
      "utsche": 4769,
      "Ġven": 4770,
      "fini": 4771,
      "ĠÂ»,": 4772,
      "ml": 4773,
      "SS": 4774,
      "fang": 4775,
      "olin": 4776,
      "Ġunsere": 4777,
      "Ġconcern": 4778,
      "Ġgrat": 4779,
      "igns": 4780,
      "lite": 4781,
      "Ġcandid": 4782,
      "Ġrather": 4783,
      "asion": 4784,
      "fre": 4785,
      "Ġinterest": 4786,
      "ext": 4787,
      "ĠSport": 4788,
      "text": 4789,
      "ynam": 4790,
      ";<": 4791,
      "ĠReview": 4792,
      "airs": 4793,
      "Ġstri": 4794,
      "Ġcouple": 4795,
      "stadt": 4796,
      "Ġtelevision": 4797,
      "bles": 4798,
      "pla": 4799,
      "dy": 4800,
      "Ġ1980": 4801,
      "len": 4802,
      "Ġneeded": 4803,
      "ria": 4804,
      "TS": 4805,
      "ĠGet": 4806,
      "Ġdescribed": 4807,
      "ĠCa": 4808,
      "ctive": 4809,
      "IE": 4810,
      "\".<": 4811,
      "lar": 4812,
      "unt": 4813,
      "ritt": 4814,
      "Ġintern": 4815,
      "ders": 4816,
      "Ġchanges": 4817,
      "63": 4818,
      "ĠCharles": 4819,
      "ril": 4820,
      "ĠBal": 4821,
      "oix": 4822,
      "Ġabsol": 4823,
      "ez": 4824,
      "Ġcustomers": 4825,
      "ival": 4826,
      "71": 4827,
      "lation": 4828,
      "Ġpetit": 4829,
      "Ġfather": 4830,
      "Ġfinancial": 4831,
      "ctors": 4832,
      "Ġcurrently": 4833,
      "73": 4834,
      "zug": 4835,
      "Man": 4836,
      "Ġoutside": 4837,
      "unkt": 4838,
      "ashion": 4839,
      "ountain": 4840,
      "eles": 4841,
      "ĠFacebook": 4842,
      "ĠBuch": 4843,
      "Ġwords": 4844,
      "hist": 4845,
      "ĠRoyal": 4846,
      "rir": 4847,
      "ĠUnion": 4848,
      "vince": 4849,
      "mic": 4850,
      "Ġparents": 4851,
      "Ġhttps": 4852,
      "ario": 4853,
      "Ġgradu": 4854,
      "Ġrelease": 4855,
      "Ġful": 4856,
      "istry": 4857,
      "Ġusually": 4858,
      "??": 4859,
      "Ġtoutes": 4860,
      "ĠOrgan": 4861,
      "Ġarchite": 4862,
      "atu": 4863,
      "Ġtrack": 4864,
      "ikan": 4865,
      "Ġdim": 4866,
      "Ġimages": 4867,
      "idents": 4868,
      "ĠWa": 4869,
      "ĠOri": 4870,
      "ĠAv": 4871,
      "Ġprend": 4872,
      "Ġtur": 4873,
      "Fu": 4874,
      "telle": 4875,
      "Ġmoved": 4876,
      "Ġpercent": 4877,
      "ĠTod": 4878,
      "ĠDepartment": 4879,
      "kes": 4880,
      "ictor": 4881,
      "alita": 4882,
      "Ġtakes": 4883,
      "ises": 4884,
      "unktion": 4885,
      "Ġzusammen": 4886,
      "Ġgroups": 4887,
      "fie": 4888,
      "ĠFem": 4889,
      "nden": 4890,
      "Ġprior": 4891,
      "Ġjud": 4892,
      "iteratur": 4893,
      "azu": 4894,
      "ĠManagement": 4895,
      "Ġlay": 4896,
      "aign": 4897,
      "Ġaltern": 4898,
      "Ġcomplex": 4899,
      "Ġacqu": 4900,
      "OP": 4901,
      "ends": 4902,
      "ĠBad": 4903,
      "CC": 4904,
      "Ġreach": 4905,
      "AB": 4906,
      "Ġdistrict": 4907,
      "ĠTu": 4908,
      "Ġcenter": 4909,
      "Ġheute": 4910,
      "ocation": 4911,
      "Ġtrue": 4912,
      "leur": 4913,
      "Ġdetails": 4914,
      "Ġbegi": 4915,
      "thle": 4916,
      "Ġsti": 4917,
      "Ġpolicy": 4918,
      "ĠHoch": 4919,
      "gers": 4920,
      "Ġplans": 4921,
      "ĠRos": 4922,
      "ĠRet": 4923,
      "Ġattra": 4924,
      "undert": 4925,
      "Ġkom": 4926,
      "orage": 4927,
      "Ìģ<": 4928,
      ">|-<": 4929,
      "Ġ70": 4930,
      "ittee": 4931,
      "ĠInf": 4932,
      "62": 4933,
      "Ġmessage": 4934,
      "Sie": 4935,
      "roid": 4936,
      "aling": 4937,
      "Ġattemp": 4938,
      "61": 4939,
      "Ġsitue": 4940,
      "zei": 4941,
      "owers": 4942,
      "Ġva": 4943,
      "kon": 4944,
      "Ġmention": 4945,
      "Ġchez": 4946,
      "ĠVan": 4947,
      "Ġ500": 4948,
      "ĠCourt": 4949,
      "Ġoil": 4950,
      "Ġanything": 4951,
      "Ġrunning": 4952,
      "arian": 4953,
      "ĠCur": 4954,
      "ila": 4955,
      "ewer": 4956,
      "utter": 4957,
      "Ġfonction": 4958,
      "eu": 4959,
      "Ġlearning": 4960,
      "Ġrate": 4961,
      "Ġatt": 4962,
      "bra": 4963,
      "Ġetwas": 4964,
      "Ġoptions": 4965,
      "uti": 4966,
      "ails": 4967,
      "Ġmainten": 4968,
      "Ġquelques": 4969,
      "Ġknowledge": 4970,
      "ĠPower": 4971,
      "Ġamaz": 4972,
      "Ġmobile": 4973,
      "kn": 4974,
      "2014": 4975,
      "Ġinj": 4976,
      "Ġmort": 4977,
      "Ġminim": 4978,
      "ĠÂ£": 4979,
      "hof": 4980,
      "Â®": 4981,
      "Ġmeet": 4982,
      "Ġwanted": 4983,
      "ĠDou": 4984,
      "ffic": 4985,
      "adian": 4986,
      "After": 4987,
      "Ġchallen": 4988,
      "otos": 4989,
      "Ġtypes": 4990,
      "ĠMari": 4991,
      "Ġadap": 4992,
      "ĠOpen": 4993,
      "Ġremp": 4994,
      "ĠPub": 4995,
      "ĠBig": 4996,
      "Ġfai": 4997,
      "ĠVo": 4998,
      "ĠUne": 4999,
      "sente": 5000,
      "inte": 5001,
      "Ġbin": 5002,
      "ĠSom": 5003,
      "Ġschn": 5004,
      "cript": 5005,
      "ocal": 5006,
      "umi": 5007,
      "Res": 5008,
      "ĠNov": 5009,
      "Ġcomputer": 5010,
      "Ġrock": 5011,
      "kla": 5012,
      "ĠBlog": 5013,
      "tant": 5014,
      "Ġphone": 5015,
      "Ġdog": 5016,
      "Ġ189": 5017,
      "Ġactivities": 5018,
      "Ġbirth": 5019,
      "Ġhous": 5020,
      "cite": 5021,
      "ĠLove": 5022,
      "Ġdigital": 5023,
      "Ġmedical": 5024,
      "2013": 5025,
      "erre": 5026,
      "Ġtreatment": 5027,
      "Ġcoup": 5028,
      "veloppe": 5029,
      "altung": 5030,
      "oms": 5031,
      "Ġamount": 5032,
      "ĠBon": 5033,
      "Ġquite": 5034,
      "Liens": 5035,
      "Ġrelated": 5036,
      "overs": 5037,
      "Ġ1995": 5038,
      "house": 5039,
      "nisse": 5040,
      "Ġavait": 5041,
      "lot": 5042,
      "Ġstructure": 5043,
      "Ġindividual": 5044,
      "edding": 5045,
      "Ġconnec": 5046,
      "Ġmaxim": 5047,
      "ĠHum": 5048,
      "ardin": 5049,
      "Ġpm": 5050,
      "hlt": 5051,
      "Ġgeht": 5052,
      "Ġsaf": 5053,
      "Ġstudent": 5054,
      "rieur": 5055,
      "Ġwrote": 5056,
      "ĠAcadem": 5057,
      "App": 5058,
      "ederal": 5059,
      "Ġcoming": 5060,
      "ĠCong": 5061,
      "Ġmois": 5062,
      "500": 5063,
      "hibi": 5064,
      "Ġstore": 5065,
      "tschaft": 5066,
      "Ġways": 5067,
      "mited": 5068,
      "Ġplaying": 5069,
      "Ġcontro": 5070,
      "alley": 5071,
      "ilosoph": 5072,
      "Ġgroupe": 5073,
      "Ġmachin": 5074,
      "ady": 5075,
      "ĠTa": 5076,
      "gal": 5077,
      "istant": 5078,
      "Ġeveryone": 5079,
      "box": 5080,
      "gung": 5081,
      "Ġbud": 5082,
      "Ġnovel": 5083,
      "wes": 5084,
      "oft": 5085,
      "color": 5086,
      "ĠDar": 5087,
      "FF": 5088,
      "Ġsimply": 5089,
      "AA": 5090,
      "vie": 5091,
      "tempor": 5092,
      "hold": 5093,
      "uments": 5094,
      "shop": 5095,
      "lauf": 5096,
      "Ġrepresent": 5097,
      "Ġexternes": 5098,
      "Ġseinen": 5099,
      "Ġconst": 5100,
      "fits": 5101,
      "Ġattend": 5102,
      "once": 5103,
      "Ġceleb": 5104,
      "Ġhigher": 5105,
      "Ġul": 5106,
      "Ġforward": 5107,
      "atique": 5108,
      "ĠGa": 5109,
      "Ġpolice": 5110,
      "Ġhit": 5111,
      "Ġmaison": 5112,
      "ĠDevelop": 5113,
      "eds": 5114,
      "cipe": 5115,
      "enk": 5116,
      "cellent": 5117,
      "Ġestablish": 5118,
      "aud": 5119,
      "ĠSel": 5120,
      "Ġtoujours": 5121,
      "lying": 5122,
      "gent": 5123,
      "ĠPC": 5124,
      "edia": 5125,
      "ĠPlus": 5126,
      "ĠSee": 5127,
      "Ġple": 5128,
      "\":\"": 5129,
      "Ġsituation": 5130,
      "89": 5131,
      "falls": 5132,
      "ĠEnde": 5133,
      "yes": 5134,
      "Ġtold": 5135,
      "ienn": 5136,
      "ĠGi": 5137,
      "Ġannounced": 5138,
      "ĠPublic": 5139,
      "tikel": 5140,
      "leine": 5141,
      "ĠWohn": 5142,
      "Pour": 5143,
      "weet": 5144,
      "Ġscreen": 5145,
      "buch": 5146,
      "itet": 5147,
      "Ġed": 5148,
      "ĠStu": 5149,
      "Ġtrop": 5150,
      "Ġdan": 5151,
      "tty": 5152,
      "uren": 5153,
      "ĠIndust": 5154,
      "ĠWomen": 5155,
      "ĠEner": 5156,
      "tober": 5157,
      "ĠWas": 5158,
      "Ġstop": 5159,
      "Ġlic": 5160,
      "Ġtravail": 5161,
      "ĠCro": 5162,
      "Ġdiv": 5163,
      "Ġmachine": 5164,
      "rug": 5165,
      "Ġreceive": 5166,
      "Ġviele": 5167,
      "Ġ[...": 5168,
      "eri": 5169,
      "Ġsolutions": 5170,
      "Ġleading": 5171,
      "Ġterrit": 5172,
      "Ġsales": 5173,
      "ĠPriv": 5174,
      "Ġmarketing": 5175,
      "ĠOs": 5176,
      "Col": 5177,
      "Ġadditional": 5178,
      "Ġdraw": 5179,
      "Ġ1970": 5180,
      "Ġweeks": 5181,
      "Bi": 5182,
      "amment": 5183,
      "clus": 5184,
      "Ġ1994": 5185,
      "coup": 5186,
      "Ġcourt": 5187,
      "alized": 5188,
      "rige": 5189,
      "Ġpric": 5190,
      "ĠMel": 5191,
      "illet": 5192,
      "Ġverschieden": 5193,
      "ĠST": 5194,
      "ĠInstitute": 5195,
      "grund": 5196,
      "ĠLim": 5197,
      "ĠWindows": 5198,
      "ares": 5199,
      "based": 5200,
      "Ġbank": 5201,
      "ospital": 5202,
      "isme": 5203,
      "Ġdeliver": 5204,
      "Ġinside": 5205,
      "Ġconsidered": 5206,
      "ĠCer": 5207,
      "Pri": 5208,
      "ĠEnd": 5209,
      "ulations": 5210,
      "zimmer": 5211,
      "ĠAma": 5212,
      "oke": 5213,
      "ĠSociety": 5214,
      "Ġsera": 5215,
      "2012": 5216,
      "tation": 5217,
      "Ġliegt": 5218,
      "Ġ2021": 5219,
      "kehr": 5220,
      "Ġtell": 5221,
      "Ġelectric": 5222,
      "lip": 5223,
      "MS": 5224,
      "teau": 5225,
      "ĠScience": 5226,
      "opping": 5227,
      "Ġstage": 5228,
      "alisation": 5229,
      "ĠHal": 5230,
      "eau": 5231,
      "ĠEuro": 5232,
      "ĠJuni": 5233,
      "Ġpasse": 5234,
      "Ġbath": 5235,
      "Ġrecogni": 5236,
      "Ġ09": 5237,
      "ĠDaten": 5238,
      "kar": 5239,
      "iler": 5240,
      "Ġvit": 5241,
      "Es": 5242,
      "ervation": 5243,
      "Ġsugges": 5244,
      "Ġ45": 5245,
      "Ġprobably": 5246,
      "ĠResearch": 5247,
      "tite": 5248,
      "Ġgoal": 5249,
      "Ġsuis": 5250,
      "Ġsaw": 5251,
      "Ġproduced": 5252,
      "Ġjetzt": 5253,
      "Ġlikely": 5254,
      "CE": 5255,
      "Ġlonger": 5256,
      "orting": 5257,
      "Ġmilli": 5258,
      "Ġaccording": 5259,
      "https": 5260,
      "Ich": 5261,
      "aines": 5262,
      "meister": 5263,
      "ĠCentre": 5264,
      "reng": 5265,
      "aves": 5266,
      "Ġporte": 5267,
      "Ġrace": 5268,
      "spiel": 5269,
      "Ġdeveloped": 5270,
      "Ġmother": 5271,
      "ĠPas": 5272,
      "Ġsold": 5273,
      "Ġincrease": 5274,
      "Ġmaterial": 5275,
      "Ġblan": 5276,
      "Ġnav": 5277,
      "ĠOper": 5278,
      "Ġcondition": 5279,
      "Ġconsum": 5280,
      "ĠGood": 5281,
      "inden": 5282,
      "vient": 5283,
      "exp": 5284,
      "ees": 5285,
      "ero": 5286,
      "chst": 5287,
      "ĠTom": 5288,
      "ĠAli": 5289,
      "Ġrisk": 5290,
      "uisi": 5291,
      "ĠFri": 5292,
      "ispiel": 5293,
      "igkeit": 5294,
      "Ġlower": 5295,
      "ancy": 5296,
      "Ġanswer": 5297,
      "ĠTrai": 5298,
      "ĠJac": 5299,
      "Ġkids": 5300,
      "jo": 5301,
      "cla": 5302,
      "ĠLong": 5303,
      "ĠGermany": 5304,
      "Ġils": 5305,
      "bet": 5306,
      "Ġpsych": 5307,
      "ĠÂ»<": 5308,
      "Ġdabei": 5309,
      "Ġ08": 5310,
      "Ġmale": 5311,
      "Ġtransfer": 5312,
      "Ġihrer": 5313,
      "ĠBoard": 5314,
      "ĠHi": 5315,
      "Ġinsurance": 5316,
      "rief": 5317,
      "ĠHor": 5318,
      "Ġetwa": 5319,
      "Ġ1992": 5320,
      "Ġterms": 5321,
      "Ġhot": 5322,
      "TV": 5323,
      "pes": 5324,
      "fall": 5325,
      "Ġmachen": 5326,
      "Ġaverage": 5327,
      "ĠTexas": 5328,
      "Ġhabit": 5329,
      "Ġsports": 5330,
      "ollen": 5331,
      "Ġnun": 5332,
      "leep": 5333,
      "Ġyourself": 5334,
      "hei": 5335,
      "lieb": 5336,
      "Ġsummer": 5337,
      "Aus": 5338,
      "Ġtrying": 5339,
      "pend": 5340,
      "Ġbroad": 5341,
      "allery": 5342,
      "Ġdoch": 5343,
      "taire": 5344,
      "Ġmatter": 5345,
      "ĠBack": 5346,
      "Ġwide": 5347,
      "ĠFrancis": 5348,
      "taining": 5349,
      "ichtig": 5350,
      "play": 5351,
      "bres": 5352,
      "Ġcountries": 5353,
      "tate": 5354,
      "ĠKind": 5355,
      "Ġkitchen": 5356,
      "anda": 5357,
      "icin": 5358,
      "ĠFol": 5359,
      "ĠMusik": 5360,
      "pm": 5361,
      "Univers": 5362,
      "Ġbus": 5363,
      "edy": 5364,
      "ĠSchn": 5365,
      "ÃŁball": 5366,
      "oires": 5367,
      "Ġgou": 5368,
      "Si": 5369,
      "ĠOffice": 5370,
      "igner": 5371,
      "Ġterm": 5372,
      "gree": 5373,
      "ĠSti": 5374,
      "Go": 5375,
      "Ġperm": 5376,
      "ĠOktober": 5377,
      "Ġnouveau": 5378,
      "warz": 5379,
      "ĠLake": 5380,
      "Ġ32": 5381,
      "fahren": 5382,
      "ĠDivision": 5383,
      "ĠFranc": 5384,
      "Ġmilitary": 5385,
      "ĠSchul": 5386,
      "ĠIsra": 5387,
      "iled": 5388,
      "Ġcommercial": 5389,
      "Ġdel": 5390,
      "à¤": 5391,
      "Ġcell": 5392,
      "2010": 5393,
      "Ġnote": 5394,
      "BA": 5395,
      "ength": 5396,
      "ĠKunst": 5397,
      "ĠCH": 5398,
      "Ġchoose": 5399,
      "ĠLet": 5400,
      "ĠFil": 5401,
      "Ġinvolved": 5402,
      "Ġimprove": 5403,
      "ĠFried": 5404,
      "Ġwife": 5405,
      "tres": 5406,
      "ĠVal": 5407,
      "ĠLang": 5408,
      "Ġplant": 5409,
      "oid": 5410,
      "ĠEst": 5411,
      "ĠGames": 5412,
      "ronic": 5413,
      "SP": 5414,
      "dien": 5415,
      "Ġru": 5416,
      "ateurs": 5417,
      "ĠOver": 5418,
      "place": 5419,
      "Ġadj": 5420,
      "tific": 5421,
      "Ġsep": 5422,
      "ĠFestival": 5423,
      "Ġmoi": 5424,
      "Ġsocie": 5425,
      "amera": 5426,
      "put": 5427,
      "Ġwest": 5428,
      "rump": 5429,
      "ĠPlatz": 5430,
      "Ġprojects": 5431,
      "rift": 5432,
      "Ġbott": 5433,
      "Ġstep": 5434,
      "ĠPass": 5435,
      "Ins": 5436,
      "mont": 5437,
      "anner": 5438,
      "Ġcollabor": 5439,
      "ĠVideo": 5440,
      "Ġleave": 5441,
      "ĠDez": 5442,
      "agin": 5443,
      "Ġexer": 5444,
      "Ġsoli": 5445,
      "ĠWhile": 5446,
      "ĠEngi": 5447,
      "cise": 5448,
      "semble": 5449,
      "ĠSP": 5450,
      "Ġdieses": 5451,
      "ĠKa": 5452,
      "ĠWebsite": 5453,
      "Ġjours": 5454,
      "ostenlos": 5455,
      "ĠCy": 5456,
      "Ġba": 5457,
      "ĠCentral": 5458,
      "opyright": 5459,
      "ĠJanuar": 5460,
      "ĠEngin": 5461,
      "ointed": 5462,
      "Ġhappy": 5463,
      "rial": 5464,
      "ĠRen": 5465,
      "Ġcustomer": 5466,
      "ĠWood": 5467,
      "Ġready": 5468,
      "Ġdaugh": 5469,
      "imp": 5470,
      "Ġcannot": 5471,
      "Ġ1993": 5472,
      "Ġaccep": 5473,
      "onds": 5474,
      "Ġpartir": 5475,
      "Ġvoy": 5476,
      "ĠIhr": 5477,
      "autres": 5478,
      "Ġdest": 5479,
      "ĠBlue": 5480,
      "Ġrencontre": 5481,
      "Ġcredit": 5482,
      "ĠEngine": 5483,
      "ĠLog": 5484,
      "enten": 5485,
      "Ġintel": 5486,
      "Ġinstead": 5487,
      "EO": 5488,
      "Ġgrande": 5489,
      "cal": 5490,
      "ĠProgram": 5491,
      "Ġfort": 5492,
      "Our": 5493,
      "Ġcases": 5494,
      "ĠDet": 5495,
      "irs": 5496,
      "ĠDiese": 5497,
      "Ġasked": 5498,
      "ĠTime": 5499,
      "Ġneuen": 5500,
      "Ġtrouve": 5501,
      "Ġskills": 5502,
      "rim": 5503,
      "Ġindepend": 5504,
      "cide": 5505,
      "cs": 5506,
      "iders": 5507,
      "ĠEine": 5508,
      "wort": 5509,
      "ĠHistor": 5510,
      "Ġstudies": 5511,
      "icago": 5512,
      "ĠMr": 5513,
      "bie": 5514,
      "rought": 5515,
      "Ġcop": 5516,
      "nier": 5517,
      "lings": 5518,
      "Ġinternet": 5519,
      "People": 5520,
      "organ": 5521,
      "Ġseinem": 5522,
      "anish": 5523,
      "Ġlives": 5524,
      "urniture": 5525,
      "ĠWater": 5526,
      "istan": 5527,
      "onse": 5528,
      "ĠJew": 5529,
      "door": 5530,
      "Ġdise": 5531,
      "Ġrecent": 5532,
      "ĠAfrica": 5533,
      "olden": 5534,
      "ĠâĨ": 5535,
      "Ġpersonnes": 5536,
      "ĠElect": 5537,
      "Nach": 5538,
      "akers": 5539,
      "Can": 5540,
      "ĠJes": 5541,
      "FA": 5542,
      "quent": 5543,
      "Ġmultiple": 5544,
      "Ġteams": 5545,
      "Ġdeep": 5546,
      "Ġitems": 5547,
      "Ġvier": 5548,
      "Ġball": 5549,
      "oten": 5550,
      "Ġpages": 5551,
      "Ġpath": 5552,
      "ĠFall": 5553,
      "UT": 5554,
      "tact": 5555,
      "Ġdiscover": 5556,
      ">*": 5557,
      "Ġredu": 5558,
      "IA": 5559,
      "Ġprotection": 5560,
      "dis": 5561,
      "ultur": 5562,
      "ona": 5563,
      "Ġihn": 5564,
      "Ġnu": 5565,
      "Ġinnov": 5566,
      "Ġeig": 5567,
      "Ġdecided": 5568,
      "ising": 5569,
      "ĠFound": 5570,
      "Ġdort": 5571,
      "utt": 5572,
      "Ġpatients": 5573,
      "Ġsondern": 5574,
      "Ġschools": 5575,
      "Ġsen": 5576,
      "Ġactive": 5577,
      "Ġutilis": 5578,
      "ĠGal": 5579,
      "ĠHere": 5580,
      "timate": 5581,
      "ĠMais": 5582,
      "Ġextens": 5583,
      "Ġdoor": 5584,
      "pen": 5585,
      "ilities": 5586,
      "ban": 5587,
      "Ġensure": 5588,
      "Ġow": 5589,
      "Ġ1991": 5590,
      "fense": 5591,
      "Ġgave": 5592,
      "ĠCat": 5593,
      "Ġsubject": 5594,
      "Ġdecor": 5595,
      "Ġroute": 5596,
      "Ġwoman": 5597,
      "ĠJus": 5598,
      "ĠCare": 5599,
      "ĠArmy": 5600,
      "Bu": 5601,
      "list": 5602,
      "Ġhear": 5603,
      "Ġ01": 5604,
      "Ġhin": 5605,
      "Ġconstit": 5606,
      "With": 5607,
      "Acc": 5608,
      "ĠJahrhundert": 5609,
      "Ġem": 5610,
      "uisin": 5611,
      "Ġshall": 5612,
      "ded": 5613,
      "Living": 5614,
      "ĠBor": 5615,
      "Ġ{": 5616,
      "Ġchance": 5617,
      "âĢľ,": 5618,
      "Ġusers": 5619,
      "ãĤ": 5620,
      "Ġmoy": 5621,
      "riter": 5622,
      "used": 5623,
      "uted": 5624,
      "Ġgirl": 5625,
      "ctures": 5626,
      "ĠDra": 5627,
      "Ġitself": 5628,
      "iser": 5629,
      "Ġmission": 5630,
      "ĠAbs": 5631,
      "Ġradio": 5632,
      "ingen": 5633,
      "wahl": 5634,
      "85": 5635,
      "azz": 5636,
      "Ġreported": 5637,
      "Ġgrowth": 5638,
      "Ġgold": 5639,
      "cape": 5640,
      "ulated": 5641,
      "Ġur": 5642,
      ">>": 5643,
      "Ġdisplay": 5644,
      "ĠÎ": 5645,
      "One": 5646,
      "ĠChristmas": 5647,
      "ĠUnder": 5648,
      "Ġemer": 5649,
      "ĠFC": 5650,
      "Ġofficial": 5651,
      "Ġmeeting": 5652,
      "ĠBern": 5653,
      "Ġdefe": 5654,
      "Ġapplications": 5655,
      "pective": 5656,
      "acte": 5657,
      "ounts": 5658,
      "ĠOld": 5659,
      "liz": 5660,
      "mod": 5661,
      "ĠGeorg": 5662,
      "udes": 5663,
      "gue": 5664,
      "Ġdess": 5665,
      "ĠLos": 5666,
      "tification": 5667,
      "Ġcollege": 5668,
      "Ġprograms": 5669,
      "Eur": 5670,
      "more": 5671,
      "Ġinterview": 5672,
      "Ġfoot": 5673,
      "cm": 5674,
      "uls": 5675,
      "Ġcasino": 5676,
      "Ġattention": 5677,
      "nchen": 5678,
      "tifs": 5679,
      "Ġmont": 5680,
      "like": 5681,
      "Mon": 5682,
      "Ġerste": 5683,
      "Ġplatform": 5684,
      "ĠRichard": 5685,
      "uisine": 5686,
      "Ġcompleted": 5687,
      "stoff": 5688,
      "2011": 5689,
      "Ġtex": 5690,
      "ĠMost": 5691,
      "ĠSun": 5692,
      "ressed": 5693,
      "ĠBla": 5694,
      "pite": 5695,
      "atin": 5696,
      "Naissance": 5697,
      "reh": 5698,
      "Ġsau": 5699,
      "riate": 5700,
      "ĠShow": 5701,
      "ĠBou": 5702,
      "Ġpremi": 5703,
      "SE": 5704,
      "Ġ1960": 5705,
      "Ġdit": 5706,
      "Ġeffective": 5707,
      "schaf": 5708,
      "fel": 5709,
      "Do": 5710,
      "rger": 5711,
      "Ġscho": 5712,
      "obs": 5713,
      "Ġpotential": 5714,
      "Ġwei": 5715,
      "low": 5716,
      "ĠEle": 5717,
      "Ġnut": 5718,
      "ueil": 5719,
      "Ġsymp": 5720,
      "Ġtar": 5721,
      "Ġlegal": 5722,
      "rik": 5723,
      "Ġdirector": 5724,
      "Ġpretty": 5725,
      "ĠUl": 5726,
      "Ġkonnte": 5727,
      "legen": 5728,
      "Ġvariety": 5729,
      "Ġesp": 5730,
      "Geb": 5731,
      "icros": 5732,
      "ĠSite": 5733,
      "Mi": 5734,
      "Ġopportunity": 5735,
      "este": 5736,
      "ĠSeite": 5737,
      "vision": 5738,
      "osse": 5739,
      "Ġihm": 5740,
      "Ġgain": 5741,
      "Ġpen": 5742,
      "Ġhar": 5743,
      "ĠStudi": 5744,
      "Ġsteht": 5745,
      "dings": 5746,
      "ĠHil": 5747,
      "ionn": 5748,
      "Ġnothing": 5749,
      "Ġinsp": 5750,
      "Ġdirection": 5751,
      "Chr": 5752,
      "Ġsn": 5753,
      "ĠKre": 5754,
      "ĠDurch": 5755,
      "Ġsurface": 5756,
      "cheid": 5757,
      "Ġblock": 5758,
      "ĠUN": 5759,
      "Ġsuc": 5760,
      "Ġalles": 5761,
      "Ġdecision": 5762,
      "ĠPlease": 5763,
      "ĠHill": 5764,
      "Vi": 5765,
      "ĠSar": 5766,
      "ĠBud": 5767,
      "ĠSund": 5768,
      "Ìģ.<": 5769,
      "uli": 5770,
      "rass": 5771,
      "Ġmunicip": 5772,
      "Ġanalysis": 5773,
      "Film": 5774,
      "Ġnouvelle": 5775,
      "Ġreve": 5776,
      "annel": 5777,
      "Ġattack": 5778,
      "Ġprep": 5779,
      "cia": 5780,
      "Ġgreen": 5781,
      "nam": 5782,
      "Ġgef": 5783,
      "weg": 5784,
      "Ġtom": 5785,
      "ĠScot": 5786,
      "test": 5787,
      "Ġflu": 5788,
      "ĠEducation": 5789,
      "ĠIII": 5790,
      "ĠNet": 5791,
      "Ġ38": 5792,
      "ĠProble": 5793,
      "Ġfloor": 5794,
      "Ġsett": 5795,
      "ĠMur": 5796,
      "Ġinvestig": 5797,
      "Ġhimself": 5798,
      "ĠJohann": 5799,
      "eut": 5800,
      "Ġglobal": 5801,
      "Cl": 5802,
      "Ġsollte": 5803,
      "ĠPreis": 5804,
      "Ġartist": 5805,
      "ĠAuch": 5806,
      "here": 5807,
      "ĠFort": 5808,
      "craft": 5809,
      "ĠMax": 5810,
      "Ġchap": 5811,
      "ĠArts": 5812,
      "mental": 5813,
      "ached": 5814,
      "Ġautre": 5815,
      "ĠVictor": 5816,
      "Ġsud": 5817,
      "ĠSmith": 5818,
      "Eng": 5819,
      "ategory": 5820,
      "GB": 5821,
      "Ġprogress": 5822,
      "Ð½": 5823,
      "liance": 5824,
      "ĠMinister": 5825,
      "Ġorganization": 5826,
      "Ġsyste": 5827,
      "Ġskin": 5828,
      "Ġlatest": 5829,
      "cie": 5830,
      "ielle": 5831,
      "Ġdrive": 5832,
      "Ġelse": 5833,
      "Ġfall": 5834,
      "ckt": 5835,
      "Ġgest": 5836,
      "log": 5837,
      "ĠVirgin": 5838,
      "Ġequipment": 5839,
      "Ġbegin": 5840,
      "Ġimmedi": 5841,
      "Ġcompte": 5842,
      "semb": 5843,
      "ĠExper": 5844,
      "Ġwrite": 5845,
      "Ġdenn": 5846,
      "ĠPers": 5847,
      "ĠWill": 5848,
      "ocol": 5849,
      "ĠVon": 5850,
      "Ġsave": 5851,
      "Ġnice": 5852,
      "rieben": 5853,
      "osa": 5854,
      "Ġdei": 5855,
      "ĠDam": 5856,
      "ĠLebens": 5857,
      "pub": 5858,
      "Ġcollec": 5859,
      "ĠGemeinde": 5860,
      "ĠGran": 5861,
      "Ġstories": 5862,
      "ĠAlle": 5863,
      "Ġpap": 5864,
      "Ġweight": 5865,
      "ÑĢ": 5866,
      "aled": 5867,
      "ĠWasser": 5868,
      "teller": 5869,
      "angen": 5870,
      "Ġtrain": 5871,
      "ĠDezember": 5872,
      "Ġtransport": 5873,
      "rde": 5874,
      "Ġmys": 5875,
      "Ġcommit": 5876,
      "tzt": 5877,
      "oster": 5878,
      "OW": 5879,
      "Ġjan": 5880,
      "ĠHistory": 5881,
      "ĠAp": 5882,
      "Ġworth": 5883,
      "BS": 5884,
      "ĠSeries": 5885,
      "issenschaft": 5886,
      "Ġrecherche": 5887,
      "ĠDans": 5888,
      "ĠBrand": 5889,
      "Ġpendant": 5890,
      "kreis": 5891,
      "alists": 5892,
      "OD": 5893,
      "Ġmarried": 5894,
      "tise": 5895,
      "mselves": 5896,
      "Ġquickly": 5897,
      "ora": 5898,
      "Ġcru": 5899,
      "Ġpossib": 5900,
      "Ġmaterials": 5901,
      "Ġlieu": 5902,
      "ecutive": 5903,
      "Ġhair": 5904,
      "Ġsuccessful": 5905,
      "Ġimpact": 5906,
      "Ste": 5907,
      "Ġhost": 5908,
      "hui": 5909,
      "LA": 5910,
      "Ġ1989": 5911,
      "Ġwish": 5912,
      "ĠIhnen": 5913,
      "ĠBeach": 5914,
      "Ġvolume": 5915,
      "But": 5916,
      "ennen": 5917,
      "Ġexact": 5918,
      "Ġutilise": 5919,
      "ktu": 5920,
      "ffe": 5921,
      "Ġchoice": 5922,
      "neh": 5923,
      "Ġsongs": 5924,
      "Ġtal": 5925,
      "ketball": 5926,
      "roy": 5927,
      "su": 5928,
      "ĠPrin": 5929,
      "minal": 5930,
      "nahme": 5931,
      "anst": 5932,
      "ologies": 5933,
      "Ġ39": 5934,
      "Ġshop": 5935,
      "Ġspirit": 5936,
      "bus": 5937,
      "Ġthemselves": 5938,
      "Ġmas": 5939,
      "enty": 5940,
      "Ġwid": 5941,
      "Ġstates": 5942,
      "align": 5943,
      "gas": 5944,
      "Ġtouch": 5945,
      "ugend": 5946,
      "inst": 5947,
      "Ġamazing": 5948,
      "ification": 5949,
      "Ġprogramm": 5950,
      "ĠAcademy": 5951,
      "Ġfamille": 5952,
      "Ġrecently": 5953,
      "ĠBew": 5954,
      "ĠCommission": 5955,
      "Ġcela": 5956,
      "Ġconne": 5957,
      "char": 5958,
      "ĠSet": 5959,
      "Ġdark": 5960,
      "ĠBul": 5961,
      "Ġseule": 5962,
      "Ġclim": 5963,
      "ĠFebruar": 5964,
      "ÑĤ": 5965,
      "olid": 5966,
      "Ġban": 5967,
      "ĠWinter": 5968,
      "Ġparf": 5969,
      "ĠHy": 5970,
      "Ġaudi": 5971,
      "omet": 5972,
      "Ġnive": 5973,
      "gies": 5974,
      "istre": 5975,
      "Ġjoined": 5976,
      "ellschaft": 5977,
      "Ġseems": 5978,
      "Ġforme": 5979,
      "Ġencou": 5980,
      "DR": 5981,
      "Ġadop": 5982,
      "Ass": 5983,
      "Ġkon": 5984,
      "vest": 5985,
      "mbH": 5986,
      "Ġreste": 5987,
      "Ġbeaucoup": 5988,
      "Ġ300": 5989,
      "Ġihren": 5990,
      ">Â©": 5991,
      "ĠPap": 5992,
      "oni": 5993,
      "ĠMedia": 5994,
      "ĠHaupt": 5995,
      "Ġlassen": 5996,
      "ĠCra": 5997,
      "Ġsuit": 5998,
      "Ġanyone": 5999,
      "âĢĿ<": 6000,
      "ĠChild": 6001,
      "Ġfish": 6002,
      "ĠFrauen": 6003,
      "ĠRou": 6004,
      "Ġmorning": 6005,
      "Ġrepre": 6006,
      "Ġopened": 6007,
      "orter": 6008,
      "Ġmur": 6009,
      "Ġ36": 6010,
      "achi": 6011,
      "ichten": 6012,
      "ĠReal": 6013,
      "auty": 6014,
      "ĠTHE": 6015,
      "ĠAustralian": 6016,
      "Ġpositive": 6017,
      "ĠMos": 6018,
      "Wir": 6019,
      "asi": 6020,
      "Mus": 6021,
      "Ġsag": 6022,
      "bec": 6023,
      "ĠAndre": 6024,
      "ĠFern": 6025,
      "respond": 6026,
      "alism": 6027,
      "Ġstatt": 6028,
      "sa": 6029,
      "ĠBlu": 6030,
      "Ġfaut": 6031,
      "ader": 6032,
      "force": 6033,
      "hard": 6034,
      "schn": 6035,
      "ĠTr": 6036,
      "ĠWestern": 6037,
      "Ġ48": 6038,
      "Ġeben": 6039,
      "Ġlevels": 6040,
      "Ġarticles": 6041,
      "ĠÂ©": 6042,
      "Ġ1988": 6043,
      "plan": 6044,
      "idential": 6045,
      "Ġweitere": 6046,
      "aming": 6047,
      "Ġcommand": 6048,
      "Ġtowards": 6049,
      "well": 6050,
      "onder": 6051,
      "Ġchaque": 6052,
      "Ġisn": 6053,
      "Ġkommt": 6054,
      "à¸": 6055,
      "Ġtraditional": 6056,
      "Ġability": 6057,
      "Ġneu": 6058,
      "vous": 6059,
      "Ġsense": 6060,
      "rative": 6061,
      "Ġcel": 6062,
      "rary": 6063,
      "sult": 6064,
      "itel": 6065,
      "Ġmari": 6066,
      "Ġcad": 6067,
      "ĠArbeit": 6068,
      "Ġaim": 6069,
      "Ġformation": 6070,
      "eten": 6071,
      "ĠGroÃŁ": 6072,
      "Ġfresh": 6073,
      "Ġvs": 6074,
      "osen": 6075,
      "Comm": 6076,
      "Ġdav": 6077,
      "Ġneigh": 6078,
      "platz": 6079,
      "ĠBill": 6080,
      "ulte": 6081,
      "Ġanaly": 6082,
      "ierten": 6083,
      "ĠRE": 6084,
      "eff": 6085,
      "yond": 6086,
      "Ġku": 6087,
      "Ġ06": 6088,
      "ĠLive": 6089,
      "titude": 6090,
      "Ġrelationship": 6091,
      "Ġcu": 6092,
      "atte": 6093,
      "Ġhands": 6094,
      "quently": 6095,
      "tor": 6096,
      "Don": 6097,
      "ĠAlso": 6098,
      "ĠVin": 6099,
      "Ġcet": 6100,
      "Ġdeutscher": 6101,
      "Ġpropos": 6102,
      "ĠFlu": 6103,
      "ĠList": 6104,
      "Ġtun": 6105,
      "Ġcontinued": 6106,
      "Ġschedu": 6107,
      "isions": 6108,
      "Ġmovie": 6109,
      "Ġeigen": 6110,
      "ĠVerei": 6111,
      "umber": 6112,
      "jekt": 6113,
      "ĠJud": 6114,
      "Ġlooks": 6115,
      "Ġsometimes": 6116,
      "ãģ": 6117,
      "Ġreturned": 6118,
      "Ġclient": 6119,
      "jourd": 6120,
      "ĠCi": 6121,
      "Ġsyn": 6122,
      "Ġnove": 6123,
      "Ġgru": 6124,
      "Ġfal": 6125,
      "ĠChinese": 6126,
      "sur": 6127,
      "vres": 6128,
      "bro": 6129,
      "ĠSummer": 6130,
      "Ġglass": 6131,
      "ĠKl": 6132,
      "igan": 6133,
      "Ġroman": 6134,
      "ĠIT": 6135,
      "cole": 6136,
      "wand": 6137,
      "Ġowners": 6138,
      "duct": 6139,
      "Ġ07": 6140,
      "Ġallows": 6141,
      "Ġdiesen": 6142,
      "Ġlimited": 6143,
      "Ġdemand": 6144,
      "rian": 6145,
      "ambre": 6146,
      "opf": 6147,
      "Ġcommunication": 6148,
      "Ġcart": 6149,
      "ĠRei": 6150,
      "Ġpolitique": 6151,
      "aven": 6152,
      "ĠOther": 6153,
      "Ñģ": 6154,
      "VD": 6155,
      "ĠGmbH": 6156,
      "Ġremember": 6157,
      "Ġhighly": 6158,
      "Ġexpect": 6159,
      "Ġeasily": 6160,
      "Ġbzw": 6161,
      "Au": 6162,
      "ĠFlorida": 6163,
      "Ġgiving": 6164,
      "tist": 6165,
      "aland": 6166,
      "Ġfolg": 6167,
      "Ġinner": 6168,
      "Ġparties": 6169,
      "Ġexci": 6170,
      "emi": 6171,
      "Ġproviding": 6172,
      "ĠAff": 6173,
      "Ġteil": 6174,
      "Ġedit": 6175,
      "Ġtechniques": 6176,
      "Ġbul": 6177,
      "ified": 6178,
      "ettes": 6179,
      "Ġfemme": 6180,
      "Ġoct": 6181,
      "Ġregister": 6182,
      "onna": 6183,
      "ĠRecords": 6184,
      "Ġvoir": 6185,
      "Ġdoit": 6186,
      "hy": 6187,
      "ĠChicago": 6188,
      "Ġlargest": 6189,
      "Ġsem": 6190,
      "schied": 6191,
      "Ġmise": 6192,
      "ĠJoseph": 6193,
      "Ġunit": 6194,
      "ndig": 6195,
      "olo": 6196,
      "onders": 6197,
      "Ġsafe": 6198,
      "chaften": 6199,
      "NE": 6200,
      "ĠCath": 6201,
      "Che": 6202,
      "ĠPhil": 6203,
      "Ġuses": 6204,
      "Sc": 6205,
      "owns": 6206,
      "Ġnecessary": 6207,
      "Ġton": 6208,
      "Ġrail": 6209,
      "Ġseven": 6210,
      "Ġalthough": 6211,
      "Ġfeed": 6212,
      "Ġmars": 6213,
      "Ġpurchase": 6214,
      "Ġpropose": 6215,
      "Ġdeaths": 6216,
      "kl": 6217,
      "fest": 6218,
      "Ġhy": 6219,
      "FC": 6220,
      "Ann": 6221,
      "Ġstreng": 6222,
      "zz": 6223,
      "oliday": 6224,
      "ĠAfrican": 6225,
      "Ma": 6226,
      "acc": 6227,
      "ĠFru": 6228,
      "icine": 6229,
      "ĠDuring": 6230,
      "ĠWin": 6231,
      "gment": 6232,
      "tzen": 6233,
      "Ġoccur": 6234,
      "Ġsum": 6235,
      "riel": 6236,
      "si": 6237,
      "comes": 6238,
      "ĠTim": 6239,
      "esp": 6240,
      "Ġexcellent": 6241,
      "tional": 6242,
      "ulaire": 6243,
      "Ġdifficult": 6244,
      "Ġgas": 6245,
      "uma": 6246,
      "Ġarbe": 6247,
      "Ġmaster": 6248,
      "Ġcool": 6249,
      "CT": 6250,
      "Ġdaily": 6251,
      "Ġfamilies": 6252,
      "Ġpartners": 6253,
      "Ġsafety": 6254,
      "Ġfinished": 6255,
      "Ġange": 6256,
      "obre": 6257,
      "Ġconvers": 6258,
      "astic": 6259,
      "amples": 6260,
      "umin": 6261,
      "atten": 6262,
      "Ġdirectly": 6263,
      "ienne": 6264,
      "Ġvic": 6265,
      "Ġquand": 6266,
      "Ġqualite": 6267,
      "ĠNatur": 6268,
      "aters": 6269,
      "Ġnotamment": 6270,
      "Ġblue": 6271,
      "Ġdaughter": 6272,
      "partement": 6273,
      "rations": 6274,
      "Ġforces": 6275,
      "Ġnar": 6276,
      "Ġspeed": 6277,
      "von": 6278,
      "cles": 6279,
      "ĠCam": 6280,
      "phe": 6281,
      "Ġbeach": 6282,
      "History": 6283,
      "Ġcr": 6284,
      "umes": 6285,
      "Ġ()": 6286,
      "Ġfair": 6287,
      "mitted": 6288,
      "ffer": 6289,
      "edi": 6290,
      "Ġaf": 6291,
      "Ġcentral": 6292,
      "Ġgoes": 6293,
      "vrier": 6294,
      "Ġtrade": 6295,
      "ĠArbeits": 6296,
      "omo": 6297,
      "alid": 6298,
      "gende": 6299,
      "2009": 6300,
      "tices": 6301,
      "ĠSqu": 6302,
      "cho": 6303,
      "ĠKomm": 6304,
      "Ġsort": 6305,
      "wicklung": 6306,
      "Literatur": 6307,
      "Ġkam": 6308,
      "Ġpiece": 6309,
      "Ġclin": 6310,
      "onom": 6311,
      "ĠAmazon": 6312,
      "Ġbehav": 6313,
      "Als": 6314,
      "ĠSocial": 6315,
      "Ġsend": 6316,
      "ĠEUR": 6317,
      "Ġgives": 6318,
      "lacement": 6319,
      "ously": 6320,
      "heits": 6321,
      "pin": 6322,
      "cific": 6323,
      "Ġdegree": 6324,
      "Ġserve": 6325,
      "Ġklei": 6326,
      "ĠðŁ": 6327,
      "ĠGeschichte": 6328,
      "Ġbeiden": 6329,
      "Ġ150": 6330,
      "ĠVous": 6331,
      "Ġcompar": 6332,
      "ĠBeit": 6333,
      "Ġcampaign": 6334,
      "ĠUnternehmen": 6335,
      "Ġnomi": 6336,
      "ĠKore": 6337,
      "Ġappre": 6338,
      "NA": 6339,
      "ĠEvery": 6340,
      "Comp": 6341,
      "ĠHans": 6342,
      "Ġ33": 6343,
      "Ġdeb": 6344,
      "Home": 6345,
      "vertis": 6346,
      "Ġones": 6347,
      "Ġtools": 6348,
      "sement": 6349,
      "Ce": 6350,
      "apon": 6351,
      "86": 6352,
      "igur": 6353,
      "onto": 6354,
      "tze": 6355,
      "Ġclick": 6356,
      "via": 6357,
      "Ġresources": 6358,
      "UM": 6359,
      "Her": 6360,
      "Ġbrought": 6361,
      "ennis": 6362,
      "erie": 6363,
      "iring": 6364,
      "Ġsatis": 6365,
      "Ġsac": 6366,
      "rast": 6367,
      "Ġnomin": 6368,
      "Ġafin": 6369,
      "ĠLeben": 6370,
      "ĠâĨĴ": 6371,
      "Mod": 6372,
      "Ġausge": 6373,
      "tainment": 6374,
      "td": 6375,
      "lais": 6376,
      "ĠJust": 6377,
      "ĠMann": 6378,
      "ĠDevelopment": 6379,
      "chnik": 6380,
      "Ġfarm": 6381,
      "ennes": 6382,
      "Ġsport": 6383,
      "ĠHier": 6384,
      "Ġresponse": 6385,
      "ĠCommunity": 6386,
      "venir": 6387,
      "ĠKat": 6388,
      "aught": 6389,
      "ationen": 6390,
      "LC": 6391,
      "ulty": 6392,
      "ĠPop": 6393,
      "innen": 6394,
      "Ġpeuvent": 6395,
      "aturday": 6396,
      "apy": 6397,
      "Ġmechan": 6398,
      "forder": 6399,
      "ĠKingdom": 6400,
      "Ġak": 6401,
      "Ġhoch": 6402,
      "Ġneg": 6403,
      "Ġbesch": 6404,
      "ĠCook": 6405,
      "redit": 6406,
      "ĠLandes": 6407,
      "rach": 6408,
      "ĠJapanese": 6409,
      "int": 6410,
      "ffee": 6411,
      "Ġbeginning": 6412,
      "ĠKap": 6413,
      "Ġwelche": 6414,
      "Ġcast": 6415,
      "ĠAP": 6416,
      "ritten": 6417,
      "Ġeth": 6418,
      "uty": 6419,
      "Ġcapt": 6420,
      "ĠSchwei": 6421,
      "Ġmarche": 6422,
      "pects": 6423,
      "SA": 6424,
      "ĠAngeles": 6425,
      "Ġenfants": 6426,
      "cade": 6427,
      "Ġstarting": 6428,
      "Ġgoals": 6429,
      "Ġfavorite": 6430,
      "porate": 6431,
      "',": 6432,
      "FL": 6433,
      "dam": 6434,
      "Ġchem": 6435,
      "tembre": 6436,
      "Ġdemande": 6437,
      "ĠListe": 6438,
      "bind": 6439,
      "kommen": 6440,
      "ĠEnter": 6441,
      "lections": 6442,
      "ĠMiche": 6443,
      "ĠOffic": 6444,
      "ielt": 6445,
      "Ġcalc": 6446,
      "ĠTele": 6447,
      "Ġgets": 6448,
      "Ġfantas": 6449,
      "bern": 6450,
      "lication": 6451,
      "Ġspec": 6452,
      "eurs": 6453,
      "mond": 6454,
      "Ro": 6455,
      "Ġnord": 6456,
      "Ġtrip": 6457,
      "ĠTher": 6458,
      "ĠNic": 6459,
      "Ġfollowed": 6460,
      "Ġ1987": 6461,
      "Ġnor": 6462,
      "Ġly": 6463,
      "Ġplanning": 6464,
      "Ġphysical": 6465,
      "cier": 6466,
      "93": 6467,
      "Ġdazu": 6468,
      "Ġblood": 6469,
      "Ġdead": 6470,
      "ĠCette": 6471,
      "SC": 6472,
      "Ġjuin": 6473,
      "Ġcontinu": 6474,
      "fla": 6475,
      "Ġserious": 6476,
      "ĠWu": 6477,
      "Ġmetal": 6478,
      "ĠMaster": 6479,
      "Ġlas": 6480,
      "ĠCO": 6481,
      "ĠPeople": 6482,
      "inc": 6483,
      "ĠBrown": 6484,
      "Ġclasse": 6485,
      "Med": 6486,
      "Ġ00": 6487,
      "ĠCanadian": 6488,
      "abel": 6489,
      "wers": 6490,
      "ufen": 6491,
      "bere": 6492,
      "áĨ": 6493,
      "Ġselon": 6494,
      "jets": 6495,
      "Ġprojet": 6496,
      "ĠComment": 6497,
      "Ġsaison": 6498,
      "adi": 6499,
      "limin": 6500,
      "ĠEss": 6501,
      "Ġcosts": 6502,
      "punkt": 6503,
      "Ġdevice": 6504,
      "Ġpolitici": 6505,
      "reichen": 6506,
      "Ġprogramme": 6507,
      "ureau": 6508,
      "ĠSus": 6509,
      "aks": 6510,
      "ĠNous": 6511,
      "Ġtemper": 6512,
      "Ġstorage": 6513,
      "Ġcabi": 6514,
      "Ġerhalten": 6515,
      "Ġfond": 6516,
      "usband": 6517,
      "Ġleader": 6518,
      "Ġformat": 6519,
      "Ġacade": 6520,
      "unft": 6521,
      "Ġ1986": 6522,
      "Ġspent": 6523,
      "pet": 6524,
      "cteur": 6525,
      "2008": 6526,
      "Ġcontract": 6527,
      "win": 6528,
      "body": 6529,
      "ĠGuide": 6530,
      "etzen": 6531,
      "Ġproduits": 6532,
      "arbeit": 6533,
      "Ġmotor": 6534,
      "chafts": 6535,
      "iano": 6536,
      "92": 6537,
      "ĠMittel": 6538,
      "unities": 6539,
      "recht": 6540,
      "ĠAngeb": 6541,
      "lated": 6542,
      "Ġgab": 6543,
      "reland": 6544,
      "Ġchanged": 6545,
      "Ġvrai": 6546,
      "Fin": 6547,
      "fortable": 6548,
      "ĠWie": 6549,
      "tigt": 6550,
      "gious": 6551,
      "ĠDownload": 6552,
      "Ġconcept": 6553,
      "piration": 6554,
      "Ġcolle": 6555,
      "ockey": 6556,
      "urg": 6557,
      "icient": 6558,
      "Ġjeu": 6559,
      "Ġlimit": 6560,
      "Ġpicture": 6561,
      "ersey": 6562,
      "Ġvoll": 6563,
      "Voir": 6564,
      "gcolor": 6565,
      "zial": 6566,
      "94": 6567,
      "Ġcapital": 6568,
      "Ġrelig": 6569,
      "Ġpros": 6570,
      "enses": 6571,
      "96": 6572,
      "Ġnet": 6573,
      "Ġtend": 6574,
      "rez": 6575,
      "arine": 6576,
      "DA": 6577,
      "gro": 6578,
      "ĠMond": 6579,
      "/<": 6580,
      "ĠEas": 6581,
      "Ġcorrespond": 6582,
      "Ġ1984": 6583,
      "Ġfirm": 6584,
      "Ġeconomic": 6585,
      "Ġ34": 6586,
      "ĠTable": 6587,
      "osting": 6588,
      "Ġhotel": 6589,
      "isted": 6590,
      "see": 6591,
      "ilding": 6592,
      "straÃŁe": 6593,
      "tified": 6594,
      "Ġpresident": 6595,
      "Ġsan": 6596,
      "ĠJesus": 6597,
      "ĠChampionship": 6598,
      "Ġcontempor": 6599,
      "mu": 6600,
      "icken": 6601,
      "Ġvict": 6602,
      "Ġcv": 6603,
      "Ġdoll": 6604,
      "Gu": 6605,
      "ĠColor": 6606,
      "ĠForum": 6607,
      "wide": 6608,
      "ittle": 6609,
      "Ġactivity": 6610,
      "ĠNeu": 6611,
      "97": 6612,
      "ered": 6613,
      "ĠRadio": 6614,
      "kten": 6615,
      "cine": 6616,
      "DE": 6617,
      "Poli": 6618,
      "nement": 6619,
      "Star": 6620,
      "ooth": 6621,
      "zens": 6622,
      "Ġcompletely": 6623,
      "Ġfully": 6624,
      "rlich": 6625,
      ">Â«": 6626,
      "Ġparticu": 6627,
      "Ġpil": 6628,
      "tina": 6629,
      "ĠValley": 6630,
      "ĠAR": 6631,
      "Ġessay": 6632,
      "zeichnet": 6633,
      "ĠLord": 6634,
      "ĠTwo": 6635,
      "pri": 6636,
      "ĠFriday": 6637,
      "Ġ1950": 6638,
      "ĠNE": 6639,
      "side": 6640,
      "achen": 6641,
      "mals": 6642,
      "eball": 6643,
      "rish": 6644,
      "Ġindividuals": 6645,
      "Ġsurv": 6646,
      "Ġslow": 6647,
      "UE": 6648,
      "igned": 6649,
      "Ġ04": 6650,
      "ĠUniversita": 6651,
      "ktur": 6652,
      "itor": 6653,
      "har": 6654,
      "Ġcarry": 6655,
      "ization": 6656,
      "Ġfabric": 6657,
      "Ġmou": 6658,
      "Ġsigned": 6659,
      "ĠFootball": 6660,
      "ĠDirector": 6661,
      "Ġlim": 6662,
      "Ġreviews": 6663,
      "Pub": 6664,
      "TC": 6665,
      "ĠTraining": 6666,
      "ua": 6667,
      "chel": 6668,
      "Ġsurround": 6669,
      "Ġdir": 6670,
      "lee": 6671,
      "Ġsty": 6672,
      "Ġjam": 6673,
      "Ġagre": 6674,
      "alm": 6675,
      "unte": 6676,
      "rn": 6677,
      "Ġchau": 6678,
      "Ber": 6679,
      "Ġfine": 6680,
      "ava": 6681,
      "zt": 6682,
      "ĠWien": 6683,
      "ĠCode": 6684,
      "Ġcelui": 6685,
      "forme": 6686,
      "ĠTit": 6687,
      "Ġrei": 6688,
      "bru": 6689,
      "ourne": 6690,
      "Ġweil": 6691,
      "agra": 6692,
      "ĠLight": 6693,
      "ĠAL": 6694,
      "struction": 6695,
      "umen": 6696,
      "Ġassociated": 6697,
      "ounds": 6698,
      "ĠWeek": 6699,
      "rap": 6700,
      "Uni": 6701,
      "Ġ1985": 6702,
      "cembre": 6703,
      "ĠZwe": 6704,
      "legt": 6705,
      "Ġ02": 6706,
      "Ġsun": 6707,
      "Ġship": 6708,
      "gabe": 6709,
      "gestellt": 6710,
      "Ġdernier": 6711,
      "ĠHenry": 6712,
      "umni": 6713,
      "osite": 6714,
      "stan": 6715,
      "Ġmicro": 6716,
      "ĠSong": 6717,
      "ĠPack": 6718,
      "Ġdemon": 6719,
      "Ġdating": 6720,
      "top": 6721,
      "Ġguitar": 6722,
      "Ġvote": 6723,
      "hmen": 6724,
      "ĠPierre": 6725,
      "ĠPay": 6726,
      "Ġeurope": 6727,
      "ĠEU": 6728,
      "Ġpark": 6729,
      "usch": 6730,
      "ATION": 6731,
      "Ġrepla": 6732,
      "She": 6733,
      "ahmen": 6734,
      "osph": 6735,
      "ĠPage": 6736,
      "care": 6737,
      "icrosoft": 6738,
      "Ġcharacters": 6739,
      "ativ": 6740,
      "ĠSports": 6741,
      "ĠCross": 6742,
      "oden": 6743,
      "Ġbatter": 6744,
      "Ġcancer": 6745,
      "Ġmyself": 6746,
      "84": 6747,
      "itness": 6748,
      "ĠTechnology": 6749,
      "Ġhol": 6750,
      "einer": 6751,
      "Ġbaby": 6752,
      "ĠCasino": 6753,
      "ĠSunday": 6754,
      "ĠAuss": 6755,
      "Ġbenefits": 6756,
      "Ġlisted": 6757,
      "MA": 6758,
      "Ġniveau": 6759,
      "Ġclos": 6760,
      "Ġvin": 6761,
      "ĠReich": 6762,
      "bahn": 6763,
      "Ġgraph": 6764,
      "tats": 6765,
      "ĠFamily": 6766,
      "haps": 6767,
      "Ġrund": 6768,
      "ĠOrt": 6769,
      "ÌĨ": 6770,
      "lah": 6771,
      "Ġjanvier": 6772,
      "Ġrank": 6773,
      "ĠView": 6774,
      "ĠEuropa": 6775,
      "Ġwarm": 6776,
      "cting": 6777,
      "Ġorganis": 6778,
      "lab": 6779,
      "UL": 6780,
      "ĠDat": 6781,
      "achsen": 6782,
      "wan": 6783,
      "rder": 6784,
      "ivre": 6785,
      "Ġbat": 6786,
      "Ġfinish": 6787,
      "Dis": 6788,
      "Ġlibr": 6789,
      "Ġposted": 6790,
      "ĠGame": 6791,
      "Ġseek": 6792,
      "prises": 6793,
      "Ġsecret": 6794,
      "87": 6795,
      "Ġfelt": 6796,
      "Ġeffects": 6797,
      "Ġtim": 6798,
      "Ġvirt": 6799,
      "orne": 6800,
      "Ġbran": 6801,
      "ĠNetwork": 6802,
      "Ġrepe": 6803,
      "jou": 6804,
      "Ġproduit": 6805,
      "fy": 6806,
      "Ġgouvern": 6807,
      "Ġartists": 6808,
      "origin": 6809,
      "Ġ05": 6810,
      "abeth": 6811,
      "Ġtitre": 6812,
      "ãĥ": 6813,
      "miss": 6814,
      "Ġ000": 6815,
      "ĠMitglied": 6816,
      "ĠKra": 6817,
      "with": 6818,
      "Ġinstit": 6819,
      "gis": 6820,
      "ĠInformationen": 6821,
      "Ġbgcolor": 6822,
      "Per": 6823,
      "paration": 6824,
      "tiert": 6825,
      "user": 6826,
      "ĠRail": 6827,
      "sse": 6828,
      "icks": 6829,
      "aki": 6830,
      "Ġ1945": 6831,
      "83": 6832,
      "Ġfinally": 6833,
      "ĠFood": 6834,
      "Ġmeaning": 6835,
      "Ġmoving": 6836,
      "Ġnormal": 6837,
      "Geboren": 6838,
      "ĠRussian": 6839,
      "Ġsmart": 6840,
      "illy": 6841,
      "Ġmovement": 6842,
      "ĠHard": 6843,
      "Ġitali": 6844,
      "uri": 6845,
      "Ger": 6846,
      "Ġallowed": 6847,
      "oker": 6848,
      "Ġlines": 6849,
      "amps": 6850,
      "ĠVen": 6851,
      "where": 6852,
      "Ġrecorded": 6853,
      "ĠDeb": 6854,
      "Ġfemale": 6855,
      "Ġsavoir": 6856,
      "ĠName": 6857,
      "ller": 6858,
      "riage": 6859,
      "ĠKen": 6860,
      "Ġwhose": 6861,
      "Ġnin": 6862,
      "Ġshown": 6863,
      "ĠWenn": 6864,
      "CD": 6865,
      "Ġcreating": 6866,
      "Ġoptim": 6867,
      "Ġobjec": 6868,
      "ĠChap": 6869,
      "Ġinteresting": 6870,
      "tivity": 6871,
      "Ġrequest": 6872,
      "ĠWall": 6873,
      "mel": 6874,
      "Ġrespect": 6875,
      "ĠWed": 6876,
      "91": 6877,
      "Ġdress": 6878,
      "Ġwrong": 6879,
      "PR": 6880,
      "ĠAwards": 6881,
      "ĠAtlan": 6882,
      "ework": 6883,
      "gle": 6884,
      "utch": 6885,
      "ĠSud": 6886,
      "fass": 6887,
      "Ġintegra": 6888,
      "Ġemo": 6889,
      "Ġfail": 6890,
      "2007": 6891,
      "ĠRom": 6892,
      "ĠAuto": 6893,
      "Ġchair": 6894,
      "ĠBox": 6895,
      "Ġperformed": 6896,
      ".:": 6897,
      "olution": 6898,
      "ema": 6899,
      "Ġthinking": 6900,
      ".)<": 6901,
      "Ġprimary": 6902,
      "Ġstudio": 6903,
      "ĠCommittee": 6904,
      "ĠThen": 6905,
      "IF": 6906,
      "ĠAber": 6907,
      "ĠMater": 6908,
      "bildung": 6909,
      "oes": 6910,
      "Ġappeared": 6911,
      "Ġsaying": 6912,
      "wor": 6913,
      "down": 6914,
      "rime": 6915,
      "Ġdernie": 6916,
      "Ġtant": 6917,
      "Ġsce": 6918,
      "Ġvehicle": 6919,
      "esis": 6920,
      "ĠGovernment": 6921,
      "fique": 6922,
      "ĠPrix": 6923,
      "center": 6924,
      "furt": 6925,
      "ĠâĢł": 6926,
      "Ġextrem": 6927,
      "actions": 6928,
      "alter": 6929,
      "Ġgarden": 6930,
      "Ġmodels": 6931,
      "ĠOli": 6932,
      "scher": 6933,
      "Ġnumer": 6934,
      "liament": 6935,
      "yan": 6936,
      "ĠShi": 6937,
      "ĠLei": 6938,
      "wert": 6939,
      "ĠWild": 6940,
      "Ġevidence": 6941,
      "fo": 6942,
      "mier": 6943,
      "Ġsli": 6944,
      "Ġhuge": 6945,
      "ĠWolf": 6946,
      "TER": 6947,
      "ĠKrie": 6948,
      "ĠDec": 6949,
      "ĠArchite": 6950,
      "etzung": 6951,
      "Ġpartner": 6952,
      "Ġhyd": 6953,
      "tter": 6954,
      "Ġerfolg": 6955,
      "Ġpurpose": 6956,
      "DS": 6957,
      "Ġoccasion": 6958,
      "ĠImm": 6959,
      "Ġdroit": 6960,
      "ĠPolitik": 6961,
      ".-": 6962,
      "Ġdry": 6963,
      "Ġhighest": 6964,
      "indet": 6965,
      "Ġerh": 6966,
      "chester": 6967,
      "Ġentry": 6968,
      "Ġshot": 6969,
      "chsel": 6970,
      "Ġcompetition": 6971,
      "Ġscore": 6972,
      "Ġsubst": 6973,
      "Ġassess": 6974,
      "rill": 6975,
      "Ġ[...]<": 6976,
      "tages": 6977,
      "Ġstrength": 6978,
      "Ġtick": 6979,
      "page": 6980,
      "Ġinstal": 6981,
      "lia": 6982,
      "ĠThr": 6983,
      "Ġexemple": 6984,
      "Ġbudget": 6985,
      "ĠFore": 6986,
      "Ġhour": 6987,
      "ĠLas": 6988,
      "ĠSaison": 6989,
      "ĠItalian": 6990,
      "comm": 6991,
      "Ġ400": 6992,
      "Ġlock": 6993,
      "Ġpictures": 6994,
      "Ġtechnique": 6995,
      "Ġ75": 6996,
      "ationale": 6997,
      "erin": 6998,
      "ĠFire": 6999,
      "ĠBrit": 7000,
      "ĠBob": 7001,
      "ĠWerk": 7002,
      "Ġbri": 7003,
      "roit": 7004,
      "ĠStock": 7005,
      "rane": 7006,
      "cean": 7007,
      "Ġliber": 7008,
      "ĠAbout": 7009,
      "OUR": 7010,
      "Ġsymb": 7011,
      "Ġrev": 7012,
      "Ġlength": 7013,
      "oine": 7014,
      "Book": 7015,
      "aka": 7016,
      "tten": 7017,
      "tez": 7018,
      "ĠArtikel": 7019,
      "PA": 7020,
      "ĠBilder": 7021,
      "Ġartis": 7022,
      "Ġarm": 7023,
      "Ġ03": 7024,
      "anned": 7025,
      "ĠFrau": 7026,
      "From": 7027,
      "ĠCli": 7028,
      "Ġunderstanding": 7029,
      "nson": 7030,
      "ĠAG": 7031,
      "ĠWell": 7032,
      "Auf": 7033,
      "Ġargu": 7034,
      "Ġhusband": 7035,
      "Ġincreased": 7036,
      "ĠTrump": 7037,
      "TA": 7038,
      "Ġoffered": 7039,
      "ĠBereich": 7040,
      "Ġinterested": 7041,
      "ĠNou": 7042,
      "'d": 7043,
      "Ġdedic": 7044,
      "lossen": 7045,
      "INE": 7046,
      "ĠHom": 7047,
      "rung": 7048,
      "Ġvoc": 7049,
      "lant": 7050,
      "ĠJournal": 7051,
      "kir": 7052,
      "ĠLA": 7053,
      "ĠZealand": 7054,
      "Ġbackground": 7055,
      "wig": 7056,
      "Ġmiddle": 7057,
      "Ġ978": 7058,
      "Åĵu": 7059,
      "Ġgrowing": 7060,
      "olina": 7061,
      "Ġdisease": 7062,
      "klich": 7063,
      "ĠShop": 7064,
      "Ġfurniture": 7065,
      "ĠRel": 7066,
      "Ġdomin": 7067,
      "ĠHon": 7068,
      "Ġinfo": 7069,
      "Ġturned": 7070,
      "lau": 7071,
      "Ġ1983": 7072,
      "Ġspot": 7073,
      "ĠVide": 7074,
      "Ġchi": 7075,
      "Ġtool": 7076,
      "nelle": 7077,
      "ĠSpring": 7078,
      "Ġmiles": 7079,
      "ĠTas": 7080,
      "ĠNY": 7081,
      "Inter": 7082,
      "html": 7083,
      "stei": 7084,
      "Ġstatis": 7085,
      "ĠProject": 7086,
      "istes": 7087,
      "ĠWel": 7088,
      "Ġdenen": 7089,
      "ĠMP": 7090,
      "itely": 7091,
      "Ġseptembre": 7092,
      "Ġannual": 7093,
      "ĠKi": 7094,
      "Ġdat": 7095,
      "Ġeffort": 7096,
      "wu": 7097,
      "Ġexception": 7098,
      "Ġurb": 7099,
      "Ġtrouver": 7100,
      "Ġfigure": 7101,
      "sec": 7102,
      "ĠSecond": 7103,
      "ĠMotor": 7104,
      "Ġplaced": 7105,
      "ĠApple": 7106,
      "82": 7107,
      "aller": 7108,
      "Ġrules": 7109,
      "Ġnames": 7110,
      "lights": 7111,
      "ulting": 7112,
      "Ġapproxim": 7113,
      "acity": 7114,
      "Ġhop": 7115,
      "Ġepisode": 7116,
      "ĠDub": 7117,
      "Ġunserer": 7118,
      "Ġtrib": 7119,
      "anc": 7120,
      "road": 7121,
      "undred": 7122,
      "Ġchose": 7123,
      "pg": 7124,
      "Top": 7125,
      "ĠTru": 7126,
      "ĠPR": 7127,
      "osis": 7128,
      "Ġoccup": 7129,
      "Phone": 7130,
      "icians": 7131,
      "unction": 7132,
      "Ġresponsible": 7133,
      "Ġinfe": 7134,
      "don": 7135,
      "Ġinterpre": 7136,
      "ĠVirginia": 7137,
      "Ġthreat": 7138,
      "ĠTal": 7139,
      "Ġsleep": 7140,
      "Ġ1982": 7141,
      "Ġprices": 7142,
      "ĠCatholic": 7143,
      "Ġconsult": 7144,
      "Ġinde": 7145,
      "ĠMess": 7146,
      "Ġmarque": 7147,
      "ĠHaw": 7148,
      "ensus": 7149,
      "Ġnume": 7150,
      "lieÃŁlich": 7151,
      "Ġ65": 7152,
      "Ġgemei": 7153,
      "ĠDaniel": 7154,
      "ĠSpa": 7155,
      "xx": 7156,
      "aum": 7157,
      "Ġsitu": 7158,
      "Ġbasic": 7159,
      "ĠMili": 7160,
      "star": 7161,
      "Ġnumbers": 7162,
      "Ġsources": 7163,
      "Ġaffec": 7164,
      "Ġunits": 7165,
      "ĠHead": 7166,
      "Ġmanager": 7167,
      "ervice": 7168,
      "ĠTimes": 7169,
      "oga": 7170,
      "Ġletter": 7171,
      "Ġbasis": 7172,
      "ĠForce": 7173,
      "Ġsociety": 7174,
      "Ġapprop": 7175,
      "Ġkommen": 7176,
      "Ġpressure": 7177,
      "Ø§": 7178,
      "Ġgovern": 7179,
      "Ġbuildings": 7180,
      "ricain": 7181,
      "ĠArm": 7182,
      "unning": 7183,
      "Ġpul": 7184,
      "Dies": 7185,
      "Ġeyes": 7186,
      "Ġcloth": 7187,
      "ĠFach": 7188,
      "Ġdig": 7189,
      "Ġexpected": 7190,
      "Co": 7191,
      "Ġapply": 7192,
      "Ġincome": 7193,
      "Ġbeyond": 7194,
      "Ġeast": 7195,
      "Ġpouvoir": 7196,
      "ĠBlan": 7197,
      "Ġexpand": 7198,
      "life": 7199,
      "ĠAnti": 7200,
      "Ġeinige": 7201,
      "Ġcry": 7202,
      "ĠHei": 7203,
      "Pa": 7204,
      "ĠJose": 7205,
      "ĠOrigin": 7206,
      "bot": 7207,
      "ĠFla": 7208,
      "!!!": 7209,
      "ĠMarket": 7210,
      "seau": 7211,
      "ĠCA": 7212,
      "Ġdistance": 7213,
      "IB": 7214,
      "Une": 7215,
      "Char": 7216,
      "Ġeffet": 7217,
      "Ġrequirements": 7218,
      "Ġradi": 7219,
      "sst": 7220,
      "Ġstuff": 7221,
      "kle": 7222,
      "ĠEnts": 7223,
      "Ġnie": 7224,
      "Ġoverall": 7225,
      "Ġcorrect": 7226,
      "ĠPersonen": 7227,
      "resent": 7228,
      "Ġsicher": 7229,
      "eler": 7230,
      "gor": 7231,
      "raine": 7232,
      "antly": 7233,
      "uchen": 7234,
      "anton": 7235,
      "nschaft": 7236,
      "ĠJim": 7237,
      "Ġlisten": 7238,
      "Ġdamage": 7239,
      "Ġprison": 7240,
      "yant": 7241,
      "Ġhelps": 7242,
      "ĠHD": 7243,
      "ĠData": 7244,
      "ĠFoundation": 7245,
      "Ġ1981": 7246,
      "Ġschw": 7247,
      "2000": 7248,
      "rey": 7249,
      "ĠBerg": 7250,
      "Ġstress": 7251,
      "ĠMaria": 7252,
      "Ang": 7253,
      "iki": 7254,
      "fon": 7255,
      "Ġcomments": 7256,
      "Deutsch": 7257,
      "ĠSoftware": 7258,
      "ĠSteph": 7259,
      "Ġopening": 7260,
      "ohner": 7261,
      "Ent": 7262,
      "dited": 7263,
      "Ġselected": 7264,
      "Ġbedroom": 7265,
      "ĠFund": 7266,
      "sembly": 7267,
      "ĠMexico": 7268,
      "voy": 7269,
      "olar": 7270,
      "Ġfeet": 7271,
      "Ġalbums": 7272,
      "Ġbrother": 7273,
      "wise": 7274,
      "Ġparticularly": 7275,
      "ĠIts": 7276,
      "Ġviews": 7277,
      "Ġtried": 7278,
      "date": 7279,
      "ĠMarie": 7280,
      "ĠWay": 7281,
      "Ġsell": 7282,
      "ĠMany": 7283,
      "Ġnatu": 7284,
      "Ġpaid": 7285,
      "ĠGescha": 7286,
      "2020": 7287,
      "Ġgirls": 7288,
      "Ġ44": 7289,
      "Ġexc": 7290,
      "Ġeight": 7291,
      "ĠSale": 7292,
      "Ġ37": 7293,
      "2006": 7294,
      "ĠRechts": 7295,
      "idi": 7296,
      "Ġformed": 7297,
      "tiven": 7298,
      "Ġcelle": 7299,
      "Ġfounded": 7300,
      "ĠKunden": 7301,
      "Ġoperations": 7302,
      "Ġbekannt": 7303,
      "Ġvent": 7304,
      "ĠKer": 7305,
      "Ġ42": 7306,
      "ĠAccess": 7307,
      "cons": 7308,
      "ĠLiber": 7309,
      "iana": 7310,
      "ĠDom": 7311,
      "Ġallen": 7312,
      "ĠKur": 7313,
      "Ġkaufen": 7314,
      "Ġtraite": 7315,
      "Ġearlier": 7316,
      "Ġfest": 7317,
      "Ġmethods": 7318,
      "rper": 7319,
      "aup": 7320,
      "veloppement": 7321,
      "hung": 7322,
      "ĠNight": 7323,
      "inge": 7324,
      "ĠLee": 7325,
      "ĠJugend": 7326,
      "ĠTem": 7327,
      "Ġavis": 7328,
      "standing": 7329,
      "tity": 7330,
      "Ġretrou": 7331,
      "ĠGren": 7332,
      "Ġrapp": 7333,
      "Ġopi": 7334,
      "zes": 7335,
      "hrte": 7336,
      "ĠIreland": 7337,
      "ĠDien": 7338,
      "Ġeye": 7339,
      "Ġkostenlos": 7340,
      "Ġcontains": 7341,
      "name": 7342,
      "Ġeduc": 7343,
      "Ġ1979": 7344,
      "ĠCast": 7345,
      "Ġconcent": 7346,
      "ĠThanks": 7347,
      "Ġlivre": 7348,
      "Ġeu": 7349,
      "oston": 7350,
      "tieren": 7351,
      "Ġdestin": 7352,
      "Gra": 7353,
      "ĠHear": 7354,
      "poli": 7355,
      "quel": 7356,
      "ĠRay": 7357,
      "PC": 7358,
      "Ġfais": 7359,
      "Ġexpl": 7360,
      "Ġdrama": 7361,
      "Ġ1972": 7362,
      "Ġoctobre": 7363,
      "Ġrapide": 7364,
      "Ġpool": 7365,
      "ĠLig": 7366,
      "ii": 7367,
      "ĠSecret": 7368,
      "ĠConference": 7369,
      "ĠOrder": 7370,
      "Ġpouvez": 7371,
      "Mann": 7372,
      "ĠRestaur": 7373,
      "Ġjeder": 7374,
      "Rec": 7375,
      "Ġdifference": 7376,
      "Ġdirected": 7377,
      "Ġnovembre": 7378,
      "ĠSupp": 7379,
      "ĠLear": 7380,
      "nent": 7381,
      "ĠOF": 7382,
      "ĠInt": 7383,
      "Ġpeace": 7384,
      "takt": 7385,
      "ĠSC": 7386,
      "ĠSchla": 7387,
      "81": 7388,
      "Ġjuillet": 7389,
      "ĠSaturday": 7390,
      "ĠgroÃŁe": 7391,
      "Ġking": 7392,
      "Ġzahl": 7393,
      "Ġmagazine": 7394,
      "ĠOx": 7395,
      "TR": 7396,
      "yo": 7397,
      "active": 7398,
      "aliste": 7399,
      "Mer": 7400,
      "pieler": 7401,
      "Ġeinmal": 7402,
      "ģĦ": 7403,
      "fas": 7404,
      "adel": 7405,
      "ĠBlo": 7406,
      "Ġheard": 7407,
      "taient": 7408,
      "rings": 7409,
      "lers": 7410,
      "Ġtheory": 7411,
      "iting": 7412,
      "sor": 7413,
      "Ġcuisine": 7414,
      "Ġgep": 7415,
      "Unis": 7416,
      "Ġsolid": 7417,
      "âĢ²": 7418,
      "Rep": 7419,
      "Ġvoice": 7420,
      "ĠTown": 7421,
      "Person": 7422,
      "tivite": 7423,
      "ĠSche": 7424,
      "Ġcompon": 7425,
      "ĠAsia": 7426,
      "Ġestate": 7427,
      "Ġbonne": 7428,
      "raum": 7429,
      "Ġgenerally": 7430,
      "ĠInst": 7431,
      "Ġdivision": 7432,
      "ondere": 7433,
      "Ġ1978": 7434,
      "Ġdebut": 7435,
      "Ġarrive": 7436,
      "aha": 7437,
      "Ġpoor": 7438,
      "Ġtele": 7439,
      "âģĦ": 7440,
      "Ġharm": 7441,
      "Ġlack": 7442,
      "Ġwriter": 7443,
      "izi": 7444,
      "hio": 7445,
      "Ġhelped": 7446,
      "Ġshi": 7447,
      "known": 7448,
      "utilis": 7449,
      "Ġkilled": 7450,
      "ĠSonn": 7451,
      "''": 7452,
      "Ġstat": 7453,
      "ĠSn": 7454,
      "ighting": 7455,
      "Ġemployees": 7456,
      "Ġmusical": 7457,
      "cular": 7458,
      "Ġincor": 7459,
      "Ġtow": 7460,
      "Ġletzten": 7461,
      "sex": 7462,
      "uto": 7463,
      "jahr": 7464,
      "Ġavril": 7465,
      "ĠFab": 7466,
      "Ð¾Ð": 7467,
      "isches": 7468,
      "ĠBall": 7469,
      "Ġfan": 7470,
      "ĠKle": 7471,
      "acher": 7472,
      "ĠMehr": 7473,
      "Ġsehen": 7474,
      "atel": 7475,
      "Ġlux": 7476,
      "Ġstatus": 7477,
      "kins": 7478,
      "aya": 7479,
      "Ġconduc": 7480,
      "Ġ1975": 7481,
      "ika": 7482,
      "Ġbesten": 7483,
      "curite": 7484,
      "ĠKirche": 7485,
      "Ġincreasing": 7486,
      "ĠFle": 7487,
      "llt": 7488,
      "Ġschnell": 7489,
      "iker": 7490,
      "ĠEven": 7491,
      "Ġderen": 7492,
      "Ġperman": 7493,
      "Ġpersonnel": 7494,
      "ĠPak": 7495,
      "ĠYoung": 7496,
      "has": 7497,
      "Ġwild": 7498,
      "chest": 7499,
      "late": 7500,
      "esen": 7501,
      "Ġsouvent": 7502,
      "edom": 7503,
      "ĠPot": 7504,
      "Ġzone": 7505,
      "ĠTwitter": 7506,
      "Ġmeasure": 7507,
      "ĠWhe": 7508,
      "Ġsea": 7509,
      "Ġ1976": 7510,
      "ĠMake": 7511,
      "bourg": 7512,
      "aked": 7513,
      "Ġsand": 7514,
      "ĠTH": 7515,
      "prech": 7516,
      "Ġfle": 7517,
      "ylvan": 7518,
      "schule": 7519,
      "arante": 7520,
      "ĠSince": 7521,
      "Ġbois": 7522,
      "Ġgene": 7523,
      "Ġthous": 7524,
      "glise": 7525,
      "ĠProm": 7526,
      "ĠCher": 7527,
      "ĠKong": 7528,
      "Ġpris": 7529,
      "helm": 7530,
      "..<": 7531,
      "film": 7532,
      "ĠGeld": 7533,
      "ĠMA": 7534,
      "kre": 7535,
      "Ġagric": 7536,
      "Ġolder": 7537,
      "Ġleague": 7538,
      "Ġdispon": 7539,
      "Ġactions": 7540,
      "Ġwedding": 7541,
      "ĠEconom": 7542,
      "Alle": 7543,
      "ĠBat": 7544,
      "km": 7545,
      "âĢľ<": 7546,
      "Ġnotes": 7547,
      "ĠLibrary": 7548,
      "Ġ55": 7549,
      "Tags": 7550,
      "ĠWord": 7551,
      "Ġimmediately": 7552,
      "nehmer": 7553,
      "ouch": 7554,
      "Ġnearly": 7555,
      "Ġmissing": 7556,
      "poration": 7557,
      "Ġdarauf": 7558,
      "Ġ1968": 7559,
      "alten": 7560,
      "ĠArab": 7561,
      "ĠLux": 7562,
      "Ġchampions": 7563,
      "dire": 7564,
      "rents": 7565,
      "Ġbrow": 7566,
      "Ġindependent": 7567,
      "Ġeffic": 7568,
      "ĠSpanish": 7569,
      "ĠCustom": 7570,
      "Ġboy": 7571,
      "auen": 7572,
      "Ġbathroom": 7573,
      "Â«": 7574,
      "Ġopin": 7575,
      "Ġgrade": 7576,
      "onnement": 7577,
      "Ġconcer": 7578,
      "TH": 7579,
      "hein": 7580,
      "Ġefforts": 7581,
      "ĠSav": 7582,
      "ĠNutz": 7583,
      "ears": 7584,
      "Ġisland": 7585,
      "ĠZusammen": 7586,
      "Ġcash": 7587,
      "anna": 7588,
      "ĠColumb": 7589,
      "Ġowner": 7590,
      "Ġmillions": 7591,
      "ĠWahl": 7592,
      "sche": 7593,
      "ĠSign": 7594,
      "umn": 7595,
      "CA": 7596,
      "ĠZahl": 7597,
      "ĠBow": 7598,
      "zeigen": 7599,
      "link": 7600,
      "Ġstations": 7601,
      "ĠBir": 7602,
      "Ġadvice": 7603,
      "Ġexclus": 7604,
      "Ġchois": 7605,
      "Ġdynam": 7606,
      "exes": 7607,
      "Ġproced": 7608,
      "Ġlaun": 7609,
      "Ġing": 7610,
      "ĠMarketing": 7611,
      "ĠCarolina": 7612,
      "Ġdocuments": 7613,
      "ĠPhilipp": 7614,
      "bank": 7615,
      "ĠSau": 7616,
      "enting": 7617,
      "Ġmettre": 7618,
      "Ġsupply": 7619,
      "Ġbew": 7620,
      "Ġlabor": 7621,
      "Ġheavy": 7622,
      "stre": 7623,
      "ĠCiv": 7624,
      "agers": 7625,
      "minister": 7626,
      "Ġlarger": 7627,
      "Ġproprie": 7628,
      "ĠHein": 7629,
      "Ġhei": 7630,
      "ev": 7631,
      "Ġran": 7632,
      "ĠWho": 7633,
      "Ġhealthy": 7634,
      "ĠHot": 7635,
      "Ġspring": 7636,
      "Ġice": 7637,
      "Ġdelivery": 7638,
      "essions": 7639,
      "tzlich": 7640,
      "bury": 7641,
      "istent": 7642,
      "ĠCamb": 7643,
      "ligen": 7644,
      "Dans": 7645,
      "Ġ1974": 7646,
      "Ġmeine": 7647,
      "ĠSho": 7648,
      "gemei": 7649,
      "Ġrare": 7650,
      "zig": 7651,
      "ĠauÃŁer": 7652,
      "Ġclosed": 7653,
      "Ġinvestment": 7654,
      "ache": 7655,
      "kauf": 7656,
      "inde": 7657,
      "ĠAny": 7658,
      "Ġpublie": 7659,
      "dorf": 7660,
      "ĠSecurity": 7661,
      "ĠPhot": 7662,
      "Ġflex": 7663,
      "rated": 7664,
      "Fe": 7665,
      "Ġbusinesses": 7666,
      "ĠStart": 7667,
      "Trans": 7668,
      "seite": 7669,
      "anges": 7670,
      "Ġvideos": 7671,
      "stein": 7672,
      "Get": 7673,
      "Ġdeutschen": 7674,
      "Ġheat": 7675,
      "ĠIsrael": 7676,
      "ĠPhys": 7677,
      "phy": 7678,
      "Ġhomme": 7679,
      "Ġforms": 7680,
      "Ġwonderful": 7681,
      "onic": 7682,
      "ĠHuman": 7683,
      "bung": 7684,
      "ministration": 7685,
      "rte": 7686,
      "Ġeventually": 7687,
      "ova": 7688,
      "ĠFir": 7689,
      "ragen": 7690,
      "ĠItaly": 7691,
      "Ġpoly": 7692,
      "Ġ120": 7693,
      "Ġvision": 7694,
      "Ġmate": 7695,
      "ĠSicher": 7696,
      "itzer": 7697,
      "Ġamp": 7698,
      "oving": 7699,
      "Ġauc": 7700,
      "ĠKla": 7701,
      "Ġrestaurant": 7702,
      "Ġgratuit": 7703,
      "Ġbass": 7704,
      "ĠLE": 7705,
      "Ġalone": 7706,
      "Ġarch": 7707,
      "how": 7708,
      "ican": 7709,
      "rasse": 7710,
      "Ġspread": 7711,
      "Ġfashion": 7712,
      "Ġmacht": 7713,
      "Ġspend": 7714,
      "bei": 7715,
      "mens": 7716,
      "Ġern": 7717,
      "ete": 7718,
      "ĠHamburg": 7719,
      "atta": 7720,
      "ĠCost": 7721,
      "pren": 7722,
      "Ġorganizations": 7723,
      "eden": 7724,
      "ĠMedical": 7725,
      "ĠNu": 7726,
      "ĠNav": 7727,
      "Ġceux": 7728,
      "Ġcommission": 7729,
      "tsch": 7730,
      "Ġwai": 7731,
      "ĠStei": 7732,
      "ĠGas": 7733,
      "ansas": 7734,
      "Ġdiss": 7735,
      "Ġintroduced": 7736,
      "Ġ1971": 7737,
      "Ġdistin": 7738,
      "krie": 7739,
      "Ġproduce": 7740,
      "Ġruns": 7741,
      "Ġbietet": 7742,
      "Ġgl": 7743,
      "Ġpatient": 7744,
      "ĠRam": 7745,
      "tient": 7746,
      "couver": 7747,
      "Ġmap": 7748,
      "Ġappointed": 7749,
      "ĠThema": 7750,
      "ĠSpecial": 7751,
      "Ġoft": 7752,
      "Ġfeatured": 7753,
      "Ġphilosoph": 7754,
      "sez": 7755,
      "ĠgroÃŁen": 7756,
      "Ġrue": 7757,
      "Ġmel": 7758,
      "rac": 7759,
      "ĠWilliams": 7760,
      "ĠLtd": 7761,
      "ĠDate": 7762,
      "ĠEN": 7763,
      "ategories": 7764,
      "Ġrapport": 7765,
      "ĠSha": 7766,
      "ĠDigital": 7767,
      "Ġsole": 7768,
      "Ġweekend": 7769,
      "Spe": 7770,
      "Ġhomes": 7771,
      "ĠBang": 7772,
      "Ġminor": 7773,
      "bb": 7774,
      "Ġ1977": 7775,
      "Ġavoid": 7776,
      "Ġworden": 7777,
      "Ġfemmes": 7778,
      "Ġexpress": 7779,
      "gangen": 7780,
      "imal": 7781,
      "ading": 7782,
      "schu": 7783,
      "ructure": 7784,
      "Ġsetting": 7785,
      "Ġelements": 7786,
      "Ġici": 7787,
      "Ġbag": 7788,
      "ĠFrei": 7789,
      "Ġvilla": 7790,
      "ĠFamilie": 7791,
      "ello": 7792,
      "rome": 7793,
      "ĠJersey": 7794,
      "tection": 7795,
      "Best": 7796,
      "Ġregarding": 7797,
      "Ġelected": 7798,
      "alerie": 7799,
      "Ġjew": 7800,
      "Ġwindow": 7801,
      "ĠWeg": 7802,
      "Ġalternative": 7803,
      "Ġcovered": 7804,
      "ĠPortug": 7805,
      "quis": 7806,
      "erte": 7807,
      "Ġleaders": 7808,
      "Bei": 7809,
      "Ġtips": 7810,
      "sto": 7811,
      "Ġ1973": 7812,
      "ĠSor": 7813,
      "Ġpresented": 7814,
      "zel": 7815,
      "Ġreports": 7816,
      "ĠSE": 7817,
      "ampf": 7818,
      "identi": 7819,
      "Ġsalle": 7820,
      "Ġguerre": 7821,
      "--------": 7822,
      "Ġwasn": 7823,
      "ndet": 7824,
      "Ġweather": 7825,
      "ĠLine": 7826,
      "ersch": 7827,
      "ĠConn": 7828,
      "ĠStation": 7829,
      "ussures": 7830,
      "hemali": 7831,
      "That": 7832,
      "Ear": 7833,
      "Ġphotograph": 7834,
      "nels": 7835,
      "Ġexplor": 7836,
      "Ġmaximum": 7837,
      "300": 7838,
      "ju": 7839,
      "Ġachieve": 7840,
      "Ġreached": 7841,
      "Ġdiagn": 7842,
      "ĠKarl": 7843,
      "Ġdirekt": 7844,
      "ĠWalk": 7845,
      "Ġspielen": 7846,
      "Ġcompris": 7847,
      "Ġtrend": 7848,
      "Ġstreet": 7849,
      "....<": 7850,
      "ĠMillion": 7851,
      "aste": 7852,
      "ĠPS": 7853,
      "Ġrates": 7854,
      "anie": 7855,
      "wagen": 7856,
      "Ġverfu": 7857,
      "Ġstehen": 7858,
      "Ġquarter": 7859,
      "AND": 7860,
      "Ġpreviously": 7861,
      "ĠClin": 7862,
      "Ġmul": 7863,
      "Ġprendre": 7864,
      "ulate": 7865,
      "Ġjamais": 7866,
      "tex": 7867,
      "Ġcards": 7868,
      "ĠKey": 7869,
      "ĠRog": 7870,
      "ĠOst": 7871,
      "sie": 7872,
      "annte": 7873,
      "Ġwait": 7874,
      "Ġmil": 7875,
      "Ġvoyage": 7876,
      "Ġbecoming": 7877,
      "sm": 7878,
      "Ġteaching": 7879,
      "ibles": 7880,
      "eux": 7881,
      "Ġcounter": 7882,
      "Ġgift": 7883,
      "Ġretur": 7884,
      "Ġdevices": 7885,
      "uche": 7886,
      "Ġprefer": 7887,
      "cated": 7888,
      "pons": 7889,
      "2005": 7890,
      "Ġmondi": 7891,
      "ĠLittle": 7892,
      "Ġrecords": 7893,
      "ĠJones": 7894,
      "Ġcommunities": 7895,
      "Ġclasses": 7896,
      "Ġcritical": 7897,
      "Ġcapit": 7898,
      "Ġebenfalls": 7899,
      "arre": 7900,
      "Ġpassed": 7901,
      "enter": 7902,
      "estic": 7903,
      "Ġaccept": 7904,
      "Ġentwick": 7905,
      "olas": 7906,
      "ligence": 7907,
      "fast": 7908,
      "ĠFair": 7909,
      "ubs": 7910,
      "Ġress": 7911,
      "lassen": 7912,
      "ĠTar": 7913,
      "May": 7914,
      "schutz": 7915,
      "alize": 7916,
      "hema": 7917,
      "orien": 7918,
      "ĠLau": 7919,
      "tile": 7920,
      "erse": 7921,
      "word": 7922,
      "Ġinfluence": 7923,
      "ĠIP": 7924,
      "Ġconfir": 7925,
      "wie": 7926,
      "pass": 7927,
      "nne": 7928,
      "not": 7929,
      "ĠRussia": 7930,
      "Ġjobs": 7931,
      "fil": 7932,
      "Ġworkshop": 7933,
      "Ġfight": 7934,
      "Ġexactly": 7935,
      "chat": 7936,
      "ronze": 7937,
      "Ġdrink": 7938,
      "Ġsoft": 7939,
      "tro": 7940,
      "ĠKan": 7941,
      "Ġchallenge": 7942,
      "Ġsenior": 7943,
      "Ġpowerful": 7944,
      "ĠGene": 7945,
      "Ġdetermin": 7946,
      "Ġ64": 7947,
      "Ġexisting": 7948,
      "usse": 7949,
      "Ġfans": 7950,
      "Ġposts": 7951,
      "ador": 7952,
      "zir": 7953,
      "ĠCongress": 7954,
      "ĠNavy": 7955,
      "Ġsteel": 7956,
      "Ġconven": 7957,
      "Ġwinning": 7958,
      "anging": 7959,
      "ĠNon": 7960,
      "ĠFriedrich": 7961,
      "Ġopportunities": 7962,
      "utschein": 7963,
      "tere": 7964,
      "annten": 7965,
      "Ġrein": 7966,
      "Ġhundred": 7967,
      "ĠRose": 7968,
      "EST": 7969,
      "âĢĿ,": 7970,
      "ugby": 7971,
      "Ġfat": 7972,
      "ttes": 7973,
      "ĠEarth": 7974,
      "Ġesc": 7975,
      "amerikan": 7976,
      "istic": 7977,
      "Ġ1969": 7978,
      "friend": 7979,
      "ĠLink": 7980,
      "AF": 7981,
      "rigen": 7982,
      "ĠFuÃŁball": 7983,
      "ĠFrancisco": 7984,
      "ĠJahres": 7985,
      "Ġfeeling": 7986,
      "ilian": 7987,
      "ĠJon": 7988,
      "Ġseat": 7989,
      "Ġpetite": 7990,
      "ĠHan": 7991,
      "Ġwinter": 7992,
      "pack": 7993,
      "Europe": 7994,
      "Ġpersonne": 7995,
      "Ġabsolute": 7996,
      "Ġthanks": 7997,
      "Ġdessen": 7998,
      "Ġstream": 7999,
      "dra": 8000,
      "Ġcolon": 8001,
      "lins": 8002,
      "ensions": 8003,
      "Ġquatre": 8004,
      "Ġdoctor": 8005,
      "Ġconten": 8006,
      "utlich": 8007,
      "Some": 8008,
      "Ġreasons": 8009,
      "Ġfamous": 8010,
      "obi": 8011,
      "ĠRod": 8012,
      "Ġrend": 8013,
      "outes": 8014,
      "Ġrecip": 8015,
      "Ġbenefit": 8016,
      "Ġprevent": 8017,
      "era": 8018,
      "Ġrelev": 8019,
      "hle": 8020,
      "Ġcars": 8021,
      "Ġjur": 8022,
      "liers": 8023,
      "Ġearth": 8024,
      "ĠLook": 8025,
      "ĠTO": 8026,
      "so": 8027,
      "lind": 8028,
      "histoire": 8029,
      "Up": 8030,
      "Ġended": 8031,
      "nas": 8032,
      "free": 8033,
      "Ġthus": 8034,
      "welt": 8035,
      "look": 8036,
      "CO": 8037,
      "olars": 8038,
      "bas": 8039,
      "letter": 8040,
      "Ġcaracte": 8041,
      "ĠRights": 8042,
      "Ġmaintenance": 8043,
      "urther": 8044,
      "ĠLeist": 8045,
      "ĠMah": 8046,
      "ĠVertra": 8047,
      "Cre": 8048,
      "=#": 8049,
      "Ġdre": 8050,
      "Ġstated": 8051,
      "Ġstrugg": 8052,
      "Ġcorps": 8053,
      "bereich": 8054,
      "Ġselection": 8055,
      "ĠAND": 8056,
      "ĠKreis": 8057,
      "finition": 8058,
      "fred": 8059,
      "Ġrom": 8060,
      "ĠEdition": 8061,
      "Sa": 8062,
      "ĠManager": 8063,
      "Ġconver": 8064,
      "ech": 8065,
      "ocratic": 8066,
      "ĠJa": 8067,
      "rip": 8068,
      "Ġstraight": 8069,
      "Ġcaused": 8070,
      "Ġvir": 8071,
      "Ġnombreux": 8072,
      "Ġfourth": 8073,
      "fern": 8074,
      "mente": 8075,
      "heiten": 8076,
      "ulpt": 8077,
      "Ġbow": 8078,
      "tini": 8079,
      "ibliothe": 8080,
      "ĠSanta": 8081,
      "Ġessential": 8082,
      "essional": 8083,
      "Ġknew": 8084,
      "Bas": 8085,
      "xis": 8086,
      "elly": 8087,
      "Ġlaws": 8088,
      "Ġpense": 8089,
      "Ġtree": 8090,
      "uine": 8091,
      "Not": 8092,
      "Ġpal": 8093,
      "ĠLast": 8094,
      "igung": 8095,
      "Ġ1940": 8096,
      "ĠIran": 8097,
      "ĠFemme": 8098,
      "ĠAust": 8099,
      "Ġflow": 8100,
      "Ġriver": 8101,
      "Ġstars": 8102,
      "Ġmeilleur": 8103,
      "rone": 8104,
      "Ġforeign": 8105,
      "\\/": 8106,
      "Ġappreci": 8107,
      "ĠRome": 8108,
      "Ġrien": 8109,
      "ĠPor": 8110,
      "Ġfederal": 8111,
      "Ġaur": 8112,
      "ĠEsp": 8113,
      "ĠCin": 8114,
      "gic": 8115,
      "ĠIV": 8116,
      "ĠUk": 8117,
      "Ġep": 8118,
      "ĠDur": 8119,
      "chnis": 8120,
      "ĠBeispiel": 8121,
      "Ġlange": 8122,
      "ĠKenn": 8123,
      "ĠProfessor": 8124,
      "ĠAnton": 8125,
      "asure": 8126,
      "ugen": 8127,
      "ĠEth": 8128,
      "ĠPolicy": 8129,
      "Ġmini": 8130,
      "hors": 8131,
      "Ġseparate": 8132,
      "Fran": 8133,
      "aren": 8134,
      "Ġprotect": 8135,
      "Ġadvanced": 8136,
      "dess": 8137,
      "Ġung": 8138,
      "hum": 8139,
      "ERS": 8140,
      "ĠMonday": 8141,
      "oration": 8142,
      "ĠGlobal": 8143,
      "Ġparc": 8144,
      "venture": 8145,
      "Ġestim": 8146,
      "Ġmine": 8147,
      "usta": 8148,
      "Ġdefinitely": 8149,
      "rine": 8150,
      "hausen": 8151,
      "Ġchat": 8152,
      "Ġdistribution": 8153,
      "ĠVors": 8154,
      "ĠPorn": 8155,
      "leist": 8156,
      "etter": 8157,
      "ĠAlthough": 8158,
      "Ġsubse": 8159,
      "jpg": 8160,
      "Ġloved": 8161,
      "ÃĹ": 8162,
      "ĠWhy": 8163,
      "ĠRot": 8164,
      "ĠHerz": 8165,
      "Vous": 8166,
      "Ġ}": 8167,
      "Ġgreater": 8168,
      "Ġpassion": 8169,
      "ĠJer": 8170,
      "ĠAirport": 8171,
      "Ġtechnical": 8172,
      "ĠSmart": 8173,
      "Ġnationale": 8174,
      "Ġsets": 8175,
      "ĠgroÃŁ": 8176,
      "Ġnavig": 8177,
      "ĠUse": 8178,
      "ylvania": 8179,
      "Ġoperation": 8180,
      "Ġcreative": 8181,
      "ĠProduc": 8182,
      "igration": 8183,
      "weis": 8184,
      "Ġjourney": 8185,
      "lisch": 8186,
      "Ġ1967": 8187,
      "ĠEqu": 8188,
      "Ġrelie": 8189,
      "Ġcul": 8190,
      "Ġgemeins": 8191,
      "Ġache": 8192,
      "ĠBeau": 8193,
      "ĠStaff": 8194,
      "kan": 8195,
      "ĠFour": 8196,
      "Ġnumerous": 8197,
      "Ġplants": 8198,
      "ĠPu": 8199,
      "ĠFlo": 8200,
      "Ġimagin": 8201,
      "ÃŁt": 8202,
      "Ġoriginally": 8203,
      "Ġpeint": 8204,
      "Ġvou": 8205,
      "Ġplays": 8206,
      "quen": 8207,
      "Ġdein": 8208,
      "ĠNamen": 8209,
      "Ġaccur": 8210,
      "ĠAlexander": 8211,
      "Ġporn": 8212,
      "dium": 8213,
      "Ġavons": 8214,
      "iben": 8215,
      "Ġ1930": 8216,
      "Ġoffering": 8217,
      "ĠMarc": 8218,
      "Ġstrategy": 8219,
      "Ac": 8220,
      "Ġactivite": 8221,
      "Di": 8222,
      "gl": 8223,
      "Ġnotice": 8224,
      "ucky": 8225,
      "Ġprint": 8226,
      "hes": 8227,
      "Ġfas": 8228,
      "pher": 8229,
      "Ġessenti": 8230,
      "Ġreduce": 8231,
      "vrir": 8232,
      "Ġwirklich": 8233,
      "AU": 8234,
      "Ġdafu": 8235,
      "hai": 8236,
      "pie": 8237,
      "ĠGl": 8238,
      "Ġconnection": 8239,
      "ĠSeiten": 8240,
      "Ġwohl": 8241,
      "liste": 8242,
      "core": 8243,
      "liga": 8244,
      "Ġconference": 8245,
      "VE": 8246,
      "ragon": 8247,
      "ĠKil": 8248,
      "law": 8249,
      "Ġforum": 8250,
      "lishing": 8251,
      "Ġpieces": 8252,
      "lix": 8253,
      "idae": 8254,
      "Ġ250": 8255,
      "ĠAD": 8256,
      "vy": 8257,
      "Pers": 8258,
      "ĠOR": 8259,
      "Ġord": 8260,
      "Ġengineering": 8261,
      "Ġ49": 8262,
      "ĠSac": 8263,
      "spieler": 8264,
      "ĠIls": 8265,
      "ĠDVD": 8266,
      "Ġfont": 8267,
      "ĠDamen": 8268,
      "piele": 8269,
      "ĠZug": 8270,
      "Ġ1000": 8271,
      "quence": 8272,
      "Ġsession": 8273,
      "Ġprovince": 8274,
      "ĠIr": 8275,
      "Ġathle": 8276,
      "Ġrecru": 8277,
      "Ġmemory": 8278,
      "wesome": 8279,
      "Ġaujourd": 8280,
      "tent": 8281,
      "Ġnichts": 8282,
      "Ġavez": 8283,
      "illon": 8284,
      "Ġaou": 8285,
      "orben": 8286,
      "Ġeval": 8287,
      "Ġcompared": 8288,
      "ĠOt": 8289,
      "ĠBoston": 8290,
      "Ġshared": 8291,
      "Ġconside": 8292,
      "Ġbattle": 8293,
      "Ġcoast": 8294,
      "Ġlots": 8295,
      "Please": 8296,
      "andy": 8297,
      "Ġexperienced": 8298,
      "racht": 8299,
      "Ġuseful": 8300,
      "nos": 8301,
      "Ġautoma": 8302,
      "Ġrub": 8303,
      "onda": 8304,
      "ĠWochen": 8305,
      "Ġ(âĢ": 8306,
      "ĠEinsatz": 8307,
      "Ġapproximately": 8308,
      "endar": 8309,
      "ĠHaut": 8310,
      "aturing": 8311,
      "Ġsteps": 8312,
      "ĠHotels": 8313,
      "Ġstark": 8314,
      "gery": 8315,
      "Ġcopy": 8316,
      "Ġstandards": 8317,
      "tout": 8318,
      "ĠVolks": 8319,
      "Ġconv": 8320,
      "Ġteacher": 8321,
      "gefu": 8322,
      "Ġcold": 8323,
      "EE": 8324,
      "Ġwriters": 8325,
      "Ġneben": 8326,
      "arbeiter": 8327,
      "statt": 8328,
      "Ġwants": 8329,
      "ernen": 8330,
      "ĠHeim": 8331,
      "Ġclassic": 8332,
      "Ġ43": 8333,
      "Ġcertains": 8334,
      "Ġbottom": 8335,
      "uve": 8336,
      "run": 8337,
      "tan": 8338,
      "Ġciti": 8339,
      "lon": 8340,
      "Ġaktu": 8341,
      ">âĢĵ": 8342,
      "Ġinstallation": 8343,
      "ĠTage": 8344,
      "osure": 8345,
      "ĠBoy": 8346,
      "Ġ1964": 8347,
      "Ġcore": 8348,
      "Ġadvis": 8349,
      "Ġalumni": 8350,
      "Ġoblig": 8351,
      "ÅĤ": 8352,
      "Ġ1920": 8353,
      "ĠHolz": 8354,
      "ĠProzent": 8355,
      "tiger": 8356,
      "Ġdedicated": 8357,
      "walt": 8358,
      "velles": 8359,
      "ĠAccording": 8360,
      "Ġvielen": 8361,
      "ĠBot": 8362,
      "Ġchef": 8363,
      "hibition": 8364,
      "ĠBewert": 8365,
      "quet": 8366,
      "ĠMicrosoft": 8367,
      "Ġsog": 8368,
      "ĠSum": 8369,
      "Ġfr": 8370,
      "Ġrai": 8371,
      "ĠIslam": 8372,
      "Ġmajority": 8373,
      "Ġcivil": 8374,
      "foli": 8375,
      "Ġadult": 8376,
      "tigkeit": 8377,
      "Ġscen": 8378,
      "aro": 8379,
      "Ġfaith": 8380,
      "rk": 8381,
      "ommod": 8382,
      "ĠIng": 8383,
      "ĠScott": 8384,
      "quar": 8385,
      "rics": 8386,
      "Ġrespec": 8387,
      "giment": 8388,
      "ĠID": 8389,
      "achin": 8390,
      "clear": 8391,
      "autre": 8392,
      "ĠKh": 8393,
      "ĠTheir": 8394,
      "arma": 8395,
      "Ġpet": 8396,
      "Ġremains": 8397,
      "ĠFo": 8398,
      "Ġauto": 8399,
      "ieur": 8400,
      "ĠOlympics": 8401,
      "Ġmieux": 8402,
      "ĠRegister": 8403,
      "ĠNieder": 8404,
      "fam": 8405,
      "Ġtraffic": 8406,
      "ĠAdd": 8407,
      "chin": 8408,
      "ĠJoe": 8409,
      "Ġshipp": 8410,
      "rats": 8411,
      "ĠVerlag": 8412,
      "Ġkurz": 8413,
      "burgh": 8414,
      "ĠMichigan": 8415,
      "dienst": 8416,
      "2004": 8417,
      "Ori": 8418,
      "Ġbird": 8419,
      "aching": 8420,
      "Ġbillion": 8421,
      "ishop": 8422,
      "ĠCoast": 8423,
      "ĠMount": 8424,
      "Du": 8425,
      "ĠAndroid": 8426,
      "oral": 8427,
      "Ġhinter": 8428,
      "Ġcoffee": 8429,
      "ursday": 8430,
      "uble": 8431,
      "ĠStan": 8432,
      "Ġwhom": 8433,
      "ĠSS": 8434,
      "rates": 8435,
      "ĠScho": 8436,
      "Ġespe": 8437,
      "enni": 8438,
      "Ġbrain": 8439,
      "Ġrent": 8440,
      "Ġrespond": 8441,
      "ĠTy": 8442,
      "iges": 8443,
      "Ġihrem": 8444,
      "alization": 8445,
      "ĠQueen": 8446,
      "Ġdepartment": 8447,
      "uan": 8448,
      "stone": 8449,
      "Gesch": 8450,
      "Ġfo": 8451,
      "Mem": 8452,
      "Ġbestimm": 8453,
      "acter": 8454,
      "Ġideal": 8455,
      "vertising": 8456,
      "Ġuniversity": 8457,
      "arks": 8458,
      "auft": 8459,
      "Ġfand": 8460,
      "Ġchoix": 8461,
      "mis": 8462,
      "thur": 8463,
      "chsten": 8464,
      "AY": 8465,
      "ĠContin": 8466,
      "ĠStandard": 8467,
      "licht": 8468,
      "ĠHong": 8469,
      "ĠMarin": 8470,
      "jan": 8471,
      "Ġlibrary": 8472,
      "nahmen": 8473,
      "cio": 8474,
      "Ġeigenen": 8475,
      "athan": 8476,
      "Ġmotiv": 8477,
      "reiben": 8478,
      "Ġreference": 8479,
      "ĠBus": 8480,
      "ĠSir": 8481,
      "Mail": 8482,
      "Ġcells": 8483,
      "set": 8484,
      "Ġcommence": 8485,
      "ĠMiddle": 8486,
      "alogue": 8487,
      "linois": 8488,
      "worth": 8489,
      "left": 8490,
      "ĠJohnson": 8491,
      "Ġthank": 8492,
      "Bar": 8493,
      "Ġtag": 8494,
      "ĠCheck": 8495,
      "Ġligh": 8496,
      "ima": 8497,
      "Ġcompeti": 8498,
      "Ġ1965": 8499,
      "ĠKauf": 8500,
      "Ġawarded": 8501,
      "ĠBan": 8502,
      "Ġslight": 8503,
      "abase": 8504,
      "Ġcamera": 8505,
      "Ġuni": 8506,
      "ĠSit": 8507,
      "Ġersch": 8508,
      "Ġanswers": 8509,
      "Ġallerdings": 8510,
      "Articles": 8511,
      "Ġvero": 8512,
      "Ġgan": 8513,
      "undi": 8514,
      "Ġappears": 8515,
      "Why": 8516,
      "ospit": 8517,
      "ĠSea": 8518,
      "rup": 8519,
      "pisodes": 8520,
      "ĠMode": 8521,
      "Ġtard": 8522,
      "tia": 8523,
      "Fil": 8524,
      "ugs": 8525,
      "sehen": 8526,
      "Ġcadre": 8527,
      "Ġhatten": 8528,
      "Ġloan": 8529,
      "Ġwenig": 8530,
      "ĠLED": 8531,
      "ĠComments": 8532,
      "ĠBraz": 8533,
      "ĠProv": 8534,
      "ĠOrts": 8535,
      "Ġ41": 8536,
      "ĠJeff": 8537,
      "Ġtruly": 8538,
      "ĠRahmen": 8539,
      "etts": 8540,
      "ĠEach": 8541,
      "ĠHers": 8542,
      "Ġahead": 8543,
      "Ġversch": 8544,
      "Ġtherefore": 8545,
      "Ġbecomes": 8546,
      "Ġpayment": 8547,
      "ĠMul": 8548,
      "ĠToday": 8549,
      "Ġcris": 8550,
      "Ġwear": 8551,
      "Ġeat": 8552,
      "Ġfiction": 8553,
      "ĠÂ».": 8554,
      "ussion": 8555,
      "ĠDisc": 8556,
      "tili": 8557,
      "rau": 8558,
      "ĠDev": 8559,
      "nsylvania": 8560,
      "ĠKultur": 8561,
      "Ġsweet": 8562,
      "Ġstructures": 8563,
      "Ġleaving": 8564,
      "Ġoperating": 8565,
      "Ġayant": 8566,
      "MP": 8567,
      "press": 8568,
      "Ġworkers": 8569,
      "liches": 8570,
      "ĠNr": 8571,
      "ĠEinw": 8572,
      "Ġdesigns": 8573,
      "ĠLow": 8574,
      "uries": 8575,
      "uesday": 8576,
      "Ġ1966": 8577,
      "ĠNorthern": 8578,
      "ĠSommer": 8579,
      "ĠLud": 8580,
      "wal": 8581,
      "Ġcities": 8582,
      "arten": 8583,
      "Ġminute": 8584,
      "nners": 8585,
      "ĠIntel": 8586,
      "formations": 8587,
      "issement": 8588,
      "ĠFull": 8589,
      "Ġleadership": 8590,
      "Ġsquare": 8591,
      "fle": 8592,
      "Ġcapacity": 8593,
      "Ġcultural": 8594,
      "Ġgenau": 8595,
      "union": 8596,
      "ĠConf": 8597,
      "rieure": 8598,
      "Ġgouvernement": 8599,
      "grade": 8600,
      "weit": 8601,
      "sultats": 8602,
      "ĠTitel": 8603,
      "ĠAst": 8604,
      "rons": 8605,
      "Ġhousehold": 8606,
      "Ġtarget": 8607,
      "Ġowned": 8608,
      "ione": 8609,
      "Ob": 8610,
      "Ġselect": 8611,
      "Ġmostly": 8612,
      "Ġ46": 8613,
      "Ġsais": 8614,
      "Ġwegen": 8615,
      "Ġstab": 8616,
      "uting": 8617,
      "Ġgenre": 8618,
      "ESS": 8619,
      "tenir": 8620,
      "lywood": 8621,
      "Ġhaut": 8622,
      "gener": 8623,
      "ella": 8624,
      "Ġfacilities": 8625,
      "ĠCru": 8626,
      "ĠAtt": 8627,
      "Ġwichtig": 8628,
      "Ġlands": 8629,
      "alities": 8630,
      "bens": 8631,
      "Ġextremely": 8632,
      "wind": 8633,
      "ians": 8634,
      "Ġfro": 8635,
      "Ġguarante": 8636,
      "zep": 8637,
      "uchte": 8638,
      "ĠSupport": 8639,
      "Ġbesonders": 8640,
      "kom": 8641,
      "ietnam": 8642,
      "ĠiPhone": 8643,
      "nesday": 8644,
      "Ġdavon": 8645,
      "ourt": 8646,
      "Ġtrust": 8647,
      "Ġsin": 8648,
      "Ġarts": 8649,
      "ĠGast": 8650,
      "Ġhelping": 8651,
      "Ġtheme": 8652,
      "Ġneighbor": 8653,
      "Ġreplaced": 8654,
      "water": 8655,
      "lications": 8656,
      "ĠPremier": 8657,
      "arf": 8658,
      "ĠAri": 8659,
      ">âĨ": 8660,
      "Åĵur": 8661,
      "Ġmot": 8662,
      "Ġintens": 8663,
      "West": 8664,
      "Jan": 8665,
      "Ġshopping": 8666,
      "Ġkept": 8667,
      "ĠCes": 8668,
      "Ġscene": 8669,
      "liss": 8670,
      "bare": 8671,
      "ohen": 8672,
      "lets": 8673,
      "riting": 8674,
      "Ġadministration": 8675,
      "Ġheraus": 8676,
      "Ġpurs": 8677,
      "ĠFind": 8678,
      "Your": 8679,
      "Ġaircraft": 8680,
      "Ġraised": 8681,
      "Ġfrag": 8682,
      "Ġcertainly": 8683,
      "Post": 8684,
      "tha": 8685,
      "alo": 8686,
      "dite": 8687,
      "eness": 8688,
      "Ġplate": 8689,
      "Ġrelax": 8690,
      "ĠRoom": 8691,
      "Ġafford": 8692,
      "Ġsorti": 8693,
      "chter": 8694,
      "Ġbound": 8695,
      "atever": 8696,
      "ĠZiel": 8697,
      "Ġdrug": 8698,
      "ĠNation": 8699,
      "Ġcarte": 8700,
      "ools": 8701,
      "dd": 8702,
      "ĠMike": 8703,
      "ĠConse": 8704,
      "ĠDri": 8705,
      "iers": 8706,
      "ĠGh": 8707,
      "schaften": 8708,
      "ositions": 8709,
      "ovie": 8710,
      "ĠStory": 8711,
      "Ġlived": 8712,
      "etry": 8713,
      "Ġserving": 8714,
      "Ġexperi": 8715,
      "ulf": 8716,
      "Ġdanger": 8717,
      "Ġregist": 8718,
      "ius": 8719,
      "ĠBooks": 8720,
      "Ġstatement": 8721,
      "Ġcheap": 8722,
      "ĠVersion": 8723,
      "Ġbefindet": 8724,
      "iale": 8725,
      "Ġeconomy": 8726,
      "Ġreti": 8727,
      "Ġbrief": 8728,
      "Ġast": 8729,
      "Ġonto": 8730,
      "ĠFR": 8731,
      "LO": 8732,
      "Ġlabel": 8733,
      "More": 8734,
      "Ġproperties": 8735,
      "Here": 8736,
      "Ġweit": 8737,
      "Hi": 8738,
      "Ġgerade": 8739,
      "Ġgilt": 8740,
      "Ġretour": 8741,
      "Ġsecre": 8742,
      "Ġlaunched": 8743,
      "hang": 8744,
      "ammer": 8745,
      "teili": 8746,
      "Ġinitial": 8747,
      "ĠMot": 8748,
      "Ġroy": 8749,
      "Reg": 8750,
      "achs": 8751,
      "Ġeasier": 8752,
      "ĠLike": 8753,
      "atoire": 8754,
      "orrow": 8755,
      "Ġgeben": 8756,
      "Ġattrib": 8757,
      "ĠMontre": 8758,
      "olet": 8759,
      "yc": 8760,
      "cision": 8761,
      "GE": 8762,
      "Ġexamin": 8763,
      "Ġmaybe": 8764,
      "Ġlegis": 8765,
      "Ġminimum": 8766,
      "ĠJackson": 8767,
      "Ġstone": 8768,
      "ĠAuthor": 8769,
      "Ġvale": 8770,
      "schul": 8771,
      "ĠGab": 8772,
      "ĠSaf": 8773,
      "Ġmentioned": 8774,
      "ĠArea": 8775,
      "ĠAlt": 8776,
      "ĠEff": 8777,
      "ĠField": 8778,
      "itage": 8779,
      "ĠKent": 8780,
      "Ġprofile": 8781,
      "Ġski": 8782,
      "abs": 8783,
      "Ġdriving": 8784,
      "Ġ(\"": 8785,
      "Ġvalues": 8786,
      "ĠLis": 8787,
      "otal": 8788,
      "nar": 8789,
      "Ġcondu": 8790,
      "Ġging": 8791,
      "ĠCall": 8792,
      "Ġlooked": 8793,
      "Ġtruth": 8794,
      "Ġdevient": 8795,
      "ĠAlbum": 8796,
      "Ġlaunch": 8797,
      "Ġsharing": 8798,
      "ĠPati": 8799,
      "ĠAC": 8800,
      "Ġupdate": 8801,
      "ĠSouthern": 8802,
      "Ġmoun": 8803,
      "books": 8804,
      "quoi": 8805,
      "merce": 8806,
      "ĠStaats": 8807,
      "plex": 8808,
      "ĠCri": 8809,
      "ĠAS": 8810,
      "onym": 8811,
      "eli": 8812,
      "Ġmusique": 8813,
      "ĠBaby": 8814,
      "],": 8815,
      "tudi": 8816,
      "ĠControl": 8817,
      "ĠRab": 8818,
      "seh": 8819,
      "aylor": 8820,
      "umer": 8821,
      "English": 8822,
      "ĠGed": 8823,
      "covery": 8824,
      "ĠBrook": 8825,
      "Ġmac": 8826,
      "ira": 8827,
      "gesamt": 8828,
      "ĠDeutschen": 8829,
      "term": 8830,
      "ndern": 8831,
      "ĠWales": 8832,
      "Ġdriver": 8833,
      "ĠPsych": 8834,
      "univers": 8835,
      "Ġtravaux": 8836,
      "ĠGot": 8837,
      "Ġfootballers": 8838,
      "riode": 8839,
      "ologique": 8840,
      "class": 8841,
      "Ġjeune": 8842,
      "tudes": 8843,
      "Ġdeutsche": 8844,
      "Ġlit": 8845,
      "Ġwine": 8846,
      "Ðº": 8847,
      "Ġappearance": 8848,
      "ĠAndrew": 8849,
      "ĠWeiter": 8850,
      "ĠPartner": 8851,
      "geber": 8852,
      "Ġcourses": 8853,
      "ĠKol": 8854,
      "ĠPlace": 8855,
      "ansion": 8856,
      "osit": 8857,
      "ĠOhio": 8858,
      "ĠBour": 8859,
      "ĠAnth": 8860,
      "Ġhistorical": 8861,
      "Other": 8862,
      "Ġcit": 8863,
      "ĠTravel": 8864,
      "state": 8865,
      "ismus": 8866,
      "Ġjeden": 8867,
      "unge": 8868,
      "Ġmanaged": 8869,
      "ĠPrice": 8870,
      "ĠBesch": 8871,
      "teilung": 8872,
      "Gener": 8873,
      "Ġaudience": 8874,
      "ĠNik": 8875,
      "ĠSeit": 8876,
      "Ġdisapp": 8877,
      "aide": 8878,
      "ĠCard": 8879,
      "ĠSystems": 8880,
      "ref": 8881,
      "Ġlou": 8882,
      "aman": 8883,
      "Ġeinges": 8884,
      "ĠThank": 8885,
      "Ġexpert": 8886,
      "charge": 8887,
      "Mo": 8888,
      "zogen": 8889,
      "ritann": 8890,
      "auteur": 8891,
      "Ġreality": 8892,
      "ĠModern": 8893,
      "==": 8894,
      "flu": 8895,
      "sk": 8896,
      "Ġarrange": 8897,
      "Ġverwend": 8898,
      "Ġappropriate": 8899,
      "Ġprofit": 8900,
      "formance": 8901,
      "ichen": 8902,
      "Ġshel": 8903,
      "lingen": 8904,
      "ĠGarten": 8905,
      "ounter": 8906,
      "400": 8907,
      "Bri": 8908,
      "Ġpermett": 8909,
      "Ġserver": 8910,
      "ĠGolden": 8911,
      "Ġseulement": 8912,
      "ometer": 8913,
      "istence": 8914,
      "Ġdich": 8915,
      "Ġexperts": 8916,
      "Ġattempt": 8917,
      "ĠPacific": 8918,
      "Ġimplement": 8919,
      "Ġaccident": 8920,
      "ĠHerren": 8921,
      "verture": 8922,
      "Ġapplied": 8923,
      "Copyright": 8924,
      "ucher": 8925,
      "Ġfindet": 8926,
      "tischer": 8927,
      "Ġoutdoor": 8928,
      "Work": 8929,
      "Ġremained": 8930,
      "Ġdeveloping": 8931,
      "ĠPersonal": 8932,
      "ively": 8933,
      "Ġsupported": 8934,
      "tru": 8935,
      "ĠGarden": 8936,
      "Ġquo": 8937,
      "Ġsurtout": 8938,
      "ĠMeister": 8939,
      "Ġkleine": 8940,
      "Ġ)<": 8941,
      "ĠStein": 8942,
      "Care": 8943,
      "ended": 8944,
      "ĠSpain": 8945,
      "Ġensuite": 8946,
      "Ġec": 8947,
      "stal": 8948,
      "ĠNC": 8949,
      "ĠZimmer": 8950,
      "These": 8951,
      "vant": 8952,
      "\")": 8953,
      "View": 8954,
      "Now": 8955,
      "Ġlance": 8956,
      "Ġ1944": 8957,
      "Ġphase": 8958,
      "Ġagent": 8959,
      "acing": 8960,
      "ln": 8961,
      "izes": 8962,
      "Ġelement": 8963,
      "ĠAvec": 8964,
      "ahm": 8965,
      "DI": 8966,
      "ĠEngineering": 8967,
      "unkte": 8968,
      "nin": 8969,
      "itete": 8970,
      "ĠWald": 8971,
      "ĠFOR": 8972,
      "Ġconna": 8973,
      "Ġsecure": 8974,
      "oves": 8975,
      "uary": 8976,
      "pur": 8977,
      "Ġ1962": 8978,
      "ĠCollection": 8979,
      "Ġseul": 8980,
      "Ġsmaller": 8981,
      "ĠGegen": 8982,
      "ĠSou": 8983,
      "Ġresidents": 8984,
      "ĠweiÃŁ": 8985,
      "Ġfriendly": 8986,
      "riger": 8987,
      "ĠStrate": 8988,
      "Af": 8989,
      "ĠTransport": 8990,
      "Ġ1963": 8991,
      "Ġpair": 8992,
      "Ġsnow": 8993,
      "Ġmut": 8994,
      "gebiet": 8995,
      "Ġexperiences": 8996,
      "gart": 8997,
      "2003": 8998,
      "ellement": 8999,
      "ĠDog": 9000,
      "Ġvue": 9001,
      "nstler": 9002,
      "Ġgla": 9003,
      "ĠHospital": 9004,
      "ĠAutom": 9005,
      "Ġperfe": 9006,
      "Ġliqu": 9007,
      "zus": 9008,
      "Ġagreement": 9009,
      "Ġgam": 9010,
      "ĠKim": 9011,
      "ĠSher": 9012,
      "Sm": 9013,
      "odies": 9014,
      "Ġtravers": 9015,
      "Ġ~": 9016,
      "onia": 9017,
      "ĠIrish": 9018,
      "ffentlicht": 9019,
      "Ġfinding": 9020,
      "bal": 9021,
      "gyp": 9022,
      "orney": 9023,
      "rendre": 9024,
      "Ġcomfortable": 9025,
      "Ġmembres": 9026,
      "ME": 9027,
      "ĠAT": 9028,
      "ĠGallery": 9029,
      "idden": 9030,
      "Ġsante": 9031,
      "Ġclubs": 9032,
      "ĠAsh": 9033,
      "agner": 9034,
      "Ġsatisf": 9035,
      "tete": 9036,
      "ĠMini": 9037,
      "ĠAvenue": 9038,
      "ependant": 9039,
      "Ġshape": 9040,
      "National": 9041,
      "tiers": 9042,
      ">...": 9043,
      "HS": 9044,
      "Ġdru": 9045,
      "Ġehemali": 9046,
      "Ġrule": 9047,
      "Ġcombat": 9048,
      "ĠAsian": 9049,
      "ichtung": 9050,
      "ĠAnne": 9051,
      "Ġwollen": 9052,
      "ĠTok": 9053,
      "ĠZw": 9054,
      "ĠPoint": 9055,
      "temps": 9056,
      "uft": 9057,
      "Ġ52": 9058,
      "Ġyouth": 9059,
      "rator": 9060,
      "Ġ47": 9061,
      "ĠTax": 9062,
      "Bibli": 9063,
      "Ġride": 9064,
      "Off": 9065,
      "They": 9066,
      "Ġprou": 9067,
      "Ġcorner": 9068,
      "lker": 9069,
      "Ġkg": 9070,
      "heast": 9071,
      "ronom": 9072,
      "ĠPolice": 9073,
      "Sec": 9074,
      "âĢľ.": 9075,
      "ĠDC": 9076,
      "Ġaudio": 9077,
      "ĠCreek": 9078,
      "achine": 9079,
      "ĠDor": 9080,
      "ĠFord": 9081,
      "ĠMountain": 9082,
      "Ġfinance": 9083,
      "adies": 9084,
      "ousse": 9085,
      "Ġbalance": 9086,
      "Ġvalid": 9087,
      "Ġadvantage": 9088,
      "oure": 9089,
      "Ġcup": 9090,
      "point": 9091,
      "ĠHas": 9092,
      "ef": 9093,
      "Ġdream": 9094,
      "Ġassist": 9095,
      "ogn": 9096,
      "ydney": 9097,
      "leben": 9098,
      "Ġcontemporary": 9099,
      "Ġtermin": 9100,
      "Ġanimals": 9101,
      "pan": 9102,
      "ĠProdukt": 9103,
      "ĠâĤ¬<": 9104,
      "enced": 9105,
      "ĠLam": 9106,
      "ĠMobile": 9107,
      "Ġjourne": 9108,
      "Ġactual": 9109,
      "Ġtesting": 9110,
      "ĠPy": 9111,
      "Ġleaves": 9112,
      "Ġcatch": 9113,
      "ĠPennsylvania": 9114,
      "Ġsister": 9115,
      "lizabeth": 9116,
      "Ġdeuxie": 9117,
      "Ġmand": 9118,
      "oots": 9119,
      "ĠGlas": 9120,
      "Ġtalking": 9121,
      "Ġhospital": 9122,
      "ĠCho": 9123,
      "agog": 9124,
      "oviet": 9125,
      "Ġholiday": 9126,
      "Ġdrop": 9127,
      "ĠSilver": 9128,
      "Ġfille": 9129,
      "Ġspi": 9130,
      "BI": 9131,
      "Ġwindows": 9132,
      "ĠStudio": 9133,
      "Ġmanage": 9134,
      "Ġinteg": 9135,
      "odge": 9136,
      "ĠRis": 9137,
      "}<": 9138,
      "ponse": 9139,
      "pers": 9140,
      "lungs": 9141,
      "ART": 9142,
      "Ġengage": 9143,
      "El": 9144,
      "OK": 9145,
      "Ġborder": 9146,
      "iency": 9147,
      "ĠMcC": 9148,
      "ĠAnsch": 9149,
      "Ġquanti": 9150,
      "Ġjustice": 9151,
      "ĠErgeb": 9152,
      "frei": 9153,
      "Pl": 9154,
      "voll": 9155,
      "yers": 9156,
      "ĠDim": 9157,
      "riere": 9158,
      "While": 9159,
      "Ġrooms": 9160,
      "ĠTheater": 9161,
      "Ġzuna": 9162,
      "First": 9163,
      "issent": 9164,
      "Ġgard": 9165,
      "Ġreques": 9166,
      "ĠET": 9167,
      "Ġfils": 9168,
      "Ġgewa": 9169,
      "tschafts": 9170,
      "Ġtor": 9171,
      "ierungs": 9172,
      "Ġcompose": 9173,
      "Ġgehen": 9174,
      "ĠBran": 9175,
      "gera": 9176,
      "oly": 9177,
      "nic": 9178,
      "LS": 9179,
      "issant": 9180,
      "Ġmarriage": 9181,
      "cop": 9182,
      "Ġroof": 9183,
      "ĠChief": 9184,
      "ĠVerein": 9185,
      "Ġscored": 9186,
      "blick": 9187,
      "ĠAmb": 9188,
      "Ġsemi": 9189,
      "ĠOnly": 9190,
      "ĠKit": 9191,
      "span": 9192,
      "bew": 9193,
      "ĠSat": 9194,
      "ĠKosten": 9195,
      "Wer": 9196,
      "eless": 9197,
      "rants": 9198,
      "Ġvend": 9199,
      "ĠEdward": 9200,
      "Ġcalls": 9201,
      "Ġanimal": 9202,
      "ĠErfahr": 9203,
      "Ġbesteht": 9204,
      "Ġadvance": 9205,
      "Ġclaims": 9206,
      "nch": 9207,
      "Ġordin": 9208,
      "ĠMulti": 9209,
      "dent": 9210,
      "uni": 9211,
      "Ġsilver": 9212,
      "Ġmedium": 9213,
      "ĠSenior": 9214,
      "ĠZent": 9215,
      "Ġhyp": 9216,
      "Ġgerne": 9217,
      "outs": 9218,
      "hine": 9219,
      "Ġgau": 9220,
      "Ġretail": 9221,
      "ÌĬ": 9222,
      "ĠCON": 9223,
      "ĠKomment": 9224,
      "Ges": 9225,
      "ĠSup": 9226,
      "ĠSchwarz": 9227,
      "lemen": 9228,
      "owa": 9229,
      "Ġvraiment": 9230,
      "Ġmaintain": 9231,
      "Ġbeauty": 9232,
      "III": 9233,
      "Ġnewsp": 9234,
      "Art": 9235,
      "________": 9236,
      "ĠContact": 9237,
      "tags": 9238,
      "Ġgather": 9239,
      "Ġdance": 9240,
      "vet": 9241,
      "bay": 9242,
      "John": 9243,
      "ĠON": 9244,
      "schnitt": 9245,
      "Et": 9246,
      "Ġlearned": 9247,
      "Ġprincipal": 9248,
      "Ġverschiedenen": 9249,
      "ordan": 9250,
      "preis": 9251,
      "Ġtes": 9252,
      "ĠEmpire": 9253,
      "ĠHann": 9254,
      "ĠBelgi": 9255,
      "origine": 9256,
      "Ġgute": 9257,
      "Ġsinger": 9258,
      "Ġtempor": 9259,
      "enny": 9260,
      "ĠChildren": 9261,
      "ĠOnce": 9262,
      "Ġrequires": 9263,
      "pected": 9264,
      "ĠRaum": 9265,
      "utzt": 9266,
      "wendung": 9267,
      "ĠGeba": 9268,
      "Fre": 9269,
      "Ġconnected": 9270,
      "teen": 9271,
      "FR": 9272,
      "mir": 9273,
      "ĠFinan": 9274,
      "mile": 9275,
      "gage": 9276,
      "Ġnoted": 9277,
      "angs": 9278,
      "Ġspeak": 9279,
      "ĠTab": 9280,
      "Ġunterschied": 9281,
      "Ġroll": 9282,
      "atric": 9283,
      "Ġcot": 9284,
      "Ġlocations": 9285,
      "Ġ1961": 9286,
      "ilen": 9287,
      "ĠSpace": 9288,
      "Cont": 9289,
      "quelle": 9290,
      "ĠDann": 9291,
      "take": 9292,
      "Ġtask": 9293,
      "Ġnoir": 9294,
      "Ġofficer": 9295,
      "Ġpractices": 9296,
      "ĠTun": 9297,
      "ĠEnergy": 9298,
      "Ġcolors": 9299,
      "ĠUns": 9300,
      "Ġbasketball": 9301,
      "ĠGeorgia": 9302,
      "Ġacademic": 9303,
      "achus": 9304,
      "nks": 9305,
      "Ġsogar": 9306,
      "ĠGovern": 9307,
      "ilson": 9308,
      "Ġenable": 9309,
      "Ġgone": 9310,
      "UP": 9311,
      "iesen": 9312,
      "atif": 9313,
      "ĠFranz": 9314,
      "ĠMatth": 9315,
      "Ġmesure": 9316,
      "Ġvar": 9317,
      "ede": 9318,
      "Ġkid": 9319,
      "ĠKal": 9320,
      "mati": 9321,
      "Ġfranzo": 9322,
      "Ġreligious": 9323,
      "ĠBeitrag": 9324,
      "ĠNin": 9325,
      "glieder": 9326,
      "ĠLind": 9327,
      "Ġregistered": 9328,
      "Ġtut": 9329,
      "adow": 9330,
      "Ġbought": 9331,
      "ĠSciences": 9332,
      "Ġhonor": 9333,
      "ĠSky": 9334,
      "Ġpresence": 9335,
      "Ġgemacht": 9336,
      "Ġattended": 9337,
      "ollowing": 9338,
      "Ġpush": 9339,
      "aped": 9340,
      "ĠSingle": 9341,
      "Ġrelevant": 9342,
      "nnte": 9343,
      "occer": 9344,
      "ĠRein": 9345,
      "Ġbehavior": 9346,
      "pool": 9347,
      "amsung": 9348,
      "Ġdespite": 9349,
      "Vor": 9350,
      "ĠPremi": 9351,
      "ĠVictoria": 9352,
      "Ġgod": 9353,
      "alyse": 9354,
      "night": 9355,
      "Poste": 9356,
      "ricket": 9357,
      "onnes": 9358,
      "mentation": 9359,
      "ossible": 9360,
      "glichkeit": 9361,
      "ĠType": 9362,
      "appy": 9363,
      "Ġreb": 9364,
      "ĠLuft": 9365,
      "ĠSchm": 9366,
      "Ġloi": 9367,
      "Ġperhaps": 9368,
      "gets": 9369,
      "agit": 9370,
      "Ġanderem": 9371,
      "mat": 9372,
      "ĠPie": 9373,
      "Ġspons": 9374,
      "ĠMS": 9375,
      "ĠText": 9376,
      "Ġbelong": 9377,
      "Ġrepro": 9378,
      "apos": 9379,
      "ĠNoir": 9380,
      "Ġcontinues": 9381,
      "rif": 9382,
      "Ġhommes": 9383,
      "Ġraison": 9384,
      "Ġfactors": 9385,
      "ĠMein": 9386,
      "Ġmanie": 9387,
      "ĠFrankfurt": 9388,
      "ĠQualita": 9389,
      "tagne": 9390,
      "wald": 9391,
      "Ġmanif": 9392,
      "ĠVerfu": 9393,
      "EUR": 9394,
      "Ġ1939": 9395,
      "ĠReport": 9396,
      "burger": 9397,
      "ĠFlug": 9398,
      "tzung": 9399,
      "HL": 9400,
      "ifen": 9401,
      "Ġcontain": 9402,
      "Ġspecta": 9403,
      "Press": 9404,
      "ports": 9405,
      "Ġbesoin": 9406,
      "open": 9407,
      "ditional": 9408,
      "Ð»": 9409,
      "Ġperso": 9410,
      "Ġinstitutions": 9411,
      "ĠAuft": 9412,
      "ĠSA": 9413,
      "Ġ600": 9414,
      "Ġcam": 9415,
      "Dep": 9416,
      "Ġteen": 9417,
      "tu": 9418,
      "Ġprocessing": 9419,
      "ĠSound": 9420,
      "former": 9421,
      "Stand": 9422,
      "Ã¸": 9423,
      "Ġflat": 9424,
      "allation": 9425,
      "ĠLar": 9426,
      "ups": 9427,
      "richten": 9428,
      "gien": 9429,
      "Ġtests": 9430,
      "Back": 9431,
      "pson": 9432,
      "ĠFrage": 9433,
      "ĠChair": 9434,
      "Ġnouvelles": 9435,
      "ĠDoc": 9436,
      "ĠKnow": 9437,
      "Ġfrei": 9438,
      "Ġhall": 9439,
      "ĠWatch": 9440,
      "Ġhappened": 9441,
      "sung": 9442,
      "Dr": 9443,
      "pha": 9444,
      "ĠGirl": 9445,
      "Ġarchitecture": 9446,
      "aug": 9447,
      "ĠFriend": 9448,
      "enschutz": 9449,
      "Ser": 9450,
      "Ġremove": 9451,
      "Ġbutton": 9452,
      "Ġcounty": 9453,
      "Prof": 9454,
      "Ġcrow": 9455,
      "tements": 9456,
      "enth": 9457,
      "ĠSpiele": 9458,
      "Free": 9459,
      "Sur": 9460,
      "owe": 9461,
      "Ġrose": 9462,
      "schung": 9463,
      "List": 9464,
      "ĠFA": 9465,
      "oor": 9466,
      "Play": 9467,
      "Ġign": 9468,
      "ĠMes": 9469,
      "Gru": 9470,
      "uellement": 9471,
      "abet": 9472,
      "Ġtiss": 9473,
      "ifts": 9474,
      "Ġtechnologies": 9475,
      "Ġcookies": 9476,
      "Ġotherwise": 9477,
      "Ġvente": 9478,
      "Ġliste": 9479,
      "Ġstudi": 9480,
      "Ġbesser": 9481,
      "ĠCommunic": 9482,
      "lungen": 9483,
      "ĠMarkt": 9484,
      "Ġhouses": 9485,
      "Ġdevant": 9486,
[...]
