#version: 0.2
d e
t e
e i
i e
Ì Ī
l i
u n
g e
a n
li n
Ġ d
e w
lin e
n ew
h e
new line
Ġ s
r e
Ġ de
b e
Ġ i
Ġ S
o n
a u
s t
l e
ei n
s e
s c
Ġ w
Ġ un
a l
a r
Ġ m
te n
Ġ A
o r
i c
a s
Ġ B
Ġ v
i t
Ġun d
Ġd ie
ge n
Ġ D
a t
Ġ ein
Ġ e
m e
un g
Ġ M
sc h
Ġde r
te r
h t
Ġ n
u r
Ġ z
Ġ au
Ġ f
r a
Ġ F
Ġ K
Ġ E
Ġ G
Ġi n
c he
Ġ P
de r
Ġ W
Ġ k
de n
r o
Ġ T
Ġ H
be r
h r
Ġ b
Ġ h
Ġ 1
a c
e l
. <
t i
re n
Ġ ge
Ġz u
o l
Ġ R
Ġein e
Ġ L
i l
n t
Ġ 2
Ġ I
f e
i r
a m
Ġ V
k e
n d
i s
ei t
o m
u s
sc he
ic ht
Ġ (
Ġd as
u t
Ġ an
â Ģ
Ġ g
Ġm it
Ġv on
Ġ be
Ġ N
ic h
Ġde n
z e
l a
v e
h n
r i
se n
u m
Ġf u
s te
be n
li c
ie r
Ġ C
le n
n n
ac h
Ġe r
Ġ U
Ġ o
an d
r ei
Ġi st
i g
Ã Ł
Ġau f
che n
0 0
Ġ a
me n
Ġ al
Ġv e
p e
0 1
r u
i on
ĠB e
n g
Ġi m
an n
lic h
Ġ Z
Ġ -
Ġve r
o c
Ġ J
Ġw e
ĠS c
k t
. .
f t
t a
Ġ O
a h
l o
ein e
ĠG e
s p
Ġ t
ĠV e
e t
Ġs c
Ġn icht
w e
Ġ p
ĠSc h
Ġ âĢ
ĠVe r
Ġau s
Ġw ir
l l
ĠD e
Ġde s
le r
oc h
Ġs ich
ĠS t
sche n
un gen
Ġb ei
i nd
ve r
h o
ge r
ie n
me r
Ġe s
Ġau c
Ġauc h
ĠS ie
se r
s ten
Ġde m
fe n
u e
u c
l ei
he r
o t
i ng
Ġ j
Ġh a
Ġ u
ĠI n
at ion
ĠD ie
s s
ie l
Ġs o
ĠR e
Ġsc h
m a
nn e
c k
ĠA n
Ġ 3
ÃŁ e
te l
r t
or t
a g
ke n
e hr
w ei
Ġi c
Ġic h
Ġal s
Ġw ie
he n
Ġ2 01
ĠS p
c ht
l ie
ĠE i
Ġ c
sch a
Ġwe r
ung s
t z
Ġ um
Ġo der
a b
un d
r n
i m
a d
r au
Ġs ind
Ġh at
h re
i k
Ġwer den
ter n
ze n
h a
r ie
Ġk o
Ġv or
n de
ĠP ro
Ġn ach
ĠEi n
r an
h al
ĠE r
nne n
f u
o p
ĠW e
hn e
ur c
a hr
z u
ĠA u
ol l
au s
l u
Ġs ie
uc h
ti on
urc h
li che
pe r
Ġ am
Ġ 4
g t
l an
f f
o s
ar t
d i
l t
ĠM e
Ġdas s
al l
Ġn e
Ġwir d
Ġd a
Ġ |
Ġ 5
h i
ĠM a
ĠU n
Ġzu m
te t
ier t
Ġeine n
Ġa b
ĠT e
n der
Ġ1 9
Ġw ei
Ġm an
ĠâĢ ĵ
ĠL e
ĠS e
Ġk ann
Ġ "
w a
s i
f or
âĢ ľ
ge b
) <
2 01
l as
Ġeine r
Ġ re
Ġdie se
Ġn och
Ġz ur
b t
ĠH e
ĠA r
Ġs t
Ġe nt
Ġeine m
Ġ 0
o g
ĠA us
e h
s ter
Ġs p
Ġw ar
s a
i sche
i schen
l au
D ie
me nt
ĠâĢ ŀ
n o
u l
ie ren
Ġd urch
ĠH o
Ġw ur
i ge
Ġun ter
Ġn ur
p p
Ġj e
an g
scha ft
ar b
.. .
Ġa ber
ei ten
Ġb is
Ġha ben
ĠD a
re s
s on
fe r
ke r
o k
li chen
we r
us s
ĠA l
d u
f a
h ren
m p
n den
ĠM it
h l
Ġal le
ge l
st a
at z
ĠM o
ste ll
de s
a li
Ġ 6
z i
z ei
ĠD as
Ġm o
t ra
i st
ĠA b
Ġ &
e s
au f
Ġ le
Ġs eine
c hn
m o
ac ht
z t
2 0
ah l
Ġm ehr
ĠF e
l and
b a
Ġ /
ri n
s am
ĠV or
u te
ie le
g a
k eit
n is
m i
an z
te i
il d
> <
om men
ĠDe r
k tion
k el
ut sch
a p
a ge
un den
f fe
Ġ r
re r
h eit
c e
at t
che r
s sen
b o
n a
t s
Ġw a
Ġ Â
Ġwur de
se l
ti g
Ġ 7
f i
ew e
1 0
te s
ĠZ u
ĠS ta
d a
Ġ 8
D e
ĠP e
ĠW o
Ġan de
ĠM ar
al t
Ġf i
â Ĥ
âĤ ¬
Ġ 9
Ġg ro
ĠK o
s o
ei te
at i
ĠS o
Ġd u
for m
Ġo f
rei s
ÃŁe n
Ġw as
t w
Ġwe nn
ĠN e
b ur
b ar
w ie
ĠAu f
b i
de m
ac k
om m
m al
Ġ1 0
w ar
on n
Ġs ehr
Ġne ue
ĠJ ah
der n
m it
Ġun se
Ġd ann
ic her
on e
k a
Ġ2 00
n i
de l
au e
te il
Ġs ein
Ġ gen
ĠK on
r it
b st
Ġi hre
ĠHe r
Ġt he
g lich
Ġs oll
Ġs te
lei c
1 9
ste l
i bt
el l
leic h
Ġs e
Ġun s
k te
ĠT he
Ġ ber
st u
n ter
o w
Ġh ier
Ġwie der
k ti
1 2
Ġk eine
Ì ģ
ĠF u
) ,
Ġm a
z eit
be l
Ġd ar
Ġv om
Ġ2 0
Ġ on
w o
rei c
w w
el t
Ġ lie
i gen
as i
Ġsch on
ĠL i
k o
hne n
ut z
Ġh o
ĠM i
r und
Ġ1 8
ĠP o
p t
m m
Ġ he
Ġim mer
Ġ la
le s
ĠK u
p pe
ĠB o
1 1
se tz
h an
Ġw o
g s
ĠZ eit
Ġg ibt
.. .<
f fen
ĠH a
Ġh i
ĠBe r
om p
ei l
eit s
reic h
n s
sch ie
im mer
ĠW ir
k s
5 0
ie len
a st
c ken
eh men
ĠU m
ue r
ĠI hre
as s
Ġ #
ar d
or d
i nder
Ġ her
il l
ei gen
le t
S t
ĠB a
ĠS u
! <
ier ung
Ġha be
f ol
Ġ âĤ¬
v or
j e
ĠK a
i sch
S c
Ġp ro
m ber
i d
u g
Ġz wei
ĠL a
u st
ar ten
Ġm ir
? <
n st
et zt
it a
Ġ1 2
Ġm eine
bur g
h te
n ge
3 0
hal ten
ei m
ĠU hr
me l
lo s
t o
Ġ Q
E R
Ġs el
ĠS a
V e
E i
ic k
ĠR o
Ġo hne
f el
ĠB u
ĠUn ter
m ein
ĠE nt
li g
un de
r k
i a
d t
s u
ation e
q u
f ach
atione n
an t
ĠD u
B e
au t
ĠF or
ra g
sp iel
gen d
ĠE s
G e
k u
ĠN a
l ung
sch u
Ġge gen
re ss
Ġk l
Ġan ge
c hte
ĠE ur
re m
ĠJ ahr
ĠAr b
ĠB ei
I n
ĠW ei
Ġ1 5
Ġ [
b le
st o
an k
ĠR ei
ol le
ve n
Ġ per
Ġm al
: <
ĠW a
ar k
ĠPe r
g i
Ġdie ser
D as
W e
d ing
De r
is sen
00 0
ze r
p f
Ġm ich
1 8
Ġm e
ĠC o
el le
r at
ĠSt u
t p
g an
1 5
d ien
las sen
Ġg ut
Ei n
nde t
ĠI c
ĠN ach
ĠJ u
Ġn a
Ġ1 6
ĠM on
Ġan d
Ġaus ge
ĠT a
ĠR u
m an
Ġ1 4
st and
asi no
at ur
uc ht
Ġon line
Ġ <
ĠIc h
au fen
ĠHo tel
f ahr
im m
ĠO n
Ġ eigen
d it
ĠT o
ĠA ut
Ġ lan
y ste
ĠMe n
wei se
ĠSch u
icht ig
ĠI m
2 2
ĠSp iel
Ġt o
ĠK inder
Ġ1 7
h len
ĠG ro
Ġm u
b s
y e
Ġv iel
i re
c ke
ĠM u
Ġ :
ĠW as
ic e
Ġeine s
s atz
ran k
1 6
Ġbe k
ĠPro du
1 4
/ /
b au
Ġbei m
p ro
f all
ier te
c o
Ġw el
Ġi hr
) .
kt u
Ġso wie
f ten
ol len
ĠQ u
ar i
ah ren
n et
w ischen
ber g
U R
g ra
v i
am it
ht tp
Ġj a
R e
a ten
" ,
2 00
1 3
s ser
: //
ĠN o
Ġ1 3
1 7
Ġhi n
at u
l le
I N
E N
rn e
ĠS te
r icht
ra gen
la ge
ich te
d ung
Ġf e
c om
s se
ĠL o
l atz
t t
ĠL ei
ti kel
ĠLe ben
mi n
m ann
Ġw u
ÃŁe r
Ġm uss
n ger
Ġge w
m b
z el
Ġs on
ver s
ĠJ o
Ġf or
a te
u ten
Ve r
- -
ĠVer s
ab ei
u f
Ġfi nden
t re
Ġwei ter
Ġ ,
ĠG ru
k on
ĠL ie
Ġg anz
i de
n f
ĠT ra
sch ei
Ġdiese m
" :
der s
z ie
tw as
lic ht
onn e
n ah
stell t
g ung
Sc h
ĠD i
Ġs u
2 4
se s
ol og
ĠH and
ig n
Ġ lei
a le
Ġwei te
Ġsel bst
as sen
z immer
ge sch
au m
rau e
ĠB ewe
ĠU nd
r z
Ġj etzt
re cht
b u
ge ben
ĠÂ »
2 5
ge s
ĠL u
ĠOn line
Ġb i
ter i
ze nt
n k
r on
Ġhat te
hal t
ĠE x
la g
Ġko sten
0 5
se hen
0 7
n it
9 9
Ġe twas
re e
I c
ĠM an
b il
Ġb ie
0 3
Ġkl eine
c hi
Ġin s
Ġ te
st ag
l uss
Ic h
omm t
Ġde ut
0 6
t rie
ĠSta dt
s icht
Ġ1 1
0 4
h aus
a me
Ġge ht
ĠF i
hr t
h au
t zen
o d
ĠDa ten
st ra
Ġ x
un der
t ro
Ġo b
A n
ho p
ti n
Ġsc hn
den e
ffe nt
ĠL and
yste m
ĠW ie
Ġv iele
b ild
Ġe x
ĠF a
s k
un ktion
ti gen
ĠC h
l us
ĠWe r
Ġ =
0 8
r ich
eit ung
e nt
A N
p h
i o
ra ge
Ġma chen
mit tel
al d
stel len
g ru
0 2
ar te
Ġsc ho
M a
ĠH au
j a
o u
ru ck
ĠRe g
am il
ĠG ew
v on
ig keit
k eiten
t h
0 9
lic k
n ig
Ġd amit
Ġ Y
hal b
Ġd och
z o
liche r
ĠEur o
ĠWo hn
ĠK om
oc k
ĠJah re
C H
g ang
ĠJah ren
Ġ .
sche r
ĠT eil
ĠGe sch
Ġ ...
ĠG rund
f o
art n
ĠT i
te g
ĠPer son
Ġein ge
h ten
artn e
ĠB ild
aue r
ĠW i
Ġs eit
Ġwur den
il li
.. ..
it z
ĠR a
P ro
ĠG el
or f
ĠUn tern
Ġe t
Ġ201 8
la gen
am p
sp re
ali ta
an der
kti v
Ġ +
Ġalle s
g leich
ĠW elt
et z
Ġ ro
ri ng
un des
f ahren
h m
ĠM us
geb o
ĠP f
pe n
k ommen
ll t
ĠSt ra
as se
i z
ĠIn tern
Ġde i
arb ei
ĠIn form
S p
ĠP reis
h eim
u b
ste i
r de
el len
d ie
ro m
un ter
y s
we nd
al s
f te
lin g
ru c
Ġ2 5
z ahl
2 3
m u
Ġsoll te
ĠK e
Ġ X
Ġdei n
w ir
c hten
u re
Ġ3 0
Ġden n
an nt
Ġwa ren
Ġer st
ĠU S
ĠI hnen
T e
t schaft
Ġal l
ĠF ot
Ġw ill
raue n
war z
Ġ2 4
hi n
ei ster
gen e
Ġle tz
Ġ lo
o li
q ue
ĠA p
Ġk on
t te
r g
ti ge
ta g
ĠSc hr
Ġdiese s
Ġk m
a re
st imm
ali s
artne r
Ġwel che
h ol
2 6
n gen
ra d
Ġ201 7
is s
Ġn un
k un
ĠH aus
sch i
ĠA nt
sch utz
ĠMa i
b ie
u p
d ig
b ung
ĠJ e
Ġf ol
Ġ li
ĠB au
ĠP a
ĠF re
hr ung
k la
ier ten
Ġande re
ĠF ahr
2 8
ĠA m
2 7
Ġer sten
Ġd abei
ĠF rei
Ġbe ste
r y
i nn
Ġe ben
ti k
Ġ201 9
r v
ische r
Ġc m
ĠH i
ĠO r
h and
H o
k ten
ww w
m ar
Ġn ie
Ġbi n
ĠF lu
ĠEin e
r il
rei se
Ġ l
Ġ or
S e
res se
Ġ1 00
A l
Ġ lassen
Ġk u
it te
ler n
ich ten
ac e
_ _
t ze
ĠB l
Ġal ler
ĠDe s
Ġi s
ĠT ag
Ġs ei
m us
a len
Ġge s
ĠS on
Ġ2 1
y p
Ġd rei
r lich
ĠP ar
un kt
Ġzur u
ĠMi n
ow n
se nt
p a
zi n
Ġ ta
4 5
ppe n
c t
Ġm i
h s
ann e
Ġk aufen
Ġals o
ĠP ra
it y
an s
rei chen
Ġs a
ĠB il
de t
Ġseine r
Ġ2 3
ĠI hr
z a
b ei
Ġeigen e
rau m
2 9
al ten
Ġge sch
ion e
ĠArb eit
d o
ri g
t ten
Ġ201 6
7 8
ĠTe st
ĠWas ser
W ir
Ġk onn
ĠG a
tel len
hren d
wer k
Ġ y
sam men
kun ft
Ġs ag
Ġhe ute
r um
Ġbe son
op a
ĠS eite
r and
Ġneue n
ĠS ti
ĠE n
ei g
M it
nne r
ĠF il
w ick
le kt
Ġsp a
ze u
Ġ2 2
f rei
le x
Ġk ommt
w or
x t
ĠK unden
b rau
os it
ation s
g ar
s ung
Ġwir k
Ġk ommen
z w
ĠWe nn
nis se
ze ug
E r
i v
l y
ie s
Ġs icher
ĠG o
Ġunse re
ĠK l
Ġge f
ati ve
i ger
Ġs ta
ĠU r
4 9
t lich
sch rei
f ang
d och
le gen
s st
g lie
ur z
ĠJ un
fol g
b ach
ĠA d
ĠZ us
p te
be nd
la y
ra de
ol d
H e
one n
omm un
sp ra
ĠJ an
rin gen
or den
tz t
o ren
Ġda zu
l at
ĠT h
ĠBewe rt
ar m
4 0
Ġa ktu
Ġk ein
ĠSp ort
et t
ĠBer lin
ĠSp ie
2 1
Ġwei l
u ter
ĠB uch
ĠT age
st alt
aue n
n ung
sch luss
Ġ *
Ġ5 0
3 5
il fe
ĠGe n
un st
nd ig
ad t
ione n
S T
for der
ĠPro ble
Ġdie sen
sch lie
Ġbe sten
ĠNe u
is ten
Ġh och
Ġd ire
ĠA ll
3 6
ĠRe cht
al len
ĠDie se
Ġsc hr
zu g
f s
h lt
Ġste ht
ar a
am men
setz t
ĠA uch
ĠA rt
ĠF amil
3 8
k auf
9 0
! !
âĢ Ŀ
fall s
Ġje doch
ĠPo li
9 5
ur n
âĢ ĵ
ĠB undes
Ġg leich
n nt
lo ad
sp ro
Ġn atu
de e
Ġ ra
g rund
zei gen
f ort
âĢľ ,
Ġ201 5
b ru
se ll
b all
og ra
je kt
Ġdein e
om mer
Ġg ute
A R
an e
ĠDa men
A r
h st
stei n
gra mm
wa re
Ġge ho
schi n
w i
l len
v a
zei chn
as st
Ġbe g
um mer
Ġk e
Ġm ei
ĠK re
Ġc asino
e d
o re
ber ei
ĠC asino
ĠO rt
ĠB eit
ewe r
ĠH och
or n
st au
Ġab ge
Ġc a
c kt
Ġauf ge
e rg
Ġb lei
ĠF all
st ung
O N
Ġf re
sch ein
ga be
ol z
E L
or gen
lo g
h le
an ge
ri k
Ġihre r
op f
nah me
Ġg ar
Ġ at
Ġ â
ach sen
ra ft
S ie
an del
ti ng
v o
Ġd ir
Ġein mal
ĠG ra
ĠN ew
ĠSt and
on d
rei che
Ġm ein
ĠS am
chn ik
k i
Ġ %
Ġalle m
ter s
ĠA ber
ĠSc hn
sam t
8 0
ĠUn i
ĠB i
an de
Ġlan g
e ss
ĠC hr
Ġgro ÃŁe
ĠE nde
Ġp ra
or g
I m
Ġp a
ĠAut o
r s
ĠAu g
mb H
Ġse hen
ĠC on
ur t
geb ot
6 0
ĠD urch
Ġm us
Ġlie gt
ri v
Ġ >
fel d
tei n
al le
ĠM ann
ĠK ar
ve nt
N e
ĠE l
F u
ding s
Ġm acht
3 3
Ġi hn
Ġre cht
st adt
Ġe mp
M o
ĠG u
Ġje der
ÃŁ t
Ġf rei
schin e
ĠGel d
ĠH ier
201 7
Ġd ort
L e
ĠF ar
ĠLi n
ĠO ber
Ġh ei
, <
li gen
w alt
Ġbie tet
ĠA pp
eine n
Ġi hren
di a
Ġdie s
n anz
Ġseine n
ur s
Ġein ige
r al
Ġt h
u ren
m at
ĠE UR
E s
ĠJu li
Ġver b
teri al
m acht
Ġb o
ĠG mbH
Ġt ra
ĠS pe
s sel
Ġ lau
le f
ach ten
r eit
Ġs ol
schie d
o ber
I T
ah len
b uch
ĠM ehr
3 4
it t
ke hr
or i
", "
Ġer ste
i ve
ĠThe ma
ie ll
f il
ĠWe b
we rt
p tion
> âĢ
) .<
Ġb zw
Ġ '
gebo te
ren z
ber n
Ġfe st
s it
p s
3 7
lau b
ho f
http s
Ġnicht s
ta kt
arb eit
E S
ĠLeben s
Ġver we
u ar
ei e
c hst
A us
at s
Ġfol gen
p o
ĠV ide
ie t
Ġ201 4
Ġ2 8
201 6
A T
n z
fe rn
las s
ĠI nd
Ġ 01
stel ler
de re
g ri
ic kel
Ġ2 6
ie re
5 5
" <
ĠA c
S o
Ġk omp
t on
Ġ2 7
r ien
ĠO kt
tra g
le ge
own load
ĠSch ul
sch nit
ti sch
ĠGe mein
p el
ĠKo sten
ĠGe scha
lo ssen
r ger
x e
s uch
4 8
n eh
is k
d orf
Ġg u
O R
w ahl
ĠS icher
ĠT u
ut ter
Ġste hen
ĠTe r
Ġf a
Ġ201 3
c hs
Ġal len
Ġ ru
tei le
201 9
ĠD ien
ĠM al
M e
ĠJun i
ĠâĢ ľ
Ġin n
g u
hre r
s pe
st an
Ġdire kt
ol f
ĠZ e
dit ion
wo hl
ĠS el
ĠH ei
3 9
E D
n ing
t he
Ġt ro
onne n
ĠF rauen
zel n
te ress
4 6
sp iele
Ġs pe
sp ort
f re
Ġg an
ĠF ru
lau f
l d
ĠK unst
Ġinn e
ĠM et
r per
r ung
Ġd i
nder n
ĠF rank
ĠDe ut
olog ie
ke t
n ess
ĠA ng
ei cht
tern e
Ġge rade
ot or
sten s
Ġkonn te
ut zen
ĠBil der
Ġwo hl
w and
Ġje den
p lan
Ġst att
D a
nn te
A L
ie w
ti sche
Ġr und
ĠVer b
re g
o ur
ĠAug ust
Ġn o
ĠZ immer
ation al
Ġda fu
pte mber
ĠH am
f la
Ġver fu
. ,
âĢ Ļ
ati v
201 8
ĠWo chen
s eite
ĠO b
Â »
ĠS y
a ter
ĠS i
B a
4 7
Ġv oll
Ġi hm
an ce
z on
ĠV ol
Ġge ben
ĠP latz
ĠSch a
ĠH al
liche s
ste hen
i an
li s
o o
ruc h
p unkt
heit s
A S
' s
ĠF ol
h men
ĠM illi
Ġge st
ac hr
n chen
ĠJ a
ĠK ir
Ġm m
ar s
U S
Ġb rau
ĠB ro
bild ung
ĠF rage
ĠN ie
Ġw ollen
erg ie
ĠA nd
ĠVer an
h sel
Ġet wa
t u
Ġf ru
Ġ201 2
ĠG arten
] <
au ft
Ġb y
Ġwe nig
le gt
h ei
it u
las se
ic he
w u
n u
h ung
c hsel
Ġge b
rit t
Ġwe ni
kt ur
am i
I S
ah men
Ġ2 9
ze pt
ĠAl le
Ġo ft
Ġ ...<
Ġd ich
it h
lan g
Ġge rne
h ir
ĠWe g
ve mber
tz lich
5 6
ĠRei se
sto ff
rie ben
Ġv ielen
s ol
r der
Ġsch a
t al
Ġz e
ein ig
te d
Ġbei den
Ġk om
W ie
L i
Ġlan ge
la f
ĠHer ren
or ie
il s
h u
ĠAp ril
f lu
li k
le g
st ru
bo ok
ĠJan uar
ĠK at
ĠC he
Ġ19 9
Ġge mein
Ġi r
c ker
schu he
gan is
w as
dene n
age ment
lo se
ye r
Ġne u
3 1
Ġge hen
ĠDes ign
Ġz ei
me s
lt ur
> #
w ort
Ġ4 0
p ar
ĠTe am
bi n
b l
c i
ĠF ach
F e
Ġden e
w elt
le sen
ue n
ft s
Ġdene n
4 4
Ġseine m
Â «
rv ice
s y
B ei
ĠHau pt
p latz
ĠSch w
ĠH u
Ġp o
st att
ri gen
ĠV on
r ic
ĠMit tel
ĠFu ÃŁ
ĠW or
ĠBe n
u se
k l
Ġgen au
ĠN atur
Ġ teil
Ġ Ð
A uf
sch t
Ġof fen
Ġb ew
z iel
de ll
k or
Ġwei ÃŁ
c on
V or
> -
T he
men te
ĠL an
= "
i nde
bru ar
te m
ĠMus ik
ĠSp iele
ĠSp a
trie b
ĠF ran
B o
ĠW ind
ĠEr fahr
sch ri
ĠF ir
nd lich
fe st
f an
ĠBe ru
Ġw issen
p ra
ĠS eiten
le ben
ber t
ĠF o
5 7
ĠGe gen
ti gt
ri st
ĠGe s
z ig
c a
Ġbe sser
la den
al a
ste t
ge ra
ĠI dee
an ke
ĠB ad
Ġdar auf
, "
am m
Ġso gar
ĠR ad
u de
ze mber
g ro
gi n
Ġbie ten
Ġver s
ĠE ng
ĠSch wei
di o
5 8
setz ung
sp ie
Ġun be
3 2
We nn
w ickel
Ġc o
ĠAl s
al ter
ĠÂ ·
ĠB ar
hne r
âĢľ <
un t
eite re
ion s
um s
on us
an ken
ĠTra i
v el
Ġsp iel
ĠFlu g
t ter
. :
mal s
ot t
gene n
Ġv ier
icht ige
ĠP at
k re
ot he
il t
ĠFil m
ĠRe gel
ĠK auf
ĠT op
at or
Ġ qu
fi z
ĠF rau
un a
pp s
d s
p ti
ser v
Ġkann st
7 0
6 6
ĠFot o
Ġda von
ĠD ar
ĠGro ÃŁ
ĠI hren
l n
v oll
den t
U n
h nt
N ach
ĠT ran
d ar
W as
": "
ĠChr ist
we g
el ler
) ;
las si
i nt
M ar
s ie
ĠK ap
a k
lef on
ĠM ein
ĠMar kt
se e
ĠB ru
ft ware
ĠI I
> (
ĠJu gend
i nnen
n ehmen
Ġau ÃŁer
sch o
ge ber
h sten
ĠT re
ge mein
Ġe uch
se tzen
an a
Ġf ast
Ġz ie
c hsten
Ġg utsch
h eiten
sch ung
Ġe n
5 9
ĠW u
it al
is on
ver b
f ik
Ġ201 1
ri sche
ĠEur opa
be ho
u d
ĠVer fu
8 8
ĠEr geb
ĠF ragen
Ġbe fi
ĠS hop
ÃŁ lich
berei c
bereic h
U N
A b
ĠFor m
ge m
ĠD r
ck s
A d
su chen
Ġme hre
om at
ko sten
ĠGe r
-- --
p ort
rau s
ĠFe st
Ġge l
ĠHotel s
ba re
mel dung
stel le
hn ung
ĠS ommer
we sen
h ein
zi al
f ft
ĠS al
rei fen
ra c
K o
m eister
ga ben
ĠIhre r
ge hen
Ġer folg
ĠB lu
v is
ĠC ar
Ein e
om aten
ben e
Ġg ab
Ġt un
lie b
g o
ĠM ag
Ġz war
an ten
an te
Ġ0 9
o ut
ĠH olz
ff n
ien e
Ġ $
ind ung
li ta
y n
P e
r ation
7 7
ĠG r
Ġj ew
N r
ĠEi gen
* *
ĠSt art
oll te
g n
at a
stau ran
ĠZ ahl
Ġfi ndet
c m
d ruck
ĠP i
rie d
Ġhe l
ĠA ma
m and
wa gen
Ġher aus
Ġbe sch
Ġw ith
o b
ĠK omp
ei st
Ġpa ar
ann te
ĠZ iel
stra ÃŁe
ĠWi nter
m lich
uc k
Ġ ar
Ma il
E T
ĠSch o
Ho tel
ĠA t
Ġ201 0
1 00
b lick
ĠGe ra
ĠN etz
ĠB as
un k
nah men
Ġau t
4 3
ba hn
st i
Ġn ot
ĠS an
al y
Ġschr ei
m on
h y
Ġs ti
ĠB el
E UR
ĠT ro
lern e
un kte
ĠWe rk
ĠR ahmen
ann ten
n ster
su che
rei cht
ra m
tra gen
Ġ0 8
neh mer
> "
ra un
m ie
Ġhat ten
ĠP la
Ġper so
v ol
ĠSe e
schu le
Ġg ilt
o ff
sp ru
ĠB us
Ġhi nter
ĠG lu
r is
kt or
ĠF l
Z u
si te
7 5
Ġper fe
>âĢ ŀ
ĠG ar
k lei
schnit t
Ġsa gen
Ġ arb
) :
Ġmeine r
ĠW issen
Ġ6 0
sch lag
d ru
ð Ł
ĠVide o
I D
Ġy ou
me t
Ġin tern
ĠP lan
Ġne ben
Ġw orden
on s
og le
Ġer kla
g l
ĠG ast
Ġsag t
ĠZ um
ow s
tw ort
ig h
Ġk am
7 6
han del
A M
lie gen
r den
a i
Ġt re
A m
ĠSel bst
mo bil
f ung
D F
tz ung
ĠC omp
ze ss
Ġbe de
lei chen
ĠS ystem
Ġfi nde
let te
lerne n
ra cht
nst ig
ren n
st ie
ge fu
g lichen
Ì ĥ
Ġkeine n
teil ung
Ġst ar
ĠD o
ĠW ar
O S
da ten
w eit
b r
c tion
m l
ĠDe nn
dern e
8 9
v iew
ra p
Ġha st
s an
Ġ20 20
r te
Ġwe gen
G B
icht ung
ĠâĢ ¢
wend ung
ĠB re
Ġne hmen
f urt
f fer
Ġihre m
ĠN ord
h lich
k ra
ĠP re
am pf
Ġk urz
ut t
ĠC a
ta i
fe ss
et ter
ge gen
b y
ĠB lick
ĠTe chn
ĠN acht
ĠZ wei
ĠB and
Ġc on
ing le
ab i
ktion e
at sa
m art
ra ten
ge t
ĠW ahl
ktione n
Ġde ren
ĠV o
ho w
8 6
t y
let t
4 2
it ter
Ġha b
K on
ĠWo che
be sser
Ġsie ht
h ar
Ġ3 1
ut zer
dien st
Ġw ww
201 5
ĠSchu he
L a
Ġlei cht
st ungen
4 1
ab y
ame s
Ġber u
h ig
ĠM as
Ġk a
op pel
di zin
Ġw eit
Ġk ur
Ġgro ÃŁ
Ġun ser
tei len
tre ten
Ġzu sa
A lle
om it
Ġe her
S u
Ġsag te
ran ken
Ġzei gt
ĠIn st
ĠP ol
ĠAu ft
ĠE lekt
ĠR aum
O L
ĠN icht
ment ar
ich tet
Ġbe n
ĠH ilfe
ĠV i
Ð ¾
nder t
7 9
ĠHi n
Ì Ģ
ĠN r
z us
Ġver k
? ?
st at
ĠI S
ĠFor um
sp a
ĠE U
h ste
ĠNe ue
Ġre g
re chn
ĠJah res
ĠDie s
j ahr
Ġh il
ve st
me ter
am a
d as
ĠSt re
che s
Ġso fort
ĠG utsch
Ġir gend
Ġda her
ĠM otor
di n
Ġinne r
ĠAma zon
ĠS P
b ank
ĠIn ter
lin ks
Ġv iell
Ġver sch
ma le
le b
p la
vi du
at h
ĠVer ein
ĠLu ft
ge samt
ĠFe rn
ĠLan des
ĠK ra
vers ita
ti schen
Ġ= >
p ru
u z
Ġtro tz
tro ffen
Ġin di
nt ag
s weise
u ser
m me
ag t
ische s
wei s
ur g
l te
h ter
c hste
J a
ment s
Ġge sam
nd ung
ac ken
ĠD och
Ġb il
lu b
Ġwer de
5 4
il le
f rage
ĠWe rt
ĠÂ «
ok u
R E
Ð µ
on g
rie den
he l
o v
ĠDe n
Ġs ollen
ĠZ a
. -
ba ren
lin gen
ut zt
hau pt
Ġn or
ewe rt
de ut
ĠGes und
i p
kti ve
Ġ200 9
W o
I C
Ġsch le
mar kt
Ġg ru
le tzt
sch la
H a
Ġf ree
ĠIhre m
n os
ik i
y m
ĠS k
ĠâĢ Ķ
ĠS ol
ÃŁ ig
ĠC hi
u me
mp fe
__ __
se re
Ġ http
h under
ĠF el
ĠGen e
ĠAr chi
Ġsu chen
ĠS lo
ĠL age
U nd
ige s
Ð °
ul ti
Ġb itte
I L
or y
ĠL icht
ta ils
ĠP ark
n es
Ġlei der
ĠH el
ĠNa men
li ge
ta ge
it ze
ĠReg ion
ĠGe sell
8 5
ic s
mit t
Ġe ng
Ġke nnen
re chen
on a
han ce
201 4
ĠLie fer
ĠS il
glie d
is te
ha ft
Ġ0 7
Ġi hnen
ĠK opf
6 5
zeln e
k reis
ĠÂ §
m s
ĠDien st
ĠNew s
du z
201 3
ic ke
ĠSu che
eig net
l ler
ot s
ĠH andel
6 9
ĠK ur
h il
Ġgan ze
p i
bie ter
ĠSch laf
20 20
Ġw under
d uc
d y
Ġp assen
Ġ ;
ur opa
ĠN or
li ma
u ft
Ġz ahl
Ġf eh
tai n
glie der
Ġblei bt
W ei
B N
hau sen
Â °
om i
at ing
schine n
li sch
ĠD ann
imm t
un e
ĠK ind
ĠKl ein
rei sen
ig ht
Ð ¸
uf ig
ĠP au
ĠB al
ff iz
ĠMar ke
ĠâĢ ķ
ri schen
ĠIn te
di um
let ten
Ġvor ge
P o
Ġer ho
i ft
201 2
Ġmeine n
ĠIn f
Ġle ben
ande lt
ĠAu gen
ab le
c hlich
gan gen
ac ke
O M
x is
l lig
utz ung
ĠPo st
l att
O T
ĠW el
l eitung
ah rer
st re
wor ten
Ġhel fen
ot o
ĠA ir
te te
st r
ĠK ri
fahr t
ĠK ommun
ĠI s
. )
ĠP reise
zi p
ĠD abei
ĠI nnen
ub lik
ye rn
l ungs
ĠHer z
ogra f
Ġn utzen
k lus
ĠR om
g bar
ĠI mp
ĠF eh
ĠHo me
U m
u fer
k om
ĠK i
ten t
son dere
ĠD ank
ĠP ort
Ġge wa
zei tig
ĠLie be
ĠNie der
zeu ge
ger n
Ġsch lie
lo w
Ġ {
ĠKa teg
ĠSch utz
Ġer sch
geb ung
ĠFar be
s or
un ge
Ġh al
Ar tikel
ri gin
ĠP ri
ĠKu ltur
Ġ8 0
Ġer war
6 8
ĠA bend
gel d
ĠThe men
Ġson st
Ġw i
ti v
ich a
ie f
Ġb u
h ann
Ġdar f
ĠC or
ge w
ri ka
f ter
tal ien
Ġw ahr
ĠD ir
ĠBo ok
ment are
ei che
ĠAn ge
Ġv o
A ut
6 7
osit ion
ĠM at
F or
ĠEin zel
z eiten
Ġlie gen
Ġ200 8
5 1
gel n
Ġer n
g al
Ġs et
Ġo ben
ĠTo ur
ĠWei ter
ĠBe ste
h ilfe
Ġ us
E U
ĠHi nter
ri sch
i na
ĠS and
A P
ro w
Ġbo ok
ĠK lei
is mus
ĠH eim
Ġje dem
ĠA G
Ġ )
ĠFi nanz
zahl ung
ik a
ust rie
ĠT ei
ĠBo den
Ġin form
Ġda ÃŁ
I E
Ġge fa
Ġg ing
ik o
ĠW and
as h
b us
ami n
ring t
c hter
ĠSu per
ĠWei hn
Ġein fa
l am
Ġsch u
Ġsu per
ĠP art
am t
is p
5 3
n sch
Ġste llt
Ġ lu
Ġ0 6
tel le
schri ft
on t
ic ro
ĠUS A
ach te
ĠZ ei
wei ter
l s
an ach
mer k
riv at
A G
5 2
Ġer ha
Ġemp fe
Ġab sol
ĠF la
f asst
rit ten
Ġbe no
ĠFe rien
ier ungs
R o
ĠAn fang
rat is
V on
Ġ as
Ġs i
gri ff
Ġver m
ĠT or
He r
ĠG old
k ur
se t
a ben
ĠBer g
A C
Ġmeine m
Ġg o
bi le
ĠB r
6 4
tig keit
i ke
ĠNe ben
ĠBa de
Ġ 00
h ler
ĠS itz
ĠN achr
st ungs
Ġbe gi
wir k
Ġbe tra
ĠA k
rie ren
ĠAb s
ie b
S ta
f ar
D u
d chen
zo gen
ĠBe hand
Ġg uten
ĠTi tel
ĠBa hn
ut ze
Ġo pti
Ġdar u
it zen
Ġve ro
ra b
p g
y le
Ġan zu
ĠN u
Ġ9 0
Ġz eigen
Ġun ge
Ġbe vor
8 7
x y
S a
h ard
hal te
ĠZ ent
Ġa d
il o
ĠGew inn
D E
ati sch
s ei
sch ul
ĠP ap
at ung
or ien
w achsen
ĠW il
> [
Ġb a
ĠEl tern
ĠFot os
ace book
ass ung
ad urch
te st
h ang
Ġkl ar
ĠGe d
Ġle sen
icha el
Ġw ollte
ol a
zie hen
ĠâĤ¬ <
ĠTa gen
al k
eie r
ĠFre und
s ion
Ġbe t
de ck
om o
C o
ĠR ab
Ġh alten
Ġm ag
w issen
mi nis
ĠGe bur
p reis
n te
ĠD ort
Ġhin aus
ĠMe dien
reit ag
ĠS tein
gebo ten
ati ven
r f
sa ge
rik an
ĠT ri
ri nnen
ĠWir k
Ġte chn
L E
fer nt
or k
Q u
B u
ĠC D
Ġ3 5
Ġwe g
am mer
ri d
Ġ ti
rac h
ĠS et
n ummer
ĠR ot
b ew
ig t
ĠB ew
un n
lo ss
we hr
Ġho he
ri ff
eine r
re t
ĠPf lege
ĠO ut
ĠK n
s be
ĠIdee n
ĠS mart
ĠD ruck
r tig
ĠP C
ĠT V
I G
n ach
à ¸
dar f
ĠFe uer
Ġk re
as ten
at ten
u men
un sch
au ber
ĠE ssen
ktiv ita
sc o
ien ten
al og
F i
ĠP lay
f allen
ĠA lt
d n
i ns
ĠW ein
- ,
Ġp oli
Ġbe st
ĠMa ÃŁ
We r
rap ie
f it
ren t
Ġi P
ord n
ĠH ar
si v
ĠV iel
ĠN ot
ĠL auf
it i
A uch
l ungen
sit zen
Ġgegen u
Ġer fol
was ser
ĠZ ur
ĠW ien
9 8
c hnen
ffn e
Ġ Î
Ġje de
lie ren
ĠSte uer
pe ri
e m
ss o
x i
Ġer mo
co de
ĠGo ogle
Ġdes sen
ĠK raft
Ġk aum
O P
ĠL og
ĠMe r
p lat
ah re
te chnik
M i
ĠI nn
hir t
N a
k arte
schaft s
spie ler
L o
ter atur
Ġsp iele
sch rank
O n
Ġk la
ĠH aut
" .
j pg
b ewer
ru fen
Ġf rom
W a
ord nung
r fen
Ġher vor
fi n
âĢľ .
ĠC e
or ten
201 1
ĠSp ra
ĠJ etzt
ĠWei ÃŁ
ĠK la
om as
fol ge
ĠB onus
Ġge t
ĠLe der
ĠB ank
ĠE rn
ei cher
ĠH y
acht s
ĠP an
Ġsch wer
Ġan ders
ĠMe e
Ġz a
ein t
Ġ ur
gen t
ĠS terne
ĠV oll
lin gs
a ler
gru ppe
au c
Ġvor han
ĠGe ba
fe nt
Ġc h
E x
L ie
D R
z ahlen
u tet
ss ig
ĠE le
trie bs
hr ige
ti ve
Ġth is
M an
bo x
et te
ĠR at
ĠSt ar
ĠB log
ĠD ig
ro p
hr lich
T E
bur ger
ĠK rie
be ding
We b
ĠR i
M ehr
Ġz eit
ĠH igh
Ġ https
sch au
k ter
ĠGru ppe
Ġso wohl
li ga
ĠSchr ei
he nd
Die se
Ġver an
Ġ200 7
lig ht
b and
rei te
ger icht
che nd
ĠSch we
res sen
Ġg lau
Ġli st
d f
ic a
wei sen
Ì Ĥ
ĠMo dell
aue rn
ft ung
hal ts
Ġ ac
Ġ ðŁ
E nt
j o
Ġge fu
ĠG las
m men
sch lu
stan den
ĠSa ison
au se
Ġf al
i ness
ri ge
U nter
at um
ĠW ald
fess ion
k unden
eil s
m mer
an o
zie h
asi nos
ffe e
ĠBeit ra
ei den
ĠR olle
h one
re a
ĠB aum
n c
ar c
gn e
r ke
yste me
Ġst ark
ĠTage s
ĠM el
ĠEr folg
ĠBl ack
ĠT ier
ic al
stimm t
G ro
gen de
Ġst u
Â ®
Ġj u
Ġ7 0
R A
ver sta
ie ÃŁen
Ġre gel
ren zen
rigin al
e nde
H al
zent rum
lt nis
Ġbis her
ĠT isch
teil t
Ġ0 5
ist or
hn lich
Ġ5 00
Pro du
le uch
s tern
ra i
Ġ3 6
li a
ĠU p
sch n
r st
ei sen
r d
je kte
Ġp ass
7 4
ĠB ran
Ġd am
K u
b ack
I M
ĠK reis
ĠEi nt
Ġm el
Ġs omit
r m
an lage
ĠRecht s
sp ruch
S te
8 4
rne n
ĠL au
li ste
p ress
H ier
si schen
Ġ0 4
schei d
pe ten
ha fen
Ġal t
op h
Ġi de
ĠWei se
ĠSt o
ĠLe ute
W eitere
ĠS onnen
Ġern e
i ker
li sche
hl ung
Ì Į
ĠN ur
Ġr ein
nder ung
Ġe lekt
201 0
ĠC hance
ĠSt ie
Ġdar an
Ġe he
Ġp osit
Ġst and
ĠBe st
Ġhei ÃŁt
Ġge sp
gi nn
da y
ĠC H
Ġ4 5
me hr
9 6
Ñ Ĥ
c han
Ġmus ste
Ġa ktiv
ĠD re
f tig
w ig
lan zen
Ġbe lieb
n lich
ree n
Ġs lo
ĠI st
k ir
da te
Ġber eit
is se
T i
ĠV ari
P reis
Ġmi n
> â
Ġje des
ĠK or
ĠTe xt
ing s
ĠHau se
ĠAn ti
wi n
ÃŁer dem
ĠWa ren
ĠH il
i al
Ġsch we
A B
ĠA ktu
ĠK urz
i ken
Ġc an
Al s
ur m
halt ung
z ir
Ġge scha
ĠAl ter
ff el
ur o
Ġb ewer
ĠSe r
f al
ĠFar ben
v al
ĠP resse
ĠK lima
Ġal ten
rie f
g art
Ġ0 2
ken nt
zei chen
ĠM utter
Ġhin zu
R O
ĠDie ser
# #
m lung
auc h
me ra
ĠTe x
i te
li t
w ind
ĠKon ze
si sche
ĠD amit
ĠS h
Ġ( *
Ġgen e
ĠW etter
Ġ3 8
Ġ }
onne r
Ġsol che
schen k
Ġ3 9
pro du
lic ken
Ġm on
Ġmi nde
ĠTer r
Ġent sp
ste uer
si dent
B eit
r se
Ġt atsa
lo sen
sy c
m per
Ġzu ge
Ġf r
ff net
Ġf o
Ġje mand
ul ar
ĠR hein
ĠMa x
rne r
ĠGebur t
J e
n schen
ĠTer min
ĠK olle
f rist
ĠE nd
ĠW ett
ĠLa ger
Ġneue s
ĠP ru
7 2
li z
Ġ3 2
ktion s
a y
ol o
ĠPe ter
de cken
P S
ĠM il
ĠBa yern
ĠSpa ÃŁ
g arten
ĠSchu le
ĠHer r
we gs
ĠWe st
ĠA nn
Ġper son
ĠC om
brau c
ĠP DF
ĠR is
p or
li schen
tei lig
ren d
brauc h
zei ge
o ver
ĠF ort
g liche
Ġmei st
ik ation
ĠTi pps
. âĢľ
ĠWe bs
Ġge k
ali st
Ġd ig
or gt
ĠF ried
h or
ĠKre dit
at te
ab ha
d ro
wickel t
land s
st al
ĠL ang
nd ler
ĠJo hann
A u
p fer
ĠB is
ĠP ass
ĠK an
A D
Ġ leich
a se
utt gart
lo the
ĠB lau
Ġsel ber
f ig
ke s
r me
f rieden
Ġbe scha
hr te
ungs ver
ĠDe m
Ġpra kti
\ /
zei gt
ĠRe gen
Ġet c
Ġb ist
ĠGe fu
lau fen
n ten
et ten
f assen
Ġz una
b ewert
ĠD ach
at ter
ĠS eit
r ten
us st
7 3
ĠMar k
ĠB itte
h stu
ĠAu ÃŁen
Ġ0 3
y l
re d
. âĢľ<
ng t
Ġmit tel
iss ion
ĠL ED
serv ice
7 1
is h
Ġ los
b al
Ġst ra
Ġna he
ph one
ĠP S
ĠSe rie
ol ler
ĠR und
v olle
frei e
ier ter
lan gen
ĠBe tt
J o
Ġfre uen
be t
ti ger
oc ken
ti l
ich ter
T o
geb iet
ĠB aby
eh m
Ġa re
ĠD oppel
p l
ehmen s
Ġge d
i nter
ĠFol ge
e a
Ġg lei
sto ffe
Ġgan zen
u tion
ĠKir che
ur f
Ġb ringt
Ġm ar
ÃŁe nd
Ġ200 6
un kel
8 3
Ð ½
hol z
Ġb l
ĠIS BN
8 2
li p
c hne
ber ra
y c
r ice
Ġins be
ĠT urn
la ger
ig ung
inde st
ĠP unkte
zeu gen
Ġmit t
e e
dien e
p ark
l ker
n ke
Ġi t
Ġe ro
UN G
E M
Ñ Ģ
aly se
ĠW al
ir m
isp lay
il la
ze s
ĠMe rk
Ġh and
f ragen
ĠS telle
Ġt ran
ĠS itu
se um
kehr s
x x
ĠGe samt
w ald
Ġ pe
ff i
ht ml
á Ħ
renn e
ĠAl ler
la st
ĠDie ses
ĠF C
Ġum ge
Ġze r
Ġg rund
ĠSt rom
Ġeben so
ĠH or
n ige
ic o
ĠD isk
Ġlie be
V D
ĠG i
Ġso zi
wie sen
w art
Ġer ke
Ġp ar
g te
ĠWi der
u be
n zen
i ma
' ,
r iert
urc e
ĠT ab
ĠS T
Ġin kl
ĠP rin
oc ke
ng ig
Ñ ģ
ĠZu beho
Ġk lassi
fe rt
ta gs
rie re
b rigen
o der
ĠG ut
he re
lei ter
Ġ9 78
im mel
ĠMon ate
Ġver gan
k raft
ho t
ĠS n
ordn e
Ġan gen
Ġver t
6 3
den ten
we gen
9 7
ĠK arten
ar y
ge sell
lin k
ĠMit te
ĠVol ks
ĠUm welt
hn liche
ĠI T
Ġbe ein
ĠSch au
fi nden
hunder t
Ġ ?
stie g
ĠO st
Ġset zen
á ħ
oli tik
ver ein
ĠFeh ler
m as
ĠMen sch
Ġwar um
walt ung
ĠH ann
f l
nd igen
ĠUr laub
ĠO ption
g g
no w
ĠLi ve
ĠSt r
or s
s ungen
un tern
ge lt
Ġve ra
zie hung
Ġletz te
ut h
Ġ Ìģ
sp ha
r ter
ĠP or
men s
Ba y
Ġs ucht
ĠSe x
8 1
k arten
h mal
Be r
i ngen
ĠW ahr
ĠW ort
zelne n
Pe r
Ġth at
I I
St art
6 1
ĠF ree
ag n
I B
it s
ra gt
Ġver g
te xt
ogra ph
Ko sten
200 9
A U
brau cht
m t
ron t
ĠMo del
s ucht
ĠE mp
ĠMi ni
Ġaus zu
y a
Ġlau fen
teri n
iel t
wei le
st or
ĠH ol
m ack
ĠGe spra
ĠBe t
T ag
Ġfre und
b ungen
hr ungs
Ġ3 4
Ġ3 00
ĠE ing
bo ren
ri o
ti s
be tt
ĠC re
ra le
Ġ @
Ġbe an
c hmal
ĠRei sen
im men
S P
Ġf ort
su cher
T V
ĠK arte
ist ik
at c
Ġein z
Ġein zu
Ġâ Ĩ
Ġun e
p ack
or a
h igkeit
ap an
ĠS icht
ĠM y
ĠWie der
M S
ĠTh omas
ro id
d urch
b is
let ter
L AN
ĠM icro
ge ssen
it ut
ĠD eine
ĠH D
ĠBe sch
sp ielen
ĠCh ar
Ġges agt
A ber
Ġho hen
Ġbe sta
mittel n
ĠEr st
tw och
arc h
ĠMon at
ad a
K e
Ġall ein
T a
ĠW olf
ĠS im
Ġze hn
fan gen
b re
b li
ĠU N
N ew
k le
Ġfi nanz
Ġspiel t
ĠFir ma
ac t
Ġw icht
ot h
Ġzu dem
5 00
ĠLie b
ĠN et
Ġa k
s ystem
ĠA kt
ĠGer man
na le
ĠP rivat
Ġjew ei
an den
ĠMe ter
sc ri
Ġf and
Ġgen ug
Ġer fu
per ten
op p
ding t
l tig
b ro
Ġ200 5
T S
ff nung
I P
Ġ rei
9 4
Ġe cht
A nt
Ġ200 0
ĠSal z
ÃŁ te
> ...
Ġe uropa
anne n
Ġse chs
we chsel
sch w
Z um
. "
6 2
uc ker
lothe k
p age
ste s
sp ir
iel le
atc h
ste ht
nd ige
ĠD ire
etz te
f luss
Ġb as
Ġbei de
Ġlau t
men ten
um a
ĠHand y
ĠM ulti
ĠE del
si ve
ĠV is
ĠRab att
i nst
hr igen
ma len
na me
Ġgel ten
ra y
sk i
E C
rit te
Hal lo
w ach
ber ger
R ei
ll ung
ĠF it
flu g
ĠB ack
ble m
ĠW unsch
Ġ lernen
ĠSo zial
deut ung
on es
Ġb lau
ĠPra xis
s icher
ĠSt rand
Ġy our
nn ten
ĠMe nge
b um
ĠRe c
b ad
len der
fe renz
zie ll
ri se
Ġd anach
zen e
ĠBl ut
ĠSch i
ĠD oku
ĠA f
lin ge
ri fft
ĠR ie
ge setz
ĠG ott
h at
ate g
ĠTrai n
I CH
Ġf ahren
al tet
ic ken
ĠHe raus
z y
Ġn immt
sa me
spiel t
Ġ1 50
Ġer za
E G
M on
ĠM ie
ĠBas is
k annt
an gen
G ru
m ut
p zig
z ung
ĠC ol
na pp
te c
A rt
mer zen
ĠL iste
Ġk g
Ġd rau
so ft
ĠF arb
Ġvor her
ĠAn zahl
de lt
ie nt
ĠDi nge
rau t
ĠSch lu
Ġsel ten
Ġb ewe
an zen
o per
ĠVer lag
N o
rie b
a z
B ild
ma il
p fen
ĠZ we
ru f
ĠMe d
pf licht
ĠLi nk
bo ard
Hotel s
ĠBro w
on i
am s
Ġg ratis
Ġun ver
n kt
u le
Ġ[ ...
ĠA lex
ĠEr satz
ĠI N
ber pru
ĠNa me
bi lita
Ġbe sse
st ar
bil der
Ġnie d
y pe
v ier
lu g
r as
m und
Ġp reis
ĠIn sel
ha ben
ker s
ĠMar tin
ÃŁ ten
ĠDa zu
Ġs tei
ĠD an
me sser
tw eit
g ut
ĠÂ ©
ĠFi n
Ho me
ĠSta ats
or gung
Ġver z
ĠAl les
Ġkl ein
Ġwe rt
Ġma x
Ġb ald
ĠC amp
kti ven
omi n
S V
bar keit
ue rn
P a
Ġe ri
la d
ei der
Ġste ll
D i
nst ige
IN G
ĠD rei
ĠAl so
mel n
ĠA s
Ġrecht s
C he
ĠB raun
rin ge
Ġun ten
diene n
Ġ che
Ġso gen
il der
200 8
zig ar
n sche
st ahl
c el
ar n
ĠFir men
agn e
le y
it co
ri ger
Ve ro
se x
b ringen
ĠKa i
on y
ran zo
ĠP u
nst ler
Ġvor bei
r ungen
Ġvor n
T M
, -
hr ist
ma ÃŁ
gem eine
ĠO der
ĠP lus
9 3
Ġd o
r dig
St u
m uck
Ġs etzt
Ġal te
ĠKa ffee
C D
ĠBe son
k rie
Â ¤
a ger
Ġehe ma
ck lich
ra te
Ġ3 3
ĠS oc
ĠZ i
si n
is ter
ĠD el
J u
ĠRe p
ĠAl tern
> Â
9 1
ĠHal b
Z ur
U M
Ġp lan
O b
ber icht
wer ke
ĠMe ss
lu st
ĠUn sere
mi um
Ġn u
Ġ3 7
o f
ĠC an
ĠK ilo
or te
F il
Ġp re
tz liche
ane r
mp el
ĠS onne
ta sche
dig lich
Ġp riv
Ġt olle
I R
lex i
Ġ !
A pp
os a
I nnen
ĠB rand
Ġdam als
K a
line r
lei sch
ant ie
ĠSta at
ĠRei he
g as
ĠBe such
geb aut
ĠB ur
ĠC ity
sa men
h am
it ten
ĠMet all
rig ht
ĠD ich
lo ser
klus ive
w el
Ġver ein
ĠMet ho
ĠW ol
um i
an ien
Ġhil ft
ĠBewe r
Ġ4 2
ĠW ild
os sen
I V
iene n
ĠV ier
ĠU l
Ġzwei te
Ġr icht
Ġsp anne
te mber
am ing
t her
a kt
ĠMo de
s hop
k m
Ġ/ /
ĠEr d
wer te
9 2
ĠA ktion
ah lt
v id
Ġm y
sicht s
un ehmen
ĠMar ken
vent s
ĠBe ginn
Ġhe u
ce ss
ĠV iele
ĠS ingle
Ġkeine r
ti fiz
Ġbe f
och ter
d ass
de ren
o bach
nis sen
pe rt
Ġt ragen
ond on
si sch
ĠR au
ĠP al
ĠS atz
re as
bie ten
ĠCo ok
e u
ĠFel d
Ġsei e
ro s
D es
Ġ1 20
k ap
Ġz ent
sche s
( '
ĠSt at
Ġin dem
Ġneue r
Ġp f
fre und
eig n
bl att
Ġge setz
Ġab zu
ĠSon der
ri a
Ġwo bei
ĠE he
ĠChi na
ĠBe rn
den ken
lan z
x us
ot al
le ment
Ġseie n
che l
ĠB io
Ġin teg
me ssen
ĠÎ Ķ
ĠVer tra
z z
k unde
ĠIn vest
ĠTe mper
geben e
De utsch
t op
Ġfrei e
ĠV ater
wei te
ru e
it le
ĠSc hne
ĠP unkt
el les
hin e
ĠL ehr
ĠB y
ĠH ein
ĠInf os
St and
ĠBeru fs
ĠH unde
s b
se tze
ĠO ff
Ġa pp
. "<
Ġ200 4
dee n
i x
ĠVe n
S G
wo hnung
ĠiP hone
le ucht
Ġd ank
me ss
Ġ4 4
s ein
Ġp asst
uch s
I ON
b it
ĠN utzer
ĠBeru f
b lich
ĠTrain e
ĠF lo
ti ges
C on
ĠÎĶ E
Ġin ter
ĠG leich
ic es
ĠZa hn
ĠK aufen
le v
ĠHer bst
s itz
ĠSil ber
M W
>âĢ ¢
rei ber
bene n
k rank
> >
mo tion
h ab
tre u
Ġseine s
ĠD anke
r ken
ĠS ach
g r
ĠD E
wie rig
ungs be
ĠRu he
rin ger
ann ung
n ken
w il
Ġwe sent
ĠH ans
b ruch
D urch
Ġ .<
fi nit
wend ig
sch ra
rder ung
ĠD ra
all s
ĠÂ °
ĠKre uz
lin gt
Bo ok
Ð¾ Ð
Ġge plan
Ġh alt
IN E
zeu gt
ĠMon tag
ĠM ik
l f
ĠLin ks
Sp ort
ĠMee r
chen de
a be
G o
an ger
Ġ rie
pp ort
rz te
ĠS uch
Ġ4 8
ĠHa ar
Ġh istor
H and
ĠVor aus
ven tion
s ver
ĠG ot
ĠApp le
ta il
Ġbe que
Ġd ru
ĠT yp
U T
le e
Ġaut om
wo hn
ĠStu die
wa y
Ġst o
che rn
tro lle
b la
ĠAu fent
e rst
tel n
l ar
ieren de
Ġ raus
stei ger
ĠS ki
Ġre l
ĠâĨ Ĵ
F A
Ġ4 00
\ "
ĠAut or
hal le
200 7
ng lich
Ġ5 5
G es
ĠD ia
ĠB all
ĠK lasse
Ġ7 5
ĠZu g
ĠN atu
Ġdig ita
Ġver sta
Ġf ot
Ġc om
ĠSt ru
Ġeri nne
nd nis
b auen
ss ystem
no v
Ġu p
L O
ĠD onner
r c
ten d
Ġc omp
ach st
ungs an
K om
ffne n
ĠB la
ĠB or
Ġs orgen
do or
rich ten
be zo
Ġfest ge
S tra
p ha
me nd
ol s
On line
{ "
ha i
Ġver lo
eign e
Ġer wa
xe n
hau se
b lau
ver la
atu ren
Ġg lu
S S
k omp
ĠW ander
Ġs inn
ari n
ĠM ac
aus o
Ġzu vor
st he
Ġ links
mel den
oc ker
W u
ĠZ it
for men
ĠG rau
ĠSa che
ĠK ampf
duc t
Ġm as
st ik
ĠS w
Re g
le tz
P ra
ĠMai n
Ġge rn
stand s
ĠUS B
b as
ĠVe ra
p artner
ss a
- /
rechn et
ard s
dn e
ĠK no
li tz
hal ter
ĠRe chn
lin ie
iel len
- )
hi li
Ġer lau
itco i
Ġ- -
pe dia
ĠFol gen
itcoi n
ĠA ben
ĠM eine
] ,
leb nis
ograf ie
hi te
ke a
ĠG as
ĠJo b
g licht
ati n
k lasse
Ġer h
g licher
ĠSti l
ĠM or
t au
ĠSer ver
M u
Ġal tern
Ġer g
ic kt
ĠD res
kauf s
re chte
spre c
f ahrer
r us
gent ur
ĠC lub
A ll
ĠSch ei
ĠAr zt
ĠK urs
ro l
ĠTei le
Beit rag
ler ie
ĠE is
Ġs iche
S pe
f assung
Ġwi der
ĠT au
se h
Ġden ke
p art
ĠKa bel
Ne u
ag o
ie fe
Ġw or
M ein
i nf
Ġb ra
lin ik
Ġhi nge
w al
v iel
ba rer
Ġp ri
ing les
o te
ler s
00 00
Ġle gen
verb and
hr ten
S on
ĠF ra
Ġn ah
ĠK ol
k an
ĠRom an
Ġlie ber
rei ten
ti ker
k at
den burg
ĠM orgen
H E
f reich
s eits
ue s
ho tel
fts fu
Ġspa ren
trie be
Ġus w
oll ar
sti n
ul d
; <
ĠS ho
Ġs orgt
Ge sch
le gung
teg ie
si nn
ĠZu dem
hen s
fil m
t or
ĠJo hn
ĠAu st
se d
rei ben
ri p
ĠF ig
Ġver hi
sa gen
r ick
B l
re st
M us
me e
lei tet
ĠN un
ĠD on
ĠJ ack
ĠB unde
Ġk napp
al z
ĠP fer
Ġsp ort
v ig
el s
Ġra b
b len
ĠAng st
ĠD is
ĠBe scha
Ġro t
ĠTran s
f li
ĠK rank
Ġd re
sch auen
Ġerne ut
yn am
lin ien
ala xy
a les
ara kter
ĠL am
t rem
ste d
e x
tro ll
Ġqu ali
ĠNo v
lie sen
Ġbe gru
tet s
ĠR ein
Ġdeine n
Ġ4 3
!! !
ĠS inn
u ÃŁer
tain e
u fe
di gen
ĠTe e
ĠK rit
des ign
ĠEi sen
Ġwo hn
Ġ200 3
m ark
zei chne
hl te
Ġin ten
ĠBa den
Ge n
Ġj unge
sam keit
kt a
Ġg a
ĠWi n
R u
ĠB eim
ĠWer be
rit z
oll ten
Ġkur ze
> +
Ġoffen e
all y
ĠZe r
P C
Ġm orgen
ĠTo d
ĠS or
T ra
bel le
Ġer le
o us
Die ser
Ġzu erst
stat tet
ig a
Ġ1 000
u x
I A
ĠKar l
V P
Ġ4 9
Ġ ren
Ġer he
ĠKa mera
ur a
spie gel
ĠSi nne
ge scha
ĠPar is
Ġsch w
te ten
glich st
ĠSo hn
Ġsch war
Ġ new
Ġver la
ĠR ock
ĠD ro
ĠSe n
ĠPart y
ĠIn halt
ĠW ill
Ġs am
Wei ter
tig ung
ha ber
Ġgew u
uss ion
om ie
ĠL ondon
rt s
B et
ma ler
ĠH ard
ĠZ eiten
r ze
duz iert
ĠHo f
ĠE m
ar zt
ffiz ien
un kten
ĠVer arb
ute s
ra ter
ter ien
âĢĿ <
ĠWa sch
K E
r ier
D S
b ieren
wer tige
dig t
we der
Ġk rit
Ġher z
de ckt
Ġg uter
Ġver d
li st
trie ben
ser n
âĢ ĺ
chen den
ran g
des sen
Ġbe e
plat te
... .<
ĠZ oll
200 6
Ġs tets
Ġb ein
ĠJo se
he ren
ĠVide os
A c
ng st
ĠS che
Ġwe nige
ĠP lat
rai n
ie ten
l eit
ĠTe le
ver an
kt oren
de d
ĠA ss
Ġzie hen
ĠE ind
pp t
ģ Ħ
sch uss
Ġd ah
F a
as y
Ġge ma
ĠSt off
ĠSie g
ĠSe rv
ĠH und
wickel n
G u
Ġk or
st ation
ar be
t to
ĠY ork
im al
mp fa
di das
Ġo ut
ĠGe bie
pp ich
Ġs ingle
T ER
ha fte
as te
u al
ok rat
reic hi
ĠIhre s
spra che
ĠC O
s h
Ġg rau
Ġent ha
ĠP syc
de te
me rikan
ĠD VD
ĠH eil
ĠHeim at
ĠPro f
ĠMo ment
ĠSch wer
brigen s
ig i
ĠSlo ts
ze pte
ore x
ĠSch lag
b ungs
te chn
Sp iel
ori n
ond s
ĠP ublik
Ġver w
Ġk W
ĠVer t
ĠC ap
W ar
ĠP op
ĠM ot
ĠH an
F oto
bli othe
i no
ĠGew i
ĠKom bin
pf lege
ĠG re
ah me
ar den
r ge
ĠY ou
stimm te
gru ppen
Ì §
ĠHe ute
han delt
me dia
ai n
je ct
vi n
H aus
>â Ĩ
f amil
Ġfe rtig
au pt
sp lan
ĠR einig
ĠSn ea
te ren
ide o
Ġ2 50
ĠBe zir
be e
k ing
die nt
Ġbe tre
Ġ4 6
ĠK lo
Ġf ranzo
G E
i ten
te ktur
Ġt op
Ġf eie
d te
hr ungen
ĠO ffen
ach i
sch irm
Ġgute s
ĠG ame
Al so
n form
ĠL aut
l fte
nde te
n lichen
K inder
ĠOn e
ang s
ĠPo wer
Ġsch la
D A
* <
ĠSt unde
Ġ q
bo den
w id
ein code
ĠT on
Ġg ames
Sc hr
ĠKi no
k urs
Ġer ster
pp ing
j u
Ġ acht
= =
Ġauf zu
b an
Ġin st
ĠZu gang
K W
b ra
ĠTh is
ĠÂ» <
der t
ic ker
Ġt au
S eit
Ġgar ant
Ġaus fu
s ste
ly mp
ĠS E
Ġob wohl
ver se
hr on
Ġje n
Ġrab att
ĠE uch
an c
â ģĦ
ĠSta hl
ĠP hil
ok al
ĠT raum
ĠI r
T op
Un sere
ĠE li
a ktiv
i se
Ġge a
ĠRad io
Ġd rin
besser n
S hop
ren ze
icke ts
Ġ4 1
ĠE cht
bau m
3 00
Ġk n
fol gen
unden e
ĠHal lo
den k
un i
ĠFre ude
forder t
S ystem
zeln ach
Ġ6 5
lt lich
ĠD orf
mm t
Ġge wo
ĠC ent
ei s
Ġ lin
ĠBo x
ĠBe ding
ĠN ummer
ag no
N E
nd orf
ĠSP D
ge stalt
W el
ĠMe dia
ĠC ha
ĠSchne e
ve s
abi n
d am
gra mme
zen z
Ġk inder
ĠWor ld
ĠBe zug
ĠK eine
ffe kt
ze sse
Ġdar i
ĠErn a
ĠR E
ĠD om
be darf
zen s
Ġm l
ĠB lo
ĠB urg
sp ar
ĠCH F
ĠSa chen
b ald
ĠâĢ º
e p
Ġm et
ar chi
ĠP et
eh mer
Ġdari n
U ni
Ġihre s
ĠFran z
C h
J etzt
te uer
h se
ĠRe st
Ġreg ist
Ġwar ten
spe kt
ĠI P
ĠE mpfe
zu gs
iv al
Ġ200 2
ĠG olf
ĠMu seum
d atum
ĠRei c
ĠS ehr
ĠKai ser
Ġkre dit
on ie
A ktu
f ie
ĠA R
ĠC as
ĠB ir
ĠRis iko
ort s
ĠH um
ieren d
ĠP ul
F F
ĠVer sta
ĠM acht
stu hl
O W
ĠO hne
Ġun abha
it ar
ge d
S E
asse nd
ul ation
h ing
ke nn
Ġt ut
Ġbe d
u ell
stein e
Ġsie ben
Ġe Bay
ie ler
fe rnen
hol t
ar tikel
Ġt oll
ĠDe kor
ĠAn lage
hr lei
p assen
Ġdar um
stell te
ĠAr m
ĠIn s
st ro
y mp
Ġmo dern
un ction
re c
ĠP il
Ġ6 4
i nk
lossen e
Sc ho
b lu
taine r
ĠF r
ĠGe setz
Ġe gal
ĠP l
ĠAus fu
su lt
ro om
E n
ĠRe s
ir tu
a zin
ho se
sp f
Ġka men
N ame
n bezo
z ur
rei e
H i
ĠZ ahlen
e nbezo
L and
ĠS ei
si a
k aufen
S C
len k
ĠSt au
Ġmel den
U r
ĠPap ier
ĠT w
O C
ck n
S ehr
os k
h tes
ier tes
ĠA M
lker ung
Ġt yp
tw orten
ruc hs
ru g
ber all
ber eit
ĠPau l
ĠP ack
b lichen
b eit
> Â«
ĠE d
ĠP latt
Ġso dass
hel m
ge ma
> *
r or
ĠK lassi
ĠReic h
ol or
fern ung
ĠB ra
ze hn
Ġb onus
s wert
sch ungs
Ġver ste
le c
ĠG rad
lt ure
ĠNo te
ka dem
ue rt
fu l
ph p
lie ben
s ichtig
mittel t
ĠE ro
teri um
D I
renne n
ĠAu dio
+ +
Ġj ungen
ĠRe chte
ĠAkt ien
P ar
> @
ĠPar tei
net z
gew icht
Ð »
per son
le ger
n icht
am b
Ġh u
e c
Ġd ur
Die ses
le nt
ĠM w
den s
Ġge o
Ġge ld
ĠN EU
Ġ 000
ke tte
ĠBlu men
um m
ĠT iere
Ad resse
Ġge lo
ks hop
( "
li ty
ĠBe vo
ĠMus ter
e y
tember g
ndig ung
ĠWar um
ri nner
G H
ler nt
ver kehr
ĠV it
sen de
ĠReg ist
New s
fig ur
Ġan geb
dig ung
ze rn
uch ten
ke rn
ien ce
Ġd ating
im g
We st
z ahlt
ĠJo urn
be trieb
ĠRo u
aue rt
la b
ĠWe ge
ĠT at
h ster
st s
sch wei
lt ra
min e
ĠO li
Ġe nd
an lagen
ĠA L
ĠUn ser
ĠP ha
f alt
ĠGe mu
Ġwir kt
ver y
Ġh andel
B A
qu alita
U p
cht ig
mit tag
we n
Ġglau be
c hster
an ta
S chn
d ag
ho to
el a
ĠDre h
ĠLe ser
her r
b by
ĠT ur
ro t
i res
ĠH immel
be ck
ĠR unde
Ġes sen
ĠMi nis
Ġo p
Ġne g
ĠK omm
bo ten
al o
n liche
Ġd isk
j acke
N icht
Ġha ve
sel n
ĠKe rn
Ġt u
ĠL ust
s um
ns icht
r zt
son sten
g ress
ĠSlo t
far be
B i
ĠB ot
ahr ung
ĠDa te
al ler
Re cht
ali sten
K l
le der
H R
Ġgo od
mi sch
v ollen
d wig
Ġher r
uss land
B au
Ġges und
Ġjen e
ĠO p
f ra
ĠSo und
ap ier
Ġdes ign
ĠMa il
at o
O K
war d
ĠD auer
ĠM att
ĠVe ro
ĠSy mp
H och
bel n
mer z
ĠGot tes
ziel le
ran ge
an i
ĠA B
M A
w olle
Ġ reich
Ġ4 7
an gebot
Ġw ann
c ur
treu ung
ĠR et
at ik
m g
Ġbu chen
r kt
abin e
ĠL eit
Ġ Ã
Ġge gru
ĠEin fu
rn berg
sa chen
ĠII I
i ven
st ock
e k
ĠSpe zi
/ <
ĠL im
b liche
ĠSte fan
p ot
ver trag
k und
Ġh aus
Ġex trem
ĠK ann
s burg
p unkte
ĠG B
ĠQu ali
ĠB rief
y o
Ġlie ben
ni um
eiche rt
ĠK och
ĠO pen
ĠG lo
l ter
ate d
Ġge mu
an des
de cke
le ss
Ġdeine r
ĠP h
pf lich
as ter
for ta
Ġspe zi
ĠSch wa
ag ra
Ġex tra
De n
ĠBre men
gebene n
Ġ reicht
ĠFe r
r hein
Ġ200 1
L A
Ġz eig
kor b
dene r
ĠLin ie
ag ue
h och
unn e
Ġfeh len
ĠWo hl
ri b
ĠUn fall
Ġkom bin
d auer
ĠGe bu
Ġg ra
ei ter
Ġum fang
Ġmo re
a der
r mer
ĠCo de
ril le
le cht
ĠBe g
ckn e
vis ion
lei ten
f ind
ah res
Ġslo ts
Ġm achte
Ġden ken
mo de
schein t
p x
ĠBe du
ffn ungs
Ġlan gen
ĠF ein
stag s
ĠRe d
ĠC lass
on line
ĠA N
ĠK le
v ie
ra gs
Ġz ahlen
mp fen
il ler
vo line
orie nt
ĠN ike
Ġdrau f
bewer b
or m
Ġs icht
ĠM ad
mo d
Ġke nnt
nf te
ĠDa her
ĠVer tre
lo ud
ress um
Ġune r
g ten
u rer
et s
ĠMo d
ĠN i
ĠAll tag
Ġkon kre
p fe
ĠH ot
ĠO per
gri ffen
ar l
Ġp l
ĠMw St
Ġber uf
Ġat tra
Ġs h
ĠVer ha
s dorf
stau sch
ĠTa sche
Ġdeine m
k ampf
gne r
Ġmus st
v ar
wer den
M ann
Ġnie der
ĠIn teg
Ġver lie
k n
p ol
s and
p hi
ĠIn tel
ĠV W
Ġin z
ĠT rin
ru he
ĠMerk ur
ro ss
w urf
S am
u tel
AN D
D aten
ĠF ahrer
ĠJo bs
ĠM B
Ġb auen
Ġf allen
ĠS how
ba y
h tet
ce des
Ġe ffe
Ġ5 4
hi p
ĠMar ia
r gen
ĠF ab
iene r
00 3
mb ol
ĠT ren
T h
age s
t tel
ĠS V
Ġli ve
Ġun g
X L
lic ke
neh m
p asst
ĠP um
mm ung
ĠK art
ĠKrie g
G ew
ĠSe ni
t ung
b b
Ð º
ĠW LAN
ĠK unde
I st
Ġver bi
ĠG rie
o ss
vis or
un c
ĠG T
v an
con tent
it ion
ĠPro fil
min ar
ac kt
ĠO f
om a
ĠVer ka
be s
Ġbeg ann
geb u
> Â»
ci al
Ġho ffe
nu ll
Ġge ra
ĠW eite
ad o
au lt
ie fer
las h
r ker
st ige
Ġ ter
ĠMo tiv
ĠGe fa
li o
si den
Ġfol gt
ĠF ans
ĠVer d
ĠSch l
200 5
f ass
Ġw elt
ĠW under
ĠSch lie
D P
ichte te
ĠS eine
ei se
ĠG anz
ĠEur op
ĠH alt
ĠTro tz
ran s
Ġvorn e
il ber
othe ke
ĠSt ro
ĠV iell
gene r
r zen
ho len
nf tig
ge wo
P U
Ġ9 9
sa che
e nter
Ġin vest
. )<
mo spha
a a
zi gen
met ho
we st
x el
Li n
d d
Ġb raun
au st
is iert
Ġp ol
Ġ* <
Ġauf gen
hl ungen
or der
ĠBal kon
ger s
ĠG ames
it alis
Ġ arbei
Mar ke
ĠS au
st isch
dag og
kir chen
Ì Ĩ
âĢ ŀ
Ġv ia
ĠLi ter
ĠSt ock
ĠJ ung
rei g
art s
ĠG la
ĠT el
Ġâ ľ
sp an
iel d
Ġd auer
ĠUm gang
Ġe v
Ġwe der
Ġt otal
W E
" -
kti k
Ġi f
Ġre ad
ĠE ss
Ġf ro
ĠAn wend
ie ur
igi n
Ġso weit
Ġ land
p le
r fte
In tern
tw or
ĠQ ue
N ur
ĠE p
Z immer
u la
ĠMo bil
ĠP hili
ĠMe sse
fa len
ĠO lymp
se que
ĠV a
F T
os ter
leuch te
ĠQu ad
Ġf ragen
ĠT ru
ĠKat zen
sel ler
D anke
il ien
amp agne
á Ĩ
S U
ÃŁe re
ser ie
nn a
ĠBe k
ĠPo ol
ĠK G
ĠLu dwig
d ungen
Ġgen u
Ġein ger
I K
ĠAuf bau
Ġko stet
Ġ[... ]<
A A
id s
Â §
Ġbeque m
Ġp ru
ĠI de
ĠV ort
b log
ĠH on
ari f
ĠS tern
ĠInn ov
Ġpro fit
ĠKlei d
rei cher
ĠAk ku
ĠW ur
da ktion
ĠSo zi
uch te
Ġre ag
ren e
f rau
del n
ĠU ng
ĠG lau
ĠWel che
Ġ5 2
C O
ĠMar i
wei ÃŁ
G rund
ren a
umi nium
Ġur spru
ĠPa y
Ġg arten
le ase
ĠC ommun
Ġv i
ma chen
V O
ĠUr teil
ĠMas ter
og a
R W
inf o
Ġer ga
p re
O r
m d
ash ion
" .<
derne n
ĠB on
, .
bel len
ĠFahr t
o ten
li m
ut ton
dne r
ĠK al
s n
te sten
ge ordne
Ġlo hnt
anne r
ĠC olle
ĠEin wo
Ġwei ss
lan gt
h ungen
Ġmi tein
ver mitt
r sen
Ġf il
ĠAl ten
ag d
Ġo ffiz
isten z
Ġaus dru
ĠSchi ff
ĠS ha
Ġn atur
B itte
Ġnah m
ir us
ĠI ng
Ġde l
ĠB ier
ĠðŁ ĺ
Ġ teilen
k opf
ss lich
W elt
ĠGe fahr
v ing
S L
ge geben
ĠAl bum
Ġ6 00
ĠKon to
ĠO l
ĠR icht
ĠEr de
kunft s
m ei
ruc ker
Ġt ief
las sung
ĠGew a
nde l
ktu ren
op y
Sch u
Ġf lie
sit zer
fer ung
ĠB MW
ĠM c
âĢľ .<
EN T
Ġt rifft
ĠK as
Produ kt
hal len
ĠPf ar
f as
r einig
Ġin nov
4 00
ĠBe ach
atter ie
p u
ĠP ub
Ì Ħ
Ġi deen
ĠIn stru
la dung
M eine
S eite
Ġo ber
ĠW achst
Ġn ow
fil ter
ĠW ell
Ġs an
ĠK ant
b te
ĠDas s
ĠIn fo
Te chn
ĠPo ten
ie gel
S CH
ĠAr ten
ĠW iki
ĠUr lau
lie fert
t l
1 01
Ġsp u
mat ik
ik ali
ĠHer zen
Ġla st
Ġlie ÃŁ
Ġhin ten
f ot
Ġge be
B E
ĠUm satz
ĠJ es
ĠM ir
P R
Mi n
at oren
ĠS C
Ġz w
ĠSch la
we e
ĠG alaxy
li ger
ĠF ro
T C
schen ke
Ġ5 6
Ġla g
Ġst ud
ĠKo oper
p osit
k ul
r one
ĠD ein
Ġte st
hl ten
ur ist
** **
ĠU ser
r kte
acht ung
ĠJ apan
Ġk at
ĠRe a
K unden
Ġher um
ĠRo bert
ĠS ein
ĠRe lig
Le ben
lo ver
di sche
ĠF isch
i i
ĠMar c
Ġher ge
de rer
ĠAu di
Ġsch li
Ġb ar
h orn
ĠM ei
Ġe l
Ġzu sta
Ġd pa
De ut
lu ft
F ahr
me d
cht ung
ĠAnt rag
Ġbe ge
Ġfeh lt
ĠLu xus
i f
ĠKrit ik
ĠFil me
Ġs auber
p oli
Ġbe sit
ĠK ro
int age
ron ik
r unde
ĠDa vid
P O
w iki
Ġme d
ĠLei der
Ġk ra
and a
Sta dt
ĠMi o
ĠMik ro
ĠZwe ck
ge hend
U L
Ġslo t
1 12
sch rau
ĠL ot
ã Ĥ
ĠSch on
ĠG ran
Aut o
um l
Ġviel fa
Z it
ver ha
eiche rn
Ġ5 9
Ġbil den
Ġd ro
Ġh ol
ĠLa de
ĠMi nde
ĠKe nnt
ĠF rem
ĠCe nter
hren de
Ġte sten
ran ten
eister t
I nst
ĠGe org
st il
ĠS ign
o se
sp u
tion e
D ien
ĠDar u
ĠBe tra
> âĢľ
C E
Te lefon
ĠSp itze
K T
r sten
ĠG ute
Ġreg ion
ĠLe se
nit z
ĠW illi
tro l
R a
H L
si ze
Ġ achten
Ġs org
. .<
Ne ue
Ġ ei
t liche
ĠH alle
ĠG l
ĠDe nk
ĠE v
Ġ ?<
" ]
Ġ8 5
i tel
Ġver l
ĠZ o
Ġha bt
ĠS zene
olog y
) )
ĠT atsa
S D
Ġtra i
Un ser
ĠN utz
ĠK op
ĠC i
Ġzie ht
z it
zi ger
me lt
ten s
ĠVo gel
ĠS CH
Ġp lus
Ġan ti
fal se
sp latz
e rk
tione n
fe ren
ir c
ĠUn ion
for um
liz iert
ĠOrt s
ĠDa fu
zu fu
ar o
ĠB rem
plat ten
r chen
ĠL ab
che ster
mb and
zel len
p olitik
ti fik
ik on
ĠDe ck
ha gen
sp on
Ġf lexi
ĠT anz
ĠM iss
di re
u gen
z um
mo dell
ima ges
Ġwir st
mer ic
Ġe vent
ĠGe heim
ĠFe rtig
or ge
v y
Se rvice
lin a
ĠMil c
o de
z wei
Ber lin
ta kte
we nden
ĠR ing
ve ra
min ist
ĠE vent
Ġex ist
ĠQu elle
k g
ĠGew alt
Z eit
ĠGra fik
In form
ĠTe mp
Ġme nsch
ĠG ewer
Ġ one
lis h
y al
ĠGe b
vers ity
I hr
Ġs ystem
ĠKl eine
c hse
ĠH at
ĠE hren
ie te
ĠD ist
n ze
ko hol
ste igen
recht s
Ġse x
S et
ĠW M
et o
fahr ung
k y
Ġd ra
Ġe le
ĠJe der
Ġpo st
ha ften
ĠG ol
m or
Ġp lo
/ -
Ġstar ke
ĠM iet
j i
e rn
ĠA me
L u
ĠMin ute
Ġs im
ĠMed ika
peten z
> |
Ġ ..
ĠKl aus
Ġ1 10
il len
pi n
ĠIn iti
Ġb au
ur y
ff ung
Ġp art
ĠRe al
r un
Ġs ah
san walt
he d
ve d
ĠPro fi
ĠPer so
ĠJ ust
ric ks
ĠBe ho
d re
>Â ©
aut omat
k ommt
ĠT rend
S ti
p r
tin e
ok us
D ar
ĠAut os
ĠLa den
ĠH ir
arte ien
u el
hens wu
Ġ18 0
geb a
le d
k ar
wor k
d ach
Ġ5 1
f lus
it or
Ġ5 8
Ġge schu
schu h
ĠN och
ri scher
ri nt
ĠM ig
ĠR ich
me dizin
ĠZ ucker
fo hlen
ĠE ben
Ġt ollen
ver sam
S A
ĠZu sch
Ġb rit
ĠOr d
Ġwas ser
Ġb lo
Ġv oller
ĠTeam s
ĠGebie t
ce sso
li an
ndig t
ĠLe sen
Ġwir ken
de ten
wa ren
Ġun tern
w ann
such ung
ĠIm mer
ta gen
Ġ19 99
richt s
ĠF al
ĠT her
ĠRo sen
Ġwe b
St ar
ning s
Ġin c
A nd
oph ie
k w
rich tet
B is
ĠTi pp
ĠSch mi
ĠK au
ĠGro ÃŁe
k as
el n
S hirt
out ube
Ġfal sch
z ier
Ġlo ka
Ġvor be
ad s
be cken
ĠFi nger
. [
co unt
ĠCor ona
ta b
z n
di schen
Ġm ark
ĠA qu
ĠAm ts
f tigt
Ġp lay
ĠGe tra
Ñ ĥ
w n
Ġun i
al ys
re ll
Ġor igin
Ġ9 5
B O
ĠPo ker
rie s
b orn
w illi
amm t
Ġv an
K ateg
l tigen
Ġf lu
ĠL ad
mel det
ĠD or
ri pt
Ġbe lie
Ġru hi
ach tet
c ast
ber s
auft rag
ĠFil ter
ĠMilc h
p lo
c htes
W ind
ĠFran zo
ĠK os
Ġbis he
Ġf ach
ĠLe hrer
I nd
Ġj o
chte st
an y
ĠI ma
sen den
g las
ĠB R
ĠVen e
Te am
B ewert
ra pe
f unk
ĠAn ha
ĠSch lei
Ġ6 9
eite te
He ute
Su per
Ġer nst
ord s
de utsch
Ġo ption
deck ung
ĠSch ie
re f
- )<
wert ung
ni a
ĠT om
ni gen
ym n
z gl
rder t
hi as
d lich
ĠâĢ ļ
inde x
ĠUp date
F rei
Per son
Ġb lieb
ĠO pfer
r ierte
ĠFrei e
ĠAl ters
B ER
ĠC al
klei d
ĠZus atz
% <
Ġ !<
ver t
ĠM A
Ġo ur
Ġ )<
te re
or ganis
ĠMin e
B us
din e
dien ung
ns ion
Ġr us
il a
kel n
le rin
ĠBl ue
wer ks
ĠBru st
ziel len
Ġbew a
Ġp df
ĠSp re
ĠF ront
wei sung
} ,
ĠR us
alis mus
ĠM und
9 78
T eil
frist ig
an ze
d or
Ġsch wei
Te r
ĠG reen
W i
krie g
ĠRe zept
Ar chi
L INE
ur i
ger ung
F C
ti scher
kadem ie
ĠSoc ial
m bo
ĠDa tei
b indung
pe rn
u che
um me
f tigen
Ġa p
fre d
Ġ14 0
k tes
ĠH art
: \
ĠVer sch
ĠL ast
rie nd
view s
Ġg lo
ĠEr kla
zen sion
Ġvor aus
Ġ5 3
r onen
ĠKe nn
B uch
icht s
Ġer ziel
atu re
au l
v ia
A V
ĠBewe g
ĠLei ter
Ad visor
c y
Ġ8 00
e ng
gang s
Ġh as
ĠStra f
ma x
Be n
Ġ- <
ĠSch war
R ad
geb nis
ĠD DR
ĠHe n
ã ģ
200 4
N ie
Ġe ure
ĠG ei
nde ten
ĠRa i
Ġh eim
po ol
ĠS at
H ei
ĠAm t
te x
ĠN ein
ter t
Ġse he
6 00
ĠSp rach
de u
ĠI nne
mus ik
hen den
Ġbe ton
Ġ5 7
hol ung
Ġver y
< /
ĠCD U
ĠPro vi
f ur
Ġwe st
Ġre zept
f unden
ĠRegel n
ĠJ ungen
p ul
an dern
ĠO pti
hr liche
P re
Ġp la
Ġaus wa
re gel
- <
c ha
ĠSte p
gri ffe
Ġdisk ut
Ġf l
P f
ĠDan iel
c htet
t um
ĠAb satz
a ren
ar kt
Ġk ommun
tw ick
ĠTri p
Ġn et
Tag s
ber wach
ÃŁe ren
b rechen
ĠPa ar
far ben
ĠI V
ĠR ollen
au be
ĠGr ill
vidu ell
Ġmu ÃŁ
ĠGe rade
Ġide al
ĠNeue s
wick ler
sp rung
ĠM P
D ann
ck ge
Fu ÃŁ
zie ht
ĠD arm
Ġ \
ic ket
Ġ ~
Ġe uro
Z e
Ġv ar
Ġinne n
ck te
r ut
ĠC le
kra i
Ġmo bile
lo ses
ĠR and
D ER
ti m
ĠCa fe
ĠAn teil
we chs
ver tra
ur laub
8 00
Mo dell
ĠG eist
ĠBe darf
M ag
F re
F arbe
ĠTei len
ĠWer te
tin gen
chsel n
ĠAp art
ĠE reig
ku ltur
Ġn ation
p ass
Da men
ĠR ang
k al
sp ruchs
ĠArchi v
ic ks
ct or
Ġsch wa
Ġdie n
L ei
ĠJ ul
ã ĥ
spa ren
Ġf anden
at he
ss ige
he ber
Ġi den
ĠGel a
it zt
Al les
ĠS un
âĢ º
ss i
ĠR oll
p ft
ĠMo bile
ĠEuro pe
spra chi
Ġv is
" )
ba st
ĠOff ice
ĠL ap
Ġ6 6
c es
Ġne un
b ewe
g reifen
we nn
ĠZ iele
ĠKar ls
ĠV an
ĠA S
B eim
ka bel
& #
Ġ19 90
Ġdar ge
ren nt
M et
S icher
Ġde fin
t lichen
we ge
iz z
ĠE t
ug h
c c
leg te
se arch
n scht
par atur
F ol
re l
wee n
ĠWa re
ĠB ig
ier s
vi de
va il
nt he
ber tra
Ġfor m
Ġte uer
se her
ĠO ster
k asten
hei mer
d ten
k inder
lich ung
t rue
ĠVol k
ĠAnn a
ĠH als
ĠK ein
ĠG rand
r fe
Ġle e
Ġl oc
Ba hn
a gen
for d
Des ign
ĠS ar
sta at
schu len
one y
ĠAn aly
Ver sand
nit ten
hi nder
ĠSch alt
da f
terne n
Ġm g
fer tig
g ie
rei ses
ĠBe e
nn is
z one
ĠW all
ĠW eil
!! !<
ĠSk y
ĠStu dio
Ġh olz
r liche
je kten
Ġk ap
sy chi
ĠD ru
ĠD ollar
H ol
ĠRei fen
fer tigt
ĠN orden
Ġge m
ĠT im
M I
ti al
ĠS he
IS BN
rk ei
ĠBu d
ĠBa y
E ng
Ġge le
ĠD anach
un ger
ĠLe rn
p um
ĠT al
ra hmen
r man
wo od
a pp
Ġdie nt
ĠK it
ĠEine n
Ġnach ge
H z
ĠT rau
u hr
mt liche
lich ten
ĠMa y
ĠL uc
Ġc lass
Ġgew i
ĠE N
k us
S el
nn ung
Ne ben
ĠRe n
ĠBl ock
D o
di ger
1 50
ĠEr ste
ff a
as on
Ġ199 8
K at
ĠK ing
Fil m
Ġopti m
onen ten
st rom
tra i
B el
vers ion
be sch
au ben
Ġb lu
ĠJ ac
ane n
Ġc re
o st
ĠV om
uc ks
ad d
ĠL ight
O ber
ĠB onn
ĠB reite
K omp
ge setzt
ĠCh amp
k ord
ĠPol y
ir st
ol les
Ġd auert
Ġle bt
gen den
Ġaus geb
Ġf ein
w p
Ġdar aus
Ġkur zen
ĠApp s
ie g
ra len
ĠErn st
> âĢĵ
sch utze
ma ÃŁen
li sten
T R
ĠG ab
b rit
ti na
ĠF ett
Ġw and
Ġbe tei
ĠSt amm
H D
meric an
c re
ĠEin ige
aut y
gra d
be k
g ing
r ein
a bend
Ġla den
ĠS ur
Ġru hig
ĠSu b
gel s
C hrist
ĠEn erg
sei tig
Ġf rauen
ĠG ewe
ĠO hr
M P
ĠW h
Ma i
ba res
Ġlie b
wer de
ĠPo len
ĠLei cht
al te
C C
fe s
r tel
achi n
Ġv s
ĠGro up
I mp
Ġf alls
and o
Ġmo ment
P al
ĠDire kt
r asse
ral ien
ĠVor der
n em
ĠI t
ĠFall s
": {"
ĠC am
ĠB anken
ti ment
ĠDe tail
us ste
ver kauf
ĠInd i
âĢ Ķ
Ġh aupt
ĠP R
u i
ĠB an
he ben
it c
Ġ$ *
ĠB und
rie nt
ĠKon kur
Z us
Kon takt
f ic
Ġco de
ide e
g no
k ri
ĠB auern
Ġdien e
I ER
K re
fahren e
ĠA U
Ġm ieten
ĠS tei
ĠG R
Ġma che
um mi
th or
u xe
F o
ord net
Ġe chte
Ġt ritt
Ġse nden
fol gt
Ġeng ag
ĠLe hre
v ari
pp y
ĠG ri
Ġ rau
Ġho me
ĠDu sche
ruc kt
War um
Ġge te
lex e
ĠLe ague
at her
Ġnor mal
ĠL iga
ĠRo h
r ierung
Ġw h
N un
Ġzu ku
ĠV illa
Ġverm ut
Ġs ho
ver n
ĠF as
E l
Ġg ame
brau chs
C omp
c ho
fel der
ĠK eller
ĠF an
ĠChe ck
ĠD rit
E W
ĠGe gner
d pa
krai n
new s
Ġre c
ĠT ief
setze s
ĠHe ssen
p at
. /
st alten
az ita
ĠBau c
ĠAu ge
ach ing
ĠPar la
li gt
o hne
d l
I F
P ort
freie n
Ġw id
Ġhe ll
Ġge he
B B
Ġau spro
Ġau to
D r
. ),
Ġ art
nst igen
ĠF A
V ideo
' :
Ge boren
is a
Ġst ars
H A
ĠChe m
rs g
a ber
Aut or
ĠJe ans
Ġd unk
st ab
om s
U P
je nigen
sp reis
ĠZu ge
Ġsta at
ĠL y
ĠH ab
ho me
Ġf risch
ĠPhil os
ĠNe uer
ĠTh u
bo gen
m y
G el
T A
n ien
Ġein s
Ġb ad
dru cken
Ġmon at
B undes
ed back
ĠRes ort
nd iger
E Z
ĠS ind
Ġ16 0
ĠVer g
hren den
n ur
ĠPer spe
ĠJa va
ĠE ck
ble me
c at
Ġb ack
Ġge sell
si de
such te
ĠM ut
Ġ6 8
ĠWa gen
ĠR ett
ĠA D
Ġo ff
Ġf la
Ġwill st
Ġak zept
ap ter
ĠF und
ĠSchu h
Ġau ÃŁen
ĠWa ffen
ĠP rem
an ische
ĠHei z
g ien
ĠFor men
lau c
w ein
L eist
pack ung
ĠSt reit
t ok
ĠV ielen
verb ind
Ġf ur
ĠK linik
ho ben
K ar
G ar
del le
P artner
ĠIs ra
f tet
Ġ que
F rank
ĠT OP
au to
T ro
Fe rien
ar tige
c ause
re p
Ġd anke
ce r
ĠPa ket
ĠA ktiv
Ġd unkel
wil lig
I hre
I EL
Ġsu b
ĠL etzte
ge fa
ĠGe sam
mar ke
E X
Ġauf s
Ġne nnen
L og
Qu elle
lan de
1 20
ste dt
f lo
O G
im i
Ñ ı
Ġs hop
icher t
Ġan s
sprec h
Ġ9 6
E ST
sso urce
ĠE nter
ĠVi n
achin e
kun st
B es
Ġd ata
Ġho ffen
Ġab ha
w ander
ĠW hite
ĠMet al
ĠRe nn
ĠBe sten
T el
F amil
ĠHer rn
Ġ1 30
Ver sion
leg ant
ĠA mb
ann ien
ĠSp ar
ril len
ĠH P
ger t
Ġin fo
fess or
twor tet
Ġau thor
ĠMi lita
Ġtrai n
g yp
ĠSp i
Ġrie si
recht ig
ti ke
ĠPfer de
Ġsie he
ho fen
ti tel
ie fen
Ġa g
ran che
ĠA spe
Li nk
ĠKe y
ĠRe de
Ġdiene n
Ġho her
Ġviele s
I nter
ĠGe ha
Ġplan e
ĠMo dern
Ġmit ge
stu fe
m iet
Lie be
} }
ser t
bil a
Ġman che
Ġs itzen
oku ment
s berg
f ru
Ġin spir
rat or
ĠSol ar
ĠHa fen
ĠBe am
ĠDe ko
n sten
ĠBo ot
Ġein deu
hab t
F ot
ĠD IN
ĠU ltra
ĠL G
Ġdah i
Ġ ....
u elle
eto oth
Ġg re
hai n
and i
ive au
ĠSti mme
Ġb undes
c or
so zi
Ġkor re
E AN
Ġzeig te
O B
ĠZus a
di v
u ment
une n
ĠO N
V i
lam pe
P A
li x
ĠVer mo
Ì Ĭ
ĠEr mitt
Ġfu e
b auer
P reise
K aufen
Â ¬
ki n
ie ÃŁ
de res
ĠMa le
ru fe
ĠWe sten
Ġhin ein
D och
Ġb ut
Wo hn
S I
G ra
ĠT rum
ir r
Ġbe mer
ĠVer la
Ġwar m
u fi
Ġst re
AR T
ĠKon fli
Ġ6 2
sche hen
den de
hir ts
Ġre lev
n gel
wie gend
ĠS us
ĠW iener
ann ter
wer ten
Ġ1 01
rat s
Ġt rin
Ġf rag
ĠB arb
ta schen
Ð ²
E lekt
oc ommun
ze d
lauc h
Ġf ind
ĠStu d
hre ad
sor ge
chen e
B as
fe kt
ĠG ratis
bar ung
Ġhal b
ĠWor te
ĠPlan e
ĠB isch
a de
Ġda men
ĠHo use
Ġp i
Ġsp rach
b sta
Ġ6 3
ĠD unkel
ad i
ĠCo unt
dien ste
L G
ĠOr gan
om me
' '
ĠEx tra
ĠFe der
In fo
ĠS we
we b
Ġv olle
ichtig t
ĠZ w
Sp iele
E E
Ġbe hau
ĠF alle
ocke y
Te st
lef onn
Ġfreie n
ĠX L
âĢ ²
ĠFor der
rf nisse
ĠBe arb
leg ten
olog ien
ie rer
hen de
ru fs
ĠUm sta
ĠHa ft
ĠS ig
ĠSo ft
H u
e rs
itc h
O rt
Ġ7 2
ver tre
ĠSon g
or din
> âĤ¬
ĠF eier
is st
he riger
Ġfre ue
Ġb illi
a e
Ġo be
Ġa bend
ĠC l
ĠAut omo
v ille
mus ter
lo t
bast ian
ĠRo se
T L
Ġde kor
Ġmo bi
ĠIn spir
di ge
S i
ĠTab let
Ġgeb aut
o le
Ġsti mmt
to me
ĠG riff
b tisch
de x
ĠAn walt
kon to
ĠO tto
ma cher
Ġzer sto
ĠChe f
ĠMon ats
le tzung
keit s
ĠR ol
kre dit
ĠMark us
ĠVer tei
h ling
Ġ7 7
Ġfi le
z ut
halten e
h ologie
Ġgew ann
ÃŁ ige
ari o
ĠN ik
kt op
ĠLe e
ymn asi
sp la
Ġge pf
p df
^ ^
Ġb reit
e mp
Ġd ran
!! !!
y pen
Ġein geb
g f
] [
S H
ĠMat he
ĠRe nnen
n ey
Ġho len
ĠMen u
Ġt itle
Un tern
man den
f ro
ge spra
## ##
handel n
Ġr unter
ĠKir c
C i
ĠNa vig
Ġsch wie
ĠR ap
ĠF okus
ĠL os
Ġp latz
T u
ĠC loud
ĠMe di
nst iger
Ġde scri
atu res
ĠA C
Ġget an
nah m
ĠOb jekt
u len
ri ve
ĠMo der
ĠðŁ Ļ
z we
Ġn ix
Ġg la
M B
Ġse e
V iele
al ue
Ġ8 9
00 1
2 000
ĠAn fa
ĠBil lig
ĠKrie gs
ĠFa vor
k asse
ĠDie sel
orn e
I d
mi na
on ym
ĠDel uxe
hr iger
pp chen
Ġnahe zu
F ru
ĠSte ll
ve ns
ĠKu lt
ĠSt ress
rei ft
n b
n or
' ).
Ġle gt
Ġab out
Ġsh ort
ĠWo hnen
ĠBauc h
Ġ199 7
ĠWer ke
ĠSta d
ĠKo stu
Ġk auf
port al
p apier
ĠAc tion
ĠLin e
ĠSch ok
ac ker
N A
V ol
S K
es sen
E igen
Ġ7 9
ic le
ĠU K
Ġver ur
schi ff
be x
b ag
Ġ8 8
Ġ6 7
ĠO sten
alt h
la te
k ammer
W or
ĠBru der
Ġz zgl
ma te
Ġti me
ĠStre et
S y
Ġ: )
h jahr
Ġall gem
Ġv irtu
ho use
reg ion
lat te
le m
teg ien
se nd
tin u
om an
: :
str asse
ĠI kea
ar tet
Ġr um
( )
u is
OR T
fel n
Ġ: )<
Ġge lang
n y
si tes
Ġv ari
200 3
ĠBel ast
m il
ra stru
K ann
up load
ĠAn dere
ĠTex te
Ġbl ack
ri x
lic e
ĠE R
ĠH oll
>< /
Ġre duz
b rand
l tige
ss icher
p per
ima ge
Ġmeine s
f arb
Wel che
ÃŁe s
sie he
ar tig
re ten
schie de
lin der
ĠKu chen
ã Ģ
yste men
ĠBe ge
ĠG ang
st art
Ġtre ten
Ġmi ni
Ġsch laf
kir che
ĠQu art
un tain
ĠPri me
arm on
it zer
u k
ĠKe r
rk la
ĠLa ser
Ġan g
Ġb eit
V ER
all iert
ĠTo uch
Ġp rivat
ĠO bst
ir che
c ar
ĠE cke
ĠI ll
ba den
b ir
sch we
ĠFe b
rieben e
ra gend
oc ht
qu i
ste il
ĠH ist
I O
ische m
Ġerste s
ĠN utzen
Ġ12 5
Ġf it
ĠA nne
um fang
ku la
ĠAu ff
fe nd
Ġ199 6
B ad
ren zt
ES S
he bung
Ġfue r
ĠSe rien
ĠN RW
ĠHa are
rid ge
gs burg
Sch lag
Ñ ĭ
wirk ung
ĠAp r
hal tet
De tails
AS IN
ig ns
ĠDi pl
Ġkur zer
Rei se
B C
ĠC y
Ġs ur
eh me
O ut
sie ht
ĠDe z
m is
EL L
Ġz un
um p
Ġma ÃŁ
ĠIn c
ĠD I
Ġw ind
ic tion
g au
ĠRo hr
Ġge ziel
d is
ĠUm fang
nig s
f z
2 50
ĠRe f
ungs mo
A F
opp elt
Ġ19 95
iz za
Ġhier zu
mer s
i nform
ĠGra mm
For um
Mus ik
X X
Ġ[ "
user n
st alter
>âĨ ĳ
Ġre st
ĠLei den
li scher
/ ><
Ġf rem
f ried
nge re
ĠB ord
ĠRei hen
H il
ĠPi n
Ge mein
Ġunge fa
gen s
wor fen
N etz
ĠLie fe
o hner
N ein
p reise
ĠEr b
ĠSch m
Ġe d
be th
one r
Ġleben s
j ack
Ñ Į
form at
O D
Ġg old
r dern
p ret
du le
ĠMus ic
Po sted
ĠB ein
ĠI nt
uc ken
ari na
ĠT U
be hand
fi nale
ĠEnt sp
r ver
uÃŁer st
que nz
Ġc hrist
rich ter
Ġ9 8
Ġ7 6
mu seum
ry pt
ĠSt d
ĠSch al
plan ung
les wig
Z wei
Ġor ient
be tes
Ġs y
ĠL ok
fen ster
ĠFor mat
h eil
hy si
du st
ĠT un
Ġm ann
ti me
cht igen
G arten
" >
v it
under t
ĠZ ie
n sen
Ġf as
har ma
A K
win kel
Ġlu st
st ron
ĠB ie
lei hen
Bo x
Ġb ild
den d
u fen
C asino
kle ber
Ġsu che
We rt
z is
b art
ĠBe gru
ĠM au
Ġd achte
H S
Ġf arb
ĠC up
ĠBl att
Ġmitt le
liche m
sch alt
j s
ĠP as
ĠSe p
ĠF ant
G a
ic t
ĠC at
Ġtran s
isten t
Ġge habt
Ġsel ben
B L
ĠBen zin
C K
d ra
ĠP L
B ilder
ĠT ha
The ma
Ġso was
ĠZ y
ĠK inde
ĠDi agno
zeit s
Ġk rie
rei he
ause nd
rin zip
Ġwe nden
St d
Ġ[... ]
ĠF R
Pro jekt
rei ter
Ġste igt
am burg
Was ser
w ur
il y
ĠL ein
ir men
ĠJ acke
Ġan hand
ragen de
re chnen
nne rn
w uchs
okrat ie
ĠLi zenz
del s
ĠP osit
ĠO rient
rei tet
Ġs rc
ss igen
u res
ĠE bene
Ġve rab
ort h
fe uer
ĠZ ut
M od
ĠZur u
ĠD atum
ĠAb lauf
ĠS ter
ĠK B
ge rin
p ut
Ġs etzte
Ġp ub
f r
Ġkom me
Ġ7 4
sc a
Ġma xi
= >
Ġ eignet
! )
ĠA rn
ĠC ho
ĠOr te
F lug
Ġh y
Ġso fern
ĠI l
ĠBe zieh
V B
r ew
ro se
Fe rn
Ã ·
l oc
d ata
Ġaus ein
Ø §
mp fer
K reis
ĠMot to
Ð ¼
per te
me tik
g old
chn et
Ġbil det
ĠIs land
Ġmein t
ĠF uss
k omm
ĠL ack
kti ver
ĠLe g
ce nt
Ġh art
i bex
ĠiP ad
o i
Hi n
ĠBi n
ge ht
pe te
z ielen
V G
fi sch
ĠR am
kon ze
ĠL ow
utze rn
ĠL ange
ĠT R
ĠWe rner
a chen
ĠT ank
finit iv
ĠDe cken
hot os
Ġp op
ĠB am
Ġne n
ĠB och
ĠEin bau
Ġst yle
t tern
Se rie
ĠB ab
te stens
H rsg
ur l
ĠSee le
Ġbe arb
t d
Ġge pru
1 10
st immen
ter min
ĠLap top
ĠL ande
ar ben
Ġst at
c ard
12 3
os i
hau ses
ĠVor ber
Ġâ ĸ
ĠAn spru
Go ogle
f ische
Ġabsol v
ahr ungs
Die s
Ġbil der
ho st
C ar
Ġc hine
ĠLau fe
ĠFi li
ul iert
Ġge ring
ĠDi am
um t
ĠSt ich
riv ate
Ġde sto
Ġg i
ĠF le
be sta
an walt
?? ??
Ġi kea
lin ger
p rice
ĠDa y
eine s
Ġdi ver
ĠHo se
ĠLi fe
e nd
ic i
sp richt
rain e
Ġwe s
Ġv ol
Ġb un
Ġ199 4
m ischen
ori an
lei che
ĠAl b
Ve ran
ĠSch le
Ġge sto
be utel
fol gs
pe s
Ġse rv
ĠF ur
m all
ĠSon y
ĠE ffe
h me
eig ht
pe nd
vers al
H P
line s
Ar b
sel ben
P la
Ġ6 1
We rk
ĠW alter
te am
che nt
Ġ: :
ast rop
Ġwh ich
P resse
ĠKirc h
ĠO ver
op tion
ĠStein e
Ġc le
ĠðŁĻ Ĥ
sto ffen
Ġvor zu
ĠS L
ĠKl ar
ĠF oren
ĠLo ok
Be ste
ĠS ollte
ĠB L
Ġc ar
den den
ĠHa be
lie gt
ĠBer at
Ġlo g
Ġerg ibt
it is
au ss
ĠâĢ ł
sto ÃŁ
Ġ8 6
b ten
ĠUN D
ĠHei del
ĠG renze
ĠM and
Ġfre ut
sch al
ta ill
wi nden
Ġge legt
à ¹
ĠRu f
Ġ3 60
T re
rei bt
ĠHil fs
klei der
b rille
ĠHe ad
F ach
ĠEn gel
ug ie
ĠN ation
reie n
ng igen
ĠC oc
ĠF orex
ĠAnt on
as a
Ġerle bt
d icht
Ġer la
P rice
Ġk lingt
M otor
ĠSe c
Ġf ahr
ĠBe f
an isch
reich s
Ġke nne
fol ger
ĠG itar
mmer n
c omp
tische s
Ġst ammt
Ġ8 4
sch l
Ġg eist
n r
Ġz wo
ĠNe r
Ġ- >
ICH T
Â» ,
ĠSe ns
tem per
t yp
ĠAc h
ĠA P
Ġb ro
Stra ÃŁe
ĠB ron
ce nter
Ge scha
F B
Ġge pra
j ahres
al so
ĠTest s
ph ones
Ġe h
ĠS omit
Ve rt
m ach
n zt
ĠA T
B ar
ĠY oga
hei zung
ĠLe on
I ST
âĢĿ ,
Ġf amil
ĠTe nnis
le hen
st ren
Ġ> >
upload s
ĠG ir
Gen e
k ro
F R
et seite
ĠS G
Ġmo tiv
qu elle
Ġplane n
S M
p ten
E B
light s
Ġd ritte
ĠEr wart
ÃŁ ver
ĠT ricks
zu beho
Ìĥ Â¤
ĠI D
ĠBezir k
N och
lei ster
Ġf lo
ĠK lin
ĠSy mbo
Ġ( +
ĠRe vol
be rater
Ġme rk
P G
omm st
D isk
stre cke
es sel
K urz
ĠB ach
ni sch
Î ±
rie bs
B lu
bi a
Ġgen aue
ĠMa ÃŁe
ĠSte ck
ir ma
blem los
k ind
st on
ĠE vents
C a
AS S
ĠB ag
ĠE M
geb iete
b or
ĠLog o
li d
ĠAus ge
u uml
fer s
ri an
ĠPri nt
f y
K unst
t itle
Ġsch me
nte rest
wei ten
sta un
besser t
Ġz og
ĠWir d
ck sicht
ĠEi nn
ye ster
le mente
K ur
b iert
sy l
ye rs
ĠSp ann
lei ben
and id
Ġc e
Ġer b
f utter
f ront
Ġdahi n
ĠD am
7 00
ĠWie s
Ġschu he
Ġlau tet
g rau
us ion
pp i
ru ktur
âĢľ -
Gro ÃŁ
Ġre alis
or ama
fe ktion
rit ts
ĠSchn u
zeit ung
ĠâĨĴ <
.. ...
. ):
Ġo ver
pro jekt
me ster
lan t
Ġ7 8
ĠCo ver
F lu
Ġst ren
Ġin stal
Ġm ulti
ge la
v gl
Mar kt
ĠF un
fi nanz
lie nt
fahr ten
n ee
nsch te
wer ken
P L
ĠW att
ĠSt ore
ĠAr ray
cur ity
Ġho tel
ei le
chel or
I ns
s sten
ut her
st unden
ro lle
gesch ra
n heit
e st
sp unkt
ĠS W
ĠStie fe
ĠJose f
ĠQ uer
fre unde
reich te
fol ie
ĠV ie
Ġbei ge
Ġj ahre
ĠBei de
Ei nge
ĠD ol
Ġn utzt
ĠK anz
Ġre den
ke hrt
Ġso bald
ĠBa sel
T B
K eine
ste chn
N et
ĠUm feld
bi gen
ĠSo fa
ĠGel b
ĠBo ots
Ġver ha
ĠA e
a f
nd ische
te mp
Ġe chten
c s
st ische
c u
Ġ19 80
he s
Ġf iel
ĠB ul
Ġt rat
Ġ( âĢŀ
ĠD J
ro me
ar f
fu ÃŁ
kon zept
ĠSa int
fiz iert
gro und
ĠBe ton
an alyse
ĠC ur
ĠS per
o gen
Ġlei den
si scher
lei der
ĠI M
": [
g ig
Z E
Be st
ĠV el
ĠE ier
fa che
Ġlie fer
Ġc har
ĠR osa
ĠF ire
ĠTerr or
P an
n ie
reiche s
ĠBe tten
ot ten
sol ven
Ġb reite
nde s
A p
ĠD ating
miet ung
gi o
k olog
ati ver
ĠGe t
ro chen
fi le
E IN
ĠF unk
Ġo k
H O
lan k
ĠAr gu
ei d
k lassi
qu ot
e rke
wei st
Ġ19 45
Ġbek am
Ġbe l
ĠB rit
as ie
s how
D amit
Ġle s
be stimm
Ġum zu
b ein
ĠF ord
ame ra
Ġfeie rn
li kon
ho s
ĠKn ie
Ġein st
ĠBe sta
F L
Po st
be g
nst le
ĠN iveau
y r
bau ten
rz lich
Ġs itzt
p m
ĠC lau
h h
ien s
hn te
Ve rk
ĠAuf lo
Ġs che
ir chen
st lich
ĠFe ucht
ze ption
pp el
T O
r ations
Ġ9 4
n ot
spra c
wer fer
ĠSt ory
raue ns
ffe renz
bel s
Ġden k
w anne
h liche
ĠFrem d
gra m
Ġli ke
ĠC L
ĠJa zz
ro ll
= \"
krain e
ĠT sche
ĠW ord
lei d
ative s
ar ge
Ġp m
Ġ199 2
Wind ows
Ġpro duz
ke y
ap i
n eu
ĠA v
ram ik
per s
weiter t
Ġver urs
B R
ĠI mm
u den
ka mera
Ġj apan
Ġan erk
w unsch
A t
c ol
is burg
si ven
ĠF ast
ucks ack
le hrer
ĠM iche
Ġp as
fahren s
ĠVor ga
Ġf orex
ĠBro t
men ge
ma ga
d om
o x
Sch warz
ĠB rau
ĠT an
P oli
Ġse rio
ĠF utter
b anken
Ġf rau
gew inn
unne n
nde re
Â« <
Ġdam ali
ĠS hirt
Ð ´
ĠMai nz
ĠEr wer
rei f
ĠC omm
nk ung
ĠM ur
Ġer fre
nsch ten
ĠJes us
arb on
po st
] .
G O
d oc
c lub
ĠEr ga
ar is
Ġste uer
V ielen
Ġb al
ta le
F l
kl ar
ĠIs lam
ĠIn gen
Ge ra
ĠP ie
um b
ĠFu ll
scri pt
H el
n ste
Ġn utz
tec ted
ĠKat ze
bewer bs
AC K
Ġn ord
ri min
r lichen
se m
izz ling
ĠMer kel
sk y
i us
ho e
ĠOb wohl
ĠTo des
chse lt
it ionen
ran z
Ġm ach
de i
un s
Ġg ol
zen ten
Ġ1 15
ĠStu fe
Ġ199 3
Ġ7 00
Ġbe s
Ġpl ace
le un
ri ffe
ĠP ress
T ube
ĠD ER
ĠM asse
ĠPo d
ĠR al
ĠFi nale
Ġan alys
ĠFl ach
di te
yp al
Ġ- --
hal tige
ĠM S
hard t
Ġbe fu
ĠRai n
Ġ8 7
C lass
ĠJun ge
âĢ ¢
fa st
stor ben
Ġan y
ĠW art
op le
lu bs
nge ren
P ub
merk sam
Ġlang ja
unc h
sch icht
la de
ĠSch ro
ĠAng abe
ty pe
lan ge
ist an
Ma x
us h
ĠO P
ĠO c
zn ei
ÃŁ igen
ĠK rist
au x
ĠNe ust
lte re
N or
ĠAl pen
E O
ah a
f eier
" ).
S tellen
h lichen
Ġs ter
u a
ber ein
la stung
stag ram
Ġn ett
ĠEng i
G R
lan ze
ĠL ind
w andel
Ġst arte
Ġs uch
Nach dem
Ġver p
rische s
Ġfe rn
idee n
fel s
ĠV f
Zu beho
n ti
wir ken
ĠJ ames
ĠKu gel
Co de
Ġpro du
Ġv ieler
ĠF luss
ĠFig ur
Ġse c
ho fer
sch warz
zi ns
sa mer
lei cht
k issen
mp ft
u lt
ĠCh or
zu stand
ga mes
ĠS ing
itu tion
mobil ie
ama zon
Ġkeine s
and s
1 000
ĠSp ur
ĠLin ien
ĠCar l
ĠPau se
Wei ÃŁ
Sel bst
wor ld
be klei
ĠLe s
teil s
nt a
ĠMe x
P latz
th is
u sch
ĠK ru
ĠEr za
ĠD R
ĠLe rnen
200 2
ĠCa se
lau e
Ġ line
ĠD A
raine r
Ġro man
D ate
m ische
che ck
Ġg ingen
Ġf rage
P lan
alle l
so ren
ĠBo dy
Ġein ma
ach im
ĠR el
Ġwei ÃŁe
um ber
ĠRo yal
b raun
Ġ19 89
ĠG au
Fe st
ĠG aming
je ktiv
Zit at
Ġblau e
ĠFi nden
Ġmein te
Ġbe zu
lie s
so le
Ġ9 7
ungen e
b reite
od y
T H
G ut
lich te
fe hler
ĠL oc
Ġ3 50
bo te
ĠK ali
ke te
iv il
Ġ7 3
ĠH it
wer ker
u schen
ĠM assen
d isplay
da tes
Ġ ye
k ler
le hre
scha le
artne rn
Ti tel
rat ze
ben s
ĠO s
ĠM aus
r b
sche l
ser s
c ia
ĠIsra el
plan e
P ol
lie der
qu ote
Ġ2 20
B S
Ġba de
Ġso me
ĠSon gs
wir t
Ġ ew
ĠTex til
Ġb us
Pro duct
fo re
ĠMe sser
Ġh ot
ĠZit at
j et
rt h
Ġver ku
ĠBr as
ĠC ast
ĠBer eit
art h
te kten
f ungen
Ġun komp
abi lity
lassen e
igkeit s
ĠHau p
Ġf anta
ĠSy mbol
Ġ19 70
fal z
ĠB eine
we ndet
Che ck
N atu
ĠLe vel
ĠH ell
ĠTrum p
ĠEx p
ien te
( );
ĠMit t
Ġs eiten
Ġse par
ĠÃ ĺ
u ÃŁe
ĠHo bby
len burg
rie chi
lt nisse
Ġver arb
Ġg laub
á Ĳ
Ġglo ba
me sse
men sion
Ġle cke
f tige
hi ge
Ġsch ie
Ġta b
sche nd
il de
ris uren
Ġd is
ĠTo i
stu dio
Ġse n
bew usst
B ewer
Ġe m
Ġ199 1
le ute
ys ik
iel ten
ĠJ agd
ĠGen au
sch ritt
Ġgro sse
ungs ein
ĠTrin k
Ġber lin
ĠT arif
Ġp u
ĠV il
Ġfe r
ĠT able
Ġge brau
fa ser
schei be
ĠG al
d ge
ĠS H
ĠAll ein
ĠSt att
ĠMus kel
fur ter
Ġo per
ĠF ritz
ĠO R
Ġne nnt
Ġfas zin
ppe rt
Å Ĥ
h aut
u ÃŁ
ber ge
D ig
ba cher
L ED
t ti
book s
, ,
ĠKant on
k op
Ġp at
ĠRet ro
} ,"
Ku ltur
Sie he
ĠLo ve
Ġwo hnen
J an
sch lei
Î ¹
Ġsch au
D C
f on
ĠK W
ĠB raut
d on
b ot
Ġge kla
ane ben
olo ge
Ġg gf
ĠV ER
ei r
k ommun
ĠPro p
Ġzu ga
ten e
ĠUni sex
K arte
ĠR un
F ree
ĠRu d
Ġn ein
ĠBud get
le ct
ĠEr z
Ei nt
So fort
ĠB om
Q U
Ã Ĺ
K ap
L C
t sel
ang aben
Ġver mie
u ge
ffe t
ĠZwe cke
ic hen
ĠN at
K ino
mann s
for dern
ĠSu chen
ra k
ĠDu ft
M AN
ac o
urn ier
Ġange ku
ĠGr unde
th ing
Ġ tag
Ġal ter
ĠAn lass
Schr ei
Ġer wer
ou ble
Ju gend
wor te
Ġj ust
tz te
ĠUS D
ro hr
fer ien
Ġn acht
sp oli
ĠP RO
Ġlie f
ma g
B y
ĠChe mie
Sc ha
gende i
I X
Ġd oppel
ĠJu bila
Ġvor gen
ĠP y
tel li
ĠS K
ĠA ro
ket ball
S ol
ĠP lu
ĠO rigin
Ġ9 2
Ġwei st
bi lis
ĠU hren
ckne r
Ġste ckt
Ġo ther
tro ller
ron omie
Ġh ielt
eh mend
ĠH ill
ĠJ ungs
Ġpri ma
ĠFreie n
aten t
Ġz weit
Ġmit ten
ĠSt or
r ste
ĠSt yle
ĠHo hen
ho ff
pro duct
V C
Ġbe tt
nd ungen
re gen
maga zin
ĠBa ye
we nder
ĠI dent
ĠGe gend
ĠL as
P art
ĠWei ss
f leisch
âĤ¬ <
ĠAll gem
ck ing
ĠSt y
is o
Ġm iss
ĠA lu
S terne
9 00
g ungen
m otor
Ġv iew
rin e
ĠFor mel
I s
ĠHau ses
at hi
spe zi
z iele
Ġ} );
N ord
ĠTo re
ĠT iefe
ĠSp ir
ab rik
me chan
omat ic
li de
Ġmas siv
D EN
Ġ7 1
ĠG renz
Ġ _
na men
ĠW C
AL L
ĠA didas
d lichen
ĠL ong
K lasse
Ġt rau
Ġbe ka
Ġbe dro
Ġle cker
ĠSo fort
ĠAus bau
ĠKinde s
Â« ,
St re
Ġk lasse
sie ger
Ġex p
ĠGra f
raue r
ĠV alen
f le
ĠK lang
wand te
che ln
ĠSport s
ĠLam pe
ink l
chste s
ĠO be
ĠDi sco
up s
omat is
ĠL aufen
archi v
aum l
ĠAr mee
ĠL it
v as
ĠMa gen
ĠK iel
ste ck
Ġs ilber
ĠD ampf
zir k
nf tige
Ġab geb
au ti
ĠBe gl
ĺ ħ
tig te
ĠS U
Ġer fahr
gri d
xe r
ĠR os
Ġ8 2
P DF
F rau
ĠPro be
nger n
bl ock
att oo
Her ren
Ġs k
renne r
ĠV iew
wo che
Ġlin ken
reg al
Ġge bu
r mel
han t
Z ent
ĠAn s
ma p
ss on
Ġge spro
Ġp ort
ĠA tem
mer as
ĠE mail
ĠFru cht
ĠBe ta
ĠLo hn
Ġst olz
F la
Sch on
ĠPum ps
ĠH ub
sp or
Ġre al
Ġr as
te kt
ĠSp uren
e b
Te xt
Pe ter
f ischen
ĠKon tra
schwei g
ĠEv ange
lie be
Ġp h
ĠA g
T our
ogra phi
am pe
ĠPort al
ĠT rag
ĠCo ucht
Ġp r
ei len
ĠON LINE
ĠBek lag
Ġp or
ĠLe ucht
Ġke nn
c hance
Ġ8 3
ĠMon t
Ġge wer
ĠT it
d b
ĠPha se
n ften
ĠDe b
pf ung
Ġv ollen
ĠMe ga
Arb eits
wei ler
S h
Ġh um
01 7
r atz
V om
Ant wort
messen e
oll t
qu id
ap pen
ĠZe ug
Er st
Ġbil lig
ĠHo he
H K
A k
ĠStu hl
ĠD C
ĠF U
G L
ĠRe zens
c ts
Ã ¸
au fe
b und
ĠSu bst
cke nd
ĠKo ffer
mie ter
ber setz
L eider
Ġer w
be trag
ĠSp u
Ġim p
sta aten
N achr
S how
Gru ppe
m ungs
cken e
Ġ las
r r
k rit
C om
ĠH itze
te ste
ti ka
A W
ĠL och
ĠOpti m
lad bach
di sch
it ies
m ir
ĠKri se
ĠE rne
ĠRo ad
P i
ĠSon st
M icro
V o
ng ige
Ġp sychi
F OR
áĲ ħ
ĠHau st
eie n
ĠG ibt
ba hnen
ĠE sp
ĠGe hir
w ahr
Ġb re
Ġide ale
?? ?
ĠH istor
ĠMi x
nd liche
ĠKor re
L icht
Ġdur fte
Ġan spre
ari um
per rt
Ġp syc
ĠC R
vol ler
ĠR as
Ġs chen
st yle
Ġk rank
ĠD IE
Ġd own
P falz
tre ffen
â ĸ
fe hl
aller y
sch eine
stie fel
ra tes
Ġc oo
St o
M T
ĠB E
ku chen
to ur
on ist
kre uz
ĠF lash
p ad
kon stru
stand sk
Ġex klus
Da tei
ul s
ĠUni ted
ĠPart ie
Ġs ign
i nger
ĠO ld
Ġg r
f ungs
lie fer
p ng
k auft
Ġaus la
l ein
ĠCor por
Ġele gan
Sch ul
ĠSpe ed
Ge fa
ĠP ots
undene n
Ġd ynam
ĠMon d
Ġ9 3
nt al
ro llen
ĠS orgen
ĠF lexi
ĠPay Pal
... )
ĠBe sitz
omat ik
ĠB utter
sen s
Ġb ank
bo ter
ach s
Ġ2 30
12 5
Ġt olles
ĠDi alog
âĢľ )
Ġend gu
an ter
b ranche
Ġge ku
ĠSie ger
ree ns
Ġzu zu
la re
ĠCo re
ĠKan al
E uro
ĠCh at
bi o
am o
Ġhier fu
ÃŁ ung
stu fen
ar z
a men
ĠStat us
F Z
Ġw usste
ĠN O
M y
ĠNeu bau
Ġv ideo
ng ste
fo lio
ĠS auer
ĠBar cel
M C
ĠFa kten
hal tig
ting s
ver arb
Ġkla re
ĠC ra
Ġum s
tok oll
ĠMa ke
Ä ±
Ġunbe k
f lie
T yp
B ro
ĠC u
Ġk alt
ĠSp ru
ĠW ellen
ï ¸
o fen
Su che
Ġz it
hn sinn
ĠD ynam
ga le
Î ¿
B log
ĠP hoto
R L
Ġfal se
ĠRe nten
lei ste
ĠBe trag
ali ty
P ark
Ġc i
or ben
ĠSp ark
ĠAr znei
ĠK issen
D ass
ĠO range
Ġt raum
} <
ali tion
ĠZ war
li ges
be ginn
Ġbew ir
200 1
ĠFa x
Ġe ndet
Ġunge wo
ge recht
Ha be
V A
ĠLab or
Ġ8 1
ac y
hi gen
ĠP fe
g lanz
sch ild
st op
a ment
ĠC ro
Ġa ir
Ġer wor
ĠH yp
Ġden kt
ta bl
ĠDen ken
hy th
Ġsei d
b rem
gan e
g it
Ġthe re
ĠSu cher
ĠAt tra
Ġb uch
s ysteme
Ġk an
ĠLie d
ĠE L
fa ktor
ĠIn se
An gebot
H ab
ri ke
an ie
geb lich
k olle
ĠTi me
li stet
men u
ĠGe ru
ĠV al
de st
dition s
ĠPe ters
ĠSign al
P at
ĠMe tern
>âĨ Ĳ
nf tigen
lin d
Ġi OS
Ġsch ein
De nn
Ġquali t
ĠA achen
kre ta
pum pe
ĠSt urm
ĠK ammer
ĠM osk
H aupt
ĠAd vent
Ġm ont
ĠN ight
such ten
ung spro
i b
vier tel
ĠMu se
se ndung
Ġobe ren
ran e
ĠRu b
Ġbe mu
ĠMag n
le bt
sch lus
10 5
Ci n
sehen e
ni n
Ge rman
f onds
a tes
Ġc ur
sa al
Ġme di
wer tig
ĠL E
ola de
da me
ck ten
a ktion
au ger
auf bau
Che f
lo a
n ischen
nk ungen
t ums
ĠD ata
ph y
sen det
ĠMan gel
g or
Ġa didas
sta ben
ĠAnge ho
ĠðŁĺ ī
ĠG ummi
ĠC ross
S W
Ġro om
ĠS lip
ug al
Ġfi x
F ra
se hr
ĠT H
D ire
ĠReg ie
Ver lag
II I
op hi
ĠIS O
' t
it ute
ĠRu hr
ĠAt om
ge ho
rich s
Ġ19 88
Ġu l
ĠW arte
lig io
bie tern
ĠD ur
ĠF ut
ĠSie d
ĠB d
feren ce
lte ren
Â» <
ĠE gal
ĠWol fs
For mat
ĠOp tik
ĠJe an
Ġne hme
S an
Ġ9 00
ĠSta te
v ice
rag on
ĠAus flu
tin ent
bahn hof
ip fel
cht ige
Ġs ymp
Mit tel
Ġent ta
ĠSa ar
ka te
setz ten
ĠRe form
ir s
16 0
ath on
sen z
Ġgen ie
dine n
A ma
ry l
ĠInd ien
ĠL ist
Ġmar kt
ĠSchn a
va ter
Ġre sult
que s
Ġqu asi
S R
ĠE u
ĠH all
H ilfe
Ġver n
ĠWe gen
ri m
Ġsti ll
g y
be tten
ffen e
h olog
ĠSch ein
b f
ĠB auen
ke d
M E
Ñģ ÑĤ
ĠG lei
ĠAl li
Ġor den
Archi v
ĠKre bs
! âĢľ
nd ungs
lei h
ĠFa ir
scha den
ĠG anze
ath ie
Ġ1 14
g ige
li day
Ġk ind
De m
w ett
her z
Ġer k
ĠC C
nehmer n
Ġ19 60
rk ung
ma i
ni ger
2 12
ĠWor k
ĠCol or
p lus
ga lerie
F r
ĠJ on
Ġon ly
F H
ĠDe mon
Ġwe re
ĠDro gen
mb h
ĠJ og
Ġbewe gt
ic tor
) {
Ġ$ ('
Ġfi n
Ġbe zieh
ĠB GB
Ġsti l
ĠB lei
ĠB rie
Ġt ot
Ġa f
Ġkat ho
ĠE ffekt
AR D
ĠNo ten
Ġin tel
Ġf irst
Ġsti mm
"] =>
Ġnach zu
ĠAf rika
Sch wei
Ġk lin
nger ung
lic kt
Ġar chi
Ġ áĦ
ĠO ft
N atur
Ġco ol
O ff
ĠGen uss
E uropa
len a
k os
ffe nd
ĠA bt
Ġ| <
tinu ier
san wa
ver tis
ĠAn satz
ĠPsyc ho
us ten
ĠBew eis
ĠA tt
der o
pe d
ĠBer nd
ĠY o
Ġf und
s al
an teil
urn e
mar ken
ad ies
Ġein fu
Ġ reisen
ĠP M
ĠGe pa
fi x
Ġpo ten
% ,
ĠKri min
G anz
S k
E nd
W inter
IS CH
rai ning
olo gen
ĠC ab
uer ung
H igh
r ungs
K A
ĠGe h
ĠPort ra
ĠF ac
ĠâĢ ĺ
ĠHam mer
ritten e
duc ts
ĠY e
K i
. ).
d ichte
ĠSe nder
f indung
ĠE X
Ġ9 1
mp fung
ĠÐ ¿
Sc ript
ori al
F rage
ag a
co me
ge laden
ĠCre me
il lig
Ġo ffi
ĠF lie
Ġbe ur
ĠMari n
be arb
de burg
Ġs il
ĠMag net
uck y
an zeige
ĠFl ucht
rk ten
li fe
e ck
ber uf
j ob
W issen
Ġzu g
V iell
s ig
ng sten
ĠTra ge
ver lauf
ĠA syl
bo ot
Ġh or
c hner
ĠHa ben
Ġda vor
G ast
ĠM un
de tails
ĠPi nk
ĠX box
Ġ :<
Ġgre at
ian o
ck kehr
sch wa
Ġfro h
T EN
ack s
fang s
pla yer
etz ter
it o
dor fer
p lay
Ġn ette
ati bel
ĠNe uen
AP I
ĠTo ol
Ġw on
Ġ20 21
ĠK lick
ein satz
sch muck
ï¸ ı
ĠSim on
uz z
Ġw ell
aus wahl
wei l
schlu ÃŁ
we nde
il and
ĠFab rik
D ollar
Ġw it
ge re
ĠP rei
w atch
che m
me tern
ĠSti ft
ĠOli ver
un es
Ġro ten
s at
oc us
Ġa ktive
ĠW ars
sa beth
K O
P D
ĠEr fu
kon om
ufi ger
ĠH R
ĠM ass
ĠSchul d
ĠR eit
ĠRe serv
do se
ĠB lan
Ġhin weg
ĠMa ler
ill on
ĠB art
bur t
Ġbe las
ĠÐ ²
Ġwor ld
ĠB ill
ftig ung
ĠAp fel
P ri
Ġvor an
h ier
ĠM auer
agne r
hol fen
fie hlt
s ul
ĠBlo gs
ĠLie der
Ġc hron
ĠMie ter
E m
Ġu se
ĠInd ust
ĠRe cher
ommer n
ster dam
wa ys
ma ge
S B
ĠS AP
r fel
ro ck
sa ison
ĠM ang
mess ung
hing ton
amin e
Ġge fo
urg ie
bar n
me di
famil ie
Ġsi te
ĠNa se
Ġs aube
Ġle bend
wer fen
ĠSp ring
c olor
rat zen
ĠD ark
w elle
ĠSch ild
r bt
Ġren ov
ĠK ids
A ug
Ġth eir
Ġd auern
ng nis
vel op
ĠShop s
F rauen
ta ges
B aby
w etter
ĠB it
Ġge p
ke tten
Ġhal te
ĠEle ct
Ġso zial
Bl ack
ĠAuf bew
G EL
ĠE D
En ergie
k anz
ĠK il
ĠS O
ye n
ste hung
ĠZ ir
ge stell
ĠChr on
ĠD os
W ill
G old
1 30
Qu alita
ĠAl te
ĠEben so
Ġb itten
ĠSa una
ĠM all
Ġgibt s
ĠPra kti
Ġe chtes
h as
? !
ĠStr ick
ĠBe fest
ha hn
ĠKo hlen
ĠKap u
un fa
ĠQue e
ĠJu den
ĠOb ject
id o
ĠKu pfer
ĠR um
ĠJe ns
ĠBa se
ĠTo uren
G A
ur op
kur se
M ER
Lie fer
b ul
Ġk ar
b ring
ĠPla yer
ĠC ru
ĠD ritte
T ype
fest yle
b rig
g iene
ĠWor ten
ĠSuch ma
vol les
r ierten
ĠW andel
k lo
hy d
A nge
Ġfol gte
e xe
n och
ĠKas sel
ĠJa ko
Ġev tl
K an
ĠGra z
ver tei
person e
unn el
rt n
ist isch
ĠCo up
f c
Ġw ork
! !<
Ġnu ll
ĠW arm
kshop s
Ġch at
W M
fe ste
H at
sp ann
A CH
I Z
arb urg
ĠHein z
r men
M al
lie d
ĠBoch um
ĠS R
ln e
wei tern
p al
ĠSu i
ck chen
pha se
ĠKan ada
y out
ar ia
ĠMe ck
no men
Be son
Zur u
ĠS hi
Ġst op
ĠWin kel
ĠD einen
Ġpo ker
ĠRei chs
zeug ung
Ġg las
od ie
W and
sch loss
ka teg
ĠKur se
Ð ĵ
ĠA li
ĠTren ds
ron ic
it ur
di os
L aut
M ichael
ĠA GB
O der
z elt
H y
ver g
ier bar
sch te
B re
v ic
Ġâľ ĵ
ĠR itter
re ffen
eigne n
ust o
ie d
ĠB iele
ĠO ste
w etten
ĠBe ob
or ca
ĠB utton
geb rau
ĠM ah
ĠS M
b n
M ark
A ir
sch all
Ġlee r
ĠS D
St ation
ĠH om
fi ndet
A tt
Ġsp ie
ĠC hine
stu dium
ul ator
sto ren
w ing
ei c
Ļ ¥
tz ten
ĠWil len
row ser
Ġ3 000
ĠF risch
ĠGe orge
Ġj ahr
teil te
Ġzu la
ĠO pel
g renz
tec h
ASIN O
ĠOr ten
ĠT ar
ĠAb ma
st anz
ĠZ wie
Ġaus ser
sen der
auti ful
ĠMon te
Ġf li
f rie
ĠRe kord
iz on
Ġkeine m
hei z
A ndere
ĠRo ute
Ġb r
st ad
A Z
Ġ ]
ĠGe ma
he ad
z ieren
spa rent
Be stell
o me
Ġre chte
Ġan fa
g asse
ann a
sta ge
s ur
g ibt
V ari
ĠP ic
Ġh ieÃŁ
D abei
geb ir
ĠK etten
A s
ein heit
ar ische
Ġf ra
ĠE iche
Be reich
Ġ10 5
22 3
ĠLin ux
ĠP ala
ĠSan ita
ĠNer ven
ĠHe ft
ĠU V
H N
ĠM r
M as
ĠT ast
ĠAf D
ĠSel ber
Ġ19 87
gendei n
lo ok
b licke
log gen
u cher
ungs vor
The men
Ġlan ger
rape u
G G
Ġh igh
lat ten
ki no
ĠkW h
u scht
Me r
de ko
ie gen
I EN
ke tt
ĠIn ten
wel che
Eine n
ress ion
re cken
mina re
ĠUl rich
ĠM uss
Ġho use
ĠD einer
a gentur
ĠW it
ze m
rypt o
yn e
ĠSe g
M ir
ĠS umme
ĠN orth
ĠF ri
ĠAnd rea
con om
eigne te
S im
ut age
druck s
ĠPfer d
ĠA hnung
yn c
t tingen
ĠEx peri
E P
ori um
k amp
B ru
14 0
Ġhe re
. ;
E ssen
c d
Ġ arbeit
Dien st
B and
io us
Ġre t
r iss
ativ ita
Fi nanz
U K
ĠN ic
ze ttel
ĠBe auty
ĠKo hle
B M
wa k
Al ler
hei ra
Ġ1 19
dit or
kt rum
Ġe very
rse y
nn y
h art
ĠKon zer
Ġb aby
be d
Ġe hren
2 20
ĠDie sen
isse ur
ĠH as
ti nnen
ti pps
Ġge re
Ġd omin
ĠDie ter
" /><
mod us
fol gung
o e
Ges und
Ġt iefe
s ho
Ġ4 50
f os
ka y
ĠNe ck
P lay
ĠB ri
ĠA V
ĠR auch
n se
hi nk
ĠAus wa
mee r
ga st
ber gen
áħ ®
an tes
ĠEin sa
ĠBron ze
wend ige
ĠC ard
ĠF li
ĠOst see
ĠRe ser
ĠWa ter
ĠMod ul
ĠBett wa
pa ket
Ñ ĩ
ĠH allen
Ġwer fen
b rid
ĠD M
Ġwar tet
TM L
ha be
Ġro te
ĠH ut
Ġre gu
ĠK now
ĠWe ber
stra i
Â ¶
Ġm otor
pe t
st ic
da kte
i ften
ra e
is ieren
nten do
ĠB O
ĠVe gas
arb eits
Ġh aut
U B
bi as
l och
Ġro bus
10 4
zehn ten
i um
Ġs ort
M el
ĠB ang
on to
ĠTre k
ĠW ehr
ĠN ah
ha re
f oto
ge rufen
Ġsch ul
stan des
Ġteil s
ĠK ok
mo re
ĠIde al
re geln
Ġge bil
dagog ik
ĠHo sen
Ġ( )
Sch utz
ĠMo re
ĠSch lo
R und
ĠF rist
der te
Ġwi n
Ġm or
AT ION
wer tes
| |
ĠJust iz
ĠS MS
k ann
Ġw ho
ĠB A
ĠHal ter
T F
ĠO S
tifik at
Ġ( "
s agt
ER N
amb ling
zu gang
ĠC han
Ta schen
ĠScho ol
Ġgel b
Ġ7 50
) "
Ġ19 86
ara kte
beit rag
aus gabe
Ġ1 12
te au
rik aner
ĠH orn
R ot
IS S
ĠE g
N acht
ĠHe ck
p an
Ġthe ore
org ungs
Ġt han
ĠB litz
k ow
Sch laf
Ġma i
G utsch
sc reen
ĠM IT
o hn
t c
othe ken
ĠM ahl
A kt
ĠS now
ag ram
C hi
or o
halten s
D oppel
Ġ17 0
ĠAnt h
Ġbe sie
Ġfeh ler
Ġum welt
flus sen
s w
}, {"
ĠA ward
nc hner
g han
ĠSo uth
b rief
Ġsorg fa
f low
man ager
Ìģ ,
Ġk unst
ĠMar s
im um
ĠBi ke
ĠLe uten
ĠGlo bal
ĠAus ein
be stand
K omm
Ġsch aut
Ġst arb
ik ro
a ktive
Ġkurze m
For m
B ank
F reitag
ĠS ucht
H olz
St at
ĠZ auber
ĠFeh l
ide os
Ġk ehr
hil fen
ĠMee res
spha se
ĠF onds
ita le
p ub
d own
lig keit
ĠE IN
ĠZ oo
b licher
ĠMar io
s per
ĠB ist
ĠSti mm
ĠO K
il det
berg ang
Ġ19 50
arin e
ĠJose ph
Ġ24 0
ĠO hren
ke hren
ha ven
ĠE C
Ġun der
ran t
Ġ19 84
Ġp ur
du ktion
Her r
Ġ: -)
J ahr
ĠO x
see n
eite ten
Se e
ĠRa sen
Ġabend s
ĠAus ru
B D
ĠLu xe
ĠGene r
g renze
ĠT hr
we sten
Ac h
ad y
ĠA W
ieb te
Ġsta y
hm t
ck zu
Te c
sp itze
ri al
ĠNe um
Ġ: -)<
sp uren
Ġvor he
ĠðŁĻĤ <
C opy
ĠJe de
US A
ĠBil anz
nem ark
Ġbe fest
k no
at ische
ab ru
ĠNor mal
S ommer
ĠP ier
b aus
ĠVi ze
18 0
ĠB auer
An ti
ar tigen
vide o
Ġe tabl
lau t
ĠC ash
bre tt
ĠEr ho
ĠBe d
rin k
Ġs telle
br onn
ĠTo ols
Ġbe legt
Ġge we
derne r
ĠFo od
is ierte
ĠSy n
! "
f ont
u ellen
ĠMe chan
ĠO ffiz
' );
mel de
he ll
ten den
K L
11 6
Ġre tten
ĠBo gen
w ri
ĠLan gen
ard o
) :<
Ġe u
Ġh ref
Ġne rv
sa mes
ĠDon au
u fel
ĠD ing
chn ung
f ield
g igen
ĠD B
Ġro sa
ĠPi xel
sp ot
Ġ rad
wei lig
Ġre f
Ġle gte
Ġz i
ĠRe view
w an
chance n
ĠWar n
On e
Ke y
ga te
uf ige
C enter
chan ge
Ne ues
tre me
Ġ( =
t an
ER S
ĠEmp fa
le chte
f ault
ĠK lage
ĠEx emp
ution s
stie gs
à ¤
ĠF DP
ĠAkt ie
im me
on ia
ro man
ein s
ĠF rie
n ische
rz burg
lne r
Ġ19 85
Ġ12 8
ĠK rei
j an
setz te
UN D
t v
ĠTra vel
L auf
O pen
so fa
ĠAnd re
une r
ĠP hysi
45 6
fot os
ss ion
gyp ten
ĠFor st
die s
gno se
un fall
ko da
ĠAn gel
nehm ung
eic h
Ġko p
mer kt
H T
Ġzu fa
ho sen
ĠBer ge
b ler
Ver ha
nig i
gramm s
ter ie
ĠK asse
j or
S mart
un o
mit h
be zu
Ġha d
g la
ba i
Ġfil m
Ġerke nn
ber nahm
ĠD et
Nie der
ĠMen gen
D on
g ol
ĠS um
C re
ĠMas siv
farb ig
ver ku
Ġun mo
ĠAuf kla
Ġglau bt
Ġaut hen
ĠF I
Ġge h
ĠWal zen
lec h
ograph y
u sche
Ġ1 16
Son ntag
ve ster
Reg ion
ĠWe sen
ĠSt rau
ĠReg al
ei chen
ach ter
f tes
Im mobil
Ġle d
ĠDu sch
ĠSe ssel
nc h
ĠB ass
ll y
ĠBo u
ĠK O
Ġ len
P ress
ĠEine r
kommen s
tu res
nigi n
e v
ĠGehir n
fo x
ĠWol ken
Ġaus ger
w oll
rag ung
n immt
ĠR on
ge le
ge halt
Wo hnung
kom bin
K auf
Ġbeton t
ment o
solven z
ĠTe c
ordne n
ĠAn erke
ĠGewe rk
ĠPro je
it as
01 0
Ġwi nter
Ġc or
ĠD omin
ĠGen ehm
Up date
ĠDe al
iche rer
att an
o men
ĠSerie s
Z ahl
bi sch
ĠLam pen
lo hn
ĠIma ge
ĠBen e
ĠF ische
ĠMe ta
Je der
Ġver st
ĠMar ie
b be
Ġme chan
Ġfeie rt
bl ut
ĠP age
pro zess
Ðµ Ð½
pe ra
vol umen
ĠS A
hal s
10 9
ĠR y
N u
blen den
ĠD au
ĠK am
pl ace
Ġkla ppt
wei chen
g ht
be griff
hn achts
bi ger
Ġdre hen
h ma
l z
N C
gen tin
ĠGo od
Ġna me
N D
ĠI sol
ĠSt ars
ĠK amin
ĠW E
P asst
Q L
ĠA K
CH F
ier st
ĠSpiel s
Tro tz
Fot os
ĠBe dien
we d
hotel s
Ġt rag
ĠLe x
ck seite
re o
be zug
ĠT SV
ĠF L
Ġt at
ĠHal te
Ġlie st
ri um
Ge gen
He rz
on isten
ĠP harma
ktik um
n ea
ĠFran ce
ĠZ elt
Mon tag
Ġver tei
ĠD S
ĠBi bel
ĠO e
ffi n
Ġte xt
Ġwei sen
ten n
m eier
S eiten
ĠM ich
len e
Ġf ragt
Ġun za
ĠSch atz
Ġst art
ĠFi nn
Sch w
Â ©
10 3
ok ia
ĠB reit
oc ks
Ġ25 2
produ kt
ĠBo ard
ĠA th
ĠP rag
da ille
ĠD og
ĠB W
Ġen orm
Ġb ot
ari fe
Ġdies ja
le te
zie her
t zer
stu die
bi ke
10 8
ĠDeine m
ĠJuli a
qu is
ser ver
Ġs ach
M ess
ĠBei ge
l de
ĠW ith
ÑĢ Ð°
Ġbe herr
ĠAl bert
y wood
ĠL isten
ale m
nd lern
T ran
ĠSa fe
Pa ket
gen o
Ġin halt
Ġd ist
ge ts
ĠSp eise
sn abru
H eim
Ġe dit
Ġw ild
mmer t
A lt
ac hn
ĠHel mut
Ġso urce
Â ·
ns atz
Ġer f
ĠMad rid
ĠMi d
ce pt
sc ar
L P
ĠC ann
N O
E vent
ĠRie sen
c up
nig ht
ig are
P lus
ĠSan ta
t r
T rans
es se
Ġver tra
metho de
ta ble
Ġver ru
li sse
schie ht
H inter
m ler
ĠGra b
ĠStu fen
ni x
si st
ĠH op
.... ..
S al
ĠTe mpel
ĠWe sent
ei stern
lus ive
ĠFas sa
k art
ĠDe cke
ti ven
at ien
sti ft
pro be
Ġr eine
ver lust
G ER
s ack
M O
ĠBe cken
ĠR A
u tern
ĠDa me
nz ung
ĠKom bi
N ike
ĠK ette
Z ug
ĠUn abha
l ock
Ġam a
me dien
sor gt
ĠSi te
D isplay
ĠInsel n
Ġi lle
ber trag
Ġbl ock
ĠT hread
rtn e
iz ieren
hal l
ma link
mon t
Be nz
Ġen or
ve c
Aus wahl
oc i
Ama zon
Ġneue m
ĠMe yer
Ġf f
Ġhohe m
P latt
A h
el and
st ande
10 6
ĠA kte
ĠCh ic
ber sch
Ġq uer
Ġ13 5
ĠZ weit
fi nder
Ġge ste
ĠOut fit
mo delle
eie rt
t ics
ĠÃ Ĺ
ĠSch ra
ĠAb wehr
ĠRud olf
Ġk unden
wor tet
k r
vers and
ĠM ord
d an
ab a
ĠStau b
Ġge kenn
ommen e
C or
Ġm at
ĠEr wa
ĠVis ion
ĠVor be
ĠNie d
pa api
B I
ing API
ac ing
ĠBe ck
p assung
verb ot
wei c
ĠSch ach
Ġ1 11
Im mer
p c
ĠLad y
V iel
ĠA st
mach ung
ĠP rie
po int
uter t
Kl ein
re form
ĠC all
d r
ĠBro ker
ĠX P
ĠM ol
un sten
Ġor gan
Ġf eine
le chter
ĠL assen
Ġer fa
ĠC el
co des
Ġo pen
Te chnik
AT E
d ruckt
bee ren
ot her
ill s
Ġ19 20
Ð ¿
ĠSt ick
lit zer
and ra
ĠMe ssen
Ġlo ok
ppert al
duc tion
M ulti
ĠRe fe
F ran
ĠDu al
ĠE va
> /
10 2
alk ing
aler ie
ĠEx per
ĠIn sbe
ĠUng arn
ge we
li te
F S
ĠD oc
ĠSt k
G lu
Ġ12 00
N EU
V oll
ĠN ico
ĠT ut
cher s
Ġ ri
Ob jekt
Ġthe y
le hnt
den sten
ĠMarin e
ĠA gen
ĠLo uis
ĠLo unge
Ġher ren
nder te
ot ball
Ġwei c
ĠAn k
Ka bel
ie sen
ĠSP IEL
wi ngen
Ġ; )<
e ben
ĠCo me
g re
ĠSa le
b ol
ĠGra fi
hm ten
D VD
Ġum so
ĠP fa
ĠM O
qu are
li ka
ĠMe m
einig te
Ġna mens
sp i
anz ig
) -
Se rver
Sam stag
f ein
P N
he m
ĠN ar
ungs ma
at tet
Ġall zu
w ell
yc ling
s z
ber u
Ġte mp
ĠSor ge
ĠBre mer
ml ungen
ĠT ie
ĠBo sch
Ges amt
nee ring
ĠGe rne
us i
gra ben
ĠBe klei
n acht
b ri
ĠE ure
di na
H andel
ĠRe gi
Ġro u
sei tige
w itz
ĠBr ut
ss atz
ĠG PS
Ġâ Ī
u pe
ĠIn dex
it sch
Ġge to
nt wick
zess i
im o
r eitung
ge wa
ym bo
ien haus
ge wi
ell y
Ġk now
Ġweic h
ĠFir st
ĠF lat
si ver
L iste
re al
ber ry
F it
IC E
Ġma ke
ommer ce
Ð ·
Ġ| |
ĠF ie
Ġtra f
p as
bo y
K ind
iel ler
T P
lei dung
eigen e
qu ali
Ġ, <
ĠDie t
Ġb ru
ĠCas ual
ti que
schen kt
vi ous
suche rn
gen au
ĠK ron
Ġt or
gra de
ĠHel m
Ġa v
bi nden
ad or
ĠMi sch
kta kula
ĠA cht
D ruck
F E
pra xis
ĠGew u
ro e
D B
ĠS urf
Reg ist
H ar
Ġher an
ĠNa gel
k linik
den z
Ï Ħ
ĠH omo
ok a
Ġ< /
d ter
Ġb it
mber g
Sch ule
ĠB ol
Ġa go
Ġ19 83
B al
be ra
sb ruck
Ġk nnen
Ġe st
Ġab ges
ac es
Ġfu hr
ĠK assen
ĠAs ien
p il
ĠJe des
ĠIll ust
ig an
rig keit
Re st
Ġh ar
ahr t
ĠDe mo
her ren
Ġko chen
riend s
ĠSy rien
ĠBel ie
S til
g nung
IN D
Ġ Ñģ
be scha
Ġz iel
d liche
Ġfe sten
Ġn ahmen
ĠM E
D onner
Ì ¨
ĠMar co
F O
ĠHel fer
ĠBe an
Me dia
d ll
ĠC onne
sa fe
Se rv
Î µ
ĠDeck el
ha ar
ĠB atter
ĠSto ffe
C ap
Ġl ack
11 5
a ve
ÌĪ .
mi x
pol ster
la w
m ung
ĠRei s
ungs ber
g baren
ĠSch all
ĠImm un
g utsch
W etter
gleich s
Ġmi lita
der at
ĠB B
Ġor dent
set zer
P E
ĠF ron
áĦ Ĥ
ĠChr is
ĠUm bau
no te
nt her
H C
gn or
Ġama zon
ra zit
si ngen
ffne te
10 7
G et
kre bs
K ein
ĠRe nt
is ode
Ġ eignen
Ġ1 18
IV E
z icht
rec hner
ĠK ie
UR L
itut s
âĢ ł
ĠBab ys
Ġ19 82
ĠTo ten
lan des
ĠHor st
Ù Ħ
rin a
de kor
N ummer
ĠM ama
Ar beit
L etzte
m utter
ĠNicht s
Ġs w
ĠDi ngen
Ġh is
ĠZe ugen
ĠT urm
ff ic
', '
sel f
nge rin
P M
hn ten
1 19
ppe nf
spa renz
ĠK y
Ġe lf
ĠMa chen
ungs fa
Ġme rken
ĠR AM
hi st
Ġsch m
S ho
laub nis
Ġbe ha
Ġsp ont
Aktu ell
Ġjene r
krie gs
ĠK und
Ġp c
ot ter
G S
man gel
D ata
tenn e
iet y
Ġda ten
ĠK alk
bi ngen
d os
so fern
ĠBe sser
ve au
Ġco ucht
we ar
ĠSa al
ru p
ĠAus la
Ġge r
Z a
ug ht
ĠSch li
K K
zessi n
pe ns
Ġnew s
p ommern
Ġb aut
an ts
ĠKo chen
ĠDar auf
tt y
ab o
qu ellen
] ]
ĠW ire
ĠL okal
Ġt ru
AG E
Ġa part
ĠF OR
D re
ĠKat h
ĠGu ide
qu ip
b at
Ġc ol
n ce
ĠGar den
rper s
ffi zie
Ġ ^^
ĠRi ver
ĠFe lix
Ġange ht
ĠBe tre
D rei
ĠI ran
ĠLe d
O h
t tp
ateg ory
A nf
ĠW agner
ĠDom ain
st rich
Ġdre ht
ĠD ress
Ġst ieg
G r
di ums
wand t
mit te
C har
ou ren
ĠS eil
rau cher
ĠDi sc
ĠâĤ¬ *
Ġlust ig
ĠP ad
ĠNamen s
ing o
ĠR C
Ġ1 13
ĠT icket
11 4
Ġe bay
r ar
ĠA mp
spro du
s au
ĠS ide
, ...<
ĠBu ll
sa ft
Ġ19 79
* ,
P ass
Ġhal be
d west
Ġ link
ĠHon ig
zent ren
unne r
ue st
cke rei
res h
R eisen
wi der
ric hen
2 30
ĠWer kt
Ġq m
zei tige
ĠPlat te
m os
war ds
ĠMi nder
fre ude
Ġhei ÃŁ
Ġc ent
p resse
or ies
ierte m
handel s
as ing
H ein
12 8
tter t
be ll
rat h
ĠBe ur
abi net
3 20
ik al
l b
ĠW ann
ĠPo int
w ord
d ann
dust rie
u ation
un ion
Ġj ung
M L
hel fen
Ġwor auf
Ġein ver
ĠP izza
hil os
ra chten
Be rg
che f
sch aut
áħ® áĨ
c am
ĠBre ak
l der
Ġd icke
ĠPub lis
pro fil
C amp
W il
ber w
ĠS chen
Ġi ts
ĠEr sten
Ġl ocker
ĠFl ur
war ten
Ġ15 00
ĠHa ken
he ft
>Â §
Ìĥ Â¶
Bi n
ame ter
M U
h on
geb uch
m burg
rik ot
ĠThe re
or ita
EN D
sp latte
ĠGe f
ce an
las ter
Ġ19 72
Ġge g
g b
F alls
di d
an sicht
daf rika
Ġm att
ĠD own
br unn
Ð¾Ð ²
Ġbi olog
ĠK andi
e se
bs auger
Pro f
ss pe
Ġ ran
Ġh armon
io ren
nn i
ĠE rt
Ġauf re
fie d
un ft
ĠV olle
Mai n
Fi n
ti st
Fa x
u u
trai n
Ġz o
re ckt
C lub
be tra
bie tet
cht nis
R at
nd urch
be du
Ġscha de
ĠZ ivil
Ġs au
ĠB einen
ĠN EW
ĠV R
ĠA kten
Ġlie bt
ĠFa zit
Ġpa y
Ġ; -)<
T rip
ar ien
wei len
Ġver lin
ĠK un
n tern
A ktion
ift lich
wo chen
ĠD SG
ĠD at
ĠR unden
Ġren omm
and al
ter pra
ĠTher mo
s eiten
sen sor
ges und
K arten
oc kt
c amp
O ption
La ger
ĠMe dium
ĠT O
ĠBe at
i me
ĠRain e
k it
leben s
co ver
ĠT opf
rib ute
ĠMosk au
te e
Ti pps
der born
L uft
24 0
" );
ĠKon sum
ĠGro ss
st one
A lex
3 50
Ġauf ein
ĠKar n
ĠLe nk
ĠCi n
ĠC ASINO
ba yern
Ġin to
Ġda y
li dar
Ġsol c
ĠPro te
ti no
spf lege
ĠW atch
p rise
Ġp ara
ĠM ach
u chen
ĠAt lan
Ġin te
a he
us sia
re mpfe
ĠAn im
ĠMit tag
nger t
Ba den
ĠJe doch
ĠKopf ho
te ur
rene n
Ġc ou
Ġne ed
F D
ĠUn der
ĠX XL
re ut
ĠWe nde
ĠU we
ĠV ictor
Ġ19 68
Ġ1 17
AN T
ug o
ĠGT X
ĠHerz og
ĠSchu b
ĠSti ll
Ġun no
Ġsolc h
ĠK el
c hat
us ter
O st
ĠAn ders
l se
Ġf un
ä ¸
et he
hl on
ti z
ĠHe ro
B ack
b lo
ord an
ho fs
glie ds
d rau
isch t
ĠRaine r
uc kt
Ġbee n
rer st
ta te
c asino
ĠTemp o
ir i
mat te
Ġ12 3
c al
Ġsp an
ĠZi nsen
Ġvor ab
oc o
ĠÐ ½
Ġw hen
ĠCar o
ĠO fen
Ġ19 78
Ġdiese l
ĠY our
lus te
fahr ts
auf wand
re ff
Ġfe ste
Th is
ergie e
Ġim port
ĭ áħ
Beit ra
ĠK urt
ĠGru ÃŁ
ĠT eig
ĠZ DF
lic a
d ti
ī Ī
ĠO pp
h ut
ĠI C
P ER
sch ir
Ġp age
ĠK ana
Ġhei ÃŁe
Ġad d
L ang
ĠTag s
Cin e
ren c
b d
ĠIn ve
f abrik
Ġgute m
p fel
Ġ19 81
ĠLa ke
ĠZ el
ĠLu x
att le
Ġbe ster
ĠRe h
Ġd oc
n kel
t chen
on na
ĠV ar
Ġru fen
Ġab sch
Ġb log
sem ble
Ġplan t
ĠCoc kta
Ġw ahren
bar ten
EL T
Ġ10 4
Ġhal ben
ber wa
ĠF lag
zei ger
ĠHum an
ĠP KW
z isten
ma les
ĠAb ha
Ur laub
ĠSui tes
ĠF RE
ing t
kon takt
geb urt
CH EN
ĠS abine
hor st
ĠLi quid
r iel
Lin e
Ġst ring
J un
a ktu
In halt
Ġf ried
Ġsch lu
Ġg ast
Ġz ahlt
line n
Ġm ut
ĠGol den
uer st
p ap
An halt
ĠE ich
zess or
Ġg rad
Ġthe m
min uten
sch wer
ha fter
Ġher ko
ĠG ur
ĠRe ad
ĠD y
ses sel
S ind
Ġev ange
ĠUm zug
T or
ĠPap st
sto re
stat us
Ġs amt
ĠP ick
ĠKn opf
kom fort
he nt
v ance
i ver
Ġs how
zip lin
Ġver gro
Me dien
ĠF ell
ĠEr halt
ĠC opy
V I
the ater
op tik
son st
tig ten
Ġne ut
ĠC m
ĠMet ro
Ġn ice
Ġregu la
uzz le
ar ning
ĠSo bald
ĠMex iko
sel be
ĠRe chen
an zug
U l
kter ien
ran ke
Ġ licht
ogra mm
ĠL td
ĠWei s
ĠB ruch
ĠFol ie
Ġscha ff
Ġp our
Ġ áĲħ
h ammer
ĠT uch
eie rn
Ġg alt
m orgen
ie fel
a dem
ĠLie ge
icks al
ĠSw iss
ĠAl pha
flus st
22 5
A Y
yo ta
ĠV irtu
Ġ19 75
Ġman gel
f ahre
h lings
re ck
Ġo wn
ĠWer den
Ġ19 76
s werte
k ol
ge ha
ĠU s
z elle
Ġbi na
ĠLa bel
ten nis
di ngen
ber lin
ĠCo des
a kte
Ġj urist
ha se
ĠMie te
B ran
U E
ĠBew a
Th omas
ict ure
I ng
Ġteil te
Ġ01 6
Ġgest al
ri fiz
mas ter
ĠSp rung
Ġ3 20
Ġhel p
H ot
ĠT onnen
v irus
K G
ł Ģ
Ġd r
Zu letzt
Ġd os
ĠV io
? )
ĠV I
w ahlen
Ġsta bil
Ġre d
Ġvi agra
ande rer
oc ial
Ha ben
ĠB ut
ga i
ĠLin z
ĠRe na
gi ns
qu ire
K S
Ze r
ke nnen
ĠA le
ĠRei ter
Ġge hei
wid th
be lt
ĠKri sen
30 3
n sel
xx xx
Ġh ow
sp rit
a wei
hne rn
ri ffen
sp art
ĠOr dner
ok o
g h
la i
IT E
za hn
Ġver nu
Ġper man
t ur
ĠGar age
sche f
ĠA sse
ad ow
Ġte urer
Ġvor ber
Ġ lasse
Ġb la
peri a
], [
ĠChar me
ho u
? âĢľ
kenn ung
konze rt
Ġs age
V E
ĠAn bau
o ben
ĠSch uss
N ot
tein e
ng liche
ĠV irus
ĠE S
Ġauf fa
Ġle se
Ti pp
H amburg
G T
ĠNe ur
ĠVer gu
zieh bar
Ġsta dt
stal tet
k ung
z ell
ĠAl arm
ĠTra ck
ĠE bay
11 1
U ser
gra mmen
ĠHel den
Er geb
ĠMat c
se g
ĠHa gen
gne n
wal ts
Ġw ahre
W C
L T
Ber eits
Ġbe sei
ĠSch ol
op s
re uth
ac tion
mi gen
unn y
pp lung
bee r
gel ung
vel y
Ġs ig
ĠHa i
ĠTi rol
k lang
ĠDra ht
Famil ie
ver ba
ĠMar ien
ÃŁe nden
ĠBe dro
ĠMas ke
Ġ19 74
F ans
blen z
ei ver
oc ket
Ġmo st
Sch we
ĠNe bel
le nd
ĠGen re
G ibt
ĠCo ach
ti mer
Ġ( Â§
Ð ±
teri ums
Ġw hat
letz te
ĠSt rei
ĠP kw
Ġ10 9
Ġd or
U C
O hne
gg ress
ta len
man tel
ĠWo men
war tet
y d
ftig ten
S onnen
ĠEr furt
ĠG lanz
u ber
ver mo
qu a
chsel te
ÃŁe nde
ĠLiebe s
legen de
[ /
re de
au ff
11 8
li ve
ĠF ore
11 7
ĠH ER
M use
Pla yer
fo od
ĠL KW
ma ker
l g
f ace
ĠEx port
C e
Mi ni
ĠEli te
Te x
N S
uten d
Ġ19 69
ien st
Ġ19 77
IL L
Aus gabe
verein s
h mann
Ġs onn
dar fs
Y ou
ĠI sa
ĠRo b
g on
G ute
ĠLei b
Ġhe utz
Ì ĩ
ĠC lo
Ge sell
Ġe del
B ett
Ġ right
ĠSal at
Ġe uer
hol m
I talien
sp unkte
Ġbe z
ive s
Ġt ype
Ġju gend
met all
Ġgro ss
ĠMan tel
ro ugh
l ten
ĠB renn
li ver
ag on
hol d
scho ben
Ġre pra
tz chen
ĠK fz
ĠHar ry
> ,
Ġdro ht
Ġt rue
Ġverl or
s hirt
p ause
wie der
ĠRol and
R ock
Verk auf
ĠG utes
Ġg reift
n utzung
ĠSp ace
, .<
Ġlo ve
Ġt wo
Ġd icht
ĠDis ney
u hren
ill y
j acken
j ahre
os se
ress o
r ften
ĠHo ff
ĠWo od
l ma
Ġ[ [
kn e
36 0
D atum
13 5
ĠEint ra
Ġkap utt
fil me
ĠT ok
Au dio
Ġste he
che rin
sor gung
rger n
ĠLie ben
ĠC it
Ġs al
Ġblo ÃŁ
ru mente
ĠRal f
Ġb rei
do be
lic ks
SP D
ge st
ĠRe nd
p unkten
Ġra sch
ĠCy ber
Ein zel
rz ten
ĠSan kt
ĠBe vor
ĠP ur
men gen
zus agen
t uch
i tem
Ġ19 0
Leben s
A vail
ĠZu fall
off el
Ġma de
ĠS ant
ĠGe bote
ser kla
F P
Ġbo x
ĠHe e
si der
ID E
Ġso g
Ġt oller
mit tags
k ok
Ġw olle
ho ut
yl on
Ġinc lu
, ...
alis ier
? "
% )
ild ing
ĠGr as
B lau
Ġli ter
for ce
Ġti pps
ra mi
ĠAr men
ĠSp an
arb ru
Ġhand y
f rauen
v ir
sco de
ĠP el
ĠB ren
ĠD SL
ye d
m ond
ĠJ ones
ĠGe halt
R aum
ĠT um
c hliche
12 4
Ġmo de
ĠT ieren
Mo de
Ġra ten
sca pe
ST ER
Ġge ehr
Ġ ____
Ġm essen
ei de
ĠCan on
off eln
P olitik
A ng
C M
ĠDir k
Ġ5 000
Ġma y
sto ÃŁen
au te
we et
re tt
Ġg rand
Ġt iefer
ĠR ela
itz ung
be ha
ĠR oller
M at
ĠPe ns
P ack
ĠS lim
A pps
Ġwa sch
A X
sch us
mil c
ĠA rena
ĠZ ellen
Ġver f
ĠCount y
Ġein lo
ĠNu ll
ĠT E
Ġgew or
zwe ck
ĠR S
Ġex akt
Ġb ig
ĠU e
ĠAu ÃŁer
Mod us
20 3
tel ler
Ġ ort
kt s
Ba de
ĠG L
ati o
St ore
ĠS oll
o ter
p hoto
ĠJuni or
bas is
wer bung
Ġpf lege
f m
Ġ lernt
ĠArt h
ĠSie ben
ĠT r
ĠJe den
01 5
âĢľ :
ĠU RL
K or
ĠS ven
lin o
Ġ* **
A bs
Ġ tisch
(" #
ĠK asten
ĠTe ster
Ent wick
ĠR n
ĠPa are
ĠP ig
T age
ĠLo b
Ġauf wa
ĠH its
ĠMag ic
Ġ2 10
ĠNik ol
pra kti
fi a
ĠEnerg y
4 50
alo ge
Ġso fa
stan bul
IC K
it ions
op ro
g itter
stra fe
un dern
willi ge
L ive
ĠBer gen
um lich
Ġn on
nde x
Ġun zu
Pro fil
Wie der
ar di
Ġt v
ĠT asten
Ġ10 2
ke nd
IC S
ĠHum or
ĠKat ho
zw ungen
ĠG E
ĠH ttp
Ġde cken
Ġf ac
ĠVort ra
ligen z
f b
St ock
Ġre serv
n at
re den
ell sten
F G
ĠProf is
x id
ĠPer len
sprac h
Î ½
aus fall
ĠS S
st amm
ĠAn la
ĠSam mel
milc h
ĠTran sa
N ER
Ġzwei e
ung ss
ĠC OM
l aus
lu xe
ng a
ĠB ug
as is
beit ra
ĠEr leb
co re
Ġ% <
li ft
Z iel
so len
01 1
cre me
ĠWir bel
at hle
fa chen
ĠTo bias
T isch
== ==
12 9
Ġben ach
o on
ĠT rom
J uni
D L
ul pt
pa ar
gai n
b chen
am pen
ĠKop ie
ĠV alle
f ragt
ĠBe rt
etz ten
ĠÐ ¸
ĠO F
Ð ³
Ġ19 73
ĠH E
ĠA ar
19 99
Ġwo uld
T I
ĠR io
au b
vor her
ĠV ul
ir gend
scha len
Ġhil fs
v d
Ver fu
ĠK im
ĠH ig
Ġloka le
pe st
ĠE c
ri bu
Ġk it
D ein
ĠFran c
Ġf all
n achr
ĠWe ster
Ġkon zip
t ran
k rise
sche ma
4 20
ĠSu ite
ĠQuee n
n am
ĠIr gend
al m
ĠZu sta
he punkt
lo e
ĠS ul
rd lich
ĠT HE
ĠPol o
od or
W S
ĠT rier
ĠRe por
Ġver wo
ĠH U
v om
ĠT y
ĠL AN
ĠSch me
Ġinne re
Ġ01 7
ir l
Ġ10 3
loa den
F its
ĠBe cker
ck ig
r unden
Ġbe darf
plo rer
AT A
Ġ+ ++
T ab
f lich
L age
ogra fen
ke ten
Ġne r
Sp a
mai n
Ġim ages
b ik
k lassen
D an
Ġ; -)
ĠPub lic
op tim
y ball
ue ber
ĠSens or
W ein
an kt
ĠE ber
sch m
ĠI nner
ĠSp ass
frei es
' <
Ñ ħ
B MW
14 9
ffe rn
áħ ¡
chn am
e ue
ĠHe els
kul ta
Wir d
ĠAl fred
K N
ĠBrow n
F el
p ara
h ien
ĠT am
ĠM ES
Ġ10 6
motion e
st um
gr ar
Ġn ich
ĠL A
ĠE k
k nu
ĠJe na
ĠBu chen
Ġs olle
Ġm il
ĠKe nnen
mit ten
ĠI tal
Ti me
gebir ge
ĠSat tel
W under
Ġb rand
Ġf arben
ĠPat c
C an
rz tin
run ken
u vera
ze ssen
ĠO k
Ġvor u
00 5
A ust
K lassi
ĠZ ell
l ach
an spru
an ia
as ien
ĠVer n
ĠLi nden
ieb ig
nit i
sern e
â Ī
Be arb
T rainer
ĠB at
W eil
st unde
Ġhei sst
itt le
ll n
nb sp
F arb
lab or
ĠR uma
ĠHei de
Ġ10 8
u ÃŁen
ĠW im
q uer
ĠGe ho
Ġ19 71
ĠMan che
ĠKap ita
ÌĪ -
nchen g
ĠMe nt
ĠC la
ungs ge
gr ill
Ġson der
n ker
ĠG ipfel
zeu gs
Ġc ity
G ames
I r
dig te
Ġwe n
EN S
Ġr at
R es
ĠMe dit
ist iken
L ist
z iert
ĠN ow
Ġb unt
wa sch
ĠB rille
Ġver lei
ĠðŁĺī <
ction s
rei z
Ġ19 33
neh me
ĠAM D
V is
ĠH O
bi scho
F lo
ĠT eller
Ġe e
ver lag
ĠTre ff
>Â ·
ĠPatc h
ĠSe gel
! .
ĠG ig
kap ital
Ġor ange
sp ur
Ġex c
M ac
ĠHier zu
ĠE ta
ĠMagn e
ĠM rd
An zahl
or is
tikel s
Ġmet ho
K urs
ĠMa xi
k am
Ġba ye
ĠA y
letz ten
ĠLe op
is ser
I mage
ĠP hant
CH E
ĠSchu fa
je ktive
ĠR ho
ĠPh ysik
hm te
wer s
Web site
ol stadt
ĠBa yer
abi lit
Ġe uren
Mag azin
Ġre par
Ġber ei
Hin weis
sin form
bi lity
ĠSzene n
ge lenk
he e
> .
ungen Nr
ĠSch aum
ĠJ ur
vers um
Ge r
Ġr isk
ĠMa de
ĠE dit
mi scht
Ġfrag te
Ġt ho
ĠP ant
The ater
W ann
i ted
F ried
ll te
se ts
on ien
S ingle
us sten
wid get
ĠG uten
ĠGre y
ĠPro st
ĠK li
Jo hann
ĠC PU
ĠKart on
ation a
la bel
ĠLe ber
mo del
Sch lie
ow ski
. ]
ĠR O
ein tra
b onus
ðŁ ĺ
h d
iz iert
st rand
fa den
d acht
li der
ĠH unger
imm bad
" ;
A ss
ber aus
CD U
hl or
19 9
wri ter
ĠFar bt
e g
f irma
u des
ĠP U
ĠN ick
8 99
ĠJe rsey
Ġb rut
h und
ĠCh ir
ren ce
ati ker
ĠBo b
be am
ĠM AR
Ġf rank
ust om
W olf
ĠGe len
17 0
ĠBas ic
Ġ10 7
ck ung
ĠHe md
Ġsi ze
ber gabe
Ġpart y
kl eine
ss iger
zel lan
Ġkor rig
ĠIma ges
ĠL P
ĠGes ang
ige m
Stu die
Ġent zu
Ġ19 67
ĠVin yl
and ina
A bo
K ommun
merk ung
ĠTe n
teri or
e ro
scha fft
ĠFern be
R hein
Mar tin
Ġb ir
ĠMei len
lei sten
hop a
e le
be zirk
ĠApp lik
b on
ĠSt an
ĠPass ag
ren ten
je nige
hre e
Ġa vail
Ġle ute
ĠS ab
Ġof fer
ĠTa xi
Ġ ol
ang o
hre re
Ġme rkt
Ġe asy
Ġpop ula
Ġi phone
Ġgew inn
fol gend
j amin
B ike
g eist
ild ren
andid at
26 4
ĠW id
Ġan la
e ling
Sch au
ĠG am
ia le
i ntern
ĠB un
Ġbi nnen
ind ungs
ĠE tike
Ġk raft
c hien
ĠBrem s
Ġge burt
ĠCh rom
ĠJ et
ĠBu ches
Ġwar me
Ġz we
Ein ige
Ġge heim
an ti
ze p
ĠP oster
Re c
V R
rieden s
ĠQu ar
ĠB ow
g st
V alue
Ġi gnor
ĠO ran
d og
ĠAd am
: .
ni veau
i P
ali for
nd rom
Ġ19 30
W ien
ĠK rone
ar isch
let tern
atur n
Schu he
las ses
Ġsi tes
Rad io
K lima
ĠP r
H ER
IN T
m w
13 6
blu men
t act
Ġm b
ste tten
d al
bst ahl
Sam sung
d ding
Son der
ĠO stern
ĠH TML
ĠHo w
Ġde ko
G EN
au ten
00 7
ĠSh ort
l ation
li on
b un
ĠE Z
ĠMar cel
so hle
e val
Ge rade
o und
Ġsen si
ĠE asy
St r
":" ","
S hirts
ck el
ĠKe rzen
b ier
ĠSi ze
m ot
L IN
st ruc
ĠC ON
ĠE AN
Ġpro p
ĠSil ver
f assend
h lige
Ġbl ue
Ġmel det
ĠU fer
ĠKon dit
ĠI f
ĠE vol
ĠGe o
An zeige
um n
ĠL TE
nze nd
ru ppe
ment al
ie se
be such
K n
ann i
Hand y
ĠLog i
re ht
Ġc ha
an stalt
j ew
ĠÐ ¾
12 6
Ġsch ar
ĠAc cess
Ġn achts
O kt
Lin ks
ĠRe nov
ĠOut let
Ġp reise
ĠC A
Ġb on
ĠCo sta
ren ds
ĠB GH
ĠO H
Ġk auft
ĠSp itz
ĠZ una
Ġbest mo
Ġsch ei
par ks
o ft
ĠS koda
V ier
ĠMatc h
. âĢĿ<
ĠO VP
A didas
ok ies
ĠS itze
00 2
nn ing
ĠD ES
ap s
R i
ĠLi ppen
Ġk i
Ġli fe
ÃŁ ter
ro st
ĠE P
ĠB oni
ĠAnge la
ĠWie sen
EC T
lis mus
ĠD FB
ĠP on
s g
n ik
as k
â łĢ
ĠMo z
ĠC M
Ġ19 00
-- -
ckne n
ĠS cher
Ġs elt
3 15
Ġlu x
z uma
Ġe nge
hre rin
M eister
ĠB ars
Ġda te
ĠRo ten
kan al
ffel n
adi n
ĠAR D
ĠA spekt
be stell
12 7
â ĺħ
kat alog
ĠFel der
ĠH under
t ot
gehen de
ste te
ĠA ri
ĠW eit
Ġsch ien
Ġe chter
Ġta ge
Ġhe lle
ana ger
Ġ light
ĠE ast
U X
Gel d
ĠV ir
Ġm oney
ĠA ra
sch le
auf lo
ge legt
y es
ĠAuf l
st ange
36 5
att ung
Ġ2 25
zi se
Ġm achst
Ġbo den
zus p
mer ica
p tet
ĠN ap
Ġhohe s
uri n
Po int
fla sche
ro de
ĠMulti f
r fer
Sp ieler
gr unde
Ġzum al
Ġ( ...)
D ia
ten de
bit ion
iche re
Au ÃŁen
ier mark
ĠS ich
L etzter
mie de
ndig te
y k
Ġwo chen
ĠC are
S il
Da zu
P ru
ann over
kre t
se c
Ġw ollt
ST EN
ĠLot to
nummer n
ka de
mo bile
ĠL ar
Ġgew al
pp iche
ĠSpa ren
M ed
H or
fi les
ĠD ouble
Ġpe ople
schla gs
k assen
Ġgeht s
C L
ĠAb itur
s d
ĠEnt zu
ĠRi nge
Ġc olle
00 4
lern te
br ary
13 14
bro t
f ree
ĠKo hl
Ġbef and
ĠLa w
â Ĩ
zei le
b ig
to ber
a ks
Ġse ns
Ġs ommer
ĠC arbon
tikel n
p ly
rei de
R T
n tel
ĠAn reg
li ps
S lo
sta te
Ġd ick
ĠK amp
ĠT rei
ĠD orn
G i
Ġs mart
nd i
ĠKon su
ĠPl atin
ĠQu ell
aus ru
ĠKla pp
ĠF lex
os hi
Ġi d
r be
rei st
uter s
Ein fach
Ġ asi
T unes
ĠH ang
ĠZo om
ĠFel gen
IL D
nder s
ĠHe alth
ĠDau men
Ġi ll
us te
h tern
m iss
ste cker
ĠTh or
e rt
ign al
fallen e
ĠK iefer
arm onie
ur io
Ġr unden
P or
Ġk al
att r
âĢĿ .
z ar
ĠFa sch
ris iko
Ġex peri
ĠRub rik
her n
ol did
Ġe Book
ĠSie he
ali d
ĠMar y
Ġ17 5
ĠC ot
Elekt ro
ĠUl m
Ġfe rner
lam pen
W A
e bel
be c
ĠBon ita
iv a
rn a
2 10
Ġk ol
Ġaus g
Ġlei tet
ĠSar ah
an fang
ĠUr ban
ĠFin al
Ġfu ll
b les
we red
iv als
ĠM ul
ĠHy brid
ĠBre tt
S w
ĠE last
Ġ6 50
fa x
bo dy
H au
ĠHin zu
Ġre la
le hnen
s ungs
mar sch
Ġm inder
da le
ĠU rk
Ġhol t
ĠR he
ĠAn ruf
i os
Ġt her
ST R
ĠRo me
t ras
Ġmit zu
ian a
ĠDSG VO
o or
Ġ; )
ĠPet ra
ĠF uchs
D ra
w itter
ot tes
St unden
ĠSe at
Spe zi
ĠAn ku
P H
ĠF alten
sp ark
Ġex per
Ġru ft
me yer
Ġâľ Ķ
15 16
lager t
Su chen
Ġde luxe
ĠAus zu
ut s
ĠPe n
Ġab ger
ĠTe ufel
Ġde ment
ami lia
ĠTur bo
ĠAb fall
ĠDipl om
ĠS orten
hr i
Ġwar men
ĠMo tive
Ġh ie
ftig te
us se
ĠSee n
H ard
Ġli t
ĠSen at
Er satz
ĠCook ie
ĠHy per
Ġsorg te
ĠChi p
.. ...<
ler anz
ster s
C R
ĠN okia
Ġin du
ĠK alt
ĠLe o
se ssen
ĠE twas
ck gabe
Ġe p
P T
ĠL CD
ãĤ Ļ
ku lt
ori ker
wie s
re lev
ĠKre u
ĠB rig
k reises
ĠS ke
n eue
at hlon
U hr
ĠAc ryl
99 9
ĠSte ue
ĠPan zer
c tive
Ġbe zei
c hor
Ġmo bil
ĠG il
Ġver wei
Ġc ap
ĠFran ci
he ute
ĠVerg nu
ĠHir sch
Ġ19 65
bo w
Ġauf geb
ĠSe a
P u
Ġdi ffe
ĠGewe be
ĠP hotos
st y
ĠD L
su b
siden z
16 8
ĠDI Y
be recht
ĠP ast
14 5
ĠH ack
ĠH ong
vents ka
AR E
ym na
W id
rypto wa
S O
lagen e
ĠF ul
ĠAbend s
l lige
achi nes
d ik
ga me
ĠIr land
Ġaus lo
Ġwe h
Ġkla ren
Ġ lass
19 98
ĠF lan
m ord
Ġst y
row n
ĠE st
ĠGe ni
des heim
S and
ste ig
de ra
ĠFilm s
Ġ12 9
11 3
sch laf
Ġfa i
Gew icht
o h
p ing
sp latt
+ <
ĠN on
ren nung
mp f
ĠKi n
i nte
g lu
K opf
nkt lich
Ġ arm
Ġ19 64
auf lage
P op
Ġf oto
ĠS auber
ĠRo om
Ġzent ra
ĠT renn
ĠAb bild
ĠDe ad
D W
p us
Ġm icro
ck blick
zu gt
sta v
o ting
Ġ19 66
ER T
dig ungs
15 9
renc h
ĠF ahren
fe der
Ġbe zahl
ĠFa ktor
ĠFi x
ĠL et
deck el
e f
ĠDu o
ĠK abine
Part y
y outube
Ġfa ir
pul ver
p y
nach la
wa ffen
ĠAd d
no ten
k eine
rk ische
ĠHD MI
v c
as ser
l on
ĠD AS
Sie g
AN N
Ġ att
Ġcle an
ĠC os
lo tte
Kon to
Ġd at
Ġmerk ur
Ġdunk le
/ ?
ri te
ĠNe g
ge ss
ĠT otal
ĠAu stra
B io
Jo se
ĠB ast
F ragen
ko se
ĠG host
blau c
tel s
V iew
Ġmo der
J ahre
zen te
G re
ĠD ance
Ġma le
p on
Ġgen ial
N ET
daf one
ĠSu pp
OL L
ĠSa men
Ġ19 39
ko st
fohlen e
Ġa fter
as p
v iert
F I
og ar
t ritt
ĠD ritt
ĠTa fel
ĠG reg
Ġsta bi
C A
Ġi l
ĠLu kas
lich ter
lan den
AN K
Ġfor um
12 1
bil den
Ġl ong
Po wer
ah ler
ĠB ucht
le hne
ĠTra il
ĠT ypen
Ġbe auft
7 50
Ġdein es
c htern
tro llen
jo urn
ĠLee r
Ġdem on
D ort
C ity
ht m
ĠNe xt
ĠE cken
Ġg aben
ĠI ta
ĠBe fu
ĠMu seen
ĠWei le
Pf lege
ĠSo wohl
ĠR ace
ĠBi na
ge fasst
ĠDe fen
Ġ !!!
jo y
ci n
s reg
ĠPo ke
Z T
Ġad min
M M
Sa ison
ntag s
ĠS GB
ĠRot h
ĠF raue
Rei he
ut ure
V W
uge ot
dem ie
ti pp
ĠRis ik
ĠMik row
Ġbe lo
rag ten
22 8
ĠSy nc
Ġr unde
ĠPf ei
z ucker
ita te
ĠTa lent
ungs ort
Ma ils
ĠOr gel
ĠZei len
ĠS SD
ĠSE O
ĠH A
pro blem
p ziger
ĠSto ÃŁ
h stens
ĠCha os
ĠPoten z
ju gend
ĠA US
ĠF lip
ĠT rauer
ĠKon g
20 4
seque nt
ĠS ocken
B aum
ĠHa hn
Ġge la
act ory
ĠIn fe
blauc h
Ġm illi
Ġg latt
ĠTi ger
ber arb
Or ganis
sul ting
g ab
wei ss
Ġka bel
ĠAc adem
ĠRe sult
ic kte
Ġ12 7
ĠOli ve
ON E
?? ?<
og o
p latt
spiel s
I nn
ĠHe rt
me ta
stron g
ĠB U
te ct
ĠPrin z
n on
ĠNet to
Ġmo di
Ġ2 28
Te le
ĠRa de
Ġje mals
ĠEx cel
ĠRo te
Ġd ia
T ickets
ĠFil men
ĠS ir
wal de
Al tern
i ble
ĠF ly
ĠMod us
ĠVer mut
Be rat
ĠSol o
amp le
ig ungs
Al bum
ĠAr me
Ġge rman
ĠW ach
App le
Ġret urn
T W
âĢĶ âĢĶ
ti fic
r chten
ĠDo ktor
sse lt
ro ler
hyth mus
13 9
ĠHand ys
Ġk ommer
ho sp
Ġr is
Ġc olor
Ġ19 38
re gung
ilo ten
E mp
Ġ ass
Z Z
Ġe ven
ĠR TL
ĠK FZ
E ndet
dakte ur
B eh
ĠRe port
rtne r
] ,"
ĠL ag
zi a
win gend
ĠA z
ĠAr mut
e re
stie gen
or ia
s eit
ĠN ieren
be st
Ġwir ft
wach s
wand ten
lee ce
H ans
st ant
âĢ² âĢ²
m asse
bo xen
Ðµ ÑĢ
rk is
z onen
St G
sie d
ĠJako b
z ing
19 0
ĠÐ º
j n
tel ier
ĠE G
un ken
ĠRo d
ĠCo ol
Ġs ale
Ġ3 65
C up
ĠW ahlen
ĠPe ru
ĠW oll
ann tes
Ġf lei
! âĢľ<
train e
ĠFA Q
Re d
Ġsch arf
kir c
l ack
ĠE benen
m ien
ĠS mith
ĠVi ren
ĠC lient
Mo bile
> \
ĠHa ppy
L oc
and t
ber flu
re cher
mel der
Ġsp rich
omm y
Ġwie s
ĠLogi n
F an
E ben
Ġsie hst
ber leg
ats App
O p
que st
ĠSy nthe
rum pf
ĠGe lenk
w unden
d isk
st ig
ĠLie gen
Ġlei se
hel fer
Ġm ac
Ġt ie
ĠI den
kti sch
Ġer na
gewe be
ng ang
el low
R el
Ġp ark
ĠD U
S ow
hau be
Ġr utsch
ĠMan u
ĠSol che
ari at
Ġc han
voll sta
ĠCom ic
pe nsion
20 5
li tter
og n
Ġwie so
hir l
ze rt
urc es
ĠR acing
20 9
01 6
Ġâ ĺ
Ġâ Ļ¥
ĠBo hr
áĦ ĭáħ
ra dio
ĠI ron
Ġc hi
ĠW eine
ĠB ienen
Ġver me
ben de
Ġbe re
BO OK
he rer
Ġauf z
ĠYo ung
Fe uer
CH T
ĠEin mal
be cher
az it
ĠJ ury
ĠW elle
T om
ant rieb
re am
Ñ ĸ
r digen
ĠAus sen
ĠHar z
Ġauf tau
S ki
gt h
hi re
Ŀ ¤
ĠBe ha
tel y
ĠG allen
r bar
k ologie
ĠZ R
ĠVf L
ĠM C
Ġview s
G alaxy
ĠAB S
Ġis lam
ĠP atent
W W
vol ta
ĠCre dit
Z oll
nst ra
ĠH inder
14 4
V ID
x l
ĠE ish
ĠFo und
ĠAb teil
mo tiv
ĠG S
ist i
ĠK ita
Ġge ru
me dium
ĠDon ald
ĠTre ppe
ĠW et
ĠR olf
Ġd on
ĠTec h
kon zern
s heim
ein g
ut o
Ġp hy
ber legt
An lage
ĠAro ma
ĠF ass
do sen
Ġ( -
Ġgen ehm
L andes
f d
Ġdem na
ĠCamp us
ĠGed uld
ic les
Ġge tro
te lefon
ber fu
Bu chen
' )
c hstens
v il
gor it
ro y
bro chen
ĠO ze
Ġso oo
Ġun u
ĠMer c
F K
ĠBis her
c omm
lo h
ben den
Ġul tim
n liches
Ġwa y
ĠMiche l
ĠLa une
rf nis
om on
G las
F eh
Ġ19 40
ĠMarc h
ĠSie gen
ĠT ragen
ĠAb sol
ĠP lo
r assen
ĠP VC
mo dule
ko ho
13 1
Ġte am
ĠW olle
ĠEro tik
Ġp ic
ĠBook s
Ġli tt
W ett
ho ven
po ten
ĠWel ten
13 4
o sten
ĠBe que
hi nter
b lin
Ġein zig
ĠT han
ĠPlan et
Me ta
ĠAuft ra
D is
ĠâĤ¬ /
ĠGesch w
Ġ15 5
Ste uer
o hnung
ĠN ICHT
ĠBe hi
Ġfu ÃŁ
ĠTi p
ĠB j
sp ring
ĠPa ypal
lte sten
or ing
A uft
he rapie
stin e
Ġis ol
re gt
Aug ust
Ġbrau c
Ġste tig
Ġse nken
ĠAn sa
st all
fe tt
rt lich
ĠKn ei
Ġst ock
V ideos
Vol ks
ĠVene n
), <
ĠBisch o
h auer
plane r
ĠVer sam
Ï ģ
c ted
tw ickel
ok ie
li ance
M anager
Ġge lei
sch un
O O
Ġsch lag
ĠG U
amp oo
Ġv alue
Ġn ight
Ġverk nu
Ġk omm
othe ker
bi nder
rz ung
Ġ9 25
Ġh ist
setz bar
z ucht
Ġbrauc h
ĠHon or
m mel
ĠF ace
zesse s
ĠEr ster
K V
ĠSo w
Ġ19 63
Ġ14 5
re spon
su la
ina le
Ġw il
Ġ19 61
Ġme dia
ve ro
rie t
T ier
ti le
K ra
6 50
Q uer
Ġsch ra
wer tet
pin e
Ġh under
ĠGe ben
len de
ĠRen e
nd iges
Ġbun ten
C ard
Le der
Ġc ommun
C ommun
Ġganze s
n licher
Ġsch l
y on
ĠT iefen
ve t
ĠE ye
g bare
rum s
Ġso viel
ĠMor itz
Ġindi re
16 9
ĠAr cha
bau ung
mat c
ĠRo ss
sc e
13 3
Ġer leb
kauf te
tc h
Ã ¦
fi ngen
ĠZ wer
ac tive
Ġg rat
geb ie
Ġne ugie
AL E
ĠZer sto
ĠSa les
ĠM os
G leich
teri als
Fe ed
ĠT unnel
Ġle der
ag te
Ġun ent
w all
aut or
b c
ver spre
hl y
am as
Le sen
ĠL ew
weite re
22 1
Ġor ig
P l
j k
un ts
part y
kt ar
" ><
ĠAf ghan
ku lture
ffen den
an ders
ĠHau stu
ĠL isa
ĠB ald
IT A
ĠC SU
Ġw hite
17 5
Ġlu ft
B W
ĠJes u
li tten
Ġvon ein
Ġteil t
Ġt rug
); <
Ġd an
ĠPul ver
ĠFi nde
ĠO T
ungs ab
p op
a v
ĠAb hol
Ġein be
Zu dem
ĠT ype
men sch
No te
sel bst
Ġent sch
sco unt
C ha
13 7
28 0
oli s
ĠSp rit
ren de
ris ur
m eine
gel b
ĠL uther
osk op
ĠN AT
ĠSch los
Ġye ars
N i
g renzen
Ġ19 44
Ġj et
k lag
ĠStre am
hren der
dig ten
15 6
ĠSt ri
ce n
R C
Ġruhi ge
R icht
ĠCin e
ĠMi ke
ĠEr ich
wer be
ĠB ER
ĠRe mo
D D
15 5
man dem
01 9
ĠNor m
Ġum st
ĠC ry
ĠVe get
ra chte
ring s
Ġbei des
Ne xt
qu art
ĠCo upe
ĠG or
ĠG umm
ĠT rick
ĠKon j
Ġtra fen
ste st
S ollte
usto mer
13 8
d c
14 6
ĠE conom
p ri
ĠS zen
Ġ19 62
g lei
ĠVor her
He y
lte ste
. (
US B
ta ler
16 5
S tein
sie g
ĠMES Z
ĠNa vy
Ġwei hn
ro und
Ġu sed
b org
n au
ĠT A
B U
ĠE sc
ys ikali
ST E
I KE
v re
matc h
lei hung
cht igt
sp ace
x it
Ġge holt
ĠFin an
E lement
12 2
rie be
ĠSe arch
I ES
ĠB os
ĠPal ace
ĠAut om
schu b
Tec h
ĠG ift
o uml
Ġ5 50
ĠAb o
and y
Ġh omo
E nde
vis ions
14 8
ufi gen
P RO
Me nu
Ġe last
G lo
peri ode
ator s
chen der
ĠRo bin
D ank
ĠDe als
ĠAqu a
ĠPort o
D eine
m auer
ĠBur gen
25 5
ĠPri ma
ĠZe nti
ter mine
ĠGe da
ĠFi at
ĠHen ry
plan t
Ġew ig
b aut
ĠFuÃŁ ga
ĠF arm
sk raft
ĠLu zern
ren den
Ob wohl
Schn itt
h eight
Ġt iefen
Ġme ss
ĠFahr ra
iki ni
C ol
ĠHa st
F irmen
Ġge sta
ĠPer fe
mp o
M G
Ġsp ar
j ust
ĠHan se
fig uren
r dige
uc ci
li us
ppi n
ss itu
Schwei z
ol as
ori da
ĠAn scha
D el
Ġ4 000
ĠH us
ĠG ala
ĠP sychi
ĠSchul z
j ahren
zehn te
re rn
Ġpa ypal
Ġar ab
ungs aus
ge sehen
Ġ: -
ĠEin flu
b undes
ĠP aten
ĠP riv
hr ig
Ġ$ (
Ġfl ach
le se
Ġj unger
s v
Ġ19 49
ĠU E
Ù Ĭ
W ahl
ĠBlu se
ĠRe nte
B ur
Ġpro mo
J ob
uÃŁe rt
jekt s
ĠHar ald
ET A
Ġver wir
ĠS IE
ir ca
ĠVa ters
Ġle gal
Ð½ Ð¸
Ġs ymbo
Ġ( âĢł
ble c
k au
Bo den
A me
ĠAd ler
nt on
Ġf ung
ĠVi sta
âłĢ âłĢ
be la
O f
re k
Ġblaue n
irr spu
** *
Ġs ha
C OM
ĠCh rome
Ġku lin
ĠF rise
ĠErwer b
Ġli mit
ous i
ck liche
klus iv
20 8
S UNG
ĠP hot
Ġw ahl
ĠG Hz
Fil ter
kirc h
ĠR ank
Ġk alten
board s
am me
ĠEr ic
le hnung
e ur
Ġa rea
th ik
ĠSe xy
ĠPro tag
or ry
f liegen
ĠB ah
ĠS B
ĠRo st
ĠM eist
00 6
con fig
x te
Zus a
ĠO m
Ġ om
ĠTe sta
traine r
r tigen
Ġg l
B it
ĠMe hl
ĠE tagen
In fos
date ien
res den
ĠGo ethe
ĠK ab
ĠLin ke
Ġsig ni
t it
lie fe
K amera
ĠR ande
am aha
wo hner
sp anne
aus weis
An wend
Ġg mbh
de cker
ot to
it ing
las ten
Ġse xy
ĠP s
15 7
Ġw omit
ĠTo de
ok uss
18 19
Ġgo ogle
ĠBe fehl
ĠTa i
25 2
lis hed
Ġbi o
u ses
ĠD rive
Ġm athe
el la
ousi n
20 6
ĠI ce
ĠP for
bs eite
Ġes s
ĠLi te
Ġc ho
ĠG O
ĠEind ru
w ords
ĠZ ins
Ġn omin
ns tern
le hr
ĠHor ror
log o
ĠD icht
Ġ12 4
eim ar
ĠPil ot
c an
k W
Ġp ul
terne r
v iele
ĠA Z
Ġzweie r
15 8
ĠTit an
ric a
Ġj ack
ĠSte reo
ammer n
z zo
ant on
20 21
nd l
gebot s
br unnen
Al ter
st urz
ĠM etz
ĠArt s
Ter min
lass ik
u lieren
20 2
ĠBy tes
ĠN ass
tion s
ĠAn kauf
ba rem
bie s
Ġsp ir
ĠL O
ĠGra ph
go ogle
D O
nd chen
E d
ĠH TC
ĠSe hen
Ġre cher
ĠNeu se
ung sp
ĠMar ina
deck te
ein halb
rans fer
ĠB H
ĠQu ick
19 97
eits los
ĠCent re
ĠS lee
mp ro
ĠCo uch
G P
ĠAs ics
Ġvor la
ĠS mo
c ord
ĠUn s
ĠAl len
Ġe hr
Ġsa hen
sc on
Ġla gen
ĠC irc
F M
f ranken
kl am
Ġ19 56
nis h
Ġin iti
den es
ĠAn der
f liesen
d iert
St yle
ko rea
e vent
C ent
ĠSt op
ĠF aust
ĠG ren
p ler
bal ler
ĠNeu ig
ĠP hone
Ġi Tunes
ĠB lech
ĠBu che
ĠP un
chi n
ĠO cean
el o
Ġn utze
ĠÐ ´
blec h
K la
14 7
te ll
t sch
Ben achr
Ġer arb
Ġw here
ĠDe bu
C T
Ġ--- -
ĠKok os
lexe n
ĠPa per
id as
ĠAb gabe
ĠA rab
dre hen
ĠRei z
e um
ĠVol ker
ĠA fter
po stet
rei fe
g ur
ĠK um
z da
ĠZi n
ĠHu awei
ĠSch ad
ĠEr lo
K B
or dina
pe nden
ĠBo xen
Ġp au
bern e
R S
Ġf ett
ĠBu da
19 96
p hen
vance d
K olle
Ġh arte
ĠS har
ps yc
Î ·
Ġbet rug
ic ation
b leiben
Ġ12 2
G V
ran nt
ĠAb wick
Jo hn
ĠI hn
ĠL ord
Ġs eite
f ari
Bu y
ko cher
Z eitung
Wi n
Me rk
ĠMar ti
ĠW at
iss an
Log o
Ġc onne
ĠC ree
i den
Ġ} ,
ĠSing ap
mod ul
M il
W ol
Ġbei der
ĠZ U
ĠW itten
Ġge samt
mi ni
dei n
P et
Ba yern
one nt
op her
he ma
he ater
F azit
pert y
ĠA grar
sche m
p rint
B rand
Ġan th
25 6
ĠDVD s
ĠAr c
OS S
ac io
Ġder art
E A
s wertes
ĠP okal
f alten
Ġman y
ĠSwe ats
i nc
G U
. Â»
p ots
Ġp an
ĠZe hn
Ġ2 80
as si
19 5
sk op
ffne r
ĠSw itch
Ġmar ke
ĠG od
ĠSha re
Ġko pf
ĠSti rn
ĠM is
Ġwer det
ko hle
Ei nsatz
Ġsi ngen
de al
nnte st
ĠS ummer
ĠF rom
g ei
Ġs he
mat ten
ĠImp ul
andina v
ĠRo y
Ġmed ika
Ġ14 9
vi der
' ;
Mo bil
f ters
ousin e
Ġr un
ĠP utz
ste cken
ss ische
hr det
Ġab onn
hab ung
Ġ19 59
Ġs and
net te
y na
ĠK L
Ġle bte
sser n
ĠEin es
Ġstren g
j ung
Ġbun te
le a
16 6
ĠV iet
ku gel
ar at
re x
ami no
ĠWe ste
e Bay
ĠN S
W G
ĠFor ce
k ranken
Ġsp i
Ġche ck
ĠP fo
spa ÃŁ
g ard
Ġ19 58
ĠJun e
W al
Ġ{ "
f um
ĠBe utel
Ġda ys
ĠZ igare
Ġe mail
Ġre ally
ĠE mi
ĠMann es
inst all
gen ehm
ĠD ri
ĠC art
Ġange ho
. âĢĿ
bruar y
Ġau gen
ren te
Ù ħ
h ielt
Eint rag
ĠHi p
Ġwe m
t urm
v m
ĠDa von
ge schu
ĠDe c
ic on
i que
Lo ok
Ð¾ ÑĢ
20 7
OC US
ĠMa kler
Ġ10 80
ĠEx c
ĠBu sch
Ġlei ten
is m
me ga
Bet rieb
ĠA dobe
r ash
ec raft
ĠL IN
rau f
ĠNe ut
Wor ld
Fern seh
ss ler
! "<
ĠStra ft
01 8
ĠDar um
> :
li des
Ġal tes
ĠT C
Ġ13 9
P P
e der
~ ~
hei de
Ġ19 55
ĠJo e
att o
Ġan onym
si gen
ĠEx trem
Ġp ie
S itz
icher te
rn ten
Ġb acken
re chten
bt heit
ve y
lin s
00 9
ĠEl f
Ma ÃŁe
ĠD ick
ĠDra ma
gro up
all tag
L ok
Ġein ig
or al
n atur
pe tent
Ġwe tter
w ol
Ne uer
g ger
M EN
hen ver
R ab
f un
ĠDe vi
m ter
ĠE T
A f
ko ffer
iss ance
30 5
M aster
ce mber
Ver ein
ĠGre at
ĠDre am
":[ "
oli a
Ġn at
17 6
J ahres
Mo del
so urce
Ġee n
F ort
ĠHy pert
Ġpo tent
p han
ĠPl ace
ĠHe m
ĠB aus
Y S
volta ik
Ġmet al
p ic
ĠX e
IT Z
Ġsp art
ver leih
Ġ ach
ti a
k lima
ĠTi mes
ĠL ig
ĠA sp
ĠLe rne
Ġha ar
ckt ritt
schul d
Ġp ink
s l
Na ja
ĠX X
ĠH ing
ĠE co
ĠAe ro
fel den
at rie
ĠSp on
Ġau stra
j agd
C hr
f uer
ha ken
ĠLa yout
Des halb
Ġm ind
fin e
a ir
Ġf assen
19 95
I tem
ĠH im
Ġ Ø
au fent
ĠNa del
Ġf einen
Met ho
Ġ19 57
K ol
4 04
00 8
ĠN acken
Ġ19 48
ĠHo stel
ĠB alle
ffe kte
lei den
h unde
li um
Ġne xt
Ġm uch
si an
pro ben
bin e
ĠAc ker
ance r
Ġf A
beding t
Ġlin ke
ĠBe satz
ĠB ell
ĠB illi
ĠRa y
oc ol
ÃŁe rn
ĠF ocus
Ġn i
Ġl ocke
Ġ16 5
S ysteme
p arte
ĠSee len
Ñ Ĩ
und s
an aly
freie r
Kl eine
ĠW alt
ĠR aten
Kre dit
b sch
P aul
h sen
nn ame
ĠKon rad
rik as
ĠMag ie
kti sche
Ġbe ta
t ure
ĠPha sen
ĠAc tive
17 9
ĠB uc
hn chen
ĠWei c
W ald
cke rn
h us
ĠTei c
ĠGir ls
Ġall ta
C le
sa le
laue r
mas ke
pa per
u age
] :
ĠSp or
Ġ12 6
Ġim age
utt gar
Ġ= =
ĠCab rio
B ir
ĠRo uten
ung ser
ĠEin zug
c lick
ĠZei chn
For ce
lei ÃŁ
Ste fan
Ġe ndete
ĠHo sp
Ġfreie r
ĠDire ct
ĠOn ly
f alle
; &
ange ho
ĠE hre
tel t
Ï ĥ
wi nger
Ġta gs
Ġein zus
ĠW itt
ĠRo uter
dis zip
Ġauf bew
Ġne m
or fer
dti rol
kel ler
la h
Ġk li
Ġw itz
ĠF alt
ĠT S
ĠL ittle
ĠN ylon
ĠUn fa
L au
uss ball
. Â«<
Ġfre u
& &
Ñģ Ðº
Wa ren
nn chen
c ing
30 6
ad resse
Ġan dern
aste ll
ĠWohl fu
ĠH ass
Sc hl
bene r
Ġ- ----
ĠInne re
f elt
Ĺ ı
ĠVer ba
ĠWil hel
Dar u
val ue
Ġdie nte
I t
ĠTo yota
d dy
so weit
kommen e
be ton
lan ten
ĠJ ap
la v
brem se
ĠSt ol
steine n
EM A
ĠAt hen
t ier
ĠKind le
" },"
einig t
Dig ital
ĠTe nden
lei te
andel n
ĠB I
zelne r
ĠAb ku
po le
kon g
19 6
o len
pf alz
b om
ĠK r
lis iert
an trag
K rise
Ġc al
ĠTe s
r tige
ĠZ ier
Ġg riff
ar ly
Ġme r
ĠZ E
f ell
ĠFI FA
F U
UL L
nder ten
che rei
Ġmet all
30 4
dero be
dire kt
ĠT olle
M itte
ĠAk kus
onnen e
ng ung
al bum
le ction
ger ie
ĠK lagen
ĠCh arm
ac a
01 4
ĠOffen e
ĠB lin
ĠS IM
op athie
ĠKe vin
k k
ĠAn at
ap pe
ĠK ot
ad ing
ĠC S
i ni
ĠTex as
f lex
ason ic
ĠW itz
w s
g le
xt rem
alen der
ĠJ acken
ei gung
D M
fli x
Ġ reise
ĠAn lauf
ĠUm ha
men z
fi nger
v ard
li zi
Ġg ucken
ĠBege gn
Ġre view
steine r
ĠLi ving
a mer
ĠM T
al les
Ġlange m
da illen
R ing
Ġso for
n l
N G
ĠOr dn
Ġgro b
zur u
15 4
ĠI G
Ġba den
Muse um
Ð° ÑĤ
d deut
lic y
ĠWer der
Sp ra
Ġ raum
son n
ber zeug
ĠE hr
ĠFer r
ĠTra de
tra gt
lad ungs
t hen
ance n
gu ment
Ð¾Ð ¼
Ġ- ,
ber fla
Ġmus ter
ĠHon da
lt st
ĠR iv
B lo
Ġ !!
ll ten
l sch
ĠV amp
ĠUn be
P au
ti se
st ars
ĠSo urce
ĠIn z
Ġk reie
ĠDe te
Ġberu ht
t hi
ĠCol um
st ing
Ġ old
han sa
uten de
ĠSh orts
ve re
ĠZ one
sat zes
ĠLo u
B reite
Z i
ĠT B
E K
z heim
ĠSel ten
un us
ĠE po
vi o
Ġein her
Ġlei d
ĠOx ford
ĠGeb ir
Ġ19 52
D U
ĠNi n
Ġhol te
ĠS ack
19 8
3 40
Ġj ahren
Ġse r
ĠSo fern
Ġben e
St rom
ĠT T
ĠFamil y
ag ing
ĠHam m
P hili
ĠLau ra
ĠMo dule
Ġst ress
Ġ ten
ĠN ano
u an
18 5
F ranzo
utz ten
D ir
nd t
Ġk B
teil ten
ĠAn ime
Ġf eier
Ġt ur
OR E
Ð½ Ð¾
ĠC orne
stra hl
ĠA zu
Ġp ack
rie men
ĠC lip
Ġwar nt
on der
d ring
rm t
k och
ĠKa der
he t
ĠJ i
Ġn am
Wer bung
Ġ* *
r cher
ro ma
im ieren
ewe gung
u ble
ĠHy dro
ĠPfar r
ĠT il
Ġbe fore
e rge
ĠB Y
v illon
p ts
op ter
... ]
ĠVi agra
Ġge fe
ĠK arin
Ġauf ho
ligen te
Pro zess
chte te
nd ar
Ġ rief
ĠVer zo
Ġpo ol
Ġv ierte
Ġe urer
ĠA gent
i nner
ac c
Ġan na
ĠDi vi
ĠAus u
Ġwei che
ĠB ond
Ġpo wer
Ver s
ĠBr uno
15 2
raue rei
no vo
ĠGe ht
Ġsch lug
B raun
ĠBur ger
Ġthe se
ĠBl ues
at sch
Ġn umber
IN S
ĠSch ott
La bels
ĠL ucky
ĠG on
wel ten
fi ff
ĠPe e
Ġpo int
len te
ĠL einen
ĠP uzzle
: "
ĠSeni or
um pf
p rinzip
13 2
ĠC lubs
n berg
Ġâ ŀ
ĠWer ken
ble men
amin at
ĠBe mu
ĠC lin
ĠJ ew
And reas
ĠK rau
os serie
Ġgew alt
azin e
ĠTex ten
ĠRe lev
ĠJ ag
ungs stu
ĠK ei
spor ter
Ge ben
ĠLo bby
ĠHe u
IE GEL
he md
di scher
uc ke
din and
p os
ver ter
ram t
r bis
k orn
Ġko st
ĠG itter
Ġsi nken
Ġsti rbt
ilder t
ĠSand ra
Ġ `
Ġ ordn
ge fahr
Ġ19 53
Ġbe la
ĠM AN
Fil me
Ġhum an
ĠSp rac
Ġ19 54
Ġthe mat
ĠT L
v illa
Ġge ha
ĠZa un
n us
Ġ+ +
t tet
c dn
Ġbef ind
ĠA xel
Ġun klar
ĠW etten
Ġan z
Ġc lub
ight s
ag s
mo ve
Ġ19 46
si ge
Ġci alis
mon at
ĠBand s
Ġ ).
a sche
h ungs
zi o
Be rn
ike rn
Ġf arbe
mo ment
he bel
lo ve
ĠC rew
ot te
ĠKle be
Ġfo und
g liches
ĠAn alog
ĠNeck ar
system s
B utton
ĠForm ul
ĠG elt
ĠK anten
v b
fe ucht
Der zeit
at ta
ĠL ungen
Ġan sa
ĠP H
B rief
ĠK orn
ĠSk ulpt
14 3
Ġwei ÃŁt
ĠSte am
Ġqu ad
ĠT asse
Ġro b
Ġbew o
art icle
Ġe nde
dy l
Ġwo hnt
ĠPan to
ÃŁ iger
bl ack
si um
sehene n
hi le
ĠWur zel
wiesen e
k abine
Ġto ur
Ġge son
je r
ĠNa sen
Ġte ure
Mar ken
eh ren
>â ĸ
N ov
da tei
ĠS ort
O X
ĠM EZ
hi stor
ĠUn ge
ĠD ow
16 7
ĠA ur
ĠJ ar
los ung
ĠSch ale
ĠI rak
or gan
ĠPro fit
17 7
Ġbede ut
Î ¼
ĠZ ip
ĠWer ten
Ġc u
K raft
F ast
hne e
k rei
Ġac cess
Sch lu
Ġ14 4
tel la
ĠImp ort
l la
ĠO ri
G ol
R om
Ġ19 5
ĠUn bek
Ġt ri
ĠO pern
M X
ĠEin ge
ĠPro ben
25 26
s hof
J ack
v s
z ien
B il
ĠVe nt
ĠMon ika
da ys
AU F
i nsel
Gen au
Ġc ard
ĠRef lex
ĠS yste
rei hen
ok raten
nitten e
Ġk olle
ĠJul y
he ssen
Ġre spon
ĠSo weit
o ve
Ġunter m
k raut
ĠSie ge
K rie
ab is
Ġer r
bischo f
Ġlan den
Ġu k
sche chi
ĠGegen u
Ï ħ
Wo chen
H ow
g ler
sk ra
ĠB ock
ĠEr zieh
vers uch
lie bt
Ġli la
Con tent
ĠS ue
Hal b
17 8
Ġst ore
ĠC lan
26 0
ĠSp ruch
ĠPf ad
n eum
IN I
ĠI ris
ĠKri mi
22 6
o pe
Ġpra xis
23 9
bo hrer
Ġv a
22 2
ĠC hin
ĠP ac
Ġer for
l ligen
18 9
ammen ha
ach se
16 4
stra hlt
sel len
g ungs
s ich
Ġ$(' #
B illig
m chen
wie se
ĠPier re
ĠP A
Ġw al
Ġab gen
f ans
19 94
ĠAd olf
Ġv ie
b rillen
ĠMan uel
frei ung
B EN
O liver
Ġ24 6
ĠHil f
ĠReg ul
mon tage
ĠGu stav
yl or
Er folg
ĠD ut
ĠR utsch
Ġg eil
u alis
ssel ung
ĠHe a
w ich
22 9
G ame
Ġw ant
Ġstra f
Ġz immer
ĠGar n
D N
Mar ia
zimmer n
ĠB ridge
ĠLi ppe
anc y
ĠCh am
mer ken
bir n
S ilber
Ġ19 41
ang abe
Ġcoo le
ste ten
B r
Ġg ei
24 7
unkt ur
Be richt
ĠBo y
